{"<|endoftext|>":0,"!":1,"#":2,"$":3,"%":4,"&":5,"'":6,"(":7,")":8,"*":9,"+":10,",":11,"-":12,".":13,"/":14,"0":15,"1":16,"2":17,"3":18,"4":19,"5":20,"6":21,"7":22,"8":23,"9":24,":":25,";":26,"=":27,"?":28,"\\":29,"`":30,"a":31,"b":32,"c":33,"d":34,"e":35,"f":36,"g":37,"h":38,"i":39,"j":40,"k":41,"l":42,"m":43,"n":44,"o":45,"p":46,"q":47,"r":48,"s":49,"t":50,"u":51,"v":52,"w":53,"x":54,"y":55,"z":56,"¡":57,"¢":58,"£":59,"¦":60,"§":61,"¨":62,"©":63,"¯":64,"±":65,"³":66,"´":67,"¶":68,"»":69,"¼":70,"Â":71,"Ã":72,"Ġ":73,"ł":74,"Ń":75,"Ġt":76,"Ġa":77,"in":78,"he":79,"Ġs":80,"re":81,"Ġ.":82,"Ġo":83,"er":84,"it":85,"Ġthe":86,"Ġ,":87,"Ġf":88,"is":89,"en":90,"Ġm":91,"at":92,"Ġb":93,"Ġc":94,"Ġw":95,"ing":96,"es":97,"nd":98,"or":99,"on":100,"ou":101,"Ġp":102,"Ġof":103,"an":104,"Ġd":105,"ar":106,"Ġand":107,"al":108,"Ġth":109,"ly":110,"Ġh":111,"le":112,"ic":113,"Ġto":114,"Ġ'":115,"Ġin":116,"ed":117,"il":118,"Ġl":119,"om":120,"Ġn":121,"st":122,"Ġit":123,"Ġe":124,"Ġg":125,"Ġis":126,"ut":127,"ct":128,"el":129,"Ġmo":130,"ent":131,"ion":132,"as":133,"ot":134,"ve":135,"Ġthat":136,"Ġst":137,"im":138,"Ġbe":139,"vi":140,"Ġre":141,"ra":142,"Ġu":143,"gh":144,"the":145,"ver":146,"ro":147,"ul":148,"ch":149,"ce":150,"Ġfil":151,"Ġon":152,"Ġan":153,"et":154,"Ġfilm":155,"Ġy":156,"Ġas":157,"ith":158,"ri":159,"ke":160,"ol":161,"ay":162,"ow":163,"ad":164,"Ġfor":165,"Ġwith":166,"vie":167,"se":168,"ess":169,"Ġbut":170,"Ġwh":171,"oo":172,"Ġyou":173,"Ġsu":174,"ir":175,"Ġcom":176,"id":177,"if":178,"Ġits":179,"Ġch":180,"Ġmovie":181,"th":182,"am":183,"Ġal":184,"ers":185,"Ġhe":186,"ab":187,"un":188,"ill":189,"Ġj":190,"ag":191,"um":192,"Ġse":193,"ck":194,"ght":195,"ous":196,"..":197,"em":198,"Ġen":199,"ur":200,"Ġint":201,"Ġthis":202,"Ġli":203,"Ġex":204,"ak":205,"out":206,"ld":207,"ist":208,"Ġsh":209,"qu":210,"rom":211,"Ġab":212,"Ġnot":213,"Ġha":214,"ation":215,"Ġdo":216,"ant":217,"Ġde":218,"ally":219,"ive":220,"est":221,"'t":222,"Ġun":223,"ire":224,"ure":225,"Ġne":226,"Ġsc":227,"Ġcon":228,"ain":229,"ast":230,"art":231,"pe":232,"Ġ-":233,"ell":234,"Ġat":235,"Ġwor":236,"Ġk":237,"ate":238,"ity":239,"Ġso":240,"act":241,"ough":242,"ig":243,"Ġby":244,"ory":245,"us":246,"ust":247,"ap":248,"able":249,"for":250,"ood":251,"Ġare":252,"Ġchar":253,"and":254,"Ġpro":255,"Ġr":256,"Ġ--":257,"Ġabout":258,"Ġmore":259,"Ġthan":260,"Ġhas":261,"Ġall":262,"Ġlike":263,"Ġsom":264,"op":265,"Ġpl":266,"ould":267,"ful":268,"Ġact":269,"Ġone":270,"ight":271,"Ġfrom":272,"one":273,"Ġfe":274,"ud":275,"ind":276,"ven":277,"Ġhave":278,"ere":279,"ter":280,"her":281,"very":282,"Ġle":283,"Ġhis":284,"Ġpre":285,"ge":286,"os":287,"ff":288,"Ġv":289,"Ġ...":290,"all":291,"Ġwho":292,"Ġsp":293,"ard":294,"Ġper":295,"Ġor":296,"ack":297,"pt":298,"ial":299,"Ġim":300,"Ġcl":301,"Ġstory":302,"ong":303,"ect":304,"itt":305,"ie":306,"pl":307,"hing":308,"Ġ`":309,"irect":310,"pp":311,"Ġcharact":312,"Ġout":313,"ime":314,"ake":315,"res":316,"end":317,"ence":318,"ble":319,"man":320,"Ġfun":321,"Ġ)":322,"Ġman":323,"ious":324,"Ġam":325,"ces":326,"Ġqu":327,"ort":328,"Ġtr":329,"Ġlo":330,"ick":331,"ies":332,"ine":333,"de":334,"ict":335,"Ġno":336,"ram":337,"ert":338,"are":339,"Ġup":340,"ves":341,"reat":342,"ther":343,"Ġar":344,"ook":345,"Ġwe":346,"ac":347,"og":348,"Ġi":349,"Ġfl":350,"Ġtoo":351,"per":352,"ich":353,"Ġmost":354,"edy":355,"au":356,"Ġinto":357,"our":358,"ary":359,"Ġjust":360,"Ġthr":361,"Ġwill":362,"Ġad":363,"Ġgood":364,"Ġdirect":365,"ite":366,"od":367,"Ġsome":368,"ore":369,"com":370,"Ġany":371,"we":372,"Ġmu":373,"Ġcomp":374,"ile":375,"Ġdoes":376,"Ġcan":377,"ical":378,"ass":379,"Ġpo":380,"age":381,"nt":382,"oy":383,"ment":384,"Ġent":385,"Ġro":386,"Ġwork":387,"akes":388,"Ġus":389,"Ġbl":390,"ep":391,"Ġwhe":392,"Ġover":393,"Ġcomedy":394,"Ġmuch":395,"ult":396,"ny":397,"elf":398,"ise":399,"iz":400,"Ġtime":401,"ue":402,"Ġperfor":403,"Ġem":404,"this":405,"Ġdis":406,"ry":407,"nder":408,"ating":409,"Ġoff":410,"ear":411,"ound":412,"Ġway":413,"ark":414,"ens":415,"Ġwhat":416,"Ġhum":417,"Ġbet":418,"wh":419,"Ġ(":420,"Ġif":421,"Ġ''":422,"int":423,"ertain":424,"Ġcharacters":425,"Ġfeel":426,"rit":427,"ide":428,"Ġperforman":429,"Ġeven":430,"Ġsl":431,"ish":432,"ated":433,"atch":434,"Ġwell":435,"less":436,"ving":437,"ice":438,"ip":439,"Ġra":440,"ittle":441,"reen":442,"Ġget":443,"wn":444,"Ġme":445,"ness":446,"ance":447,"Ġfa":448,"Ġlittle":449,"ull":450,"Ġonly":451,"ade":452,"Ġsub":453,"Ġri":454,"ife":455,"cc":456,"ense":457,"ual":458,"ne":459,"Ġtw":460,"Ġlook":461,"Ġtheir":462,"ingly":463,"ose":464,"sp":465,"Ġgo":466,"oc":467,"Ġyour":468,"ost":469,"Ġmake":470,"Ġevery":471,"Ġfunny":472,"Ġimp":473,"Ġthem":474,"ative":475,"ings":476,"vel":477,"Ġtal":478,"Ġreal":479,"own":480,"Ġvi":481,"atic":482,"Ġgen":483,"ience":484,"Ġbeen":485,"Ġend":486,"pect":487,"Ġmay":488,"ions":489,"Ġsomet":490,"Ġ``":491,"Ġdram":492,"Ġthere":493,"ans":494,"Ġlove":495,"Ġenough":496,"ily":497,"Ġnever":498,"ents":499,"...":500,"Ġbad":501,"ame":502,"Ġsur":503,"ress":504,"ild":505,"Ġvery":506,"Ġbr":507,"Ġwas":508,"ll":509,"Ġthey":510,"old":511,"ang":512,"led":513,"Ġte":514,"Ġdes":515,"Ġdel":516,"ph":517,"Ġdirector":518,"Ġseem":519,"aking":520,"Ġrem":521,"ber":522,"Ġmakes":523,"ond":524,"Ġwould":525,"Ġlife":526,"hed":527,"Ġsm":528,"Ġbest":529,"Ġwhich":530,"Ġser":531,"so":532,"Ġscreen":533,"sh":534,"Ġother":535,"Ġstr":536,"vers":537,"Ġsee":538,"Ġnew":539,"ren":540,"ty":541,"Ġher":542,"ting":543,"Ġmat":544,"Ġentertain":545,"Ġthrough":546,"Ġcont":547,"ays":548,"Ġpe":549,"Ġhow":550,"but":551,"ris":552,"Ġ?":553,"li":554,"Ġag":555,"ably":556,"ately":557,"ling":558,"Ġtra":559,"ach":560,"ign":561,"Ġplot":562,"ved":563,"ink":564,"ors":565,"Ġwhen":566,"Ġ1":567,"red":568,"Ġcould":569,"Ġwatch":570,"vies":571,"erest":572,"gin":573,"Ġ:":574,"Ġaud":575,"Ġunder":576,"Ġlong":577,"ional":578,"Ġpart":579,"Ġrom":580,"Ġfam":581,"other":582,"there":583,"ath":584,"Ġmovies":585,"Ġyear":586,"imes":587,"Ġheart":588,"urn":589,"Ġart":590,"eric":591,"ually":592,"Ġmy":593,"Ġjo":594,"Ġbig":595,"ject":596,"les":597,"Ġres":598,"inem":599,"Ġinterest":600,"ism":601,"Ġmin":602,"leas":603,"ash":604,"Ġshould":605,"vent":606,"ible":607,"ffect":608,"ace":609,"sc":610,"Ġcr":611,"Ġsomething":612,"Ġgreat":613,"uct":614,"its":615,"Ġmade":616,"oth":617,"Ġreally":618,"ying":619,"Ġob":620,"Ġcast":621,"Ġcinem":622,"Ġcharacter":623,"ian":624,"Ġhol":625,"Ġown":626,"istic":627,"Ġaction":628,"iv":629,"hes":630,"imp":631,"Ġshow":632,"Ġche":633,"Ġtwo":634,"Ġthrill":635,"mer":636,"Ġaw":637,"Ġwar":638,"view":639,"Ġperformances":640,"Ġins":641,"irst":642,"Ġvis":643,"Ġdrama":644,"now":645,"pec":646,"elling":647,"ft":648,"Ġstill":649,"Ġfilms":650,"oss":651,"igh":652,"Ġmany":653,"aw":654,"aut":655,"Ġke":656,"ree":657,"Ġgr":658,"ople":659,"be":660,"Ġco":661,"ute":662,"Ġpeople":663,"Ġatt":664,"Ġlau":665,"Ġgi":666,"what":667,"te":668,"Ġcle":669,"Ġhard":670,"Ġscen":671,"Ġtri":672,"ript":673,"Ġdown":674,"ome":675,"con":676,"Ġfar":677,"ause":678,"Ġhumor":679,"ather":680,"row":681,"ument":682,"ations":683,"get":684,"Ġfirst":685,"Ġfilmm":686,"Ġemot":687,"Ġbetter":688,"umb":689,"Ġdoc":690,"iss":691,"fort":692,"icture":693,"Ġter":694,"Ġpicture":695,"ss":696,"arly":697,"Ġgra":698,"Ġscript":699,"der":700,"up":701,"Ġcol":702,"Ġthose":703,"Ġbeing":704,"joy":705,"Ġaf":706,"Ġwo":707,"Ġless":708,"Ġmom":709,"Ġkind":710,"ning":711,"ock":712,"Ġap":713,"Ġmight":714,"ages":715,"gg":716,"ten":717,"Ġrel":718,"Ġenjoy":719,"Ġfr":720,"most":721,"Ġca":722,"Ġwithout":723,"Ġdocument":724,"wood":725,"Ġold":726,"ature":727,"ower":728,"Ġworld":729,"like":730,"Ġaudience":731,"Ġever":732,"Ġrec":733,"cept":734,"Ġalso":735,"Ġpret":736,"Ġameric":737,"sy":738,"Ġgu":739,"ib":740,"ks":741,"Ġself":742,"ought":743,"ars":744,"Ġlack":745,"thing":746,"av":747,"iff":748,"Ġeng":749,"fully":750,"ween":751,"Ġsurp":752,"Ġsense":753,"utes":754,"Ġworth":755,"Ġplay":756,"Ġview":757,"Ġbel":758,"Ġback":759,"not":760,"Ġwant":761,"vid":762,"Ġnothing":763,"Ġcharm":764,"Ġfind":765,"Ġpoint":766,"Ġlaugh":767,"Ġhere":768,"Ġknow":769,"az":770,"Ġapp":771,"Ġboth":772,"Ġbetween":773,"Ġlot":774,"Ġgl":775,"Ġsty":776,"Ġfew":777,"Ġperformance":778,"Ġset":779,"Ġthing":780,"Ġexc":781,"Ġdep":782,"Ġsat":783,"Ġbec":784,"Ġneed":785,"Ġkid":786,"Ġanother":787,"Ġsuch":788,"Ġhuman":789,"ginal":790,"here":791,"uc":792,"Ġmess":793,"ner":794,"uff":795,"Ġ;":796,"Ġide":797,"Ġori":798,"Ġpers":799,"Ġinc":800,"Ġcomple":801,"even":802,"ky":803,"lywood":804,"antic":805,"ney":806,"Ġmus":807,"ates":808,"Ġpr":809,"ale":810,"Ġbecause":811,"lt":812,"Ġcare":813,"apt":814,"Ġminutes":815,"ount":816,"Ġseems":817,"Ġturn":818,"Ġoften":819,"Ġind":820,"Ġult":821,"ross":822,"though":823,"arr":824,"ically":825,"Ġel":826,"Ġthriller":827,"ex":828,"ia":829,"Ġpleas":830,"Ġthink":831,"Ġhigh":832,"Ġbeaut":833,"iful":834,"Ġkeep":835,"Ġdra":836,"Ġdocumentary":837,"Ġoriginal":838,"ination":839,"Ġshe":840,"Ġfin":841,"Ġeffect":842,"Ġbecom":843,"Ġext":844,"Ġtale":845,"Ġsk":846,"Ġph":847,"Ġagain":848,"Ġir":849,"ts":850,"Ġquite":851,"while":852,"ater":853,"Ġcreat":854,"Ġrep":855,"Ġform":856,"Ġultim":857,"Ġswe":858,"Ġfull":859,"Ġbu":860,"Ġpower":861,"arn":862,"ster":863,"app":864,"Ġinteresting":865,"gu":866,"ys":867,"Ġ!":868,"Ġwom":869,"iness":870,"Ġsin":871,"Ġmar":872,"Ġwere":873,"Ġwhile":874,"Ġhollywood":875,"fl":876,"me":877,"no":878,"Ġac":879,"Ġdist":880,"ics":881,"olog":882,"Ġalmost":883,"Ġexpl":884,"ered":885,"Ġfeels":886,"to":887,"ins":888,"Ġhim":889,"Ġref":890,"Ġitself":891,"Ġdec":892,"Ġentertaining":893,"Ġromantic":894,"Ġfilmmak":895,"Ġsurpris":896,"king":897,"Ġsimp":898,"Ġpol":899,"anc":900,"ane":901,"Ġhor":902,"Ġafter":903,"Ġappe":904,"Ġes":905,"Ġspec":906,"Ġseen":907,"iece":908,"you":909,"Ġrather":910,"direct":911,"ons":912,"Ġyet":913,"Ġright":914,"Ġmoments":915,"pite":916,"aster":917,"Ġfamily":918,"Ġamerican":919,"\\/":920,"fore":921,"ng":922,"Ġtake":923,"Ġfri":924,"ality":925,"Ġho":926,"Ġhist":927,"Ġeas":928,"vious":929,"Ġcons":930,"riter":931,"ither":932,"Ġprod":933,"Ġimag":934,"cess":935,"Ġ2":936,"Ġmem":937,"Ġcar":938,"Ġcra":939,"Ġhad":940,"lect":941,"str":942,"Ġev":943,"Ġthese":944,"Ġmel":945,"Ġbit":946,"alf":947,"ility":948,"Ġexper":949,"ward":950,"ering":951,"Ġsex":952,"Ġrun":953,"ogue":954,"dict":955,"ially":956,"Ġsol":957,"Ġmor":958,"Ġdiff":959,"ionally":960,"Ġyoung":961,"Ġcomes":962,"Ġacting":963,"Ġwhere":964,"of":965,"Ġed":966,"Ġsch":967,"Ġinv":968,"ste":969,"ures":970,"ellig":971,"Ġsubject":972,"Ġperson":973,"Ġsame":974,"read":975,"Ġour":976,"ences":977,"Ġcult":978,"ange":979,"asc":980,"ason":981,"Ġcome":982,"Ġdeli":983,"fect":984,"ition":985,"Ġmi":986,"Ġcre":987,"Ġport":988,"Ġpass":989,"Ġthought":990,"Ġbefore":991,"Ġsuper":992,"irl":993,"Ġdial":994,"ils":995,"Ġsequ":996,"Ġintellig":997,"ms":998,"xt":999,"Ġtimes":1000,"Ġthen":1001,"Ġmon":1002,"Ġhour":1003,"ase":1004,"Ġstand":1005,"Ġactors":1006,"Ġlea":1007,"ship":1008,"Ġmater":1009,"by":1010,"Ġsil":1011,"Ġthings":1012,"Ġclass":1013,"Ġgets":1014,"Ġsince":1015,"air":1016,"iet":1017,"ub":1018,"Ġbro":1019,"icul":1020,"ching":1021,"amp":1022,"Ġhapp":1023,"min":1024,"Ġsay":1025,"Ġmind":1026,"Ġanim":1027,"ired":1028,"Ġultimately":1029,"Ġdialogue":1030,"Ġmaterial":1031,"self":1032,"uck":1033,"Ġtou":1034,"Ġtakes":1035,"Ġsit":1036,"ream":1037,"ord":1038,"Ġdet":1039,"Ġstud":1040,"Ġchild":1041,"Ġscenes":1042,"director":1043,"dd":1044,"isf":1045,"iment":1046,"Ġbeautiful":1047,"ues":1048,"with":1049,"als":1050,"Ġhalf":1051,"empt":1052,"Ġflick":1053,"Ġgener":1054,"Ġ19":1055,"Ġmusic":1056,"ier":1057,"iar":1058,"erg":1059,"Ġfasc":1060,"Ġdid":1061,"rif":1062,"Ġhand":1063,"play":1064,"co":1065,"Ġtit":1066,"Ġsw":1067,"Ġdem":1068,"ently":1069,"irit":1070,"Ġwatching":1071,"Ġbelie":1072,"att":1073,"Ġwr":1074,"ains":1075,"Ġcompelling":1076,"Ġwonder":1077,"Ġportra":1078,"vo":1079,"Ġdark":1080,"que":1081,"gether":1082,"Ġyears":1083,"Ġsweet":1084,"ror":1085,"ines":1086,"Ġabs":1087,"hen":1088,"Ġthough":1089,"Ġlast":1090,"Ġemotional":1091,"Ġspecial":1092,"day":1093,"Ġz":1094,"ret":1095,"Ġwit":1096,"Ġpain":1097,"Ġhar":1098,"Ġep":1099,"Ġstart":1100,"Ġexp":1101,"Ġleast":1102,"ends":1103,"Ġcinema":1104,"Ġvisual":1105,"Ġfascin":1106,"ffort":1107,"kes":1108,"Ġput":1109,"Ġdull":1110,"ilar":1111,"Ġeffort":1112,"Ġpredict":1113,"ogra":1114,"ccess":1115,"Ġkids":1116,"ger":1117,"Ġmed":1118,"Ġele":1119,"Ġinter":1120,"using":1121,"Ġfamil":1122,"iel":1123,"Ġsou":1124,"Ġbor":1125,"eless":1126,"Ġstar":1127,"ract":1128,"Ġproble":1129,"Ġclever":1130,"oot":1131,"ted":1132,"Ġsa":1133,"Ġpiece":1134,"Ġlight":1135,"Ġdef":1136,"Ġdeep":1137,"Ġgoing":1138,"Ġentertainment":1139,"io":1140,"inc":1141,"era":1142,"itive":1143,"Ġey":1144,"Ġgive":1145,"ider":1146,"Ġsec":1147,"uring":1148,"deo":1149,"ized":1150,"Ġgives":1151,"son":1152,"oll":1153,"ists":1154,"Ġpres":1155,"odram":1156,"Ġworks":1157,"Ġcinematic":1158,"ool":1159,"some":1160,"orn":1161,"Ġpsy":1162,"Ġstra":1163,"ural":1164,"Ġfeature":1165,"Ġspirit":1166,"Ġanyone":1167,"yp":1168,"Ġma":1169,"Ġbra":1170,"Ġnarr":1171,"Ġgirl":1172,"Ġonce":1173,"ously":1174,"alls":1175,"Ġsmart":1176,"ossible":1177,"Ġpretty":1178,"br":1179,"ps":1180,"Ġsent":1181,"reak":1182,"Ġmaking":1183,"aste":1184,"Ġwhole":1185,"Ġperfect":1186,"Ġaway":1187,"Ġstyle":1188,"Ġfascinating":1189,"pro":1190,"Ã©":1191,"Ġbo":1192,"Ġpar":1193,"Ġhon":1194,"antly":1195,"Ġanything":1196,"Ġrare":1197,"Ġmelodram":1198,"cial":1199,"ug":1200,"ways":1201,"Ġsad":1202,"Ġbar":1203,"Ġcertain":1204,"Ġlow":1205,"Ġund":1206,"Ġsusp":1207,"Ġcomm":1208,"Ġunf":1209,"Ġlead":1210,"ming":1211,"ric":1212,"Ġsens":1213,"Ġcapt":1214,"Ġtogether":1215,"Ġmoving":1216,"Ġexpect":1217,"Ġshort":1218,"Ġuns":1219,"Ġadd":1220,"Ġserious":1221,"iting":1222,"ank":1223,"aling":1224,"Ġnow":1225,"Ġret":1226,"ula":1227,"Ġsum":1228,"Ġconv":1229,"off":1230,"Ġmid":1231,"Ġpot":1232,"Ġpop":1233,"aring":1234,"Ġthree":1235,"Ġconf":1236,"Ġtrue":1237,"arent":1238,"Ġlaughs":1239,"Ġwomen":1240,"Ġpsych":1241,"des":1242,"Ġdi":1243,"Ġday":1244,"Ġprof":1245,"Ġdirection":1246,"Ġengag":1247,"Ġhistory":1248,"Ġexperience":1249,"stead":1250,"Ġsy":1251,"Ġsound":1252,"Ġmiss":1253,"Ġmaster":1254,"els":1255,"Ġred":1256,"Ġass":1257,"Ġalways":1258,"ured":1259,"Ġstrong":1260,"uction":1261,"Ġobvious":1262,"cl":1263,"zy":1264,"Ġop":1265,"ities":1266,"Ġfans":1267,"Ġinsp":1268,"ots":1269,"Ġsure":1270,"Ġcomic":1271,"Ġhead":1272,"Ġlevel":1273,"Ġvideo":1274,"Ġcomplete":1275,"Ġtitle":1276,"cy":1277,"wor":1278,"Ġvers":1279,"Ġmen":1280,"Ġmag":1281,"stand":1282,"uth":1283,"ows":1284,"Ġwhy":1285,"ird":1286,"Ġprob":1287,"Ġplace":1288,"Ġactually":1289,"Ġwhose":1290,"Ġclic":1291,"resh":1292,"Ġsometimes":1293,"Ġseries":1294,"Ġsilly":1295,"Ġnarrative":1296,"00":1297,"Ġwild":1298,"Ġda":1299,"Ġbeh":1300,"Ġamb":1301,"Ġquest":1302,"ments":1303,"Ġtalent":1304,"Ġmatter":1305,"Ġtrag":1306,"Ġsatisf":1307,"Ġpolit":1308,"Ġpredictable":1309,"cut":1310,"vis":1311,"Ġdam":1312,"Ġcoming":1313,"illi":1314,"ush":1315,"Ġaround":1316,"ody":1317,"ored":1318,"Ġteen":1319,"Ġinsight":1320,"ek":1321,"hn":1322,"ler":1323,"oint":1324,"Ġfact":1325,"eng":1326,"Ġpat":1327,"Ġequ":1328,"Ġreason":1329,"Ġhel":1330,"Ġentire":1331,"Ġslow":1332,"Ġgenre":1333,"ressive":1334,"Ġattempt":1335,"Ġsimply":1336,"ograph":1337,"Ġfamiliar":1338,"``":1339,"time":1340,"Ġcent":1341,"Ġdone":1342,"ific":1343,"Ġnearly":1344,"aps":1345,"opp":1346,"Ġprem":1347,"itten":1348,"Ġquir":1349,"Ġtrans":1350,"Ġscreenplay":1351,"Ġidea":1352,"fe":1353,"Ġacc":1354,"Ġcou":1355,"Ġwin":1356,"ories":1357,"Ġprom":1358,"Ġpast":1359,"Ġste":1360,"sem":1361,"Ġrob":1362,"Ġmean":1363,"Ġformula":1364,"cer":1365,"uri":1366,"ined":1367,"ening":1368,"Ġmain":1369,"Ġboy":1370,"orge":1371,"Ġmoder":1372,"ention":1373,"ceed":1374,"ude":1375,"Ġmanages":1376,"Ġfilmmakers":1377,"Ġhorror":1378,"Ġsentiment":1379,"Ġhonest":1380,"bing":1381,"ced":1382,"cise":1383,"ched":1384,"go":1385,"ied":1386,"ient":1387,"oon":1388,"Ġsim":1389,"Ġfresh":1390,"Ġmur":1391,"Ġmark":1392,"Ġpun":1393,"Ġhome":1394,"Ġintri":1395,"Ġlive":1396,"ational":1397,"Ġtrying":1398,"Ġadm":1399,"Ġsubt":1400,"Ġgoes":1401,"Ġdramatic":1402,"Ġdelight":1403,"Ġprobably":1404,"Ġpremise":1405,"dle":1406,"Ġoper":1407,"Ġfant":1408,"Ġmis":1409,"Ġbook":1410,"Ġcred":1411,"Ġnor":1412,"Ġsuccess":1413,"izing":1414,"Ġwarm":1415,"Ġenjoyable":1416,"Ġsolid":1417,"ail":1418,"ron":1419,"Ġtre":1420,"Ġsing":1421,"Ġben":1422,"alk":1423,"Ġlar":1424,"plic":1425,"Ġfair":1426,"Ġparticul":1427,"Ġelse":1428,"Ġeffects":1429,"Ġchildren":1430,"Ġproblem":1431,"Ġsuspense":1432,"Ġengaging":1433,"Ġmodern":1434,"Ġtreat":1435,"Ġsn":1436,"Ġfine":1437,"Ġbas":1438,"Ġbri":1439,"Ġcam":1440,"any":1441,"Ġhero":1442,"Ġworst":1443,"Ġadvent":1444,"Ġblack":1445,"Ġface":1446,"pecially":1447,"Ġturns":1448,"Ġdrag":1449,"despite":1450,"dy":1451,"iences":1452,"Ġ9":1453,"Ġodd":1454,"ited":1455,"Ġfren":1456,"Ġwriter":1457,"Ġgri":1458,"Ġread":1459,"Ġdead":1460,"Ġval":1461,"ults":1462,"ize":1463,"Ġdiffere":1464,"gr":1465,"mo":1466,"ser":1467,"Ġocc":1468,"ished":1469,"Ġmr":1470,"Ġmust":1471,"Ġwa":1472,"ese":1473,"Ġdumb":1474,"rop":1475,"Ġant":1476,"oof":1477,"Ġcomed":1478,"Ġdebut":1479,"Ġamusing":1480,"Ġoffers":1481,"Ġfeeling":1482,"Ġjohn":1483,"Ġcomplex":1484,"Ġbecomes":1485,"Ġespecially":1486,"Ġstudy":1487,"ugg":1488,"Ġill":1489,"Ġtell":1490,"Ġsort":1491,"Ġtheater":1492,"Ġdr":1493,"Ġearn":1494,"Ġalong":1495,"Ġactor":1496,"Ġflat":1497,"Ġflaw":1498,"Ġviol":1499,"Ġending":1500,"Ġsmall":1501,"Ġcontri":1502,"Ġromance":1503,"Ġmyster":1504,"Ġportrait":1505,"Ġpsycholog":1506,"ned":1507,"ove":1508,"Ġve":1509,"ery":1510,"Ġcut":1511,"Ġstuff":1512,"Ġbegin":1513,"chie":1514,"Ġsupp":1515,"Ġeverything":1516,"avy":1517,"Ġeasy":1518,"Ġintelligent":1519,"Ġversion":1520,"cent":1521,"ef":1522,"just":1523,"und":1524,"Ġsign":1525,"reme":1526,"itation":1527,"Ġmet":1528,"Ġcount":1529,"Ġenerg":1530,"Ġproject":1531,"Ġlikely":1532,"iction":1533,"aced":1534,"velop":1535,"Ġterrif":1536,"Ġlacks":1537,"Ġcharming":1538,"Ġstyl":1539,"Ġmessage":1540,"Ġinvol":1541,"Ġboring":1542,"bl":1543,"too":1544,"uine":1545,"yn":1546,"Ġmot":1547,"ential":1548,"Ġjour":1549,"Ġexer":1550,"ationship":1551,"Ġnext":1552,"Ġquiet":1553,"Ġslight":1554,"Ġbecome":1555,"ma":1556,"Ġtv":1557,"Ġcal":1558,"Ġhit":1559,"Ġreve":1560,"chn":1561,"Ġlives":1562,"Ġuni":1563,"used":1564,"Ġclose":1565,"Ġlooking":1566,"Ġbrilli":1567,"Ġrelationship":1568,"Ġfilmmaker":1569,"Ġhours":1570,"Ġquirky":1571,"Ġexercise":1572,"med":1573,"yond":1574,"Ġid":1575,"Ġaffect":1576,"het":1577,"ony":1578,"ouse":1579,"elt":1580,"Ġstun":1581,"ags":1582,"Ġword":1583,"ustr":1584,"Ġrich":1585,"ension":1586,"Ġclassic":1587,"Ġsoul":1588,"Ġfrench":1589,"uly":1590,"where":1591,"writer":1592,"Ġfoll":1593,"Ġwrit":1594,"Ġpa":1595,"ann":1596,"Ġdream":1597,"Ġhilar":1598,"Ġinstead":1599,"Ġlat":1600,"Ġsuff":1601,"ams":1602,"ump":1603,"osed":1604,"allow":1605,"come":1606,"comp":1607,"Ġdespite":1608,"Ġremark":1609,"Ġideas":1610,"Ġpowerful":1611,"Ġculture":1612,"Ġpassion":1613,"Ġenergy":1614,"ches":1615,"do":1616,"land":1617,"Ġtone":1618,"Ġwind":1619,"Ġeither":1620,"entious":1621,"ote":1622,"Ġstri":1623,"Ġreg":1624,"rage":1625,"ulg":1626,"ular":1627,"ett":1628,"iller":1629,"Ġje":1630,"Ġjack":1631,"aged":1632,"Ġdeath":1633,"Ġplays":1634,"Ġleft":1635,"ended":1636,"Ġmostly":1637,"Ġemb":1638,"Ġeveryone":1639,"Ġimport":1640,"Ġgenuine":1641,"Ġfilmmaking":1642,"guing":1643,"Ġsurprisingly":1644,"Ġmelodrama":1645,"Ġcertainly":1646,"ax":1647,"ob":1648,"ising":1649,"ones":1650,"ances":1651,"Ġdou":1652,"Ġinf":1653,"Ġlit":1654,"Ġeach":1655,"Ġbeyond":1656,"Ġur":1657,"Ġang":1658,"urd":1659,"urp":1660,"Ġdog":1661,"Ġdev":1662,"itty":1663,"itting":1664,"Ġrock":1665,"Ġstrange":1666,"Ġrecent":1667,"appoint":1668,"Ġsitu":1669,"Ġsecond":1670,"Ġcompletely":1671,"Ġhelp":1672,"Ġopera":1673,"ding":1674,"how":1675,"line":1676,"use":1677,"Ġspe":1678,"Ġspect":1679,"Ġcap":1680,"orable":1681,"utter":1682,"Ġrest":1683,"Ġheavy":1684,"Ġexcept":1685,"Ġstoryt":1686,"Ġdeser":1687,"Ġviewers":1688,"Ġexplo":1689,"Ġmix":1690,"Ġleave":1691,"Ġbelieve":1692,"Ġdeeply":1693,"Ġoccas":1694,"ci":1695,"Ġfre":1696,"Ġfour":1697,"Ġmad":1698,"oud":1699,"Ġhold":1700,"let":1701,"Ġgot":1702,"asy":1703,"rid":1704,"Ġforget":1705,"Ġquick":1706,"Ġtruth":1707,"Ġtruly":1708,"Ġdirected":1709,"Ġride":1710,"Ġlooks":1711,"Ġreality":1712,"Ġjokes":1713,"ashion":1714,"ival":1715,"Ġhimself":1716,"Ġhope":1717,"Ġcreep":1718,"void":1719,"Ġstraight":1720,"Ġsummer":1721,"Ġmiddle":1722,"ah":1723,"ecut":1724,"hy":1725,"wr":1726,"when":1727,"Ġaff":1728,"Ġsand":1729,"Ġfound":1730,"Ġcor":1731,"Ġcart":1732,"ont":1733,"Ġden":1734,"icult":1735,"Ġexam":1736,"Ġshot":1737,"Ġpoet":1738,"Ġdisappoint":1739,"Ġsubst":1740,"Ġunderstand":1741,"Ġshows":1742,"Ġwoman":1743,"Ġproduction":1744,"Ġdifficult":1745,"Ġpersonal":1746,"minute":1747,"hand":1748,"Ġfat":1749,"Ġpay":1750,"Ġder":1751,"although":1752,"Ġinst":1753,"Ġline":1754,"Ġnight":1755,"Ġnice":1756,"otic":1757,"Ġexact":1758,"Ġabove":1759,"ively":1760,"Ġconcept":1761,"comm":1762,"Ġvir":1763,"Ġends":1764,"Ġscene":1765,"Ġappro":1766,"Ġrefres":1767,"Ġsimple":1768,"Ġdelivers":1769,"Ġtouching":1770,"Ġcamera":1771,"Ġadventure":1772,"af":1773,"bly":1774,"ball":1775,"ele":1776,"ever":1777,"ged":1778,"gra":1779,"iest":1780,"sel":1781,"Ġ8":1782,"Ġair":1783,"Ġopp":1784,"Ġhop":1785,"Ġlif":1786,"Ġgrow":1787,"ott":1788,"Ġcomb":1789,"ames":1790,"Ġalread":1791,"Ġshock":1792,"Ġlet":1793,"Ġspy":1794,"Ġnovel":1795,"Ġrole":1796,"berg":1797,"Ġtries":1798,"Ġextreme":1799,"Ġbeautifully":1800,"Ġsym":1801,"Ġsatisfying":1802,"Ġintriguing":1803,"Ġlarge":1804,"Ġdifferent":1805,"Ġhilarious":1806,"Ġalready":1807,"ai":1808,"ael":1809,"every":1810,"ien":1811,"por":1812,"rise":1813,"wise":1814,"Ġaut":1815,"Ġfut":1816,"Ġhu":1817,"Ġstup":1818,"Ġstories":1819,"ung":1820,"unk":1821,"Ġexecut":1822,"Ġdevelop":1823,"Ġneither":1824,"uss":1825,"Ġimages":1826,"pping":1827,"ender":1828,"itely":1829,"Ġfails":1830,"Ġremains":1831,"Ġmoment":1832,"Ġstorytelling":1833,"bo":1834,"has":1835,"my":1836,"uous":1837,"war":1838,"year":1839,"Ġx":1840,"Ġted":1841,"Ġsle":1842,"Ġside":1843,"Ġfire":1844,"ishing":1845,"Ġbal":1846,"Ġcost":1847,"Ġtop":1848,"enty":1849,"ember":1850,"Ġsoap":1851,"Ġclich":1852,"arely":1853,"Ġimpossible":1854,"Ġbring":1855,"Ġtechn":1856,"Ġpretentious":1857,"ibly":1858,"Ġextra":1859,"Ġesc":1860,"Ġfriend":1861,"Ġconsider":1862,"Ġparticularly":1863,"Ġjourney":1864,"Ġspectac":1865,"Ġvirt":1866,"Ġrefreshing":1867,"ĠclichÃ©":1868,"ked":1869,"more":1870,"tra":1871,"Ġtar":1872,"erous":1873,"Ġfem":1874,"Ġmere":1875,"Ġcond":1876,"Ġcase":1877,"Ġposs":1878,"Ġdri":1879,"Ġnon":1880,"Ġnone":1881,"Ġgags":1882,"Ġmood":1883,"ims":1884,"Ġsust":1885,"unny":1886,"ichael":1887,"Ġadapt":1888,"Ġblood":1889,"lessly":1890,"Ġtwist":1891,"ocative":1892,"Ġseeing":1893,"Ġaudiences":1894,"Ġcrime":1895,"Ġgrand":1896,"Ġpleasure":1897,"Ġeasily":1898,"Ġsequel":1899,"Ġanimation":1900,"Ġmedi":1901,"Ġeye":1902,"Ġearnest":1903,"Ġpsychological":1904,"Ġterrific":1905,"Ġfollow":1906,"Ġliter":1907,"Ġexactly":1908,"selves":1909,"lin":1910,"ple":1911,"rist":1912,"ze":1913,"Ġver":1914,"Ġutter":1915,"Ġtaste":1916,"Ġachie":1917,"ital":1918,"Ġfoc":1919,"atural":1920,"Ġcur":1921,"Ġdig":1922,"edly":1923,"Ġland":1924,"rable":1925,"rown":1926,"ets":1927,"Ġunex":1928,"Ġsocial":1929,"Ġprovid":1930,"oney":1931,"icks":1932,"Ġroll":1933,"Ġdisney":1934,"Ġways":1935,"Ġimpro":1936,"Ġdelic":1937,"scious":1938,"fortun":1939,"Ġagainst":1940,"Ġmoral":1941,"Ġintelligence":1942,"Ġdefin":1943,"Ġmaj":1944,"Ġpolitical":1945,"Ġsubtle":1946,"Ġmystery":1947,"over":1948,"way":1949,"inct":1950,"Ġmild":1951,"ats":1952,"Ġbrit":1953,"Ġbreak":1954,"Ġinde":1955,"Ġnature":1956,"Ġgent":1957,"Ġgame":1958,"Ġiss":1959,"Ġcho":1960,"unity":1961,"illing":1962,"Ġsever":1963,"Ġunt":1964,"ellent":1965,"Ġproves":1966,"Ġactress":1967,"Ġweird":1968,"Ġpoor":1969,"Ġbland":1970,"Ġgetting":1971,"Ġcool":1972,"Ġdepth":1973,"struct":1974,"Ġstandard":1975,"ield":1976,"ography":1977,"Ġstupid":1978,"ape":1979,"aust":1980,"light":1981,"whe":1982,"Ġtest":1983,"Ġtheat":1984,"Ġfalls":1985,"Ġbus":1986,"Ġbreat":1987,"Ġcold":1988,"Ġparent":1989,"ices":1990,"Ġevent":1991,"Ġgone":1992,"chy":1993,"olut":1994,"olute":1995,"Ġforce":1996,"Ġjoy":1997,"Ġexh":1998,"Ġsoph":1999,"udget":2000,"Ġtrad":2001,"Ġcliches":2002,"semble":2003,"Ġviolence":2004,"Ġwriting":2005,"Ġapproach":2006,"bel":2007,"gi":2008,"haps":2009,"ring":2010,"ton":2011,"Ġer":2012,"itious":2013,"Ġfig":2014,"ises":2015,"Ġmichael":2016,"Ġcour":2017,"Ġcele":2018,"Ġpure":2019,"arp":2020,"Ġthin":2021,"Ġni":2022,"Ġgang":2023,"Ġgorge":2024,"Ġchrist":2025,"that":2026,"ability":2027,"ement":2028,"aken":2029,"Ġunp":2030,"Ġprocess":2031,"oses":2032,"Ġwhether":2033,"Ġfav":2034,"Ġremind":2035,"Ġjob":2036,"Ġobser":2037,"Ġcheap":2038,"Ġgiven":2039,"Ġcoll":2040,"Ġsatire":2041,"Ġkeeps":2042,"Ġphil":2043,"Ġappeal":2044,"Ġmemorable":2045,"Ġschool":2046,"Ġwrong":2047,"Ġwritten":2048,"Ġepic":2049,"Ġopen":2050,"Ġrobert":2051,"Ġoccasionally":2052,"ban":2053,"bers":2054,"kin":2055,"nect":2056,"Ã£":2057,"ino":2058,"rew":2059,"Ġfight":2060,"Ġbur":2061,"Ġcall":2062,"Ġwel":2063,"orough":2064,"orical":2065,"Ġdays":2066,"Ġinvent":2067,"Ġgod":2068,"rible":2069,"oose":2070,"ides":2071,"Ġacted":2072,"Ġspl":2073,"pped":2074,"Ġlost":2075,"acing":2076,"Ġuses":2077,"Ġtele":2078,"Ġdesper":2079,"Ġcontem":2080,"Ġclear":2081,"Ġviewer":2082,"Ġthoughtful":2083,"Ġleaves":2084,"Ġelements":2085,"movie":2086,"Ġbrilliant":2087,"Ġtedious":2088,"fi":2089,"gen":2090,"iod":2091,"path":2092,"inary":2093,"Ġful":2094,"Ġfoot":2095,"Ġball":2096,"Ġcop":2097,"Ġcamp":2098,"Ġwater":2099,"ork":2100,"Ġpossible":2101,"anch":2102,"Ġdest":2103,"ley":2104,"Ġtold":2105,"Ġlist":2106,"Ġug":2107,"rol":2108,"key":2109,"Ġintim":2110,"Ġexist":2111,"Ġconfl":2112,"aph":2113,"Ġprop":2114,"Ġprov":2115,"Ġperiod":2116,"orts":2117,"Ġii":2118,"Ġpost":2119,"Ġpoign":2120,"Ġimpressive":2121,"Ġartist":2122,"Ġreson":2123,"Ġguys":2124,"ibility":2125,"Ġdepress":2126,"Ġneeds":2127,"herent":2128,"rossing":2129,"Ġphot":2130,"Ġepis":2131,"incing":2132,"Ġpresent":2133,"Ġinspir":2134,"Ġcartoon":2135,"che":2136,"cul":2137,"good":2138,"mist":2139,"mark":2140,"Ġsqu":2141,"real":2142,"atory":2143,"Ġpull":2144,"Ġduring":2145,"Ġhy":2146,"Ġlab":2147,"Ġear":2148,"Ġge":2149,"entially":2150,"Ġrecomm":2151,"Ġhell":2152,"Ġende":2153,"Ġsharp":2154,"Ġsci":2155,"action":2156,"Ġrout":2157,"Ġfunn":2158,"iled":2159,"Ġoffer":2160,"ensive":2161,"atching":2162,"Ġotherwise":2163,"Ġ10":2164,"Ġresult":2165,"Ġvision":2166,"Ġfinally":2167,"Ġsurprising":2168,"Ġsexual":2169,"Ġrunning":2170,"Ġeyes":2171,"Ġquestion":2172,"Ġtragedy":2173,"Ġcreepy":2174,"Ġmajor":2175,"cceed":2176,"fil":2177,"gue":2178,"hood":2179,"hop":2180,"ov":2181,"spect":2182,"well":2183,"Ġ4":2184,"Ġly":2185,"Ġtyp":2186,"Ġage":2187,"inative":2188,"Ġcrit":2189,"Ġpurp":2190,"Ġthorough":2191,"Ġhot":2192,"Ġine":2193,"char":2194,"Ġsucceed":2195,"Ġshoot":2196,"Ġhaun":2197,"Ġhaving":2198,"osp":2199,"Ġamount":2200,"Ġquality":2201,"Ġroad":2202,"Ġfail":2203,"Ġfaith":2204,"Ġthemselves":2205,"Ġsurf":2206,"Ġbrother":2207,"Ġrespect":2208,"scar":2209,"Ġattract":2210,"Ġattention":2211,"Ġemotionally":2212,"umbers":2213,"Ġgrace":2214,"Ġcolor":2215,"Ġfrustr":2216,"Ġincl":2217,"Ġfinal":2218,"Ġimagination":2219,"Ġcraft":2220,"Ġwonderful":2221,"Ġabsurd":2222,"ength":2223,"Ġentirely":2224,"Ġcomedies":2225,"Ġfuture":2226,"fortunately":2227,"Ġgentle":2228,"Ġcelebr":2229,"ails":2230,"mon":2231,"table":2232,"vant":2233,"zz":2234,"Ġ3":2235,"Ġess":2236,"Ġtired":2237,"Ġsong":2238,"Ġbarely":2239,"Ġcross":2240,"Ġpow":2241,"Ġpath":2242,"alt":2243,"iche":2244,"ilty":2245,"Ġsteven":2246,"Ġreleas":2247,"oles":2248,"Ġchall":2249,"Ġchange":2250,"amb":2251,"arted":2252,"form":2253,"Ġamong":2254,"Ġtrou":2255,"Ġweak":2256,"Ġenth":2257,"Ġusual":2258,"Ġslap":2259,"Ġremake":2260,"Ġothers":2261,"Ġawful":2262,"Ġengrossing":2263,"Ġexcellent":2264,"uced":2265,"Ġcareer":2266,"Ġskill":2267,"Ġbuild":2268,"ancy":2269,"Ġanimated":2270,"Ġdavid":2271,"Ġbehind":2272,"Ġmeaning":2273,"Ġfantasy":2274,"Ġsingle":2275,"Ġfairly":2276,"Ġcontrived":2277,"Ġlatest":2278,"Ġsustain":2279,"Ġmedioc":2280,"Ġseveral":2281,"Ġconflict":2282,"lo":2283,"na":2284,"piece":2285,"sw":2286,"vice":2287,"Ġtaking":2288,"Ġsour":2289,"Ġoscar":2290,"Ġfast":2291,"Ġfore":2292,"ised":2293,"Ġmer":2294,"Ġbond":2295,"Ġwed":2296,"Ġpet":2297,"Ġpark":2298,"Ġthrow":2299,"Ġhom":2300,"Ġnatural":2301,"Ġgreen":2302,"Ġmod":2303,"right":2304,"Ġhea":2305,"umph":2306,"ury":2307,"quis":2308,"Ġdoing":2309,"Ġconnect":2310,"Ġworse":2311,"Ġkn":2312,"Ġkiss":2313,"oph":2314,"Ġplenty":2315,"Ġvo":2316,"Ġvar":2317,"acks":2318,"Ġsomeone":2319,"screen":2320,"Ġguy":2321,"Ġpoints":2322,"Ġknows":2323,"Ġbeauty":2324,"Ġappealing":2325,"lection":2326,"Ġevents":2327,"Ġdeliver":2328,"Ġdeter":2329,"Ġremarkable":2330,"olutely":2331,"Ġgorgeous":2332,"Ġugly":2333,"aces":2334,"ior":2335,"life":2336,"sch":2337,"vable":2338,"Ġing":2339,"Ġtear":2340,"Ġast":2341,"Ġfan":2342,"ened":2343,"eness":2344,"orm":2345,"Ġpal":2346,"Ġpie":2347,"anks":2348,"Ġlim":2349,"Ġgoof":2350,"Ġrevel":2351,"ades":2352,"ify":2353,"Ġintent":2354,"Ġdeal":2355,"Ġscary":2356,"astic":2357,"uses":2358,"usion":2359,"Ġplain":2360,"Ġprec":2361,"Ġamaz":2362,"Ġadults":2363,"Ġsomewhat":2364,"Ġvivid":2365,"Ġinside":2366,"Ġvisually":2367,"beat":2368,"Ġtriumph":2369,"Ġemotions":2370,"Ġpictures":2371,"Ġsurprise":2372,"Ġworthy":2373,"nothing":2374,"appy":2375,"Ġdecent":2376,"Ġperfectly":2377,"Ġunsett":2378,"Ġmagic":2379,"Ġambitious":2380,"Ġsentimental":2381,"Ġmetaph":2382,"Ġimportant":2383,"handed":2384,"Ġmerely":2385,"Ġadaptation":2386,"Ġunexpect":2387,"Ġparents":2388,"Ġthoroughly":2389,"body":2390,"cou":2391,"ges":2392,"ix":2393,"made":2394,"uch":2395,"Ġram":2396,"rel":2397,"rent":2398,"Ġfram":2399,"Ġpit":2400,"Ġpace":2401,"Ġhouse":2402,"Ġinn":2403,"asure":2404,"Ġyork":2405,"Ġwhite":2406,"Ġcomplic":2407,"agg":2408,"apan":2409,"Ġcharism":2410,"ands":2411,"Ġspark":2412,"orting":2413,"acy":2414,"Ġflash":2415,"aught":2416,"oying":2417,"Ġworking":2418,"Ġimpact":2419,"Ġdesign":2420,"Ġstrugg":2421,"rence":2422,"Ġcolle":2423,"Ġfrank":2424,"Ġamerica":2425,"Ġlots":2426,"Ġeffective":2427,"Ġdistur":2428,"ology":2429,"Ġ200":2430,"Ġmemory":2431,"Ġsequences":2432,"Ġbrain":2433,"Ġbegins":2434,"Ġopport":2435,"Ġexecution":2436,"Ġfemale":2437,"Ġwelcome":2438,"Ġprovocative":2439,"Ġrecommend":2440,"70":2441,"cle":2442,"down":2443,"een":2444,"fic":2445,"gar":2446,"nes":2447,"Ġavoid":2448,"reci":2449,"Ġfree":2450,"Ġbatt":2451,"Ġcrow":2452,"Ġwood":2453,"Ġpul":2454,"Ġpack":2455,"Ġpub":2456,"Ġhip":2457,"Ġner":2458,"Ġgross":2459,"Ġmother":2460,"Ġuse":2461,"verage":2462,"Ġann":2463,"ries":2464,"ried":2465,"Ġforg":2466,"ident":2467,"Ġalone":2468,"unch":2469,"ister":2470,"Ġable":2471,"Ġdeft":2472,"Ġnecess":2473,"udd":2474,"Ġleg":2475,"iously":2476,"decess":2477,"ared":2478,"Ġoverall":2479,"Ġempt":2480,"Ġlovely":2481,"Ġcontin":2482,"Ġfront":2483,"azz":2484,"Ġdraw":2485,"Ġcreative":2486,"Ġaccom":2487,"Ġhistorical":2488,"Ġtouch":2489,"ielberg":2490,"vision":2491,"Ġmurder":2492,"Ġsupposed":2493,"Ġdoub":2494,"ashioned":2495,"Ġexamination":2496,"Ġutterly":2497,"Ġuntil":2498,"Ġcrowd":2499,"aff":2500,"col":2501,"ode":2502,"uel":2503,"uce":2504,"writ":2505,"Ġ5":2506,"Ġtim":2507,"Ġtension":2508,"Ġfol":2509,"Ġfall":2510,"Ġfelt":2511,"Ġmart":2512,"Ġmach":2513,"Ġbiz":2514,"Ġcir":2515,"Ġcity":2516,"Ġcuri":2517,"Ġwitty":2518,"Ġdan":2519,"Ġdate":2520,"arch":2521,"arily":2522,"Ġtom":2523,"Ġgif":2524,"Ġmove":2525,"Ġsugg":2526,"ament":2527,"Ġju":2528,"Ġjapan":2529,"Ġensemble":2530,"Ġunint":2531,"Ġunlike":2532,"tern":2533,"Ġprevious":2534,"Ġpredecess":2535,"Ġimm":2536,"Ġupon":2537,"Ġwilli":2538,"Ġused":2539,"Ġimpress":2540,"Ġdesc":2541,"Ġthroughout":2542,"urns":2543,"Ġminor":2544,"ivity":2545,"Ġchemist":2546,"Ġgrou":2547,"Ġwants":2548,"Ġappreci":2549,"Ġprot":2550,"Ġcreates":2551,"Ġacross":2552,"Ġsurprises":2553,"anced":2554,"Ġcultural":2555,"Ġsincere":2556,"Ġcaptures":2557,"Ġpotential":2558,"Ġdelightful":2559,"Ġ90":2560,"Ġflaws":2561,"Ġstylish":2562,"Ġunique":2563,"hetic":2564,"Ġwords":2565,"Ġquickly":2566,"Ġhuge":2567,"Ġfriendship":2568,"Ġtarget":2569,"Ġissues":2570,"Ġbreath":2571,"Ġsophistic":2572,"pathy":2573,"Ġchalleng":2574,"Ġtrouble":2575,"Ġcollege":2576,"Ġaccompl":2577,"Ġsuggest":2578,"Ġchemistry":2579,"bed":2580,"ey":2581,"ki":2582,"kward":2583,"look":2584,"men":2585,"may":2586,"mosp":2587,"ses":2588,"side":2589,"tr":2590,"iny":2591,"Ġsor":2592,"Ġsal":2593,"ishes":2594,"Ġmist":2595,"Ġmoney":2596,"Ġbre":2597,"Ġbull":2598,"Ġcute":2599,"Ġwaste":2600,"Ġpu":2601,"Ġpos":2602,"Ġdang":2603,"arre":2604,"Ġtot":2605,"Ġla":2606,"Ġgh":2607,"Ġgay":2608,"ction":2609,"Ġstep":2610,"Ġreward":2611,"ulative":2612,"Ġsuck":2613,"Ġmoviego":2614,"aked":2615,"Ġunus":2616,"Ġconvent":2617,"Ġconcer":2618,"asty":2619,"Ġatmosp":2620,"Ġrhy":2621,"Ġthanks":2622,"Ġfear":2623,"Ġclos":2624,"Ġtry":2625,"izes":2626,"Ġremember":2627,"Ġgrant":2628,"Ġground":2629,"Ġplaying":2630,"Ġexciting":2631,"Ġprim":2632,"Ġskin":2633,"Ġrepet":2634,"Ġsuperfic":2635,"Ġmonster":2636,"iety":2637,"Ġbroad":2638,"Ġmelodramatic":2639,"Ġdiver":2640,"Ġtalented":2641,"oppy":2642,"Ġwinning":2643,"Ġbased":2644,"Ġidi":2645,"Ġsituation":2646,"Ġdeserves":2647,"porary":2648,"Ġdefinitely":2649,"belie":2650,"Ġfully":2651,"Ġunsettling":2652,"\\*":2653,"fashioned":2654,"ives":2655,"nce":2656,"uces":2657,"hent":2658,"Ġsaw":2659,"Ġsav":2660,"Ġfest":2661,"Ġcat":2662,"Ġwalk":2663,"Ġham":2664,"Ġlad":2665,"Ġloud":2666,"Ġname":2667,"stal":2668,"Ġgun":2669,"ellect":2670,"Ġstren":2671,"Ġrev":2672,"Ġrequ":2673,"room":2674,"umber":2675,"Ġliving":2676,"Ġshad":2677,"Ġability":2678,"Ġhack":2679,"Ġconst":2680,"Ġconstruct":2681,"Ġvict":2682,"Ġperhaps":2683,"Ġclum":2684,"plays":2685,"Ġmanner":2686,"Ġloc":2687,"acher":2688,"Ġemerg":2689,"Ġrid":2690,"Ġgeneric":2691,"Ġbrings":2692,"angu":2693,"Ġstruct":2694,"Ġago":2695,"Ġcasting":2696,"Ġawkward":2697,"Ġgiving":2698,"Ġexplor":2699,"Ġimagine":2700,"Ġ20":2701,"Ġcreate":2702,"Ġabsor":2703,"Ġstarts":2704,"Ġgirls":2705,"Ġrarely":2706,"Ġleads":2707,"Ġconvincing":2708,"Ġmasterpiece":2709,"Ġcouple":2710,"Ġcountry":2711,"Ġslightly":2712,"Ġrelationships":2713,"Ġurban":2714,"Ġcostum":2715,"Ġfocus":2716,"Ġprovides":2717,"olution":2718,"Ġniro":2719,"Ġroutine":2720,"Ġmediocre":2721,"Ġrhyth":2722,"cing":2723,"making":2724,"ral":2725,"round":2726,"vy":2727,"yal":2728,"Ġtur":2729,"inoc":2730,"hearted":2731,"Ġsac":2732,"Ġfit":2733,"Ġfra":2734,"Ġmil":2735,"Ġmak":2736,"Ġbi":2737,"Ġcand":2738,"Ġwal":2739,"Ġwise":2740,"onic":2741,"onstr":2742,"Ġpacing":2743,"Ġdre":2744,"arc":2745,"icle":2746,"Ġtoward":2747,"Ġinex":2748,"omet":2749,"eld":2750,"vey":2751,"imag":2752,"Ġones":2753,"Ġya":2754,"ession":2755,"Ġcommer":2756,"ills":2757,"ousy":2758,"Ġintellect":2759,"quently":2760,"usi":2761,"andering":2762,"Ġallen":2763,"Ġprep":2764,"ending":2765,"Ġweight":2766,"Ġcompany":2767,"assion":2768,"Ġdisgu":2769,"never":2770,"Ġtwists":2771,"Ġbadly":2772,"Ġbrut":2773,"Ġhowever":2774,"Ġwatchable":2775,"Ġjoke":2776,"Ġthrills":2777,"conscious":2778,"Ġterms":2779,"Ġapart":2780,"Ġlacking":2781,"Ġthinking":2782,"Ġhighly":2783,"Ġultimate":2784,"Ġcrazy":2785,"voking":2786,"Ġproblems":2787,"Ġunfunny":2788,"Ġseriously":2789,"Ġtragic":2790,"Ġformulaic":2791,"Ġpunch":2792,"Ġbright":2793,"Ġgripping":2794,"Ġflawed":2795,"Ġinvolved":2796,"Ġreveals":2797,"Ġsubstance":2798,"Ġescap":2799,"Ġbusiness":2800,"Ġcourse":2801,"Ġfavor":2802,"Ġcontemporary":2803,"Ġunexpected":2804,"Ġ2002":2805,"Ġdoubt":2806,"60":2807,"budget":2808,"die":2809,"hum":2810,"ipp":2811,"ique":2812,"low":2813,"mers":2814,"nter":2815,"rical":2816,"somet":2817,"ux":2818,"watching":2819,"zen":2820,"Ġest":2821,"Ġera":2822,"Ġtick":2823,"Ġaim":2824,"hem":2825,"head":2826,"Ġson":2827,"Ġsick":2828,"Ġfive":2829,"Ġfare":2830,"enn":2831,"Ġmes":2832,"Ġcris":2833,"Ġcyn":2834,"Ġwish":2835,"inger":2836,"Ġdry":2837,"aris":2838,"aly":2839,"ilt":2840,"Ġnu":2841,"Ġeth":2842,"Ġecc":2843,"Ġgre":2844,"Ġstere":2845,"Ġstars":2846,"Ġbeat":2847,"Ġresp":2848,"Ġfilled":2849,"eth":2850,"Ġcomfort":2851,"ified":2852,"Ġener":2853,"Ġunin":2854,"Ġscr":2855,"arts":2856,"acted":2857,"uster":2858,"ops":2859,"itted":2860,"Ġmanip":2861,"weet":2862,"ization":2863,"atingly":2864,"Ġrap":2865,"Ġrive":2866,"Ġyourself":2867,"Ġthemes":2868,"Ġrealistic":2869,"olds":2870,"Ġcrush":2871,"cons":2872,"gged":2873,"Ġrecord":2874,"Ġplayed":2875,"Ġfinds":2876,"Ġpleasant":2877,"Ġreport":2878,"Ġdistinct":2879,"Ġappears":2880,"Ġimaginative":2881,"iculous":2882,"Ġhappens":2883,"Ġflicks":2884,"Ġmeditation":2885,"provoking":2886,"Ġsensitive":2887,"Ġsoundtra":2888,"Ġmissing":2889,"Ġattempts":2890,"Ġpromise":2891,"Ġboys":2892,"Ġsuccessful":2893,"Ġinvolving":2894,"Ġcalled":2895,"ulgent":2896,"Ġsandler":2897,"Ġconsiderable":2898,"Ġmildly":2899,"Ġphilos":2900,"Ġinventive":2901,"Ġintimate":2902,"Ġepisode":2903,"Ġinclud":2904,"Ġframe":2905,"Ġbattle":2906,"Ġpubl":2907,"Ġbizarre":2908,"Ġcirc":2909,"Ġwilliams":2910,"Ġghost":2911,"hentic":2912,"Ġsoundtrack":2913,"avi":2914,"field":2915,"gth":2916,"ived":2917,"lish":2918,"ners":2919,"put":2920,"Ġtun":2921,"Ġtaken":2922,"itable":2923,"itions":2924,"Ġfather":2925,"Ġmatch":2926,"Ġwat":2927,"Ġpri":2928,"Ġdom":2929,"Ġhate":2930,"Ġloss":2931,"Ġlaz":2932,"Ġnons":2933,"stick":2934,"entric":2935,"vide":2936,"Ġrent":2937,"they":2938,"see":2939,"sequ":2940,"ided":2941,"agger":2942,"Ġencou":2943,"Ġintro":2944,"Ġintense":2945,"Ġshare":2946,"Ġunc":2947,"Ġuneven":2948,"ires":2949,"Ġnear":2950,"ateur":2951,"Ġsoc":2952,"Ġvill":2953,"Ġsports":2954,"Ġspielberg":2955,"Ġimax":2956,"Ġoutrage":2957,"Ġtran":2958,"Ġroom":2959,"Ġblend":2960,"izz":2961,"phy":2962,"rison":2963,"Ġtravel":2964,"Ġinterested":2965,"Ġcheck":2966,"Ġterrible":2967,"Ġrelent":2968,"Ġfranch":2969,"Ġwanted":2970,"Ġsets":2971,"Ġsett":2972,"Ġincred":2973,"arring":2974,"Ġrepres":2975,"Ġmarvel":2976,"Ġfright":2977,"Ġevil":2978,"Ġruns":2979,"Ġhappy":2980,"Ġgeneral":2981,"Ġdemonstr":2982,"Ġexpress":2983,"Ġputs":2984,"Ġspiritual":2985,"Ġprofound":2986,"Ġpolitics":2987,"Ġequally":2988,"Ġtransc":2989,"feels":2990,"Ġsentimentality":2991,"Ġdrug":2992,"Ġaffection":2993,"Ġstunning":2994,"Ġsituations":2995,"Ġforgettable":2996,"written":2997,"Ġpoetry":2998,"Ġderiv":2999,"after":3000,"Ġlargely":3001,"Ġextraord":3002,"Ġbritish":3003,"Ġindeed":3004,"Ġtelevision":3005,"Ġpoignant":3006,"Ġpurpose":3007,"Ġheaven":3008,"Ġpieces":3009,"Ġgoofy":3010,"Ġinnoc":3011,"Ġsophisticated":3012,"Ġsuperficial":3013,"Ġstrength":3014,"Ġstereot":3015,"Ġfranchise":3016,"bear":3017,"cr":3018,"corn":3019,"eper":3020,"fer":3021,"fun":3022,"ium":3023,"long":3024,"miss":3025,"par":3026,"sm":3027,"ters":3028,"xic":3029,"Ġtough":3030,"Ġaccess":3031,"Ġfreak":3032,"eni":3033,"Ġbog":3034,"Ġbold":3035,"Ġwest":3036,"Ġwall":3037,"Ġpan":3038,"Ġpian":3039,"ara":3040,"arity":3041,"Ġhits":3042,"Ġhyp":3043,"Ġtoday":3044,"iling":3045,"Ġloses":3046,"asp":3047,"Ġstom":3048,"Ġstay":3049,"uls":3050,"Ġforced":3051,"those":3052,"Ġalive":3053,"erson":3054,"agon":3055,"Ġliked":3056,"aks":3057,"atever":3058,"Ġring":3059,"inded":3060,"venge":3061,"osity":3062,"Ġspace":3063,"Ġimpl":3064,"Ġamateur":3065,"Ġtrash":3066,"Ġlog":3067,"Ġdisc":3068,"Ġmeans":3069,"Ġmaybe":3070,"Ġsurvi":3071,"Ġsurround":3072,"bergh":3073,"Ġsmo":3074,"Ġscreenwrit":3075,"Ġcinemat":3076,"getic":3077,"Ġguess":3078,"Ġviewing":3079,"Ġapparent":3080,"Ġsetting":3081,"Ġexcit":3082,"Ġexcess":3083,"arrass":3084,"Ġcreated":3085,"ancing":3086,"Ġproduct":3087,"Ġedge":3088,"mined":3089,"Ġdetail":3090,"cover":3091,"Ġabsolutely":3092,"Ġpainful":3093,"Ġeleg":3094,"Ġsaid":3095,"Ġprofess":3096,"worth":3097,"Ġmagn":3098,"Ġcliche":3099,"Ġquestions":3100,"Ġcentral":3101,"Ġmurphy":3102,"Ġgrief":3103,"Ġjackson":3104,"Ġstrangely":3105,"Ġvirtually":3106,"Ġdepressing":3107,"Ġgeorge":3108,"Ġtypical":3109,"Ġhaunting":3110,"Ġcolorful":3111,"Ġcrafted":3112,"Ġenthusi":3113,"Ġmodest":3114,"Ġdisturbing":3115,"Ġunintent":3116,"Ġridiculous":3117,"Ġmesmer":3118,"Ġtransp":3119,"Ġderivative":3120,"bad":3121,"back":3122,"boy":3123,"bling":3124,"dis":3125,"felt":3126,"ging":3127,"hol":3128,"ken":3129,"kable":3130,"ole":3131,"phed":3132,"uit":3133,"ura":3134,"vin":3135,"wo":3136,"yle":3137,"Ġign":3138,"Ġtire":3139,"Ġtender":3140,"Ġaverage":3141,"ina":3142,"instead":3143,"Ġsight":3144,"Ġfiction":3145,"ator":3146,"Ġcry":3147,"Ġwife":3148,"orious":3149,"Ġpen":3150,"Ġdu":3151,"alian":3152,"Ġlame":3153,"Ġlaw":3154,"Ġlines":3155,"Ġlength":3156,"ashing":3157,"Ġstage":3158,"Ġstock":3159,"Ġreach":3160,"rap":3161,"chant":3162,"Ġfill":3163,"Ġansw":3164,"Ġsugar":3165,"irth":3166,"ids":3167,"Ġchan":3168,"Ġchang":3169,"thr":3170,"about":3171,"ague":3172,"ants":3173,"ander":3174,"Ġallow":3175,"Ġplan":3176,"Ġfeat":3177,"Ġlets":3178,"ichol":3179,"Ġcompet":3180,"Ġroot":3181,"Ġslice":3182,"Ġtalking":3183,"ondz":3184,"Ġparts":3185,"Ġartistic":3186,"Ġobs":3187,"Ġobject":3188,"Ġclearly":3189,"Ġhardly":3190,"cont":3191,"ups":3192,"Ġguilty":3193,"Ġworthwhile":3194,"Ġglimp":3195,"Ġhumanity":3196,"Ġprice":3197,"Ġindie":3198,"Ġoriginality":3199,"Ġfinish":3200,"Ġsket":3201,"Ġirrit":3202,"Ġsexy":3203,"dden":3204,"Ġgeneration":3205,"Ġpainfully":3206,"Ġundeni":3207,"Ġpopcorn":3208,"Ġobviously":3209,"Ġinspired":3210,"Ġinsightful":3211,"Ġcourage":3212,"Ġsimpl":3213,"Ġadmi":3214,"Ġwarmth":3215,"Ġtreasure":3216,"Ġaffecting":3217,"Ġsuffers":3218,"does":3219,"Ġembarrass":3220,"ivalent":3221,"Ġaffair":3222,"Ġextremely":3223,"Ġauthentic":3224,"Ġrefreshingly":3225,"ĠclichÃ©s":3226,"Ġexhilar":3227,"Ġobserv":3228,"Ġfootage":3229,"Ġsucceeds":3230,"Ġsurface":3231,"Ġwedding":3232,"Ġvoice":3233,"Ġopportunity":3234,"Ġgroup":3235,"Ġconventional":3236,"Ġatmosphere":3237,"Ġabsorbing":3238,"Ġcommercial":3239,"Ġeccentric":3240,"Ġenergetic":3241,"Ġriveting":3242,"Ġpublic":3243,"Ġstereotyp":3244,"Ġexcitement":3245,"ave":3246,"aus":3247,"bs":3248,"bor":3249,"bles":3250,"both":3251,"cra":3252,"den":3253,"egr":3254,"hour":3255,"hmer":3256,"ians":3257,"jo":3258,"much":3259,"nal":3260,"nic":3261,"inal":3262,"Ġfashion":3263,"ency":3264,"Ġmc":3265,"Ġmal":3266,"Ġban":3267,"Ġbow":3268,"Ġcore":3269,"onna":3270,"Ġped":3271,"Ġpap":3272,"Ġpick":3273,"Ġdim":3274,"lying":3275,"Ġhall":3276,"lex":3277,"Ġinfl":3278,"illed":3279,"Ġlangu":3280,"Ġna":3281,"Ġgames":3282,"ases":3283,"Ġstre":3284,"Ġrevenge":3285,"theless":3286,"roll":3287,"Ġfilmed":3288,"Ġwithin":3289,"Ġalien":3290,"abor":3291,"Ġjol":3292,"Ġsea":3293,"Ġune":3294,"Ġunfor":3295,"Ġscar":3296,"Ġscream":3297,"Ġking":3298,"Ġry":3299,"Ġallows":3300,"Ġplaces":3301,"udlin":3302,"Ġlearn":3303,"Ġspook":3304,"ards":3305,"Ġtrick":3306,"Ġarri":3307,"ached":3308,"ogn":3309,"Ġadoles":3310,"Ġsomehow":3311,"Ġponder":3312,"Ġblue":3313,"new":3314,"Ġtalk":3315,"Ġsurreal":3316,"Ġservice":3317,"versal":3318,"Ġparty":3319,"Ġheartb":3320,"Ġheartfelt":3321,"Ġgreatest":3322,"Ġtrip":3323,"Ġterror":3324,"Ġperspect":3325,"Ġincre":3326,"Ġmusical":3327,"Ġiran":3328,"Ġaccept":3329,"insky":3330,"Ġdecades":3331,"Ġconsid":3332,"Ġconsist":3333,"Ġbelievable":3334,"Ġefforts":3335,"Ġpresents":3336,"Ġdamned":3337,"Ġequivalent":3338,"Ġmaint":3339,"Ġparticular":3340,"Ġtreatment":3341,"Ġdragon":3342,"Ġtells":3343,"Ġveh":3344,"Ġmotion":3345,"Ġident":3346,"Ġremarkably":3347,"Ġholds":3348,"Ġsleep":3349,"Ġbalance":3350,"Ġspectacle":3351,"Ġachieve":3352,"Ġdelicate":3353,"Ġpoorly":3354,"Ġpowers":3355,"Ġslapstick":3356,"Ġpeter":3357,"school":3358,"Ġamazing":3359,"Ġcharisma":3360,"Ġjapanese":3361,"Ġprotagon":3362,"Ġunusual":3363,"Ġtiresome":3364,"ha":3365,"ike":3366,"pet":3367,"rous":3368,"set":3369,"val":3370,"will":3371,"yc":3372,"Ġice":3373,"Ġty":3374,"Ġtour":3375,"Ġtelling":3376,"ining":3377,"Ġsnow":3378,"Ġsitting":3379,"rely":3380,"Ġopt":3381,"Ġfer":3382,"Ġfur":3383,"Ġmas":3384,"Ġmill":3385,"Ġmult":3386,"Ġwil":3387,"Ġwast":3388,"Ġwry":3389,"esc":3390,"only":3391,"onishing":3392,"Ġpic":3393,"Ġpra":3394,"Ġdiv":3395,"aries":3396,"ario":3397,"Ġthird":3398,"leby":3399,"Ġlay":3400,"Ġlate":3401,"Ġloose":3402,"Ġnichol":3403,"star":3404,"Ġgut":3405,"Ġgem":3406,"uter":3407,"Ġmoore":3408,"otten":3409,"Ġstir":3410,"Ġstick":3411,"Ġstret":3412,"imsy":3413,"etic":3414,"Ġyarn":3415,"Ġaspect":3416,"Ġaltern":3417,"unfortunately":3418,"Ġjames":3419,"Ġintended":3420,"Ġshap":3421,"Ġshame":3422,"Ġshallow":3423,"Ġdeeper":3424,"Ġuncon":3425,"Ġneg":3426,"Ġscore":3427,"Ġscience":3428,"Ġconce":3429,"asts":3430,"Ġsoft":3431,"Ġsoder":3432,"andon":3433,"Ġprog":3434,"Ġruss":3435,"Ġplod":3436,"veness":3437,"Ġvan":3438,"Ġspot":3439,"Ġspoof":3440,"Ġarch":3441,"Ġsomewhere":3442,"Ġcompassion":3443,"Ġcomputer":3444,"Ġenter":3445,"Ġusually":3446,"ultim":3447,"Ġemph":3448,"Ġoffering":3449,"Ġrad":3450,"Ġtheme":3451,"atively":3452,"Ġdesp":3453,"Ġdirectorial":3454,"Ġscreenwriter":3455,"Ġcontra":3456,"Ġages":3457,"inks":3458,"Ġlonger":3459,"Ġtrif":3460,"umbs":3461,"avor":3462,"Ġpointless":3463,"Ġneeded":3464,"ucing":3465,"ext":3466,"Ġplease":3467,"Ġirre":3468,"Ġediting":3469,"Ġsubjects":3470,"Ġsequence":3471,"Ġbrown":3472,"Ġsitcom":3473,"Ġstudio":3474,"Ġgenerally":3475,"Ġswim":3476,"Ġharm":3477,"Ġcommunity":3478,"Ġsounds":3479,"work":3480,"Ġwildly":3481,"Ġbehavi":3482,"Ġcentury":3483,"Ġpromising":3484,"Ġcredits":3485,"Ġvalue":3486,"ground":3487,"Ġsignific":3488,"Ġdreams":3489,"Ġgenuinely":3490,"Ġangst":3491,"Ġcombination":3492,"Ġdevelopment":3493,"Ġspectacular":3494,"Ġpossibly":3495,"Ġeventually":3496,"Ġfigure":3497,"Ġgangster":3498,"Ġfunnier":3499,"Ġbrothers":3500,"Ġdeftly":3501,"Ġempty":3502,"Ġmartin":3503,"Ġdescri":3504,"Ġrepetitive":3505,"Ġfestival":3506,"Ġamateurish":3507,"Ġmesmerizing":3508,"Ġvehicle":3509,"Ġidentity":3510,"Ġsoderbergh":3511,"cher":3512,"cult":3513,"dri":3514,"dow":3515,"dram":3516,"funny":3517,"gory":3518,"high":3519,"minded":3520,"nces":3521,"ru":3522,"rum":3523,"she":3524,"suff":3525,"uro":3526,"win":3527,"Ġ&":3528,"ern":3529,"itude":3530,"Ġfier":3531,"Ġble":3532,"Ġbody":3533,"Ġbored":3534,"Ġbott":3535,"ingu":3536,"Ġpract":3537,"Ġpaced":3538,"Ġpinoc":3539,"Ġdie":3540,"Ġhide":3541,"Ġtoss":3542,"Ġinner":3543,"eds":3544,"iler":3545,"illy":3546,"omb":3547,"Ġnumbers":3548,"Ġnumber":3549,"stream":3550,"Ġearly":3551,"Ġgold":3552,"ented":3553,"asm":3554,"ashed":3555,"Ġresem":3556,"verse":3557,"Ġsun":3558,"irty":3559,"ifting":3560,"Ġchase":3561,"Ġchann":3562,"Ġjer":3563,"agal":3564,"umble":3565,"cks":3566,"Ġliber":3567,"Ġsham":3568,"Ġshots":3569,"Ġdevoid":3570,"Ġsco":3571,"Ġconcl":3572,"Ġkiller":3573,"actic":3574,"Ġprove":3575,"Ġprovide":3576,"uddy":3577,"alling":3578,"Ġord":3579,"Ġqueen":3580,"dep":3581,"Ġarg":3582,"acious":3583,"aches":3584,"Ġjustice":3585,"Ġwilling":3586,"comes":3587,"Ġblade":3588,"Ġoverly":3589,"Ġperformers":3590,"Ġemp":3591,"Ġdisp":3592,"Ġslick":3593,"ips":3594,"Ġraw":3595,"Ġrip":3596,"spired":3597,"Ġteam":3598,"Ġteacher":3599,"Ġdesire":3600,"bute":3601,"Ġresults":3602,"leasant":3603,"Ġcrimes":3604,"Ġholes":3605,"Ġchees":3606,"Ġkevin":3607,"reek":3608,"Ġgiant":3609,"Ġfarce":3610,"Ġrecogn":3611,"avis":3612,"Ġglass":3613,"Ġturned":3614,"Ġindust":3615,"Ġpleasures":3616,"Ġthinks":3617,"Ġsheer":3618,"Ġphys":3619,"Ġmembers":3620,"Ġschm":3621,"stein":3622,"ample":3623,"Ġhappen":3624,"Ġmindless":3625,"Ġ199":3626,"Ġvisuals":3627,"Ġsave":3628,"Ġsecret":3629,"Ġcaptiv":3630,"Ġexpected":3631,"standing":3632,"Ġreading":3633,"Ġvalues":3634,"ropri":3635,"Ġanti":3636,"Ġquietly":3637,"Ġuniversal":3638,"Ġstunts":3639,"Ġstriking":3640,"Ġfrequently":3641,"wrought":3642,"whel":3643,"Ġendearing":3644,"Ġinept":3645,"Ġattraction":3646,"Ġrelease":3647,"Ġprecious":3648,"Ġcomplicated":3649,"eyed":3650,"Ġbullock":3651,"Ġrevolution":3652,"Ġconstructed":3653,"Ġexploration":3654,"Ġdisguise":3655,"Ġlazy":3656,"Ġsociety":3657,"Ġoutrageous":3658,"Ġextraordinary":3659,"Ġaccessible":3660,"Ġstomach":3661,"Ġcinematography":3662,"Ġprofessional":3663,"Ġirritating":3664,"Ġsimplistic":3665,"Ġperspective":3666,"ultimately":3667,"Ġemphas":3668,"Ġbehavior":3669,"aud":3670,"ailed":3671,"bol":3672,"brid":3673,"cies":3674,"eath":3675,"fman":3676,"gor":3677,"girl":3678,"hu":3679,"mi":3680,"mar":3681,"mas":3682,"night":3683,"pret":3684,"run":3685,"su":3686,"top":3687,"talk":3688,"yes":3689,"Ġ7":3690,"Ġic":3691,"Ġten":3692,"Ġtack":3693,"Ġaust":3694,"Ġauth":3695,"Ġsed":3696,"Ġsides":3697,"rem":3698,"rest":3699,"erable":3700,"itional":3701,"Ġfle":3702,"Ġms":3703,"Ġmiche":3704,"atisf":3705,"Ġbod":3706,"Ġbore":3707,"Ġbits":3708,"Ġcro":3709,"Ġcaut":3710,"oric":3711,"Ġpus":3712,"aning":3713,"Ġdyn":3714,"Ġdazz":3715,"alan":3716,"Ġhur":3717,"Ġhus":3718,"Ġhook":3719,"lete":3720,"Ġnick":3721,"Ġitalian":3722,"Ġger":3723,"Ġgar":3724,"Ġbears":3725,"vern":3726,"ulation":3727,"chan":3728,"Ġasp":3729,"sec":3730,"irming":3731,"Ġcomment":3732,"Ġchance":3733,"Ġchuck":3734,"Ġchines":3735,"Ġmoviemaking":3736,"ama":3737,"Ġalle":3738,"Ġalthough":3739,"abl":3740,"Ġexample":3741,"Ġshake":3742,"Ġdeb":3743,"ivered":3744,"Ġuncom":3745,"Ġconscious":3746,"asting":3747,"Ġsoon":3748,"ford":3749,"Ġproceed":3750,"Ġfears":3751,"Ġpreach":3752,"Ġvol":3753,"Ġvulg":3754,"Ġspin":3755,"Ġspell":3756,"Ġclim":3757,"itters":3758,"Ġloved":3759,"Ġarn":3760,"aufman":3761,"Ġadult":3762,"weight":3763,"Ġpoke":3764,"Ġroger":3765,"Ġovercome":3766,"Ġoverwhel":3767,"Ġrand":3768,"Ġvibr":3769,"ressed":3770,"Ġtext":3771,"Ġdelivered":3772,"Ġserves":3773,"Ġcontrol":3774,"Ġholid":3775,"Ġshowc":3776,"Ġinsult":3777,"Ġgrim":3778,"Ġtribute":3779,"Ġgrad":3780,"Ġenjoyed":3781,"Ġplayful":3782,"neyed":3783,"Ġreflect":3784,"Ġhorrif":3785,"Ġfriends":3786,"Ġproduced":3787,"Ġimagery":3788,"Ġmonty":3789,"Ġ195":3790,"hens":3791,"Ġpresence":3792,"prod":3793,"Ġcommon":3794,"Ġnowhere":3795,"Ġdivers":3796,"class":3797,"Ġlevels":3798,"Ġdamn":3799,"Ġmarks":3800,"Ġintrigue":3801,"Ġcredit":3802,"Ġbenef":3803,"Ġembra":3804,"Ġdouble":3805,"Ġexploit":3806,"Ġpoetic":3807,"Ġfatal":3808,"warming":3809,"Ġachieves":3810,"Ġdigital":3811,"Ġunpleasant":3812,"Ġsplend":3813,"Ġpulls":3814,"Ġfailure":3815,"Ġfrustrating":3816,"Ġessentially":3817,"Ġsongs":3818,"Ġintentions":3819,"Ġdesigned":3820,"Ġstruggle":3821,"Ġannoying":3822,"Ġnecessary":3823,"Ġfolks":3824,"Ġmachine":3825,"Ġpredecessor":3826,"Ġchallenging":3827,"Ġpositive":3828,"Ġconcerned":3829,"Ġdiverting":3830,"Ġhackneyed":3831,"Ġstructure":3832,"Ġmanipulative":3833,"Ġnonsense":3834,"Ġincredibly":3835,"Ġglimpse":3836,"Ġexhilarating":3837,"Ġincreas":3838,"Ġfurther":3839,"Ġtrifle":3840,"Ġbottom":3841,"Ġdynam":3842,"Ġchinese":3843,"eur":3844,"gy":3845,"gan":3846,"iation":3847,"ivid":3848,"kins":3849,"lor":3850,"mn":3851,"mr":3852,"mak":3853,"nature":3854,"pleas":3855,"vard":3856,"Ġ\\/":3857,"Ġtor":3858,"Ġtight":3859,"Ġtort":3860,"inated":3861,"Ġsill":3862,"Ġsappy":3863,"rep":3864,"reaking":3865,"rets":3866,"rehens":3867,"erk":3868,"Ġfu":3869,"Ġfab":3870,"Ġfish":3871,"Ġmile":3872,"Ġmale":3873,"Ġmention":3874,"Ġband":3875,"Ġbudget":3876,"Ġbunch":3877,"Ġcell":3878,"Ġcame":3879,"Ġcause":3880,"Ġwide":3881,"orous":3882,"ority":3883,"once":3884,"Ġpur":3885,"Ġprison":3886,"Ġdick":3887,"Ġdance":3888,"Ġdys":3889,"Ġdaring":3890,"Ġhay":3891,"Ġhill":3892,"iced":3893,"ilities":3894,"Ġnational":3895,"sters":3896,"Ġgro":3897,"Ġgreek":3898,"Ġstate":3899,"Ġstale":3900,"Ġreno":3901,"ceived":3902,"Ġanaly":3903,"ribly":3904,"oop":3905,"Ġsuspect":3906,"iring":3907,"Ġchris":3908,"americ":3909,"Ġhear":3910,"abs":3911,"unt":3912,"Ġjason":3913,"Ġjunk":3914,"uming":3915,"Ġseat":3916,"Ġseason":3917,"Ġexquis":3918,"Ġshakes":3919,"quent":3920,"Ġnotice":3921,"Ġhair":3922,"Ġdecept":3923,"Ġunh":3924,"Ġconsp":3925,"Ġconvers":3926,"aine":3927,"Ġsober":3928,"Ġrough":3929,"udes":3930,"indulgent":3931,"Ġlee":3932,"osition":3933,"ffman":3934,"Ġvs":3935,"Ġvamp":3936,"Ġstoryline":3937,"plo":3938,"endent":3939,"Ġqual":3940,"Ġnostal":3941,"Ġflow":3942,"Ġflair":3943,"oyant":3944,"Ġroles":3945,"Ġoffensive":3946,"Ġmechan":3947,"Ġtwice":3948,"Ġtalents":3949,"Ġrealism":3950,"ledge":3951,"Ġdirectors":3952,"Ġremem":3953,"Ġremain":3954,"shot":3955,"Ġstrict":3956,"igni":3957,"orsese":3958,"Ġ11":3959,"Ġromp":3960,"Ġcruel":3961,"Ġviscer":3962,"Ġemotion":3963,"Ġterrit":3964,"Ġcollect":3965,"Ġenglish":3966,"Ġgloss":3967,"Ġexcuse":3968,"Ġinco":3969,"Ġindivid":3970,"Ġcreating":3971,"Ġbuy":3972,"ological":3973,"together":3974,"Ġappear":3975,"Ġhoffman":3976,"Ġsolondz":3977,"Ġeduc":3978,"Ġdelivery":3979,"Ġmira":3980,"Ġwonderfully":3981,"elessly":3982,"Ġsafe":3983,"Ġbarbers":3984,"Ġreturn":3985,"offers":3986,"Ġsurely":3987,"Ġdamage":3988,"Ġmainstream":3989,"Ġmarket":3990,"Ġtrem":3991,"Ġoddly":3992,"Ġwait":3993,"Ġwaiting":3994,"Ġcomedic":3995,"Ġcontriv":3996,"Ġmotiv":3997,"medi":3998,"Ġregard":3999,"Ġdevast":4000,"Ġdeserve":4001,"Ġmixed":4002,"Ġgrows":4003,"everything":4004,"Ġlandsc":4005,"Ġstandards":4006,"whether":4007,"Ġdesperate":4008,"Ġinspiring":4009,"Ġearth":4010,"Ġfunniest":4011,"film":4012,"Ġsource":4013,"Ġparker":4014,"Ġdetermined":4015,"Ġastonishing":4016,"Ġmetaphor":4017,"Ġbreatht":4018,"Ġaccomplished":4019,"Ġmoviegoers":4020,"Ġclumsy":4021,"Ġemerges":4022,"Ġdreary":4023,"Ġintellectual":4024,"Ġintrod":4025,"funct":4026,"Ġadmirable":4027,"Ġpaper":4028,"Ġryan":4029,"Ġadolescent":4030,"Ġprotagonist":4031,"Ġtype":4032,"Ġfierce":4033,"Ġchannel":4034,"Ġindustry":4035,"Ġcaution":4036,"ittersweet":4037,"Ġvibrant":4038,"Ġholiday":4039,"natured":4040,"Ġnostalg":4041,"aith":4042,"aid":4043,"bit":4044,"bas":4045,"book":4046,"da":4047,"del":4048,"falls":4049,"gest":4050,"gment":4051,"hard":4052,"iveness":4053,"lie":4054,"oft":4055,"rat":4056,"say":4057,"vil":4058,"xx":4059,"Ġven":4060,"Ġsan":4061,"Ġsix":4062,"Ġsister":4063,"rect":4064,"ero":4065,"itch":4066,"Ġfal":4067,"Ġfly":4068,"Ġfable":4069,"Ġfood":4070,"ision":4071,"Ġment":4072,"Ġmac":4073,"atter":4074,"Ġbed":4075,"Ġbother":4076,"Ġbuff":4077,"Ġbittersweet":4078,"Ġcate":4079,"Ġcard":4080,"Ġwoo":4081,"Ġwann":4082,"esque":4083,"orig":4084,"orient":4085,"Ġpile":4086,"another":4087,"Ġdread":4088,"Ġhig":4089,"icism":4090,"Ġinh":4091,"Ġlos":4092,"Ġnarc":4093,"Ġgrown":4094,"Ġstays":4095,"Ġstarring":4096,"Ġrepe":4097,"vert":4098,"Ġanne":4099,"Ġyu":4100,"Ġaside":4101,"aded":4102,"Ġwhatever":4103,"irm":4104,"Ġcompl":4105,"Ġcha":4106,"Ġchick":4107,"tha":4108,"amalan":4109,"Ġjones":4110,"Ġsearch":4111,"Ġseagal":4112,"Ġintens":4113,"Ġintegr":4114,"Ġlies":4115,"Ġnotion":4116,"ante":4117,"Ġdeg":4118,"Ġunw":4119,"Ġunfl":4120,"peare":4121,"ellow":4122,"Ġkick":4123,"Ġkore":4124,"Ġsole":4125,"udic":4126,"Ġspend":4127,"ongs":4128,"pper":4129,"Ġloving":4130,"thern":4131,"Ġwears":4132,"Ġweek":4133,"acity":4134,"Ġdirecting":4135,"Ġworked":4136,"Ġoverwrought":4137,"Ġempathy":4138,"Ġdisaster":4139,"ensions":4140,"Ġsloppy":4141,"lessness":4142,"osterous":4143,"Ġthematic":4144,"Ġmayhem":4145,"anski":4146,"phic":4147,"Ġserved":4148,"Ġstrang":4149,"Ġmatters":4150,"Ġplotting":4151,"Ġ15":4152,"redict":4153,"Ġbigger":4154,"Ġminute":4155,"uctive":4156,"Ġshowing":4157,"Ġgritty":4158,"teen":4159,"Ġscenario":4160,"Ġlesson":4161,"ggy":4162,"Ġrelatively":4163,"Ġrecyc":4164,"Ġbackground":4165,"Ġfinding":4166,"Ġdepiction":4167,"Ġdrawn":4168,"Ġbecoming":4169,"Ġexplos":4170,"Ġfriday":4171,"Ġcarries":4172,"Ġcrack":4173,"Ġexperiences":4174,"Ġmorality":4175,"Ġinvest":4176,"Ġpersonality":4177,"Ġsuperior":4178,"Ġstands":4179,"imental":4180,"Ġ198":4181,"covery":4182,"Ġdemand":4183,"Ġzone":4184,"Ġpaint":4185,"Ġsouth":4186,"Ġsecrets":4187,"Ġmaudlin":4188,"Ġbarry":4189,"Ġaddition":4190,"Ġretread":4191,"Ġconfusing":4192,"Ġassured":4193,"Ġambig":4194,"Ġreasonably":4195,"Ġaccount":4196,"Ġlively":4197,"Ġadmire":4198,"Ġcomplexity":4199,"Ġviolent":4200,"Ġbeginning":4201,"Ġpaul":4202,"Ġcaper":4203,"Ġdisappointing":4204,"Ġnicely":4205,"Ġgrowing":4206,"Ġxxx":4207,"Ġtechnical":4208,"Ġescape":4209,"Ġcondition":4210,"Ġdrive":4211,"Ġcurrent":4212,"Ġchoices":4213,"Ġexhaust":4214,"Ġchristian":4215,"Ġchristmas":4216,"ovich":4217,"Ġforeign":4218,"Ġknock":4219,"ophical":4220,"Ġingen":4221,"Ġforgotten":4222,"looking":4223,"Ġmistake":4224,"Ġdangerous":4225,"Ġtotal":4226,"\\*\\*":4227,"Ġmakers":4228,"sometimes":4229,"Ġphilosophical":4230,"Ġincluding":4231,"Ġrepresents":4232,"Ġstreet":4233,"Ġiranian":4234,"Ġaspects":4235,"rupt":4236,"Ġconclusion":4237,"Ġarnold":4238,"Ġpokemon":4239,"Ġincreasingly":4240,"Ġterritory":4241,"Ġindividual":4242,"Ġbarbershop":4243,"Ġcautionary":4244,"aves":4245,"bar":4246,"bra":4247,"bble":4248,"dog":4249,"eks":4250,"fri":4251,"from":4252,"fest":4253,"hip":4254,"ients":4255,"kn":4256,"length":4257,"nan":4258,"nam":4259,"oly":4260,"pan":4261,"rate":4262,"rated":4263,"tv":4264,"two":4265,"uity":4266,"vag":4267,"vate":4268,"xious":4269,"your":4270,"yamalan":4271,"Ġtux":4272,"Ġsam":4273,"Ġsade":4274,"Ġfis":4275,"Ġmass":4276,"athetic":4277,"Ġbou":4278,"Ġbol":4279,"Ġbag":4280,"Ġbart":4281,"Ġbree":4282,"Ġbaff":4283,"Ġburns":4284,"Ġcatch":4285,"Ġwis":4286,"Ġwent":4287,"Ġwack":4288,"Ġwond":4289,"inging":4290,"oring":4291,"Ġpity":4292,"ano":4293,"Ġdon":4294,"Ġthous":4295,"Ġthreat":4296,"Ġhang":4297,"icy":4298,"iles":4299,"Ġling":4300,"Ġlil":4301,"Ġluc":4302,"Ġluck":4303,"Ġnumb":4304,"stated":4305,"Ġeast":4306,"Ġell":4307,"Ġmoves":4308,"Ġstuck":4309,"imm":4310,"Ġrend":4311,"Ġrede":4312,"raid":4313,"chio":4314,"Ġyes":4315,"rian":4316,"riage":4317,"essions":4318,"Ġyouth":4319,"Ġsucc":4320,"Ġchilling":4321,"Ġjul":4322,"ager":4323,"agers":4324,"ghter":4325,"emy":4326,"Ġlived":4327,"Ġlikable":4328,"aky":4329,"istent":4330,"Ġhaw":4331,"Ġscorsese":4332,"aint":4333,"Ġkaufman":4334,"igg":4335,"anders":4336,"Ġru":4337,"Ġris":4338,"Ġric":4339,"Ġrises":4340,"Ġacts":4341,"Ġspring":4342,"Ġcloying":4343,"Ġmanage":4344,"acqu":4345,"Ġtook":4346,"comedy":4347,"Ġusing":4348,"Ġblock":4349,"Ġdish":4350,"ensional":4351,"Ġrace":4352,"Ġbrought":4353,"angle":4354,"Ġstring":4355,"Ġhearts":4356,"Ġmyth":4357,"Ġmyself":4358,"Ġbiggest":4359,"Ġminim":4360,"Ġcrass":4361,"Ġcrude":4362,"Ġobsc":4363,"Ġthrilling":4364,"autiful":4365,"beautiful":4366,"Ġlaughter":4367,"Ġhumorous":4368,"rowing":4369,"Ġcollection":4370,"Ġolder":4371,"Ġknowing":4372,"Ġappropri":4373,"Ġdepart":4374,"Ġmessages":4375,"Ġideal":4376,"Ġelo":4377,"Ġirres":4378,"Ġcreativity":4379,"Ġmartha":4380,"Ġmarriage":4381,"Ġdistract":4382,"Ġdistingu":4383,"Ġrefere":4384,"Ġpolanski":4385,"Ġevo":4386,"Ġbitter":4387,"Ġpersona":4388,"Ġmike":4389,"Ġsequels":4390,"Ġleaving":4391,"Ġdetails":4392,"Ġdetailed":4393,"Ġze":4394,"Ġwitch":4395,"Ġharvard":4396,"ographed":4397,"Ġelement":4398,"Ġfamilies":4399,"Ġbox":4400,"Ġcommun":4401,"Ġcapture":4402,"Ġconviction":4403,"Ġpotentially":4404,"Ġopening":4405,"works":4406,"ointed":4407,"Ġpatience":4408,"ographic":4409,"Ġcenter":4410,"ificial":4411,"apses":4412,"going":4413,"Ġfantas":4414,"Ġfantastic":4415,"Ġtrek":4416,"Ġbeneath":4417,"Ġbenigni":4418,"Ġfairy":4419,"Ġsuspenseful":4420,"Ġsigns":4421,"Ġrevealing":4422,"Ġwinds":4423,"Ġjew":4424,"Ġjeal":4425,"Ġspeaking":4426,"Ġcapable":4427,"Ġmadonna":4428,"Ġsympathy":4429,"board":4430,"Ġfollowing":4431,"Ġliterary":4432,"Ġresonant":4433,"Ġresonance":4434,"filled":4435,"Ġfaithful":4436,"Ġhomage":4437,"Ġkissinger":4438,"uddled":4439,"Ġunlikely":4440,"Ġimpression":4441,"Ġappreciate":4442,"Ġrhythms":4443,"Ġpreposterous":4444,"Ġbrutal":4445,"Ġcynical":4446,"Ġrespons":4447,"Ġvillain":4448,"Ġlogic":4449,"Ġfeaturing":4450,"Ġinflu":4451,"Ġspooky":4452,"Ġconsistently":4453,"Ġwasted":4454,"Ġstirring":4455,"Ġdespair":4456,"Ġharmless":4457,"Ġpinocchio":4458,"Ġcheesy":4459,"Ġcaptivating":4460,"Ġdazzling":4461,"Ġpreachy":4462,"Ġvulgar":4463,"Ġvisceral":4464,"aithful":4465,"Ġintensity":4466,"udicrous":4467,"ares":4468,"band":4469,"cal":4470,"don":4471,"dom":4472,"dim":4473,"eff":4474,"fam":4475,"gust":4476,"gressive":4477,"har":4478,"ira":4479,"ipe":4480,"ja":4481,"ka":4482,"mill":4483,"mitt":4484,"mod":4485,"near":4486,"numbers":4487,"ok":4488,"uable":4489,"yet":4490,"Ġ$":4491,"Ġtay":4492,"Ġtong":4493,"Ġtempt":4494,"Ġtasty":4495,"Ġav":4496,"Ġath":4497,"Ġade":4498,"ince":4499,"Ġsag":4500,"Ġsant":4501,"Ġsold":4502,"Ġfate":4503,"Ġfac":4504,"Ġfool":4505,"ene":4506,"Ġmou":4507,"Ġmount":4508,"Ġboo":4509,"Ġbab":4510,"Ġbite":4511,"Ġcu":4512,"Ġcas":4513,"Ġpair":4514,"Ġhun":4515,"icip":4516,"Ġinherent":4517,"edo":4518,"iliar":4519,"Ġlousy":4520,"Ġludicrous":4521,"Ġnasty":4522,"style":4523,"Ġeg":4524,"Ġevid":4525,"Ġeuro":4526,"asher":4527,"Ġstu":4528,"Ġstat":4529,"Ġstop":4530,"ray":4531,"Ġupl":4532,"these":4533,"Ġonto":4534,"Ġanth":4535,"Ġask":4536,"Ġasks":4537,"ads":4538,"Ġwhom":4539,"ooby":4540,"idly":4541,"ifying":4542,"Ġchron":4543,"thin":4544,"than":4545,"Ġheal":4546,"abe":4547,"ago":4548,"Ġsees":4549,"eman":4550,"Ġens":4551,"Ġenig":4552,"antial":4553,"Ġdealing":4554,"Ġunfortunately":4555,"Ġunimag":4556,"Ġscatt":4557,"ained":4558,"full":4559,"udge":4560,"Ġpress":4561,"Ġvague":4562,"Ġspent":4563,"Ġspider":4564,"Ġimmedi":4565,"Ġclo":4566,"Ġclot":4567,"Ġclarity":4568,"ief":4569,"ploy":4570,"hington":4571,"ppert":4572,"Ġmanh":4573,"Ġamused":4574,"orton":4575,"Ġflo":4576,"Ġflu":4577,"Ġfluff":4578,"perfect":4579,"Ġintoxic":4580,"Ġadam":4581,"Ġdirects":4582,"odes":4583,"Ġblow":4584,"Ġblair":4585,"Ġtimely":4586,"Ġoffbeat":4587,"Ġhumour":4588,"Ġslack":4589,"Ġslasher":4590,"Ġmeandering":4591,"neider":4592,"spirit":4593,"ocaust":4594,"Ġtales":4595,"Ġrealized":4596,"Ġrealize":4597,"Ġvide":4598,"Ġwashington":4599,"Ġteens":4600,"Ġsmile":4601,"Ġsmug":4602,"versive":4603,"Ġnews":4604,"Ġcontent":4605,"Ġhoward":4606,"lier":4607,"Ġ12":4608,"Ġheartwarming":4609,"Ġartists":4610,"Ġartificial":4611,"Ġresist":4612,"Ġcheer":4613,"Ġwars":4614,"Ġkey":4615,"Ġdownright":4616,"conom":4617,"conceived":4618,"Ġafric":4619,"Ġrelig":4620,"Ġcharms":4621,"Ġsatir":4622,"Ġsatur":4623,"Ġindian":4624,"Ġfinale":4625,"Ġbuilt":4626,"nov":4627,"Ġhorrible":4628,"Ġmemories":4629,"Ġevocative":4630,"Ġbroom":4631,"Ġbroken":4632,"Ġhappened":4633,"Ġanimal":4634,"without":4635,"Ġhandsome":4636,"Ġdemands":4637,"Ġportray":4638,"Ġwitness":4639,"Ġintermitt":4640,"Ġsouthern":4641,"Ġunfaithful":4642,"Ġsensual":4643,"Ġexpectations":4644,"offensive":4645,"Ġpopular":4646,"Ġassass":4647,"vised":4648,"Ġteenage":4649,"Ġinsights":4650,"Ġpathetic":4651,"Ġequal":4652,"Ġslowly":4653,"Ġaccur":4654,"Ġcounter":4655,"Ġwinner":4656,"Ġmainly":4657,"Ġhonesty":4658,"Ġbooks":4659,"Ġbasic":4660,"Ġsupporting":4661,"Ġjournal":4662,"Ġpaid":4663,"Ġunderstanding":4664,"Ġlifeless":4665,"Ġextravag":4666,"Ġtwisted":4667,"Ġliterally":4668,"Ġroller":4669,"Ġindep":4670,"Ġissue":4671,"Ġactresses":4672,"Ġtheaters":4673,"Ġtradition":4674,"Ġtraditional":4675,"Ġreminds":4676,"Ġdesperately":4677,"Ġpoignancy":4678,"Ġhybrid":4679,"Ġlyrical":4680,"Ġinev":4681,"Ġpathos":4682,"Ġreleased":4683,"Ġdeterm":4684,"Ġingred":4685,"Ġtears":4686,"Ġpulp":4687,"Ġpacked":4688,"Ġfrontal":4689,"Ġpuzz":4690,"Ġtotally":4691,"Ġcloser":4692,"Ġlady":4693,"Ġguns":4694,"Ġrequired":4695,"Ġcostumes":4696,"Ġrhythm":4697,"Ġsacrif":4698,"Ġcandy":4699,"Ġuninspired":4700,"Ġscreenwriting":4701,"Ġlawrence":4702,"irthday":4703,"Ġembarrassment":4704,"Ġobservations":4705,"Ġstereotypes":4706,"craft":4707,"Ġbanal":4708,"Ġwilde":4709,"drama":4710,"Ġordinary":4711,"Ġhusband":4712,"Ġcommentary":4713,"Ġuncomfort":4714,"Ġsilliness":4715,"Ġdickens":4716,"Ġanalyze":4717,"Ġvampire":4718,"Ġnostalgia":4719,"Ġfalse":4720,"Ġrepeated":4721,"Ġdegree":4722,"Ġfisher":4723,"Ġwacky":4724,"Ġredeem":4725,"dimensional":4726,"Ġsanta":4727,"bet":4728,"bid":4729,"bered":4730,"eve":4731,"fty":4732,"feld":4733,"ham":4734,"hang":4735,"hash":4736,"house":4737,"jointed":4738,"lock":4739,"mal":4740,"met":4741,"mare":4742,"none":4743,"oons":4744,"part":4745,"prise":4746,"pathetic":4747,"sl":4748,"sol":4749,"tri":4750,"wit":4751,"ya":4752,"zog":4753,"Ġtend":4754,"Ġtuck":4755,"inching":4756,"Ġsly":4757,"Ġsell":4758,"Ġsend":4759,"Ġoli":4760,"ites":4761,"Ġfanc":4762,"Ġfield":4763,"Ġmisf":4764,"Ġmiller":4765,"Ġbes":4766,"Ġbour":4767,"Ġbound":4768,"Ġbang":4769,"Ġbath":4770,"Ġbase":4771,"Ġwra":4772,"oul":4773,"anes":4774,"Ġdv":4775,"Ġdue":4776,"Ġdub":4777,"Ġdrown":4778,"Ġdancing":4779,"Ġdirty":4780,"lyn":4781,"Ġhong":4782,"Ġhint":4783,"Ġhost":4784,"icing":4785,"Ġincon":4786,"Ġinane":4787,"Ġincomp":4788,"Ġinoffensive":4789,"Ġlane":4790,"sts":4791,"still":4792,"stopp":4793,"Ġeight":4794,"Ġeconom":4795,"Ġgos":4796,"Ġgore":4797,"Ġgender":4798,"Ġstiff":4799,"video":4800,"Ġrele":4801,"Ġreaction":4802,"rarely":4803,"Ġonscreen":4804,"ola":4805,"olation":4806,"sey":4807,"Ġwhims":4808,"Ġwhimsy":4809,"ooper":4810,"Ġali":4811,"Ġalab":4812,"Ġheld":4813,"Ġheard":4814,"abashed":4815,"ume":4816,"umm":4817,"umin":4818,"umps":4819,"Ġseven":4820,"ousing":4821,"Ġenvi":4822,"Ġenorm":4823,"urs":4824,"Ġintric":4825,"Ġlie":4826,"Ġexceed":4827,"outs":4828,"romising":4829,"antino":4830,"estic":4831,"Ġunre":4832,"Ġunless":4833,"Ġuncomp":4834,"Ġunabashed":4835,"Ġneat":4836,"Ġscott":4837,"Ġconc":4838,"Ġconve":4839,"pered":4840,"Ġkong":4841,"usive":4842,"Ġproper":4843,"Ġrat":4844,"Ġrush":4845,"Ġthank":4846,"Ġsomber":4847,"inducing":4848,"Ġleon":4849,"Ġprefer":4850,"ffic":4851,"Ġvent":4852,"Ġspan":4853,"Ġspir":4854,"Ġspare":4855,"Ġspite":4856,"Ġclock":4857,"place":4858,"ppings":4859,"Ġoutside":4860,"manages":4861,"Ġtrite":4862,"Ġlovers":4863,"inee":4864,"Ġnoir":4865,"Ġupd":4866,"ache":4867,"Ġjustify":4868,"Ġpoem":4869,"Ġrow":4870,"izations":4871,"Ġdisplay":4872,"Ġdisbelie":4873,"rying":4874,"who":4875,"why":4876,"Ġmeat":4877,"Ġsubversive":4878,"ocused":4879,"oster":4880,"Ġremote":4881,"Ġmatinee":4882,"Ġcontext":4883,"Ġpecul":4884,"Ġtrappings":4885,"Ġ100":4886,"urning":4887,"Ġartif":4888,"Ġcrim":4889,"Ġobno":4890,"Ġcharacterizations":4891,"Ġhollow":4892,"Ġholocaust":4893,"Ġaware":4894,"Ġgrasp":4895,"Ġclean":4896,"Ġafraid":4897,"Ġrelies":4898,"Ġpretension":4899,"Ġamericans":4900,"ibal":4901,"Ġengage":4902,"Ġbelongs":4903,"Ġlaughing":4904,"Ġturning":4905,"Ġfinest":4906,"Ġiron":4907,"Ġformat":4908,"apping":4909,"meaning":4910,"Ġdistance":4911,"Ġpolished":4912,"directed":4913,"Ġproduc":4914,"Ġcrap":4915,"Ġmelanch":4916,"Ġmixt":4917,"Ġmonsters":4918,"Ġsaying":4919,"Ġtouches":4920,"Ġ197":4921,"Ġhands":4922,"attan":4923,"Ġharry":4924,"Ġstartling":4925,"Ġsaving":4926,"incent":4927,"Ġspirited":4928,"Ġsmarter":4929,"Ġparable":4930,"Ġparody":4931,"Ġcommitted":4932,"Ġadds":4933,"Ġconfron":4934,"Ġmissed":4935,"Ġinspire":4936,"Ġmenace":4937,"Ġcliched":4938,"Ġambition":4939,"Ġteenagers":4940,"Ġhelps":4941,"entioned":4942,"Ġhonestly":4943,"Ġlarger":4944,"Ġcutting":4945,"Ġterrifying":4946,"Ġstylized":4947,"Ġcalcul":4948,"Ġimportance":4949,"rida":4950,"Ġhopeful":4951,"Ġdisappointed":4952,"Ġsubstit":4953,"Ġunderstands":4954,"Ġnightmare":4955,"Ġhopkins":4956,"Ġsymbol":4957,"Ġbringing":4958,"Ġtechnology":4959,"Ġgrandeur":4960,"Ġproviding":4961,"Ġimprob":4962,"Ġsubtlety":4963,"Ġsophom":4964,"Ġfigures":4965,"Ġcourt":4966,"Ġgodard":4967,"gener":4968,"Ġballistic":4969,"Ġphotography":4970,"Ġearlier":4971,"Ġendeavor":4972,"Ġrevelatory":4973,"aughter":4974,"Ġcontinues":4975,"Ġ51":4976,"Ġtiming":4977,"Ġcuriosity":4978,"Ġpredecessors":4979,"Ġsuggests":4980,"maybe":4981,"Ġrewarding":4982,"Ġshadow":4983,"Ġconstantly":4984,"Ġvictims":4985,"Ġlocal":4986,"Ġinexplic":4987,"imagine":4988,"human":4989,"Ġticket":4990,"Ġcrisp":4991,"Ġdistinctive":4992,"Ġencounter":4993,"Ġrelentless":4994,"Ġtranscends":4995,"Ġdrugs":4996,"Ġinnocence":4997,"Ġpianist":4998,"Ġelegant":4999,"Ġunintentional":5000,"Ġanswers":5001,"Ġplanet":5002,"Ġcompetent":5003,"Ġsketch":5004,"Ġundeniably":5005,"Ġlanguage":5006,"Ġheartbreaking":5007,"Ġachievement":5008,"Ġplodding":5009,"Ġenterprise":5010,"Ġsignificant":5011,"culture":5012,"Ġbleak":5013,"talkers":5014,"Ġaustin":5015,"Ġconsciousness":5016,"Ġproceedings":5017,"Ġgradually":5018,"Ġdiversion":5019,"Ġdysfunct":5020,"american":5021,"Ġshakespeare":5022,"Ġstrictly":5023,"Ġincoherent":5024,"Ġcontrivances":5025,"Ġdevastating":5026,"often":5027,"Ġwannabe":5028,"original":5029,"oriented":5030,"Ġinhab":5031,"redictable":5032,"Ġtuxedo":5033,"Ġzeal":5034,"Ġjealousy":5035,"Ġmanhattan":5036,"spirited":5037,"Ġsaturday":5038,"Ġingredients":5039,"Ġwhimsical":5040,"Ġalabama":5041,"Ġdisbelief":5042,"Ġmixture":5043,"bal":5044,"bur":5045,"bell":5046,"brow":5047,"can":5048,"cock":5049,"dro":5050,"dem":5051,"effect":5052,"fr":5053,"far":5054,"free":5055,"gs":5056,"his":5057,"hor":5058,"iant":5059,"iently":5060,"jud":5061,"kill":5062,"list":5063,"lig":5064,"loud":5065,"makes":5066,"nest":5067,"och":5068,"occ":5069,"po":5070,"pic":5071,"paced":5072,"sily":5073,"ta":5074,"town":5075,"under":5076,"urable":5077,"van":5078,"vity":5079,"wis":5080,"would":5081,"Ġton":5082,"Ġtem":5083,"Ġtap":5084,"Ġtaut":5085,"Ġai":5086,"Ġach":5087,"ini":5088,"inn":5089,"iner":5090,"hey":5091,"hered":5092,"herence":5093,"Ġsar":5094,"Ġsara":5095,"rey":5096,"Ġod":5097,"Ġfund":5098,"Ġfizz":5099,"ener":5100,"Ġbul":5101,"Ġbuddy":5102,"Ġcable":5103,"Ġcath":5104,"Ġciv":5105,"Ġcorn":5106,"Ġwow":5107,"Ġwils":5108,"orter":5109,"Ġpy":5110,"Ġpad":5111,"Ġpse":5112,"anz":5113,"Ġdud":5114,"Ġdies":5115,"Ġdrop":5116,"arante":5117,"Ġthick":5118,"lym":5119,"Ġhart":5120,"lets":5121,"ication":5122,"icago":5123,"Ġinform":5124,"Ġincons":5125,"Ġinnov":5126,"Ġlimp":5127,"Ġlump":5128,"omp":5129,"Ġnom":5130,"Ġnation":5131,"stop":5132,"step":5133,"stract":5134,"starts":5135,"Ġgag":5136,"Ġgory":5137,"Ġgimm":5138,"Ġisland":5139,"asive":5140,"Ġstaged":5141,"Ġstops":5142,"imer":5143,"Ġreview":5144,"cho":5145,"etnam":5146,"ridden":5147,"Ġforces":5148,"Ġsuit":5149,"Ġsund":5150,"irms":5151,"iding":5152,"ifty":5153,"Ġchilly":5154,"Ġhey":5155,"Ġjon":5156,"Ġjim":5157,"Ġjag":5158,"uments":5159,"ummy":5160,"Ġseve":5161,"urance":5162,"Ġexotic":5163,"Ġshyamalan":5164,"Ġabandon":5165,"Ġabstract":5166,"Ġunne":5167,"Ġunner":5168,"Ġunbear":5169,"Ġscrew":5170,"Ġconvey":5171,"Ġconsequ":5172,"pecc":5173,"Ġkill":5174,"Ġkung":5175,"Ġkilled":5176,"Ġsoci":5177,"Ġsoggy":5178,"apur":5179,"forward":5180,"Ġrit":5181,"Ġrise":5182,"opic":5183,"Ġactual":5184,"udo":5185,"Ġprecise":5186,"Ġvincent":5187,"Ġpercept":5188,"Ġperverse":5189,"Ġorder":5190,"acked":5191,"Ġimage":5192,"Ġclub":5193,"Ġclaust":5194,"manship":5195,"Ġloves":5196,"acc":5197,"Ġanywhere":5198,"Ġcomparis":5199,"ilet":5200,"Ġroots":5201,"eping":5202,"Ġoverlong":5203,"Ġdismiss":5204,"Ġdiscovery":5205,"Ġdisgust":5206,"Ġoffice":5207,"Ġslip":5208,"Ġfaces":5209,"ensely":5210,"Ġvietnam":5211,"Ġgenres":5212,"Ġendless":5213,"Ġdramat":5214,"Ġseemed":5215,"Ġseemingly":5216,"renching":5217,"Ġherzog":5218,"inking":5219,"Ġunderstated":5220,"Ġfamous":5221,"Ġshowtime":5222,"Ġaward":5223,"Ġcover":5224,"Ġcock":5225,"Ġattitude":5226,"Ġscenery":5227,"athers":5228,"gettable":5229,"Ġterribly":5230,"Ġgraphic":5231,"gger":5232,"ggio":5233,"ibilities":5234,"Ġbelly":5235,"Ġknowledge":5236,"Ġdepict":5237,"Ġkiddie":5238,"Ġcarefully":5239,"Ġelabor":5240,"Ġkeeping":5241,"Ġshel":5242,"Ġeffectively":5243,"Ġirish":5244,"ateral":5245,"Ġacad":5246,"Ġpolice":5247,"aneke":5248,"Ġfrida":5249,"cessary":5250,"Ġcarvey":5251,"struction":5252,"Ġbiting":5253,"Ġschneider":5254,"Ġcultures":5255,"Ġcreation":5256,"Ġsuperb":5257,"Ġsilence":5258,"Ġhappiness":5259,"Ġchildhood":5260,"Ġgenerate":5261,"Ġwrote":5262,"Ġwondering":5263,"Ġportrayal":5264,"quee":5265,"Ġstarted":5266,"Ġexpert":5267,"Ġpredictably":5268,"Ġinterview":5269,"Ġborrow":5270,"Ġborder":5271,"Ġfeatures":5272,"Ġparad":5273,"Ġsadness":5274,"Ġunfolds":5275,"Ġunfocused":5276,"Ġleaden":5277,"Ġsensational":5278,"Ġunsatisf":5279,"Ġconvinc":5280,"Ġconvolut":5281,"Ġpotent":5282,"Ġmisses":5283,"Ġmasterful":5284,"Ġredund":5285,"Ġdahmer":5286,"Ġsatisfy":5287,"visually":5288,"Ġadmit":5289,"Ġdramatically":5290,"Ġcredible":5291,"Ġcredibility":5292,"Ġsnap":5293,"Ġbrief":5294,"anyone":5295,"Ġheroine":5296,"Ġdrags":5297,"Ġdifference":5298,"ropol":5299,"Ġdrum":5300,"Ġcuts":5301,"Ġmetropol":5302,"Ġstylistic":5303,"Ġreveal":5304,"Ġbrilliantly":5305,"Ġstunt":5306,"Ġwriters":5307,"umpkin":5308,"alloween":5309,"Ġwindow":5310,"Ġstrike":5311,"Ġjean":5312,"Ġangel":5313,"Ġrestra":5314,"Ġexplores":5315,"Ġexploitation":5316,"Ġmadness":5317,"Ġcorrect":5318,"Ġinstall":5319,"Ġinstinct":5320,"Ġshocking":5321,"Ġvirtues":5322,"Ġconduct":5323,"Ġpossess":5324,"Ġbloody":5325,"Ġimprove":5326,"Ġtestament":5327,"Ġtheatre":5328,"Ġtheatrical":5329,"Ġfighting":5330,"Ġcontempl":5331,"Ġcopy":5332,"Ġdestination":5333,"Ġexistence":5334,"Ġexistential":5335,"Ġinspirational":5336,"Ġhyper":5337,"Ġ40":5338,"charine":5339,"Ġshooting":5340,"Ġcelebrates":5341,"Ġvarious":5342,"Ġdelivering":5343,"Ġpalma":5344,"Ġlimited":5345,"Ġvividly":5346,"Ġpitch":5347,"Ġcharismatic":5348,"Ġflashy":5349,"Ġwoody":5350,"Ġnerve":5351,"Ġforgive":5352,"Ġnecessarily":5353,"Ġlegend":5354,"Ġdraws":5355,"Ġ50":5356,"Ġgift":5357,"Ġgifted":5358,"Ġdanger":5359,"Ġconstant":5360,"Ġvictim":5361,"Ġsaccharine":5362,"Ġfrailty":5363,"Ġescapism":5364,"Ġestabl":5365,"Ġnuanced":5366,"Ġethnic":5367,"Ġscratch":5368,"Ġprivate":5369,"Ġdomestic":5370,"Ġrelentlessly":5371,"Ġfrightening":5372,"smart":5373,"Ġfreaks":5374,"Ġpiano":5375,"Ġimplaus":5376,"Ġsmooth":5377,"Ġapparently":5378,"Ġmagnific":5379,"Ġunintentionally":5380,"Ġobsession":5381,"Ġpedest":5382,"Ġnicholas":5383,"Ġprogram":5384,"Ġcontradict":5385,"dowell":5386,"Ġfleet":5387,"Ġrandom":5388,"Ġhorrifying":5389,"Ġsplendid":5390,"Ġremembered":5391,"Ġlandscape":5392,"Ġbreathtaking":5393,"Ġchaotic":5394,"Ġunflinching":5395,"Ġingenious":5396,"Ġbreezy":5397,"Ġrendered":5398,"beautifully":5399,"Ġtongue":5400,"Ġathlet":5401,"Ġadequ":5402,"Ġsaga":5403,"Ġcasual":5404,"Ġeurope":5405,"Ġstuart":5406,"Ġuplifting":5407,"Ġunimaginative":5408,"Ġintoxicating":5409,"Ġindependent":5410,"Ġenviron":5411,"Ġuncompromising":5412,"Ġobnoxious":5413,"Ġdysfunctional":5414,"Ġinhabit":5415,"Ġfundament":5416,"Ġwilson":5417,"Ġpseudo":5418,"Ġunnecessary":5419,"Ġclaustro":5420,"19":5421,"aa":5422,"aim":5423,"agh":5424,"aul":5425,"aude":5426,"aeff":5427,"ben":5428,"bes":5429,"bro":5430,"big":5431,"bust":5432,"born":5433,"balls":5434,"city":5435,"dr":5436,"dan":5437,"ean":5438,"fin":5439,"fire":5440,"fell":5441,"fans":5442,"first":5443,"filling":5444,"gl":5445,"half":5446,"ij":5447,"iated":5448,"ls":5449,"lom":5450,"lse":5451,"lines":5452,"luster":5453,"mur":5454,"matic":5455,"nia":5456,"natural":5457,"tis":5458,"ught":5459,"uation":5460,"uated":5461,"uber":5462,"vol":5463,"vous":5464,"wone":5465,"Ġtro":5466,"Ġtatt":5467,"Ġaute":5468,"Ġahead":5469,"inist":5470,"Ġsne":5471,"Ġsays":5472,"Ġsink":5473,"Ġseld":5474,"Ġode":5475,"erv":5476,"erge":5477,"Ġfo":5478,"Ġfing":5479,"Ġfake":5480,"Ġfellow":5481,"isive":5482,"Ġmam":5483,"athing":5484,"Ġbard":5485,"Ġbomb":5486,"Ġcgi":5487,"Ġcaine":5488,"Ġwick":5489,"Ġwound":5490,"Ġwins":5491,"onel":5492,"Ġpage":5493,"Ġpatch":5494,"Ġpays":5495,"Ġphen":5496,"anity":5497,"Ġdut":5498,"Ġdong":5499,"Ġdying":5500,"Ġdroll":5501,"Ġdavis":5502,"arian":5503,"alle":5504,"almost":5505,"Ġhat":5506,"Ġhann":5507,"Ġhalloween":5508,"ica":5509,"Ġtodd":5510,"Ġtoler":5511,"Ġinfect":5512,"ilted":5513,"Ġlu":5514,"Ġlun":5515,"Ġlower":5516,"omen":5517,"omnia":5518,"Ġnam":5519,"Ġnap":5520,"stem":5521,"Ġet":5522,"Ġelect":5523,"Ġgy":5524,"Ġgli":5525,"uted":5526,"entimental":5527,"ask":5528,"asons":5529,"asured":5530,"Ġstatic":5531,"Ġbeast":5532,"Ġreel":5533,"Ġreign":5534,"Ġreject":5535,"raw":5536,"rael":5537,"thet":5538,"thew":5539,"rob":5540,"rovers":5541,"ules":5542,"Ġfilling":5543,"Ġanch":5544,"etime":5545,"ette":5546,"olic":5547,"sex":5548,"seem":5549,"Ġsudden":5550,"idi":5551,"idel":5552,"idence":5553,"ift":5554,"Ġchab":5555,"Ġchoose":5556,"Ġchills":5557,"Ġchina":5558,"thought":5559,"Ġheight":5560,"abeth":5561,"unky":5562,"unchy":5563,"Ġjan":5564,"Ġjar":5565,"Ġjun":5566,"Ġjacqu":5567,"umes":5568,"Ġsepar":5569,"Ġsemi":5570,"urban":5571,"Ġlips":5572,"Ġexuber":5573,"Ġsho":5574,"Ġshr":5575,"Ġship":5576,"Ġabuse":5577,"Ġunrel":5578,"Ġunbelie":5579,"Ġscale":5580,"Ġconj":5581,"Ġconco":5582,"aining":5583,"Ġknew":5584,"usions":5585,"formed":5586,"Ġcharlie":5587,"Ġround":5588,"Ġrules":5589,"inds":5590,"Ġprev":5591,"Ġvit":5592,"Ġvast":5593,"Ġvap":5594,"Ġvint":5595,"Ġvital":5596,"Ġspont":5597,"Ġperpet":5598,"ption":5599,"Ġimitation":5600,"Ġimpecc":5601,"Ġclin":5602,"Ġclunk":5603,"placed":5604,"Ġmann":5605,"Ġmanaged":5606,"Ġamy":5607,"Ġamuse":5608,"Ġque":5609,"Ġtrust":5610,"Ġnoble":5611,"Ġarrest":5612,"ogy":5613,"perhaps":5614,"Ġadv":5615,"Ġsomebody":5616,"Ġanyway":5617,"ntown":5618,"oyan":5619,"Ġentry":5620,"Ġrose":5621,"Ġrohmer":5622,"izabeth":5623,"Ġemploy":5624,"Ġemerge":5625,"Ġdisjointed":5626,"intentioned":5627,"Ġmeant":5628,"Ġmeets":5629,"Ġmeasure":5630,"Ġsubpl":5631,"Ġlooked":5632,"ocity":5633,"ostor":5634,"Ġnevertheless":5635,"resses":5636,"phob":5637,"Ġserial":5638,"show":5639,"Ġseeking":5640,"Ġherself":5641,"Ġmature":5642,"Ġentertained":5643,"Ġcontrovers":5644,"Ġaggressive":5645,"Ġtrapped":5646,"Ġplotted":5647,"athan":5648,"Ġarts":5649,"Ġcrud":5650,"Ġcheese":5651,"Ġthrillers":5652,"mering":5653,"Ġwarning":5654,"aware":5655,"Ġcoherent":5656,"Ġlaug":5657,"conf":5658,"Ġgrab":5659,"Ġcolors":5660,"Ġappl":5661,"Ġcares":5662,"Ġguarante":5663,"Ġlackluster":5664,"avish":5665,"Ġglo":5666,"Ġglor":5667,"Ġglory":5668,"Ġelizabeth":5669,"Ġextended":5670,"Ġirony":5671,"Ġbuoyant":5672,"Ġrefuses":5673,"aneously":5674,"Ġhoot":5675,"Ġproduce":5676,"Ġexperiment":5677,"Ġsolaris":5678,"Ġyounger":5679,"Ġdeliber":5680,"Ġmonot":5681,"Ġminds":5682,"Ġtouched":5683,"Ġdidactic":5684,"Ġhandful":5685,"Ġdarkly":5686,"Ġharrowing":5687,"Ġintern":5688,"Ġstrain":5689,"Ġbrand":5690,"proof":5691,"Ġboom":5692,"Ġparade":5693,"Ġparano":5694,"Ġunsentimental":5695,"Ġretro":5696,"Ġreturns":5697,"Ġengaged":5698,"Ġsystem":5699,"world":5700,"Ġwilder":5701,"Ġpatient":5702,"Ġquirks":5703,"Ġtransl":5704,"Ġsteam":5705,"Ġsimilar":5706,"Ġsimplic":5707,"Ġsubtly":5708,"Ġdelightfully":5709,"Ġbrid":5710,"Ġodds":5711,"Ġready":5712,"Ġdeadly":5713,"Ġdeadpan":5714,"Ġillustr":5715,"Ġmysteries":5716,"Ġpsychology":5717,"remely":5718,"blown":5719,"Ġhitch":5720,"Ġrichly":5721,"Ġfollows":5722,"Ġsuffering":5723,"urpris":5724,"Ġdogs":5725,"Ġspeaks":5726,"Ġdenying":5727,"Ġsubstantial":5728,"Ġ80":5729,"Ġhoping":5730,"Ġlifetime":5731,"Ġletting":5732,"ienced":5733,"Ġexecuted":5734,"Ġtopic":5735,"Ġnonetheless":5736,"Ġmedium":5737,"Ġverve":5738,"Ġdelicious":5739,"overall":5740,"Ġbusy":5741,"Ġjoyous":5742,"Ġerr":5743,"Ġphilip":5744,"Ġfights":5745,"Ġdesperation":5746,"Ġlistless":5747,"Ġpresented":5748,"Ġinspiration":5749,"Ġcritical":5750,"Ġcritics":5751,"Ġhaunted":5752,"Ġamounts":5753,"Ġenthr":5754,"Ġbuilding":5755,"Ġthrows":5756,"Ġcomplications":5757,"Ġopportun":5758,"Ġavoids":5759,"affirming":5760,"Ġchallenges":5761,"Ġconcern":5762,"Ġclumsily":5763,"Ġlocations":5764,"Ġcostume":5765,"Ġbrutally":5766,"something":5767,"Ġcrisis":5768,"Ġphilosop":5769,"Ġrental":5770,"sequential":5771,"Ġuncertain":5772,"Ġsettles":5773,"ersonal":5774,"Ġtrashy":5775,"Ġsurrounding":5776,"Ġscreenwriters":5777,"Ġguessing":5778,"worthy":5779,"Ġenthusiasm":5780,"hollywood":5781,"Ġchanging":5782,"Ġundeniable":5783,"Ġhallmark":5784,"Ġarrives":5785,"Ġconsidering":5786,"Ġoptim":5787,"Ġpraise":5788,"Ġdivine":5789,"Ġrussian":5790,"suffers":5791,"Ġresembles":5792,"Ġscores":5793,"Ġdispos":5794,"Ġphysical":5795,"Ġicon":5796,"Ġnickleby":5797,"Ġgerman":5798,"Ġaspir":5799,"Ġbenefit":5800,"Ġexploitative":5801,"rehensible":5802,"Ġhaynes":5803,"Ġsobering":5804,"Ġglossy":5805,"Ġtremend":5806,"Ġsanct":5807,"Ġsisterhood":5808,"Ġcategory":5809,"Ġintegrity":5810,"Ġbaffling":5811,"Ġricher":5812,"Ġminimal":5813,"Ġirresist":5814,"Ġreferences":5815,"Ġmouth":5816,"Ġscattered":5817,"Ġclooney":5818,"Ġafrican":5819,"Ġsatirical":5820,"Ġinevitable":5821,"Ġdetermination":5822,"Ġfanciful":5823,"Ġbourne":5824,"Ġintricate":5825,"Ġpeculiar":5826,"Ġgimmick":5827,"Ġunnerving":5828,"Ġcomparison":5829,"Ġelaborate":5830,"Ġeuropean":5831,"Ġenvironment":5832,"Ġclaustrophob":5833,"aeffer":5834,"lsea":5835,"Ġphenomen":5836,"Ġnamed":5837,"Ġvintage":5838,"Ġspontane":5839,"Ġimpeccable":5840,"Ġsimplicity":5841,"aver":5842,"bum":5843,"bound":5844,"bted":5845,"backs":5846,"car":5847,"cil":5848,"could":5849,"certain":5850,"cute":5851,"count":5852,"ee":5853,"egger":5854,"fan":5855,"fall":5856,"faced":5857,"gn":5858,"gid":5859,"gant":5860,"god":5861,"iro":5862,"iers":5863,"iable":5864,"iating":5865,"ket":5866,"kind":5867,"lan":5868,"mor":5869,"member":5870,"nair":5871,"oved":5872,"pass":5873,"power":5874,"rity":5875,"sa":5876,"sad":5877,"sweet":5878,"tar":5879,"tun":5880,"take":5881,"takes":5882,"vincing":5883,"wa":5884,"zzy":5885,"Ġ6":5886,"Ġq":5887,"Ġtout":5888,"Ġtast":5889,"Ġties":5890,"Ġtang":5891,"Ġtread":5892,"Ġtask":5893,"Ġaes":5894,"Ġapt":5895,"Ġawe":5896,"Ġaims":5897,"inis":5898,"infeld":5899,"heavy":5900,"Ġske":5901,"rec":5902,"ref":5903,"rend":5904,"Ġoh":5905,"erie":5906,"itz":5907,"Ġfence":5908,"Ġfict":5909,"Ġfred":5910,"Ġfaster":5911,"Ġfancy":5912,"iso":5913,"isse":5914,"eningly":5915,"Ġmcc":5916,"atur":5917,"atile":5918,"Ġbon":5919,"Ġbot":5920,"Ġbone":5921,"Ġbirthday":5922,"Ġcy":5923,"Ġcad":5924,"Ġcere":5925,"Ġcaught":5926,"Ġwet":5927,"Ġwid":5928,"oned":5929,"oubted":5930,"Ġpor":5931,"Ġporn":5932,"Ġdad":5933,"Ġdust":5934,"Ġdare":5935,"Ġdign":5936,"Ġdoll":5937,"arching":5938,"Ġthorn":5939,"Ġthrown":5940,"Ġhust":5941,"leck":5942,"Ġinsec":5943,"edies":5944,"Ġlater":5945,"Ġlamp":5946,"Ġlonel":5947,"stac":5948,"Ġeager":5949,"Ġgle":5950,"Ġgoth":5951,"Ġgigg":5952,"Ġisrael":5953,"elson":5954,"Ġmoth":5955,"Ġmold":5956,"Ġmoved":5957,"Ġmoody":5958,"ashes":5959,"asionally":5960,"otion":5961,"Ġstim":5962,"Ġstro":5963,"Ġstag":5964,"Ġstore":5965,"Ġstilted":5966,"imony":5967,"Ġbeach":5968,"vial":5969,"Ġreli":5970,"Ġreasons":5971,"rah":5972,"raging":5973,"Ġasian":5974,"rium":5975,"olly":5976,"Ġforth":5977,"Ġbutter":5978,"Ġwhale":5979,"Ġwholes":5980,"oochy":5981,"Ġsuited":5982,"irot":5983,"idt":5984,"Ġchore":5985,"Ġchiller":5986,"Ġchoppy":5987,"Ġchases":5988,"ami":5989,"Ġheat":5990,"unlike":5991,"Ġjane":5992,"agand":5993,"Ġsept":5994,"emic":5995,"emark":5996,"Ġenh":5997,"urous":5998,"Ġexagger":5999,"aki":6000,"Ġshim":6001,"Ġshines":6002,"quiet":6003,"Ġnote":6004,"Ġdope":6005,"Ġdoses":6006,"anter":6007,"Ġunful":6008,"Ġunoriginal":6009,"Ġneigh":6010,"Ġscooby":6011,"Ġconven":6012,"Ġkos":6013,"Ġkah":6014,"Ġkenn":6015,"ushing":6016,"Ġcharmer":6017,"Ġprovo":6018,"Ġrings":6019,"Ġrote":6020,"Ġrousing":6021,"opath":6022,"Ġlegged":6023,"Ġvel":6024,"Ġorgan":6025,"pton":6026,"Ġoutstanding":6027,"Ġamid":6028,"Ġquart":6029,"Ġtricks":6030,"Ġloyal":6031,"Ġweep":6032,"Ġweeks":6033,"acino":6034,"Ġfles":6035,"Ġadams":6036,"Ġadvant":6037,"Ġgoodfell":6038,"odic":6039,"Ġcomprom":6040,"Ġcannes":6041,"Ġpool":6042,"Ġblast":6043,"Ġblind":6044,"Ġblues":6045,"Ġblank":6046,"epid":6047,"ultaneously":6048,"Ġdiscer":6049,"Ġdiscover":6050,"ounding":6051,"Ġslog":6052,"ishment":6053,"ipes":6054,"Ġracial":6055,"Ġraunchy":6056,"Ġmeet":6057,"Ġripe":6058,"atically":6059,"Ġendlessly":6060,"ression":6061,"Ġbruce":6062,"Ġtech":6063,"Ġsmoochy":6064,"Ġserve":6065,"Ġcontains":6066,"Ġpeek":6067,"eresting":6068,"Ġundercut":6069,"Ġlonging":6070,"Ġpartly":6071,"Ġparticip":6072,"Ġyearning":6073,"Ġarticul":6074,"Ġjoe":6075,"Ġresolutely":6076,"Ġcharacterization":6077,"Ġchew":6078,"Ġchelsea":6079,"Ġinsane":6080,"Ġvisit":6081,"Ġgrat":6082,"Ġgib":6083,"tech":6084,"Ġcletis":6085,"Ġtried":6086,"Ġtriangle":6087,"construct":6088,"Ġhumorless":6089,"gets":6090,"umbles":6091,"ission":6092,"Ġlesser":6093,"gging":6094,"Ġdocumentaries":6095,"Ġplayers":6096,"Ġbelow":6097,"Ġlaughable":6098,"Ġapply":6099,"Ġappet":6100,"Ġmessy":6101,"Ġprinc":6102,"Ġcareful":6103,"Ġindulgent":6104,"Ġultra":6105,"Ġpleasing":6106,"Ġdrab":6107,"Ġskip":6108,"Ġironic":6109,"Ġreput":6110,"Ġmarginal":6111,"Ġexplore":6112,"Ġdecided":6113,"Ġeasier":6114,"Ġ21":6115,"Ġcarry":6116,"Ġrunner":6117,"Ġeddie":6118,"Ġschwar":6119,"Ġsuperbly":6120,"Ġsupernatural":6121,"Ġsilver":6122,"Ġbros":6123,"Ġhappening":6124,"Ġhalfway":6125,"Ġswallow":6126,"Ġdemographic":6127,"Ġportrays":6128,"Ġsweetness":6129,"Ġzhang":6130,"Ġharsh":6131,"Ġharris":6132,"Ġelev":6133,"Ġinterpret":6134,"Ġcleverness":6135,"Ġlightweight":6136,"Ġdefe":6137,"Ġsmartly":6138,"Ġbob":6139,"Ġbarrel":6140,"Ġundis":6141,"Ġleading":6142,"Ġconvict":6143,"Ġpotter":6144,"arently":6145,"Ġdaytime":6146,"Ġmasterfully":6147,"Ġredempt":6148,"Ġheads":6149,"Ġbehold":6150,"Ġtragedies":6151,"Ġfactor":6152,"opping":6153,"Ġtransform":6154,"Ġaccent":6155,"Ġstead":6156,"urid":6157,"Ġsubtit":6158,"Ġmiserable":6159,"Ġproblematic":6160,"Ġtreats":6161,"Ġbasically":6162,"Ġbride":6163,"Ġheroes":6164,"Ġadventures":6165,"Ġdragons":6166,"Ġwave":6167,"Ġantwone":6168,"Ġcomedian":6169,"Ġmysterious":6170,"blood":6171,"Ġclosely":6172,"hetto":6173,"Ġsouls":6174,"Ġwindtalkers":6175,"Ġstrikes":6176,"ettes":6177,"Ġjackie":6178,"Ġurgen":6179,"Ġspears":6180,"Ġexceptional":6181,"Ġexceptionally":6182,"Ġfourth":6183,"Ġstraightforward":6184,"Ġcorny":6185,"Ġcorner":6186,"Ġcartoons":6187,"Ġpayoff":6188,"Ġderrida":6189,"Ġinstantly":6190,"Ġnights":6191,"grade":6192,"Ġhoped":6193,"Ġsympathetic":6194,"Ġauto":6195,"Ġhugh":6196,"Ġhuppert":6197,"Ġmomentum":6198,"Ġtechnique":6199,"Ġtarantino":6200,"Ġcondesc":6201,"Ġfocused":6202,"Ġdelicately":6203,"Ġbritney":6204,"Ġweirdly":6205,"Ġdepths":6206,"Ġtrademark":6207,"given":6208,"Ġerotic":6209,"Ġunpredictable":6210,"Ġreminder":6211,"Ġcollabor":6212,"Ġtelegra":6213,"Ġdestr":6214,"Ġdestined":6215,"Ġlisten":6216,"Ġintimacy":6217,"Ġpropagand":6218,"Ġphotographed":6219,"Ġpresentation":6220,"charact":6221,"Ġrespectable":6222,"Ġattractive":6223,"Ġcelebration":6224,"Ġ300":6225,"Ġessence":6226,"Ġmerit":6227,"Ġheavi":6228,"Ġknown":6229,"Ġvoices":6230,"Ġvariety":6231,"Ġwooden":6232,"Ġemptiness":6233,"Ġtimeless":6234,"Ġmartial":6235,"Ġcurious":6236,"Ġrewards":6237,"Ġmoviegoing":6238,"Ġsavvy":6239,"Ġshadows":6240,"Ġbiopic":6241,"Ġyawn":6242,"zenegger":6243,"Ġcynicism":6244,"Ġgrey":6245,"Ġcomfortable":6246,"Ġwatched":6247,"Ġtraveler":6248,"Ġmarvelous":6249,"Ġdemonstrates":6250,"Ġtranscend":6251,"Ġhypnot":6252,"ulsive":6253,"Ġchanges":6254,"through":6255,"thriller":6256,"Ġobservation":6257,"Ġscreaming":6258,"Ġponderous":6259,"Ġheartbreak":6260,"Ġmaintains":6261,"Ġmultip":6262,"escap":6263,"Ġnicholson":6264,"Ġshapeless":6265,"Ġunconvincing":6266,"Ġdescribe":6267,"Ġpractically":6268,"Ġliberal":6269,"Ġscope":6270,"Ġargent":6271,"Ġrecognize":6272,"Ġschmalt":6273,"Ġschmidt":6274,"marine":6275,"Ġauthor":6276,"Ġmichel":6277,"Ġpushes":6278,"Ġshowcase":6279,"Ġshowcases":6280,"Ġpositively":6281,"Ġtortured":6282,"absor":6283,"Ġexquisite":6284,"Ġconversations":6285,"ploitation":6286,"based":6287,"deli":6288,"ville":6289,"Ġbuffs":6290,"Ġdreadful":6291,"Ġkorean":6292,"Ġsolemn":6293,"Ġdemanding":6294,"known":6295,"Ġbartleby":6296,"Ġeastwood":6297,"Ġdishon":6298,"Ġappropriate":6299,"Ġsoldiers":6300,"Ġanthony":6301,"Ġreligious":6302,"Ġbroomfield":6303,"Ġintermittently":6304,"Ġassassin":6305,"crafted":6306,"Ġwrapped":6307,"Ġdvd":6308,"Ġinconsequential":6309,"stoppers":6310,"Ġunabashedly":6311,"Ġconcert":6312,"Ġspirits":6313,"Ġartifice":6314,"Ġmelancholy":6315,"Ġconfront":6316,"Ġimprobable":6317,"Ġsophomoric":6318,"occasionally":6319,"Ġdiesel":6320,"Ġritchie":6321,"Ġshelf":6322,"Ġacademy":6323,"Ġconvoluted":6324,"Ġmetropolis":6325,"Ġinstallment":6326,"Ġimplausible":6327,"Ġmagnificent":6328,"Ġpedestrian":6329,"murder":6330,"Ġchabrol":6331,"Ġvitality":6332,"Ġvapid":6333,"Ġhitchcock":6334,"Ġenthralling":6335,"Ġdisposable":6336,"Ġclaustrophobic":6337,"Ġdignity":6338,"Ġneighbor":6339,"Ġgoodfellas":6340,"Ġschwarzenegger":6341,"Ġurgency":6342,"Ġpropaganda":6343,"average":6344,"bb":6345,"bu":6346,"bang":6347,"cast":6348,"cue":6349,"ds":6350,"ded":6351,"dra":6352,"dest":6353,"dry":6354,"dish":6355,"davis":6356,"daughter":6357,"eer":6358,"each":6359,"fly":6360,"fact":6361,"face":6362,"gal":6363,"gent":6364,"great":6365,"hill":6366,"hilar":6367,"iqu":6368,"ius":6369,"ios":6370,"iac":6371,"jam":6372,"jack":6373,"jinsky":6374,"jerk":6375,"kum":6376,"kids":6377,"lers":6378,"little":6379,"lingly":6380,"mm":6381,"mat":6382,"nch":6383,"ox":6384,"oz":6385,"pr":6386,"pion":6387,"pher":6388,"pole":6389,"packed":6390,"rating":6391,"rang":6392,"ruc":6393,"rates":6394,"sis":6395,"spl":6396,"simp":6397,"sized":6398,"ti":6399,"tick":6400,"tale":6401,"uge":6402,"wan":6403,"wall":6404,"wild":6405,"wrenching":6406,"zed":6407,"zel":6408,"Ġeric":6409,"Ġ\\*\\*":6410,"Ġtable":6411,"Ġtends":6412,"Ġtug":6413,"Ġtax":6414,"Ġtamb":6415,"Ġtiny":6416,"Ġtepid":6417,"inable":6418,"hest":6419,"heimer":6420,"Ġsab":6421,"Ġsard":6422,"Ġsie":6423,"Ġsinks":6424,"Ġsquee":6425,"reg":6426,"reck":6427,"Ġow":6428,"Ġops":6429,"Ġought":6430,"ita":6431,"itial":6432,"itect":6433,"Ġfi":6434,"Ġfet":6435,"Ġfame":6436,"Ġfits":6437,"Ġfuri":6438,"Ġfoul":6439,"enstein":6440,"encies":6441,"Ġmud":6442,"Ġmary":6443,"Ġmuddled":6444,"ators":6445,"atives":6446,"Ġber":6447,"Ġbanter":6448,"Ġcher":6449,"Ġcage":6450,"Ġcutes":6451,"Ġcarn":6452,"Ġww":6453,"Ġwither":6454,"Ġwalls":6455,"Ġwishing":6456,"esis":6457,"esse":6458,"ndane":6459,"onous":6460,"Ġpau":6461,"Ġpale":6462,"Ġpush":6463,"Ġplym":6464,"angh":6465,"Ġded":6466,"Ġdum":6467,"Ġanderson":6468,"Ġhing":6469,"Ġhan":6470,"Ġhitting":6471,"Ġhaneke":6472,"icit":6473,"icient":6474,"Ġtown":6475,"Ġtosc":6476,"Ġtoilet":6477,"Ġinject":6478,"ilot":6479,"Ġlion":6480,"Ġlends":6481,"Ġlush":6482,"Ġlavish":6483,"Ġlurid":6484,"omy":6485,"Ġnic":6486,"Ġnut":6487,"sting":6488,"stage":6489,"Ġeat":6490,"Ġeve":6491,"Ġego":6492,"Ġecks":6493,"Ġgid":6494,"Ġgall":6495,"Ġgaz":6496,"Ġgently":6497,"Ġghetto":6498,"Ġmoon":6499,"enter":6500,"entertain":6501,"aser":6502,"asing":6503,"aside":6504,"Ġsto":6505,"Ġster":6506,"Ġstone":6507,"Ġsticks":6508,"imon":6509,"imming":6510,"Ġbegu":6511,"vigor":6512,"Ġrece":6513,"Ġreun":6514,"Ġreplaced":6515,"ulate":6516,"ularly":6517,"ulner":6518,"child":6519,"Ġanime":6520,"Ġangu":6521,"Ġanger":6522,"ety":6523,"olf":6524,"adpole":6525,"Ġford":6526,"Ġformer":6527,"essed":6528,"Ġwholly":6529,"oos":6530,"Ġsup":6531,"Ġsus":6532,"irts":6533,"idden":6534,"ifer":6535,"iform":6536,"Ġchou":6537,"Ġchate":6538,"Ġchap":6539,"Ġchos":6540,"Ġchamp":6541,"Ġchances":6542,"Ġchicago":6543,"think":6544,"thanks":6545,"Ġalbum":6546,"Ġhen":6547,"Ġjump":6548,"Ġjumble":6549,"ummer":6550,"Ġseinfeld":6551,"Ġenlight":6552,"urt":6553,"urity":6554,"isted":6555,"isters":6556,"istoc":6557,"Ġshape":6558,"quite":6559,"Ġabb":6560,"Ġabund":6561,"Ġnotes":6562,"Ġnotorious":6563,"Ġhast":6564,"Ġhawn":6565,"Ġhaph":6566,"Ġdoor":6567,"Ġdeals":6568,"Ġdeeds":6569,"ester":6570,"estyle":6571,"Ġunable":6572,"Ġuniform":6573,"Ġscor":6574,"Ġconcent":6575,"pez":6576,"ella":6577,"eller":6578,"Ġka":6579,"Ġkath":6580,"Ġkline":6581,"Ġkapur":6582,"igo":6583,"usal":6584,"appe":6585,"forms":6586,"Ġprospect":6587,"Ġrum":6588,"Ġrice":6589,"Ġrug":6590,"Ġranks":6591,"opers":6592,"Ġplight":6593,"Ġfeet":6594,"Ġfeathers":6595,"venile":6596,"Ġlean":6597,"Ġlear":6598,"Ġlect":6599,"osyn":6600,"Ġvic":6601,"Ġvoy":6602,"Ġspr":6603,"Ġspots":6604,"Ġspaces":6605,"arded":6606,"ardot":6607,"Ġimplic":6608,"Ġclue":6609,"Ġclause":6610,"Ġclunky":6611,"ples":6612,"pless":6613,"Ġouting":6614,"resents":6615,"mann":6616,"Ġlopez":6617,"icking":6618,"dead":6619,"Ġard":6620,"Ġaristoc":6621,"Ġweb":6622,"Ġwear":6623,"Ġflor":6624,"Ġflour":6625,"Ġflimsy":6626,"Ġadvice":6627,"oding":6628,"Ġanybody":6629,"Ġmundane":6630,"Ġcompens":6631,"Ġcomposed":6632,"Ġoverst":6633,"Ġoverblown":6634,"Ġoffend":6635,"earnest":6636,"ensical":6637,"white":6638,"whatever":6639,"Ġfeelings":6640,"Ġrain":6641,"Ġraises":6642,"Ġmeasured":6643,"nesses":6644,"Ġfailed":6645,"Ġsubl":6646,"Ġsubculture":6647,"Ġsubmarine":6648,"neither":6649,"spoon":6650,"ocation":6651,"Ġeveryday":6652,"Ġgenial":6653,"Ġendure":6654,"Ġdramas":6655,"Ġbruck":6656,"Ġteeth":6657,"Ġseeming":6658,"Ġreminis":6659,"berry":6660,"Ġserving":6661,"shad":6662,"Ġnewcom":6663,"renal":6664,"Ġmatthew":6665,"likable":6666,"Ġaging":6667,"Ġtrav":6668,"Ġtrain":6669,"Ġtrack":6670,"Ġtrailer":6671,"Ġ13":6672,"gins":6673,"Ġaudacious":6674,"Ġundermin":6675,"Ġundercover":6676,"Ġunderlying":6677,"Ġartfully":6678,"Ġmyst":6679,"Ġjoan":6680,"Ġresour":6681,"Ġshoulders":6682,"Ġcruc":6683,"Ġgreater":6684,"Ġoblig":6685,"Ġcastro":6686,"import":6687,"Ġchest":6688,"away":6689,"Ġgrind":6690,"Ġgrating":6691,"Ġcovers":6692,"Ġcohes":6693,"Ġharder":6694,"Ġdowner":6695,"Ġdownbeat":6696,"umbo":6697,"Ġterm":6698,"Ġgrade":6699,"Ġcolumb":6700,"Ġaflo":6701,"Ġkinda":6702,"ocking":6703,"Ġfrance":6704,"Ġfrantic":6705,"atures":6706,"owerment":6707,"Ġreco":6708,"Ġrecreat":6709,"Ġpretends":6710,"Ġpretensions":6711,"Ġguilt":6712,"ibrium":6713,"iffle":6714,"iffere":6715,"Ġbelt":6716,"notch":6717,"Ġwanting":6718,"Ġpointed":6719,"azard":6720,"Ġglorious":6721,"Ġexcruc":6722,"Ġdepend":6723,"Ġdepends":6724,"Ġincisive":6725,"Ġprime":6726,"Ġproud":6727,"Ġindic":6728,"Ġindulg":6729,"Ġpleasurable":6730,"Ġskate":6731,"tsai":6732,"Ġcreature":6733,"Ġreplete":6734,"Ġswept":6735,"Ġburied":6736,"Ġaccomp":6737,"Ġdistaste":6738,"ologically":6739,"Ġrefuge":6740,"Ġdecide":6741,"Ġdecade":6742,"Ġesther":6743,"Ġspecif":6744,"Ġspecific":6745,"Ġhole":6746,"Ġhokum":6747,"Ġconsum":6748,"Ġconserv":6749,"Ġevans":6750,"Ġmorning":6751,"Ġedited":6752,"Ġedges":6753,"Ġschaeffer":6754,"Ġourselves":6755,"Ġcrew":6756,"xton":6757,"Ġsilent":6758,"Ġstudent":6759,"Ġ1970":6760,"Ġ1960":6761,"cool":6762,"Ġdemons":6763,"Ġdemented":6764,"Ġdarker":6765,"Ġwitless":6766,"Ġexpense":6767,"Ġexposition":6768,"Ġeffortlessly":6769,"ographer":6770,"Ġmedia":6771,"Ġcleverly":6772,"Ġsaved":6773,"Ġmax":6774,"bral":6775,"Ġhonor":6776,"Ġsadly":6777,"Ġundoubted":6778,"Ġsenses":6779,"Ġsensibility":6780,"Ġcapturing":6781,"Ġexpectation":6782,"Ġconfused":6783,"Ġconfident":6784,"Ġassoc":6785,"owski":6786,"irds":6787,"ographical":6788,"ification":6789,"opped":6790,"oppola":6791,"Ġaccents":6792,"Ġpromises":6793,"Ġpastiche":6794,"Ġrobin":6795,"uries":6796,"Ġadmission":6797,"Ġdelights":6798,"Ġsolidly":6799,"Ġsinging":6800,"Ġsingles":6801,"Ġsnappy":6802,"Ġfinely":6803,"Ġbasis":6804,"Ġvaluable":6805,"grath":6806,"moving":6807,"serious":6808,"uggish":6809,"Ġillumin":6810,"Ġdrink":6811,"Ġcontribut":6812,"Ġvein":6813,"Ġsupport":6814,"century":6815,"Ġprojects":6816,"veloped":6817,"Ġbrilliance":6818,"Ġsoulful":6819,"Ġsoulless":6820,"Ġhilarity":6821,"Ġlatter":6822,"Ġpassionate":6823,"Ġregret":6824,"Ġinfuri":6825,"Ġurge":6826,"Ġangry":6827,"Ġangels":6828,"Ġspeak":6829,"Ġcapacity":6830,"Ġoccasional":6831,"ridan":6832,"Ġdisappointment":6833,"grand":6834,"Ġoppressive":6835,"Ġlifestyle":6836,"Ġcombat":6837,"Ġcombined":6838,"Ġshocks":6839,"Ġletter":6840,"ungry":6841,"Ġdevelops":6842,"Ġdeveloped":6843,"warm":6844,"ĠclichÃ©d":6845,"Ġsustains":6846,"Ġearnestness":6847,"Ġliterate":6848,"Ġbreaks":6849,"Ġchoice":6850,"Ġstupidity":6851,"Ġforceful":6852,"sembled":6853,"Ġnijinsky":6854,"Ġgangs":6855,"Ġobservant":6856,"rewd":6857,"Ġepisodes":6858,"Ġhype":6859,"Ġlabored":6860,"Ġ101":6861,"guez":6862,"Ġtypes":6863,"Ġhotel":6864,"Ġabsurdist":6865,"Ġabsurdity":6866,"Ġcelebrity":6867,"Ġ30":6868,"Ġstevenson":6869,"Ġbuilds":6870,"Ġmeaningful":6871,"Ġmeaningless":6872,"Ġmediocrity":6873,"Ġnaturalistic":6874,"Ġconnections":6875,"Ġrevelation":6876,"aggy":6877,"Ġstruggling":6878,"Ġpulse":6879,"coli":6880,"Ġfolk":6881,"Ġcuriously":6882,"Ġjuvenile":6883,"Ġminority":6884,"Ġsorry":6885,"Ġunusually":6886,"Ġprimarily":6887,"Ġidiosyn":6888,"Ġstructured":6889,"inoche":6890,"Ġfavorite":6891,"Ġaimed":6892,"Ġnuance":6893,"Ġwaters":6894,"Ġdemonstrate":6895,"Ġinnocent":6896,"cratic":6897,"Ġbogus":6898,"Ġwestern":6899,"Ġwallace":6900,"Ġdiscuss":6901,"rapy":6902,"Ġanswer":6903,"Ġobjective":6904,"Ġsketchy":6905,"joke":6906,"Ġuneasy":6907,"Ġunforced":6908,"Ġunforgettable":6909,"Ġserviceable":6910,"Ġacceptable":6911,"Ġconsidered":6912,"Ġstretched":6913,"Ġneglect":6914,"Ġarchitect":6915,"driguez":6916,"Ġjerry":6917,"Ġempire":6918,"Ġempowerment":6919,"Ġemphasizes":6920,"girls":6921,"Ġauthority":6922,"Ġgarb":6923,"Ġchuckles":6924,"Ġallegory":6925,"Ġvolatile":6926,"Ġinsulting":6927,"produced":6928,"Ġdynamic":6929,"makers":6930,"Ġfuzzy":6931,"Ġfabric":6932,"Ġexquisitely":6933,"Ġdeceptively":6934,"Ġconspira":6935,"Ġqualities":6936,"Ġmechanical":6937,"Ġeducational":6938,"Ġmiracle":6939,"Ġhigher":6940,"Ġrecycled":6941,"Ġambiguity":6942,"Ġexhausting":6943,"bbled":6944,"friend":6945,"Ġthousands":6946,"Ġeloquent":6947,"Ġfantasies":6948,"Ġjewish":6949,"Ġresponsible":6950,"Ġtaylor":6951,"Ġcube":6952,"Ġhunter":6953,"Ġegoyan":6954,"Ġevidence":6955,"Ġstatus":6956,"Ġclothes":6957,"Ġaccurate":6958,"Ġextravaganz":6959,"Ġrollerball":6960,"Ġuncomfortably":6961,"trip":6962,"Ġgosling":6963,"Ġaliens":6964,"Ġenormous":6965,"Ġexceedingly":6966,"Ġclockstoppers":6967,"Ġremotely":6968,"Ġproducers":6969,"Ġsarandon":6970,"Ġbullets":6971,"Ġhartley":6972,"Ġnomination":6973,"Ġjaglom":6974,"Ġconsequences":6975,"Ġprecisely":6976,"Ġexpertly":6977,"Ġparadiso":6978,"Ġunsatisfying":6979,"Ġconvinced":6980,"Ġredundant":6981,"Ġtroopers":6982,"Ġmamet":6983,"Ġwickedly":6984,"Ġhannibal":6985,"Ġinfectious":6986,"Ġglib":6987,"idelity":6988,"Ġclunker":6989,"Ġaggressively":6990,"Ġlaughed":6991,"Ġmonotonous":6992,"Ġphilosophy":6993,"Ġaspirations":6994,"Ġtremendous":6995,"Ġirresistible":6996,"Ġtasteless":6997,"Ġaesthet":6998,"Ġcerebral":6999,"Ġlampoon":7000,"Ġloneliness":7001,"stacles":7002,"Ġmothman":7003,"Ġconvenient":7004,"Ġkahlo":7005,"Ġadvantage":7006,"Ġtechno":7007,"Ġprincip":7008,"Ġredemption":7009,"Ġheavily":7010,"Ġplympton":7011,"anghai":7012,"Ġtosca":7013,"Ġbeguiling":7014,"Ġchosen":7015,"Ġhaphazard":7016,"Ġuniformly":7017,"Ġafloat":7018,"Ġconservative":7019,"ault":7020,"affect":7021,"aque":7022,"bul":7023,"best":7024,"bert":7025,"bog":7026,"brit":7027,"buck":7028,"baked":7029,"broom":7030,"ca":7031,"cre":7032,"cur":7033,"call":7034,"card":7035,"cong":7036,"cross":7037,"camp":7038,"coll":7039,"cient":7040,"dist":7041,"done":7042,"dark":7043,"dition":7044,"efully":7045,"fs":7046,"fast":7047,"fig":7048,"fred":7049,"fails":7050,"fisted":7051,"gain":7052,"green":7053,"gian":7054,"hat":7055,"han":7056,"hart":7057,"ii":7058,"iat":7059,"iantly":7060,"je":7061,"jones":7062,"kh":7063,"know":7064,"lar":7065,"lich":7066,"luc":7067,"lacks":7068,"lasting":7069,"master":7070,"nings":7071,"numb":7072,"oe":7073,"oh":7074,"oes":7075,"oid":7076,"prom":7077,"pie":7078,"parts":7079,"ration":7080,"rich":7081,"rote":7082,"sim":7083,"soph":7084,"such":7085,"sided":7086,"satisf":7087,"tw":7088,"tical":7089,"turn":7090,"tany":7091,"uv":7092,"ule":7093,"ueless":7094,"ufact":7095,"vino":7096,"ware":7097,"water":7098,"willi":7099,"witty":7100,"witted":7101,"xual":7102,"yac":7103,"yaz":7104,"zes":7105,"Ġut":7106,"Ġtab":7107,"Ġtum":7108,"Ġtart":7109,"Ġtiss":7110,"Ġtail":7111,"Ġtones":7112,"Ġack":7113,"Ġaug":7114,"inent":7115,"inous":7116,"inian":7117,"inner":7118,"inarily":7119,"hecies":7120,"Ġsake":7121,"Ġsits":7122,"Ġsane":7123,"Ġsord":7124,"Ġsizz":7125,"Ġsisters":7126,"reign":7127,"rection":7128,"Ġok":7129,"eral":7130,"ercial":7131,"ito":7132,"itor":7133,"itative":7134,"itivity":7135,"Ġtherapy":7136,"Ġfro":7137,"Ġfond":7138,"Ġfix":7139,"Ġfirm":7140,"isi":7141,"isk":7142,"enough":7143,"Ġmour":7144,"Ġmish":7145,"Ġmull":7146,"Ġmars":7147,"Ġmired":7148,"Ġmalk":7149,"Ġmtv":7150,"Ġmuted":7151,"Ġba":7152,"Ġbare":7153,"Ġbread":7154,"Ġbio":7155,"Ġbank":7156,"Ġbump":7157,"Ġcul":7158,"Ġcook":7159,"Ġwake":7160,"Ġwend":7161,"Ġwoll":7162,"Ġwreck":7163,"esome":7164,"ouge":7165,"oufl":7166,"Ġpill":7167,"anth":7168,"anny":7169,"Ġdot":7170,"Ġdro":7171,"Ġdow":7172,"Ġdass":7173,"Ġdaw":7174,"arat":7175,"arse":7176,"arious":7177,"around":7178,"alia":7179,"Ġthom":7180,"Ġthumbs":7181,"Ġhal":7182,"Ġhund":7183,"Ġhosp":7184,"Ġhanks":7185,"Ġhipp":7186,"Ġhidden":7187,"leigh":7188,"icion":7189,"Ġtool":7190,"Ġtooth":7191,"Ġtoback":7192,"Ġinert":7193,"edom":7194,"edek":7195,"ilarly":7196,"ilibrium":7197,"Ġlou":7198,"Ġlust":7199,"Ġlark":7200,"Ġlull":7201,"Ġlapses":7202,"omercial":7203,"Ġnet":7204,"Ġnum":7205,"Ġnine":7206,"Ġnail":7207,"Ġnelson":7208,"stars":7209,"steven":7210,"Ġeffic":7211,"Ġga":7212,"Ġgel":7213,"Ġgrew":7214,"Ġgasp":7215,"Ġisolation":7216,"ution":7217,"eling":7218,"elled":7219,"Ġmob":7220,"Ġmol":7221,"enth":7222,"Ġsting":7223,"Ġstif":7224,"Ġstation":7225,"Ġstink":7226,"Ġstream":7227,"Ġstalk":7228,"iments":7229,"Ġbear":7230,"Ġren":7231,"Ġrein":7232,"Ġreact":7233,"Ġrecon":7234,"Ġrehash":7235,"rably":7236,"their":7237,"roads":7238,"ulating":7239,"ulated":7240,"uloid":7241,"chang":7242,"chool":7243,"Ġanom":7244,"Ġanach":7245,"Ġanarch":7246,"Ġassem":7247,"Ġassembled":7248,"olent":7249,"owing":7250,"owed":7251,"ada":7252,"ading":7253,"advent":7254,"essend":7255,"essica":7256,"Ġbutt":7257,"idedly":7258,"ifest":7259,"Ġchur":7260,"Ġchord":7261,"Ġchai":7262,"Ġchief":7263,"amber":7264,"amiliar":7265,"Ġaltogether":7266,"Ġhew":7267,"Ġjudd":7268,"Ġjagger":7269,"Ġjessica":7270,"aging":7271,"umst":7272,"Ġseats":7273,"ckay":7274,"ouses":7275,"ousness":7276,"emesis":7277,"Ġenchant":7278,"urrection":7279,"Ġintact":7280,"Ġliz":7281,"akable":7282,"isto":7283,"isterous":7284,"Ġshout":7285,"Ġshine":7286,"Ġshrewd":7287,"Ġshaggy":7288,"quer":7289,"Ġdose":7290,"Ġdear":7291,"esty":7292,"Ġunm":7293,"Ġuncomm":7294,"Ġunlikable":7295,"Ġneo":7296,"Ġneil":7297,"Ġscre":7298,"Ġscares":7299,"Ġconstruction":7300,"Ġworn":7301,"Ġkin":7302,"Ġkne":7303,"Ġkicks":7304,"igree":7305,"ushed":7306,"aping":7307,"Ġcharged":7308,"Ġrating":7309,"Ġrank":7310,"Ġrude":7311,"Ġrising":7312,"Ġplat":7313,"Ġfeast":7314,"tering":7315,"Ġleigh":7316,"Ġvac":7317,"Ġvulner":7318,"Ġsport":7319,"Ġspice":7320,"Ġspread":7321,"ptuous":7322,"Ġclown":7323,"ppy":7324,"Ġouts":7325,"Ġouter":7326,"Ġoutcome":7327,"endes":7328,"many":7329,"Ġfuneral":7330,"Ġmanners":7331,"Ġmanufact":7332,"Ġmanifest":7333,"Ġamiable":7334,"ortions":7335,"Ġlock":7336,"deep":7337,"ictment":7338,"Ġnobody":7339,"Ġups":7340,"Ġarc":7341,"Ġarth":7342,"Ġargue":7343,"Ġweigh":7344,"Ġwearing":7345,"Ġflamb":7346,"Ġflavor":7347,"peror":7348,"Ġwillis":7349,"Ġaddict":7350,"Ġadrenal":7351,"odge":7352,"comings":7353,"Ġmuse":7354,"Ġcompan":7355,"Ġentr":7356,"Ġblat":7357,"Ġblur":7358,"Ġblown":7359,"Ġblame":7360,"eped":7361,"Ġovert":7362,"Ġperformed":7363,"Ġemperor":7364,"Ġdisar":7365,"Ġdisint":7366,"Ġdisquiet":7367,"ndering":7368,"arker":7369,"Ġbettany":7370,"ints":7371,"Ġslo":7372,"atchable":7373,"Ġwells":7374,"Ġrac":7375,"Ġray":7376,"Ġraise":7377,"Ġmeal":7378,"Ġmexic":7379,"Ġfault":7380,"Ġrival":7381,"spielberg":7382,"Ġgoal":7383,"Ġimpul":7384,"Ġtalky":7385,"Ġgenius":7386,"Ġbrisk":7387,"Ġsmacks":7388,"Ġsmiles":7389,"soon":7390,"should":7391,"shall":7392,"shine":7393,"renched":7394,"Ġcontest":7395,"Ġpeace":7396,"Ġagent":7397,"acht":7398,"ignant":7399,"Ġ18":7400,"Ġpartners":7401,"Ġroman":7402,"Ġartful":7403,"Ġartsy":7404,"Ġrescue":7405,"inematic":7406,"ismo":7407,"ashy":7408,"scale":7409,"Ġcrane":7410,"Ġcharacteristic":7411,"iane":7412,"Ġholm":7413,"imps":7414,"Ġshower":7415,"Ġawfully":7416,"Ġwarri":7417,"Ġinsuff":7418,"Ġinsanity":7419,"awk":7420,"Ġkeen":7421,"Ġkept":7422,"Ġcoff":7423,"Ġcode":7424,"Ġcobbled":7425,"Ġattal":7426,"tei":7427,"ription":7428,"Ġfarc":7429,"Ġfarrel":7430,"Ġgrac":7431,"Ġgravity":7432,"Ġlessons":7433,"Ġrelate":7434,"Ġrelax":7435,"Ġenjoys":7436,"Ġenjoyably":7437,"mostly":7438,"Ġeverlasting":7439,"ibles":7440,"Ġplayer":7441,"note":7442,"vides":7443,"Ġcharmless":7444,"Ġappalling":7445,"Ġglum":7446,"Ġfewer":7447,"Ġkidman":7448,"uffy":7449,"Ġincess":7450,"Ġincarn":7451,"Ġincident":7452,"Ġindiffere":7453,"Ġindictment":7454,"Ġelusive":7455,"Ġhighlight":7456,"Ġphone":7457,"Ġsweeping":7458,"Ġbucks":7459,"arned":7460,"Ġsincer":7461,"Ġsinister":7462,"Ġmarquis":7463,"flick":7464,"noon":7465,"Ġacqu":7466,"Ġexplan":7467,"Ġreflection":7468,"Ġrefusal":7469,"Ġdecidedly":7470,"Ġsurprised":7471,"anek":7472,"Ġafternoon":7473,"Ġhokey":7474,"Ġease":7475,"Ġcarl":7476,"Ġcarp":7477,"Ġcaring":7478,"Ġcarried":7479,"Ġcarmen":7480,"Ġevol":7481,"Ġexperienced":7482,"Ġmorally":7483,"Ġmorvern":7484,"Ġedgy":7485,"stealing":7486,"Ġpassing":7487,"Ġpasses":7488,"Ġmonument":7489,"Ġmonsoon":7490,"Ġclassics":7491,"Ġbrooding":7492,"Ġhappily":7493,"Ġdetached":7494,"Ġgenerous":7495,"Ġ193":7496,"Ġhandle":7497,"Ġhandled":7498,"playing":7499,"Ġtitles":7500,"Ġdemoc":7501,"Ġbelieving":7502,"Ġsweetly":7503,"Ġabsolute":7504,"Ġzero":7505,"Ġpaints":7506,"Ġexpos":7507,"Ġexpressive":7508,"Ġpredictability":7509,"Ġfamilial":7510,"Ġdefies":7511,"Ġdefines":7512,"incible":7513,"Ġeyre":7514,"Ġstrains":7515,"Ġstrained":7516,"Ġperfection":7517,"Ġboat":7518,"Ġboasts":7519,"Ġundone":7520,"Ġundert":7521,"Ġunfold":7522,"Ġunfamiliar":7523,"Ġcaptured":7524,"Ġshortcomings":7525,"Ġconvince":7526,"Ġmidnight":7527,"Ġconfirms":7528,"Ġconfidence":7529,"Ġprofile":7530,"Ġreduces":7531,"Ġstrongly":7532,"Ġopaque":7533,"Ġheady":7534,"working":7535,"Ġversus":7536,"Ġversions":7537,"Ġmagical":7538,"Ġdares":7539,"Ġambitions":7540,"Ġsatisfies":7541,"Ġpolitically":7542,"Ġdamaged":7543,"Ġfamiliarity":7544,"Ġsteals":7545,"Ġstealing":7546,"Ġsteeped":7547,"Ġsimultaneously":7548,"Ġsimilarly":7549,"Ġfreshness":7550,"Ġmurky":7551,"Ġpunct":7552,"Ġmisery":7553,"Ġnorm":7554,"ailing":7555,"ronistic":7556,"Ġbenjam":7557,"Ġbrian":7558,"Ġcamoufl":7559,"Ġadventurous":7560,"Ġanton":7561,"Ġantid":7562,"Ġantics":7563,"Ġpsychologically":7564,"Ġveers":7565,"Ġveter":7566,"undlich":7567,"Ġmeth":7568,"Ġinvolve":7569,"blue":7570,"Ġmotions":7571,"Ġpaxton":7572,"Ġinfant":7573,"Ġinfomercial":7574,"Ġdevices":7575,"Ġseconds":7576,"Ġhelped":7577,"however":7578,"Ġexception":7579,"Ġfreeman":7580,"Ġfreedom":7581,"ahl":7582,"Ġaffleck":7583,"Ġexamines":7584,"Ġdisappointingly":7585,"Ġpersonalities":7586,"Ġpaying":7587,"Ġoppos":7588,"Ġhopes":7589,"porate":7590,"Ġsleeve":7591,"Ġbalanced":7592,"Ġpossibility":7593,"Ġdrivel":7594,"Ġfollowed":7595,"Ġverbal":7596,"Ġcurves":7597,"Ġlandmark":7598,"Ġunexpl":7599,"Ġrolling":7600,"atsi":7601,"Ġbreakthrough":7602,"Ġjoyless":7603,"Ġpurely":7604,"Ġgorgeously":7605,"Ġchristop":7606,"Ġreminded":7607,"Ġcollision":7608,"Ġcollateral":7609,"Ġroberto":7610,"Ġburger":7611,"Ġbursts":7612,"Ġinvention":7613,"Ġballot":7614,"Ġprophecies":7615,"Ġresonate":7616,"Ġdepressed":7617,"Ġphoto":7618,"Ġcartoonish":7619,"cheek":7620,"markable":7621,"Ġsquare":7622,"Ġsquarely":7623,"Ġpulling":7624,"ovan":7625,"Ġlyric":7626,"Ġcritic":7627,"Ġgraceful":7628,"Ġfrustration":7629,"Ġinclude":7630,"Ġcrafts":7631,"Ġweaknesses":7632,"Ġskills":7633,"Ġconflicted":7634,"Ġthrowing":7635,"Ġhomes":7636,"Ġgreene":7637,"Ġconnection":7638,"Ġkissing":7639,"Ġvariation":7640,"Ġlimit":7641,"Ġrevelations":7642,"Ġamazingly":7643,"Ġmetaphors":7644,"Ġunexpectedly":7645,"Ġrambling":7646,"Ġpitfalls":7647,"Ġsparkling":7648,"Ġfrankly":7649,"Ġdisturb":7650,"Ġpulled":7651,"Ġlegal":7652,"Ġfalling":7653,"Ġdaniel":7654,"Ġmovements":7655,"Ġimmensely":7656,"Ġimpressed":7657,"Ġprotect":7658,"Ġhugely":7659,"true":7660,"Ġsorrow":7661,"Ġsorority":7662,"Ġbreaking":7663,"Ġstephen":7664,"Ġrewarded":7665,"Ġatmospher":7666,"Ġdiverse":7667,"Ġwalked":7668,"Ġrequire":7669,"Ġturkey":7670,"Ġcandid":7671,"Ġdreck":7672,"Ġescapist":7673,"consider":7674,"Ġrecording":7675,"Ġincludes":7676,"Ġcircuit":7677,"Ġcircumst":7678,"Ġghosts":7679,"puted":7680,"Ġdomin":7681,"Ġnonsensical":7682,"Ġencouraging":7683,"Ġuncanny":7684,"Ġincredible":7685,"smith":7686,"Ġhypoc":7687,"ulsion":7688,"ulsively":7689,"Ġimplies":7690,"Ġsurvive":7691,"Ġproductions":7692,"Ġenthusiastic":7693,"Ġtransporter":7694,"oleon":7695,"Ġignore":7696,"Ġcrystal":7697,"Ġpenet":7698,"Ġduke":7699,"Ġfills":7700,"Ġallowed":7701,"Ġrooting":7702,"Ġstereotypical":7703,"john":7704,"Ġmcgrath":7705,"Ġpedigree":7706,"Ġalienation":7707,"Ġarrive":7708,"Ġterrorist":7709,"Ġmaintain":7710,"Ġdragonfly":7711,"petek":7712,"Ġmask":7713,"Ġmillion":7714,"Ġmulti":7715,"Ġlayers":7716,"Ġstretches":7717,"Ġalternative":7718,"Ġalternately":7719,"Ġunconvent":7720,"Ġconceit":7721,"Ġvanity":7722,"Ġswimfan":7723,"Ġdescribed":7724,"downtown":7725,"highly":7726,"Ġtossed":7727,"Ġshamelessly":7728,"deprec":7729,"Ġarguments":7730,"Ġsecretary":7731,"Ġtackles":7732,"Ġseductive":7733,"Ġbodies":7734,"Ġchuckle":7735,"Ġalleged":7736,"Ġclimactic":7737,"Ġoverwhelming":7738,"Ġ1950":7739,"Ġembraces":7740,"maker":7741,"pleaser":7742,"Ġcelluloid":7743,"Ġqualify":7744,"Ġmechanics":7745,"Ġeducation":7746,"Ġmotivations":7747,"Ġastonishingly":7748,"Ġmentally":7749,"attering":7750,"Ġhighest":7751,"Ġlosing":7752,"Ġstrangers":7753,"Ġexplosions":7754,"Ġambiguous":7755,"Ġindividuals":7756,"Ġboun":7757,"Ġbollywood":7758,"Ġwisdom":7759,"Ġthousand":7760,"Ġlingering":7761,"Ġyouthful":7762,"Ġsuccumbs":7763,"Ġobscure":7764,"Ġdeparture":7765,"Ġevoke":7766,"Ġinfluence":7767,"familiar":7768,"Ġavary":7769,"Ġchronicle":7770,"Ġhealth":7771,"Ġenigma":7772,"Ġenigmatic":7773,"udgeon":7774,"Ġfluid":7775,"Ġvideos":7776,"Ġrepeatedly":7777,"Ġredeeming":7778,"Ġoliver":7779,"Ġmisfire":7780,"Ġbaseball":7781,"Ġdubious":7782,"Ġconveying":7783,"Ġproperly":7784,"Ġthankfully":7785,"Ġironically":7786,"Ġcalculated":7787,"Ġsubstitute":7788,"Ġinexplicable":7789,"effects":7790,"Ġachingly":7791,"Ġcivil":7792,"Ġinconsistent":7793,"Ġsundance":7794,"Ġsnapshot":7795,"Ġrestrained":7796,"Ġinstincts":7797,"Ġlegendary":7798,"Ġfleeting":7799,"Ġathletes":7800,"Ġadequate":7801,"drunk":7802,"danovich":7803,"Ġfoibles":7804,"Ġnapoleon":7805,"Ġunrelent":7806,"Ġunbelievable":7807,"Ġqueens":7808,"Ġsubplots":7809,"Ġcontroversy":7810,"Ġinternational":7811,"Ġparanoia":7812,"Ġtranslation":7813,"Ġbridge":7814,"Ġopportunities":7815,"Ġminimalist":7816,"Ġspontaneity":7817,"Ġfictional":7818,"Ġthornberry":7819,"Ġwholesome":7820,"Ġexaggerated":7821,"Ġvelocity":7822,"Ġquarter":7823,"constructed":7824,"Ġreputation":7825,"Ġundisputed":7826,"Ġtransformation":7827,"Ġsubtitles":7828,"Ġtelegraphed":7829,"character":7830,"Ġhypnotic":7831,"Ġsardonic":7832,"Ġsqueeze":7833,"Ġcutesy":7834,"Ġwitherspoon":7835,"Ġdumas":7836,"Ġreunion":7837,"Ġsusan":7838,"Ġchateau":7839,"Ġhastily":7840,"ardotcom":7841,"Ġflorid":7842,"Ġflourishes":7843,"Ġsublime":7844,"Ġbruckheimer":7845,"Ġreminiscent":7846,"Ġcrucial":7847,"Ġaccompan":7848,"Ġdistasteful":7849,"Ġrefugees":7850,"Ġspecifically":7851,"Ġundoubtedly":7852,"Ġidiosyncratic":7853,"Ġgarbage":7854,"broomfield":7855,"large":7856,"yazaki":7857,"Ġtumult":7858,"Ġsordid":7859,"Ġfirmly":7860,"Ġmalkovich":7861,"Ġwollter":7862,"Ġthomas":7863,"edekerk":7864,"Ġnumerous":7865,"Ġanachronistic":7866,"essenden":7867,"Ġmanufactured":7868,"Ġfarrelly":7869,"Ġsincerity":7870,"Ġbenjamins":7871,"deprecating":7872,"--":7873,"13":7874,"40":7875,"aving":7876,"ba":7877,"bag":7878,"bind":7879,"bour":7880,"bull":7881,"buster":7882,"bbit":7883,"cus":7884,"cence":7885,"core":7886,"cred":7887,"cause":7888,"capt":7889,"dings":7890,"dled":7891,"dash":7892,"drop":7893,"dazz":7894,"drum":7895,"eight":7896,"eky":7897,"evo":7898,"fing":7899,"fem":7900,"fare":7901,"fiction":7902,"ga":7903,"gel":7904,"gam":7905,"gile":7906,"gang":7907,"gasm":7908,"glor":7909,"ho":7910,"hot":7911,"ik":7912,"iver":7913,"iber":7914,"lot":7915,"lim":7916,"lad":7917,"lings":7918,"love":7919,"langu":7920,"lowski":7921,"mad":7922,"mous":7923,"mart":7924,"mus":7925,"mingly":7926,"nick":7927,"noy":7928,"ois":7929,"ping":7930,"ped":7931,"pol":7932,"pow":7933,"pable":7934,"post":7935,"press":7936,"poss":7937,"puff":7938,"point":7939,"pumpkin":7940,"parker":7941,"rary":7942,"rors":7943,"rather":7944,"rics":7945,"rase":7946,"rats":7947,"rara":7948,"sor":7949,"sam":7950,"sand":7951,"sens":7952,"surpris":7953,"tes":7954,"tle":7955,"try":7956,"tably":7957,"ued":7958,"uve":7959,"uend":7960,"uously":7961,"uasive":7962,"vating":7963,"voc":7964,"vability":7965,"wer":7966,"wed":7967,"wart":7968,"wind":7969,"yer":7970,"zill":7971,"Ġig":7972,"Ġ60":7973,"Ġtu":7974,"Ġtact":7975,"Ġtense":7976,"Ġtaw":7977,"Ġtub":7978,"Ġtorn":7979,"Ġtaps":7980,"Ġtrop":7981,"Ġtony":7982,"Ġay":7983,"Ġaus":7984,"Ġapl":7985,"Ġastr":7986,"Ġaustr":7987,"Ġakin":7988,"Ġalex":7989,"inion":7990,"inning":7991,"inspired":7992,"heart":7993,"rek":7994,"rehe":7995,"reggio":7996,"Ġol":7997,"Ġole":7998,"erved":7999,"iter":8000,"itary":8001,"itched":8002,"itudes":8003,"Ġtheory":8004,"Ġthesis":8005,"Ġfif":8006,"Ġfacing":8007,"enet":8008,"enge":8009,"enced":8010,"enha":8011,"Ġming":8012,"Ġmap":8013,"Ġmendes":8014,"atable":8015,"atfalls":8016,"Ġbm":8017,"Ġbess":8018,"Ġbill":8019,"Ġbast":8020,"Ġbust":8021,"Ġbib":8022,"Ġbord":8023,"Ġbones":8024,"Ġbirot":8025,"Ġbinoche":8026,"Ġcri":8027,"Ġcram":8028,"Ġcip":8029,"Ġcia":8030,"Ġcalls":8031,"Ġcoppola":8032,"Ġwist":8033,"Ġwaking":8034,"Ġwret":8035,"Ġwallow":8036,"Ġwalt":8037,"ndan":8038,"ndry":8039,"orad":8040,"orial":8041,"orably":8042,"Ġpg":8043,"Ġpin":8044,"Ġpess":8045,"Ġpink":8046,"Ġpandering":8047,"Ġpants":8048,"Ġpomp":8049,"Ġpumpkin":8050,"Ġpacino":8051,"Ġpiffle":8052,"anella":8053,"Ġdil":8054,"Ġdise":8055,"Ġdressed":8056,"Ġdinner":8057,"ali":8058,"alas":8059,"alism":8060,"altern":8061,"aluable":8062,"algam":8063,"Ġthirst":8064,"Ġthread":8065,"Ġhub":8066,"icide":8067,"icense":8068,"icles":8069,"iciently":8070,"Ġinstruct":8071,"Ġinquis":8072,"Ġinescap":8073,"Ġinitial":8074,"ilo":8075,"Ġlur":8076,"Ġlap":8077,"Ġlord":8078,"Ġlamb":8079,"Ġloop":8080,"Ġlanes":8081,"Ġlicense":8082,"Ġnin":8083,"Ġnames":8084,"Ġnails":8085,"Ġniche":8086,"Ġnaught":8087,"Ġnaked":8088,"Ġnatur":8089,"Ġnemesis":8090,"story":8091,"Ġeis":8092,"Ġears":8093,"Ġeerie":8094,"Ġgal":8095,"Ġgul":8096,"Ġgam":8097,"Ġgong":8098,"Ġgoose":8099,"Ġgave":8100,"uto":8101,"utions":8102,"elle":8103,"elow":8104,"eline":8105,"elbe":8106,"entin":8107,"asper":8108,"asily":8109,"otes":8110,"otting":8111,"otland":8112,"otesque":8113,"Ġstark":8114,"Ġstates":8115,"Ġstumble":8116,"Ġstitch":8117,"imated":8118,"Ġbeck":8119,"Ġbeings":8120,"Ġbewild":8121,"Ġreass":8122,"Ġrelying":8123,"Ġreaches":8124,"Ġrebell":8125,"Ġreggio":8126,"racy":8127,"rayal":8128,"Ġupper":8129,"thed":8130,"then":8131,"theon":8132,"verty":8133,"verted":8134,"roc":8135,"roit":8136,"roat":8137,"road":8138,"rogen":8139,"ulence":8140,"ulates":8141,"cely":8142,"ceful":8143,"Ġancient":8144,"eter":8145,"etent":8146,"Ġyid":8147,"Ġyard":8148,"Ġyester":8149,"rived":8150,"oli":8151,"olate":8152,"aybur":8153,"ader":8154,"adent":8155,"adam":8156,"ados":8157,"advert":8158,"Ġforward":8159,"Ġfortun":8160,"section":8161,"essive":8162,"essentially":8163,"Ġwhiny":8164,"ooled":8165,"oops":8166,"ooses":8167,"irk":8168,"Ġcomics":8169,"iders":8170,"Ġchill":8171,"Ġchops":8172,"Ġchamber":8173,"Ġchooses":8174,"amo":8175,"amy":8176,"Ġalert":8177,"Ġalice":8178,"Ġalbe":8179,"Ġalike":8180,"Ġhedon":8181,"abre":8182,"unless":8183,"Ġjay":8184,"Ġjud":8185,"Ġjose":8186,"Ġjenn":8187,"Ġjarring":8188,"Ġjumps":8189,"Ġseas":8190,"Ġsearing":8191,"Ġselection":8192,"Ġsearching":8193,"emorable":8194,"Ġenemy":8195,"Ġencount":8196,"Ġintol":8197,"Ġlik":8198,"Ġlip":8199,"Ġliar":8200,"Ġexists":8201,"Ġexasper":8202,"akingly":8203,"Ġshod":8204,"Ġshining":8205,"Ġshtick":8206,"qui":8207,"quet":8208,"Ġably":8209,"Ġnotable":8210,"Ġnotting":8211,"Ġdod":8212,"Ġdeuces":8213,"Ġdeja":8214,"Ġunem":8215,"Ġunass":8216,"Ġunbl":8217,"Ġunfortun":8218,"Ġuncle":8219,"Ġneur":8220,"Ġscand":8221,"Ġscare":8222,"Ġscored":8223,"Ġscient":8224,"Ġscathing":8225,"Ġconsc":8226,"ainberg":8227,"Ġworry":8228,"Ġworship":8229,"Ġkil":8230,"Ġkur":8231,"Ġkaf":8232,"Ġsocc":8233,"usc":8234,"uso":8235,"ustic":8236,"apes":8237,"Ġarea":8238,"Ġcharles":8239,"Ġprose":8240,"Ġprobe":8241,"Ġron":8242,"Ġrange":8243,"Ġrub":8244,"Ġruth":8245,"Ġrarity":8246,"Ġrouge":8247,"Ġmores":8248,"Ġpluck":8249,"Ġactions":8250,"Ġactiv":8251,"Ġfeardotcom":8252,"erell":8253,"herfig":8254,"Ġleth":8255,"Ġpred":8256,"Ġprevent":8257,"ffith":8258,"Ġvu":8259,"Ġvain":8260,"Ġspends":8261,"Ġspike":8262,"Ġspraw":8263,"Ġsporad":8264,"Ġperme":8265,"Ġperdition":8266,"Ġorange":8267,"Ġclash":8268,"Ġcliff":8269,"Ġclashing":8270,"Ġclueless":8271,"ittingly":8272,"ittedly":8273,"ieu":8274,"Ġoutland":8275,"Ġamar":8276,"Ġamalgam":8277,"Ġquentin":8278,"Ġlob":8279,"Ġload":8280,"Ġlose":8281,"Ġlofty":8282,"icken":8283,"ieslowski":8284,"Ġnoise":8285,"ertime":8286,"arer":8287,"Ġarmen":8288,"Ġweaves":8289,"Ġiv":8290,"Ġflashes":8291,"augh":8292,"ours":8293,"Ġthrust":8294,"Ġadvert":8295,"comb":8296,"wey":8297,"week":8298,"Ġcomprehens":8299,"Ġcann":8300,"Ġcanon":8301,"Ġcanned":8302,"Ġpokes":8303,"Ġpoverty":8304,"mention":8305,"Ġuseless":8306,"Ġblunt":8307,"Ġwhenever":8308,"Ġoverlook":8309,"Ġovercomes":8310,"Ġoverkill":8311,"Ġovershad":8312,"izamo":8313,"Ġdiss":8314,"Ġdisplays":8315,"earth":8316,"Ġbetty":8317,"Ġbetrayal":8318,"Ġevening":8319,"Ġslipp":8320,"Ġsluggish":8321,"ipid":8322,"ipaul":8323,"Ġrage":8324,"Ġrapt":8325,"Ġravis":8326,"Ġraised":8327,"Ġsubte":8328,"Ġsuburban":8329,"Ġriff":8330,"Ġrigor":8331,"ccino":8332,"Ġtwink":8333,"osexual":8334,"Ġgoals":8335,"Ġgovern":8336,"ocy":8337,"Ġimpart":8338,"Ġimpostor":8339,"Ġimpenet":8340,"Ġvia":8341,"Ġended":8342,"ressing":8343,"llenha":8344,"Ġteach":8345,"Ġsmell":8346,"Ġsmack":8347,"Ġsermon":8348,"soaked":8349,"Ġscreening":8350,"Ġseek":8351,"Ġseeks":8352,"Ġnewf":8353,"Ġherm":8354,"Ġentertainingly":8355,"Ġcontend":8356,"Ġcontempt":8357,"Ġpee":8358,"Ġpeak":8359,"Ġtraffic":8360,"Ġaudacity":8361,"Ġunderdog":8362,"Ġlongest":8363,"Ġmyers":8364,"Ġjoel":8365,"Ġresorting":8366,"isms":8367,"ashbuck":8368,"Ġcrash":8369,"Ġgreatness":8370,"uctant":8371,"Ġobstacles":8372,"Ġcasts":8373,"ivable":8374,"Ġcheat":8375,"Ġchekh":8376,"Ġawards":8377,"Ġinsurance":8378,"Ġinsomnia":8379,"Ġinsipid":8380,"Ġvisible":8381,"nowled":8382,"Ġgrotesque":8383,"been":8384,"because":8385,"Ġcoinc":8386,"Ġattack":8387,"Ġtrial":8388,"Ġtrivial":8389,"umbling":8390,"Ġgrave":8391,"Ġafford":8392,"Ġaficion":8393,"Ġrelief":8394,"Ġreluctant":8395,"Ġenjoying":8396,"Ġfrat":8397,"Ġfranc":8398,"woody":8399,"Ġrecipe":8400,"sym":8401,"Ġguard":8402,"Ġbeloved":8403,"Ġbackdrop":8404,"azzy":8405,"Ġglam":8406,"Ġexcels":8407,"Ġbecame":8408,"Ġneedlessly":8409,"ucin":8410,"ucer":8411,"uffed":8412,"Ġmushy":8413,"Ġpratfalls":8414,"exc":8415,"exp":8416,"expect":8417,"Ġextent":8418,"Ġextrem":8419,"Ġphony":8420,"Ġphones":8421,"Ġirwin":8422,"Ġrepellent":8423,"Ġrepressed":8424,"Ġsweat":8425,"Ġbub":8426,"Ġbug":8427,"Ġpowerpuff":8428,"apped":8429,"appily":8430,"apparently":8431,"gues":8432,"guided":8433,"guizamo":8434,"yssey":8435,"Ġmarching":8436,"Ġmargar":8437,"Ġmarried":8438,"Ġache":8439,"Ġacid":8440,"Ġdistant":8441,"Ġexplored":8442,"Ġdecency":8443,"Ġdecadent":8444,"Ġhorribly":8445,"Ġimagined":8446,"Ġimaginable":8447,"Ġcraw":8448,"strict":8449,"strange":8450,"Ġsolutions":8451,"Ġschlock":8452,"Ġinviting":8453,"Ġinvincible":8454,"Ġinvaluable":8455,"Ġpassable":8456,"Ġpassions":8457,"Ġthoughts":8458,"minally":8459,"Ġmindset":8460,"Ġanimals":8461,"withstanding":8462,"Ġfascination":8463,"Ġtitled":8464,"Ġtitular":8465,"Ġswings":8466,"Ġsword":8467,"Ġswinging":8468,"Ġswashbuck":8469,"Ġdarkness":8470,"Ġsweetest":8471,"Ġzipp":8472,"Ġstarting":8473,"Ġputting":8474,"Ġinteraction":8475,"Ġsaves":8476,"Ġlights":8477,"Ġlighting":8478,"Ġlightness":8479,"Ġmaid":8480,"Ġbrav":8481,"Ġbrave":8482,"Ġbrains":8483,"Ġbracing":8484,"Ġsentence":8485,"Ġsentiments":8486,"proves":8487,"provides":8488,"Ġboard":8489,"Ġparalle":8490,"Ġlowbrow":8491,"Ġsuspend":8492,"Ġsensibilities":8493,"Ġsensitivity":8494,"Ġexpects":8495,"Ġadded":8496,"Ġseriousness":8497,"Ġsumm":8498,"Ġsumptuous":8499,"Ġpsycho":8500,"Ġprofund":8501,"Ġsyn":8502,"Ġstronger":8503,"Ġopinion":8504,"Ġinspires":8505,"Ġdaily":8506,"Ġbehan":8507,"Ġdamon":8508,"Ġaccum":8509,"Ġaccident":8510,"Ġstein":8511,"Ġsteal":8512,"Ġsteve":8513,"Ġsimone":8514,"Ġadmittedly":8515,"Ġmisanth":8516,"Ġcredited":8517,"Ġsuccessfully":8518,"Ġwarmed":8519,"Ġelsewhere":8520,"Ġsnoo":8521,"Ġsnake":8522,"Ġsnipes":8523,"Ġbasket":8524,"Ġcamer":8525,"Ġfacet":8526,"Ġ95":8527,"Ġdifferences":8528,"Ġmusty":8529,"Ġdumbed":8530,"Ġdrunk":8531,"Ġsupply":8532,"Ġcountless":8533,"Ġmotown":8534,"maj":8535,"Ġrichard":8536,"Ġlatin":8537,"Ġsuffer":8538,"Ġsuffered":8539,"ettelbe":8540,"Ġjackass":8541,"obi":8542,"Ġinfuses":8543,"Ġangle":8544,"Ġdevice":8545,"Ġrocky":8546,"Ġcapital":8547,"Ġdeserved":8548,"Ġmixes":8549,"Ġfreundlich":8550,"Ġgotten":8551,"Ġtruths":8552,"Ġtruthful":8553,"Ġhopefully":8554,"Ġaffl":8555,"Ġsandra":8556,"ontaine":8557,"Ġdenis":8558,"Ġdenial":8559,"Ġdeniro":8560,"Ġexamine":8561,"Ġconception":8562,"Ġlift":8563,"Ġlifts":8564,"Ġcombines":8565,"Ġshocked":8566,"Ġshockingly":8567,"Ġsympath":8568,"iency":8569,"Ġautom":8570,"Ġsleek":8571,"Ġcostner":8572,"Ġtopical":8573,"Ġtechnically":8574,"Ġvirtu":8575,"Ġfemin":8576,"Ġnonstop":8577,"Ġadapted":8578,"Ġadaptations":8579,"Ġliteral":8580,"Ġtasteful":8581,"Ġcurm":8582,"Ġdigs":8583,"Ġimproved":8584,"Ġimprovised":8585,"Ġdefinition":8586,"Ġdefinitive":8587,"Ġbreakdown":8588,"Ġweirdness":8589,"Ġblandness":8590,"Ġbreathe":8591,"Ġeventual":8592,"Ġthinly":8593,"Ġfavour":8594,"Ġfavors":8595,"Ġobserved":8596,"Ġcollapses":8597,"Ġopenness":8598,"kinnear":8599,"Ġcallar":8600,"Ġsplash":8601,"Ġcamps":8602,"Ġcampy":8603,"Ġexisted":8604,"Ġproportions":8605,"Ġpostcard":8606,"Ġdepression":8607,"Ġepisodic":8608,"Ġsquanders":8609,"Ġlabor":8610,"Ġlabute":8611,"Ġrecommended":8612,"Ġroutines":8613,"Ġsexuality":8614,"Ġmajority":8615,"Ġ45":8616,"Ġlynch":8617,"charged":8618,"Ġfailing":8619,"Ġsurfing":8620,"Ġessential":8621,"Ġcrossroads":8622,"Ġpathology":8623,"Ġchallenge":8624,"formula":8625,"loving":8626,"Ġsources":8627,"Ġforever":8628,"Ġmerchant":8629,"Ġweddings":8630,"Ġthrowback":8631,"Ġthrowaway":8632,"Ġhomosexual":8633,"Ġknack":8634,"Ġastounding":8635,"Ġpalpable":8636,"Ġlimits":8637,"Ġmetaphorical":8638,"Ġramsay":8639,"Ġpitiful":8640,"Ġinnuend":8641,"Ġflashbacks":8642,"Ġnervy":8643,"Ġnervous":8644,"Ġmothers":8645,"Ġannoy":8646,"Ġlegacy":8647,"Ġdrawing":8648,"writers":8649,"Ġmachismo":8650,"Ġdana":8651,"Ġdanny":8652,"Ġgifts":8653,"Ġmovement":8654,"Ġjuicy":8655,"Ġuninteresting":8656,"Ġgroups":8657,"Ġappreciation":8658,"Ġappreciated":8659,"looks":8660,"Ġsalv":8661,"Ġsalute":8662,"Ġsalton":8663,"Ġbrendan":8664,"Ġpupp":8665,"Ġlaid":8666,"Ġsucks":8667,"Ġsucker":8668,"Ġclosing":8669,"Ġremembering":8670,"Ġprimary":8671,"Ġprimitive":8672,"Ġrepetition":8673,"Ġidiots":8674,"Ġidiocy":8675,"Ġsavage":8676,"Ġcatches":8677,"Ġhampered":8678,"Ġladies":8679,"Ġrequires":8680,"Ġemerging":8681,"Ġawkwardly":8682,"Ġexploring":8683,"Ġfitfully":8684,"Ġfragment":8685,"Ġfragile":8686,"Ġmilitary":8687,"Ġmilieu":8688,"Ġmaker":8689,"Ġbiography":8690,"Ġwalking":8691,"Ġwallet":8692,"Ġtowards":8693,"Ġdisguised":8694,"Ġestrogen":8695,"Ġaimless":8696,"Ġnuances":8697,"Ġscratching":8698,"putting":8699,"Ġfathers":8700,"aggeringly":8701,"Ġintensely":8702,"Ġchecklist":8703,"Ġrepresent":8704,"Ġexpression":8705,"Ġprofoundly":8706,"Ġextraordinarily":8707,"Ġstrengths":8708,"bearing":8709,"Ġfreaky":8710,"Ġbogs":8711,"Ġbogged":8712,"Ġboldly":8713,"Ġwallop":8714,"Ġpanor":8715,"Ġpanache":8716,"Ġpantheon":8717,"Ġstaying":8718,"Ġexcesses":8719,"Ġelegantly":8720,"boys":8721,"disney":8722,"uitous":8723,"Ġignored":8724,"Ġtenderness":8725,"Ġreaching":8726,"Ġallowing":8727,"Ġadmirably":8728,"Ġauthenticity":8729,"crack":8730,"Ġbowling":8731,"Ġhallucin":8732,"Ġnaive":8733,"Ġstreets":8734,"Ġjolie":8735,"Ġlearned":8736,"Ġconsistent":8737,"Ġwilco":8738,"Ġpiccoli":8739,"Ġdiva":8740,"Ġguts":8741,"Ġsticking":8742,"Ġrussell":8743,"Ġspotlight":8744,"Ġarchival":8745,"Ġradar":8746,"Ġradical":8747,"extremely":8748,"Ġirrele":8749,"cultural":8750,"driven":8751,"sheridan":8752,"winning":8753,"Ġtosses":8754,"Ġresembling":8755,"Ġshameless":8756,"Ġemphasis":8757,"Ġmichell":8758,"Ġcroc":8759,"Ġhurt":8760,"Ġhurley":8761,"secret":8762,"Ġdebate":8763,"Ġspinning":8764,"Ġclimax":8765,"Ġtextbook":8766,"Ġreflective":8767,"producer":8768,"Ġembrace":8769,"Ġdynamics":8770,"Ġfabul":8771,"Ġgroan":8772,"ooping":8773,"Ġhearst":8774,"Ġconspic":8775,"Ġconversation":8776,"Ġflowers":8777,"Ġcollective":8778,"Ġmotivated":8779,"Ġregarding":8780,"Ġregardless":8781,"Ġlandscapes":8782,"Ġbreathtakingly":8783,"Ġintroduction":8784,"Ġintroduces":8785,"Ġfiercely":8786,"hardly":8787,"vili":8788,"Ġsixth":8789,"Ġmental":8790,"Ġmacabre":8791,"Ġnarciss":8792,"Ġunwatchable":8793,"Ġkicking":8794,"Ġkorea":8795,"Ġthematically":8796,"Ġexplosion":8797,"Ġinvestig":8798,"Ġpauline":8799,"Ġwonders":8800,"Ġdonovan":8801,"Ġlilo":8802,"Ġlucas":8803,"Ġlucky":8804,"Ġelling":8805,"Ġsuccumb":8806,"Ġhawk":8807,"Ġruins":8808,"Ġrisk":8809,"Ġdepartment":8810,"Ġdistinguished":8811,"Ġcommunic":8812,"Ġjews":8813,"calcul":8814,"family":8815,"modern":8816,"Ġtempting":8817,"Ġfacile":8818,"eneuve":8819,"Ġbaby":8820,"Ġvaguely":8821,"Ġimmediate":8822,"Ġfloor":8823,"Ġaccurately":8824,"Ġpuzzle":8825,"Ġpuzzling":8826,"Ġsacrifice":8827,"Ġuncomfortable":8828,"better":8829,"between":8830,"solondz":8831,"Ġbesides":8832,"Ġboundaries":8833,"Ġincomprehensible":8834,"Ġincompetent":8835,"Ġeconomical":8836,"Ġrelevant":8837,"Ġscottish":8838,"Ġconveys":8839,"Ġventure":8840,"Ġspanish":8841,"Ġrowdy":8842,"Ġcriminal":8843,"Ġsymbolic":8844,"Ġcourtroom":8845,"generated":8846,"Ġlocales":8847,"Ġinexplicably":8848,"drops":8849,"poignant":8850,"Ġodyssey":8851,"Ġjonah":8852,"Ġsevere":8853,"Ġunbearable":8854,"Ġunbearably":8855,"Ġperceptive":8856,"accid":8857,"Ġdismissed":8858,"Ġdisgusting":8859,"Ġvietnamese":8860,"Ġinterviews":8861,"Ġcontemplative":8862,"Ġestablishes":8863,"Ġcontradictory":8864,"Ġfundamentals":8865,"aghan":8866,"busters":8867,"finitely":8868,"volving":8869,"Ġseldahl":8870,"Ġfingered":8871,"Ġlunacy":8872,"Ġetc":8873,"Ġgyllenha":8874,"Ġrejected":8875,"Ġjanice":8876,"Ġjacquot":8877,"Ġseparate":8878,"Ġshrill":8879,"Ġconcoction":8880,"Ġprevents":8881,"Ġclinical":8882,"Ġarresting":8883,"Ġadvance":8884,"Ġemploys":8885,"showtime":8886,"Ġcrudup":8887,"Ġapplaud":8888,"Ġguaranteed":8889,"Ġillustrates":8890,"Ġoptimism":8891,"Ġphenomenal":8892,"certainly":8893,"sadly":8894,"Ġtreads":8895,"Ġfreddy":8896,"Ġwidow":8897,"Ġinsecure":8898,"Ġgothic":8899,"Ġstroke":8900,"Ġdopey":8901,"Ġkennedy":8902,"Ġloyalty":8903,"Ġflesh":8904,"Ġdiscern":8905,"Ġarticulate":8906,"Ġinsanely":8907,"Ġgratuitous":8908,"Ġgibson":8909,"Ġappetite":8910,"Ġinterpretation":8911,"Ġconvictions":8912,"Ġsteady":8913,"Ġcondescending":8914,"Ġdestruction":8915,"Ġ3000":8916,"Ġargentine":8917,"Ġschmaltzy":8918,"Ġneighborhood":8919,"simply":8920,"Ġ\\*\\*\\*":8921,"Ġtambor":8922,"Ġsabot":8923,"Ġmuddle":8924,"Ġdedication":8925,"Ġgiddy":8926,"Ġmoonlight":8927,"vigorating":8928,"Ġanguish":8929,"Ġhenry":8930,"Ġenlightening":8931,"Ġcompensate":8932,"Ġundermines":8933,"Ġobligatory":8934,"important":8935,"Ġcohesive":8936,"Ġexcruciating":8937,"Ġskateboard":8938,"Ġinfuriating":8939,"Ġdiscussion":8940,"Ġconspiracy":8941,"friendly":8942,"Ġextravaganza":8943,"congrat":8944,"numbingly":8945,"rotechn":8946,"twenty":8947,"williams":8948,"Ġacknowled":8949,"Ġsizzle":8950,"Ġmourn":8951,"Ġwendigo":8952,"Ġdawson":8953,"Ġhundred":8954,"Ġhospital":8955,"Ġanomie":8956,"adventure":8957,"Ġchurch":8958,"Ġhewitt":8959,"Ġuncommonly":8960,"Ġscreens":8961,"Ġflamboyant":8962,"Ġcompanion":8963,"Ġblatant":8964,"Ġdisintegr":8965,"achtwey":8966,"Ġcoffee":8967,"Ġfarcical":8968,"Ġincessant":8969,"Ġcarpenter":8970,"Ġpunctuated":8971,"Ġantidote":8972,"Ġveteran":8973,"Ġmethod":8974,"Ġinfantile":8975,"Ġchristopher":8976,"Ġlyricism":8977,"Ġpenetrating":8978,"Ġunconventional":8979,"Ġthornberrys":8980,"evokes":8981,"lotte":8982,"language":8983,"noyce":8984,"surprisingly":8985,"Ġtawdry":8986,"Ġbesson":8987,"Ġborders":8988,"Ġcipher":8989,"Ġwretched":8990,"Ġpessim":8991,"Ġdisease":8992,"Ġlambs":8993,"Ġnaturally":8994,"Ġyiddish":8995,"Ġyesterday":8996,"ayburgh":8997,"Ġfortune":8998,"Ġalbeit":8999,"Ġjennifer":9000,"Ġshoddy":9001,"Ġunassuming":9002,"Ġunfortunate":9003,"Ġkafka":9004,"Ġsoccer":9005,"Ġoutlandish":9006,"Ġravishing":9007,"Ġimpenetrable":9008,"Ġchekhov":9009,"Ġaficionados":9010,"Ġmisanthrop":9011,"Ġbasketball":9012,"ettelbeck":9013,"Ġgyllenhaal":9014,"11":9015,"50":9016,"aan":9017,"awn":9018,"aign":9019,"aims":9020,"bare":9021,"bod":9022,"burn":9023,"break":9024,"bows":9025,"baf":9026,"barely":9027,"breaking":9028,"birthday":9029,"cu":9030,"cor":9031,"cam":9032,"cop":9033,"cook":9034,"cated":9035,"cold":9036,"cond":9037,"chen":9038,"cener":9039,"cinematic":9040,"did":9041,"dam":9042,"dun":9043,"dull":9044,"dense":9045,"dling":9046,"dles":9047,"dsy":9048,"dream":9049,"drenched":9050,"eo":9051,"ez":9052,"ech":9053,"eem":9054,"fight":9055,"folds":9056,"gun":9057,"gone":9058,"gie":9059,"gary":9060,"ggin":9061,"hh":9062,"hl":9063,"hman":9064,"happy":9065,"holds":9066,"hta":9067,"iri":9068,"iate":9069,"iving":9070,"iations":9071,"jes":9072,"jacqu":9073,"kil":9074,"kip":9075,"kiness":9076,"lab":9077,"log":9078,"law":9079,"liff":9080,"laz":9081,"ludes":9082,"looper":9083,"laim":9084,"mou":9085,"make":9086,"mical":9087,"mull":9088,"mond":9089,"mash":9090,"miller":9091,"michael":9092,"minsky":9093,"morton":9094,"mocking":9095,"nel":9096,"nour":9097,"nicks":9098,"narc":9099,"oir":9100,"oge":9101,"oated":9102,"py":9103,"pal":9104,"pot":9105,"pay":9106,"pus":9107,"pons":9108,"parent":9109,"posed":9110,"paul":9111,"personal":9112,"presents":9113,"pisi":9114,"qatsi":9115,"rs":9116,"rion":9117,"rup":9118,"sle":9119,"sod":9120,"shed":9121,"spec":9122,"suc":9123,"sky":9124,"sons":9125,"schn":9126,"sai":9127,"skip":9128,"tim":9129,"tak":9130,"told":9131,"tail":9132,"taken":9133,"tries":9134,"tti":9135,"tinent":9136,"uk":9137,"uing":9138,"uil":9139,"uum":9140,"uate":9141,"uary":9142,"vall":9143,"vably":9144,"vors":9145,"wing":9146,"wal":9147,"wow":9148,"west":9149,"wick":9150,"wann":9151,"winded":9152,"yr":9153,"yjes":9154,"Â¢":9155,"Â¨":9156,"Â¯":9157,"Â³":9158,"Âł":9159,"Ġ#":9160,"Ġ70":9161,"Ġ\\*":9162,"Ġta":9163,"Ġtel":9164,"Ġtid":9165,"Ġtall":9166,"Ġtwe":9167,"Ġtren":9168,"Ġtins":9169,"Ġtensions":9170,"Ġtadpole":9171,"Ġtsai":9172,"Ġaft":9173,"Ġahol":9174,"hel":9175,"held":9176,"heated":9177,"hepisi":9178,"Ġsi":9179,"Ġsau":9180,"Ġshed":9181,"Ġselling":9182,"Ġsib":9183,"Ġsize":9184,"Ġsalt":9185,"Ġsession":9186,"Ġsessions":9187,"reve":9188,"really":9189,"rene":9190,"Ġoz":9191,"Ġove":9192,"Ġoce":9193,"Ġowe":9194,"Ġomn":9195,"Ġoedekerk":9196,"erile":9197,"erving":9198,"erably":9199,"ithe":9200,"itter":9201,"itches":9202,"Ġtheories":9203,"Ġfart":9204,"Ġfres":9205,"Ġfade":9206,"Ġfris":9207,"Ġfaced":9208,"Ġfien":9209,"Ġfuss":9210,"Ġfinger":9211,"Ġfiring":9212,"isy":9213,"isingly":9214,"isions":9215,"Ġmim":9216,"Ġmort":9217,"Ġmick":9218,"Ġmib":9219,"Ġmummy":9220,"Ġmawk":9221,"ata":9222,"atty":9223,"Ġbom":9224,"Ġbent":9225,"Ġburn":9226,"Ġbible":9227,"Ġberg":9228,"Ġboot":9229,"Ġburd":9230,"Ġbagg":9231,"Ġburning":9232,"Ġcum":9233,"Ġcind":9234,"Ġcog":9235,"Ġcup":9236,"Ġcub":9237,"Ġcallow":9238,"Ġcooper":9239,"Ġwart":9240,"Ġwrap":9241,"Ġwrest":9242,"inge":9243,"ingers":9244,"escent":9245,"ndon":9246,"ora":9247,"orrow":9248,"oria":9249,"oning":9250,"onou":9251,"onse":9252,"Ġpas":9253,"Ġpry":9254,"Ġpear":9255,"Ġpris":9256,"Ġpause":9257,"Ġpuff":9258,"Ġpier":9259,"Ġpony":9260,"Ġpiqu":9261,"Ġpilot":9262,"ana":9263,"aned":9264,"anagh":9265,"Ġdy":9266,"Ġdar":9267,"Ġdol":9268,"Ġdun":9269,"Ġdime":9270,"Ġdict":9271,"Ġdated":9272,"Ġdold":9273,"Ġdude":9274,"Ġdrew":9275,"Ġdwell":9276,"Ġdizz":9277,"Ġdarned":9278,"arad":9279,"Ġandrew":9280,"ald":9281,"alth":9282,"alos":9283,"alph":9284,"Ġthirty":9285,"Ġhood":9286,"Ġhog":9287,"Ġhors":9288,"Ġhudlin":9289,"Ġhungry":9290,"Ġhicken":9291,"lear":9292,"leave":9293,"icz":9294,"icable":9295,"iceless":9296,"iciously":9297,"Ġtol":9298,"Ġinadvert":9299,"Ġinvigorating":9300,"edish":9301,"edited":9302,"ille":9303,"ilated":9304,"ilogy":9305,"Ġlol":9306,"Ġlone":9307,"Ġlend":9308,"Ġlunch":9309,"oman":9310,"omed":9311,"Ġnash":9312,"Ġnause":9313,"Ġnuc":9314,"Ġnifty":9315,"Ġnachtwey":9316,"stri":9317,"strom":9318,"Ġec":9319,"Ġeld":9320,"Ġeaster":9321,"Ġelection":9322,"Ġgas":9323,"Ġgad":9324,"Ġgant":9325,"Ġgest":9326,"Ġgere":9327,"Ġgary":9328,"Ġgear":9329,"Ġgris":9330,"ctions":9331,"elstrom":9332,"Ġmock":9333,"Ġmode":9334,"asi":9335,"asia":9336,"otically":9337,"otted":9338,"Ġstol":9339,"Ġstam":9340,"Ġstur":9341,"Ġstall":9342,"Ġstake":9343,"Ġstult":9344,"Ġstately":9345,"Ġstages":9346,"Ġstreak":9347,"Ġstumbles":9348,"Ġstopped":9349,"Ġstaggeringly":9350,"imen":9351,"imate":9352,"Ġbef":9353,"Ġbeer":9354,"Ġbean":9355,"Ġbeats":9356,"Ġbeij":9357,"vier":9358,"vile":9359,"vivid":9360,"violent":9361,"Ġrely":9362,"Ġrese":9363,"Ġreck":9364,"Ġreef":9365,"Ġrehas":9366,"Ġresemble":9367,"Ġrevision":9368,"Ġreached":9369,"Ġrerun":9370,"ghthe":9371,"verb":9372,"rose":9373,"rock":9374,"rooge":9375,"chou":9376,"chard":9377,"change":9378,"chilling":9379,"Ġyield":9380,"Ġyellow":9381,"Ġyvan":9382,"Ġash":9383,"riguing":9384,"ripper":9385,"oling":9386,"olan":9387,"olia":9388,"ayas":9389,"ado":9390,"adian":9391,"addle":9392,"adults":9393,"Ġforte":9394,"seat":9395,"sever":9396,"Ġwhine":9397,"Ġsuits":9398,"Ġsuitable":9399,"Ġsudsy":9400,"Ġsugary":9401,"iry":9402,"irteen":9403,"Ġcoma":9404,"Ġcomically":9405,"ifies":9406,"ifts":9407,"Ġchain":9408,"ĠchÃ£":9409,"ths":9410,"thon":9411,"amid":9412,"amura":9413,"Ġalt":9414,"Ġalan":9415,"Ġalfred":9416,"erschool":9417,"Ġheist":9418,"Ġherit":9419,"Ġhefty":9420,"ables":9421,"abby":9422,"abbing":9423,"ablish":9424,"unfolds":9425,"Ġjell":9426,"Ġjaw":9427,"Ġjord":9428,"Ġjazz":9429,"Ġjaded":9430,"agen":9431,"umn":9432,"Ġseal":9433,"Ġsection":9434,"cked":9435,"ements":9436,"Ġenvelop":9437,"urg":9438,"uristic":9439,"urried":9440,"Ġlily":9441,"Ġliking":9442,"Ġlibert":9443,"Ġlighthe":9444,"Ġexit":9445,"Ġexter":9446,"istas":9447,"istine":9448,"istently":9449,"istencies":9450,"Ġshut":9451,"Ġshop":9452,"Ġshred":9453,"Ġshifting":9454,"Ġshaky":9455,"Ġshares":9456,"Ġshorter":9457,"Ġshanghai":9458,"Ġshainberg":9459,"queness":9460,"roman":9461,"romantic":9462,"Ġabc":9463,"Ġabrupt":9464,"Ġnotch":9465,"Ġnotwithstanding":9466,"Ġdover":9467,"Ġdoze":9468,"Ġdozen":9469,"Ġdogged":9470,"Ġdean":9471,"Ġdegra":9472,"estinian":9473,"Ġunap":9474,"Ġunco":9475,"Ġunmist":9476,"Ġunreal":9477,"Ġunknow":9478,"Ġunmention":9479,"Ġschem":9480,"Ġscrooge":9481,"ellar":9482,"Ġatroc":9483,"Ġkings":9484,"Ġkits":9485,"Ġknot":9486,"Ġkilling":9487,"Ġkills":9488,"Ġkieslowski":9489,"Ġsoar":9490,"acting":9491,"actor":9492,"actly":9493,"igans":9494,"Ġbyatt":9495,"Ġbyler":9496,"force":9497,"Ġcharge":9498,"Ġcharitable":9499,"anding":9500,"anded":9501,"Ġproved":9502,"Ġrate":9503,"Ġrural":9504,"Ġrhet":9505,"Ġralph":9506,"Ġalluring":9507,"Ġlikeable":9508,"opera":9509,"Ġplus":9510,"Ġplaced":9511,"Ġplaus":9512,"Ġpluto":9513,"indler":9514,"Ġleather":9515,"Ġlewis":9516,"Ġleguizamo":9517,"Ġprey":9518,"Ġpreced":9519,"Ġprejud":9520,"george":9521,"Ġvon":9522,"Ġvard":9523,"Ġvistas":9524,"Ġwhodun":9525,"Ġspi":9526,"Ġspo":9527,"Ġspright":9528,"Ġsporting":9529,"Ġspiced":9530,"Ġperm":9531,"Ġperil":9532,"Ġperry":9533,"Ġpertinent":9534,"Ġorche":9535,"Ġorwell":9536,"Ġorgasm":9537,"ptic":9538,"Ġimit":9539,"Ġclar":9540,"Ġclancy":9541,"Ġclips":9542,"Ġclayburgh":9543,"Ġstorylines":9544,"ective":9545,"ittered":9546,"pling":9547,"pps":9548,"Ġoutline":9549,"Ġoutright":9550,"enda":9551,"endence":9552,"endium":9553,"Ġfunction":9554,"Ġmanic":9555,"Ġquint":9556,"Ġquaid":9557,"Ġquasi":9558,"Ġtrim":9559,"Ġtruck":9560,"Ġtrump":9561,"Ġtrilogy":9562,"Ġlovable":9563,"Ġloaded":9564,"Ġloads":9565,"Ġlondon":9566,"def":9567,"dev":9568,"death":9569,"developed":9570,"definitely":9571,"Ġnod":9572,"Ġnov":9573,"Ġnose":9574,"ramax":9575,"ramsay":9576,"erty":9577,"aren":9578,"Ġupro":9579,"Ġupbeat":9580,"Ġark":9581,"Ġarm":9582,"Ġarty":9583,"Ġarbit":9584,"acon":9585,"ogyn":9586,"Ġflame":9587,"Ġflower":9588,"Ġflirts":9589,"Ġflailing":9590,"Ġflaccid":9591,"ourse":9592,"Ġadop":9593,"Ġadroit":9594,"Ġgoods":9595,"Ġgoodness":9596,"Ġgoodwill":9597,"Ġdirectly":9598,"Ġdirections":9599,"odile":9600,"coming":9601,"wear":9602,"Ġmuck":9603,"Ġmugging":9604,"Ġcompar":9605,"Ġcompos":9606,"Ġcompare":9607,"Ġcompared":9608,"Ġcomposition":9609,"Ġcompulsively":9610,"Ġcompendium":9611,"Ġcanny":9612,"assy":9613,"assed":9614,"assured":9615,"Ġposter":9616,"ntial":9617,"mented":9618,"Ġenticing":9619,"Ġrodriguez":9620,"Ġworkplace":9621,"Ġblond":9622,"Ġblax":9623,"Ġbloated":9624,"Ġoverwritten":9625,"Ġoverrun":9626,"Ġoverproduced":9627,"Ġoverbearing":9628,"Ġdiscon":9629,"Ġdispar":9630,"Ġdisappe":9631,"ryan":9632,"ounders":9633,"ensed":9634,"inting":9635,"intriguing":9636,"Ġslim":9637,"Ġslam":9638,"Ġslash":9639,"Ġrapp":9640,"Ġraces":9641,"Ġrauc":9642,"Ġraunch":9643,"Ġrabbit":9644,"Ġmehta":9645,"Ġfaults":9646,"Ġrib":9647,"Ġriot":9648,"Ġriver":9649,"Ġridd":9650,"Ġrigid":9651,"Ġtwenty":9652,"spider":9653,"Ġmakeup":9654,"Ġeverybody":9655,"Ġimpat":9656,"Ġimpersonal":9657,"Ġtalks":9658,"Ġrealm":9659,"Ġrealization":9660,"owned":9661,"Ġviv":9662,"Ġvign":9663,"atics":9664,"Ġendurance":9665,"Ġbru":9666,"Ġbrimming":9667,"angel":9668,"angled":9669,"Ġdesired":9670,"Ġsmith":9671,"Ġsmash":9672,"shop":9673,"Ġstrate":9674,"Ġstruck":9675,"versity":9676,"Ġcontact":9677,"button":9678,"liang":9679,"Ġagit":9680,"Ġaged":9681,"Ġtrail":9682,"Ġtrace":9683,"achable":9684,"achie":9685,"achment":9686,"igned":9687,"ignific":9688,"Ġplots":9689,"Ġplotline":9690,"Ġunderbel":9691,"Ġunderwritten":9692,"Ġundercur":9693,"Ġromances":9694,"Ġresent":9695,"Ġresolution":9696,"ashvili":9697,"vently":9698,"scra":9699,"scotland":9700,"Ġcrushing":9701,"Ġcristo":9702,"Ġgreatly":9703,"Ġholof":9704,"impostor":9705,"Ġshowgirls":9706,"Ġcheated":9707,"Ġcheek":9708,"Ġawak":9709,"Ġawesome":9710,"Ġwarner":9711,"Ġwarfare":9712,"viewers":9713,"Ġinsider":9714,"Ġstillborn":9715,"being":9716,"before":9717,"Ġcoherence":9718,"teau":9719,"Ġhardy":9720,"Ġscenic":9721,"Ġdowns":9722,"concept":9723,"Ġfarm":9724,"rows":9725,"umentary":9726,"Ġgray":9727,"Ġgraph":9728,"Ġscripts":9729,"Ġscripting":9730,"Ġscripted":9731,"Ġrelative":9732,"Ġenjoyment":9733,"Ġfraser":9734,"Ġguest":9735,"Ġengages":9736,"Ġengland":9737,"Ġviewed":9738,"Ġbackstage":9739,"Ġbackdrops":9740,"notes":9741,"aze":9742,"azing":9743,"Ġglac":9744,"Ġglaring":9745,"Ġstyles":9746,"Ġsetup":9747,"Ġexcited":9748,"Ġdepra":9749,"Ġkidn":9750,"Ġhumanizing":9751,"Ġincor":9752,"Ġcomplet":9753,"Ġpronou":9754,"Ġpristine":9755,"Ġindo":9756,"Ġindians":9757,"except":9758,"exactly":9759,"Ġpleasantly":9760,"Ġshenan":9761,"Ġfincher":9762,"Ġextr":9763,"Ġskins":9764,"Ġphrase":9765,"Ġcreatures":9766,"Ġswear":9767,"Ġbund":9768,"Ġbuzz":9769,"Ġbubble":9770,"appropri":9771,"Ġmargin":9772,"Ġmarshall":9773,"meets":9774,"meyjes":9775,"noisse":9776,"Ġacute":9777,"inson":9778,"insomnia":9779,"Ġdecides":9780,"Ġpoll":9781,"Ġpolicy":9782,"Ġhorse":9783,"Ġhorrors":9784,"Ġspeculation":9785,"directors":9786,"Ġhistor":9787,"Ġhistrion":9788,"Ġconsuming":9789,"Ġconsolation":9790,"Ġproduces":9791,"Ġ25":9792,"Ġmember":9793,"Ġmemoir":9794,"Ġcaric":9795,"Ġcarol":9796,"Ġcaruso":9797,"Ġcraven":9798,"Ġexperimental":9799,"Ġmorbid":9800,"Ġedits":9801,"Ġedition":9802,"steers":9803,"Ġmiike":9804,"Ġmiramax":9805,"Ġpassed":9806,"Ġpassages":9807,"Ġsuperstar":9808,"xtap":9809,"Ġmonstr":9810,"Ġsilber":9811,"Ġclassy":9812,"Ġclassical":9813,"ubbing":9814,"Ġbrook":9815,"iculously":9816,"Ġanimat":9817,"ording":9818,"Ġdetract":9819,"Ġdetective":9820,"Ġstudents":9821,"Ġstudios":9822,"Ġchildlike":9823,"Ġgenerating":9824,"Ġgenerations":9825,"Ġgenerates":9826,"Ġmusicians":9827,"Ġswoon":9828,"Ġswagg":9829,"Ġswedish":9830,"Ġbeliever":9831,"Ġbelieves":9832,"Ġbelieved":9833,"Ġbelievability":9834,"attle":9835,"attage":9836,"Ġportraying":9837,"Ġzha":9838,"Ġzomb":9839,"rett":9840,"return":9841,"retentious":9842,"Ġharmon":9843,"Ġepip":9844,"Ġepics":9845,"Ġexposes":9846,"Ġdullest":9847,"Ġmedical":9848,"Ġmeditative":9849,"ieldy":9850,"ielinsky":9851,"Ġborn":9852,"Ġsail":9853,"Ġlighter":9854,"Ġdeepest":9855,"Ġstrand":9856,"Ġbravery":9857,"Ġnarrator":9858,"Ġsmartest":9859,"brings":9860,"brilli":9861,"prof":9862,"prop":9863,"Ġparis":9864,"Ġsadistic":9865,"Ġbarri":9866,"Ġbargain":9867,"Ġunde":9868,"Ġunders":9869,"Ġunderest":9870,"Ġexpecting":9871,"Ġunsurpris":9872,"Ġadding":9873,"Ġaddresses":9874,"Ġretains":9875,"Ġpotency":9876,"Ġpsychopath":9877,"Ġdied":9878,"Ġdiary":9879,"Ġdivide":9880,"Ġprofane":9881,"Ġsyrup":9882,"Ġreduced":9883,"Ġreduce":9884,"Ġassuming":9885,"Ġassume":9886,"Ġassault":9887,"claude":9888,"Ġopens":9889,"Ġprobing":9890,"Ġnarratively":9891,"Ġdawn":9892,"Ġfactory":9893,"Ġpatron":9894,"Ġequals":9895,"Ġequilibrium":9896,"Ġcentered":9897,"Ġcenturies":9898,"Ġtransformed":9899,"Ġtransforms":9900,"few":9901,"features":9902,"Ġwinter":9903,"Ġpromisingly":9904,"urient":9905,"ceeds":9906,"goes":9907,"Ġmurd":9908,"Ġpunk":9909,"Ġpunching":9910,"Ġpunishment":9911,"Ġoperates":9912,"Ġfantast":9913,"Ġmisogy":9914,"Ġmisguided":9915,"Ġmiscalcul":9916,"Ġmisogyn":9917,"ailable":9918,"ronic":9919,"Ġsinger":9920,"Ġsingular":9921,"Ġheroic":9922,"Ġoddest":9923,"Ġgriffith":9924,"grant":9925,"Ġoccup":9926,"Ġmuster":9927,"Ġwahl":9928,"Ġanticip":9929,"Ġcomplexities":9930,"ugging":9931,"Ġillog":9932,"Ġillness":9933,"Ġillusion":9934,"Ġearns":9935,"Ġearnhart":9936,"Ġalongside":9937,"Ġflatulence":9938,"Ġcuteness":9939,"Ġsignpost":9940,"Ġcounty":9941,"blade":9942,"Ġquieter":9943,"Ġslightest":9944,"maid":9945,"Ġcalm":9946,"Ġuniverse":9947,"onymous":9948,"Ġrichness":9949,"Ġpaean":9950,"Ġsuffoc":9951,"compelling":9952,"Ġstripped":9953,"Ġjeff":9954,"Ġimportantly":9955,"obs":9956,"obvious":9957,"Ġinfin":9958,"Ġinfidelity":9959,"Ġdogma":9960,"Ġdogtown":9961,"Ġdevotion":9962,"Ġdevito":9963,"Ġcapra":9964,"uttering":9965,"Ġstoryteller":9966,"Ġexplode":9967,"cipl":9968,"Ġfreud":9969,"Ġmadden":9970,"lett":9971,"lette":9972,"Ġcreepiness":9973,"wrote":9974,"Ġaffirming":9975,"Ġcorrupt":9976,"Ġcorporate":9977,"Ġdenied":9978,"Ġfatale":9979,"Ġpayne":9980,"Ġinstit":9981,"Ġinstance":9982,"afer":9983,"elegant":9984,"Ġ85":9985,"Ġ86":9986,"Ġ88":9987,"Ġhopeless":9988,"Ġhopelessly":9989,"otta":9990,"Ġletdown":9991,"Ġsymmet":9992,"everyone":9993,"Ġfutile":9994,"Ġfuturistic":9995,"Ġdevelopments":9996,"boat":9997,"boards":9998,"Ġtedium":9999,"Ġfires":10000,"Ġballet":10001,"Ġfriendly":10002,"Ġconsiderably":10003,"Ġspectacularly":10004,"Ġvirtue":10005,"Ġfeminist":10006,"Ġpossibilities":10007,"Ġdriver":10008,"Ġdriven":10009,"Ġdrives":10010,"Ġmoods":10011,"Ġgrandi":10012,"liners":10013,"Ġfocusing":10014,"Ġcurse":10015,"Ġdiggs":10016,"Ġprovided":10017,"Ġrolls":10018,"Ġrollicking":10019,"Ġimprovis":10020,"whenever":10021,"Ġtestud":10022,"Ġtestimony":10023,"Ġbreathes":10024,"Ġforcefully":10025,"Ġjoys":10026,"Ġjoyful":10027,"Ġtraditions":10028,"gives":10029,"Ġunpretentious":10030,"Ġprocession":10031,"Ġreminding":10032,"Ġcollage":10033,"Ġroberts":10034,"Ġburr":10035,"Ġburst":10036,"Ġtediously":10037,"Ġfulf":10038,"Ġfootball":10039,"Ġfootnote":10040,"Ġcops":10041,"Ġcampaign":10042,"Ġwaterlog":10043,"Ġdestiny":10044,"Ġposturing":10045,"Ġpostmodern":10046,"Ġimpressively":10047,"Ġartistry":10048,"Ġphotograph":10049,"market":10050,"Ġgeared":10051,"Ġendeav":10052,"Ġquestionable":10053,"ovsky":10054,"spective":10055,"Ġlying":10056,"Ġlyne":10057,"Ġpurport":10058,"Ġsucceeded":10059,"Ġfrustratingly":10060,"Ġabsurdly":10061,"Ġabsurdities":10062,"Ġcelebratory":10063,"zzle":10064,"Ġcrossed":10065,"alters":10066,"Ġslapdash":10067,"Ġskillful":10068,"Ġskillfully":10069,"Ġsustained":10070,"Ġmerits":10071,"Ġnaturalism":10072,"Ġdeterior":10073,"Ġtearjerk":10074,"Ġastute":10075,"Ġpalatable":10076,"Ġgoofball":10077,"Ġintentionally":10078,"Ġprecision":10079,"Ġpitched":10080,"agging":10081,"Ġsparks":10082,"Ġstruggles":10083,"Ġfranklin":10084,"Ġ2000":10085,"Ġbrainless":10086,"Ġrecommendation":10087,"Ġpackage":10088,"Ġnerves":10089,"Ġcontinuity":10090,"Ġmurderous":10091,"colm":10092,"Ġtimid":10093,"Ġfolly":10094,"Ġtomorrow":10095,"Ġjuxtap":10096,"Ġimmac":10097,"Ġwilliam":10098,"Ġimpressions":10099,"Ġdescription":10100,"Ġuniquely":10101,"Ġfriendships":10102,"Ġtargeted":10103,"Ġsophistication":10104,"Ġaccomplish":10105,"Ġaccomplishes":10106,"eye":10107,"trans":10108,"trash":10109,"Ġsorvino":10110,"Ġmistaken":10111,"Ġpuerile":10112,"Ġposing":10113,"Ġlaure":10114,"Ġlaud":10115,"Ġlaisse":10116,"Ġsucking":10117,"Ġsucked":10118,"Ġconventions":10119,"Ġfearless":10120,"Ġsuperficially":10121,"Ġbroadway":10122,"Ġidiotic":10123,"Ġshadyac":10124,"Ġawkwardness":10125,"Ġturnt":10126,"Ġturgid":10127,"Ġmilk":10128,"Ġwalter":10129,"Ġwalsh":10130,"Ġinexper":10131,"Ġcommerce":10132,"Ġintellectually":10133,"Ġweighty":10134,"consciously":10135,"Ġescaped":10136,"Ġsonny":10137,"Ġsickly":10138,"Ġethics":10139,"Ġresponse":10140,"Ġuninvolving":10141,"Ġmanipulation":10142,"Ġrapid":10143,"Ġrapidly":10144,"Ġrealistically":10145,"Ġdistinctly":10146,"Ġcircus":10147,"puts":10148,"Ġtunes":10149,"Ġtuned":10150,"Ġvillains":10151,"Ġvilleneuve":10152,"Ġsettle":10153,"Ġsettings":10154,"Ġsettled":10155,"Ġfrighteningly":10156,"Ġexpressions":10157,"Ġaffectionate":10158,"Ġinnocuous":10159,"bears":10160,"Ġdiscord":10161,"Ġsurvival":10162,"Ġsurvivors":10163,"Ġcinematographer":10164,"Ġelegance":10165,"Ġmagnetic":10166,"Ġenthusiast":10167,"Ġmodestly":10168,"Ġridiculousness":10169,"Ġtransporting":10170,"discovery":10171,"uracy":10172,"Ġdurable":10173,"Ġduvall":10174,"Ġlengthy":10175,"Ġartistically":10176,"Ġobsessions":10177,"Ġobsessive":10178,"Ġobjectivity":10179,"control":10180,"contrived":10181,"Ġglimpses":10182,"Ġembarrassed":10183,"Ġeccentricities":10184,"nicole":10185,"Ġbanality":10186,"Ġpicked":10187,"Ġdimension":10188,"Ġlanguorous":10189,"Ġnaipaul":10190,"rolling":10191,"Ġjolly":10192,"Ġscariest":10193,"Ġscarcely":10194,"Ġscreams":10195,"Ġterrorism":10196,"Ġprotagonists":10197,"Ġfervently":10198,"Ġmasoch":10199,"Ġmillions":10200,"Ġwastes":10201,"Ġpray":10202,"Ġlayer":10203,"Ġlayered":10204,"Ġloosely":10205,"Ġsticky":10206,"Ġalternate":10207,"Ġshaped":10208,"Ġradiant":10209,"Ġswimming":10210,"Ġsignificance":10211,"Ġamateurishly":10212,"rums":10213,"Ġboredom":10214,"Ġpractice":10215,"Ġpinochet":10216,"Ġgoldie":10217,"Ġgoldmember":10218,"Ġjersey":10219,"Ġliberating":10220,"Ġwillingness":10221,"Ġrecogniz":10222,"Ġprofessionalism":10223,"audiences":10224,"huang":10225,"huppert":10226,"super":10227,"Ġtackling":10228,"remember":10229,"Ġflee":10230,"Ġbodice":10231,"Ġbodily":10232,"Ġcros":10233,"Ġpushed":10234,"Ġproceeds":10235,"Ġspellbind":10236,"Ġrandall":10237,"Ġtexture":10238,"Ġcontrolled":10239,"Ġinsultingly":10240,"Ġbenefits":10241,"pleasing":10242,"Ġtorture":10243,"Ġpursu":10244,"Ġgroove":10245,"Ġdeception":10246,"Ġunhappy":10247,"Ġunhurried":10248,"Ġcollectively":10249,"Ġincoherence":10250,"Ġappearance":10251,"Ġmiracul":10252,"Ġcontrivance":10253,"filmmakers":10254,"sayles":10255,"Ġvenice":10256,"Ġveneer":10257,"Ġmacdowell":10258,"Ġcardboard":10259,"Ġcompliment":10260,"Ġcomplaint":10261,"Ġchaos":10262,"Ġlovingly":10263,"Ġstrangeness":10264,"Ġrecycling":10265,"Ġexhausted":10266,"Ġlingers":10267,"Ġnumbing":10268,"Ġnumbingly":10269,"Ġjuliet":10270,"Ġhawke":10271,"Ġrisks":10272,"Ġrisky":10273,"Ġblockbuster":10274,"Ġblockbusters":10275,"Ġmythic":10276,"Ġidealism":10277,"Ġidealistic":10278,"Ġeloquently":10279,"Ġirrespons":10280,"Ġdistinguish":10281,"Ġevokes":10282,"Ġboxing":10283,"Ġcommunal":10284,"Ġvillainous":10285,"nearly":10286,"Ġtaymor":10287,"Ġfoolish":10288,"Ġboost":10289,"Ġpairing":10290,"Ġevident":10291,"Ġstatement":10292,"Ġchronicles":10293,"Ġensues":10294,"Ġpressed":10295,"Ġimmediately":10296,"Ġfloating":10297,"Ġslackers":10298,"Ġcheerful":10299,"Ġintermittent":10300,"Ġsensuality":10301,"Ġpopularity":10302,"Ġcounterparts":10303,"Ġjournalism":10304,"Ġextravagant":10305,"Ġpulpy":10306,"malbaf":10307,"solid":10308,"Ġfields":10309,"Ġbathos":10310,"Ġdubbed":10311,"Ġdrowns":10312,"Ġdrowned":10313,"Ġrelev":10314,"Ġenormously":10315,"Ġunremarkable":10316,"Ġneatly":10317,"Ġupdating":10318,"Ġrowling":10319,"Ġproducer":10320,"Ġ1975":10321,"Ġshadowy":10322,"Ġzealand":10323,"frank":10324,"horror":10325,"Ġtonight":10326,"Ġcatholic":10327,"Ġpyrotechn":10328,"Ġinformation":10329,"Ġinformative":10330,"Ġinconsistencies":10331,"Ġinnovation":10332,"Ġinnovative":10333,"Ġsunday":10334,"Ġseverely":10335,"Ġscrewball":10336,"Ġsociopath":10337,"Ġborrows":10338,"Ġborrowed":10339,"Ġdrumline":10340,"Ġrevealed":10341,"Ġrestraint":10342,"Ġcorrectness":10343,"Ġpossesses":10344,"Ġimprovement":10345,"Ġdangerously":10346,"Ġestablished":10347,"Ġsmoothly":10348,"Ġadequately":10349,"eanor":10350,"glas":10351,"Ġauteuil":10352,"Ġduty":10353,"Ġdutiful":10354,"Ġhatred":10355,"Ġluke":10356,"Ġelectric":10357,"seems":10358,"Ġheights":10359,"Ġheightened":10360,"Ġjunior":10361,"Ġexuberance":10362,"Ġconjures":10363,"Ġmannered":10364,"Ġglobe":10365,"Ġgloomy":10366,"Ġgloriously":10367,"Ġglorified":10368,"Ġdeliberate":10369,"Ġerratic":10370,"Ġoptimistic":10371,"Ġsanctimony":10372,"Ġsanctimon":10373,"wait":10374,"Ġ65":10375,"itzler":10376,"Ġhuston":10377,"Ġgiggles":10378,"Ġisraeli":10379,"Ġmoldy":10380,"Ġstimulating":10381,"Ġstagy":10382,"Ġchoreographed":10383,"Ġshimmering":10384,"Ġunfulfilled":10385,"Ġunfulfilling":10386,"Ġkosashvili":10387,"Ġprovoke":10388,"Ġweepy":10389,"Ġcompromise":10390,"Ġcompromised":10391,"Ġbrosnan":10392,"Ġelevated":10393,"Ġelevates":10394,"blooded":10395,"Ġcollaboration":10396,"Ġmultiple":10397,"Ġmultiplex":10398,"delivers":10399,"Ġdishonest":10400,"hilarious":10401,"jackson":10402,"Ġsiegel":10403,"regard":10404,"Ġowes":10405,"Ġfetish":10406,"Ġfurious":10407,"Ġcherish":10408,"Ġwwii":10409,"Ġpaulette":10410,"Ġhinges":10411,"Ġevelyn":10412,"entertaining":10413,"Ġreceive":10414,"children":10415,"Ġsupremely":10416,"Ġchaplin":10417,"Ġchampion":10418,"Ġscorpion":10419,"Ġrumor":10420,"Ġlearning":10421,"Ġvoyeur":10422,"Ġnewcomer":10423,"Ġresourceful":10424,"Ġcolumbine":10425,"Ġrecovery":10426,"Ġassociated":10427,"Ġilluminating":10428,"grandson":10429,"Ġtastelessness":10430,"Ġaesthetic":10431,"affected":10432,"britney":10433,"collateral":10434,"pieces":10435,"sophie":10436,"satisfied":10437,"Ġtailor":10438,"Ġaugust":10439,"Ġokay":10440,"Ġfrozen":10441,"Ġmishmash":10442,"Ġbreadth":10443,"Ġlouis":10444,"Ġnetwork":10445,"Ġstinker":10446,"Ġassembly":10447,"Ġenchanting":10448,"Ġunmemorable":10449,"Ġweighs":10450,"Ġmuseum":10451,"Ġdisarming":10452,"Ġdisquieting":10453,"Ġmexican":10454,"Ġgraceless":10455,"Ġrelaxed":10456,"Ġexplanation":10457,"Ġcamouflage":10458,"Ġcraftsmanship":10459,"Ġatmospheric":10460,"Ġcircumstances":10461,"Ġhypocris":10462,"Ġbouncy":10463,"feminist":10464,"laden":10465,"powered":10466,"sandra":10467,"sensitive":10468,"zilla":10469,"Ġtropes":10470,"Ġoleander":10471,"Ġwistful":10472,"Ġthreadbare":10473,"Ġinescapable":10474,"Ġnaughty":10475,"Ġrebellion":10476,"Ġhedonistic":10477,"Ġencounters":10478,"Ġunblinking":10479,"Ġneurotic":10480,"Ġkilmer":10481,"erella":10482,"Ġsprawling":10483,"Ġpermeates":10484,"Ġovershadowed":10485,"Ġsubtext":10486,"Ġglamour":10487,"Ġzippy":10488,"Ġprofundity":10489,"majidi":10490,"obiographical":10491,"Ġcurmudgeon":10492,"Ġinnuendo":10493,"Ġirrelevant":10494,"Ġcrocodile":10495,"Ġacknowledges":10496,"Ġmisanthropic":10497,"jacquot":10498,"kilter":10499,"labute":10500,"nourished":10501,"parents":10502,"succeeds":10503,"Ġtrenchant":10504,"Ġafterschool":10505,"Ġahola":10506,"Ġocean":10507,"Ġfiennes":10508,"Ġmawkish":10509,"Ġbaggage":10510,"Ġcumulative":10511,"Ġcinderella":10512,"Ġcogent":10513,"Ġwartime":10514,"Ġpiquant":10515,"Ġdoldrums":10516,"Ġhickenlooper":10517,"Ġnuclear":10518,"Ġgrisly":10519,"Ġstolid":10520,"Ġbeijing":10521,"vividly":10522,"Ġheritage":10523,"Ġjordan":10524,"Ġlighthearted":10525,"Ġunapolog":10526,"Ġvardalos":10527,"Ġwhodunit":10528,"Ġsprightly":10529,"Ġorchestr":10530,"Ġblaxploitation":10531,"Ġdisparate":10532,"Ġvignettes":10533,"Ġunderbelly":10534,"Ġundercurrent":10535,"Ġshenanigans":10536,"Ġbrooklyn":10537,"Ġzhao":10538,"Ġunsurprising":10539,"Ġmisogyny":10540,"Ġwahlberg":10541,"Ġmaddeningly":10542,"Ġwaterlogged":10543,"Ġtearjerker":10544,"Ġlaissez":10545,"Ġspellbinding":10546,"Ġirresponsible":10547,"Ġpyrotechnics":10548,"Ġsanctimonious":10549,"10":10550,"80":10551,"90":10552,"aun":10553,"aise":10554,"austr":10555,"ahead":10556,"bi":10557,"bon":10558,"bam":10559,"bart":10560,"bop":10561,"bone":10562,"biz":10563,"bless":10564,"bond":10565,"bara":10566,"birot":10567,"cat":10568,"cap":10569,"crit":10570,"creen":10571,"cingly":10572,"cath":10573,"cles":10574,"cends":10575,"curd":10576,"di":10577,"doo":10578,"due":10579,"dated":10580,"dots":10581,"dening":10582,"diane":10583,"ec":10584,"eu":10585,"ev":10586,"eel":10587,"ethe":10588,"eck":10589,"equ":10590,"eble":10591,"event":10592,"fre":10593,"fat":10594,"fet":10595,"five":10596,"fram":10597,"fear":10598,"father":10599,"fia":10600,"fair":10601,"foot":10602,"fron":10603,"fitting":10604,"fried":10605,"foster":10606,"frida":10607,"fessenden":10608,"gon":10609,"got":10610,"gri":10611,"gate":10612,"gap":10613,"game":10614,"gress":10615,"gold":10616,"gically":10617,"ghey":10618,"hr":10619,"hold":10620,"home":10621,"hyp":10622,"hoff":10623,"hany":10624,"haneke":10625,"honed":10626,"hungry":10627,"happily":10628,"hmalbaf":10629,"iard":10630,"iary":10631,"iance":10632,"ivers":10633,"iably":10634,"ipping":10635,"ipped":10636,"iatingly":10637,"jul":10638,"jol":10639,"jason":10640,"ker":10641,"kien":10642,"kaufman":10643,"kapur":10644,"kwer":10645,"lay":10646,"lest":10647,"lame":10648,"lled":10649,"lantic":10650,"liness":10651,"lane":10652,"luck":10653,"lÃ©":10654,"lined":10655,"lastic":10656,"laugh":10657,"mom":10658,"mel":10659,"moo":10660,"might":10661,"mind":10662,"mary":10663,"mild":10664,"mma":10665,"muddled":10666,"mckay":10667,"nad":10668,"nial":10669,"nice":10670,"ningly":10671,"nons":10672,"number":10673,"ope":10674,"oks":10675,"pre":10676,"pra":10677,"pse":10678,"pun":10679,"pure":10680,"pain":10681,"pop":10682,"pled":10683,"passion":10684,"predict":10685,"predictable":10686,"pacino":10687,"popping":10688,"podge":10689,"rick":10690,"rine":10691,"rice":10692,"ratic":10693,"russ":10694,"ruous":10695,"sn":10696,"sure":10697,"spe":10698,"sac":10699,"sian":10700,"size":10701,"sets":10702,"slow":10703,"snan":10704,"since":10705,"tal":10706,"tom":10707,"tell":10708,"telling":10709,"torn":10710,"tÃ©":10711,"turning":10712,"timer":10713,"tadpole":10714,"ui":10715,"uz":10716,"uke":10717,"uire":10718,"upl":10719,"upp":10720,"uence":10721,"uating":10722,"uccess":10723,"upper":10724,"vs":10725,"vest":10726,"vasive":10727,"ws":10728,"was":10729,"wra":10730,"wess":10731,"wins":10732,"worn":10733,"wined":10734,"walk":10735,"wai":10736,"wright":10737,"wolf":10738,"washy":10739,"wattage":10740,"xing":10741,"xes":10742,"xistent":10743,"yi":10744,"yl":10745,"yce":10746,"yate":10747,"yard":10748,"yah":10749,"ziness":10750,"zhuang":10751,"Â¡":10752,"Â±":10753,"Â¼":10754,"ÂŃ":10755,"Ã¢":10756,"Ġ=":10757,"Ġich":10758,"Ġxt":10759,"Ġtin":10760,"Ġtant":10761,"Ġtie":10762,"Ġtame":10763,"Ġtons":10764,"Ġtapping":10765,"Ġah":10766,"Ġaid":10767,"Ġape":10768,"Ġaven":10769,"Ġavant":10770,"Ġauster":10771,"Ġaids":10772,"Ġaval":10773,"inch":10774,"inally":10775,"inter":10776,"infl":10777,"inality":10778,"incess":10779,"inently":10780,"inished":10781,"hero":10782,"herable":10783,"Ġsen":10784,"Ġsul":10785,"Ġsven":10786,"Ġsky":10787,"Ġsons":10788,"Ġsends":10789,"Ġsledge":10790,"Ġsassy":10791,"rer":10792,"rera":10793,"recher":10794,"Ġoo":10795,"Ġood":10796,"Ġolym":10797,"Ġooz":10798,"erves":10799,"erred":10800,"erners":10801,"erbergh":10802,"itan":10803,"itar":10804,"itas":10805,"itical":10806,"itment":10807,"itably":10808,"itals":10809,"itiated":10810,"itarian":10811,"itchen":10812,"Ġtheor":10813,"Ġfid":10814,"Ġfist":10815,"Ġfert":10816,"Ġfused":10817,"Ġfashioned":10818,"Ġfuel":10819,"Ġfarts":10820,"Ġflying":10821,"Ġfaded":10822,"Ġfoster":10823,"Ġfifty":10824,"Ġfessenden":10825,"Ġfontaine":10826,"Ġfalters":10827,"iser":10828,"ison":10829,"isine":10830,"isible":10831,"isco":10832,"enig":10833,"enance":10834,"enjoy":10835,"enorm":10836,"Ġmic":10837,"Ġmine":10838,"Ġmerg":10839,"Ġmuddy":10840,"Ġmumbo":10841,"Ġmckay":10842,"athe":10843,"atri":10844,"atner":10845,"athered":10846,"atoes":10847,"Ġbid":10848,"Ġbell":10849,"Ġbark":10850,"Ġbled":10851,"Ġboss":10852,"Ġbought":10853,"Ġbale":10854,"Ġbail":10855,"Ġbalk":10856,"Ġbander":10857,"Ġbern":10858,"Ġbilly":10859,"Ġbicy":10860,"Ġbirds":10861,"Ġbumbling":10862,"Ġbielinsky":10863,"Ġcq":10864,"Ġcow":10865,"Ġcun":10866,"Ġcust":10867,"Ġcod":10868,"Ġcass":10869,"Ġcoc":10870,"Ġcash":10871,"Ġcars":10872,"Ġcuss":10873,"Ġcatching":10874,"Ġcumbers":10875,"Ġwes":10876,"Ġwon":10877,"Ġwol":10878,"Ġward":10879,"Ġwert":10880,"Ġwore":10881,"Ġwiz":10882,"Ġwang":10883,"Ġwren":10884,"Ġwreak":10885,"Ġwander":10886,"Ġwanes":10887,"Ġwrenching":10888,"esar":10889,"esus":10890,"orth":10891,"orish":10892,"onau":10893,"onizing":10894,"ouri":10895,"ouyate":10896,"Ġple":10897,"Ġpent":10898,"Ġpoo":10899,"Ġpand":10900,"Ġpore":10901,"Ġpep":10902,"Ġpelling":10903,"Ġpages":10904,"Ġpumm":10905,"anos":10906,"Ġdoo":10907,"Ġdur":10908,"Ġdire":10909,"Ġdile":10910,"Ġdual":10911,"Ġdress":10912,"Ġdash":10913,"Ġdamp":10914,"Ġdiar":10915,"Ġdots":10916,"Ġdoof":10917,"Ġdwar":10918,"Ġdaught":10919,"Ġdante":10920,"Ġdaughter":10921,"Ġdensely":10922,"Ġdiane":10923,"aron":10924,"arrow":10925,"archy":10926,"ala":10927,"alys":10928,"alented":10929,"Ġthri":10930,"Ġthrew":10931,"Ġthirteen":10932,"lysian":10933,"Ġhoo":10934,"Ġhates":10935,"Ġhug":10936,"Ġhicks":10937,"Ġhiding":10938,"Ġhinds":10939,"Ġhouses":10940,"Ġhodge":10941,"lein":10942,"leep":10943,"leted":10944,"league":10945,"leaves":10946,"lewis":10947,"icine":10948,"iched":10949,"icially":10950,"icament":10951,"iccated":10952,"Ġtow":10953,"Ġtoes":10954,"Ġtoots":10955,"Ġtoxic":10956,"Ġinj":10957,"Ġink":10958,"Ġinim":10959,"Ġinqu":10960,"Ġinart":10961,"Ġinade":10962,"Ġinability":10963,"Ġinappropri":10964,"edience":10965,"ilk":10966,"ilized":10967,"Ġles":10968,"Ġlan":10969,"Ġlam":10970,"Ġlag":10971,"Ġlake":10972,"Ġlick":10973,"Ġlens":10974,"Ġlink":10975,"Ġlinger":10976,"Ġluster":10977,"Ġlaser":10978,"Ġlittered":10979,"Ġnan":10980,"Ġnad":10981,"Ġnur":10982,"Ġnud":10983,"Ġnary":10984,"Ġnative":10985,"Ġnair":10986,"Ġnorton":10987,"Ġnurt":10988,"Ġnba":10989,"Ġnettelbeck":10990,"Ġnarrow":10991,"stra":10992,"stay":10993,"start":10994,"stale":10995,"stered":10996,"stabbing":10997,"Ġital":10998,"Ġitem":10999,"Ġeating":11000,"Ġethere":11001,"Ġecl":11002,"Ġetern":11003,"Ġecho":11004,"Ġepps":11005,"Ġelysian":11006,"Ġgoo":11007,"Ġgour":11008,"Ġgoy":11009,"Ġgren":11010,"Ġgian":11011,"Ġgilli":11012,"Ġgai":11013,"Ġgarc":11014,"Ġgaud":11015,"Ġgained":11016,"Ġgaghan":11017,"Ġisle":11018,"uts":11019,"utch":11020,"ctor":11021,"ctic":11022,"elic":11023,"Ġmoist":11024,"ento":11025,"asis":11026,"ased":11027,"asion":11028,"asms":11029,"oto":11030,"othing":11031,"otics":11032,"otiate":11033,"veled":11034,"vered":11035,"veka":11036,"Ġstal":11037,"Ġstance":11038,"Ġstub":11039,"Ġstagg":11040,"Ġstinks":11041,"Ġstellar":11042,"Ġstasis":11043,"imi":11044,"imel":11045,"imum":11046,"imper":11047,"immer":11048,"Ġbeating":11049,"Ġbearing":11050,"Ġbegging":11051,"Ġreap":11052,"Ġreginal":11053,"Ġreese":11054,"Ġrebel":11055,"Ġreceived":11056,"Ġrekind":11057,"Ġrendering":11058,"Ġreworking":11059,"rape":11060,"rader":11061,"rages":11062,"raints":11063,"raqui":11064,"Ġuh":11065,"ghan":11066,"vera":11067,"roy":11068,"rodriguez":11069,"ulter":11070,"uline":11071,"ulled":11072,"ulatory":11073,"cha":11074,"cht":11075,"chai":11076,"chwit":11077,"chicago":11078,"Ġongoing":11079,"Ġana":11080,"Ġanna":11081,"Ġanemic":11082,"etically":11083,"Ġfilming":11084,"Ġye":11085,"Ġyi":11086,"Ġasking":11087,"rial":11088,"rious":11089,"ribut":11090,"olas":11091,"olve":11092,"olves":11093,"olical":11094,"olved":11095,"adapt":11096,"Ġforgi":11097,"Ġforcing":11098,"Ġforgiven":11099,"seen":11100,"seagal":11101,"searching":11102,"essional":11103,"Ġwhit":11104,"Ġwhip":11105,"Ġwhirl":11106,"Ġwhimper":11107,"Ġsung":11108,"Ġsuicide":11109,"irt":11110,"iration":11111,"irling":11112,"irwin":11113,"idents":11114,"idences":11115,"iforn":11116,"Ġchoc":11117,"Ġchair":11118,"Ġchomp":11119,"Ġchimps":11120,"threat":11121,"thorough":11122,"throwing":11123,"thirds":11124,"throat":11125,"amic":11126,"amie":11127,"Ġalar":11128,"Ġalas":11129,"Ġalmod":11130,"Ġaltar":11131,"ershot":11132,"Ġhem":11133,"Ġheck":11134,"Ġheated":11135,"Ġheft":11136,"Ġhealing":11137,"Ġheels":11138,"abi":11139,"abolical":11140,"uneven":11141,"illo":11142,"illard":11143,"Ġjr":11144,"Ġjet":11145,"Ġjos":11146,"Ġjie":11147,"Ġjac":11148,"Ġjia":11149,"Ġjank":11150,"Ġjugg":11151,"Ġjett":11152,"Ġjudge":11153,"Ġjesse":11154,"Ġjumbo":11155,"Ġjeline":11156,"Ġjazzy":11157,"Ġjesus":11158,"agli":11159,"umacher":11160,"umption":11161,"Ġseam":11162,"Ġseams":11163,"Ġseeds":11164,"Ġsegment":11165,"Ġserene":11166,"cket":11167,"ousal":11168,"eming":11169,"empl":11170,"Ġencomp":11171,"urb":11172,"urved":11173,"Ġintr":11174,"Ġliu":11175,"Ġliven":11176,"Ġlivel":11177,"Ġlibr":11178,"Ġlibid":11179,"Ġliotta":11180,"Ġexal":11181,"Ġexude":11182,"Ġexudes":11183,"Ġexempl":11184,"aker":11185,"akata":11186,"istence":11187,"istingu":11188,"Ġshri":11189,"Ġshall":11190,"Ġshore":11191,"Ġshown":11192,"Ġshaking":11193,"Ġsharing":11194,"Ġshamb":11195,"Ġshades":11196,"Ġshared":11197,"Ġshrek":11198,"Ġshifts":11199,"Ġshafer":11200,"quitting":11201,"rome":11202,"romanek":11203,"Ġabilities":11204,"Ġnotably":11205,"Ġhapless":11206,"Ġdoz":11207,"Ġdoors":11208,"antom":11209,"antet":11210,"Ġdece":11211,"Ġdelect":11212,"ested":11213,"esteem":11214,"Ġunend":11215,"Ġunleas":11216,"Ġunimp":11217,"Ġunited":11218,"Ġunrep":11219,"Ġunknown":11220,"Ġunsym":11221,"Ġunaffected":11222,"Ġneck":11223,"Ġneuro":11224,"Ġscant":11225,"Ġscorn":11226,"Ġscams":11227,"Ġscrap":11228,"Ġschepisi":11229,"Ġconan":11230,"Ġconquer":11231,"Ġconverted":11232,"Ġconnoisse":11233,"ainted":11234,"astonishing":11235,"artic":11236,"ellingly":11237,"Ġatlantic":11238,"Ġworrying":11239,"Ġkim":11240,"Ġkate":11241,"Ġkook":11242,"Ġkang":11243,"Ġkink":11244,"Ġkane":11245,"Ġkub":11246,"Ġkitten":11247,"Ġkwan":11248,"Ġkaren":11249,"Ġkitchen":11250,"Ġkouyate":11251,"Ġsoars":11252,"Ġsorely":11253,"Ġsopr":11254,"actory":11255,"ige":11256,"igr":11257,"iguch":11258,"Ġbygone":11259,"ushes":11260,"usty":11261,"apon":11262,"aped":11263,"apse":11264,"apart":11265,"apable":11266,"forget":11267,"forced":11268,"forgettable":11269,"oodle":11270,"Ġcharlotte":11271,"andre":11272,"Ġprost":11273,"Ġproving":11274,"Ġproof":11275,"Ġproced":11276,"Ġprowess":11277,"Ġrut":11278,"Ġrud":11279,"Ġrue":11280,"Ġrans":11281,"Ġranc":11282,"Ġratt":11283,"Ġrhaps":11284,"Ġrotten":11285,"Ġrushed":11286,"Ġallusions":11287,"opens":11288,"Ġplate":11289,"Ġplatter":11290,"Ġfeces":11291,"indulg":11292,"vened":11293,"terrif":11294,"hers":11295,"Ġled":11296,"Ġleaps":11297,"Ġlevy":11298,"Ġleaks":11299,"Ġleague":11300,"Ġleaky":11301,"Ġpresc":11302,"Ġpreval":11303,"Ġpreteen":11304,"Ġpregn":11305,"osi":11306,"oseless":11307,"oscar":11308,"Ġvin":11309,"Ġvary":11310,"Ġvice":11311,"Ġvaude":11312,"allen":11313,"Ġspit":11314,"Ġspout":11315,"Ġspine":11316,"Ġspiff":11317,"Ġspins":11318,"Ġspader":11319,"Ġsprecher":11320,"arde":11321,"Ġperils":11322,"Ġperple":11323,"Ġpercol":11324,"Ġperfunct":11325,"Ġpervasive":11326,"Ġorde":11327,"Ġorchard":11328,"acking":11329,"ackles":11330,"ackaged":11331,"Ġimperfect":11332,"Ġimamura":11333,"Ġclad":11334,"Ġclam":11335,"Ġclone":11336,"Ġclaw":11337,"Ġclapt":11338,"Ġclosed":11339,"Ġclones":11340,"Ġcloud":11341,"Ġclaim":11342,"Ġclaims":11343,"ongruous":11344,"plate":11345,"plus":11346,"plod":11347,"ppingly":11348,"ppled":11349,"pposed":11350,"Ġoutwe":11351,"Ġoutbur":11352,"Ġouttakes":11353,"Ġoutshine":11354,"Ġoutdated":11355,"endiary":11356,"bled":11357,"manip":11358,"Ġfunctions":11359,"Ġmanaging":11360,"ĠamÃ©":11361,"Ġample":11362,"Ġquot":11363,"Ġquills":11364,"Ġquaint":11365,"Ġquinn":11366,"Ġtruff":11367,"Ġlod":11368,"Ġlohman":11369,"ineering":11370,"Ġnoisy":11371,"Ġnoyce":11372,"Ġupset":11373,"Ġarro":11374,"Ġarms":11375,"Ġararat":11376,"Ġweig":11377,"Ġwebs":11378,"Ġweaver":11379,"Ġweapon":11380,"acre":11381,"acle":11382,"acoy":11383,"ogen":11384,"Ġian":11385,"Ġiwai":11386,"Ġflag":11387,"Ġflight":11388,"Ġflip":11389,"Ġflav":11390,"Ġflounders":11391,"aux":11392,"oury":11393,"Ġwills":11394,"Ġadage":11395,"Ġadrian":11396,"Ġgoodall":11397,"odd":11398,"odies":11399,"odox":11400,"comfort":11401,"Ġanymore":11402,"weig":11403,"weird":11404,"Ġmuccino":11405,"Ġcomprehensible":11406,"Ġpole":11407,"Ġpose":11408,"Ġpoised":11409,"Ġenters":11410,"Ġroy":11411,"Ġrolled":11412,"Ġworkout":11413,"akespeare":11414,"Ġbless":11415,"Ġbliss":11416,"Ġblows":11417,"Ġblob":11418,"Ġbluster":11419,"Ġblithe":11420,"Ġwheels":11421,"Ġoverview":11422,"Ġoverstated":11423,"Ġovercook":11424,"Ġoverheated":11425,"izer":11426,"izens":11427,"Ġperformer":11428,"Ġperforming":11429,"Ġdiscont":11430,"Ġdisorient":11431,"Ġdiscipl":11432,"Ġdisregard":11433,"Ġdiscomfort":11434,"ounds":11435,"oundingly":11436,"Ġwaydowntown":11437,"arks":11438,"Ġwhatso":11439,"Ġhumble":11440,"Ġhumans":11441,"Ġbetray":11442,"into":11443,"inted":11444,"interest":11445,"intellig":11446,"interesting":11447,"ritchie":11448,"Ġslide":11449,"Ġslug":11450,"Ġslopp":11451,"Ġslender":11452,"ishly":11453,"Ġwelles":11454,"ipherable":11455,"Ġrag":11456,"Ġrah":11457,"Ġrape":11458,"Ġracy":11459,"Ġraising":11460,"Ġragged":11461,"Ġraging":11462,"wness":11463,"Ġmeyer":11464,"Ġmegap":11465,"Ġsubstand":11466,"Ġsubconscious":11467,"Ġrig":11468,"Ġriv":11469,"Ġripping":11470,"ccini":11471,"need":11472,"neck":11473,"neath":11474,"Ġtwin":11475,"Ġtwaddle":11476,"sports":11477,"spiring":11478,"Ġgondry":11479,"ocious":11480,"ocated":11481,"oclastic":11482,"Ġeverywhere":11483,"Ġimposs":11484,"Ġimperson":11485,"Ġrealities":11486,"Ġrealizing":11487,"Ġrealizes":11488,"Ġvibe":11489,"Ġendings":11490,"Ġenduring":11491,"ionship":11492,"Ġneverland":11493,"Ġbadness":11494,"Ġsurre":11495,"Ġsurve":11496,"Ġbrash":11497,"Ġbrush":11498,"Ġbranagh":11499,"Ġwash":11500,"Ġwashed":11501,"Ġtea":11502,"Ġteasing":11503,"Ġteeming":11504,"Ġdesert":11505,"Ġdesiccated":11506,"Ġdelh":11507,"Ġdelusions":11508,"phil":11509,"onditional":11510,"Ġsme":11511,"Ġsmoot":11512,"Ġsmiling":11513,"Ġsmirk":11514,"Ġserv":11515,"Ġserry":11516,"sover":11517,"Ġscreenplays":11518,"shack":11519,"shod":11520,"shoot":11521,"shots":11522,"shows":11523,"shallow":11524,"shyamalan":11525,"shanghai":11526,"shakespeare":11527,"Ġotherworld":11528,"Ġstrings":11529,"Ġstrung":11530,"Ġnewton":11531,"renner":11532,"Ġmatt":11533,"Ġmatched":11534,"Ġmattei":11535,"Ġpeplo":11536,"Ġagree":11537,"Ġagenda":11538,"Ġagonizing":11539,"Ġtrap":11540,"Ġtract":11541,"Ġ16":11542,"Ġ170":11543,"Ġundernourished":11544,"Ġunderneath":11545,"Ġpartner":11546,"Ġromanek":11547,"Ġheartstr":11548,"Ġheartache":11549,"urned":11550,"Ġjok":11551,"Ġbigot":11552,"Ġbigelow":11553,"Ġresolut":11554,"Ġresorts":11555,"Ġresident":11556,"Ġresurrection":11557,"Ġreserved":11558,"Ġinterests":11559,"Ġminus":11560,"ashi":11561,"ventful":11562,"scene":11563,"scooby":11564,"scherfig":11565,"Ġcrashing":11566,"othy":11567,"Ġobli":11568,"Ġcharacterized":11569,"Ġholly":11570,"Ġowners":11571,"isticated":11572,"ivated":11573,"impossible":11574,"Ġshowdown":11575,"Ġcheery":11576,"Ġcheeky":11577,"Ġawry":11578,"Ġwarned":11579,"Ġinsistent":11580,"Ġinsignific":11581,"awed":11582,"authentic":11583,"Ġgrate":11584,"beyond":11585,"becomes":11586,"Ġcox":11587,"Ġcoen":11588,"Ġcoast":11589,"Ġattent":11590,"Ġattending":11591,"Ġattached":11592,"Ġtrials":11593,"Ġtriple":11594,"Ġdownward":11595,"atherine":11596,"Ġdocu":11597,"Ġdocuments":11598,"isset":11599,"Ġterri":11600,"Ġterry":11601,"Ġterminally":11602,"Ġgrain":11603,"Ġgraham":11604,"Ġcollin":11605,"Ġcolumn":11606,"Ġafghan":11607,"Ġkinds":11608,"Ġmighty":11609,"Ġrelating":11610,"Ġrelatives":11611,"Ġfrothy":11612,"Ġcaf":11613,"Ġcaustic":11614,"Ġcaesar":11615,"Ġworlds":11616,"likely":11617,"Ġrecy":11618,"Ġrecall":11619,"Ġrecite":11620,"Ġrecalls":11621,"syn":11622,"sych":11623,"Ġguide":11624,"arsky":11625,"Ġplaywright":11626,"Ġviews":11627,"Ġviewpoint":11628,"Ġbelgi":11629,"Ġbacked":11630,"Ġbackyard":11631,"Ġlaughably":11632,"azed":11633,"azingly":11634,"Ġapple":11635,"Ġglow":11636,"Ġglad":11637,"Ġglover":11638,"Ġglitz":11639,"Ġsetups":11640,"Ġexcl":11641,"Ġsatin":11642,"Ġkidd":11643,"Ġhumane":11644,"Ġhumanly":11645,"Ġmessing":11646,"Ġorigin":11647,"Ġorigins":11648,"Ġpersuasive":11649,"Ġincapable":11650,"Ġincongruous":11651,"Ġincendiary":11652,"Ġmush":11653,"Ġmusket":11654,"Ġprank":11655,"Ġpranks":11656,"Ġpriceless":11657,"Ġprurient":11658,"Ġprincess":11659,"Ġcareers":11660,"Ġindig":11661,"Ġindication":11662,"Ġelbows":11663,"execut":11664,"explo":11665,"Ġdrained":11666,"Ġdragged":11667,"Ġshell":11668,"Ġfinished":11669,"Ġfinesse":11670,"Ġextends":11671,"Ġextensive":11672,"Ġphon":11673,"Ġcreatively":11674,"Ġrepug":11675,"Ġrepulsive":11676,"Ġforms":11677,"Ġformal":11678,"Ġsweep":11679,"Ġsweethe":11680,"Ġbuoy":11681,"ĠbuÃ£":11682,"Ġpowerfully":11683,"guably":11684,"ysical":11685,"Ġmarred":11686,"Ġwerewolf":11687,"fluous":11688,"meant":11689,"meandering":11690,"noir":11691,"Ġdistress":11692,"Ġdistanced":11693,"Ġexplain":11694,"Ġexplains":11695,"Ġexplicit":11696,"inski":11697,"Ġrefined":11698,"Ġrefuse":11699,"Ġdecor":11700,"Ġdecision":11701,"aneo":11702,"Ġhorn":11703,"Ġafterthought":11704,"Ġappeals":11705,"Ġappearing":11706,"Ġappeared":11707,"Ġesp":11708,"Ġespion":11709,"Ġspeculative":11710,"Ġspecimen":11711,"Ġfriel":11712,"Ġholy":11713,"Ġhoary":11714,"Ġ24":11715,"Ġ26":11716,"Ġmemorial":11717,"Ġmemento":11718,"Ġcarved":11719,"Ġcarrying":11720,"Ġcraig":11721,"Ġmelt":11722,"Ġbites":11723,"warding":11724,"Ġsexually":11725,"Ġsolace":11726,"Ġmord":11727,"Ġmorose":11728,"Ġmorph":11729,"Ġmoronic":11730,"Ġmorgan":11731,"Ġyoungsters":11732,"Ġedward":11733,"Ġschiz":11734,"Ġschumacher":11735,"Ġschweig":11736,"Ġinvitation":11737,"Ġinvites":11738,"Ġinvisible":11739,"Ġpersonas":11740,"asculine":11741,"Ġmiami":11742,"Ġmiyazaki":11743,"Ġsuperhero":11744,"Ġsuperfluous":11745,"Ġdialog":11746,"Ġintelligently":11747,"Ġmonte":11748,"Ġleavened":11749,"Ġclassified":11750,"iculate":11751,"minable":11752,"Ġsayles":11753,"Ġtoug":11754,"Ġchildish":11755,"Ġgenerated":11756,"Ġ1940":11757,"ergy":11758,"Ġhandic":11759,"Ġhanded":11760,"Ġhandling":11761,"Ġhandles":11762,"cox":11763,"cope":11764,"coaster":11765,"Ġsway":11766,"Ġswitch":11767,"Ġswipe":11768,"Ġswitches":11769,"Ġdemme":11770,"Ġdemograph":11771,"Ġbelief":11772,"attal":11773,"atters":11774,"attaneo":11775,"Ġabsence":11776,"Ġlasting":11777,"Ġpainting":11778,"Ġpainted":11779,"Ġharrison":11780,"Ġexpands":11781,"Ġexpanded":11782,"Ġfascinate":11783,"Ġfascinated":11784,"Ġfascinates":11785,"Ġputrid":11786,"Ġeffortless":11787,"Ġmedicine":11788,"Ġelegi":11789,"Ġelevate":11790,"Ġinterf":11791,"Ġinterludes":11792,"Ġborstal":11793,"Ġstaring":11794,"Ġstarred":11795,"Ġlightly":11796,"Ġdefine":11797,"Ġdefiantly":11798,"odrama":11799,"Ġcinematically":11800,"somewhere":11801,"somehow":11802,"Ġpsyched":11803,"Ġpsyche":11804,"Ġmaids":11805,"Ġbrazen":11806,"Ġnarration":11807,"Ġboils":11808,"Ġboiler":11809,"Ġboisterous":11810,"Ġboorish":11811,"Ġsadism":11812,"Ġsaddled":11813,"Ġbarbara":11814,"Ġundistingu":11815,"Ġsuspension":11816,"Ġcommended":11817,"Ġcommands":11818,"Ġcommitment":11819,"riched":11820,"Ġsensation":11821,"Ġunsus":11822,"Ġunsuccess":11823,"Ġretreat":11824,"Ġretelling":11825,"offs":11826,"Ġmidway":11827,"Ġmidlife":11828,"Ġpotbo":11829,"Ġpopulation":11830,"Ġconfines":11831,"Ġconfined":11832,"Ġconfusion":11833,"Ġpsychic":11834,"Ġdiabolical":11835,"Ġdaydream":11836,"Ġprofession":11837,"Ġproficient":11838,"Ġengagingly":11839,"Ġmission":11840,"Ġredgra":11841,"Ġredneck":11842,"Ġasset":11843,"Ġassayas":11844,"Ġstrongest":11845,"Ġobviousness":11846,"clut":11847,"clock":11848,"Ġoprah":11849,"Ġsurefire":11850,"Ġheaded":11851,"Ġmagimel":11852,"Ġwildlife":11853,"Ġdavies":11854,"Ġdaft":11855,"Ġambrose":11856,"Ġtragically":11857,"Ġsatisfied":11858,"Ġsatisfactory":11859,"Ġdamning":11860,"Ġfacts":11861,"Ġpatri":11862,"Ġpatric":11863,"Ġreasonable":11864,"Ġquirkiness":11865,"Ġtransition":11866,"Ġtransgressive":11867,"feeling":11868,"Ġacclaim":11869,"Ġaccuracy":11870,"Ġcouples":11871,"Ġcoupled":11872,"Ġwinners":11873,"Ġpromotes":11874,"Ġsteers":11875,"Ġstewart":11876,"Ġrobust":11877,"Ġrobinson":11878,"Ġmoderately":11879,"goers":11880,"ientious":11881,"Ġmurk":11882,"Ġpunches":11883,"Ġpungent":11884,"Ġsubtler":11885,"Ġdramatics":11886,"Ġdelighted":11887,"Ġoperatic":11888,"Ġmischie":11889,"Ġcredul":11890,"Ġnorth":11891,"Ġnormal":11892,"Ġsuccesses":11893,"Ġsuccessor":11894,"Ġtrees":11895,"Ġtreacher":11896,"Ġtreated":11897,"Ġtreatise":11898,"Ġsnore":11899,"Ġsnatch":11900,"Ġsnail":11901,"Ġbrio":11902,"Ġcamarad":11903,"Ġ93":11904,"Ġ94":11905,"Ġfrenzy":11906,"Ġfrenetic":11907,"Ġgrie":11908,"Ġreadily":11909,"Ġvalid":11910,"Ġvalley":11911,"Ġvaliantly":11912,"grass":11913,"serving":11914,"service":11915,"Ġoccur":11916,"Ġoccurs":11917,"Ġwaves":11918,"Ġwaits":11919,"Ġwafer":11920,"Ġdumbness":11921,"uggy":11922,"uggery":11923,"Ġillum":11924,"Ġearned":11925,"Ġflattering":11926,"Ġflawless":11927,"Ġvegg":11928,"Ġveins":11929,"Ġbeginners":11930,"center":11931,"undrum":11932,"Ġsignals":11933,"Ġmetal":11934,"Ġcounts":11935,"Ġstylist":11936,"Ġstylings":11937,"blance":11938,"blanc":11939,"Ġmotor":11940,"Ġmotives":11941,"Ġcalib":11942,"Ġcaliforn":11943,"Ġhitler":11944,"Ġreverence":11945,"Ġaffected":11946,"Ġaffectation":11947,"hetically":11948,"eltown":11949,"whereas":11950,"annis":11951,"Ġdreamed":11952,"Ġdreamlike":11953,"Ġsufficient":11954,"complete":11955,"Ġwindows":11956,"otees":11957,"Ġstrip":11958,"Ġregister":11959,"Ġregards":11960,"Ġregurg":11961,"Ġjeong":11962,"Ġdeaths":11963,"Ġembell":11964,"obson":11965,"Ġdouglas":11966,"Ġurgent":11967,"Ġdevolves":11968,"Ġrocks":11969,"Ġrocket":11970,"Ġsecondhand":11971,"Ġhelping":11972,"Ġspeed":11973,"Ġcapability":11974,"Ġrests":11975,"Ġexploits":11976,"Ġexploiting":11977,"Ġoccasion":11978,"Ġfreight":11979,"Ġfrequent":11980,"Ġmadcap":11981,"Ġmaddening":11982,"Ġforgets":11983,"Ġquickie":11984,"hyang":11985,"Ġaffable":11986,"Ġaffirm":11987,"Ġsandw":11988,"Ġfoundation":11989,"Ġcorpse":11990,"Ġdeny":11991,"Ġdenou":11992,"Ġdenzel":11993,"Ġdenizens":11994,"Ġexamples":11995,"Ġpoetically":11996,"Ġderives":11997,"Ġderived":11998,"Ġconceptual":11999,"Ġapproached":12000,"Ġapproaches":12001,"gravating":12002,"Ġ84":12003,"Ġ87":12004,"Ġairs":12005,"Ġairless":12006,"Ġlifel":12007,"Ġgrowth":12008,"Ġcombust":12009,"Ġhilariously":12010,"aiian":12011,"Ġautop":12012,"Ġautobiographical":12013,"Ġexecutive":12014,"boasts":12015,"years":12016,"Ġsleaz":12017,"Ġsleeper":12018,"Ġbalances":12019,"Ġcostly":12020,"Ġescort":12021,"moretti":12022,"Ġfemme":12023,"Ġconditions":12024,"Ġcondensed":12025,"Ġpossession":12026,"Ġdriving":12027,"Ġnoncon":12028,"Ġnonjud":12029,"Ġnonexistent":12030,"Ġbloodshed":12031,"Ġtwisty":12032,"Ġtwisting":12033,"Ġverge":12034,"Ġachieved":12035,"Ġfocuses":12036,"Ġcurt":12037,"Ġdigit":12038,"Ġdeliciously":12039,"waydowntown":12040,"Ġbrits":12041,"Ġgentility":12042,"Ġgenteel":12043,"Ġchokes":12044,"Ġuntalented":12045,"Ġunturned":12046,"Ġblandly":12047,"Ġtestimon":12048,"Ġtheatres":12049,"Ġparental":12050,"Ġexhib":12051,"Ġapproaching":12052,"giving":12053,"Ġerrol":12054,"Ġfiguring":12055,"Ġfigured":12056,"Ġprocessed":12057,"Ġfavored":12058,"Ġobserve":12059,"Ġcollide":12060,"Ġopened":12061,"nected":12062,"Ġburkin":12063,"Ġburstein":12064,"Ġwelsh":12065,"Ġinventiveness":12066,"Ġgodzilla":12067,"Ġspliced":12068,"Ġthoughtfulness":12069,"Ġfulfilling":12070,"Ġcampanella":12071,"Ġdestroy":12072,"Ġintimid":12073,"Ġexisting":12074,"Ġprovoc":12075,"Ġiii":12076,"Ġphotographer":12077,"Ġpresenting":12078,"chel":12079,"culkin":12080,"gooding":12081,"Ġsquad":12082,"realist":12083,"Ġhyster":12084,"Ġlabel":12085,"Ġlaborious":12086,"Ġgeor":12087,"Ġroute":12088,"Ġofferings":12089,"Ġquestioning":12090,"spectac":12091,"Ġ48":12092,"Ġtypically":12093,"Ġcritique":12094,"Ġcriticism":12095,"Ġpurposeless":12096,"Ġhotdog":12097,"charming":12098,"Ġshoots":12099,"Ġhaunts":12100,"Ġroads":12101,"Ġfailings":12102,"Ġrespects":12103,"Ġrespectful":12104,"Ġfrustrated":12105,"Ġinclination":12106,"Ġcelebrated":12107,"zzzz":12108,"Ġessay":12109,"Ġcrosses":12110,"alta":12111,"Ġstevens":12112,"Ġconflicts":12113,"Ġforemost":12114,"Ġmercy":12115,"Ġwednes":12116,"Ġparking":12117,"Ġconnected":12118,"Ġvoid":12119,"Ġvariations":12120,"Ġingrat":12121,"Ġtearing":12122,"Ġfanatics":12123,"Ġpalestinian":12124,"Ġliman":12125,"Ġrevels":12126,"ifyingly":12127,"Ġplainly":12128,"Ġamazement":12129,"Ġtriumphs":12130,"Ġtriumphant":12131,"Ġmetaphysical":12132,"handedness":12133,"Ġramp":12134,"Ġframes":12135,"Ġyorkers":12136,"Ġsparkles":12137,"Ġfrankenstein":12138,"clever":12139,"Ġwoods":12140,"Ġhipness":12141,"Ġmotherhood":12142,"Ġannals":12143,"isteringly":12144,"Ġsupposedly":12145,"color":12146,"colored":12147,"Ġfallen":12148,"Ġmachin":12149,"Ġcircle":12150,"Ġdanish":12151,"Ġdanang":12152,"Ġjuan":12153,"Ġjuwann":12154,"Ġimmers":12155,"Ġimmense":12156,"Ġimmature":12157,"Ġimmigr":12158,"Ġdescends":12159,"Ġtroubled":12160,"Ġaccomplishment":12161,"Ġsuggesting":12162,"Ġsuggestion":12163,"trick":12164,"Ġbreed":12165,"Ġpuccini":12166,"Ġgayton":12167,"Ġmoviegoer":12168,"Ġfearlessness":12169,"Ġclosest":12170,"Ġclosure":12171,"Ġgrounds":12172,"Ġgrounded":12173,"Ġgroundbreaking":12174,"Ġskinny":12175,"Ġidiot":12176,"Ġsavor":12177,"Ġhammy":12178,"Ġnamely":12179,"Ġrevulsion":12180,"Ġconstraints":12181,"Ġconstructs":12182,"Ġmannerisms":12183,"Ġturbul":12184,"Ġmiles":12185,"Ġmilest":12186,"Ġmakhmalbaf":12187,"Ġbike":12188,"Ġwisely":12189,"Ġinexorably":12190,"Ġweightless":12191,"Ġbrightly":12192,"humor":12193,"humorous":12194,"lowicz":12195,"Ġestablish":12196,"Ġtickets":12197,"Ġaimlessly":12198,"heads":12199,"Ġsickening":12200,"Ġethos":12201,"Ġgreedy":12202,"Ġgrease":12203,"Ġbeaten":12204,"Ġrespond":12205,"Ġcomfortably":12206,"Ġuninitiated":12207,"Ġscrut":12208,"Ġscruffy":12209,"Ġriveted":12210,"consid":12211,"Ġrecords":12212,"Ġimaginatively":12213,"Ġincluded":12214,"Ġcircles":12215,"Ġtune":12216,"Ġtunis":12217,"Ġtunney":12218,"Ġwatches":12219,"Ġpride":12220,"Ġprivile":12221,"Ġdominated":12222,"seeking":12223,"Ġencourage":12224,"Ġintrospective":12225,"Ġunconditional":12226,"Ġtravelogue":12227,"Ġchecking":12228,"Ġrepresented":12229,"Ġmarvelously":12230,"Ġfrighten":12231,"Ġdemonstration":12232,"Ġdemonstrating":12233,"Ġsuperficiality":12234,"ferrara":12235,"Ġbogdanovich":12236,"Ġwesterners":12237,"Ġhyped":12238,"Ġringu":12239,"Ġdiscourse":12240,"Ġsurviving":12241,"Ġsurrounds":12242,"Ġsurrounded":12243,"Ġsurroundings":12244,"Ġsmoother":12245,"Ġsmoking":12246,"Ġexcessively":12247,"Ġdetailing":12248,"Ġmagnolia":12249,"Ġtransparent":12250,"Ġtransparently":12251,"wonder":12252,"Ġignor":12253,"Ġignites":12254,"Ġsights":12255,"Ġcryst":12256,"Ġlaws":12257,"Ġsugarman":12258,"Ġcompetition":12259,"Ġrooted":12260,"contains":12261,"Ġcourageous":12262,"Ġembarrassing":12263,"Ġcommercialism":12264,"Ġeccentricity":12265,"borrows":12266,"denis":12267,"Ġmcdowell":12268,"Ġmalcolm":12269,"Ġmalaise":12270,"Ġbowel":12271,"Ġdimin":12272,"Ġnavel":12273,"ĠnaÃ£":12274,"Ġgamesmanship":12275,"rolls":12276,"Ġalienate":12277,"Ġalienating":12278,"Ġjolt":12279,"Ġjolting":12280,"Ġjolts":12281,"Ġunease":12282,"Ġuneasily":12283,"Ġuneventful":12284,"Ġscarlet":12285,"Ġspookiness":12286,"Ġtricky":12287,"Ġadolescence":12288,"Ġmusicals":12289,"Ġaccepting":12290,"Ġacceptance":12291,"Ġconsiders":12292,"Ġmaintaining":12293,"Ġsleeping":12294,"Ġtiresomely":12295,"having":12296,"Ġtourists":12297,"Ġopts":12298,"Ġoption":12299,"Ġmasquer":12300,"Ġmasala":12301,"Ġmillenn":12302,"Ġwryly":12303,"Ġstirs":12304,"Ġstretch":12305,"Ġneglig":12306,"Ġnegotiate":12307,"Ġconceal":12308,"Ġplods":12309,"Ġcompassionate":12310,"Ġcontrast":12311,"Ġirreve":12312,"Ġirrevoc":12313,"Ġsignificantly":12314,"Ġdescribes":12315,"suffering":12316,"Ġhideously":12317,"Ġresemblance":12318,"Ġsunk":12319,"Ġsunset":12320,"Ġjerking":12321,"Ġliberation":12322,"Ġorders":12323,"Ġteachers":12324,"Ġphysically":12325,"Ġ1995":12326,"Ġ1998":12327,"Ġ1999":12328,"Ġineptly":12329,"Ġprofessionals":12330,"hugh":12331,"miyazaki":12332,"pretty":12333,"supposed":12334,"Ġ72":12335,"Ġtenor":12336,"Ġtenacious":12337,"Ġtacky":12338,"Ġmichele":12339,"Ġpushing":12340,"Ġgeriat":12341,"vernier":12342,"Ġaspires":12343,"Ġvolume":12344,"Ġvolumes":12345,"Ġvulgarity":12346,"Ġclimate":12347,"Ġoverwhelms":12348,"Ġoverwhelmed":12349,"Ġgrimly":12350,"Ġreflects":12351,"Ġ1952":12352,"production":12353,"Ġdiversity":12354,"Ġembracing":12355,"Ġsplendor":12356,"please":12357,"Ġtoro":12358,"Ġtorpor":12359,"Ġtormented":12360,"represents":12361,"Ġcameo":12362,"Ġcameos":12363,"Ġhayek":12364,"Ġanalytical":12365,"Ġsuspected":12366,"americans":12367,"until":12368,"Ġdeceptions":12369,"Ġvampires":12370,"Ġremembers":12371,"Ġremaining":12372,"Ġ110":12373,"Ġcruelly":12374,"Ġtremors":12375,"Ġmotivation":12376,"Ġnostalgic":12377,"basement":12378,"Ġmentality":12379,"Ġbedroom":12380,"Ġcategor":12381,"originality":12382,"Ġpileup":12383,"Ġlosers":12384,"Ġgrownups":12385,"Ġcomplain":12386,"Ġchicken":12387,"Ġunwieldy":12388,"Ġsolely":12389,"Ġrecycles":12390,"Ġbackgrounds":12391,"Ġexplosive":12392,"Ġcrackle":12393,"Ġ1980":12394,"Ġ1982":12395,"Ġ1984":12396,"Ġpaintings":12397,"Ġconditioning":12398,"Ġknockaround":12399,"barney":12400,"dogtown":12401,"friday":12402,"friends":12403,"fests":12404,"Ġmasses":12405,"Ġmassive":12406,"Ġbounces":12407,"Ġbartlett":12408,"Ġbaffled":12409,"Ġwiseman":12410,"Ġwondered":12411,"Ġwondrous":12412,"Ġthreatens":12413,"Ġhanging":12414,"Ġlilia":12415,"Ġlucy":12416,"Ġluckiest":12417,"Ġelli":12418,"Ġjulia":12419,"Ġhawaiian":12420,"Ġruined":12421,"Ġmythology":12422,"Ġminimum":12423,"Ġobscured":12424,"Ġappropriately":12425,"Ġdistracting":12426,"Ġdistracted":12427,"Ġdistinguishes":12428,"Ġresponsibility":12429,"Ġinfluences":12430,"Ġinfluenced":12431,"called":12432,"Ġtemptation":12433,"Ġavailable":12434,"Ġfacial":12435,"Ġmounted":12436,"Ġmountain":12437,"Ġboobs":12438,"Ġcuisine":12439,"Ġanthrop":12440,"Ġensn":12441,"Ġensures":12442,"Ġscattershot":12443,"Ġpressure":12444,"Ġimmediacy":12445,"Ġclothing":12446,"Ġblowing":12447,"Ġresistance":12448,"Ġafrica":12449,"Ġreligion":12450,"Ġsatiric":12451,"Ġbrooms":12452,"Ġhandsomely":12453,"Ġportrayed":12454,"Ġportrayals":12455,"Ġwitnessed":12456,"Ġassassination":12457,"Ġjournalist":12458,"Ġinevitably":12459,"Ġdetermine":12460,"Ġsacrificing":12461,"Ġdickensian":12462,"hashiguch":12463,"slap":12464,"witless":12465,"Ġtendency":12466,"Ġtucker":12467,"Ġolivier":12468,"Ġeconomic":12469,"Ġgosford":12470,"Ġratliff":12471,"Ġleonard":12472,"Ġupdate":12473,"Ġupdated":12474,"Ġartifact":12475,"Ġcrimen":12476,"Ġawareness":12477,"Ġcleaner":12478,"Ġironies":12479,"Ġcalculating":12480,"Ġsubstitutes":12481,"Ġsymbols":12482,"Ġsophomore":12483,"droppingly":12484,"demme":12485,"frills":12486,"picious":12487,"Ġtonal":12488,"Ġtemper":12489,"Ġsarah":12490,"Ġodor":12491,"Ġcathartic":12492,"Ġcorners":12493,"Ġpython":12494,"Ġpadre":12495,"Ġpadding":12496,"Ġpadded":12497,"stephen":12498,"Ġsuitably":12499,"Ġscrewed":12500,"Ġconsequence":12501,"Ġkillers":12502,"Ġsociology":12503,"Ġdramatization":12504,"Ġcocky":12505,"Ġcockettes":12506,"Ġdepicts":12507,"Ġbordering":12508,"Ġconvincingly":12509,"Ġcontemplation":12510,"Ġexistentialism":12511,"Ġcontradiction":12512,"Ġinhabitants":12513,"Ġfundamental":12514,"aaaa":12515,"beneath":12516,"brosnan":12517,"busting":12518,"finally":12519,"Ġtattered":12520,"Ġauteur":12521,"Ġsneaks":12522,"Ġseldom":12523,"Ġfingers":12524,"Ġbombastic":12525,"Ġwounds":12526,"Ġtolerate":12527,"Ġtolerable":12528,"Ġtolerance":12529,"Ġlunatic":12530,"robin":12531,"Ġanchor":12532,"Ġsuddenly":12533,"Ġjanuary":12534,"Ġjacques":12535,"Ġseparation":12536,"Ġexuberant":12537,"Ġshrugging":12538,"Ġunbelievably":12539,"Ġconjured":12540,"Ġconcoct":12541,"Ġprevails":12542,"Ġvastly":12543,"Ġperpetual":12544,"Ġperpetrated":12545,"Ġqueasy":12546,"Ġsubplot":12547,"Ġcontroversial":12548,"awareness":12549,"confessions":12550,"Ġapplies":12551,"Ġguarantee":12552,"Ġexperimentation":12553,"Ġdeliberately":12554,"Ġparanoid":12555,"Ġbridget":12556,"Ġerrors":12557,"Ġiconoclastic":12558,"Ġgimmicky":12559,"Ġenvironmental":12560,"Ġphenomenon":12561,"Ġspontaneous":12562,"fallon":12563,"godard":12564,"passer":12565,"saic":12566,"tarantino":12567,"Ġtangled":12568,"Ġtreading":12569,"Ġapted":12570,"Ġskewed":12571,"refere":12572,"Ġbothered":12573,"Ġcyber":12574,"Ġdollar":12575,"Ġinsecurity":12576,"Ġgleefully":12577,"Ġgleaned":12578,"Ġgiggle":12579,"Ġreliable":12580,"Ġreliance":12581,"Ġchoreography":12582,"Ġseptember":12583,"Ġenhance":12584,"Ġenhances":12585,"Ġkosminsky":12586,"Ġkenneth":12587,"Ġorganic":12588,"Ġfleshed":12589,"Ġundercuts":12590,"Ġparticipants":12591,"Ġdefeated":12592,"Ġdefeats":12593,"Ġbarrels":12594,"Ġcondescension":12595,"Ġcollaborators":12596,"Ġdestructive":12597,"Ġyawning":12598,"Ġheartbreakingly":12599,"Ġschmaltz":12600,"Ġmichelle":12601,"absorbed":12602,"absorption":12603,"murderous":12604,"Ġhitchcockian":12605,"buy":12606,"drawn":12607,"destr":12608,"mattei":12609,"ozpetek":12610,"wallace":12611,"Ġfiend":12612,"Ġfuriously":12613,"Ġcarnage":12614,"Ġnicest":12615,"Ġnutty":12616,"Ġgallo":12617,"Ġsterling":12618,"Ġchapter":12619,"Ġabbass":12620,"Ġabundant":12621,"Ġdoorstep":12622,"Ġconcentrates":12623,"Ġkathy":12624,"Ġrumination":12625,"Ġvicious":12626,"Ġsprink":12627,"Ġimplicit":12628,"Ġimplications":12629,"Ġoverstuffed":12630,"Ġnewcomers":12631,"Ġtravails":12632,"Ġtravesty":12633,"Ġresources":12634,"Ġrecreates":12635,"Ġindicates":12636,"Ġindulgence":12637,"Ġoppressively":12638,"Ġneglected":12639,"Ġarchitecture":12640,"Ġprincipals":12641,"bogdanovich":12642,"creep":12643,"oepp":12644,"simpl":12645,"turner":12646,"Ġtablo":12647,"Ġtissue":12648,"Ġtissues":12649,"Ġfondness":12650,"Ġbankrupt":12651,"Ġdowntown":12652,"Ġhippie":12653,"Ġtoothless":12654,"Ġmolly":12655,"Ġstifling":12656,"Ġstalker":12657,"Ġrenner":12658,"changing":12659,"Ġanarchic":12660,"Ġbuttons":12661,"Ġchaiken":12662,"Ġliza":12663,"Ġlizard":12664,"Ġknee":12665,"Ġknees":12666,"Ġplatitudes":12667,"Ġvacuum":12668,"Ġvulnerable":12669,"Ġvulnerability":12670,"Ġoutsiders":12671,"Ġmanifesto":12672,"Ġarthouse":12673,"Ġadrenaline":12674,"Ġentranced":12675,"Ġblurry":12676,"Ġovertly":12677,"Ġracist":12678,"Ġracism":12679,"Ġraymond":12680,"Ġimpulse":12681,"Ġimpulses":12682,"Ġcharacteristically":12683,"Ġwarrior":12684,"Ġwarriors":12685,"Ġinsufferable":12686,"Ġincarnation":12687,"Ġindifferent":12688,"Ġindifference":12689,"Ġmonumental":12690,"Ġunfolding":12691,"Ġnormally":12692,"Ġantonia":12693,"Ġopposite":12694,"Ġunexplored":12695,"Ġlimitations":12696,"Ġdisturbingly":12697,"Ġcandidate":12698,"Ġallegedly":12699,"Ġhealthy":12700,"Ġunrelenting":12701,"Ġunrelentingly":12702,"Ġaccompanying":12703,"Ġtumultuous":12704,"credit":12705,"captures":12706,"pressible":12707,"windtalkers":12708,"Ġigby":12709,"Ġtactics":12710,"Ġayurved":12711,"Ġauschwit":12712,"Ġaplomb":12713,"Ġastron":12714,"Ġaustralia":12715,"Ġalexandre":12716,"rehears":12717,"Ġfifteen":12718,"Ġcrippled":12719,"Ġcrammed":12720,"Ġwallowing":12721,"Ġpompous":12722,"aliyah":12723,"Ġhubert":12724,"Ġinquisitive":12725,"Ġlurking":12726,"Ġninety":12727,"Ġeisenstein":12728,"Ġgamble":12729,"Ġjudgment":12730,"Ġjoseph":12731,"Ġintolerable":12732,"Ġscandal":12733,"Ġconscience":12734,"Ġruthless":12735,"Ġlethar":12736,"Ġpredicament":12737,"Ġsporadically":12738,"Ġamaro":12739,"Ġlobby":12740,"Ġarmenian":12741,"Ġivans":12742,"Ġadvertised":12743,"combines":12744,"Ġcomprehension":12745,"Ġcannibal":12746,"Ġoverlooked":12747,"Ġslippery":12748,"Ġriffs":12749,"Ġnewfangled":12750,"Ġcontenders":12751,"Ġcoincidence":12752,"exciting":12753,"Ġextremes":12754,"Ġbubbles":12755,"Ġmargarita":12756,"Ġswashbuckling":12757,"Ġbravura":12758,"Ġparallels":12759,"Ġsummertime":12760,"Ġdrunken":12761,"Ġcapitalize":12762,"Ġautomatically":12763,"Ġvirtuosity":12764,"Ġhomosexuality":12765,"Ġpuppet":12766,"Ġpanoramic":12767,"Ġhallucinatory":12768,"secretary":12769,"Ġfabulous":12770,"Ġconspicuous":12771,"Ġnarcissism":12772,"Ġwidowmaker":12773,"Ġdiscernible":12774,"Ġsabotaged":12775,"congratulatory":12776,"Ġdisintegrating":12777,"bodied":12778,"camera":12779,"lawrence":12780,"mouthed":12781,"muller":12782,"soderbergh":12783,"takers":12784,"Ġtavernier":12785,"Ġtinseltown":12786,"Ġsaucy":12787,"Ġozpetek":12788,"Ġovere":12789,"Ġcuban":12790,"Ġpryor":12791,"Ġprism":12792,"Ġpiercing":12793,"Ġdarling":12794,"Ġdizzying":12795,"Ġhorses":12796,"Ġtolkien":12797,"Ġinadvertently":12798,"Ġlolita":12799,"Ġlonely":12800,"Ġelder":12801,"Ġeastern":12802,"Ġgadgets":12803,"Ġgantz":12804,"Ġstallone":12805,"Ġresearch":12806,"several":12807,"Ġaltman":12808,"agenarian":12809,"Ġenveloping":12810,"Ġexterior":12811,"Ġuncovers":12812,"Ġunmistakable":12813,"Ġunrealized":12814,"Ġunknowable":12815,"Ġschemes":12816,"Ġkingsley":12817,"Ġkitsch":12818,"Ġrhetoric":12819,"Ġpreceded":12820,"Ġprejudice":12821,"Ġspiked":12822,"Ġperilously":12823,"Ġarbitrary":12824,"Ġadroitly":12825,"Ġraucous":12826,"Ġagitprop":12827,"Ġcrushingly":12828,"Ġholofcener":12829,"Ġawakening":12830,"Ġdepraved":12831,"Ġpronounce":12832,"Ġhistorically":12833,"Ġhistrionics":12834,"Ġcaricatures":12835,"Ġmonstrous":12836,"Ġanimatronic":12837,"Ġswaggering":12838,"Ġzombie":12839,"Ġepiphany":12840,"Ġstrands":12841,"Ġunderestimated":12842,"Ġpsychopathic":12843,"Ġmisogynistic":12844,"Ġgriffiths":12845,"Ġanticipated":12846,"Ġsuffocating":12847,"Ġinfinitely":12848,"Ġcorruption":12849,"Ġinstitution":12850,"Ġsymmetry":12851,"Ġgrandiosity":12852,"Ġimprovisation":12853,"Ġfulfill":12854,"Ġphotographs":12855,"Ġlaudable":12856,"Ġturntabl":12857,"Ġinexperienced":12858,"Ġmasochism":12859,"Ġrecognizable":12860,"Ġcrossover":12861,"Ġrelevance":12862,"Ġlukewarm":12863,"Ġvoyeuristic":12864,"Ġhypocrisy":12865,"blessed":12866,"catholic":12867,"curdling":12868,"euvers":12869,"eventually":12870,"fetched":12871,"frame":12872,"footed":12873,"hoffman":12874,"moore":12875,"nadillo":12876,"praised":12877,"sacrif":12878,"Ġichi":12879,"Ġxtc":12880,"Ġausterity":12881,"Ġavalanc":12882,"Ġsledgeham":12883,"Ġoodles":12884,"enigma":12885,"enormously":12886,"Ġbanderas":12887,"Ġbicycle":12888,"Ġcunning":12889,"Ġcustom":12890,"Ġcumbersome":12891,"Ġwesley":12892,"Ġwertmuller":12893,"onaughey":12894,"Ġpellington":12895,"Ġduration":12896,"Ġdilemma":12897,"Ġdiaries":12898,"Ġdoofus":12899,"Ġdaughters":12900,"alysis":12901,"Ġhindsight":12902,"Ġhodgepodge":12903,"Ġtootsie":12904,"Ġinimitable":12905,"Ġinquiry":12906,"Ġinarticulate":12907,"Ġinadequ":12908,"Ġinappropriate":12909,"Ġnudity":12910,"Ġethereal":12911,"Ġgiann":12912,"Ġgilliam":12913,"Ġgarcia":12914,"Ġgaudy":12915,"Ġreginald":12916,"adaptation":12917,"Ġforgiveness":12918,"Ġchocolate":12919,"threatening":12920,"thoroughly":12921,"Ġjacobson":12922,"Ġjanklowicz":12923,"Ġjettis":12924,"Ġjelinek":12925,"aglia":12926,"Ġencompass":12927,"Ġdelectable":12928,"Ġunendurable":12929,"Ġunimpressive":12930,"Ġunrepent":12931,"Ġunsympathetic":12932,"Ġkooky":12933,"Ġkinky":12934,"Ġkubrick":12935,"Ġsopranos":12936,"Ġrueful":12937,"indulgence":12938,"terrific":12939,"Ġvaudeville":12940,"Ġperfunctory":12941,"Ġordeal":12942,"Ġclaptrap":12943,"Ġclouds":12944,"Ġoutweigh":12945,"Ġoutbursts":12946,"manipulative":12947,"ĠamÃ©lie":12948,"Ġwebsite":12949,"acoyannis":12950,"Ġwhatsoever":12951,"Ġmegaplex":12952,"Ġsubstandard":12953,"Ġimpossibly":12954,"Ġotherworldly":12955,"Ġpeploe":12956,"Ġresolutions":12957,"Ġcollinwood":12958,"Ġbelgium":12959,"executed":12960,"Ġrepugn":12961,"Ġsweetheart":12962,"Ġespionage":12963,"Ġelegiac":12964,"Ġundistinguished":12965,"Ġpotboiler":12966,"Ġredgrave":12967,"Ġcamaraderie":12968,"Ġcalifornia":12969,"Ġnonjudgment":12970,"Ġtestimonial":12971,"Ġwednesday":12972,"Ġingratiating":12973,"Ġjuwanna":12974,"Ġturbulent":12975,"Ġprivileged":12976,"Ġnegligible":12977,"supposedly":12978,"Ġgeriatric":12979,"hashiguchi":12980,"Ġayurveda":12981,"Ġauschwitz":12982,"12":12983,"15":12984,"20":12985,"25":12986,"aqu":12987,"aults":12988,"aunt":12989,"bin":12990,"bou":12991,"bic":12992,"bow":12993,"bill":12994,"bally":12995,"bitt":12996,"bick":12997,"breat":12998,"bably":12999,"bits":13000,"bian":13001,"biting":13002,"bitten":13003,"bags":13004,"burd":13005,"bender":13006,"brown":13007,"bright":13008,"bury":13009,"burns":13010,"bacher":13011,"bending":13012,"benn":13013,"birth":13014,"billed":13015,"buddy":13016,"binoche":13017,"cen":13018,"cri":13019,"cand":13020,"cend":13021,"cage":13022,"cents":13023,"case":13024,"cats":13025,"catching":13026,"cuit":13027,"calling":13028,"coppola":13029,"cantet":13030,"cipherable":13031,"cattaneo":13032,"cacoyannis":13033,"dv":13034,"dre":13035,"dou":13036,"dar":13037,"det":13038,"dol":13039,"dad":13040,"dain":13041,"dong":13042,"dance":13043,"dingly":13044,"doc":13045,"div":13046,"duck":13047,"daring":13048,"dorm":13049,"dancing":13050,"deter":13051,"eg":13052,"eed":13053,"east":13054,"eved":13055,"einated":13056,"epless":13057,"eousness":13058,"easily":13059,"fk":13060,"fal":13061,"fif":13062,"fur":13063,"fant":13064,"fres":13065,"fine":13066,"fren":13067,"fting":13068,"fying":13069,"fresh":13070,"fkin":13071,"frey":13072,"fontaine":13073,"gm":13074,"gic":13075,"gers":13076,"gag":13077,"give":13078,"gos":13079,"gram":13080,"gical":13081,"gated":13082,"gling":13083,"gles":13084,"gates":13085,"gently":13086,"gio":13087,"gantly":13088,"gorge":13089,"grown":13090,"gaghan":13091,"gazing":13092,"garde":13093,"hay":13094,"had":13095,"hist":13096,"hate":13097,"hind":13098,"hits":13099,"haw":13100,"hib":13101,"holl":13102,"hitting":13103,"hips":13104,"hmm":13105,"houri":13106,"iu":13107,"iarly":13108,"iÃ©":13109,"jon":13110,"jar":13111,"jag":13112,"jour":13113,"japan":13114,"jagger":13115,"jeff":13116,"kat":13117,"kur":13118,"kies":13119,"kah":13120,"kung":13121,"kicks":13122,"killing":13123,"khar":13124,"kwan":13125,"lis":13126,"lou":13127,"loo":13128,"last":13129,"late":13130,"lap":13131,"lind":13132,"lies":13133,"lical":13134,"lative":13135,"liss":13136,"laced":13137,"loose":13138,"lathan":13139,"liter":13140,"lacking":13141,"mc":13142,"mu":13143,"mut":13144,"mag":13145,"must":13146,"mere":13147,"mong":13148,"mine":13149,"mac":13150,"mother":13151,"mination":13152,"moon":13153,"mouse":13154,"mÃ£":13155,"miche":13156,"magg":13157,"mike":13158,"metic":13159,"maint":13160,"nis":13161,"nen":13162,"non":13163,"nom":13164,"nation":13165,"nity":13166,"nie":13167,"name":13168,"narr":13169,"national":13170,"nasty":13171,"ncing":13172,"nichol":13173,"norton":13174,"nelson":13175,"nik":13176,"nettelbeck":13177,"nolan":13178,"nitzler":13179,"nui":13180,"oit":13181,"oen":13182,"oct":13183,"oast":13184,"ores":13185,"overs":13186,"oque":13187,"oedekerk":13188,"phe":13189,"pes":13190,"pil":13191,"pap":13192,"pard":13193,"pres":13194,"port":13195,"pull":13196,"pia":13197,"porn":13198,"paste":13199,"purp":13200,"person":13201,"pressed":13202,"prep":13203,"paid":13204,"pray":13205,"pilot":13206,"psych":13207,"qi":13208,"qoy":13209,"rint":13210,"rash":13211,"range":13212,"rub":13213,"riment":13214,"rously":13215,"rÃ©":13216,"rational":13217,"ruly":13218,"sun":13219,"sill":13220,"sur":13221,"sust":13222,"sour":13223,"sue":13224,"sade":13225,"same":13226,"sav":13227,"sub":13228,"suck":13229,"sque":13230,"sitting":13231,"saken":13232,"sinks":13233,"silly":13234,"skins":13235,"soul":13236,"skill":13237,"summer":13238,"snotes":13239,"tat":13240,"tou":13241,"tul":13242,"tag":13243,"ties":13244,"tep":13245,"tish":13246,"tte":13247,"tub":13248,"tends":13249,"taste":13250,"tric":13251,"tied":13252,"turns":13253,"teld":13254,"trying":13255,"tinted":13256,"uj":13257,"uan":13258,"uent":13259,"upt":13260,"uph":13261,"ugu":13262,"uyi":13263,"uagenarian":13264,"var":13265,"vas":13266,"vich":13267,"vise":13268,"vamp":13269,"vaged":13270,"wil":13271,"woo":13272,"wire":13273,"were":13274,"wny":13275,"wide":13276,"watch":13277,"wife":13278,"wink":13279,"wash":13280,"wier":13281,"winds":13282,"warned":13283,"woman":13284,"xon":13285,"xposed":13286,"yas":13287,"yak":13288,"ype":13289,"yingly":13290,"yss":13291,"zer":13292,"zor":13293,"zan":13294,"zil":13295,"zag":13296,"zant":13297,"zman":13298,"zac":13299,"zhang":13300,"zbick":13301,"Â¦":13302,"Ġire":13303,"Ġick":13304,"Ġ00":13305,"Ġvenge":13306,"Ġilk":13307,"Ġting":13308,"Ġtut":13309,"Ġtad":13310,"Ġtill":13311,"Ġtag":13312,"Ġtak":13313,"Ġtark":13314,"Ġtian":13315,"Ġtree":13316,"Ġtup":13317,"Ġtics":13318,"Ġtier":13319,"Ġtank":13320,"Ġturd":13321,"Ġturp":13322,"Ġtai":13323,"Ġtanks":13324,"Ġtiring":13325,"Ġtenth":13326,"Ġax":13327,"Ġais":13328,"Ġara":13329,"Ġaver":13330,"Ġace":13331,"Ġaching":13332,"Ġaura":13333,"Ġaaliyah":13334,"inv":13335,"inth":13336,"inity":13337,"infor":13338,"inces":13339,"inating":13340,"inantly":13341,"instein":13342,"inquent":13343,"invol":13344,"inspiring":13345,"heit":13346,"heor":13347,"heres":13348,"Ġsel":13349,"Ġsire":13350,"Ġsap":13351,"Ġsack":13352,"Ġsult":13353,"Ġsang":13354,"Ġsapp":13355,"Ġsarc":13356,"Ġsending":13357,"rees":13358,"revi":13359,"reet":13360,"reass":13361,"releas":13362,"rete":13363,"reced":13364,"requently":13365,"reput":13366,"reyes":13367,"remarkable":13368,"reinfor":13369,"Ġom":13370,"Ġost":13371,"Ġoun":13372,"Ġoily":13373,"Ġomin":13374,"Ġoops":13375,"eringly":13376,"erily":13377,"erner":13378,"erotic":13379,"erring":13380,"erior":13381,"erbic":13382,"itis":13383,"itage":13384,"itism":13385,"itially":13386,"itionally":13387,"itching":13388,"itchy":13389,"itability":13390,"iteness":13391,"itimate":13392,"Ġtherape":13393,"Ġfen":13394,"Ġfel":13395,"Ġfas":13396,"Ġfus":13397,"Ġfand":13398,"Ġfud":13399,"Ġfog":13400,"Ġfang":13401,"Ġfled":13402,"Ġfitting":13403,"Ġfuse":13404,"Ġfrown":13405,"Ġfury":13406,"Ġflex":13407,"Ġfaint":13408,"Ġfumbles":13409,"Ġfidelity":13410,"Ġfooled":13411,"Ġfaux":13412,"isp":13413,"isation":13414,"isure":13415,"isical":13416,"isode":13417,"iscover":13418,"enh":13419,"ench":13420,"enant":13421,"enact":13422,"enger":13423,"enberg":13424,"enuous":13425,"energy":13426,"Ġmut":13427,"Ġmul":13428,"Ġmir":13429,"Ġmire":13430,"Ġmast":13431,"Ġmate":13432,"Ġmand":13433,"Ġmall":13434,"Ġmear":13435,"Ġmason":13436,"ĠmÃ©":13437,"Ġmouse":13438,"Ġmacy":13439,"Ġmunch":13440,"Ġmirth":13441,"Ġmama":13442,"Ġmorton":13443,"Ġmaze":13444,"Ġmasculine":13445,"Ġmgm":13446,"ati":13447,"atom":13448,"atical":13449,"athed":13450,"atement":13451,"ateness":13452,"ativeness":13453,"Ġbat":13454,"Ġbum":13455,"Ġbrom":13456,"Ġbud":13457,"Ġbind":13458,"Ġbick":13459,"Ġbile":13460,"Ġbens":13461,"Ġbish":13462,"Ġbatch":13463,"Ġbaw":13464,"Ġbrow":13465,"Ġbars":13466,"Ġbaz":13467,"Ġbates":13468,"Ġbarn":13469,"Ġboll":13470,"Ġbows":13471,"Ġbush":13472,"Ġbags":13473,"Ġbien":13474,"Ġbung":13475,"Ġbands":13476,"Ġbudd":13477,"Ġbirth":13478,"Ġbinks":13479,"Ġbumps":13480,"Ġbille":13481,"Ġbryan":13482,"Ġbrett":13483,"Ġbisset":13484,"Ġced":13485,"Ġcab":13486,"Ġcag":13487,"Ġcure":13488,"Ġcos":13489,"Ġcake":13490,"Ġcres":13491,"Ġcine":13492,"Ġcary":13493,"Ġcower":13494,"Ġcows":13495,"Ġcott":13496,"Ġcrossing":13497,"Ġcudd":13498,"Ġcreek":13499,"Ġcodes":13500,"Ġcatherine":13501,"Ġwen":13502,"Ġwing":13503,"Ġwan":13504,"Ġwally":13505,"Ġwire":13506,"Ġwate":13507,"Ġwand":13508,"Ġwitt":13509,"Ġwine":13510,"Ġwary":13511,"Ġwint":13512,"Ġwade":13513,"Ġwink":13514,"Ġwiel":13515,"Ġwives":13516,"Ġwanders":13517,"Ġwerner":13518,"inges":13519,"ingent":13520,"ingenuous":13521,"esy":13522,"esky":13523,"especially":13524,"nday":13525,"oral":13526,"orse":13527,"oration":13528,"orality":13529,"onial":13530,"onium":13531,"ouvel":13532,"oulish":13533,"oundering":13534,"Ġpom":13535,"Ġpab":13536,"Ġpies":13537,"Ġpour":13538,"Ġpiz":13539,"Ġpint":13540,"Ġpiv":13541,"Ġpiss":13542,"Ġparr":13543,"Ġpics":13544,"Ġpaste":13545,"Ġpug":13546,"Ġpump":13547,"Ġpender":13548,"Ġposes":13549,"Ġpork":13550,"Ġpacks":13551,"Ġpix":13552,"Ġpenn":13553,"Ġpbs":13554,"Ġpipe":13555,"Ġpinn":13556,"Ġpesky":13557,"Ġoft":13558,"anie":13559,"anky":13560,"anities":13561,"anze":13562,"anley":13563,"analy":13564,"anemic":13565,"animated":13566,"Ġding":13567,"Ġdor":13568,"Ġdic":13569,"Ġdent":13570,"Ġdab":13571,"Ġdough":13572,"Ġdour":13573,"Ġdiz":13574,"Ġdating":13575,"Ġdice":13576,"Ġdip":13577,"Ġdense":13578,"Ġdits":13579,"Ġdrow":13580,"Ġduck":13581,"Ġdera":13582,"Ġdank":13583,"Ġdump":13584,"Ġdances":13585,"Ġdrid":13586,"Ġdorm":13587,"Ġdared":13588,"Ġdumber":13589,"Ġdashing":13590,"Ġdonna":13591,"Ġdips":13592,"Ġdumm":13593,"Ġdresses":13594,"Ġdrenched":13595,"Ġditched":13596,"Ġdulled":13597,"Ġdazed":13598,"arm":13599,"aroo":13600,"arper":13601,"arches":13602,"arÃ£":13603,"armen":13604,"arians":13605,"arios":13606,"arguably":13607,"alin":13608,"ales":13609,"alant":13610,"alled":13611,"alty":13612,"alizing":13613,"alma":13614,"almed":13615,"aliation":13616,"alds":13617,"altering":13618,"aluate":13619,"Ġthro":13620,"Ġthus":13621,"Ġthud":13622,"Ġthresh":13623,"Ġthump":13624,"Ġthunder":13625,"Ġthroat":13626,"Ġhind":13627,"Ġhos":13628,"Ġhated":13629,"Ġhush":13630,"Ġhunk":13631,"Ġhills":13632,"Ġhousing":13633,"Ġhij":13634,"Ġhalle":13635,"lee":13636,"leg":13637,"lead":13638,"leading":13639,"icated":13640,"icule":13641,"iciency":13642,"Ġtoe":13643,"Ġtok":13644,"Ġtoy":13645,"Ġtome":13646,"Ġtops":13647,"Ġtopless":13648,"Ġinstr":13649,"Ġinjust":13650,"Ġinuit":13651,"Ġinhuman":13652,"Ġinformed":13653,"Ġinelegant":13654,"Ġinauthentic":13655,"eding":13656,"edge":13657,"edict":13658,"educ":13659,"edded":13660,"ilit":13661,"ilay":13662,"ilogue":13663,"Ġlin":13664,"Ġlis":13665,"Ġlac":13666,"Ġlite":13667,"Ġlint":13668,"Ġlays":13669,"Ġlars":13670,"Ġlists":13671,"Ġlured":13672,"Ġlament":13673,"Ġlumber":13674,"Ġlola":13675,"Ġlumin":13676,"Ġlinking":13677,"Ġlathan":13678,"Ġloos":13679,"Ġlusc":13680,"Ġlillard":13681,"omination":13682,"omps":13683,"Ġnim":13684,"Ġnour":13685,"Ġnav":13686,"Ġnaz":13687,"Ġnoses":13688,"ĠnÃ£":13689,"Ġnancy":13690,"Ġnavi":13691,"Ġnyc":13692,"Ġnathan":13693,"Ġnolan":13694,"Ġnagging":13695,"Ġnakata":13696,"Ġnouvel":13697,"Ġnalin":13698,"sty":13699,"stic":13700,"stir":13701,"stable":13702,"stone":13703,"stud":13704,"store":13705,"stress":13706,"stup":13707,"stantly":13708,"sticks":13709,"Ġitch":13710,"Ġeag":13711,"Ġeile":13712,"Ġeigh":13713,"Ġegg":13714,"Ġeats":13715,"Ġegy":13716,"Ġebull":13717,"Ġeuph":13718,"Ġeerily":13719,"Ġged":13720,"Ġgil":13721,"Ġgab":13722,"Ġgum":13723,"Ġgur":13724,"Ġgain":13725,"Ġgust":13726,"Ġgap":13727,"Ġgog":13728,"Ġgau":13729,"Ġgrit":13730,"Ġgoss":13731,"Ġgarn":13732,"Ġgains":13733,"Ġgored":13734,
[...]
