#version: 0.2
Ġ t
Ġ a
i n
h e
Ġ s
r e
Ġ .
Ġ o
e r
i t
Ġt he
Ġ ,
Ġ f
i s
e n
Ġ m
a t
Ġ b
Ġ c
Ġ w
in g
e s
n d
o r
o n
o u
Ġ p
Ġo f
a n
Ġ d
a r
Ġa nd
a l
Ġt h
l y
Ġ h
l e
i c
Ġt o
Ġ '
Ġ in
e d
i l
Ġ l
o m
Ġ n
s t
Ġ it
Ġ e
Ġ g
Ġ is
u t
c t
e l
Ġm o
en t
i on
a s
o t
v e
Ġth at
Ġs t
i m
Ġb e
v i
Ġ re
r a
Ġ u
g h
t he
v er
r o
u l
c h
c e
Ġf il
Ġo n
Ġa n
e t
Ġfil m
Ġ y
Ġa s
it h
r i
k e
o l
a y
o w
a d
Ġf or
Ġw ith
vi e
s e
es s
Ġb ut
Ġw h
o o
Ġy ou
Ġs u
i r
Ġc om
i d
i f
Ġit s
Ġc h
Ġmo vie
t h
a m
Ġa l
er s
Ġ he
a b
u n
il l
Ġ j
a g
u m
Ġs e
c k
gh t
ou s
. .
e m
Ġ en
u r
Ġin t
Ġth is
Ġl i
Ġe x
a k
ou t
l d
is t
Ġs h
q u
r om
Ġa b
Ġn ot
Ġh a
at ion
Ġd o
an t
Ġd e
al ly
i ve
es t
' t
Ġu n
i re
u re
Ġn e
Ġs c
Ġc on
a in
a st
ar t
p e
Ġ -
el l
Ġa t
Ġw or
Ġ k
at e
it y
Ġs o
a ct
ou gh
i g
Ġb y
or y
u s
u st
a p
ab le
f or
oo d
Ġa re
Ġch ar
a nd
Ġp ro
Ġ r
Ġ- -
Ġab out
Ġmo re
Ġth an
Ġh as
Ġal l
Ġli ke
Ġs om
o p
Ġp l
ou ld
f ul
Ġa ct
Ġon e
i ght
Ġf rom
on e
Ġf e
u d
in d
v en
Ġha ve
e re
t er
he r
ver y
Ġ le
Ġh is
Ġp re
g e
o s
f f
Ġ v
Ġ. ..
al l
Ġwh o
Ġs p
ar d
Ġp er
Ġo r
a ck
p t
i al
Ġ im
Ġc l
Ġst ory
on g
e ct
it t
i e
p l
h ing
Ġ `
ire ct
p p
Ġchar act
Ġo ut
im e
a ke
re s
en d
en ce
b le
m an
Ġf un
Ġ )
Ġm an
i ous
Ġa m
c es
Ġ qu
or t
Ġt r
Ġl o
ic k
i es
in e
d e
ic t
Ġn o
ra m
er t
a re
Ġu p
v es
re at
the r
Ġa r
oo k
Ġw e
a c
o g
Ġ i
Ġf l
Ġto o
p er
ic h
Ġmo st
ed y
a u
Ġint o
ou r
ar y
Ġj ust
Ġth r
Ġw ill
Ġa d
Ġg ood
Ġd irect
it e
o d
Ġsom e
o re
c om
Ġan y
w e
Ġm u
Ġcom p
i le
Ġdo es
Ġc an
ic al
as s
Ġp o
ag e
n t
o y
m ent
Ġ ent
Ġ ro
Ġwor k
ak es
Ġu s
Ġb l
e p
Ġw he
Ġo ver
Ġcom edy
Ġmu ch
ul t
n y
el f
is e
i z
Ġt ime
u e
Ġper for
Ġe m
th is
Ġd is
r y
nd er
at ing
Ġof f
e ar
ou nd
Ġw ay
ar k
en s
Ġwh at
Ġh um
Ġbe t
w h
Ġ (
Ġ if
Ġ' '
in t
ert ain
Ġcharact ers
Ġfe el
r it
id e
Ġperfor man
Ġe ven
Ġs l
is h
at ed
at ch
Ġw ell
l ess
v ing
ic e
i p
Ġ ra
itt le
re en
Ġg et
w n
Ġm e
n ess
an ce
Ġf a
Ġl ittle
ul l
Ġon ly
ad e
Ġsu b
Ġ ri
if e
c c
en se
u al
n e
Ġt w
Ġl ook
Ġthe ir
ing ly
o se
s p
Ġg o
o c
Ġyou r
o st
Ġm ake
Ġe very
Ġfun ny
Ġim p
Ġthe m
at ive
ing s
v el
Ġt al
Ġre al
ow n
Ġ vi
at ic
Ġg en
i ence
Ġbe en
Ġen d
pe ct
Ġm ay
ion s
Ġsom et
Ġ` `
Ġd ram
Ġthe re
an s
Ġlo ve
Ġen ough
i ly
Ġne ver
ent s
.. .
Ġb ad
am e
Ġsu r
res s
il d
Ġ very
Ġb r
Ġw as
l l
Ġthe y
ol d
an g
le d
Ġt e
Ġd es
Ġd el
p h
Ġdirect or
Ġse em
ak ing
Ġre m
b er
Ġm akes
o nd
Ġw ould
Ġl ife
he d
Ġs m
Ġb est
Ġwh ich
Ġs er
s o
Ġsc reen
s h
Ġo ther
Ġst r
ver s
Ġse e
Ġne w
re n
t y
Ġhe r
t ing
Ġm at
Ġent ertain
Ġthr ough
Ġcon t
ay s
Ġp e
Ġh ow
b ut
r is
Ġ ?
l i
Ġa g
ab ly
ate ly
l ing
Ġt ra
a ch
ig n
Ġ 1
Ġpl ot
v ed
in k
or s
Ġwhe n
re d
Ġc ould
Ġw atch
vi es
ere st
g in
Ġ :
Ġa ud
Ġu nder
Ġl ong
ion al
Ġp art
Ġ rom
Ġf am
ot her
the re
at h
Ġmo vies
Ġy ear
im es
Ġhe art
ur n
Ġar t
er ic
u ally
Ġm y
Ġj o
Ġb ig
j ect
l es
Ġre s
in em
Ġint erest
is m
Ġm in
le as
as h
Ġsh ould
v ent
i ble
ff ect
a ce
s c
Ġc r
Ġsomet hing
Ġg reat
u ct
it s
Ġm ade
ot h
Ġre ally
y ing
Ġo b
Ġc ast
Ġc inem
Ġcharact er
i an
Ġh ol
Ġo wn
ist ic
Ġact ion
i v
he s
im p
Ġsh ow
Ġc he
Ġtw o
Ġthr ill
m er
Ġa w
Ġw ar
vie w
Ġperforman ces
Ġin s
ir st
Ġv is
Ġdram a
n ow
pe c
ell ing
f t
Ġst ill
Ġfilm s
os s
i gh
Ġman y
a w
a ut
Ġ ke
re e
Ġg r
op le
b e
Ġc o
ut e
Ġpe ople
Ġat t
Ġl au
Ġg i
wh at
t e
Ġc le
Ġh ard
Ġsc en
Ġt ri
ri pt
Ġd own
om e
c on
Ġf ar
au se
Ġhum or
at her
ro w
um ent
ation s
g et
Ġf irst
Ġfilm m
Ġem ot
Ġbet ter
um b
Ġdo c
is s
for t
ict ure
Ġt er
Ġp icture
s s
ar ly
Ġg ra
Ġsc ript
d er
u p
Ġc ol
Ġth ose
Ġbe ing
j oy
Ġa f
Ġw o
Ġl ess
Ġm om
Ġk ind
n ing
o ck
Ġa p
Ġm ight
ag es
g g
t en
Ġre l
Ġen joy
Ġf r
m ost
Ġc a
Ġwith out
Ġdoc ument
w ood
Ġo ld
at ure
ow er
Ġwor ld
li ke
Ġaud ience
Ġe ver
Ġre c
ce pt
Ġal so
Ġpre t
Ġam eric
s y
Ġg u
i b
k s
Ġs elf
ou ght
ar s
Ġl ack
th ing
a v
if f
Ġen g
ful ly
we en
Ġsur p
Ġs ense
ut es
Ġwor th
Ġpl ay
Ġ view
Ġb el
Ġb ack
n ot
Ġw ant
vi d
Ġnot hing
Ġchar m
Ġf ind
Ġpo int
Ġlau gh
Ġhe re
Ġk now
a z
Ġa pp
Ġb oth
Ġbet ween
Ġl ot
Ġg l
Ġst y
Ġfe w
Ġperforman ce
Ġs et
Ġth ing
Ġex c
Ġde p
Ġs at
Ġbe c
Ġne ed
Ġk id
Ġan other
Ġsu ch
Ġhum an
gin al
he re
u c
Ġm ess
n er
u ff
Ġ ;
Ġ ide
Ġo ri
Ġp ers
Ġin c
Ġcomp le
e ven
k y
ly wood
ant ic
ne y
Ġm us
at es
Ġp r
al e
Ġbec ause
l t
Ġc are
ap t
Ġmin utes
ou nt
Ġseem s
Ġt urn
Ġof ten
Ġin d
Ġu lt
ro ss
th ough
ar r
ic ally
Ġe l
Ġthrill er
e x
i a
Ġp leas
Ġth ink
Ġh igh
Ġbe aut
if ul
Ġke ep
Ġd ra
Ġdocument ary
Ġori ginal
in ation
Ġs he
Ġf in
Ġe ffect
Ġbe com
Ġex t
Ġtal e
Ġs k
Ġp h
Ġag ain
Ġ ir
t s
Ġqu ite
wh ile
at er
Ġc reat
Ġre p
Ġfor m
Ġult im
Ġs we
Ġf ull
Ġb u
Ġp ower
ar n
st er
ap p
Ġinterest ing
g u
y s
Ġ !
Ġw om
in ess
Ġs in
Ġm ar
Ġw ere
Ġwh ile
Ġhol lywood
f l
m e
n o
Ġa c
Ġd ist
ic s
ol og
Ġal most
Ġex pl
ere d
Ġfeel s
t o
in s
Ġh im
Ġre f
Ġits elf
Ġde c
Ġentertain ing
Ġrom antic
Ġfilmm ak
Ġsurp ris
k ing
Ġs imp
Ġp ol
an c
an e
Ġh or
Ġaf ter
Ġap pe
Ġ es
Ġs pec
Ġse en
ie ce
y ou
Ã £
Ġr ather
d irect
on s
Ġy et
Ġri ght
Ġmom ents
p ite
ast er
Ġfam ily
Ġameric an
\ /
f ore
n g
Ġt ake
Ġf ri
al ity
Ġh o
Ġh ist
Ġe as
vi ous
Ġcon s
rit er
it her
Ġpro d
Ġim ag
c ess
Ġ 2
Ġm em
Ġc ar
Ġc ra
Ġh ad
le ct
st r
Ġe v
Ġthe se
Ġm el
Ġb it
al f
il ity
Ġex per
w ard
er ing
Ġse x
Ġr un
og ue
d ict
i ally
Ġs ol
Ġm or
Ġd iff
ion ally
Ġyou ng
Ġcom es
Ġact ing
Ġwhe re
o f
Ġ ed
Ġs ch
Ġin v
st e
ure s
ell ig
Ġsub ject
Ġpers on
Ġs ame
re ad
Ġo ur
en ces
Ġc ult
an ge
as c
as on
Ġcom e
Ġdel i
f ect
it ion
Ġm i
Ġc re
Ġp ort
Ġp ass
Ġth ought
Ġbe fore
Ġsu per
ir l
Ġd ial
il s
Ġse qu
Ġint ellig
m s
x t
Ġt imes
Ġthe n
Ġm on
Ġh our
as e
Ġst and
Ġact ors
Ġle a
sh ip
Ġmat er
b y
Ġs il
Ġth ings
Ġcl ass
Ġget s
Ġsin ce
a ir
i et
u b
Ġb ro
ic ul
ch ing
am p
Ġha pp
m in
Ġs ay
Ġm ind
Ġan im
ire d
Ġultim ately
Ġdial ogue
Ġmater ial
s elf
u ck
Ġt ou
Ġt akes
Ġs it
re am
or d
Ġd et
Ġst ud
Ġch ild
Ġscen es
direct or
d d
is f
im ent
Ġbeaut iful
u es
w ith
al s
Ġh alf
em pt
Ġfl ick
Ġgen er
Ġ1 9
Ġmus ic
i er
i ar
er g
Ġf asc
Ġd id
ri f
Ġha nd
pl ay
c o
Ġt it
Ġs w
Ġd em
ent ly
ir it
Ġwatch ing
Ġbel ie
at t
Ġw r
ain s
Ġcomp elling
Ġwo nder
Ġport ra
v o
Ġd ark
qu e
ge ther
Ġyear s
Ġswe et
r or
in es
Ġab s
he n
Ġth ough
Ġl ast
Ġemot ional
Ġspec ial
d ay
Ġ z
re t
Ġw it
Ġp ain
Ġh ar
Ġe p
Ġst art
Ġex p
Ġle ast
end s
Ġcinem a
Ġvis ual
Ġfasc in
f fort
k es
Ġp ut
Ġd ull
il ar
Ġe ffort
Ġpre dict
og ra
cc ess
Ġkid s
g er
Ġm ed
Ġe le
Ġint er
us ing
Ġfam il
i el
Ġs ou
Ġb or
el ess
Ġst ar
ra ct
Ġpro ble
Ġcle ver
o ot
t ed
Ġs a
Ġp iece
Ġli ght
Ġde f
Ġde ep
Ġgo ing
Ġentertain ment
i o
in c
er a
it ive
Ġe y
Ġg ive
id er
Ġse c
ur ing
de o
iz ed
Ġgi ves
s on
ol l
ist s
Ġpre s
od ram
Ġwork s
Ġcinem atic
o ol
s ome
or n
Ġp sy
Ġst ra
ur al
Ġfe ature
Ġsp irit
Ġany one
y p
Ġm a
Ġb ra
Ġn arr
Ġg irl
Ġon ce
ous ly
all s
Ġsm art
oss ible
Ġpret ty
b r
p s
Ġs ent
re ak
Ġm aking
ast e
Ġwho le
Ġper fect
Ġaw ay
Ġsty le
Ġfascin ating
p ro
Â ©
Ġb o
Ġp ar
Ġh on
ant ly
Ġany thing
Ġra re
Ġmel odram
c ial
u g
w ays
Ġs ad
Ġb ar
Ġc ertain
Ġl ow
Ġu nd
Ġsu sp
Ġcom m
Ġun f
Ġle ad
m ing
r ic
Ġs ens
Ġc apt
Ġto gether
Ġmo ving
Ġex pect
Ġsh ort
Ġun s
Ġad d
Ġser ious
it ing
an k
al ing
Ġn ow
Ġre t
ul a
Ġsu m
Ġcon v
o ff
Ġm id
Ġp ot
Ġp op
ar ing
Ġth ree
Ġcon f
Ġtr ue
are nt
Ġlaugh s
Ġwom en
Ġpsy ch
d es
Ġd i
Ġd ay
Ġpro f
Ġdirect ion
Ġeng ag
Ġhist ory
Ġexper ience
ste ad
Ġs y
Ġs ound
Ġm iss
Ġm aster
el s
Ġre d
Ġas s
Ġal ways
ure d
Ġstr ong
uct ion
Ġob vious
c l
z y
Ġo p
it ies
Ġf ans
Ġin sp
ot s
Ġsu re
Ġcom ic
Ġhe ad
Ġle vel
Ġvi deo
Ġcomple te
Ġtit le
c y
w or
Ġ vers
Ġm en
Ġm ag
st and
ut h
ow s
Ġwh y
ir d
Ġpro b
Ġpl ace
Ġact ually
Ġwho se
Ġcl ic
res h
Ġsomet imes
Ġser ies
Ġsil ly
Ġnarr ative
0 0
Ġw ild
Ġd a
Ġbe h
Ġam b
Ġqu est
ment s
Ġtal ent
Ġmat ter
Ġtra g
Ġsat isf
Ġpol it
Ġpredict able
c ut
v is
Ġd am
Ġcom ing
ill i
us h
Ġar ound
od y
ore d
Ġte en
Ġins ight
e k
h n
l er
o int
Ġf act
en g
Ġp at
Ġe qu
Ġre ason
Ġhe l
Ġent ire
Ġsl ow
Ġgen re
ress ive
Ġatt empt
Ġsimp ly
ogra ph
Ġfamil iar
` `
t ime
Ġc ent
Ġd one
if ic
Ġne arly
ap s
op p
Ġpre m
itt en
Ġqu ir
Ġtr ans
Ġscreen play
Ġide a
f e
Ġa cc
Ġc ou
Ġw in
or ies
Ġp rom
Ġp ast
Ġst e
se m
Ġro b
Ġme an
Ġform ula
c er
u ri
in ed
en ing
Ġm ain
Ġb oy
or ge
Ġmo der
ent ion
ce ed
ud e
Ġman ages
Ġfilmmak ers
Ġhor ror
Ġsent iment
Ġhon est
b ing
c ed
c ise
c hed
g o
i ed
i ent
o on
Ġs im
Ġf resh
Ġm ur
Ġm ark
Ġp un
Ġh ome
Ġint ri
Ġli ve
ation al
Ġtr ying
Ġad m
Ġsub t
Ġgo es
Ġdram atic
Ġdel ight
Ġprob ably
Ġprem ise
d le
Ġo per
Ġf ant
Ġm is
Ġb ook
Ġc red
Ġn or
Ġsu ccess
iz ing
Ġwar m
Ġenjoy able
Ġsol id
a il
r on
Ġt re
Ġs ing
Ġb en
al k
Ġl ar
pl ic
Ġfa ir
Ġpart icul
Ġel se
Ġeffect s
Ġchild ren
Ġproble m
Ġsusp ense
Ġengag ing
Ġmoder n
Ġt reat
Ġs n
Ġf ine
Ġb as
Ġb ri
Ġc am
an y
Ġhe ro
Ġwor st
Ġad vent
Ġbl ack
Ġfa ce
pec ially
Ġturn s
Ġdra g
des pite
d y
i ences
Ġ 9
Ġo dd
it ed
Ġf ren
Ġw riter
Ġg ri
Ġre ad
Ġde ad
Ġv al
ult s
iz e
Ġdiff ere
g r
m o
s er
Ġo cc
is hed
Ġm r
Ġm ust
Ġw a
es e
Ġd umb
ro p
Ġan t
oo f
Ġcom ed
Ġde but
Ġam using
Ġoff ers
Ġfeel ing
Ġjo hn
Ġcomple x
Ġbecom es
Ġes pecially
Ġstud y
u gg
Ġ ill
Ġt ell
Ġs ort
Ġthe ater
Ġd r
Ġe arn
Ġal ong
Ġact or
Ġfl at
Ġfl aw
Ġvi ol
Ġend ing
Ġsm all
Ġcont ri
Ġrom ance
Ġmy ster
Ġportra it
Ġpsych olog
n ed
o ve
Ġ ve
er y
Ġc ut
Ġst uff
Ġbe gin
ch ie
Ġsu pp
Ġevery thing
av y
Ġeas y
Ġintellig ent
Ġvers ion
c ent
e f
j ust
u nd
Ġs ign
re me
it ation
Ġm et
Ġc ount
Ġen erg
Ġpro ject
Ġlike ly
ict ion
ac ed
vel op
Ġter rif
Ġlack s
Ġcharm ing
Ġsty l
Ġmess age
Ġinv ol
Ġbor ing
b l
t oo
u ine
y n
Ġmo t
ent ial
Ġj our
Ġex er
ation ship
Ġne xt
Ġqu iet
Ġsl ight
Ġbecom e
m a
Ġt v
Ġc al
Ġh it
Ġre ve
ch n
Ġli ves
Ġun i
us ed
Ġcl ose
Ġlook ing
Ġbr illi
Ġrel ationship
Ġfilmmak er
Ġhour s
Ġquir ky
Ġexer cise
m ed
y ond
Ġ id
Ġa ffect
he t
on y
ou se
el t
Ġst un
ag s
Ġwor d
ust r
Ġr ich
ens ion
Ġclass ic
Ġsou l
Ġfren ch
u ly
w here
w riter
Ġf oll
Ġw rit
Ġp a
an n
Ġd ream
Ġh ilar
Ġin stead
Ġl at
Ġsu ff
am s
um p
os ed
all ow
com e
com p
Ġdes pite
Ġrem ark
Ġide as
Ġpower ful
Ġcult ure
Ġpass ion
Ġenerg y
c hes
d o
l and
Ġt one
Ġw ind
Ġe ither
ent ious
ot e
Ġst ri
Ġre g
ra ge
ul g
ul ar
et t
ill er
Ġj e
Ġj ack
ag ed
Ġde ath
Ġpl ays
Ġle ft
end ed
Ġmost ly
Ġem b
Ġevery one
Ġimp ort
Ġgen uine
Ġfilmm aking
gu ing
Ġsurpris ingly
Ġmelodram a
Ġcertain ly
a x
o b
is ing
on es
an ces
Ġd ou
Ġin f
Ġl it
Ġe ach
Ġbe yond
Ġu r
Ġan g
ur d
ur p
Ġdo g
Ġde v
itt y
itt ing
Ġro ck
Ġstr ange
Ġrec ent
app oint
Ġsit u
Ġsec ond
Ġcomplete ly
Ġhel p
Ġoper a
d ing
h ow
l ine
u se
Ġs pe
Ġs pect
Ġc ap
or able
ut ter
Ġre st
Ġhe avy
Ġex cept
Ġstory t
Ġdes er
Ġview ers
Ġexpl o
Ġmi x
Ġlea ve
Ġbelie ve
Ġdeep ly
Ġocc as
c i
Ġf re
Ġf our
Ġm ad
ou d
Ġh old
le t
Ġg ot
as y
ri d
Ġfor get
Ġqu ick
Ġtr uth
Ġtr uly
Ġdirect ed
Ġri de
Ġlook s
Ġreal ity
Ġjo kes
ash ion
iv al
Ġhim self
Ġho pe
Ġcre ep
vo id
Ġstra ight
Ġsum mer
Ġmid dle
a h
e cut
h y
w r
w hen
Ġa ff
Ġs and
Ġf ound
Ġc or
Ġc art
on t
Ġd en
ic ult
Ġex am
Ġsh ot
Ġpo et
Ġdis appoint
Ġsub st
Ġunder stand
Ġshow s
Ġwom an
Ġprod uction
Ġdiff icult
Ġperson al
min ute
h and
Ġf at
Ġp ay
Ġd er
al though
Ġin st
Ġl ine
Ġn ight
Ġn ice
ot ic
Ġex act
Ġab ove
ive ly
Ġcon cept
com m
Ġvi r
Ġend s
Ġscen e
Ġapp ro
Ġref res
Ġsimp le
Ġdeli vers
Ġtou ching
Ġcam era
Ġadvent ure
a f
b ly
b all
e le
e ver
g ed
g ra
i est
s el
Ġ 8
Ġa ir
Ġo pp
Ġh op
Ġl if
Ġg row
ot t
Ġcom b
am es
Ġal read
Ġsh ock
Ġle t
Ġsp y
Ġno vel
Ġro le
ber g
Ġtri es
Ġext reme
Ġbeautiful ly
Ġsy m
Ġsatisf ying
Ġintri guing
Ġlar ge
Ġdiffere nt
Ġhilar ious
Ġalread y
a i
a el
e very
i en
p or
r ise
w ise
Ġa ut
Ġf ut
Ġh u
Ġst up
Ġst ories
un g
un k
Ġex ecut
Ġde velop
Ġne ither
us s
Ġim ages
pp ing
end er
ich Ã£
ite ly
Ġfa ils
Ġrem ains
Ġmom ent
Ġstoryt elling
b o
h as
m y
u ous
w ar
y ear
Ġ x
Ġt ed
Ġs le
Ġs ide
Ġf ire
is hing
Ġb al
Ġc ost
Ġto p
ent y
em ber
Ġso ap
Ġcl ichÃ£
are ly
Ġimp ossible
Ġbr ing
Ġte chn
Ġpret entious
ib ly
Ġext ra
Ġes c
Ġfri end
Ġcons ider
Ġparticul arly
Ġjour ney
Ġspect ac
Ġvir t
Ġrefres hing
k ed
m ore
t ra
Ġt ar
er ous
Ġf em
Ġm ere
Ġc ond
Ġc ase
Ġp oss
Ġd ri
Ġn on
Ġn one
Ġg ags
Ġmo od
im s
Ġsu st
un ny
ich ael
Ġad apt
Ġbl ood
less ly
Ġtw ist
oc ative
Ġsee ing
Ġaud iences
Ġcr ime
Ġgra nd
Ġpleas ure
Ġeas ily
Ġsequ el
Ġanim ation
Ġmed i
Ġey e
Ġearn est
Ġpsycholog ical
Ġterrif ic
Ġfoll ow
Ġlit er
Ġexact ly
sel ves
l in
p le
r ist
z e
Ġ ver
Ġ utter
Ġt aste
Ġa chie
it al
Ġf oc
at ural
Ġc ur
Ġd ig
ed ly
Ġl and
ra ble
ro wn
et s
Ġun ex
Ġso cial
Ġpro vid
one y
ick s
Ġro ll
Ġdis ney
Ġway s
Ġimp ro
Ġdel ic
sc ious
fort un
Ġagain st
Ġmor al
Ġintellig ence
Ġdef in
Ġma j
Ġpolit ical
Ġsubt le
Ġmyster y
o ver
w ay
in ct
Ġm ild
at s
Ġb rit
Ġb reak
Ġin de
Ġn ature
Ġg ent
Ġg ame
Ġis s
Ġch o
un ity
ill ing
Ġse ver
Ġun t
ell ent
Ġpro ves
Ġact ress
Ġwe ird
Ġpo or
Ġbl and
Ġget ting
Ġco ol
Ġdep th
str uct
Ġstand ard
iel d
ograph y
Ġstup id
a pe
a ust
l ight
w he
Ġt est
Ġthe at
Ġf alls
Ġb us
Ġb reat
Ġc old
Ġp arent
ic es
Ġe vent
Ġg one
ch y
ol ut
ol ute
Ġfor ce
Ġj oy
Ġex h
Ġso ph
ud get
Ġtra d
Ġclic hes
sem ble
Ġviol ence
Ġwrit ing
Ġappro ach
b el
g i
h aps
r ing
t on
Ġ er
it ious
Ġf ig
is es
Ġm ichael
Ġc our
Ġc ele
Ġp ure
ar p
Ġth in
Ġn i
Ġg ang
Ġg orge
Ġch rist
th at
ab ility
em ent
ak en
Ġun p
Ġpro cess
os es
Ġwhe ther
Ġfa v
Ġrem ind
Ġjo b
Ġob ser
Ġche ap
Ġgi ven
Ġcol l
Ġsat ire
Ġkeep s
Ġph il
Ġappe al
Ġmem orable
Ġsch ool
Ġwr ong
Ġwr itten
Ġep ic
Ġop en
Ġrob ert
Ġoccas ionally
b an
b ers
k in
n ect
in o
re w
Ġf ight
Ġb ur
Ġc all
Ġw el
or ough
or ical
Ġd ays
Ġin vent
Ġg od
ri ble
oo se
id es
Ġact ed
Ġsp l
pp ed
Ġlo st
ac ing
Ġus es
Ġte le
Ġdes per
Ġcont em
Ġcle ar
Ġview er
Ġthought ful
Ġlea ves
Ġele ments
mo vie
Ġbrilli ant
Ġted ious
f i
g en
i od
p ath
in ary
Ġf ul
Ġf oot
Ġb all
Ġc op
Ġc amp
Ġw ater
or k
Ġp ossible
an ch
Ġd est
le y
Ġto ld
Ġl ist
Ġu g
ro l
ke y
Ġint im
Ġex ist
Ġcon fl
ap h
Ġpro p
Ġpro v
Ġper iod
ort s
Ġi i
Ġpo st
Ġpo ign
Ġimp ressive
Ġart ist
Ġres on
Ġgu ys
ib ility
Ġdep ress
Ġneed s
here nt
ross ing
Ġph ot
Ġep is
inc ing
Ġpres ent
Ġinsp ir
Ġcart oon
c he
c ul
g ood
m ist
m ark
Ġs qu
re al
at ory
Ġp ull
Ġd uring
Ġh y
Ġl ab
Ġe ar
Ġg e
ent ially
Ġre comm
Ġhe ll
Ġen de
Ġsh arp
Ġsc i
act ion
Ġr out
Ġfun n
ile d
Ġoff er
ens ive
atch ing
Ġother wise
Ġ1 0
Ġres ult
Ġvis ion
Ġfin ally
Ġsurpris ing
Ġsex ual
Ġrun ning
Ġey es
Ġquest ion
Ġtrag edy
Ġcreep y
Ġmaj or
c ceed
f il
g ue
h ood
h op
o v
s pect
w ell
Ġ 4
Ġ ly
Ġt yp
Ġa ge
in ative
Ġc rit
Ġp urp
Ġth orough
Ġh ot
Ġin e
ch ar
Ġsu cceed
Ġsh oot
Ġha un
Ġha ving
os p
Ġam ount
Ġqu ality
Ġro ad
Ġfa il
Ġfa ith
Ġthem selves
Ġsur f
Ġbr other
Ġres pect
sc ar
Ġatt ract
Ġatt ention
Ġemot ionally
umb ers
Ġgra ce
Ġcol or
Ġfr ustr
Ġinc l
Ġfin al
Ġimag ination
Ġcra ft
Ġwonder ful
Ġabs urd
eng th
Ġentire ly
Ġcomed ies
Ġfut ure
fortun ately
Ġgent le
Ġcele br
a ils
m on
t able
v ant
z z
Ġ 3
Ġ ess
Ġt ired
Ġs ong
Ġb arely
Ġc ross
Ġp ow
Ġp ath
al t
ic he
il ty
Ġst even
Ġre leas
ol es
Ġch all
Ġch ange
am b
art ed
for m
Ġam ong
Ġtr ou
Ġwe ak
Ġent h
Ġus ual
Ġsl ap
Ġrem ake
Ġother s
Ġaw ful
Ġeng rossing
Ġexc ellent
uc ed
Ġcare er
Ġsk ill
Ġbu ild
anc y
Ġanim ated
Ġda vid
Ġbeh ind
Ġmean ing
Ġfant asy
Ġsing le
Ġfair ly
Ġcontri ved
Ġlat est
Ġsust ain
Ġmedi oc
Ġsever al
Ġconfl ict
l o
n a
p iece
s w
v ice
Ġt aking
Ġs our
Ġo scar
Ġf ast
Ġf ore
is ed
Ġm er
Ġb ond
Ġw ed
Ġp et
Ġp ark
Ġth row
Ġh om
Ġn atural
Ġg reen
Ġmo d
ri ght
Ġhe a
um ph
ur y
qu is
Ġdo ing
Ġcon nect
Ġwor se
Ġk n
Ġk iss
op h
Ġpl enty
Ġv o
Ġv ar
ack s
Ġsome one
sc reen
Ġgu y
Ġpoint s
Ġknow s
Ġbeaut y
Ġappe aling
lect ion
Ġev ents
Ġdeli ver
Ġdet er
Ġremark able
olute ly
Ġgorge ous
Ġug ly
a ces
i or
l ife
s ch
v able
Ġ ing
Ġt ear
Ġa st
Ġf an
en ed
en ess
or m
Ġp al
Ġp ie
an ks
Ġl im
Ġg oof
Ġre vel
ad es
if y
Ġint ent
Ġde al
Ġsc ary
ast ic
us es
us ion
Ġpl ain
Ġpre c
Ġam az
Ġad ults
Ġsome what
Ġvi vid
Ġins ide
Ġvis ually
be at
Ġtri umph
Ġemot ions
Ġpicture s
Ġsurp rise
Ġworth y
not hing
app y
Ġdec ent
Ġperfect ly
Ġuns ett
Ġmag ic
Ġamb itious
Ġsentiment al
Ġmet aph
Ġimport ant
hand ed
Ġmere ly
Ġadapt ation
Ġunex pect
Ġparent s
Ġthorough ly
b ody
c ou
g es
i x
m ade
u ch
Ġ ram
re l
re nt
Ġf ram
Ġp it
Ġp ace
Ġh ouse
Ġin n
as ure
Ġy ork
Ġwh ite
Ġcom plic
ag g
ap an
Ġchar ism
and s
Ġsp ark
ort ing
ac y
Ġfl ash
au ght
oy ing
Ġwork ing
Ġimp act
Ġdes ign
Ġstr ugg
ren ce
Ġcol le
Ġfr ank
Ġameric a
Ġlot s
Ġeffect ive
Ġdist ur
olog y
Ġ2 00
Ġmem ory
Ġsequ ences
Ġbra in
Ġbegin s
Ġopp ort
Ġexecut ion
Ġfem ale
Ġwel come
Ġprov ocative
Ġrecomm end
7 0
c le
d own
e en
f ic
g ar
n es
Ġa void
re ci
Ġf ree
Ġb att
Ġc row
Ġw ood
Ġp ul
Ġp ack
Ġp ub
Ġh ip
Ġn er
Ġg ross
Ġmo ther
Ġu se
ver age
Ġan n
ri es
ri ed
Ġfor g
id ent
Ġal one
un ch
ist er
Ġab le
Ġde ft
Ġne cess
ud d
Ġle g
ious ly
de cess
are d
Ġover all
Ġem pt
Ġlove ly
Ġcont in
Ġfr ont
az z
Ġdra w
Ġcreat ive
Ġac com
Ġhist orical
Ġtou ch
iel berg
vis ion
Ġmur der
Ġsupp osed
Ġdou b
ashion ed
Ġexam ination
Ġutter ly
Ġunt il
Ġcrow d
a ff
c ol
o de
u el
u ce
w rit
Ġ 5
Ġt im
Ġt ension
Ġf ol
Ġf all
Ġf elt
Ġm art
Ġm ach
Ġb iz
Ġc ir
Ġc ity
Ġc uri
Ġw itty
Ġd an
Ġd ate
ar ch
ar ily
Ġto m
Ġg if
Ġmo ve
Ġsu gg
am ent
Ġj u
Ġj apan
Ġen semble
Ġun int
Ġun like
ter n
Ġpre vious
Ġpre decess
Ġim m
Ġup on
Ġwill i
Ġus ed
Ġimp ress
Ġdes c
Ġthrough out
urn s
Ġmin or
iv ity
Ġche mist
Ġgr ou
Ġwant s
Ġapp reci
Ġpr ot
Ġcreat es
Ġac ross
Ġsurpris es
anc ed
Ġcult ural
Ġsince re
Ġcapt ures
Ġpot ential
Ġdelight ful
Ġ9 0
Ġflaw s
Ġstyl ish
Ġuni que
het ic
Ġword s
Ġquick ly
Ġhu ge
Ġfriend ship
Ġtar get
Ġiss ues
Ġbreat h
Ġsoph istic
path y
Ġchall eng
Ġtrou ble
Ġcolle ge
Ġaccom pl
Ġsugg est
Ġchemist ry
b ed
e y
k i
k ward
l ook
m en
m ay
m osp
s es
s ide
t r
in y
Ġs or
Ġs al
is hes
Ġm ist
Ġm oney
Ġb re
Ġb ull
Ġc ute
Ġw aste
Ġp u
Ġp os
Ġd ang
ar re
Ġto t
Ġl a
Ġg h
Ġg ay
ct ion
Ġst ep
Ġre ward
ul ative
Ġsu ck
Ġmovie go
ak ed
Ġun us
Ġcon vent
Ġcon cer
ast y
Ġat mosp
Ġr hy
Ġthan ks
Ġfe ar
Ġcl os
Ġtr y
iz es
Ġrem ember
Ġgr ant
Ġgr ound
Ġplay ing
Ġexc iting
Ġpr im
Ġsk in
Ġrep et
Ġsuper fic
Ġmon ster
iet y
Ġbro ad
Ġmelodram atic
Ġdi ver
Ġtalent ed
opp y
Ġwin ning
Ġbas ed
Ġid i
Ġsitu ation
Ġdeser ves
por ary
Ġdefin itely
bel ie
Ġful ly
Ġunsett ling
\ *
f ashioned
i ves
n ce
u ces
he nt
Ġs aw
Ġs av
Ġf est
Ġc at
Ġw alk
Ġh am
Ġl ad
Ġl oud
Ġn ame
st al
Ġg un
el lect
Ġst ren
Ġre v
Ġre qu
ro om
um ber
Ġli ving
Ġsh ad
Ġab ility
Ġha ck
Ġcon st
Ġcon struct
Ġv ict
Ġper haps
Ġcl um
pl ays
Ġman ner
Ġlo c
ac her
Ġem erg
Ġri d
Ġgen eric
Ġbr ings
ang u
Ġstr uct
Ġag o
Ġcast ing
Ġaw kward
Ġgi ving
Ġexpl or
Ġimag ine
Ġ2 0
Ġcre ate
Ġabs or
Ġstart s
Ġgirl s
Ġrare ly
Ġlead s
Ġconv incing
Ġmaster piece
Ġcou ple
Ġcount ry
Ġslight ly
Ġrelationship s
Ġur ban
Ġcost um
Ġfoc us
Ġprovid es
olut ion
Ġni ro
Ġrout ine
Ġmedioc re
Ġrhy th
c ing
m aking
r al
r ound
v y
y al
Ġt ur
in oc
he arted
Ġs ac
Ġf it
Ġf ra
Ġm il
Ġm ak
Ġb i
Ġc and
Ġw al
Ġw ise
on ic
on str
Ġp acing
Ġd re
ar c
ic le
Ġto ward
Ġin ex
om et
el d
ve y
im ag
Ġon es
Ġy a
ess ion
Ġcom mer
ill s
ous y
Ġint ellect
qu ently
us i
and ering
Ġall en
Ġpre p
end ing
Ġwe ight
Ġcomp any
ass ion
Ġdis gu
ne ver
Ġtw ists
Ġbad ly
Ġbr ut
Ġhow ever
Ġwatch able
Ġjo ke
Ġthrill s
con scious
Ġter ms
Ġap art
Ġlack ing
Ġthink ing
Ġhigh ly
Ġultim ate
Ġcra zy
vo king
Ġproble ms
Ġunf unny
Ġserious ly
Ġtrag ic
Ġformula ic
Ġpun ch
Ġbri ght
Ġgri pping
Ġflaw ed
Ġinvol ved
Ġreve als
Ġsubst ance
Ġesc ap
Ġbus iness
Ġcour se
Ġfav or
Ġcontem porary
Ġunexpect ed
Ġ200 2
Ġdoub t
6 0
b udget
d ie
h um
i pp
i que
l ow
m ers
n ter
r ical
s omet
u x
w atching
z en
Ġ est
Ġ era
Ġt ick
Ġa im
he m
he ad
Ġs on
Ġs ick
Ġf ive
Ġf are
en n
Ġm es
Ġc ris
Ġc yn
Ġw ish
ing er
Ġd ry
ar is
al y
il t
Ġn u
Ġe th
Ġe cc
Ġg re
Ġst ere
Ġst ars
Ġbe at
Ġre sp
Ġfil led
et h
Ġcom fort
if ied
Ġen er
Ġun in
Ġsc r
art s
act ed
ust er
op s
itt ed
Ġman ip
we et
iz ation
ating ly
Ġra p
Ġri ve
Ġyour self
Ġthem es
Ġreal istic
old s
Ġcr ush
con s
gg ed
Ġrec ord
Ġplay ed
Ġfind s
Ġpleas ant
Ġrep ort
Ġdist inct
Ġappe ars
Ġimag inative
icul ous
Ġhapp ens
Ġflick s
Ġmed itation
pro voking
Ġsens itive
Ġsound tra
Ġmiss ing
Ġattempt s
Ġprom ise
Ġboy s
Ġsuccess ful
Ġinvol ving
Ġcal led
ulg ent
Ġsand ler
Ġconsider able
Ġmild ly
Ġphil os
Ġinvent ive
Ġintim ate
Ġepis ode
Ġincl ud
Ġfram e
Ġbatt le
Ġpub l
Ġbiz arre
Ġcir c
Ġwilli ams
Ġgh ost
hent ic
Ġsoundtra ck
a vi
f ield
g th
i ved
l ish
n ers
p ut
Ġt un
Ġt aken
it able
it ions
Ġf ather
Ġm atch
Ġw at
Ġp ri
Ġd om
Ġh ate
Ġl oss
Ġl az
Ġn ons
st ick
ent ric
vi de
Ġre nt
the y
se e
se qu
id ed
ag ger
Ġen cou
Ġint ro
Ġint ense
Ġsh are
Ġun c
Ġun even
ire s
Ġne ar
ate ur
Ġso c
Ġv ill
Ġsp orts
Ġsp ielberg
Ġim ax
Ġout rage
Ġtr an
Ġro om
Ġbl end
iz z
ph y
ris on
Ġtra vel
Ġinterest ed
Ġche ck
Ġter rible
Ġrel ent
Ġfr anch
Ġwant ed
Ġset s
Ġset t
Ġinc red
arr ing
Ġrep res
Ġmar vel
Ġfri ght
Ġev il
Ġrun s
Ġhapp y
Ġgener al
Ġdem onstr
Ġexp ress
Ġput s
Ġspirit ual
Ġprof ound
Ġpolit ics
Ġequ ally
Ġtrans c
fe els
Ġsentiment ality
Ġdr ug
Ġaffect ion
Ġstun ning
Ġsitu ations
Ġforget table
wr itten
Ġpoet ry
Ġder iv
af ter
Ġlarge ly
Ġextra ord
Ġbrit ish
Ġinde ed
Ġtele vision
Ġpoign ant
Ġpurp ose
Ġhea ven
Ġpie ces
Ġgoof y
Ġinn oc
Ġsophistic ated
Ġsuperfic ial
Ġstren gth
Ġstere ot
Ġfranch ise
b ear
c r
c orn
e per
f er
f un
i um
l ong
m iss
p ar
s m
t ers
x ic
Ġt ough
Ġa ccess
Ġf reak
en i
Ġb og
Ġb old
Ġw est
Ġw all
Ġp an
Ġp ian
ar a
ar ity
Ġh its
Ġh yp
Ġto day
il ing
Ġl oses
as p
Ġst om
Ġst ay
ul s
Ġfor ced
th ose
Ġal ive
ers on
ag on
Ġli ked
ak s
ate ver
Ġr ing
ind ed
ven ge
os ity
Ġsp ace
Ġim pl
Ġam ateur
Ġtr ash
Ġlo g
Ġdis c
Ġme ans
Ġmay be
Ġsur vi
Ġsur round
ber gh
Ġsm o
Ġscreen writ
Ġcinem at
get ic
Ġgu ess
Ġview ing
Ġapp arent
Ġset ting
Ġexc it
Ġexc ess
arr ass
Ġcreat ed
anc ing
Ġprod uct
Ġed ge
min ed
Ġdet ail
co ver
Ġabs olutely
Ġpain ful
Ġele g
Ġsa id
Ġprof ess
wor th
Ġmag n
Ġclic he
Ġquest ions
Ġcent ral
Ġmur phy
Ġgri ef
Ġjack son
Ġstrange ly
Ġvirt ually
Ġdepress ing
Ġge orge
Ġtyp ical
Ġhaun ting
Ġcolor ful
Ġcraft ed
Ġenth usi
Ġmod est
Ġdistur bing
Ġunint ent
Ġrid iculous
Ġmes mer
Ġtran sp
Ġderiv ative
b ad
b ack
b oy
b ling
d is
f elt
g ing
h ol
k en
k able
o le
p hed
u it
u ra
v in
w o
y le
Ġ ign
Ġt ire
Ġt ender
Ġa verage
in a
in stead
Ġs ight
Ġf iction
at or
Ġc ry
Ġw ife
or ious
Ġp en
Ġd u
al ian
Ġl ame
Ġl aw
Ġl ines
Ġl ength
as hing
Ġst age
Ġst ock
Ġre ach
ra p
ch ant
Ġfil l
Ġan sw
Ġsu gar
ir th
id s
Ġch an
Ġch ang
th r
ab out
ag ue
ant s
and er
Ġall ow
Ġpl an
Ġfe at
Ġle ts
ich ol
Ġcomp et
Ġro ot
Ġsl ice
Ġtal king
ond z
Ġpart s
Ġart istic
Ġob s
Ġob ject
Ġcle arly
Ġhard ly
con t
up s
Ġgu ilty
Ġworth while
Ġgl imp
Ġhuman ity
Ġpr ice
Ġind ie
Ġoriginal ity
Ġfin ish
Ġsk et
Ġir rit
Ġsex y
dd en
Ġgener ation
Ġpain fully
Ġund eni
Ġpop corn
Ġobvious ly
Ġinsp ired
Ġinsight ful
Ġcou rage
Ġsim pl
Ġadm i
Ġwarm th
Ġtre asure
Ġaffect ing
Ġsuff ers
do es
Ġemb arrass
ival ent
Ġaff air
Ġextreme ly
Ġaut hentic
Ġrefreshing ly
Ġexh ilar
Ġobser v
Ġfoot age
Ġsucceed s
Ġsurf ace
Ġwed ding
Ġvo ice
Ġopport unity
Ġgrou p
Ġconvent ional
Ġatmosp here
Ġabsor bing
Ġcommer cial
Ġecc entric
Ġener getic
Ġrive ting
Ġpubl ic
Ġstereot yp
Ġexcit ement
a ve
a us
b s
b or
b les
b oth
c ra
d en
e gr
h our
h mer
i ans
j o
m uch
n al
n ic
in al
Ġf ashion
en cy
Ġm c
Ġm al
Ġb an
Ġb ow
Ġc ore
on na
Ġp ed
Ġp ap
Ġp ick
Ġd im
ly ing
Ġh all
le x
Ġin fl
il led
Ġl angu
Ġn a
Ġg ames
as es
Ġst re
Ġre venge
the less
ro ll
Ġfilm ed
Ġwith in
Ġal ien
ab or
Ġj ol
Ġse a
Ġun e
Ġun for
Ġsc ar
Ġsc ream
Ġk ing
Ġr y
Ġall ows
Ġpl aces
ud lin
Ġle arn
Ġsp ook
ard s
Ġtr ick
Ġar ri
ac hed
og n
Ġad oles
Ġsome how
Ġpo nder
Ġbl ue
ne w
Ġtal k
Ġsur real
Ġser vice
vers al
Ġpart y
Ġheart b
Ġheart felt
Ġgreat est
Ġtri p
Ġter ror
Ġpers pect
Ġinc re
Ġmus ical
Ġir an
Ġac cept
ins ky
Ġdec ades
Ġcons id
Ġcons ist
Ġbelie vable
Ġeffort s
Ġpres ents
Ġdam ned
Ġequ ivalent
Ġmain t
Ġparticul ar
Ġtreat ment
Ġdrag on
Ġtell s
Ġve h
Ġmot ion
Ġid ent
Ġremark ably
Ġhold s
Ġsle ep
Ġbal ance
Ġspectac le
Ġachie ve
Ġdelic ate
Ġpoor ly
Ġpow ers
Ġslap stick
Ġpet er
sch ool
Ġamaz ing
Ġcharism a
Ġjapan ese
Ġprot agon
Ġunus ual
Ġtire some
h a
i ke
p et
r ous
s et
v al
w ill
y c
Ġ ice
Ġt y
Ġt our
Ġt elling
in ing
Ġs now
Ġs itting
re ly
Ġo pt
Ġf er
Ġf ur
Ġm as
Ġm ill
Ġm ult
Ġw il
Ġw ast
Ġw ry
es c
on ly
on ishing
Ġp ic
Ġp ra
Ġd iv
ar ies
ar io
Ġth ird
le by
Ġl ay
Ġl ate
Ġl oose
Ġn ichol
st ar
Ġg ut
Ġg em
ut er
Ġmo ore
ot ten
Ġst ir
Ġst ick
Ġst ret
im sy
et ic
Ġy arn
Ġas pect
Ġal tern
un fortunately
Ġj ames
Ġint ended
Ġsh ap
Ġsh ame
Ġsh allow
Ġde eper
Ġun con
Ġne g
Ġsc ore
Ġsc ience
Ġcon ce
ast s
Ġso ft
Ġso der
and on
Ġpro g
Ġr uss
Ġpl od
ven ess
Ġv an
Ġsp ot
Ġsp oof
Ġar ch
Ġsome where
Ġcomp assion
Ġcomp uter
Ġent er
Ġus ually
ult im
Ġem ph
Ġoff ering
Ġra d
Ġthem e
ative ly
Ġdes p
Ġdirector ial
Ġscreen writer
Ġcont ra
Ġag es
ink s
Ġlong er
Ġtri f
umb s
av or
Ġpoint less
Ġneed ed
uc ing
ex t
Ġpleas e
Ġir re
Ġed iting
Ġsubject s
Ġsequ ence
Ġbro wn
Ġsit com
Ġstud io
Ġgener ally
Ġsw im
Ġhar m
Ġcomm unity
Ġsound s
wor k
Ġwild ly
Ġbeh avi
Ġcent ury
Ġprom ising
Ġcred its
Ġval ue
gr ound
Ġsign ific
Ġdream s
Ġgenuine ly
Ġang st
Ġcomb ination
Ġdevelop ment
Ġspectac ular
Ġposs ibly
Ġevent ually
Ġfig ure
Ġgang ster
Ġfunn ier
Ġbrother s
Ġdeft ly
Ġempt y
Ġmart in
Ġdesc ri
Ġrepet itive
Ġfest ival
Ġamateur ish
Ġmesmer izing
Ġveh icle
Ġident ity
Ġsoder bergh
c her
c ult
d ri
d ow
d ram
f unny
g ory
h igh
m inded
n ces
r u
r um
s he
s uff
u ro
w in
Ġ &
er n
it ude
Ġf ier
Ġb le
Ġb ody
Ġb ored
Ġb ott
ing u
Ġp ract
Ġp aced
Ġp inoc
Ġd ie
Ġh ide
Ġto ss
Ġin ner
ed s
il er
il ly
om b
Ġn umbers
Ġn umber
st ream
Ġe arly
Ġg old
ent ed
as m
as hed
Ġre sem
ver se
Ġsu n
ir ty
if ting
Ġch ase
Ġch ann
Ġj er
ag al
um ble
ck s
Ġli ber
Ġsh am
Ġsh ots
Ġde void
Ġsc o
Ġcon cl
Ġk iller
act ic
Ġpro ve
Ġpro vide
ud dy
all ing
Ġor d
Ġqu een
de p
Ġar g
ac ious
ac hes
Ġjust ice
Ġwill ing
com es
Ġbl ade
Ġover ly
Ġperfor mers
Ġem p
Ġdis p
Ġsl ick
ip s
Ġra w
Ġri p
sp ired
Ġte am
Ġte acher
Ġdes ire
but e
Ġres ults
leas ant
Ġcr imes
Ġhol es
Ġche es
Ġke vin
ree k
Ġgi ant
Ġfar ce
Ġrec ogn
av is
Ġgl ass
Ġturn ed
Ġind ust
Ġpleas ures
Ġthink s
Ġshe er
Ġph ys
Ġmem bers
Ġsch m
ste in
amp le
Ġhapp en
Ġmind less
Ġ19 9
Ġvisual s
Ġsa ve
Ġsec ret
Ġcapt iv
Ġexpect ed
stand ing
Ġread ing
Ġval ues
rop ri
Ġant i
Ġquiet ly
Ġuni versal
Ġstun ts
Ġstri king
Ġfre quently
wr ought
whe l
Ġende aring
Ġine pt
Ġattract ion
Ġreleas e
Ġprec ious
Ġcomplic ated
ey ed
Ġbull ock
Ġrev olution
Ġconstruct ed
Ġexplor ation
Ġdisgu ise
Ġlaz y
Ġsoc iety
Ġoutrage ous
Ġextraord inary
Ġaccess ible
Ġstom ach
Ġcinemat ography
Ġprofess ional
Ġirrit ating
Ġsimpl istic
Ġperspect ive
ultim ately
Ġemph as
Ġbehavi or
a ud
a iled
b ol
b rid
c ies
e ath
f man
g or
g irl
h u
m i
m ar
m as
n ight
p ret
r un
s u
t op
t alk
y es
Ġ 7
Ġ ic
Ġt en
Ġt ack
Ġa ust
Ġa uth
Ġs ed
Ġs ides
re m
re st
er able
it ional
Ġf le
Ġm s
Ġm iche
at isf
Ġb od
Ġb ore
Ġb its
Ġc ro
Ġc aut
or ic
Ġp us
an ing
Ġd yn
Ġd azz
al an
Ġh ur
Ġh us
Ġh ook
le te
Ġn ick
Ġit alian
Ġg er
Ġg ar
Ġbe ars
ver n
ul ation
ch an
Ġas p
se c
ir ming
Ġcom ment
Ġch ance
Ġch uck
Ġch ines
Ġmovie making
am a
Ġal le
Ġal though
ab l
Ġex ample
Ġsh ake
Ġde b
ive red
Ġun com
Ġcon scious
ast ing
Ġso on
for d
Ġpro ceed
Ġfe ars
Ġpre ach
Ġv ol
Ġv ulg
Ġsp in
Ġsp ell
Ġcl im
itt ers
Ġlo ved
Ġar n
au fman
Ġad ult
we ight
Ġpo ke
Ġro ger
Ġover come
Ġover whel
Ġra nd
Ġvi br
ress ed
Ġte xt
Ġdel ivered
Ġser ves
Ġcont rol
Ġhol id
Ġshow c
Ġins ult
Ġgr im
Ġtri bute
Ġgra d
Ġenjoy ed
Ġplay ful
ney ed
Ġref lect
Ġhor rif
Ġfri ends
Ġprod uced
Ġimag ery
Ġmon ty
Ġ19 5
hen s
Ġpres ence
pro d
Ġcomm on
Ġnow here
Ġdi vers
cl ass
Ġlevel s
Ġdam n
Ġmark s
Ġintri gue
Ġcred it
Ġben ef
Ġemb ra
Ġdou ble
Ġexplo it
Ġpoet ic
Ġfat al
war ming
Ġachie ves
Ġdig ital
Ġunp leasant
Ġspl end
Ġpull s
Ġfail ure
Ġfrustr ating
Ġess entially
Ġsong s
Ġintent ions
Ġdesign ed
Ġstrugg le
Ġann oying
Ġnecess ary
Ġfol ks
Ġmach ine
Ġpredecess or
Ġchalleng ing
Ġpos itive
Ġconcer ned
Ġdiver ting
Ġhack neyed
Ġstruct ure
Ġmanip ulative
Ġnons ense
Ġincred ibly
Ġglimp se
Ġexhilar ating
Ġincre as
Ġfur ther
Ġtrif le
Ġbott om
Ġdyn am
Ġchines e
e ur
g y
g an
i ation
i vid
k ins
l or
m n
m r
m ak
n ature
p leas
v ard
Ġ \/
Ġt or
Ġt ight
Ġt ort
in ated
Ġs ill
Ġs appy
re p
re aking
re ts
re hens
er k
Ġf u
Ġf ab
Ġf ish
Ġm ile
Ġm ale
Ġm ention
Ġb and
Ġb udget
Ġb unch
Ġc ell
Ġc ame
Ġc ause
Ġw ide
or ous
or ity
on ce
Ġp ur
Ġp rison
Ġd ick
Ġd ance
Ġd ys
Ġd aring
Ġh ay
Ġh ill
ic ed
il ities
Ġn ational
st ers
Ġg ro
Ġg reek
Ġst ate
Ġst ale
Ġre no
ce ived
Ġan aly
ri bly
oo p
Ġsu spect
ir ing
Ġch ris
am eric
Ġhe ar
ab s
un t
Ġj ason
Ġj unk
um ing
Ġse at
Ġse ason
Ġex quis
Ġsh akes
qu ent
Ġnot ice
Ġha ir
Ġde cept
Ġun h
Ġcon sp
Ġcon vers
ain e
Ġso ber
Ġr ough
ud es
ind ulgent
Ġle e
os ition
ff man
Ġv s
Ġv amp
Ġstory line
pl o
end ent
Ġqu al
Ġno stal
Ġfl ow
Ġfl air
oy ant
Ġro les
Ġoff ensive
Ġme chan
Ġtw ice
Ġtal ents
Ġreal ism
led ge
Ġdirector s
Ġrem em
Ġrem ain
sh ot
Ġstr ict
ign i
Ġ1 1
ors ese
Ġrom p
Ġcr uel
Ġvis cer
Ġemot ion
Ġter rit
Ġcol lect
Ġeng lish
Ġgl oss
Ġexc use
Ġinc o
Ġind ivid
Ġcreat ing
Ġbu y
olog ical
to gether
Ġappe ar
Ġho ffman
Ġsol ondz
Ġed uc
Ġdeli very
Ġmi ra
Ġwonder fully
eless ly
Ġsa fe
Ġbar bers
Ġret urn
off ers
Ġsure ly
Ġdam age
Ġmain stream
Ġmark et
Ġtre m
Ġodd ly
Ġwa it
Ġwa iting
Ġcomed ic
Ġcontri v
Ġmot iv
med i
Ġreg ard
Ġdev ast
Ġdeser ve
Ġmix ed
Ġgrow s
every thing
Ġland sc
Ġstandard s
whe ther
Ġdesper ate
Ġinspir ing
Ġear th
Ġfunn iest
fil m
Ġsour ce
Ġpark er
Ġdeter mined
Ġast onishing
Ġmetaph or
Ġbreath t
Ġaccompl ished
Ġmoviego ers
Ġclum sy
Ġemerg es
Ġdre ary
Ġintellect ual
Ġintro d
fun ct
Ġadmi rable
Ġpap er
Ġry an
Ġadoles cent
Ġprotagon ist
Ġty pe
Ġfier ce
Ġchann el
Ġindust ry
Ġcaut ion
itters weet
Ġvibr ant
Ġholid ay
nature d
Ġnostal g
a ith
a id
b it
b as
b ook
d a
d el
f alls
g est
g ment
h ard
i veness
l ie
o ft
r at
s ay
v il
x x
Ġ ven
Ġs an
Ġs ix
Ġs ister
re ct
er o
it ch
Ġf al
Ġf ly
Ġf able
Ġf ood
is ion
Ġm ent
Ġm ac
at ter
Ġb ed
Ġb other
Ġb uff
Ġb ittersweet
Ġc ate
Ġc ard
Ġw oo
Ġw ann
es que
or ig
or ient
Ġp ile
an other
Ġd read
Ġh ig
ic ism
Ġin h
Ġl os
Ġn arc
Ġg rown
Ġst ays
Ġst arring
Ġre pe
ver t
Ġan ne
Ġy u
Ġas ide
ad ed
Ġwh atever
ir m
Ġcom pl
Ġch a
Ġch ick
th a
am alan
Ġj ones
Ġse arch
Ġse agal
Ġint ens
Ġint egr
Ġli es
Ġnot ion
ant e
Ġde g
Ġun w
Ġun fl
pe are
ell ow
Ġk ick
Ġk ore
Ġso le
ud ic
Ġsp end
ong s
pp er
Ġlo ving
ther n
Ġwe ars
Ġwe ek
ac ity
Ġdirect ing
Ġwork ed
Ġover wrought
Ġem pathy
Ġdis aster
ens ions
Ġsl oppy
less ness
ost erous
Ġthem atic
Ġmay hem
ans ki
ph ic
Ġser ved
Ġstr ang
Ġmat ters
Ġ1 5
Ġplot ting
red ict
Ġbig ger
Ġmin ute
uct ive
Ġshow ing
Ġgr itty
te en
Ġscen ario
Ġless on
gg y
Ġrel atively
Ġrec yc
Ġback ground
Ġfind ing
Ġdep iction
Ġdra wn
Ġbecom ing
Ġexpl os
Ġfri day
Ġcar ries
Ġcra ck
Ġexper iences
Ġmor ality
Ġinv est
Ġperson ality
Ġsuper ior
Ġstand s
iment al
Ġ19 8
co very
Ġdem and
Ġz one
Ġpain t
Ġsou th
Ġsec rets
Ġma udlin
Ġbar ry
Ġadd ition
Ġret read
Ġconf using
Ġass ured
Ġamb ig
Ġreason ably
Ġacc ount
Ġlive ly
Ġadm ire
Ġcomplex ity
Ġviol ent
Ġbegin ning
Ġpa ul
Ġcap er
Ġdisappoint ing
Ġnice ly
Ġgrow ing
Ġx xx
Ġtechn ical
Ġesc ape
Ġcond ition
Ġdri ve
Ġcur rent
Ġcho ices
Ġexh aust
Ġchrist ian
Ġchrist mas
ov ich
Ġfore ign
Ġkn ock
oph ical
Ġing en
Ġforg otten
look ing
Ġmist ake
Ġdang erous
Ġtot al
\* \*
Ġmak ers
somet imes
Ġphilos ophical
Ġinclud ing
Ġrepres ents
Ġstre et
Ġiran ian
Ġaspect s
ru pt
Ġconcl usion
Ġarn old
Ġpoke mon
Ġincreas ingly
Ġterrit ory
Ġindivid ual
Ġbarbers hop
Ġcaution ary
a ves
b ar
b ra
b ble
d og
e ks
f ri
f rom
f est
h ip
i ents
k n
l ength
n an
n am
o ly
p an
r ate
r ated
t v
t wo
u ity
v ag
v ate
x ious
y our
y amalan
Ġt ux
Ġs am
Ġs ade
Ġf is
Ġm ass
at hetic
Ġb ou
Ġb ol
Ġb ag
Ġb art
Ġb ree
Ġb aff
Ġb urns
Ġc atch
Ġw is
Ġw ent
Ġw ack
Ġw ond
ing ing
or ing
Ġp ity
an o
Ġd on
Ġth ous
Ġth reat
Ġh ang
ic y
il es
Ġl ing
Ġl il
Ġl uc
Ġl uck
Ġn umb
st ated
Ġe ast
Ġe ll
Ġmo ves
Ġst uck
im m
Ġre nd
Ġre de
ra id
ch io
Ġy es
ri an
ri age
ess ions
Ġyou th
Ġsu cc
Ġch illing
Ġj ul
ag er
ag ers
ght er
em y
Ġli ved
Ġli kable
ak y
ist ent
Ġha w
Ġsc orsese
ain t
Ġk aufman
ig g
and ers
Ġr u
Ġr is
Ġr ic
Ġr ises
Ġact s
Ġsp ring
Ġcl oying
Ġman age
ac qu
Ġtoo k
com edy
Ġus ing
Ġbl ock
Ġdis h
ens ional
Ġra ce
Ġbr ought
ang le
Ġstr ing
Ġheart s
Ġmy th
Ġmy self
Ġbig gest
Ġmin im
Ġcr ass
Ġcr ude
Ġob sc
Ġthrill ing
aut iful
be autiful
Ġlau ghter
Ġhumor ous
row ing
Ġcol lection
Ġold er
Ġknow ing
Ġapp ropri
Ġdep art
Ġmess ages
Ġide al
Ġel o
Ġir res
Ġcreat ivity
Ġmar tha
Ġmar riage
Ġdist ract
Ġdist ingu
Ġref ere
Ġpol anski
Ġev o
Ġbit ter
Ġperson a
Ġmi ke
Ġsequ els
Ġlea ving
Ġdet ails
Ġdet ailed
Ġz e
Ġwit ch
Ġhar vard
ogra phed
Ġele ment
Ġfamil ies
Ġbo x
Ġcomm un
Ġcapt ure
Ġconv iction
Ġpot entially
Ġop ening
wor ks
oint ed
Ġpat ience
ograph ic
Ġcent er
ific ial
aps es
go ing
Ġfant as
Ġfant astic
Ġtre k
Ġben eath
Ġben igni
Ġfair y
Ġsuspense ful
Ġsign s
Ġreve aling
Ġwind s
Ġje w
Ġje al
Ġspe aking
Ġcap able
Ġmad onna
Ġsym pathy
bo ard
Ġfollow ing
Ġliter ary
Ġreson ant
Ġreson ance
fil led
Ġfaith ful
Ġhom age
Ġkiss inger
udd led
Ġunlike ly
Ġimpress ion
Ġappreci ate
Ġrhyth ms
Ġprep osterous
Ġbrut al
Ġcyn ical
Ġresp ons
Ġvill ain
Ġlog ic
Ġfeat uring
Ġinfl u
Ġspook y
Ġconsist ently
Ġwast ed
Ġstir ring
Ġdesp air
Ġharm less
Ġpinoc chio
Ġchees y
Ġcaptiv ating
Ġdazz ling
Ġpreach y
Ġvulg ar
Ġviscer al
aith ful
Ġintens ity
udic rous
a res
b and
c al
d on
d om
d im
e ff
f am
g ust
g ressive
h ar
i ra
i pe
j a
k a
m ill
m itt
m od
n ear
n umbers
o k
u able
y et
Ġ $
Ġt ay
Ġt ong
Ġt empt
Ġt asty
Ġa v
Ġa th
Ġa de
in ce
Ġs ag
Ġs ant
Ġs old
Ġf ate
Ġf ac
Ġf ool
en e
Ġm ou
Ġm ount
Ġb oo
Ġb ab
Ġb ite
Ġc u
Ġc as
Ġp air
Ġh un
ic ip
Ġin herent
ed o
il iar
Ġl ousy
Ġl udicrous
Ġn asty
st yle
Ġe g
Ġe vid
Ġe uro
as her
Ġst u
Ġst at
Ġst op
ra y
Ġu pl
the se
Ġon to
Ġan th
Ġas k
Ġas ks
ad s
Ġwh om
oo by
id ly
if ying
Ġch ron
th in
th an
Ġhe al
ab e
ag o
Ġse es
em an
Ġen s
Ġen ig
ant ial
Ġde aling
Ġun fortunately
Ġun imag
Ġsc att
ain ed
ful l
ud ge
Ġpre ss
Ġv ague
Ġsp ent
Ġsp ider
Ġim medi
Ġcl o
Ġcl ot
Ġcl arity
ie f
pl oy
hing ton
pp ert
Ġman h
Ġam used
ort on
Ġfl o
Ġfl u
Ġfl uff
per fect
Ġinto xic
Ġad am
Ġdirect s
od es
Ġbl ow
Ġbl air
Ġtime ly
Ġoff beat
Ġhum our
Ġsl ack
Ġsl asher
Ġme andering
ne ider
sp irit
oc aust
Ġtal es
Ġreal ized
Ġreal ize
Ġvi de
Ġwas hington
Ġte ens
Ġsm ile
Ġsm ug
vers ive
Ġnew s
Ġcont ent
Ġhow ard
li er
Ġ1 2
Ġheart warming
Ġart ists
Ġart ificial
Ġres ist
Ġche er
Ġwar s
Ġke y
Ġdown right
con om
con ceived
Ġaf ric
Ġrel ig
Ġcharm s
Ġsat ir
Ġsat ur
Ġind ian
Ġfin ale
Ġbu ilt
no v
Ġhor rible
Ġmem ories
Ġev ocative
Ġbro om
Ġbro ken
Ġhapp ened
Ġanim al
with out
Ġhand some
Ġdem ands
Ġportra y
Ġwit ness
Ġinter mitt
Ġsou thern
Ġunf aithful
Ġsens ual
Ġexpect ations
off ensive
Ġpop ular
Ġass ass
vis ed
Ġteen age
Ġinsight s
Ġpat hetic
Ġequ al
Ġslow ly
Ġacc ur
Ġcou nter
Ġwin ner
Ġmain ly
Ġhonest y
Ġbook s
Ġbas ic
Ġsupp orting
Ġjour nal
Ġpa id
Ġunderstand ing
Ġlif eless
Ġextra vag
Ġtwist ed
Ġliter ally
Ġroll er
Ġinde p
Ġiss ue
Ġactress es
Ġtheat ers
Ġtrad ition
Ġtrad itional
Ġremind s
Ġdesper ately
Ġpoign ancy
Ġhy brid
Ġly rical
Ġine v
Ġpath os
Ġreleas ed
Ġdeter m
Ġing red
Ġtear s
Ġpul p
Ġpack ed
Ġfront al
Ġpu zz
Ġtot ally
Ġclos er
Ġlad y
Ġgun s
Ġrequ ired
Ġcostum es
Ġrhyth m
Ġsac rif
Ġcand y
Ġunin spired
Ġscreenwrit ing
Ġlaw rence
irth day
Ġembarrass ment
Ġobserv ations
Ġstereotyp es
cra ft
Ġban al
Ġwil de
dram a
Ġord inary
Ġhus band
Ġcomment ary
Ġuncom fort
Ġsill iness
Ġdick ens
Ġanaly ze
Ġvamp ire
Ġnostalg ia
Ġfal se
Ġrepe ated
Ġdeg ree
Ġfis her
Ġwack y
Ġrede em
dim ensional
Ġsant a
b et
b id
b ered
e ve
f ty
f eld
h am
h ang
h ash
h ouse
j ointed
l ock
m al
m et
m are
n one
o ons
p art
p rise
p athetic
s l
s ol
t ri
w it
y a
z og
Ġt end
Ġt uck
in ching
Ġs ly
Ġs ell
Ġs end
Ġo li
it es
Ġf anc
Ġf ield
Ġm isf
Ġm iller
Ġb es
Ġb our
Ġb ound
Ġb ang
Ġb ath
Ġb ase
Ġw ra
ou l
an es
Ġd v
Ġd ue
Ġd ub
Ġd rown
Ġd ancing
Ġd irty
ly n
Ġh ong
Ġh int
Ġh ost
ic ing
Ġin con
Ġin ane
Ġin comp
Ġin offensive
Ġl ane
st s
st ill
st opp
Ġe ight
Ġe conom
Ġg os
Ġg ore
Ġg ender
Ġst iff
vi deo
Ġre le
Ġre action
ra rely
Ġon screen
ol a
ol ation
se y
Ġwh ims
Ġwh imsy
oo per
Ġal i
Ġal ab
Ġhe ld
Ġhe ard
ab ashed
um e
um m
um in
um ps
Ġse ven
ous ing
Ġen vi
Ġen orm
ur s
Ġint ric
Ġli e
Ġex ceed
out s
rom ising
ant ino
est ic
Ġun re
Ġun less
Ġun comp
Ġun abashed
Ġne at
Ġsc ott
Ġcon c
Ġcon ve
pe red
Ġk ong
us ive
Ġpro per
Ġr at
Ġr ush
Ġthan k
Ġsom ber
ind ucing
Ġle on
Ġpre fer
ff ic
Ġv ent
Ġsp an
Ġsp ir
Ġsp are
Ġsp ite
Ġcl ock
pl ace
pp ings
Ġout side
man ages
Ġtr ite
Ġlo vers
ine e
Ġno ir
Ġup d
ac he
Ġjust ify
Ġpo em
Ġro w
iz ations
Ġdis play
Ġdis belie
ry ing
wh o
wh y
Ġme at
Ġsub versive
oc used
ost er
Ġrem ote
Ġmat inee
Ġcont ext
Ġpe cul
Ġtra ppings
Ġ1 00
urn ing
Ġart if
Ġcr im
Ġob no
Ġcharacter izations
Ġhol low
Ġhol ocaust
Ġaw are
Ġgr asp
Ġcle an
Ġaf raid
Ġrel ies
Ġpret ension
Ġameric ans
ib al
Ġeng age
Ġbel ongs
Ġlaugh ing
Ġturn ing
Ġfin est
Ġir on
Ġform at
app ing
me aning
Ġdist ance
Ġpol ished
direct ed
Ġprod uc
Ġcra p
Ġmel anch
Ġmi xt
Ġmon sters
Ġsay ing
Ġtou ches
Ġ19 7
Ġhand s
att an
Ġhar ry
Ġstart ling
Ġsa ving
inc ent
Ġspirit ed
Ġsmart er
Ġpar able
Ġpar ody
Ġcomm itted
Ġadd s
Ġconf ron
Ġmiss ed
Ġinsp ire
Ġmen ace
Ġclic hed
Ġamb ition
Ġteen agers
Ġhel ps
ention ed
Ġhonest ly
Ġlar ger
Ġcut ting
Ġterrif ying
Ġstyl ized
Ġcal cul
Ġimport ance
rid a
Ġhope ful
Ġdisappoint ed
Ġsubst it
Ġunderstand s
Ġnight mare
Ġhop kins
Ġsym bol
Ġbring ing
Ġtechn ology
Ġgrand eur
Ġprovid ing
Ġimpro b
Ġsubtle ty
Ġsoph om
Ġfig ures
Ġcour t
Ġgod ard
gen er
Ġball istic
Ġphot ography
Ġear lier
Ġende avor
Ġrevel atory
aught er
Ġcontin ues
Ġ5 1
Ġtim ing
Ġcuri osity
Ġpredecess ors
Ġsuggest s
may be
Ġreward ing
Ġshad ow
Ġconst antly
Ġvict ims
Ġloc al
Ġinex plic
imag ine
hum an
Ġtick et
Ġcris p
Ġdistinct ive
Ġencou nter
Ġrelent less
Ġtransc ends
Ġdrug s
Ġinnoc ence
Ġpian ist
Ġeleg ant
Ġunintent ional
Ġansw ers
Ġplan et
Ġcompet ent
Ġsket ch
Ġundeni ably
Ġlangu age
Ġheartb reaking
Ġachieve ment
Ġplod ding
Ġenter prise
Ġsignific ant
cult ure
Ġble ak
talk ers
Ġaust in
Ġconscious ness
Ġproceed ings
Ġgrad ually
Ġdivers ion
Ġdys funct
americ an
Ġshakes peare
Ġstrict ly
Ġinco herent
Ġcontriv ances
Ġdevast ating
oft en
Ġwann abe
orig inal
orient ed
Ġinh ab
redict able
Ġtux edo
Ġze al
Ġjeal ousy
Ġmanh attan
spirit ed
Ġsatur day
Ġingred ients
Ġwhims ical
Ġalab ama
Ġdisbelie f
Ġmixt ure
b al
b ur
b ell
b row
c an
c ock
d ro
d em
e ffect
f r
f ar
f ree
g s
h is
h or
i ant
i ently
j ud
k ill
l ist
l ig
l oud
m akes
n est
o ch
o cc
p o
p ic
p aced
s ily
t a
t own
u nder
u rable
v an
v ity
w is
w ould
Ġt on
Ġt em
Ġt ap
Ġt aut
Ġa i
Ġa ch
in i
in n
in er
he y
he red
he rence
Ġs ar
Ġs ara
re y
Ġo d
Ġf und
Ġf izz
en er
Ġb ul
Ġb uddy
Ġc able
Ġc ath
Ġc iv
Ġc orn
Ġw ow
Ġw ils
or ter
Ġp y
Ġp ad
Ġp se
an z
Ġd ud
Ġd ies
Ġd rop
ar ante
Ġth ick
ly m
Ġh art
le ts
ic ation
ic ago
Ġin form
Ġin cons
Ġin nov
Ġl imp
Ġl ump
om p
Ġn om
Ġn ation
st op
st ep
st ract
st arts
Ġg ag
Ġg ory
Ġg imm
Ġis land
as ive
Ġst aged
Ġst ops
im er
Ġre view
ch o
et nam
ri dden
Ġfor ces
Ġsu it
Ġsu nd
ir ms
id ing
if ty
Ġch illy
Ġhe y
Ġj on
Ġj im
Ġj ag
um ents
um my
Ġse ve
ur ance
Ġex otic
Ġsh yamalan
Ġab andon
Ġab stract
Ġun ne
Ġun ner
Ġun bear
Ġsc rew
Ġcon vey
Ġcon sequ
pe cc
Ġk ill
Ġk ung
Ġk illed
Ġso ci
Ġso ggy
ap ur
for ward
Ġr it
Ġr ise
op ic
Ġact ual
ud o
Ġpre cise
Ġv incent
Ġper cept
Ġper verse
Ġor der
ack ed
Ġim age
Ġcl ub
Ġcl aust
man ship
Ġlo ves
ac c
Ġany where
Ġcomp aris
ile t
Ġro ots
ep ing
Ġover long
Ġdis miss
Ġdis covery
Ġdis gust
Ġoff ice
Ġsl ip
Ġfa ces
ense ly
Ġvi etnam
Ġgen res
Ġend less
Ġdram at
Ġseem ed
Ġseem ingly
ren ching
Ġher zog
ink ing
Ġunder stated
Ġfam ous
Ġshow time
Ġaw ard
Ġco ver
Ġco ck
Ġatt itude
Ġscen ery
ather s
get table
Ġter ribly
Ġgra phic
gg er
gg io
ib ilities
Ġbel ly
Ġknow ledge
Ġdep ict
Ġkid die
Ġcare fully
Ġel abor
Ġkeep ing
Ġshe l
Ġeffect ively
Ġir ish
ater al
Ġac ad
Ġpol ice
ane ke
Ġfri da
cess ary
Ġcar vey
str uction
Ġbit ing
Ġsch neider
Ġcult ures
Ġcre ation
Ġsuper b
Ġsil ence
Ġhapp iness
Ġchild hood
Ġgener ate
Ġwr ote
Ġwonder ing
Ġportra yal
que e
Ġstart ed
Ġexp ert
Ġpredict ably
Ġinter view
Ġbor row
Ġbor der
Ġfeature s
Ġpar ad
Ġsad ness
Ġunf olds
Ġunf ocused
Ġlead en
Ġsens ational
Ġuns atisf
Ġconv inc
Ġconv olut
Ġpot ent
Ġmiss es
Ġmaster ful
Ġred und
Ġda hmer
Ġsatisf y
vis ually
Ġadm it
Ġdramatic ally
Ġcred ible
Ġcred ibility
Ġsn ap
Ġbri ef
any one
Ġhero ine
Ġdrag s
Ġdiffere nce
rop ol
Ġdr um
Ġcut s
Ġmet ropol
Ġstyl istic
Ġreve al
Ġbrilli antly
Ġstun t
Ġwrit ers
ump kin
allow een
Ġwind ow
Ġstri ke
Ġje an
Ġang el
Ġrest ra
Ġexplo res
Ġexplo itation
Ġmad ness
Ġcor rect
Ġinst all
Ġinst inct
Ġshock ing
Ġvirt ues
Ġcond uct
Ġposs ess
Ġblood y
Ġimpro ve
Ġtest ament
Ġtheat re
Ġtheat rical
Ġfight ing
Ġcontem pl
Ġcop y
Ġdest ination
Ġexist ence
Ġexist ential
Ġinspir ational
Ġhy per
Ġ4 0
char ine
Ġshoot ing
Ġcelebr ates
Ġvar ious
Ġdeliver ing
Ġpal ma
Ġlim ited
Ġvivid ly
Ġpit ch
Ġcharism atic
Ġflash y
Ġwood y
Ġner ve
Ġforg ive
Ġnecess arily
Ġleg end
Ġdraw s
Ġ5 0
Ġgif t
Ġgif ted
Ġdang er
Ġconst ant
Ġvict im
Ġsac charine
Ġfra ilty
Ġescap ism
Ġest abl
Ġnu anced
Ġeth nic
Ġscr atch
Ġpri vate
Ġdom estic
Ġrelent lessly
Ġfright ening
sm art
Ġfreak s
Ġpian o
Ġimpl aus
Ġsmo oth
Ġapparent ly
Ġmagn ific
Ġunintent ionally
Ġobs ession
Ġped est
Ġnichol as
Ġprog ram
Ġcontra dict
dow ell
Ġfle et
Ġrand om
Ġhorrif ying
Ġsplend id
Ġremem bered
Ġlandsc ape
Ġbreatht aking
Ġcha otic
Ġunfl inching
Ġingen ious
Ġbree zy
Ġrend ered
beautiful ly
Ġtong ue
Ġath let
Ġade qu
Ġsag a
Ġcas ual
Ġeuro pe
Ġstu art
Ġupl ifting
Ġunimag inative
Ġintoxic ating
Ġindep endent
Ġenvi ron
Ġuncomp romising
Ġobno xious
Ġdysfunct ional
Ġinhab it
Ġfund ament
Ġwils on
Ġpse udo
Ġunne cessary
Ġclaust ro
1 9
a a
a im
a gh
a ul
a ude
a eff
b en
b es
b ro
b ig
b ust
b orn
b alls
c ity
d r
d an
e an
f in
f ire
f ell
f ans
f irst
f illing
g l
h alf
i j
i ated
l s
l om
l se
l ines
l uster
m ur
m atic
n ia
n atural
t is
u ght
u ation
u ated
u ber
v ol
v ous
w one
Ġt ro
Ġt att
Ġa ute
Ġa head
in ist
Ġs ne
Ġs ays
Ġs ink
Ġs eld
Ġo de
er v
er ge
Ġf o
Ġf ing
Ġf ake
Ġf ellow
is ive
Ġm am
at hing
Ġb ard
Ġb omb
Ġc gi
Ġc aine
Ġw ick
Ġw ound
Ġw ins
on el
Ġp age
Ġp atch
Ġp ays
Ġp hen
an ity
Ġd ut
Ġd ong
Ġd ying
Ġd roll
Ġd avis
ar ian
al le
al most
Ġh at
Ġh ann
Ġh alloween
ic a
Ġto dd
Ġto ler
Ġin fect
il ted
Ġl u
Ġl un
Ġl ower
om en
om nia
Ġn am
Ġn ap
st em
Ġe t
Ġe lect
Ġg y
Ġg li
ut ed
ent imental
as k
as ons
as ured
Ġst atic
Ġbe ast
Ġre el
Ġre ign
Ġre ject
ra w
ra el
the t
the w
ro b
ro vers
ul es
Ġfil ling
Ġan ch
et ime
et te
ol ic
se x
se em
Ġsu dden
id i
id el
id ence
if t
Ġch ab
Ġch oose
Ġch ills
Ġch ina
th ought
Ġhe ight
ab eth
un ky
un chy
Ġj an
Ġj ar
Ġj un
Ġj acqu
um es
Ġse par
Ġse mi
ur ban
Ġli ps
Ġex uber
Ġsh o
Ġsh r
Ġsh ip
Ġab use
Ġun rel
Ġun belie
Ġsc ale
Ġcon j
Ġcon co
ain ing
Ġk new
us ions
for med
Ġchar lie
Ġr ound
Ġr ules
ind s
Ġpre v
Ġv it
Ġv ast
Ġv ap
Ġv int
Ġv ital
Ġsp ont
Ġper pet
pt ion
Ġim itation
Ġim pecc
Ġcl in
Ġcl unk
pl aced
Ġman n
Ġman aged
Ġam y
Ġam use
Ġqu e
Ġtr ust
Ġno ble
Ġar rest
og y
per haps
Ġad v
Ġsome body
Ġany way
nt own
oy an
Ġent ry
Ġro se
Ġro hmer
iz abeth
Ġem ploy
Ġem erge
Ġdis jointed
int entioned
Ġme ant
Ġme ets
Ġme asure
Ġsub pl
Ġlook ed
oc ity
ost or
Ġnever theless
ress es
ph ob
Ġser ial
sh ow
Ġsee king
Ġher self
Ġmat ure
Ġentertain ed
Ġcont rovers
Ġag gressive
Ġtra pped
Ġplot ted
ath an
Ġart s
Ġcr ud
Ġche ese
Ġthrill ers
mer ing
Ġwar ning
aw are
Ġco herent
Ġlau g
con f
Ġgra b
Ġcol ors
Ġap pl
Ġca res
Ġgu arante
Ġlack luster
av ish
Ġgl o
Ġgl or
Ġgl ory
Ġel izabeth
Ġext ended
Ġir ony
Ġbu oyant
Ġref uses
ane ously
Ġho ot
Ġprod uce
Ġexper iment
Ġsol aris
Ġyoung er
Ġdeli ber
Ġmon ot
Ġmind s
Ġtou ched
Ġdid actic
Ġhand ful
Ġdark ly
Ġhar rowing
Ġinter n
Ġstra in
Ġbra nd
pro of
Ġbo om
Ġpar ade
Ġpar ano
Ġuns entimental
Ġret ro
Ġret urns
Ġengag ed
Ġsy stem
wor ld
Ġwild er
Ġpat ient
Ġquir ks
Ġtrans l
Ġste am
Ġsim ilar
Ġsim plic
Ġsubt ly
Ġdelight fully
Ġbri d
Ġodd s
Ġread y
Ġdead ly
Ġdead pan
Ġill ustr
Ġmyster ies
Ġpsycholog y
reme ly
bl own
Ġhit ch
Ġrich ly
Ġfoll ows
Ġsuff ering
urp ris
Ġdog s
Ġspe aks
Ġden ying
Ġsubst antial
Ġ8 0
Ġhop ing
Ġlif etime
Ġlet ting
ien ced
Ġexecut ed
Ġtop ic
Ġnone theless
Ġmedi um
Ġver ve
Ġdelic ious
over all
Ġbus y
Ġjoy ous
Ġer r
Ġphil ip
Ġfight s
Ġdesper ation
Ġlist less
Ġpresent ed
Ġinspir ation
Ġcrit ical
Ġcrit ics
Ġhaun ted
Ġamount s
Ġenth r
Ġbuild ing
Ġthrow s
Ġcomplic ations
Ġopport un
Ġavoid s
aff irming
Ġchalleng es
Ġconcer n
Ġclum sily
Ġloc ations
Ġcostum e
Ġbrut ally
somet hing
Ġcris is
Ġphilos op
Ġrent al
sequ ential
Ġunc ertain
Ġsett les
erson al
Ġtrash y
Ġsurround ing
Ġscreenwrit ers
Ġguess ing
worth y
Ġenthusi asm
hol lywood
Ġchang ing
Ġundeni able
Ġhall mark
Ġarri ves
Ġconsid ering
Ġopt im
Ġpra ise
Ġdiv ine
Ġruss ian
suff ers
Ġresem bles
Ġsco res
Ġdisp os
Ġphys ical
Ġic on
Ġnick leby
Ġger man
Ġasp ir
Ġbenef it
Ġexploit ative
rehens ible
Ġhay nes
Ġsober ing
Ġgloss y
Ġtrem end
Ġsan ct
Ġsister hood
Ġcate gory
Ġintegr ity
Ġbaff ling
Ġric her
Ġminim al
Ġirres ist
Ġrefere nces
Ġmou th
Ġscatt ered
Ġclo oney
Ġafric an
Ġsatir ical
Ġinev itable
Ġdeterm ination
Ġfanc iful
Ġbour ne
Ġintric ate
Ġpecul iar
Ġgimm ick
Ġunner ving
Ġcomparis on
Ġelabor ate
Ġeurope an
Ġenviron ment
Ġclaustro phob
aeff er
lse a
Ġphen omen
Ġnam ed
Ġvint age
Ġspont ane
Ġimpecc able
Ġsimplic ity
a ver
b um
b ound
b ted
b acks
c ar
c il
c ould
c ertain
c ute
c ount
e e
e gger
f an
f all
f aced
g n
g id
g ant
g od
i ro
i ers
i able
i ating
k et
k ind
l an
m or
m ember
n air
o ved
p ass
p ower
r ity
s a
s ad
s weet
t ar
t un
t ake
t akes
v incing
w a
z zy
Ġ 6
Ġ q
Ġt out
Ġt ast
Ġt ies
Ġt ang
Ġt read
Ġt ask
Ġa es
Ġa pt
Ġa we
Ġa ims
in is
in feld
he avy
Ġs ke
re c
re f
re nd
Ġo h
er ie
it z
Ġf ence
Ġf ict
Ġf red
Ġf aster
Ġf ancy
is o
is se
en ingly
Ġm cc
at ur
at ile
Ġb on
Ġb ot
Ġb one
Ġb irthday
Ġc y
Ġc ad
Ġc ere
Ġc aught
Ġw et
Ġw id
on ed
ou bted
Ġp or
Ġp orn
Ġd ad
Ġd ust
Ġd are
Ġd ign
Ġd oll
ar ching
Ġth orn
Ġth rown
Ġh ust
le ck
Ġin sec
ed ies
Ġl ater
Ġl amp
Ġl onel
st ac
Ġe ager
Ġg le
Ġg oth
Ġg igg
Ġis rael
el son
Ġmo th
Ġmo ld
Ġmo ved
Ġmo ody
as hes
as ionally
ot ion
Ġst im
Ġst ro
Ġst ag
Ġst ore
Ġst ilted
im ony
Ġbe ach
vi al
Ġre li
Ġre asons
ra h
ra ging
Ġas ian
ri um
ol ly
Ġfor th
Ġbut ter
Ġwh ale
Ġwh oles
oo chy
Ġsu ited
ir ot
id t
Ġch ore
Ġch iller
Ġch oppy
Ġch ases
am i
Ġhe at
un like
Ġj ane
ag and
Ġse pt
em ic
em ark
Ġen h
ur ous
Ġex agger
ak i
Ġsh im
Ġsh ines
qu iet
Ġnot e
Ġdo pe
Ġdo ses
ant er
Ġun ful
Ġun original
Ġne igh
Ġsc ooby
Ġcon ven
Ġk os
Ġk ah
Ġk enn
us hing
Ġchar mer
Ġpro vo
Ġr ings
Ġr ote
Ġr ousing
op ath
Ġle gged
Ġv el
Ġor gan
pt on
Ġout standing
Ġam id
Ġqu art
Ġtr icks
Ġlo yal
Ġwe ep
Ġwe eks
ac ino
Ġfl es
Ġad ams
Ġad vant
Ġgood fell
od ic
Ġcomp rom
Ġcan nes
Ġpo ol
Ġbl ast
Ġbl ind
Ġbl ues
Ġbl ank
ep id
ult aneously
Ġdis cer
Ġdis cover
ound ing
Ġsl og
ish ment
ip es
Ġra cial
Ġra unchy
Ġme et
Ġri pe
atic ally
Ġend lessly
ress ion
Ġbr uce
Ġte ch
Ġsm oochy
Ġser ve
Ġcont ains
Ġpe ek
erest ing
Ġunder cut
Ġlong ing
Ġpart ly
Ġpart icip
Ġyear ning
Ġart icul
Ġjo e
Ġres olutely
Ġcharacter ization
Ġche w
Ġche lsea
Ġins ane
Ġvis it
Ġgr at
Ġgi b
te ch
Ġcle tis
Ġtri ed
Ġtri angle
con struct
Ġhumor less
get s
umb les
iss ion
Ġless er
gg ing
Ġdocument aries
Ġplay ers
Ġbel ow
Ġlaugh able
Ġapp ly
Ġapp et
Ġmess y
Ġpr inc
Ġcare ful
Ġind ulgent
Ġult ra
Ġpleas ing
Ġdra b
Ġsk ip
Ġir onic
Ġrep ut
Ġmar ginal
Ġexpl ore
Ġdec ided
Ġeas ier
Ġ2 1
Ġcar ry
Ġrun ner
Ġed die
Ġsch war
Ġsuper bly
Ġsuper natural
Ġsil ver
Ġbro s
Ġhapp ening
Ġhalf way
Ġsw allow
Ġdem ographic
Ġportra ys
Ġsweet ness
Ġz hang
Ġhar sh
Ġhar ris
Ġele v
Ġinter pret
Ġclever ness
Ġlight weight
Ġdef e
Ġsmart ly
Ġbo b
Ġbar rel
Ġund is
Ġlead ing
Ġconv ict
Ġpot ter
arent ly
Ġday time
Ġmaster fully
Ġred empt
Ġhead s
Ġbeh old
Ġtrag edies
Ġfact or
opp ing
Ġtrans form
Ġacc ent
Ġste ad
uri d
Ġsubt it
Ġmis erable
Ġproblem atic
Ġtreat s
Ġbas ically
Ġbri de
Ġhero es
Ġadvent ures
Ġdrag ons
Ġwa ve
Ġant wone
Ġcomed ian
Ġmyster ious
bl ood
Ġclose ly
het to
Ġsoul s
Ġwind talkers
Ġstri kes
ett es
Ġjack ie
Ġur gen
Ġspe ars
Ġexcept ional
Ġexcept ionally
Ġfour th
Ġstraight forward
Ġcor ny
Ġcor ner
Ġcart oons
Ġpay off
Ġder rida
Ġinst antly
Ġnight s
gra de
Ġhop ed
Ġsym pathetic
Ġaut o
Ġhu gh
Ġhu ppert
Ġmoment um
Ġtechn ique
Ġtar antino
Ġcond esc
Ġfoc used
Ġdelic ately
Ġbrit ney
Ġweird ly
Ġdepth s
Ġtrad emark
gi ven
Ġer otic
Ġunp redictable
Ġremind er
Ġcoll abor
Ġtele gra
Ġdest r
Ġdest ined
Ġlist en
Ġintim acy
Ġprop agand
Ġphot ographed
Ġpresent ation
char act
Ġrespect able
Ġattract ive
Ġcelebr ation
Ġ3 00
Ġess ence
Ġmer it
Ġhea vi
Ġkn own
Ġvo ices
Ġvar iety
Ġwood en
Ġempt iness
Ġtim eless
Ġmart ial
Ġcuri ous
Ġreward s
Ġmoviego ing
Ġsav vy
Ġshad ows
Ġbi opic
Ġya wn
zen egger
Ġcyn icism
Ġgre y
Ġcomfort able
Ġwat ched
Ġtravel er
Ġmarvel ous
Ġdemonstr ates
Ġtransc end
Ġhyp not
uls ive
Ġchang es
thr ough
thr iller
Ġobserv ation
Ġscream ing
Ġponder ous
Ġheartb reak
Ġmaint ains
Ġmult ip
esc ap
Ġnichol son
Ġshap eless
Ġuncon vincing
Ġdescri be
Ġpract ically
Ġliber al
Ġsco pe
Ġarg ent
Ġrecogn ize
Ġschm alt
Ġschm idt
mar ine
Ġauth or
Ġmiche l
Ġpus hes
Ġshowc ase
Ġshowc ases
Ġpositive ly
Ġtort ured
abs or
Ġexquis ite
Ġconvers ations
plo itation
bas ed
del i
vil le
Ġbuff s
Ġdread ful
Ġkore an
Ġsole mn
Ġdemand ing
kn own
Ġbart leby
Ġeast wood
Ġdish on
Ġappropri ate
Ġsold iers
Ġanth ony
Ġrelig ious
Ġbroom field
Ġintermitt ently
Ġassass in
craft ed
Ġwra pped
Ġdv d
Ġincon sequential
stopp ers
Ġunabashed ly
Ġconc ert
Ġspir its
Ġartif ice
Ġmelanch oly
Ġconfron t
Ġimprob able
Ġsophom oric
occ asionally
Ġdies el
Ġrit chie
Ġshel f
Ġacad emy
Ġconvolut ed
Ġmetropol is
Ġinstall ment
Ġimplaus ible
Ġmagnific ent
Ġpedest rian
mur der
Ġchab rol
Ġvit ality
Ġvap id
Ġhitch cock
Ġenthr alling
Ġdispos able
Ġclaustrophob ic
Ġdign ity
Ġneigh bor
Ġgoodfell as
Ġschwar zenegger
Ġurgen cy
Ġpropagand a
a verage
b b
b u
b ang
c ast
c ue
d s
d ed
d ra
d est
d ry
d ish
d avis
d aughter
e er
e ach
f ly
f act
f ace
g al
g ent
g reat
h ill
h ilar
i qu
i us
i os
i ac
j am
j ack
j insky
j erk
k um
k ids
l ers
l ittle
l ingly
m m
m at
n ch
o x
o z
p r
p ion
p her
p ole
p acked
r ating
r ang
r uc
r ates
s is
s pl
s imp
s ized
t i
t ick
t ale
u ge
w an
w all
w ild
w renching
z ed
z el
Ġ eric
Ġ \*\*
Ġt able
Ġt ends
Ġt ug
Ġt ax
Ġt amb
Ġt iny
Ġt epid
in able
he st
he imer
Ġs ab
Ġs ard
Ġs ie
Ġs inks
Ġs quee
re g
re ck
Ġo w
Ġo ps
Ġo ught
it a
it ial
it ect
Ġf i
Ġf et
Ġf ame
Ġf its
Ġf uri
Ġf oul
en stein
en cies
Ġm ud
Ġm ary
Ġm uddled
at ors
at ives
Ġb er
Ġb anter
Ġc her
Ġc age
Ġc utes
Ġc arn
Ġw w
Ġw ither
Ġw alls
Ġw ishing
es is
es se
nd ane
on ous
Ġp au
Ġp ale
Ġp ush
Ġp lym
an gh
Ġd ed
Ġd um
Ġand erson
Ġh ing
Ġh an
Ġh itting
Ġh aneke
ic it
ic ient
Ġto wn
Ġto sc
Ġto ilet
Ġin ject
il ot
Ġl ion
Ġl ends
Ġl ush
Ġl avish
Ġl urid
om y
Ġn ic
Ġn ut
st ing
st age
Ġe at
Ġe ve
Ġe go
Ġe cks
Ġg id
Ġg all
Ġg az
Ġg ently
Ġg hetto
Ġmo on
ent er
ent ertain
as er
as ing
as ide
Ġst o
Ġst er
Ġst one
Ġst icks
im on
im ming
Ġbe gu
vi gor
Ġre ce
Ġre un
Ġre placed
ul ate
ul arly
ul ner
ch ild
Ġan ime
Ġan gu
Ġan ger
et y
ol f
ad pole
Ġfor d
Ġfor mer
ess ed
Ġwh olly
oo s
Ġsu p
Ġsu s
ir ts
id den
if er
if orm
Ġch ou
Ġch ate
Ġch ap
Ġch os
Ġch amp
Ġch ances
Ġch icago
th ink
th anks
Ġal bum
Ġhe n
Ġj ump
Ġj umble
um mer
Ġse infeld
Ġen light
ur t
ur ity
ist ed
ist ers
ist oc
Ġsh ape
qu ite
Ġab b
Ġab und
Ġnot es
Ġnot orious
Ġha st
Ġha wn
Ġha ph
Ġdo or
Ġde als
Ġde eds
est er
est yle
Ġun able
Ġun iform
Ġsc or
Ġcon cent
pe z
ell a
ell er
Ġk a
Ġk ath
Ġk line
Ġk apur
ig o
us al
ap pe
for ms
Ġpro spect
Ġr um
Ġr ice
Ġr ug
Ġr anks
op ers
Ġpl ight
Ġfe et
Ġfe athers
ven ile
Ġle an
Ġle ar
Ġle ct
os yn
Ġv ic
Ġv oy
Ġsp r
Ġsp ots
Ġsp aces
ard ed
ard ot
Ġim plic
Ġcl ue
Ġcl ause
Ġcl unky
pl es
pl ess
Ġout ing
res ents
man n
Ġlo pez
ick ing
de ad
Ġar d
Ġar istoc
Ġwe b
Ġwe ar
Ġfl or
Ġfl our
Ġfl imsy
Ġad vice
od ing
Ġany body
Ġmu ndane
Ġcomp ens
Ġcomp osed
Ġover st
Ġover blown
Ġoff end
ear nest
ens ical
wh ite
wh atever
Ġfeel ings
Ġra in
Ġra ises
Ġme asured
ness es
Ġfa iled
Ġsub l
Ġsub culture
Ġsub marine
ne ither
sp oon
oc ation
Ġevery day
Ġgen ial
Ġend ure
Ġdram as
Ġbr uck
Ġte eth
Ġseem ing
Ġrem inis
ber ry
Ġser ving
sh ad
Ġnew com
ren al
Ġmat thew
li kable
Ġag ing
Ġtra v
Ġtra in
Ġtra ck
Ġtra iler
Ġ1 3
gin s
Ġaud acious
Ġunder min
Ġunder cover
Ġunder lying
Ġart fully
Ġmy st
Ġjo an
Ġres our
Ġshould ers
Ġcr uc
Ġgreat er
Ġob lig
Ġcast ro
imp ort
Ġche st
aw ay
Ġgr ind
Ġgr ating
Ġco vers
Ġco hes
Ġhard er
Ġdown er
Ġdown beat
umb o
Ġter m
Ġgra de
Ġcol umb
Ġaf lo
Ġkind a
ock ing
Ġfr ance
Ġfr antic
ature s
ower ment
Ġrec o
Ġrec reat
Ġpret ends
Ġpret ensions
Ġgu ilt
ib rium
iff le
iff ere
Ġbel t
not ch
Ġwant ing
Ġpoint ed
az ard
Ġgl orious
Ġexc ruc
Ġdep end
Ġdep ends
Ġinc isive
Ġpr ime
Ġpr oud
Ġind ic
Ġind ulg
Ġpleas urable
Ġsk ate
ts ai
Ġcreat ure
Ġrep lete
Ġswe pt
Ġbu ried
Ġac comp
Ġdist aste
olog ically
Ġref uge
Ġdec ide
Ġdec ade
Ġes ther
Ġspec if
Ġspec ific
Ġho le
Ġho kum
Ġcons um
Ġcons erv
Ġev ans
Ġmor ning
Ġed ited
Ġed ges
Ġsch aeffer
Ġour selves
Ġcre w
xt on
Ġsil ent
Ġstud ent
Ġ19 70
Ġ19 60
co ol
Ġdem ons
Ġdem ented
Ġdark er
Ġwit less
Ġexp ense
Ġexp osition
Ġeffort lessly
ogra pher
Ġmed ia
Ġclever ly
Ġsa ved
Ġma x
br al
Ġhon or
Ġsad ly
Ġund oubted
Ġsens es
Ġsens ibility
Ġcapt uring
Ġexpect ation
Ġconf used
Ġconf ident
Ġass oc
ows ki
ird s
ograph ical
ific ation
opp ed
opp ola
Ġacc ents
Ġprom ises
Ġpast iche
Ġrob in
uri es
Ġadm ission
Ġdelight s
Ġsolid ly
Ġsing ing
Ġsing les
Ġsn appy
Ġfine ly
Ġbas is
Ġval uable
gr ath
mo ving
ser ious
ugg ish
Ġill umin
Ġdr ink
Ġcontri but
Ġve in
Ġsupp ort
cent ury
Ġproject s
velop ed
Ġbrilli ance
Ġsoul ful
Ġsoul less
Ġhilar ity
Ġlat ter
Ġpassion ate
Ġreg ret
Ġinf uri
Ġur ge
Ġang ry
Ġang els
Ġspe ak
Ġcap acity
Ġoccas ional
rid an
Ġdisappoint ment
gra nd
Ġopp ressive
Ġlif estyle
Ġcomb at
Ġcomb ined
Ġshock s
Ġlet ter
ung ry
Ġdevelop s
Ġdevelop ed
war m
Ġsust ains
Ġearnest ness
Ġliter ate
Ġbreak s
Ġcho ice
Ġstupid ity
Ġforce ful
semble d
Ġni jinsky
Ġgang s
Ġobser vant
rew d
Ġepis odes
Ġhy pe
Ġlab ored
Ġ10 1
gue z
Ġtyp es
Ġhot el
Ġabsurd ist
Ġabsurd ity
Ġcelebr ity
Ġ3 0
Ġsteven son
Ġbuild s
Ġmeaning ful
Ġmeaning less
Ġmedioc rity
Ġnatural istic
Ġconnect ions
Ġrevel ation
agg y
Ġstrugg ling
Ġpul se
col i
Ġfol k
Ġcuri ously
Ġju venile
Ġminor ity
Ġsor ry
Ġunus ually
Ġprim arily
Ġidi osyn
Ġstruct ured
inoc he
Ġfavor ite
Ġaim ed
Ġnu ance
Ġwat ers
Ġdemonstr ate
Ġinnoc ent
cr atic
Ġbog us
Ġwest ern
Ġwall ace
Ġdisc uss
rap y
Ġansw er
Ġobject ive
Ġsket chy
jo ke
Ġune asy
Ġunfor ced
Ġunfor gettable
Ġservice able
Ġaccept able
Ġconsid ered
Ġstret ched
Ġneg lect
Ġarch itect
dri guez
Ġjer ry
Ġemp ire
Ġemp owerment
Ġemphas izes
girl s
Ġauth ority
Ġgar b
Ġchuck les
Ġalle gory
Ġvol atile
Ġinsult ing
prod uced
Ġdynam ic
mak ers
Ġfu zzy
Ġfab ric
Ġexquis itely
Ġdecept ively
Ġconsp ira
Ġqual ities
Ġmechan ical
Ġeduc ational
Ġmira cle
Ġhig her
Ġrecyc led
Ġambig uity
Ġexhaust ing
bble d
fri end
Ġthous ands
Ġelo quent
Ġfantas ies
Ġjew ish
Ġrespons ible
Ġtay lor
Ġcu be
Ġhun ter
Ġeg oyan
Ġevid ence
Ġstat us
Ġclot hes
Ġaccur ate
Ġextravag anz
Ġroller ball
Ġuncomfort ably
tri p
Ġgos ling
Ġali ens
Ġenorm ous
Ġexceed ingly
Ġclock stoppers
Ġremote ly
Ġproduc ers
Ġsar andon
Ġbul lets
Ġhart ley
Ġnom ination
Ġjag lom
Ġconsequ ences
Ġprecise ly
Ġexpert ly
Ġparad iso
Ġunsatisf ying
Ġconvinc ed
Ġredund ant
Ġtro opers
Ġmam et
Ġwick edly
Ġhann ibal
Ġinfect ious
Ġgli b
idel ity
Ġclunk er
Ġaggressive ly
Ġlaug hed
Ġmonot onous
Ġphilosop hy
Ġaspir ations
Ġtremend ous
Ġirresist ible
Ġtast eless
Ġaes thet
Ġcere bral
Ġlamp oon
Ġlonel iness
stac les
Ġmoth man
Ġconven ient
Ġkah lo
Ġadvant age
Ġtech no
Ġprinc ip
Ġredempt ion
Ġheavi ly
Ġplym pton
angh ai
Ġtosc a
Ġbegu iling
Ġchos en
Ġhaph azard
Ġuniform ly
Ġaflo at
Ġconserv ative
a ult
a ffect
a que
b ul
b est
b ert
b og
b rit
b uck
b aked
b room
c a
c re
c ur
c all
c ard
c ong
c ross
c amp
c oll
c ient
d ist
d one
d ark
d ition
e fully
f s
f ast
f ig
f red
f ails
f isted
g ain
g reen
g ian
h at
h an
h art
i i
i at
i antly
j e
j ones
k h
k now
l ar
l ich
l uc
l acks
l asting
m aster
n ings
n umb
o e
o h
o es
o id
p rom
p ie
p arts
r ation
r ich
r ote
s im
s oph
s uch
s ided
s atisf
t w
t ical
t urn
t any
u v
u le
u eless
u fact
v ino
w are
w ater
w illi
w itty
w itted
x ual
y ac
y az
z es
Ġ ut
Ġt ab
Ġt um
Ġt art
Ġt iss
Ġt ail
Ġt ones
Ġa ck
Ġa ug
in ent
in ous
in ian
in ner
in arily
he cies
Ġs ake
Ġs its
Ġs ane
Ġs ord
Ġs izz
Ġs isters
re ign
re ction
Ġo k
er al
er cial
it o
it or
it ative
it ivity
Ġthe rapy
Ġf ro
Ġf ond
Ġf ix
Ġf irm
is i
is k
en ough
Ġm our
Ġm ish
Ġm ull
Ġm ars
Ġm ired
Ġm alk
Ġm tv
Ġm uted
Ġb a
Ġb are
Ġb read
Ġb io
Ġb ank
Ġb ump
Ġc ul
Ġc ook
Ġw ake
Ġw end
Ġw oll
Ġw reck
es ome
ou ge
ou fl
Ġp ill
an th
an ny
Ġd ot
Ġd ro
Ġd ow
Ġd ass
Ġd aw
ar at
ar se
ar ious
ar ound
al ia
Ġth om
Ġth umbs
Ġh al
Ġh und
Ġh osp
Ġh anks
Ġh ipp
Ġh idden
le igh
ic ion
Ġto ol
Ġto oth
Ġto back
Ġin ert
ed om
ed ek
il arly
il ibrium
Ġl ou
Ġl ust
Ġl ark
Ġl ull
Ġl apses
om ercial
Ġn et
Ġn um
Ġn ine
Ġn ail
Ġn elson
st ars
st even
Ġe ffic
Ġg a
Ġg el
Ġg rew
Ġg asp
Ġis olation
ut ion
el ing
el led
Ġmo b
Ġmo l
ent h
Ġst ing
Ġst if
Ġst ation
Ġst ink
Ġst ream
Ġst alk
im ents
Ġbe ar
Ġre n
Ġre in
Ġre act
Ġre con
Ġre hash
ra bly
the ir
ro ads
ul ating
ul ated
ul oid
ch ang
ch ool
Ġan om
Ġan ach
Ġan arch
Ġas sem
Ġas sembled
ol ent
ow ing
ow ed
ad a
ad ing
ad vent
ess end
ess ica
Ġbut t
id edly
if est
Ġch ur
Ġch ord
Ġch ai
Ġch ief
am ber
am iliar
Ġal together
Ġhe w
Ġj udd
Ġj agger
Ġj essica
ag ing
um st
Ġse ats
ck ay
ous es
ous ness
em esis
Ġen chant
ur rection
Ġint act
Ġli z
ak able
ist o
ist erous
Ġsh out
Ġsh ine
Ġsh rewd
Ġsh aggy
qu er
Ġdo se
Ġde ar
est y
Ġun m
Ġun comm
Ġun likable
Ġne o
Ġne il
Ġsc re
Ġsc ares
Ġcon struction
Ġwor n
Ġk in
Ġk ne
Ġk icks
ig ree
us hed
ap ing
Ġchar ged
Ġr ating
Ġr ank
Ġr ude
Ġr ising
Ġpl at
Ġfe ast
ter ing
Ġle igh
Ġv ac
Ġv ulner
Ġsp ort
Ġsp ice
Ġsp read
pt uous
Ġcl own
pp y
Ġout s
Ġout er
Ġout come
end es
man y
Ġfun eral
Ġman ners
Ġman ufact
Ġman ifest
Ġam iable
ort ions
Ġlo ck
de ep
ict ment
Ġno body
Ġup s
Ġar c
Ġar th
Ġar gue
Ġwe igh
Ġwe aring
Ġfl amb
Ġfl avor
per or
Ġwill is
Ġad dict
Ġad renal
od ge
com ings
Ġmu se
Ġcomp an
Ġent r
Ġbl at
Ġbl ur
Ġbl own
Ġbl ame
ep ed
Ġover t
Ġperfor med
Ġem peror
Ġdis ar
Ġdis int
Ġdis quiet
nder ing
ark er
Ġbet tany
int s
Ġsl o
atch able
Ġwell s
Ġra c
Ġra y
Ġra ise
Ġme al
Ġme xic
Ġfa ult
Ġri val
sp ielberg
Ġgo al
Ġimp ul
Ġtal ky
Ġgen ius
Ġbr isk
Ġsm acks
Ġsm iles
so on
sh ould
sh all
sh ine
ren ched
Ġcont est
Ġpe ace
Ġag ent
ach t
ign ant
Ġ1 8
Ġpart ners
Ġrom an
Ġart ful
Ġart sy
Ġres cue
inem atic
ism o
ash y
sc ale
Ġcr ane
Ġcharacter istic
ian e
Ġhol m
imp s
Ġshow er
Ġaw fully
Ġwar ri
Ġins uff
Ġins anity
aw k
Ġke en
Ġke pt
Ġco ff
Ġco de
Ġco bbled
Ġatt al
te i
ript ion
Ġfar c
Ġfar rel
Ġgra c
Ġgra vity
Ġless ons
Ġrel ate
Ġrel ax
Ġenjoy s
Ġenjoy ably
most ly
Ġever lasting
ib les
Ġplay er
not e
vid es
Ġcharm less
Ġapp alling
Ġgl um
Ġfew er
Ġkid man
uff y
Ġinc ess
Ġinc arn
Ġinc ident
Ġind iffere
Ġind ictment
Ġel usive
Ġhigh light
Ġph one
Ġswe eping
Ġbu cks
arn ed
Ġsin cer
Ġsin ister
Ġmar quis
fl ick
no on
Ġac qu
Ġexpl an
Ġref lection
Ġref usal
Ġdec idedly
Ġsurpris ed
ane k
Ġafter noon
Ġho key
Ġeas e
Ġcar l
Ġcar p
Ġcar ing
Ġcar ried
Ġcar men
Ġev ol
Ġexper ienced
Ġmor ally
Ġmor vern
Ġed gy
ste aling
Ġpass ing
Ġpass es
Ġmon ument
Ġmon soon
Ġclass ics
Ġbro oding
Ġhapp ily
Ġdet ached
Ġgener ous
Ġ19 3
Ġhand le
Ġhand led
play ing
Ġtit les
Ġdem oc
Ġbelie ving
Ġsweet ly
Ġabs olute
Ġz ero
Ġpain ts
Ġexp os
Ġexp ressive
Ġpredict ability
Ġfamil ial
Ġdef ies
Ġdef ines
inc ible
Ġey re
Ġstra ins
Ġstra ined
Ġperfect ion
Ġbo at
Ġbo asts
Ġund one
Ġund ert
Ġunf old
Ġunf amiliar
Ġcapt ured
Ġshort comings
Ġconv ince
Ġmid night
Ġconf irms
Ġconf idence
Ġprof ile
Ġred uces
Ġstrong ly
Ġop aque
Ġhead y
wor king
Ġvers us
Ġvers ions
Ġmag ical
Ġda res
Ġamb itions
Ġsatisf ies
Ġpolit ically
Ġdam aged
Ġfamiliar ity
Ġste als
Ġste aling
Ġste eped
Ġsim ultaneously
Ġsim ilarly
Ġfresh ness
Ġmur ky
Ġpun ct
Ġmis ery
Ġnor m
ail ing
ron istic
Ġben jam
Ġbri an
Ġcam oufl
Ġadvent urous
Ġant on
Ġant id
Ġant ics
Ġpsycholog ically
Ġve ers
Ġve ter
und lich
Ġmet h
Ġinvol ve
bl ue
Ġmot ions
Ġpa xton
Ġinf ant
Ġinf omercial
Ġdev ices
Ġsecond s
Ġhelp ed
how ever
Ġexcept ion
Ġfre eman
Ġfre edom
ah l
Ġaff leck
Ġexam ines
Ġdisappoint ingly
Ġpersonal ities
Ġpay ing
Ġopp os
Ġhop es
por ate
Ġsle eve
Ġbal anced
Ġposs ibility
Ġdri vel
Ġfollow ed
Ġver bal
Ġcur ves
Ġland mark
Ġunex pl
Ġroll ing
ats i
Ġbreak through
Ġjoy less
Ġpure ly
Ġgorge ously
Ġchrist op
Ġremind ed
Ġcoll ision
Ġcoll ateral
Ġrobert o
Ġbur ger
Ġbur sts
Ġinvent ion
Ġball ot
Ġprop hecies
Ġreson ate
Ġdepress ed
Ġphot o
Ġcartoon ish
che ek
mark able
Ġsqu are
Ġsqu arely
Ġpull ing
ov an
Ġly ric
Ġcrit ic
Ġgrace ful
Ġfrustr ation
Ġincl ude
Ġcraft s
Ġweak nesses
Ġskill s
Ġconflict ed
Ġthrow ing
Ġhom es
Ġgreen e
Ġconnect ion
Ġkiss ing
Ġvar iation
Ġlim it
Ġrevel ations
Ġamaz ingly
Ġmetaph ors
Ġunexpect edly
Ġram bling
Ġpit falls
Ġspark ling
Ġfrank ly
Ġdistur b
Ġpul led
Ġleg al
Ġfall ing
Ġdan iel
Ġmove ments
Ġimm ensely
Ġimpress ed
Ġprot ect
Ġhuge ly
tr ue
Ġsor row
Ġsor ority
Ġbre aking
Ġstep hen
Ġreward ed
Ġatmosp her
Ġdiver se
Ġwalk ed
Ġrequ ire
Ġtur key
Ġcand id
Ġdre ck
Ġescap ist
cons ider
Ġrecord ing
Ġinclud es
Ġcirc uit
Ġcirc umst
Ġghost s
put ed
Ġdom in
Ġnons ensical
Ġencou raging
Ġunc anny
Ġincred ible
sm ith
Ġhyp oc
uls ion
uls ively
Ġimpl ies
Ġsurvi ve
Ġproduct ions
Ġenthusi astic
Ġtransp orter
ole on
Ġign ore
Ġcry stal
Ġpen et
Ġdu ke
Ġfill s
Ġallow ed
Ġroot ing
Ġstereotyp ical
jo hn
Ġmc grath
Ġped igree
Ġalien ation
Ġarri ve
Ġterror ist
Ġmaint ain
Ġdragon fly
pet ek
Ġmas k
Ġmill ion
Ġmult i
Ġlay ers
Ġstret ches
Ġaltern ative
Ġaltern ately
Ġuncon vent
Ġconce it
Ġvan ity
Ġswim fan
Ġdescri bed
dow ntown
high ly
Ġtoss ed
Ġsham elessly
dep rec
Ġarg uments
Ġsecret ary
Ġtack les
Ġsed uctive
Ġbod ies
Ġchuck le
Ġalle ged
Ġclim actic
Ġoverwhel ming
Ġ195 0
Ġembra ces
mak er
pleas er
Ġcell uloid
Ġqual ify
Ġmechan ics
Ġeduc ation
Ġmotiv ations
Ġastonishing ly
Ġment ally
atter ing
Ġhig hest
Ġlos ing
Ġstrang ers
Ġexplos ions
Ġambig uous
Ġindividual s
Ġbou n
Ġbol lywood
Ġwis dom
Ġthous and
Ġling ering
Ġyouth ful
Ġsucc umbs
Ġobsc ure
Ġdepart ure
Ġevo ke
Ġinflu ence
fam iliar
Ġav ary
Ġchron icle
Ġheal th
Ġenig ma
Ġenig matic
udge on
Ġflu id
Ġvide os
Ġrepeated ly
Ġredeem ing
Ġoli ver
Ġmisf ire
Ġbase ball
Ġdub ious
Ġconve ying
Ġproper ly
Ġthank fully
Ġiron ically
Ġcalcul ated
Ġsubstit ute
Ġinexplic able
effect s
Ġach ingly
Ġciv il
Ġincons istent
Ġsund ance
Ġsnap shot
Ġrestra ined
Ġinstinct s
Ġlegend ary
Ġfleet ing
Ġathlet es
Ġadequ ate
dr unk
dan ovich
Ġfo ibles
Ġnap oleon
Ġunrel ent
Ġunbelie vable
Ġque ens
Ġsubpl ots
Ġcontrovers y
Ġintern ational
Ġparano ia
Ġtransl ation
Ġbrid ge
Ġopportun ities
Ġminimal ist
Ġspontane ity
Ġfict ional
Ġthorn berry
Ġwholes ome
Ġexagger ated
Ġvel ocity
Ġquart er
construct ed
Ġreput ation
Ġundis puted
Ġtransform ation
Ġsubtit les
Ġtelegra phed
charact er
Ġhypnot ic
Ġsard onic
Ġsquee ze
Ġcutes y
Ġwither spoon
Ġdum as
Ġreun ion
Ġsus an
Ġchate au
Ġhast ily
ardot com
Ġflor id
Ġflour ishes
Ġsubl ime
Ġbruck heimer
Ġreminis cent
Ġcruc ial
Ġaccomp an
Ġdistaste ful
Ġrefuge es
Ġspecif ically
Ġundoubted ly
Ġidiosyn cratic
Ġgarb age
broom field
lar ge
yaz aki
Ġtum ult
Ġsord id
Ġfirm ly
Ġmalk ovich
Ġwoll ter
Ġthom as
edek erk
Ġnum erous
Ġanach ronistic
essend en
Ġmanufact ured
Ġfarrel ly
Ġsincer ity
Ġbenjam ins
deprec ating
- -
1 3
4 0
a ving
b a
b ag
b ind
b our
b ull
b uster
b bit
c us
c ence
c ore
c red
c ause
c apt
d ings
d led
d ash
d rop
d azz
d rum
e ight
e ky
e vo
f ing
f em
f are
f iction
g a
g el
g am
g ile
g ang
g asm
g lor
h o
h ot
i k
i ver
i ber
l ot
l im
l ad
l ings
l ove
l angu
l owski
m ad
m ous
m art
m us
m ingly
n ick
n oy
o is
p ing
p ed
p ol
p ow
p able
p ost
p ress
p oss
p uff
p oint
p umpkin
p arker
r ary
r ors
r ather
r ics
r ase
r ats
r ara
s or
s am
s and
s ens
s urpris
t es
t le
t ry
t ably
u ed
u ve
u end
u ously
u asive
v ating
v oc
v ability
w er
w ed
w art
w ind
y er
z ill
Ġ ig
Ġ 60
Ġt u
Ġt act
Ġt ense
Ġt aw
Ġt ub
Ġt orn
Ġt aps
Ġt rop
Ġt ony
Ġa y
Ġa us
Ġa pl
Ġa str
Ġa ustr
Ġa kin
Ġa lex
in ion
in ning
in spired
he art
re k
re he
re ggio
Ġo l
Ġo le
er ved
it er
it ary
it ched
it udes
Ġthe ory
Ġthe sis
Ġf if
Ġf acing
en et
en ge
en ced
en ha
Ġm ing
Ġm ap
Ġm endes
at able
at falls
Ġb m
Ġb ess
Ġb ill
Ġb ast
Ġb ust
Ġb ib
Ġb ord
Ġb ones
Ġb irot
Ġb inoche
Ġc ri
Ġc ram
Ġc ip
Ġc ia
Ġc alls
Ġc oppola
Ġw ist
Ġw aking
Ġw ret
Ġw allow
Ġw alt
nd an
nd ry
or ad
or ial
or ably
Ġp g
Ġp in
Ġp ess
Ġp ink
Ġp andering
Ġp ants
Ġp omp
Ġp umpkin
Ġp acino
Ġp iffle
an ella
Ġd il
Ġd ise
Ġd ressed
Ġd inner
al i
al as
al ism
al tern
al uable
al gam
Ġth irst
Ġth read
Ġh ub
ic ide
ic ense
ic les
ic iently
Ġin struct
Ġin quis
Ġin escap
Ġin itial
il o
Ġl ur
Ġl ap
Ġl ord
Ġl amb
Ġl oop
Ġl anes
Ġl icense
Ġn in
Ġn ames
Ġn ails
Ġn iche
Ġn aught
Ġn aked
Ġn atur
Ġn emesis
st ory
Ġe is
Ġe ars
Ġe erie
Ġg al
Ġg ul
Ġg am
Ġg ong
Ġg oose
Ġg ave
ut o
ut ions
el le
el ow
el ine
el be
ent in
as per
as ily
ot es
ot ting
ot land
ot esque
Ġst ark
Ġst ates
Ġst umble
Ġst itch
im ated
Ġbe ck
Ġbe ings
Ġbe wild
Ġre ass
Ġre lying
Ġre aches
Ġre bell
Ġre ggio
ra cy
ra yal
Ġu pper
the d
the n
the on
ver ty
ver ted
ro c
ro it
ro at
ro ad
ro gen
ul ence
ul ates
ce ly
ce ful
Ġan cient
et er
et ent
Ġy id
Ġy ard
Ġy ester
ri ved
ol i
ol ate
ay bur
ad er
ad ent
ad am
ad os
ad vert
Ġfor ward
Ġfor tun
se ction
ess ive
ess entially
Ġwh iny
oo led
oo ps
oo ses
ir k
Ġcom ics
id ers
Ġch ill
Ġch ops
Ġch amber
Ġch ooses
am o
am y
Ġal ert
Ġal ice
Ġal be
Ġal ike
Ġhe don
ab re
un less
Ġj ay
Ġj ud
Ġj ose
Ġj enn
Ġj arring
Ġj umps
Ġse as
Ġse aring
Ġse lection
Ġse arching
em orable
Ġen emy
Ġen count
Ġint ol
Ġli k
Ġli p
Ġli ar
Ġex ists
Ġex asper
ak ingly
Ġsh od
Ġsh ining
Ġsh tick
qu i
qu et
Ġab ly
Ġnot able
Ġnot ting
Ġdo d
Ġde uces
Ġde ja
Ġun em
Ġun ass
Ġun bl
Ġun fortun
Ġun cle
Ġne ur
Ġsc and
Ġsc are
Ġsc ored
Ġsc ient
Ġsc athing
Ġcon sc
ain berg
Ġwor ry
Ġwor ship
Ġk il
Ġk ur
Ġk af
Ġso cc
us c
us o
ust ic
ap es
Ġare a
Ġchar les
Ġpro se
Ġpro be
Ġr on
Ġr ange
Ġr ub
Ġr uth
Ġr arity
Ġr ouge
Ġmore s
Ġpl uck
Ġact ions
Ġact iv
Ġfe ardotcom
ere ll
her fig
Ġle th
Ġpre d
Ġpre vent
ff ith
Ġv u
Ġv ain
Ġsp ends
Ġsp ike
Ġsp raw
Ġsp orad
Ġper me
Ġper dition
Ġor ange
Ġcl ash
Ġcl iff
Ġcl ashing
Ġcl ueless
itt ingly
itt edly
ie u
Ġout land
Ġam ar
Ġam algam
Ġqu entin
Ġlo b
Ġlo ad
Ġlo se
Ġlo fty
ick en
ies lowski
Ġno ise
ert ime
are r
Ġar men
Ġwe aves
Ġi v
Ġfl ashes
au gh
our s
Ġthr ust
Ġad vert
com b
we y
we ek
Ġcomp rehens
Ġcan n
Ġcan on
Ġcan ned
Ġpo kes
Ġpo verty
ment ion
Ġus eless
Ġbl unt
Ġwhe never
Ġover look
Ġover comes
Ġover kill
Ġover shad
iz amo
Ġdis s
Ġdis plays
ear th
Ġbet ty
Ġbet rayal
Ġeven ing
Ġsl ipp
Ġsl uggish
ip id
ip aul
Ġra ge
Ġra pt
Ġra vis
Ġra ised
Ġsub te
Ġsub urban
Ġri ff
Ġri gor
cc ino
Ġtw ink
ose xual
Ġgo als
Ġgo vern
oc y
Ġimp art
Ġimp ostor
Ġimp enet
Ġvi a
Ġend ed
ress ing
ll enha
Ġte ach
Ġsm ell
Ġsm ack
Ġser mon
so aked
Ġscreen ing
Ġsee k
Ġsee ks
Ġnew f
Ġher m
Ġentertain ingly
Ġcont end
Ġcont empt
Ġpe e
Ġpe ak
Ġtra ffic
Ġaud acity
Ġunder dog
Ġlong est
Ġmy ers
Ġjo el
Ġres orting
ism s
ash buck
Ġcr ash
Ġgreat ness
uct ant
Ġob stacles
Ġcast s
iv able
Ġche at
Ġche kh
Ġaw ards
Ġins urance
Ġins omnia
Ġins ipid
Ġvis ible
now led
Ġgr otesque
be en
be cause
Ġco inc
Ġatt ack
Ġtri al
Ġtri vial
umb ling
Ġgra ve
Ġaf ford
Ġaf icion
Ġrel ief
Ġrel uctant
Ġenjoy ing
Ġfr at
Ġfr anc
wood y
Ġrec ipe
sy m
Ġgu ard
Ġbel oved
Ġback drop
az zy
Ġgl am
Ġexc els
Ġbec ame
Ġneed lessly
uc in
uc er
uff ed
Ġmus hy
Ġpr atfalls
ex c
ex p
ex pect
Ġext ent
Ġext rem
Ġph ony
Ġph ones
Ġir win
Ġrep ellent
Ġrep ressed
Ġswe at
Ġbu b
Ġbu g
Ġpower puff
app ed
app ily
app arently
gu es
gu ided
gu izamo
ys sey
Ġmar ching
Ġmar gar
Ġmar ried
Ġac he
Ġac id
Ġdist ant
Ġexpl ored
Ġdec ency
Ġdec adent
Ġhor ribly
Ġimag ined
Ġimag inable
Ġcra w
str ict
str ange
Ġsol utions
Ġsch lock
Ġinv iting
Ġinv incible
Ġinv aluable
Ġpass able
Ġpass ions
Ġthought s
min ally
Ġmind set
Ġanim als
with standing
Ġfasc ination
Ġtit led
Ġtit ular
Ġsw ings
Ġsw ord
Ġsw inging
Ġsw ashbuck
Ġdark ness
Ġsweet est
Ġz ipp
Ġstart ing
Ġput ting
Ġinter action
Ġsa ves
Ġlight s
Ġlight ing
Ġlight ness
Ġma id
Ġbra v
Ġbra ve
Ġbra ins
Ġbra cing
Ġsent ence
Ġsent iments
pro ves
pro vides
Ġbo ard
Ġpar alle
Ġlow brow
Ġsusp end
Ġsens ibilities
Ġsens itivity
Ġexpect s
Ġadd ed
Ġserious ness
Ġsum m
Ġsum ptuous
Ġpsych o
Ġprof und
Ġsy n
Ġstrong er
Ġop inion
Ġinsp ires
Ġda ily
Ġbeh an
Ġdam on
Ġacc um
Ġacc ident
Ġste in
Ġste al
Ġste ve
Ġsim one
Ġadm ittedly
Ġmis anth
Ġcred ited
Ġsuccess fully
Ġwarm ed
Ġelse where
Ġsn oo
Ġsn ake
Ġsn ipes
Ġbas ket
Ġcam er
Ġface t
Ġ9 5
Ġdiffere nces
Ġmust y
Ġdumb ed
Ġdr unk
Ġsupp ly
Ġcount less
Ġmot own
ma j
Ġrich ard
Ġlat in
Ġsuff er
Ġsuff ered
ett elbe
Ġjack ass
ob i
Ġinf uses
Ġang le
Ġdev ice
Ġrock y
Ġcap ital
Ġdeser ved
Ġmix es
Ġfre undlich
Ġgot ten
Ġtruth s
Ġtruth ful
Ġhope fully
Ġaff l
Ġsand ra
ont aine
Ġden is
Ġden ial
Ġden iro
Ġexam ine
Ġconcept ion
Ġlif t
Ġlif ts
Ġcomb ines
Ġshock ed
Ġshock ingly
Ġsym path
ien cy
Ġaut om
Ġsle ek
Ġcost ner
Ġtop ical
Ġtechn ically
Ġvirt u
Ġfem in
Ġnon stop
Ġadapt ed
Ġadapt ations
Ġliter al
Ġtaste ful
Ġcur m
Ġdig s
Ġimpro ved
Ġimpro vised
Ġdefin ition
Ġdefin itive
Ġbreak down
Ġweird ness
Ġbland ness
Ġbreat he
Ġevent ual
Ġthin ly
Ġfav our
Ġfav ors
Ġobser ved
Ġcoll apses
Ġopen ness
kin near
Ġcall ar
Ġspl ash
Ġcamp s
Ġcamp y
Ġexist ed
Ġprop ortions
Ġpost card
Ġdepress ion
Ġepis odic
Ġsqu anders
Ġlab or
Ġlab ute
Ġrecomm ended
Ġrout ines
Ġsexual ity
Ġmajor ity
Ġ4 5
Ġly nch
char ged
Ġfail ing
Ġsurf ing
Ġess ential
Ġcross roads
Ġpath ology
Ġchall enge
form ula
lo ving
Ġsour ces
Ġfore ver
Ġmer chant
Ġwed dings
Ġthrow back
Ġthrow away
Ġhom osexual
Ġkn ack
Ġast ounding
Ġpal pable
Ġlim its
Ġmetaph orical
Ġram say
Ġpit iful
Ġinn uend
Ġflash backs
Ġner vy
Ġner vous
Ġmother s
Ġann oy
Ġleg acy
Ġdraw ing
writ ers
Ġmach ismo
Ġdan a
Ġdan ny
Ġgif ts
Ġmove ment
Ġju icy
Ġunint eresting
Ġgrou ps
Ġappreci ation
Ġappreci ated
look s
Ġsal v
Ġsal ute
Ġsal ton
Ġbre ndan
Ġpu pp
Ġla id
Ġsuck s
Ġsuck er
Ġclos ing
Ġremember ing
Ġprim ary
Ġprim itive
Ġrepet ition
Ġidi ots
Ġidi ocy
Ġsav age
Ġcat ches
Ġham pered
Ġlad ies
Ġrequ ires
Ġemerg ing
Ġawkward ly
Ġexplor ing
Ġfit fully
Ġfra gment
Ġfra gile
Ġmil itary
Ġmil ieu
Ġmak er
Ġbi ography
Ġwal king
Ġwal let
Ġtoward s
Ġdisgu ised
Ġest rogen
Ġaim less
Ġnu ances
Ġscr atching
put ting
Ġfather s
agger ingly
Ġintense ly
Ġcheck list
Ġrepres ent
Ġexpress ion
Ġprofound ly
Ġextraord inarily
Ġstrength s
bear ing
Ġfreak y
Ġbog s
Ġbog ged
Ġbold ly
Ġwall op
Ġpan or
Ġpan ache
Ġpan theon
Ġstay ing
Ġexcess es
Ġeleg antly
boy s
dis ney
uit ous
Ġign ored
Ġtender ness
Ġreach ing
Ġallow ing
Ġadmi rably
Ġauthentic ity
cra ck
Ġbow ling
Ġhall ucin
Ġna ive
Ġstre ets
Ġjol ie
Ġlearn ed
Ġconsist ent
Ġwil co
Ġpic coli
Ġdiv a
Ġgut s
Ġstick ing
Ġruss ell
Ġspot light
Ġarch ival
Ġrad ar
Ġrad ical
ext remely
Ġirre le
cult ural
dri ven
she ridan
win ning
Ġtoss es
Ġresem bling
Ġsham eless
Ġemphas is
Ġmiche ll
Ġcro c
Ġhur t
Ġhur ley
sec ret
Ġdeb ate
Ġspin ning
Ġclim ax
Ġtext book
Ġreflect ive
prod ucer
Ġembra ce
Ġdynam ics
Ġfab ul
Ġgro an
oop ing
Ġhear st
Ġconsp ic
Ġconvers ation
Ġflow ers
Ġcollect ive
Ġmotiv ated
Ġregard ing
Ġregard less
Ġlandsc apes
Ġbreatht akingly
Ġintrod uction
Ġintrod uces
Ġfierce ly
hard ly
vil i
Ġsix th
Ġment al
Ġmac abre
Ġnarc iss
Ġunw atchable
Ġkick ing
Ġkore a
Ġthematic ally
Ġexplos ion
Ġinvest ig
Ġpaul ine
Ġwond ers
Ġdon ovan
Ġlil o
Ġluc as
Ġluck y
Ġell ing
Ġsucc umb
Ġhaw k
Ġru ins
Ġris k
Ġdepart ment
Ġdistingu ished
Ġcommun ic
Ġjew s
cal cul
fam ily
mod ern
Ġtempt ing
Ġfac ile
ene uve
Ġbab y
Ġvague ly
Ġimmedi ate
Ġflo or
Ġaccur ately
Ġpuzz le
Ġpuzz ling
Ġsacrif ice
Ġuncomfort able
bet ter
bet ween
sol ondz
Ġbes ides
Ġbound aries
Ġincomp rehensible
Ġincomp etent
Ġeconom ical
Ġrele vant
Ġscott ish
Ġconve ys
Ġvent ure
Ġspan ish
Ġrow dy
Ġcrim inal
Ġsymbol ic
Ġcourt room
gener ated
Ġlocal es
Ġinexplic ably
dro ps
po ignant
Ġod yssey
Ġjon ah
Ġseve re
Ġunbear able
Ġunbear ably
Ġpercept ive
acc id
Ġdismiss ed
Ġdisgust ing
Ġvietnam ese
Ġinterview s
Ġcontempl ative
Ġestabl ishes
Ġcontradict ory
Ġfundament als
agh an
bust ers
fin itely
vol ving
Ġseld ahl
Ġfing ered
Ġlun acy
Ġet c
Ġgy llenha
Ġreject ed
Ġjan ice
Ġjacqu ot
Ġsepar ate
Ġshr ill
Ġconco ction
Ġprev ents
Ġclin ical
Ġarrest ing
Ġadv ance
Ġemploy s
show time
Ġcrud up
Ġappl aud
Ġguarante ed
Ġillustr ates
Ġoptim ism
Ġphenomen al
certain ly
sad ly
Ġtread s
Ġfred dy
Ġwid ow
Ġinsec ure
Ġgoth ic
Ġstro ke
Ġdope y
Ġkenn edy
Ġloyal ty
Ġfles h
Ġdiscer n
Ġarticul ate
Ġinsane ly
Ġgrat uitous
Ġgib son
Ġappet ite
Ġinterpret ation
Ġconvict ions
Ġstead y
Ġcondesc ending
Ġdestr uction
Ġ300 0
Ġargent ine
Ġschmalt zy
Ġneighbor hood
simp ly
Ġ\*\* \*
Ġtamb or
Ġsab ot
Ġmud dle
Ġded ication
Ġgid dy
Ġmoon light
vigor ating
Ġangu ish
Ġhen ry
Ġenlight ening
Ġcompens ate
Ġundermin es
Ġoblig atory
import ant
Ġcohes ive
Ġexcruc iating
Ġskate board
Ġinfuri ating
Ġdiscuss ion
Ġconspira cy
friend ly
Ġextravaganz a
cong rat
numb ingly
rote chn
tw enty
willi ams
Ġack nowled
Ġsizz le
Ġmour n
Ġwend igo
Ġdaw son
Ġhund red
Ġhosp ital
Ġanom ie
advent ure
Ġchur ch
Ġhew itt
Ġuncomm only
Ġscre ens
Ġflamb oyant
Ġcompan ion
Ġblat ant
Ġdisint egr
acht wey
Ġcoff ee
Ġfarc ical
Ġincess ant
Ġcarp enter
Ġpunct uated
Ġantid ote
Ġveter an
Ġmeth od
Ġinfant ile
Ġchristop her
Ġlyric ism
Ġpenet rating
Ġunconvent ional
Ġthornberry s
evo kes
lot te
langu age
noy ce
surpris ingly
Ġtaw dry
Ġbess on
Ġbord ers
Ġcip her
Ġwret ched
Ġpess im
Ġdise ase
Ġlamb s
Ġnatur ally
Ġyid dish
Ġyester day
aybur gh
Ġfortun e
Ġalbe it
Ġjenn ifer
Ġshod dy
Ġunass uming
Ġunfortun ate
Ġkaf ka
Ġsocc er
Ġoutland ish
Ġravis hing
Ġimpenet rable
Ġchekh ov
Ġaficion ados
Ġmisanth rop
Ġbasket ball
ettelbe ck
Ġgyllenha al
1 1
5 0
a an
a wn
a ign
a ims
b are
b od
b urn
b reak
b ows
b af
b arely
b reaking
b irthday
c u
c or
c am
c op
c ook
c ated
c old
c ond
c hen
c ener
c inematic
d id
d am
d un
d ull
d ense
d ling
d les
d sy
d ream
d renched
e o
e z
e ch
e em
f ight
f olds
g un
g one
g ie
g ary
g gin
h h
h l
h man
h appy
h olds
h ta
i ri
i ate
i ving
i ations
j es
j acqu
k il
k ip
k iness
l ab
l og
l aw
l iff
l az
l Ã£
l udes
l ooper
l aim
m ou
m ake
m ical
m ull
m ond
m ash
m iller
m ichael
m insky
m orton
m ocking
n el
n our
n icks
n arc
o ir
o ge
o ated
p y
p al
p ot
p ay
p us
p ons
p arent
p osed
p aul
p ersonal
p resents
p isi
q atsi
r s
r ion
r up
s le
s od
s hed
s pec
s uc
s ky
s ons
s chn
s ai
s kip
t im
t ak
t old
t ail
t aken
t ries
t ti
t inent
u k
u ing
u il
u um
u ate
u ary
v all
v ably
v ors
w ing
w al
w ow
w est
w ick
w ann
w inded
y r
y jes
Â ¢
Â ¨
Â ¯
Â ³
Ġ #
Ġ 70
Ġ \*
Ġt a
Ġt el
Ġt id
Ġt all
Ġt we
Ġt ren
Ġt ins
Ġt ensions
Ġt adpole
Ġt sai
Ġa ft
Ġa hol
he l
he ld
he ated
he pisi
Ġs i
Ġs au
Ġs hed
Ġs elling
Ġs ib
Ġs ize
Ġs alt
Ġs ession
Ġs essions
re ve
re ally
re ne
Ġo z
Ġo ve
Ġo ce
Ġo we
Ġo mn
Ġo edekerk
er ile
er ving
er ably
it he
it ter
it ches
Ġthe ories
Ġf art
Ġf res
Ġf ade
Ġf ris
Ġf aced
Ġf ien
Ġf uss
Ġf inger
Ġf iring
is y
is ingly
is ions
Ġm im
Ġm ort
Ġm ick
Ġm ib
Ġm ummy
Ġm awk
at a
at ty
Ġb om
Ġb ent
Ġb urn
Ġb ible
Ġb erg
Ġb oot
Ġb urd
Ġb agg
Ġb urning
Ġc um
Ġc ind
Ġc og
Ġc up
Ġc ub
Ġc allow
Ġc ooper
Ġw art
Ġw rap
Ġw rest
ing e
ing ers
es cent
nd on
or a
or row
or ia
on ing
on ou
on se
Ġp as
Ġp ry
Ġp ear
Ġp ris
Ġp ause
Ġp uff
Ġp ier
Ġp ony
Ġp iqu
Ġp ilot
an a
an ed
an agh
Ġd y
Ġd ar
Ġd ol
Ġd un
Ġd ime
Ġd ict
Ġd ated
Ġd old
Ġd ude
Ġd rew
Ġd well
Ġd izz
Ġd arned
ar ad
Ġand rew
al d
al th
al os
al ph
Ġth irty
Ġh ood
Ġh og
Ġh ors
Ġh udlin
Ġh ungry
Ġh icken
le ar
le ave
ic z
ic able
ic eless
ic iously
Ġto l
Ġin advert
Ġin vigorating
ed ish
ed ited
il le
il ated
il ogy
Ġl ol
Ġl one
Ġl end
Ġl unch
om an
om ed
Ġn ash
Ġn ause
Ġn uc
Ġn ifty
Ġn achtwey
st ri
st rom
Ġe c
Ġe ld
Ġe aster
Ġe lection
Ġg as
Ġg ad
Ġg ant
Ġg est
Ġg ere
Ġg ary
Ġg ear
Ġg ris
ct ions
el strom
Ġmo ck
Ġmo de
as i
as ia
ot ically
ot ted
Ġst ol
Ġst am
Ġst ur
Ġst all
Ġst ake
Ġst ult
Ġst ately
Ġst ages
Ġst reak
Ġst umbles
Ġst opped
Ġst aggeringly
im en
im ate
Ġbe f
Ġbe er
Ġbe an
Ġbe ats
Ġbe ij
vi er
vi le
vi vid
vi olent
Ġre ly
Ġre se
Ġre ck
Ġre ef
Ġre has
Ġre semble
Ġre vision
Ġre ached
Ġre run
gh the
ver b
ro se
ro ck
ro oge
ch ou
ch ard
ch ange
ch illing
Ġy ield
Ġy ellow
Ġy van
Ġas h
ri guing
ri pper
ol ing
ol an
ol ia
ay as
ad o
ad ian
ad dle
ad ults
Ġfor te
se at
se ver
Ġwh ine
Ġsu its
Ġsu itable
Ġsu dsy
Ġsu gary
ir y
ir teen
Ġcom a
Ġcom ically
if ies
if ts
Ġch ain
Ġch Ã£
th s
th on
am id
am ura
Ġal t
Ġal an
Ġal fred
ers chool
Ġhe ist
Ġhe rit
Ġhe fty
ab les
ab by
ab bing
ab lish
un folds
Ġj ell
Ġj aw
Ġj ord
Ġj azz
Ġj aded
ag en
um n
Ġse al
Ġse ction
ck ed
em ents
Ġen velop
ur g
ur istic
ur ried
Ġli ly
Ġli king
Ġli bert
Ġli ghthe
Ġex it
Ġex ter
ist as
ist ine
ist ently
ist encies
Ġsh ut
Ġsh op
Ġsh red
Ġsh ifting
Ġsh aky
Ġsh ares
Ġsh orter
Ġsh anghai
Ġsh ainberg
qu eness
rom an
rom antic
Ġab c
Ġab rupt
Ġnot ch
Ġnot withstanding
Ġdo ver
Ġdo ze
Ġdo zen
Ġdo gged
Ġde an
Ġde gra
est inian
Ġun ap
Ġun co
Ġun mist
Ġun real
Ġun know
Ġun mention
Ġsc hem
Ġsc rooge
ell ar
Ġat roc
Ġk ings
Ġk its
Ġk not
Ġk illing
Ġk ills
Ġk ieslowski
Ġso ar
act ing
act or
act ly
ig ans
Ġby att
Ġby ler
for ce
Ġchar ge
Ġchar itable
and ing
and ed
Ġpro ved
Ġr ate
Ġr ural
Ġr het
Ġr alph
Ġall uring
Ġlike able
op era
Ġpl us
Ġpl aced
Ġpl aus
Ġpl uto
ind ler
Ġle ather
Ġle wis
Ġle guizamo
Ġpre y
Ġpre ced
Ġpre jud
ge orge
Ġv on
Ġv ard
Ġv istas
Ġwho dun
Ġsp i
Ġsp o
Ġsp right
Ġsp orting
Ġsp iced
Ġper m
Ġper il
Ġper ry
Ġper tinent
Ġor che
Ġor well
Ġor gasm
pt ic
Ġim it
Ġcl ar
Ġcl ancy
Ġcl ips
Ġcl ayburgh
Ġstory lines
ect ive
itt ered
pl ing
pp s
Ġout line
Ġout right
end a
end ence
end ium
Ġfun ction
Ġman ic
Ġqu int
Ġqu aid
Ġqu asi
Ġtr im
Ġtr uck
Ġtr ump
Ġtr ilogy
Ġlo vable
Ġlo aded
Ġlo ads
Ġlo ndon
de f
de v
de ath
de veloped
de finitely
Ġno d
Ġno v
Ġno se
ram ax
ram say
ert y
are n
Ġup ro
Ġup beat
Ġar k
Ġar m
Ġar ty
Ġar bit
ac on
og yn
Ġfl ame
Ġfl ower
Ġfl irts
Ġfl ailing
Ġfl accid
our se
Ġad op
Ġad roit
Ġgood s
Ġgood ness
Ġgood will
Ġdirect ly
Ġdirect ions
od ile
com ing
we ar
Ġmu ck
Ġmu gging
Ġcomp ar
Ġcomp os
Ġcomp are
Ġcomp ared
Ġcomp osition
Ġcomp ulsively
Ġcomp endium
Ġcan ny
ass y
ass ed
ass ured
Ġpo ster
nt ial
ment ed
Ġent icing
Ġro driguez
Ġwork place
Ġbl ond
Ġbl ax
Ġbl oated
Ġover written
Ġover run
Ġover produced
Ġover bearing
Ġdis con
Ġdis par
Ġdis appe
ry an
ound ers
ens ed
int ing
int riguing
Ġsl im
Ġsl am
Ġsl ash
Ġra pp
Ġra ces
Ġra uc
Ġra unch
Ġra bbit
Ġme hta
Ġfa ults
Ġri b
Ġri ot
Ġri ver
Ġri dd
Ġri gid
Ġtw enty
sp ider
Ġmake up
Ġevery body
Ġimp at
Ġimp ersonal
Ġtal ks
Ġreal m
Ġreal ization
own ed
Ġvi v
Ġvi gn
atic s
Ġend urance
Ġbr u
Ġbr imming
ang el
ang led
Ġdes ired
Ġsm ith
Ġsm ash
sh op
Ġstr ate
Ġstr uck
vers ity
Ġcont act
but ton
li ang
Ġag it
Ġag ed
Ġtra il
Ġtra ce
ach able
ach ie
ach ment
ign ed
ign ific
Ġplot s
Ġplot line
Ġunder bel
Ġunder written
Ġunder cur
Ġrom ances
Ġres ent
Ġres olution
ash vili
vent ly
sc ra
sc otland
Ġcr ushing
Ġcr isto
Ġgreat ly
Ġhol of
imp ostor
Ġshow girls
Ġche ated
Ġche ek
Ġaw ak
Ġaw esome
Ġwar ner
Ġwar fare
view ers
Ġins ider
Ġstill born
be ing
be fore
Ġco herence
te au
Ġhard y
Ġscen ic
Ġdown s
con cept
Ġfar m
row s
ument ary
Ġgra y
Ġgra ph
Ġscript s
Ġscript ing
Ġscript ed
Ġrel ative
Ġenjoy ment
Ġfr aser
Ġgu est
Ġeng ages
Ġeng land
Ġview ed
Ġback stage
Ġback drops
not es
az e
az ing
Ġgl ac
Ġgl aring
Ġsty les
Ġset up
Ġexc ited
Ġdep ra
Ġkid n
Ġhuman izing
Ġinc or
Ġcomple t
Ġpr onou
Ġpr istine
Ġind o
Ġind ians
ex cept
ex actly
Ġpleas antly
Ġshe nan
Ġfin cher
Ġext r
Ġsk ins
Ġph rase
Ġcreat ures
Ġswe ar
Ġbu nd
Ġbu zz
Ġbu bble
app ropri
Ġmar gin
Ġmar shall
me ets
me yjes
no isse
Ġac ute
ins on
ins omnia
Ġdec ides
Ġpol l
Ġpol icy
Ġhor se
Ġhor rors
Ġspec ulation
direct ors
Ġhist or
Ġhist rion
Ġcons uming
Ġcons olation
Ġprod uces
Ġ2 5
Ġmem ber
Ġmem oir
Ġcar ic
Ġcar ol
Ġcar uso
Ġcra ven
Ġexper imental
Ġmor bid
Ġed its
Ġed ition
ste ers
Ġmi ike
Ġmi ramax
Ġpass ed
Ġpass ages
Ġsuper star
xt ap
Ġmon str
Ġsil ber
Ġclass y
Ġclass ical
ub bing
Ġbro ok
icul ously
Ġanim at
ord ing
Ġdet ract
Ġdet ective
Ġstud ents
Ġstud ios
Ġchild like
Ġgener ating
Ġgener ations
Ġgener ates
Ġmusic ians
Ġsw oon
Ġsw agg
Ġsw edish
Ġbelie ver
Ġbelie ves
Ġbelie ved
Ġbelie vability
att le
att age
Ġportra ying
Ġz ha
Ġz omb
ret t
ret urn
ret entious
Ġhar mon
Ġep ip
Ġep ics
Ġexp oses
Ġdull est
Ġmed ical
Ġmed itative
iel dy
iel insky
Ġbor n
Ġsa il
Ġlight er
Ġdeep est
Ġstra nd
Ġbra very
Ġnarr ator
Ġsmart est
br ings
br illi
pro f
pro p
Ġpar is
Ġsad istic
Ġbar ri
Ġbar gain
Ġund e
Ġund ers
Ġund erest
Ġexpect ing
Ġuns urpris
Ġadd ing
Ġadd resses
Ġret ains
Ġpot ency
Ġpsych opath
Ġdi ed
Ġdi ary
Ġdi vide
Ġprof ane
Ġsy rup
Ġred uced
Ġred uce
Ġass uming
Ġass ume
Ġass ault
cl aude
Ġop ens
Ġprob ing
Ġnarrative ly
Ġda wn
Ġfact ory
Ġpat ron
Ġequ als
Ġequ ilibrium
Ġcent ered
Ġcent uries
Ġtrans formed
Ġtrans forms
fe w
fe atures
Ġwin ter
Ġprom isingly
uri ent
ceed s
go es
Ġmur d
Ġpun k
Ġpun ching
Ġpun ishment
Ġoper ates
Ġfant ast
Ġmis ogy
Ġmis guided
Ġmis calcul
Ġmis ogyn
ail able
ron ic
Ġsing er
Ġsing ular
Ġhero ic
Ġodd est
Ġgri ffith
gr ant
Ġocc up
Ġmust er
Ġwa hl
Ġant icip
Ġcomplex ities
ugg ing
Ġill og
Ġill ness
Ġill usion
Ġearn s
Ġearn hart
Ġalong side
Ġflat ulence
Ġcut eness
Ġsign post
Ġcount y
bl ade
Ġquiet er
Ġslight est
ma id
Ġcal m
Ġuni verse
ony mous
Ġrich ness
Ġpa ean
Ġsuff oc
comp elling
Ġstri pped
Ġje ff
Ġimport antly
ob s
ob vious
Ġinf in
Ġinf idelity
Ġdog ma
Ġdog town
Ġdev otion
Ġdev ito
Ġcap ra
utter ing
Ġstoryt eller
Ġexplo de
ci pl
Ġfre ud
Ġmad den
let t
let te
Ġcreep iness
wr ote
Ġaff irming
Ġcor rupt
Ġcor porate
Ġden ied
Ġfat ale
Ġpay ne
Ġinst it
Ġinst ance
af er
ele gant
Ġ8 5
Ġ8 6
Ġ8 8
Ġhop eless
Ġhop elessly
ott a
Ġlet down
Ġsym met
every one
Ġfut ile
Ġfut uristic
Ġdevelop ments
bo at
bo ards
Ġted ium
Ġfire s
Ġbal let
Ġfriend ly
Ġconsider ably
Ġspectac ularly
Ġvirt ue
Ġfem inist
Ġposs ibilities
Ġdri ver
Ġdri ven
Ġdri ves
Ġmood s
Ġgrand i
lin ers
Ġfoc using
Ġcur se
Ġdig gs
Ġprovid ed
Ġroll s
Ġroll icking
Ġimpro vis
whe never
Ġtest ud
Ġtest imony
Ġbreat hes
Ġforce fully
Ġjoy s
Ġjoy ful
Ġtrad itions
gi ves
Ġunp retentious
Ġprocess ion
Ġremind ing
Ġcoll age
Ġrobert s
Ġbur r
Ġbur st
Ġtedious ly
Ġful f
Ġfoot ball
Ġfoot note
Ġcop s
Ġcamp aign
Ġwater log
Ġdest iny
Ġpost uring
Ġpost modern
Ġimpressive ly
Ġartist ry
Ġphot ograph
mark et
Ġge ared
Ġende av
Ġquestion able
ov sky
spect ive
Ġly ing
Ġly ne
Ġpurp ort
Ġsucceed ed
Ġfrustr atingly
Ġabsurd ly
Ġabsurd ities
Ġcelebr atory
zz le
Ġcross ed
alt ers
Ġslap dash
Ġskill ful
Ġskill fully
Ġsustain ed
Ġmer its
Ġnatural ism
Ġdeter ior
Ġtear jerk
Ġast ute
Ġpal atable
Ġgoof ball
Ġintent ionally
Ġprec ision
Ġpit ched
agg ing
Ġspark s
Ġstrugg les
Ġfrank lin
Ġ200 0
Ġbrain less
Ġrecommend ation
Ġpack age
Ġner ves
Ġcontin uity
Ġmurder ous
col m
Ġtim id
Ġfol ly
Ġtom orrow
Ġju xtap
Ġimm ac
Ġwilli am
Ġimpress ions
Ġdesc ription
Ġunique ly
Ġfriendship s
Ġtarget ed
Ġsophistic ation
Ġaccompl ish
Ġaccompl ishes
ey e
tr ans
tr ash
Ġsor vino
Ġmist aken
Ġpu erile
Ġpos ing
Ġla ure
Ġla ud
Ġla isse
Ġsuck ing
Ġsuck ed
Ġconvent ions
Ġfear less
Ġsuperfic ially
Ġbroad way
Ġidi otic
Ġshad yac
Ġawkward ness
Ġtur nt
Ġtur gid
Ġmil k
Ġwal ter
Ġwal sh
Ġinex per
Ġcommer ce
Ġintellect ually
Ġweight y
conscious ly
Ġescap ed
Ġson ny
Ġsick ly
Ġeth ics
Ġresp onse
Ġunin volving
Ġmanip ulation
Ġrap id
Ġrap idly
Ġrealistic ally
Ġdistinct ly
Ġcirc us
put s
Ġtun es
Ġtun ed
Ġvill ains
Ġvill eneuve
Ġsett le
Ġsett ings
Ġsett led
Ġfright eningly
Ġexpress ions
Ġaffection ate
Ġinnoc uous
bear s
Ġdisc ord
Ġsurvi val
Ġsurvi vors
Ġcinemat ographer
Ġeleg ance
Ġmagn etic
Ġenthusi ast
Ġmodest ly
Ġridiculous ness
Ġtransp orting
dis covery
ura cy
Ġdu rable
Ġdu vall
Ġlength y
Ġartistic ally
Ġobs essions
Ġobs essive
Ġobject ivity
cont rol
cont rived
Ġglimp ses
Ġembarrass ed
Ġeccentric ities
nic ole
Ġban ality
Ġpick ed
Ġdim ension
Ġlangu orous
Ġna ipaul
roll ing
Ġjol ly
Ġscar iest
Ġscar cely
Ġscream s
Ġterror ism
Ġprotagon ists
Ġfer vently
Ġmas och
Ġmill ions
Ġwast es
Ġpra y
Ġlay er
Ġlay ered
Ġloose ly
Ġstick y
Ġaltern ate
Ġshap ed
Ġrad iant
Ġswim ming
Ġsignific ance
Ġamateurish ly
rum s
Ġbored om
Ġpract ice
Ġpinoc het
Ġgold ie
Ġgold member
Ġjer sey
Ġliber ating
Ġwilling ness
Ġrecogn iz
Ġprofessional ism
aud iences
hu ang
hu ppert
su per
Ġtack ling
rem ember
Ġfle e
Ġbod ice
Ġbod ily
Ġcro s
Ġpus hed
Ġproceed s
Ġspell bind
Ġrand all
Ġtext ure
Ġcontrol led
Ġinsult ingly
Ġbenef its
pleas ing
Ġtort ure
Ġpur su
Ġgro ove
Ġdecept ion
Ġunh appy
Ġunh urried
Ġcollect ively
Ġinco herence
Ġappear ance
Ġmira cul
Ġcontriv ance
film makers
say les
Ġven ice
Ġven eer
Ġmac dowell
Ġcard board
Ġcompl iment
Ġcompl aint
Ġcha os
Ġloving ly
Ġstrang eness
Ġrecyc ling
Ġexhaust ed
Ġling ers
Ġnumb ing
Ġnumb ingly
Ġjul iet
Ġhaw ke
Ġris ks
Ġris ky
Ġblock buster
Ġblock busters
Ġmyth ic
Ġideal ism
Ġideal istic
Ġelo quently
Ġirres pons
Ġdistingu ish
Ġevo kes
Ġbox ing
Ġcommun al
Ġvillain ous
near ly
Ġtay mor
Ġfool ish
Ġboo st
Ġpair ing
Ġevid ent
Ġstat ement
Ġchron icles
Ġens ues
Ġpress ed
Ġimmedi ately
Ġflo ating
Ġslack ers
Ġcheer ful
Ġintermitt ent
Ġsensual ity
Ġpopular ity
Ġcounter parts
Ġjournal ism
Ġextravag ant
Ġpulp y
mal baf
sol id
Ġfield s
Ġbath os
Ġdub bed
Ġdrown s
Ġdrown ed
Ġrele v
Ġenorm ously
Ġunre markable
Ġneat ly
Ġupd ating
Ġrow ling
Ġproduc er
Ġ197 5
Ġshadow y
Ġzeal and
fr ank
hor ror
Ġton ight
Ġcath olic
Ġpy rotechn
Ġinform ation
Ġinform ative
Ġincons istencies
Ġinnov ation
Ġinnov ative
Ġsund ay
Ġseve rely
Ġscrew ball
Ġsoci opath
Ġborrow s
Ġborrow ed
Ġdrum line
Ġreveal ed
Ġrestra int
Ġcorrect ness
Ġpossess es
Ġimprove ment
Ġdanger ously
Ġestabl ished
Ġsmooth ly
Ġadequ ately
ean or
gl as
Ġaute uil
Ġdut y
Ġdut iful
Ġhat red
Ġlu ke
Ġelect ric
seem s
Ġheight s
Ġheight ened
Ġjun ior
Ġexuber ance
Ġconj ures
Ġmann ered
Ġglo be
Ġglo omy
Ġglor iously
Ġglor ified
Ġdeliber ate
Ġerr atic
Ġoptim istic
Ġsanct imony
Ġsanct imon
wa it
Ġ6 5
itz ler
Ġhust on
Ġgigg les
Ġisrael i
Ġmold y
Ġstim ulating
Ġstag y
Ġchore ographed
Ġshim mering
Ġunful filled
Ġunful filling
Ġkos ashvili
Ġprovo ke
Ġweep y
Ġcomprom ise
Ġcomprom ised
Ġbros nan
Ġelev ated
Ġelev ates
blood ed
Ġcollabor ation
Ġmultip le
Ġmultip lex
deli vers
Ġdishon est
hilar ious
jack son
Ġsie gel
reg ard
Ġow es
Ġfet ish
Ġfuri ous
Ġcher ish
Ġww ii
Ġpau lette
Ġhing es
Ġeve lyn
entertain ing
Ġrece ive
child ren
Ġsup remely
Ġchap lin
Ġchamp ion
Ġscor pion
Ġrum or
Ġlear ning
Ġvoy eur
Ġnewcom er
Ġresour ceful
Ġcolumb ine
Ġreco very
Ġassoc iated
Ġillumin ating
grand son
Ġtasteless ness
Ġaesthet ic
affect ed
brit ney
coll ateral
pie ces
soph ie
satisf ied
Ġtail or
Ġaug ust
Ġok ay
Ġfro zen
Ġmish mash
Ġbread th
Ġlou is
Ġnet work
Ġstink er
Ġassem bly
Ġenchant ing
Ġunm emorable
Ġweigh s
Ġmuse um
Ġdisar ming
Ġdisquiet ing
Ġmexic an
Ġgrac eless
Ġrelax ed
Ġexplan ation
Ġcamoufl age
Ġcrafts manship
Ġatmospher ic
Ġcircumst ances
Ġhypoc ris
Ġboun cy
fem inist
lad en
pow ered
sand ra
sens itive
zill a
Ġtrop es
Ġole ander
Ġwist ful
Ġthread bare
Ġinescap able
Ġnaught y
Ġrebell ion
Ġhedon istic
Ġencount ers
Ġunbl inking
Ġneur otic
Ġkil mer
erell a
Ġspraw ling
Ġperme ates
Ġovershad owed
Ġsubte xt
Ġglam our
Ġzipp y
Ġprofund ity
maj idi
obi ographical
Ġcurm udgeon
Ġinnuend o
Ġirrele vant
Ġcroc odile
Ġacknowled ges
Ġmisanthrop ic
jacqu ot
kil ter
lab ute
nour ished
parent s
suc ceeds
Ġtren chant
Ġaft erschool
Ġahol a
Ġoce an
Ġfien nes
Ġmawk ish
Ġbagg age
Ġcum ulative
Ġcind erella
Ġcog ent
Ġwart ime
Ġpiqu ant
Ġdold rums
Ġhicken looper
Ġnuc lear
Ġgris ly
Ġstol id
Ġbeij ing
vivid ly
Ġherit age
Ġjord an
Ġlighthe arted
Ġunap olog
Ġvard alos
Ġwhodun it
Ġspright ly
Ġorche str
Ġblax ploitation
Ġdispar ate
Ġvign ettes
Ġunderbel ly
Ġundercur rent
Ġshenan igans
Ġbrook lyn
Ġzha o
Ġunsurpris ing
Ġmisogy ny
Ġwahl berg
Ġmadden ingly
Ġwaterlog ged
Ġtearjerk er
Ġlaisse z
Ġspellbind ing
Ġirrespons ible
Ġpyrotechn ics
Ġsanctimon ious
1 0
8 0
9 0
a un
a ise
a ustr
a head
b i
b on
b am
b art
b op
b one
b iz
b less
b ond
b ara
b irot
c at
c ap
c rit
c reen
c ingly
c ath
c les
c ends
c urd
d i
d oo
d ue
d ated
d ots
d ening
d iane
e c
e u
e v
e el
e the
e ck
e qu
e ble
e vent
f re
f at
f et
f ive
f ram
f ear
f ather
f ia
f air
f oot
f ron
f itting
f ried
f oster
f rida
f essenden
g on
g ot
g ri
g ate
g ap
g ame
g ress
g old
g ically
g hey
h r
h old
h ome
h yp
h off
h any
h aneke
h oned
h ungry
h appily
h malbaf
i ard
i ary
i ance
i vers
i ably
i pping
i pped
i atingly
j ul
j ol
j ason
k er
k ien
k aufman
k apur
k wer
l ay
l est
l ame
l led
l antic
l iness
l ane
l uck
l ined
l astic
l augh
m om
m el
m oo
m ight
m ind
m ary
m ild
m ma
m uddled
m ckay
n ad
n ial
n ice
n ingly
n ons
n umber
o pe
o ks
p re
p ra
p se
p un
p ure
p ain
p op
p led
p assion
p redict
p redictable
p acino
p opping
p odge
r ick
r ine
r ice
r atic
r uss
r uous
s n
s ure
s pe
s ac
s ian
s ize
s ets
s low
s nan
s ince
t al
t om
t ell
t elling
t Ã£
t orn
t urning
t imer
t adpole
u i
u z
u ke
u ire
u pl
u pp
u ence
u ating
u ccess
u pper
v s
v est
v asive
w s
w as
w ra
w ess
w ins
w orn
w ined
w alk
w ai
w right
w olf
w ashy
w attage
x ing
x es
x istent
y i
y l
y ce
y ate
y ard
y ah
z iness
z huang
Â ¡
Â ±
Â ¼
Â Ń
Ã ¢
Ġ =
Ġ ich
Ġ xt
Ġt in
Ġt ant
Ġt ie
Ġt ame
Ġt ons
Ġt apping
Ġa h
Ġa id
Ġa pe
Ġa ven
Ġa vant
Ġa uster
Ġa ids
Ġa val
in ch
in ally
in ter
in fl
in ality
in cess
in ently
in ished
he ro
he rable
Ġs en
Ġs ul
Ġs ven
Ġs ky
Ġs ons
Ġs ends
Ġs ledge
Ġs assy
re r
re ra
re cher
Ġo o
Ġo od
Ġo lym
Ġo oz
er ves
er red
er ners
er bergh
it an
it ar
it as
it ical
it ment
it ably
it als
it iated
it arian
it chen
Ġthe or
Ġf id
Ġf ist
Ġf ert
Ġf used
Ġf ashioned
Ġf uel
Ġf arts
Ġf lying
Ġf aded
Ġf oster
Ġf ifty
Ġf essenden
Ġf ontaine
Ġf alters
is er
is on
is ine
is ible
is co
en ig
en ance
en joy
en orm
Ġm ic
Ġm ine
Ġm erg
Ġm uddy
Ġm umbo
Ġm ckay
at he
at ri
at ner
at hered
at oes
Ġb id
Ġb ell
Ġb ark
Ġb led
Ġb oss
Ġb ought
Ġb ale
Ġb ail
Ġb alk
Ġb ander
Ġb ern
Ġb illy
Ġb icy
Ġb irds
Ġb umbling
Ġb ielinsky
Ġc q
Ġc ow
Ġc un
Ġc ust
Ġc od
Ġc ass
Ġc oc
Ġc ash
Ġc ars
Ġc uss
Ġc atching
Ġc umbers
Ġw es
Ġw on
Ġw ol
Ġw ard
Ġw ert
Ġw ore
Ġw iz
Ġw ang
Ġw ren
Ġw reak
Ġw ander
Ġw anes
Ġw renching
es ar
es us
or th
or ish
on au
on izing
ou ri
ou yate
Ġp le
Ġp ent
Ġp oo
Ġp and
Ġp ore
Ġp ep
Ġp elling
Ġp ages
Ġp umm
an os
Ġd oo
Ġd ur
Ġd ire
Ġd ile
Ġd ual
Ġd ress
Ġd ash
Ġd amp
Ġd iar
Ġd ots
Ġd oof
Ġd war
Ġd aught
Ġd ante
Ġd aughter
Ġd ensely
Ġd iane
ar on
ar row
ar chy
al a
al ys
al ented
Ġth ri
Ġth rew
Ġth irteen
ly sian
Ġh oo
Ġh ates
Ġh ug
Ġh icks
Ġh iding
Ġh inds
Ġh ouses
Ġh odge
le in
le ep
le ted
le ague
le aves
le wis
ic ine
ic hed
ic ially
ic ament
ic cated
Ġto w
Ġto es
Ġto ots
Ġto xic
Ġin j
Ġin k
Ġin im
Ġin qu
Ġin art
Ġin ade
Ġin ability
Ġin appropri
ed ience
il k
il ized
Ġl es
Ġl an
Ġl am
Ġl ag
Ġl ake
Ġl ick
Ġl ens
Ġl ink
Ġl inger
Ġl uster
Ġl aser
Ġl ittered
Ġn an
Ġn ad
Ġn ur
Ġn ud
Ġn ary
Ġn ative
Ġn air
Ġn orton
Ġn urt
Ġn ba
Ġn ettelbeck
Ġn arrow
st ra
st ay
st art
st ale
st ered
st abbing
Ġit al
Ġit em
Ġe ating
Ġe there
Ġe cl
Ġe tern
Ġe cho
Ġe pps
Ġe lysian
Ġg oo
Ġg our
Ġg oy
Ġg ren
Ġg ian
Ġg illi
Ġg ai
Ġg arc
Ġg aud
Ġg ained
Ġg aghan
Ġis le
ut s
ut ch
ct or
ct ic
el ic
Ġmo ist
ent o
as is
as ed
as ion
as ms
ot o
ot hing
ot ics
ot iate
ve led
ve red
ve ka
Ġst al
Ġst ance
Ġst ub
Ġst agg
Ġst inks
Ġst ellar
Ġst asis
im i
im el
im um
im per
im mer
Ġbe ating
Ġbe aring
Ġbe gging
Ġre ap
Ġre ginal
Ġre ese
Ġre bel
Ġre ceived
Ġre kind
Ġre ndering
Ġre working
ra pe
ra der
ra ges
ra ints
ra qui
Ġu h
gh an
ver a
ro y
ro driguez
ul ter
ul ine
ul led
ul atory
ch a
ch t
ch ai
ch wit
ch icago
Ġon going
Ġan a
Ġan na
Ġan emic
et ically
Ġfilm ing
Ġy e
Ġy i
Ġas king
ri al
ri ous
ri but
ol as
ol ve
ol ves
ol ical
ol ved
ad apt
Ġfor gi
Ġfor cing
Ġfor given
se en
se agal
se arching
ess ional
Ġwh it
Ġwh ip
Ġwh irl
Ġwh imper
Ġsu ng
Ġsu icide
ir t
ir ation
ir ling
ir win
id ents
id ences
if orn
Ġch oc
Ġch air
Ġch omp
Ġch imps
th reat
th orough
th rowing
th irds
th roat
am ic
am ie
Ġal ar
Ġal as
Ġal mod
Ġal tar
ers hot
Ġhe m
Ġhe ck
Ġhe ated
Ġhe ft
Ġhe aling
Ġhe els
ab i
ab olical
un even
ill o
ill ard
Ġj r
Ġj et
Ġj os
Ġj ie
Ġj ac
Ġj ia
Ġj ank
Ġj ugg
Ġj ett
Ġj udge
Ġj esse
Ġj umbo
Ġj eline
Ġj azzy
Ġj esus
ag li
um acher
um ption
Ġse am
Ġse ams
Ġse eds
Ġse gment
Ġse rene
ck et
ous al
em ing
em pl
Ġen comp
ur b
ur ved
Ġint r
Ġli u
Ġli ven
Ġli vel
Ġli br
Ġli bid
Ġli otta
Ġex al
Ġex ude
Ġex udes
Ġex empl
ak er
ak ata
ist ence
ist ingu
Ġsh ri
Ġsh all
Ġsh ore
Ġsh own
Ġsh aking
Ġsh aring
Ġsh amb
Ġsh ades
Ġsh ared
Ġsh rek
Ġsh ifts
Ġsh afer
qu itting
rom e
rom anek
Ġab ilities
Ġnot ably
Ġha pless
Ġdo z
Ġdo ors
ant om
ant et
Ġde ce
Ġde lect
est ed
est eem
Ġun end
Ġun leas
Ġun imp
Ġun ited
Ġun rep
Ġun known
Ġun sym
Ġun affected
Ġne ck
Ġne uro
Ġsc ant
Ġsc orn
Ġsc ams
Ġsc rap
Ġsc hepisi
Ġcon an
Ġcon quer
Ġcon verted
Ġcon noisse
ain ted
ast onishing
art ic
ell ingly
Ġat lantic
Ġwor rying
Ġk im
Ġk ate
Ġk ook
Ġk ang
Ġk ink
Ġk ane
Ġk ub
Ġk itten
Ġk wan
Ġk aren
Ġk itchen
Ġk ouyate
Ġso ars
Ġso rely
Ġso pr
act ory
ig e
ig r
ig uch
Ġby gone
us hes
ust y
ap on
ap ed
ap se
ap art
ap able
for get
for ced
for gettable
ood le
Ġchar lotte
and re
Ġpro st
Ġpro ving
Ġpro of
Ġpro ced
Ġpro wess
Ġr ut
Ġr ud
Ġr ue
Ġr ans
Ġr anc
Ġr att
Ġr haps
Ġr otten
Ġr ushed
Ġall usions
op ens
Ġpl ate
Ġpl atter
Ġfe ces
ind ulg
ven ed
ter rif
her s
Ġle d
Ġle aps
Ġle vy
Ġle aks
Ġle ague
Ġle aky
Ġpre sc
Ġpre val
Ġpre teen
Ġpre gn
os i
os eless
os car
Ġv in
Ġv ary
Ġv ice
Ġv aude
all en
Ġsp it
Ġsp out
Ġsp ine
Ġsp iff
Ġsp ins
Ġsp ader
Ġsp recher
ard e
Ġper ils
Ġper ple
Ġper col
Ġper funct
Ġper vasive
Ġor de
Ġor chard
ack ing
ack les
ack aged
Ġim perfect
Ġim amura
Ġcl ad
Ġcl am
Ġcl one
Ġcl aw
Ġcl apt
Ġcl osed
Ġcl ones
Ġcl oud
Ġcl aim
Ġcl aims
ong ruous
pl ate
pl us
pl od
pp ingly
pp led
pp osed
Ġout we
Ġout bur
Ġout takes
Ġout shine
Ġout dated
end iary
ble d
man ip
Ġfun ctions
Ġman aging
Ġam Ã£
Ġam ple
Ġqu ot
Ġqu ills
Ġqu aint
Ġqu inn
Ġtr uff
Ġlo d
Ġlo hman
ine ering
Ġno isy
Ġno yce
Ġup set
Ġar ro
Ġar ms
Ġar arat
Ġwe ig
Ġwe bs
Ġwe aver
Ġwe apon
ac re
ac le
ac oy
og en
Ġi an
Ġi wai
Ġfl ag
Ġfl ight
Ġfl ip
Ġfl av
Ġfl ounders
au x
our y
Ġwill s
Ġad age
Ġad rian
Ġgood all
od d
od ies
od ox
com fort
Ġany more
we ig
we ird
Ġmu ccino
Ġcomp rehensible
Ġpo le
Ġpo se
Ġpo ised
Ġent ers
Ġro y
Ġro lled
Ġwork out
akes peare
Ġbl ess
Ġbl iss
Ġbl ows
Ġbl ob
Ġbl uster
Ġbl ithe
Ġwhe els
Ġover view
Ġover stated
Ġover cook
Ġover heated
iz er
iz ens
Ġperfor mer
Ġperfor ming
Ġdis cont
Ġdis orient
Ġdis cipl
Ġdis regard
Ġdis comfort
ound s
ound ingly
Ġway downtown
ark s
Ġwhat so
Ġhum ble
Ġhum ans
Ġbet ray
int o
int ed
int erest
int ellig
int eresting
rit chie
Ġsl ide
Ġsl ug
Ġsl opp
Ġsl ender
ish ly
Ġwell es
ip herable
Ġra g
Ġra h
Ġra pe
Ġra cy
Ġra ising
Ġra gged
Ġra ging
wn ess
Ġme yer
Ġme gap
Ġsub stand
Ġsub conscious
Ġri g
Ġri v
Ġri pping
cc ini
ne ed
ne ck
ne ath
Ġtw in
Ġtw addle
sp orts
sp iring
Ġgo ndry
oc ious
oc ated
oc lastic
Ġevery where
Ġimp oss
Ġimp erson
Ġreal ities
Ġreal izing
Ġreal izes
Ġvi be
Ġend ings
Ġend uring
ions hip
Ġnever land
Ġbad ness
Ġsur re
Ġsur ve
Ġbr ash
Ġbr ush
Ġbr anagh
Ġwas h
Ġwas hed
Ġte a
Ġte asing
Ġte eming
Ġdes ert
Ġdes iccated
Ġdel h
Ġdel usions
ph il
ond itional
Ġsm e
Ġsm oot
Ġsm iling
Ġsm irk
Ġser v
Ġser ry
so ver
Ġscreen plays
sh ack
sh od
sh oot
sh ots
sh ows
sh allow
sh yamalan
sh anghai
sh akespeare
Ġother world
Ġstr ings
Ġstr ung
Ġnew ton
ren ner
Ġmat t
Ġmat ched
Ġmat tei
Ġpe plo
Ġag ree
Ġag enda
Ġag onizing
Ġtra p
Ġtra ct
Ġ1 6
Ġ1 70
Ġunder nourished
Ġunder neath
Ġpart ner
Ġrom anek
Ġheart str
Ġheart ache
urn ed
Ġjo k
Ġbig ot
Ġbig elow
Ġres olut
Ġres orts
Ġres ident
Ġres urrection
Ġres erved
Ġinterest s
Ġmin us
ash i
vent ful
sc ene
sc ooby
sc herfig
Ġcr ashing
oth y
Ġob li
Ġcharacter ized
Ġhol ly
Ġown ers
istic ated
iv ated
imp ossible
Ġshow down
Ġche ery
Ġche eky
Ġaw ry
Ġwar ned
Ġins istent
Ġins ignific
aw ed
aut hentic
Ġgr ate
be yond
be comes
Ġco x
Ġco en
Ġco ast
Ġatt ent
Ġatt ending
Ġatt ached
Ġtri als
Ġtri ple
Ġdown ward
ather ine
Ġdoc u
Ġdoc uments
iss et
Ġter ri
Ġter ry
Ġter minally
Ġgra in
Ġgra ham
Ġcol lin
Ġcol umn
Ġaf ghan
Ġkind s
Ġmight y
Ġrel ating
Ġrel atives
Ġfr othy
Ġca f
Ġca ustic
Ġca esar
Ġworld s
like ly
Ġrec y
Ġrec all
Ġrec ite
Ġrec alls
sy n
sy ch
Ġgu ide
ars ky
Ġplay wright
Ġview s
Ġview point
Ġbel gi
Ġback ed
Ġback yard
Ġlaugh ably
az ed
az ingly
Ġapp le
Ġgl ow
Ġgl ad
Ġgl over
Ġgl itz
Ġset ups
Ġexc l
Ġsat in
Ġkid d
Ġhuman e
Ġhuman ly
Ġmess ing
Ġori gin
Ġori gins
Ġpers uasive
Ġinc apable
Ġinc ongruous
Ġinc endiary
Ġmus h
Ġmus ket
Ġpr ank
Ġpr anks
Ġpr iceless
Ġpr urient
Ġpr incess
Ġcare ers
Ġind ig
Ġind ication
Ġel bows
ex ecut
ex plo
Ġdra ined
Ġdra gged
Ġshe ll
Ġfin ished
Ġfin esse
Ġext ends
Ġext ensive
Ġph on
Ġcreat ively
Ġrep ug
Ġrep ulsive
Ġform s
Ġform al
Ġswe ep
Ġswe ethe
Ġbu oy
Ġbu Ã£
Ġpower fully
gu ably
ys ical
Ġmar red
Ġwere wolf
fl uous
me ant
me andering
no ir
Ġdist ress
Ġdist anced
Ġexpl ain
Ġexpl ains
Ġexpl icit
ins ki
Ġref ined
Ġref use
Ġdec or
Ġdec ision
ane o
Ġhor n
Ġafter thought
Ġappe als
Ġappe aring
Ġappe ared
Ġes p
Ġes pion
Ġspec ulative
Ġspec imen
Ġfri el
Ġho ly
Ġho ary
Ġ2 4
Ġ2 6
Ġmem orial
Ġmem ento
Ġcar ved
Ġcar rying
Ġcra ig
Ġmel t
Ġbit es
ward ing
Ġsex ually
Ġsol ace
Ġmor d
Ġmor ose
Ġmor ph
Ġmor onic
Ġmor gan
Ġyoung sters
Ġed ward
Ġsch iz
Ġsch umacher
Ġsch weig
Ġinv itation
Ġinv ites
Ġinv isible
Ġperson as
asc uline
Ġmi ami
Ġmi yazaki
Ġsuper hero
Ġsuper fluous
Ġdial og
Ġintellig ently
Ġmon te
Ġlea vened
Ġclass ified
icul ate
min able
Ġsay les
Ġtou g
Ġchild ish
Ġgener ated
Ġ19 40
erg y
Ġhand ic
Ġhand ed
Ġhand ling
Ġhand les
co x
co pe
co aster
Ġsw ay
Ġsw itch
Ġsw ipe
Ġsw itches
Ġdem me
Ġdem ograph
Ġbelie f
att al
att ers
att aneo
Ġabs ence
Ġlast ing
Ġpain ting
Ġpain ted
Ġhar rison
Ġexp ands
Ġexp anded
Ġfascin ate
Ġfascin ated
Ġfascin ates
Ġput rid
Ġeffort less
Ġmed icine
Ġele gi
Ġele vate
Ġinter f
Ġinter ludes
Ġbor stal
Ġstar ing
Ġstar red
Ġlight ly
Ġdef ine
Ġdef iantly
odram a
Ġcinematic ally
some where
some how
Ġpsy ched
Ġpsy che
Ġma ids
Ġbra zen
Ġnarr ation
Ġbo ils
Ġbo iler
Ġbo isterous
Ġbo orish
Ġsad ism
Ġsad dled
Ġbar bara
Ġund istingu
Ġsusp ension
Ġcomm ended
Ġcomm ands
Ġcomm itment
ric hed
Ġsens ation
Ġuns us
Ġuns uccess
Ġret reat
Ġret elling
off s
Ġmid way
Ġmid life
Ġpot bo
Ġpop ulation
Ġconf ines
Ġconf ined
Ġconf usion
Ġpsych ic
Ġdi abolical
Ġday dream
Ġprof ession
Ġprof icient
Ġengag ingly
Ġmiss ion
Ġred gra
Ġred neck
Ġass et
Ġass ayas
Ġstrong est
Ġobvious ness
cl ut
cl ock
Ġop rah
Ġsure fire
Ġhead ed
Ġmag imel
Ġwild life
Ġda vies
Ġda ft
Ġamb rose
Ġtrag ically
Ġsatisf ied
Ġsatisf actory
Ġdam ning
Ġfact s
Ġpat ri
Ġpat ric
Ġreason able
Ġquir kiness
Ġtrans ition
Ġtrans gressive
fe eling
Ġacc laim
Ġacc uracy
Ġcou ples
Ġcou pled
Ġwin ners
Ġprom otes
Ġste ers
Ġste wart
Ġrob ust
Ġrob inson
Ġmoder ately
go ers
ient ious
Ġmur k
Ġpun ches
Ġpun gent
Ġsubt ler
Ġdramatic s
Ġdelight ed
Ġoper atic
Ġmis chie
Ġcred ul
Ġnor th
Ġnor mal
Ġsuccess es
Ġsuccess or
Ġtre es
Ġtre acher
Ġtreat ed
Ġtreat ise
Ġsn ore
Ġsn atch
Ġsn ail
Ġbri o
Ġcam arad
Ġ9 3
Ġ9 4
Ġfren zy
Ġfren etic
Ġgri e
Ġread ily
Ġval id
Ġval ley
Ġval iantly
gr ass
ser ving
ser vice
Ġocc ur
Ġocc urs
Ġwa ves
Ġwa its
Ġwa fer
Ġdumb ness
ugg y
ugg ery
Ġill um
Ġearn ed
Ġflat tering
Ġflaw less
Ġve gg
Ġve ins
Ġbegin ners
cent er
und rum
Ġsign als
Ġmet al
Ġcount s
Ġstyl ist
Ġstyl ings
bl ance
bl anc
Ġmot or
Ġmot ives
Ġcal ib
Ġcal iforn
Ġhit ler
Ġreve rence
Ġaffect ed
Ġaffect ation
het ically
elt own
where as
ann is
Ġdream ed
Ġdream like
Ġsuff icient
comp lete
Ġwind ows
ote es
Ġstri p
Ġreg ister
Ġreg ards
Ġreg urg
Ġje ong
Ġdeath s
Ġemb ell
ob son
Ġdou glas
Ġur gent
Ġdev olves
Ġrock s
Ġrock et
Ġsecond hand
Ġhelp ing
Ġspe ed
Ġcap ability
Ġrest s
Ġexplo its
Ġexplo iting
Ġoccas ion
Ġfre ight
Ġfre quent
Ġmad cap
Ġmad dening
Ġforget s
Ġquick ie
hy ang
Ġaff able
Ġaff irm
Ġsand w
Ġfound ation
Ġcor pse
Ġden y
Ġden ou
Ġden zel
Ġden izens
Ġexam ples
Ġpoet ically
Ġder ives
Ġder ived
Ġconcept ual
Ġappro ached
Ġappro aches
gra vating
Ġ8 4
Ġ8 7
Ġair s
Ġair less
Ġlif el
Ġgrow th
Ġcomb ust
Ġhilarious ly
ai ian
Ġaut op
Ġaut obiographical
Ġexecut ive
bo asts
year s
Ġsle az
Ġsle eper
Ġbal ances
Ġcost ly
Ġesc ort
more tti
Ġfem me
Ġcond itions
Ġcond ensed
Ġposs ession
Ġdri ving
Ġnon con
Ġnon jud
Ġnone xistent
Ġblood shed
Ġtwist y
Ġtwist ing
Ġver ge
Ġachie ved
Ġfoc uses
Ġcur t
Ġdig it
Ġdelic iously
way downtown
Ġbrit s
Ġgent ility
Ġgent eel
Ġcho kes
Ġunt alented
Ġunt urned
Ġbland ly
Ġtest imon
Ġtheat res
Ġparent al
Ġexh ib
Ġapproach ing
gi ving
Ġer rol
Ġfig uring
Ġfig ured
Ġprocess ed
Ġfav ored
Ġobser ve
Ġcoll ide
Ġopen ed
nect ed
Ġbur kin
Ġbur stein
Ġwel sh
Ġinvent iveness
Ġgod zilla
Ġspl iced
Ġthoughtful ness
Ġful filling
Ġcamp anella
Ġdest roy
Ġintim id
Ġexist ing
Ġprov oc
Ġii i
Ġphot ographer
Ġpresent ing
che l
cul kin
good ing
Ġsqu ad
real ist
Ġhy ster
Ġlab el
Ġlab orious
Ġge or
Ġrout e
Ġoffer ings
Ġquestion ing
spect ac
Ġ4 8
Ġtyp ically
Ġcrit ique
Ġcrit icism
Ġpurp oseless
Ġhot dog
char ming
Ġshoot s
Ġhaun ts
Ġroad s
Ġfail ings
Ġrespect s
Ġrespect ful
Ġfrustr ated
Ġincl ination
Ġcelebr ated
zz zz
Ġess ay
Ġcross es
alt a
Ġsteven s
Ġconflict s
Ġfore most
Ġmer cy
Ġwed nes
Ġpark ing
Ġconnect ed
Ġvo id
Ġvar iations
Ġing rat
Ġtear ing
Ġfan atics
Ġpal estinian
Ġlim an
Ġrevel s
ify ingly
Ġplain ly
Ġamaz ement
Ġtriumph s
Ġtriumph ant
Ġmetaph ysical
handed ness
Ġram p
Ġfram es
Ġyork ers
Ġspark les
Ġfrank enstein
cle ver
Ġwood s
Ġhip ness
Ġmother hood
Ġann als
ister ingly
Ġsupposed ly
col or
col ored
Ġfall en
Ġmach in
Ġcir cle
Ġdan ish
Ġdan ang
Ġju an
Ġju wann
Ġimm ers
Ġimm ense
Ġimm ature
Ġimm igr
Ġdesc ends
Ġtrouble d
Ġaccompl ishment
Ġsuggest ing
Ġsuggest ion
tr ick
Ġbre ed
Ġpu ccini
Ġgay ton
Ġmoviego er
Ġfear lessness
Ġclos est
Ġclos ure
Ġground s
Ġground ed
Ġground breaking
Ġskin ny
Ġidi ot
Ġsav or
Ġham my
Ġname ly
Ġrev ulsion
Ġconst raints
Ġconstruct s
Ġmanner isms
Ġtur bul
Ġmil es
Ġmil est
Ġmak hmalbaf
Ġbi ke
Ġwise ly
Ġinex orably
Ġweight less
Ġbright ly
hum or
hum orous
low icz
Ġest ablish
Ġtick ets
Ġaim lessly
head s
Ġsick ening
Ġeth os
Ġgre edy
Ġgre ase
Ġbeat en
Ġresp ond
Ġcomfort ably
Ġunin itiated
Ġscr ut
Ġscr uffy
Ġrive ted
cons id
Ġrecord s
Ġimaginative ly
Ġinclud ed
Ġcirc les
Ġtun e
Ġtun is
Ġtun ney
Ġwat ches
Ġpri de
Ġpri vile
Ġdom inated
see king
Ġencou rage
Ġintro spective
Ġunc onditional
Ġtravel ogue
Ġcheck ing
Ġrepres ented
Ġmarvel ously
Ġfright en
Ġdemonstr ation
Ġdemonstr ating
Ġsuperficial ity
fer rara
Ġbog danovich
Ġwest erners
Ġhyp ed
Ġring u
Ġdisc ourse
Ġsurvi ving
Ġsurround s
Ġsurround ed
Ġsurround ings
Ġsmo other
Ġsmo king
Ġexcess ively
Ġdetail ing
Ġmagn olia
Ġtransp arent
Ġtransp arently
wo nder
Ġign or
Ġign ites
Ġsight s
Ġcry st
Ġlaw s
Ġsugar man
Ġcompet ition
Ġroot ed
cont ains
Ġcourage ous
Ġembarrass ing
Ġcommercial ism
Ġeccentric ity
bor rows
den is
Ġmc dowell
Ġmal colm
Ġmal aise
Ġbow el
Ġdim in
Ġna vel
Ġna Ã£
Ġgames manship
roll s
Ġalien ate
Ġalien ating
Ġjol t
Ġjol ting
Ġjol ts
Ġune ase
Ġune asily
Ġune ventful
Ġscar let
Ġspook iness
Ġtrick y
Ġadoles cence
Ġmusical s
Ġaccept ing
Ġaccept ance
Ġconsid ers
Ġmaint aining
Ġsleep ing
Ġtiresome ly
ha ving
Ġtour ists
Ġopt s
Ġopt ion
Ġmas quer
Ġmas ala
Ġmill enn
Ġwry ly
Ġstir s
Ġstret ch
Ġneg lig
Ġneg otiate
Ġconce al
Ġplod s
Ġcompassion ate
Ġcontra st
Ġirre ve
Ġirre voc
Ġsignific antly
Ġdescri bes
suff ering
Ġhide ously
Ġresem blance
Ġsun k
Ġsun set
Ġjer king
Ġliber ation
Ġord ers
Ġteacher s
Ġphys ically
Ġ199 5
Ġ199 8
Ġ199 9
Ġinept ly
Ġprofessional s
hu gh
mi yazaki
pret ty
su pposed
Ġ7 2
Ġten or
Ġten acious
Ġtack y
Ġmiche le
Ġpus hing
Ġger iat
vern ier
Ġasp ires
Ġvol ume
Ġvol umes
Ġvulg arity
Ġclim ate
Ġoverwhel ms
Ġoverwhel med
Ġgrim ly
Ġreflect s
Ġ195 2
prod uction
Ġdivers ity
Ġembra cing
Ġsplend or
pleas e
Ġtor o
Ġtor por
Ġtor mented
rep resents
Ġcame o
Ġcame os
Ġhay ek
Ġanaly tical
Ġsuspect ed
americ ans
unt il
Ġdecept ions
Ġvamp ires
Ġremem bers
Ġremain ing
Ġ11 0
Ġcruel ly
Ġtrem ors
Ġmotiv ation
Ġnostalg ic
bas ement
Ġment ality
Ġbed room
Ġcate gor
orig inality
Ġpile up
Ġlos ers
Ġgrown ups
Ġcompl ain
Ġchick en
Ġunw ieldy
Ġsole ly
Ġrecyc les
Ġbackground s
Ġexplos ive
Ġcrack le
Ġ198 0
Ġ198 2
Ġ198 4
Ġpaint ings
Ġcondition ing
Ġknock around
bar ney
dog town
fri day
fri ends
fest s
Ġmass es
Ġmass ive
Ġbou nces
Ġbart lett
Ġbaff led
Ġwis eman
Ġwond ered
Ġwond rous
Ġthreat ens
Ġhang ing
Ġlil ia
Ġluc y
Ġluck iest
Ġell i
Ġjul ia
Ġhaw aiian
Ġru ined
Ġmyth ology
Ġminim um
Ġobsc ured
Ġappropri ately
Ġdistract ing
Ġdistract ed
Ġdistingu ishes
Ġrespons ibility
Ġinflu ences
Ġinflu enced
cal led
Ġtempt ation
Ġav ailable
Ġfac ial
Ġmount ed
Ġmount ain
Ġboo bs
Ġcu isine
Ġanth rop
Ġens n
Ġens ures
Ġscatt ershot
Ġpress ure
Ġimmedi acy
Ġclot hing
Ġblow ing
Ġresist ance
Ġafric a
Ġrelig ion
Ġsatir ic
Ġbroom s
Ġhandsome ly
Ġportray ed
Ġportray als
Ġwitness ed
Ġassass ination
Ġjournal ist
Ġinev itably
Ġdeterm ine
Ġsacrif icing
Ġdickens ian
hash iguch
sl ap
wit less
Ġtend ency
Ġtuck er
Ġoli vier
Ġeconom ic
Ġgos ford
Ġrat liff
Ġleon ard
Ġupd ate
Ġupd ated
Ġartif act
Ġcrim en
Ġaware ness
Ġclean er
Ġiron ies
Ġcalcul ating
Ġsubstit utes
Ġsymbol s
Ġsophom ore
dro ppingly
dem me
fr ills
pic ious
Ġton al
Ġtem per
Ġsar ah
Ġod or
Ġcath artic
Ġcorn ers
Ġpy thon
Ġpad re
Ġpad ding
Ġpad ded
step hen
Ġsuit ably
Ġscrew ed
Ġconsequ ence
Ġkill ers
Ġsoci ology
Ġdramat ization
Ġcock y
Ġcock ettes
Ġdepict s
Ġborder ing
Ġconvinc ingly
Ġcontempl ation
Ġexistential ism
Ġcontradict ion
Ġinhabit ants
Ġfundament al
aa aa
ben eath
bro snan
bust ing
fin ally
Ġtatt ered
Ġaute ur
Ġsne aks
Ġseld om
Ġfing ers
Ġbomb astic
Ġwound s
Ġtoler ate
Ġtoler able
Ġtoler ance
Ġlun atic
rob in
Ġanch or
Ġsudden ly
Ġjan uary
Ġjacqu es
Ġsepar ation
Ġexuber ant
Ġshr ugging
Ġunbelie vably
Ġconj ured
Ġconco ct
Ġprev ails
Ġvast ly
Ġperpet ual
Ġperpet rated
Ġque asy
Ġsubpl ot
Ġcontrovers ial
aware ness
conf essions
Ġappl ies
Ġguarante e
Ġexperiment ation
Ġdeliber ately
Ġparano id
Ġbrid get
Ġerr ors
Ġicon oclastic
Ġgimmick y
Ġenvironment al
Ġphenomen on
Ġspontane ous
fall on
god ard
pass er
sa ic
tar antino
Ġtang led
Ġtread ing
Ġapt ed
Ġske wed
ref ere
Ġbot hered
Ġcy ber
Ġdoll ar
Ġinsec urity
Ġgle efully
Ġgle aned
Ġgigg le
Ġreli able
Ġreli ance
Ġchore ography
Ġsept ember
Ġenh ance
Ġenh ances
Ġkos minsky
Ġkenn eth
Ġorgan ic
Ġfles hed
Ġundercut s
Ġparticip ants
Ġdefe ated
Ġdefe ats
Ġbarrel s
Ġcondesc ension
Ġcollabor ators
Ġdestr uctive
Ġyawn ing
Ġheartbreak ingly
Ġschmalt z
Ġmichel le
absor bed
absor ption
murder ous
Ġhitchcock ian
bu y
dra wn
dest r
mat tei
oz petek
wall ace
Ġfi end
Ġfuri ously
Ġcarn age
Ġnic est
Ġnut ty
Ġgall o
Ġster ling
Ġchap ter
Ġabb ass
Ġabund ant
Ġdoor step
Ġconcent rates
Ġkath y
Ġrum ination
Ġvic ious
Ġspr ink
Ġimplic it
Ġimplic ations
Ġoverst uffed
Ġnewcom ers
Ġtrav ails
Ġtrav esty
Ġresour ces
Ġrecreat es
Ġindic ates
Ġindulg ence
Ġoppressive ly
Ġneglect ed
Ġarchitect ure
Ġprincip als
bog danovich
cre ep
oe pp
sim pl
turn er
Ġtab lo
Ġtiss ue
Ġtiss ues
Ġfond ness
Ġbank rupt
Ġdow ntown
Ġhipp ie
Ġtooth less
Ġmol ly
Ġstif ling
Ġstalk er
Ġren ner
chang ing
Ġanarch ic
Ġbutt ons
Ġchai ken
Ġliz a
Ġliz ard
Ġkne e
Ġkne es
Ġplat itudes
Ġvac uum
Ġvulner able
Ġvulner ability
Ġouts iders
Ġmanifest o
Ġarth ouse
Ġadrenal ine
Ġentr anced
Ġblur ry
Ġovert ly
Ġrac ist
Ġrac ism
Ġray mond
Ġimpul se
Ġimpul ses
Ġcharacteristic ally
Ġwarri or
Ġwarri ors
Ġinsuff erable
Ġincarn ation
Ġindiffere nt
Ġindiffere nce
Ġmonument al
Ġunfold ing
Ġnorm ally
Ġanton ia
Ġoppos ite
Ġunexpl ored
Ġlimit ations
Ġdisturb ingly
Ġcandid ate
Ġalleged ly
Ġhealth y
Ġunrelent ing
Ġunrelent ingly
Ġaccompan ying
Ġtumult uous
cred it
capt ures
press ible
wind talkers
Ġig by
Ġtact ics
Ġay urved
Ġaus chwit
Ġapl omb
Ġastr on
Ġaustr alia
Ġalex andre
rehe ars
Ġfif teen
Ġcri ppled
Ġcram med
Ġwallow ing
Ġpomp ous
ali yah
Ġhub ert
Ġinquis itive
Ġlur king
Ġnin ety
Ġeis enstein
Ġgam ble
Ġjud gment
Ġjose ph
Ġintol erable
Ġscand al
Ġconsc ience
Ġruth less
Ġleth ar
Ġpred icament
Ġsporad ically
Ġamar o
Ġlob by
Ġarmen ian
Ġiv ans
Ġadvert ised
comb ines
Ġcomprehens ion
Ġcann ibal
Ġoverlook ed
Ġslipp ery
Ġriff s
Ġnewf angled
Ġcontend ers
Ġcoinc idence
exc iting
Ġextrem es
Ġbub bles
Ġmargar ita
Ġswashbuck ling
Ġbrav ura
Ġparalle ls
Ġsumm ertime
Ġdrunk en
Ġcapital ize
Ġautom atically
Ġvirtu osity
Ġhomosexual ity
Ġpupp et
Ġpanor amic
Ġhallucin atory
secret ary
Ġfabul ous
Ġconspic uous
Ġnarciss ism
Ġwidow maker
Ġdiscern ible
Ġsabot aged
congrat ulatory
Ġdisintegr ating
bod ied
cam era
law rence
mou thed
mull er
sod erbergh
tak ers
Ġta vernier
Ġtins eltown
Ġsau cy
Ġoz petek
Ġove re
Ġcub an
Ġpry or
Ġpris m
Ġpier cing
Ġdar ling
Ġdizz ying
Ġhors es
Ġtol kien
Ġinadvert ently
Ġlol ita
Ġlone ly
Ġeld er
Ġeaster n
Ġgad gets
Ġgant z
Ġstall one
Ġrese arch
sever al
Ġalt man
agen arian
Ġenvelop ing
Ġexter ior
Ġunco vers
Ġunmist akable
Ġunreal ized
Ġunknow able
Ġschem es
Ġkings ley
Ġkits ch
Ġrhet oric
Ġpreced ed
Ġprejud ice
Ġspi ked
Ġperil ously
Ġarbit rary
Ġadroit ly
Ġrauc ous
Ġagit prop
Ġcrushing ly
Ġholof cener
Ġawak ening
Ġdepra ved
Ġpronou nce
Ġhistor ically
Ġhistrion ics
Ġcaric atures
Ġmonstr ous
Ġanimat ronic
Ġswagg ering
Ġzomb ie
Ġepip hany
Ġstrand s
Ġunderest imated
Ġpsychopath ic
Ġmisogyn istic
Ġgriffith s
Ġanticip ated
Ġsuffoc ating
Ġinfin itely
Ġcorrupt ion
Ġinstit ution
Ġsymmet ry
Ġgrandi osity
Ġimprovis ation
Ġfulf ill
Ġphotograph s
Ġlaud able
Ġturnt abl
Ġinexper ienced
Ġmasoch ism
Ġrecogniz able
Ġcros sover
Ġrelev ance
Ġluke warm
Ġvoyeur istic
Ġhypocris y
bless ed
cath olic
curd ling
eu vers
event ually
fet ched
fram e
foot ed
hoff man
moo re
nad illo
pra ised
sac rif
Ġich i
Ġxt c
Ġauster ity
Ġaval anc
Ġsledge ham
Ġood les
enig ma
enorm ously
Ġbander as
Ġbicy cle
Ġcun ning
Ġcust om
Ġcumbers ome
Ġwes ley
Ġwert muller
onau ghey
Ġpelling ton
Ġdur ation
Ġdile mma
Ġdiar ies
Ġdoof us
Ġdaught ers
alys is
Ġhinds ight
Ġhodge podge
Ġtoots ie
Ġinim itable
Ġinqu iry
Ġinart iculate
Ġinade qu
Ġinappropri ate
Ġnud ity
Ġethere al
Ġgian n
Ġgilli am
Ġgarc ia
Ġgaud y
Ġreginal d
adapt ation
Ġforgi veness
Ġchoc olate
threat ening
thorough ly
Ġjac obson
Ġjank lowicz
Ġjett is
Ġjeline k
agli a
Ġencomp ass
Ġdelect able
Ġunend urable
Ġunimp ressive
Ġunrep ent
Ġunsym pathetic
Ġkook y
Ġkink y
Ġkub rick
Ġsopr anos
Ġrue ful
indulg ence
terrif ic
Ġvaude ville
Ġperfunct ory
Ġorde al
Ġclapt rap
Ġcloud s
Ġoutwe igh
Ġoutbur sts
manip ulative
Ġwebs ite
acoy annis
Ġwhatso ever
Ġmegap lex
Ġsubstand ard
Ġimposs ibly
Ġotherworld ly
Ġpeplo e
Ġresolut ions
Ġcollin wood
Ġbelgi um
execut ed
Ġrepug n
Ġsweethe art
Ġespion age
Ġelegi ac
Ġundistingu ished
Ġpotbo iler
Ġredgra ve
Ġcamarad erie
Ġcaliforn ia
Ġnonjud gment
Ġtestimon ial
Ġwednes day
Ġingrat iating
Ġjuwann a
Ġturbul ent
Ġprivile ged
Ġneglig ible
supposed ly
Ġgeriat ric
hashiguch i
Ġayurved a
Ġauschwit z
1 2
1 5
2 0
2 5
a qu
a ults
a unt
b in
b ou
b ic
b ow
b ill
b ally
b itt
b ick
b reat
b ably
b its
b ian
b iting
b itten
b ags
b urd
b ender
b rown
b right
b ury
b urns
b acher
b ending
b enn
b irth
b illed
b uddy
b inoche
c en
c ri
c and
c end
c age
c ents
c ase
c ats
c atching
c uit
c alling
c oppola
c antet
c ipherable
c attaneo
c acoyannis
d v
d re
d ou
d ar
d et
d ol
d ad
d ain
d ong
d ance
d ingly
d oc
d iv
d uck
d aring
d orm
d ancing
d eter
e g
e ed
e ast
e ved
e inated
e pless
e ousness
e asily
f k
f al
f if
f ur
f ant
f res
f ine
f ren
f ting
f ying
f resh
f kin
f rey
f ontaine
g m
g ic
g ers
g ag
g ive
g os
g ram
g ical
g ated
g ling
g les
g ates
g ently
g io
g antly
g orge
g rown
g aghan
g azing
g arde
h ay
h ad
h ist
h ate
h ind
h its
h aw
h ib
h oll
h itting
h ips
h mm
h ouri
i u
i arly
i Ã£
j on
j ar
j ag
j our
j apan
j agger
j eff
k at
k ur
k ies
k ah
k ung
k icks
k illing
k har
k wan
l is
l ou
l oo
l ast
l ate
l ap
l ind
l ies
l ical
l ative
l iss
l aced
l oose
l athan
l iter
l acking
m c
m u
m ut
m ag
m ust
m ere
m ong
m ine
m ac
m other
m ination
m Ã£
m oon
m ouse
m iche
m agg
m ike
m etic
m aint
n is
n en
n on
n om
n ation
n ity
n ie
n ame
n arr
n ational
n asty
n cing
n ichol
n orton
n elson
n ik
n ettelbeck
n olan
n itzler
n ui
o it
o en
o ct
o ast
o res
o vers
o que
o edekerk
p he
p es
p il
p ap
p ard
p res
p ort
p ull
p ia
p orn
p aste
p urp
p erson
p ressed
p rep
p aid
p ray
p ilot
p sych
q i
q oy
r int
r ash
r Ã£
r ange
r ub
r iment
r ously
r ational
r uly
s un
s ill
s ur
s ust
s our
s ue
s ade
s ame
s av
s ub
s uck
s que
s itting
s aken
s inks
s illy
s kins
s oul
s kill
s ummer
s notes
t at
t ou
t ul
t ag
t ies
t ep
t ish
t te
t ub
t ends
t aste
t ric
t ied
t urns
t eld
t rying
t inted
u j
u an
u ent
u pt
u ph
u gu
u yi
u agenarian
v ar
v as
v ich
v ise
v amp
v aged
w il
w oo
w ire
w ere
w ny
w ide
w atch
w ife
w ink
w ash
w ier
w inds
w arned
w oman
x on
x posed
y as
y ak
y pe
y ingly
y ss
z er
z or
z an
z il
z ag
z ant
z man
z ac
z hang
z bick
Â ¦
Ġ ire
Ġ ick
Ġ 00
Ġ venge
Ġ ilk
Ġt ing
Ġt ut
Ġt ad
Ġt ill
Ġt ag
Ġt ak
Ġt ark
Ġt ian
Ġt ree
Ġt up
Ġt ics
Ġt ier
Ġt ank
Ġt urd
Ġt urp
Ġt ai
Ġt anks
Ġt iring
Ġt enth
Ġa x
Ġa is
Ġa ra
Ġa ver
Ġa ce
Ġa ching
Ġa ura
Ġa aliyah
in v
in th
in ity
in for
in ces
in ating
in antly
in stein
in quent
in vol
in spiring
he it
he or
he res
Ġs el
Ġs ire
Ġs ap
Ġs ack
Ġs ult
Ġs ang
Ġs app
Ġs arc
Ġs ending
re es
re vi
re et
re ass
re leas
re te
re ced
re quently
re put
re yes
re markable
re infor
Ġo m
Ġo st
Ġo un
Ġo ily
Ġo min
Ġo ops
er ingly
er ily
er ner
er otic
er ring
er ior
er bic
it is
it age
it ism
it ially
it ionally
it ching
it chy
it ability
it eness
it imate
Ġthe rape
Ġf en
Ġf el
Ġf as
Ġf us
Ġf and
Ġf ud
Ġf og
Ġf ang
Ġf led
Ġf itting
Ġf use
Ġf rown
Ġf ury
Ġf lex
Ġf aint
Ġf umbles
Ġf idelity
Ġf ooled
Ġf aux
is p
is ation
is ure
is ical
is ode
is cover
en h
en ch
en ant
en act
en ger
en berg
en uous
en ergy
Ġm ut
Ġm ul
Ġm ir
Ġm ire
Ġm ast
Ġm ate
Ġm and
Ġm all
Ġm ear
Ġm Ã£
Ġm ason
Ġm ouse
Ġm acy
Ġm unch
Ġm irth
Ġm ama
Ġm orton
Ġm aze
Ġm asculine
Ġm gm
at i
at om
at ical
at hed
at ement
at eness
at iveness
Ġb at
Ġb um
Ġb rom
Ġb ud
Ġb ind
Ġb ick
Ġb ile
Ġb ens
Ġb ish
Ġb atch
Ġb aw
Ġb row
Ġb ars
Ġb az
Ġb ates
Ġb arn
Ġb Ã£
Ġb oll
Ġb ows
Ġb ush
Ġb ags
Ġb ien
Ġb ung
Ġb ands
Ġb udd
Ġb irth
Ġb inks
Ġb umps
Ġb ille
Ġb ryan
Ġb rett
Ġb isset
Ġc ed
Ġc ab
Ġc ag
Ġc ure
Ġc os
Ġc ake
Ġc res
Ġc ine
Ġc ary
Ġc ower
Ġc ows
Ġc ott
Ġc rossing
Ġc udd
Ġc reek
Ġc odes
Ġc atherine
Ġw en
Ġw ing
Ġw an
Ġw ally
Ġw ire
Ġw ate
Ġw and
Ġw itt
Ġw ine
Ġw ary
Ġw int
Ġw ade
Ġw ink
Ġw iel
Ġw ives
Ġw anders
Ġw erner
ing es
ing ent
ing enuous
es y
es ky
es pecially
nd ay
or al
or se
or ation
or ality
on ial
on ium
ou vel
ou lish
ou ndering
Ġp om
Ġp ab
Ġp ies
Ġp our
Ġp iz
Ġp int
Ġp iv
Ġp iss
Ġp arr
Ġp ics
Ġp aste
Ġp ug
Ġp ump
Ġp ender
Ġp oses
Ġp ork
Ġp acks
Ġp ix
Ġp enn
Ġp bs
Ġp ipe
Ġp inn
Ġp esky
Ġof t
an ie
an ky
an ities
an ze
an ley
an aly
an emic
an imated
Ġd ing
Ġd or
Ġd ic
Ġd ent
Ġd ab
Ġd ough
Ġd our
Ġd iz
Ġd ating
Ġd ice
Ġd ip
Ġd ense
Ġd its
Ġd row
Ġd uck
Ġd era
Ġd ank
Ġd ump
Ġd ances
Ġd rid
Ġd orm
Ġd ared
Ġd umber
Ġd ashing
Ġd onna
Ġd ips
Ġd umm
Ġd resses
Ġd renched
Ġd itched
Ġd ulled
Ġd azed
ar m
ar oo
ar per
ar Ã£
ar ches
ar men
ar ians
ar ios
ar guably
al in
al es
al ant
al led
al ty
al izing
al ma
al med
al iation
al ds
al tering
al uate
Ġth ro
Ġth us
Ġth ud
Ġth resh
Ġth ump
Ġth under
Ġth roat
Ġh ind
Ġh os
Ġh ated
Ġh ush
Ġh unk
Ġh ills
Ġh ousing
Ġh ij
Ġh alle
le e
le g
le ad
le ading
ic ated
ic ule
ic iency
Ġto e
Ġto k
Ġto y
Ġto me
Ġto ps
Ġto pless
Ġin str
Ġin just
Ġin uit
Ġin human
Ġin formed
Ġin elegant
Ġin authentic
ed ing
ed ge
ed ict
ed uc
ed ded
il it
il ay
il ogue
Ġl in
Ġl is
Ġl ac
Ġl ite
Ġl int
Ġl ays
Ġl ars
Ġl ists
Ġl ured
Ġl ament
Ġl umber
Ġl ola
Ġl umin
Ġl inking
Ġl athan
Ġl oos
Ġl usc
Ġl illard
om ination
om ps
Ġn im
Ġn our
Ġn av
Ġn az
Ġn Ã£
Ġn oses
Ġn ancy
Ġn avi
Ġn yc
Ġn athan
Ġn olan
Ġn agging
Ġn akata
Ġn ouvel
Ġn alin
st y
st ic
st ir
st able
st one
st ud
st ore
st ress
st up
st antly
st icks
Ġit ch
Ġe ag
Ġe ile
Ġe igh
Ġe gg
Ġe ats
Ġe gy
Ġe bull
Ġe uph
Ġe erily
Ġg ed
Ġg il
Ġg ab
Ġg um
Ġg ur
Ġg ain
Ġg ust
Ġg ap
Ġg og
Ġg au
Ġg rit
Ġg oss
Ġg arn
Ġg ains
Ġg ored
Ġg aps
Ġg utter
Ġg amb
Ġg onna
Ġg anes
Ġg aining
Ġg olf
Ġg oli
Ġg heor
ut ic
ut able
ut ting
ut ral
ut ters
ut enant
ct ier
el a
el ly
el and
el ph
el ible
el ode
el ids
Ġmo pping
Ġmo jo
Ġmo aning
Ġmo nday
ent al
ent ire
ent rics
as ures
as ps
ot er
ot ing
ot al
ot ie
ot ape
ot hered
ot omy
Ġst ad
Ġst ab
Ġst ard
Ġst are
Ġst ress
Ġst ature
Ġst amp
Ġst opp
Ġst ones
Ġst urd
Ġst orm
Ġst abs
Ġst inging
Ġst acked
Ġst itched
Ġst oops
Ġst ooping
Ġst uttering
im ou
im pe
im ilated
Ġbe g
Ġbe es
Ġbe ard
Ġbe gan
Ġbe wit
Ġbe gs
Ġbe fall
Ġbe gun
Ġbe acon
vi v
vi ra
vi ant
vi era
Ġre a
Ġre j
Ġre vi
Ġre ver
Ġre id
Ġre to
Ġre vis
Ġre ek
Ġre yn
Ġre quis
Ġre written
Ġre versal
Ġre affirming
Ġre think
Ġre consider
Ġre birth
ra d
ra in
ra re
ra ck
ra ult
ra king
ra ising
ra ppy
ra imi
ra qi
Ġu pt
Ġu we
gh iu
the med
ver ick
ro d
ro pe
ro ying
ro vised
ul ent
ul ge
ul ately
ch all
ch rit
ch alk
ch rist
ch mark
ch arted
ch oppy
Ġfil ler
Ġan te
Ġan xious
Ġan onymous
Ġan archy
Ġan alysis
et a
Ġfilm goers
Ġy ang
Ġy imou
Ġas ph
Ġas cends
Ġas yl
Ġas leep
ith ing
ith metic
ri x
ri ad
ri ft
ri be
ri dd
ri ously
ri eve
ke en
ke ys
ay ed
ad d
ad ams
ad oles
ad ians
ad mi
ad vised
ad elph
Ġfor k
Ġfor t
Ġfor um
Ġfor ster
Ġfor ged
Ġfor bid
Ġfor goes
Ġfor saken
Ġwith stand
vie zel
se in
se ct
se ason
se cut
ess es
ess ly
ess el
ess ential
Ġbut ler
Ġwh ist
Ġwh iff
ir sh
ir ley
Ġcom for
Ġcom ments
if s
Ġch in
Ġch op
Ġch imes
Ġch imp
Ġch ains
Ġch af
Ġch illed
Ġch asm
Ġch ips
Ġch asing
Ġch atty
Ġmovie makers
th ood
th ings
th ree
th row
th umbs
th inking
th ora
am m
am ation
am ong
am ount
am ines
am using
am ored
am ined
am edly
am elessly
am azingly
Ġal ag
Ġal ter
Ġal ph
Ġal oof
Ġal che
Ġal oft
ers uasive
Ġhe ed
Ġhe ars
Ġhe aring
Ġhe nce
Ġhe idi
Ġhe inous
Ġhe ctic
ab y
ab ilities
ab elle
un e
un ed
un ct
un ge
un funny
un expect
ill en
ill ation
ill ating
ill ip
Ġj ere
Ġj ost
Ġj abs
Ġj aunt
Ġj fk
ag i
ag ree
ag ues
um ming
Ġse ren
Ġse vent
Ġse aside
Ġse attle
Ġse arches
ck i
ck in
ous ed
em porary
em power
em anding
em oto
Ġen act
Ġen vel
Ġen li
Ġen vious
Ġen riched
Ġen nui
Ġen amored
ur ro
ur man
ur bing
ur rect
Ġint ert
Ġint ention
Ġint rep
Ġint entioned
Ġli kes
Ġli ability
Ġex chang
Ġex change
ak ably
out rage
ist y
ist on
ist ical
ist inct
ist ration
Ġsh y
Ġsh un
Ġsh ag
Ġsh aken
Ġsh iny
Ġsh iner
Ġsh ift
Ġsh opping
Ġsh attering
Ġsh iver
Ġsh abby
Ġsh atner
Ġsh atters
Ġsh arper
Ġsh irley
qu al
qu il
qu est
qu ence
qu ies
qu iv
qu acious
Ġab el
Ġab ound
Ġab uses
Ġab hor
Ġab road
Ġab yss
Ġab omination
Ġnot ions
Ġnot ches
Ġnot icing
Ġha ul
Ġha zy
Ġha voc
Ġdo a
Ġdo ings
Ġdo omed
Ġdo ctor
ant ed
ant ula
Ġde y
Ġde em
Ġde con
Ġde arly
Ġde fl
Ġde vious
Ġde af
Ġde alt
Ġde construct
Ġde rek
Ġde leted
Ġde viant
ive ira
est ry
Ġun ad
Ġun ear
Ġun ash
Ġun sc
Ġun its
Ġun att
Ġun eng
Ġun che
Ġun char
Ġun ified
Ġun cover
Ġun brid
Ġun rem
Ġun acc
Ġun seem
Ġun aware
Ġun think
Ġun appe
Ġun gain
Ġun lim
Ġun orth
Ġun seen
Ġun ruly
Ġun erring
Ġun impe
Ġun charted
Ġne edy
Ġne ore
Ġne brid
Ġne phe
Ġne utral
Ġsc oot
Ġsc ared
Ġsc oring
Ġsc herfig
Ġsc rappy
Ġsc ribe
Ġcon cess
Ġcon fect
Ġcon ned
Ġcon gen
Ġcon strict
Ġcon undrum
ain able
ast rous
art ee
art eta
pe o
pe fying
Ġat op
Ġwor m
Ġwor ries
Ġk ib
Ġk az
Ġk ier
Ġk urd
Ġk ilt
Ġk umble
Ġk urt
Ġk lein
Ġk oury
Ġk oepp
Ġk houri
Ġso por
Ġso othing
act ive
ough s
ig on
ig an
ig zag
Ġby pass
Ġby zant
us ional
us ively
us queness
ap ers
for man
for mist
Ġchar ade
Ġpro l
Ġpro ven
Ġpro long
Ġpro verb
Ġpro saic
Ġr h
Ġr an
Ġr ot
Ġr ant
Ġr ally
Ġr ugg
Ġr ats
Ġr otting
Ġr ustic
Ġsom n
op en
op ard
op ening
Ġpl ag
Ġpl ac
Ġpl umb
Ġpl ane
Ġpl acing
Ġpl astic
Ġpl umbs
Ġpl umm
Ġpl ummer
Ġact ivity
ight fully
Ġfe eds
Ġfe eble
Ġfe isty
ud os
ud dle
ind uced
ind eed
ven ly
ere r
ere nce
ter ly
ter minally
Ġle ap
Ġle ash
Ġle ys
Ġle aning
Ġle vity
Ġle aping
Ġle blanc
Ġle isure
Ġhis pan
Ġpre f
Ġpre view
Ġpre ord
Ġpre empt
Ġpre dis
Ġpre aches
Ġpre dom
ge ly
ge ois
os o
os y
os er
os al
os oph
os uke
os cope
ff in
ff aw
ff ics
ff lÃ£
ff einated
Ġv h
Ġv at
Ġv ag
Ġv ine
Ġv oting
Ġv essel
Ġsp un
Ġsp its
Ġsp unk
Ġsp ending
Ġsp arring
Ġsp ray
Ġsp unky
Ġsp arse
Ġsp ouses
Ġsp awn
Ġsp ousal
Ġsp utters
Ġper versity
Ġper secut
Ġor al
Ġor le
Ġor ph
Ġor gy
Ġor bits
pt om
ial ity
Ġim per
Ġim mer
Ġim bu
Ġcl ut
Ġcl out
Ġcl are
Ġcl oy
Ġcl int
Ġcl icks
Ġcl ients
Ġcl aude
Ġcl ashes
ie ved
pl om
pl ot
pl itting
pl acing
pp le
pp ering
Ġout ward
Ġout run
res ident
end ant
end able
end ering
man like
Ġfun k
Ġman ual
Ġman hood
Ġman ager
Ġman iac
Ġman euvers
Ġam ir
Ġqu ib
Ġqu itting
Ġqu iver
ort ed
ort ion
Ġtr un
Ġtr ots
Ġtr imm
Ġtr imming
Ġtr otting
Ġtr iteness
Ġlo re
Ġlo ver
Ġlo ath
Ġlo athe
Ġlo quacious
ick et
de ed
de uces
ict s
ict ed
are cki
Ġup side
Ġup hill
Ġup scale
Ġar row
Ġar guing
Ġar my
Ġar rang
Ġar ithmetic
Ġwe ary
Ġwe ber
Ġwe ather
Ġwe iss
Ġwe aris
Ġwe ave
Ġwe aving
Ġwe alth
ac ency
Ġi q
Ġi van
Ġi raqi
Ġfl op
Ġfl ies
Ġfl att
Ġfl ows
Ġfl ags
Ġfl ipp
Ġfl ux
Ġfl ashing
Ġfl abby
per cept
per alta
per forman
Ġjust ine
Ġwill ful
Ġwill ie
Ġad ject
Ġad min
Ġad orn
Ġad ored
Ġad ob
Ġad orable
Ġad vised
Ġad orably
Ġad ulter
od gy
od rome
od arsky
com ed
we ary
we aves
we gian
Ġmu g
Ġmu gs
Ġcomp els
Ġcomp ressed
Ġcomp rehe
Ġcomp ellingly
Ġcan cer
Ġcan ada
Ġcan adian
Ġcan vas
Ġcan adians
Ġpo nd
Ġpo cket
Ġpo otie
ment ier
Ġent ity
Ġent ered
Ġent ries
Ġro s
Ġro land
Ġro ses
Ġro iling
Ġro dri
Ġro ok
Ġwork ers
Ġwork shop
Ġbl ab
Ġbl ight
Ġbl ip
Ġbl oss
Ġbl uff
Ġbl ends
Ġbl aring
Ġbl ended
Ġbl ender
Ġbl anks
Ġbl asp
Ġbl under
Ġbl udgeon
Ġbl isteringly
ep isode
Ġwhe t
Ġwhe ez
Ġover d
Ġover ri
Ġover fl
Ġover play
Ġover used
Ġover lo
Ġover board
ise ptic
iz u
iz ons
Ġtime frame
ue led
Ġperfor m
Ġperfor ms
Ġem path
Ġem inently
Ġdis l
Ġdis co
Ġdis cl
Ġdis gra
Ġdis cou
Ġdis service
Ġdis dain
Ġdis ingenuous
Ġdis agree
Ġdis astrous
ry n
Ġoff ic
ound ed
ound land
Ġway ne
Ġway ward
ens er
ens ible
Ġhum il
Ġhum ility
Ġhum ming
Ġhum drum
Ġbet te
rit ical
Ġsl a
Ġsl ump
Ġsl ob
Ġsl apping
Ġsl athered
Ġsl umming
ip ated
Ġra cing
Ġra bb
Ġra zzle
Ġra wness
Ġra chel
Ġra zor
Ġme ow
Ġme ander
Ġme anders
Ġfa i
Ġfa x
ull och
Ġsub sc
Ġsub mer
Ġsub gen
Ġsub sequ
Ġri ps
Ġri gged
Ġri bal
Ġri fkin
ne g
Ġtw ent
Ġtw itchy
sp y
sp are
sp ark
sp ace
sp read
sp ool
sp inning
oc he
oc al
oc ally
oc ide
oc rates
ost al
ost ami
Ġevery man
Ġimp ly
Ġimp et
Ġimp ish
Ġimp oster
Ġimp ulsive
Ġthem ed
vel a
vel s
Ġvi le
Ġvi bes
Ġvi veka
Ġgen itals
Ġgen ocide
pect ing
Ġdram edy
Ġthere fore
ans on
Ġlove able
Ġsur ge
Ġsur fe
Ġsur rend
Ġsur gical
ress ions
Ġbr on
Ġbr im
Ġbr ass
Ġbr ittle
Ġbr ink
Ġbr atty
Ġbr usqueness
Ġwas abi
ang ues
Ġte ase
Ġte aches
Ġdes cent
Ġdes olate
Ġdel ta
Ġdel inquent
Ġdel usional
ph ile
Ġrem akes
Ġrem oved
ber a
ber y
ber ing
ber ish
ber ately
ond ent
Ġser vant
Ġser rault
Ġscreen ings
sh ort
sh ock
sh arp
sh attering
sh irt
sh aped
sh amelessly
vers ion
ren o
ren ia
ren cy
ty pe
Ġher r
Ġmat ches
Ġmat urity
Ġmat rix
Ġentertain s
Ġcont rary
Ġcont rolling
Ġpe ep
Ġhow ling
Ġhow ler
ris set
Ġag re
Ġag ony
Ġag gravating
Ġtra ces
Ġtra de
Ġtra its
Ġtra ins
Ġtra ps
ign ment
Ġ1 4
Ġ1 7
Ġplot less
red ucing
Ġcould a
Ġwatch ful
Ġaud rey
Ġaud itor
Ġaud iard
Ġunder gra
Ġunder mined
Ġunder ground
Ġunder rated
Ġunder developed
Ġunder wear
Ġunder mine
Ġlong time
other s
other wise
ath on
ath om
ath am
Ġheart ening
Ġheart beat
Ġmy opic
Ġmy riad
Ġjo ie
Ġjo ins
Ġjo ined
Ġjo vial
Ġres ume
Ġres usc
Ġres olve
Ġres urrect
Ġinterest ingly
Ġmin i
Ġshould er
vent ion
vent ive
sc en
sc ott
sc orsese
sc ores
Ġcr u
Ġcr ank
Ġcr inging
Ġcr ummy
Ġcr inge
Ġcr ushes
Ġcr anky
Ġcr icket
uct iveness
ian ne
ian ism
Ġhol land
Ġown ed
istic ally
Ġaction er
iv ore
iv ates
hes is
imp y
imp resses
imp rovised
Ġshow y
Ġche m
Ġche n
Ġche ering
Ġtwo hy
mer cial
mer chant
Ġaw ake
Ġwar ren
Ġwar ped
view ing
view ed
Ġins in
Ġins ens
Ġins pect
Ġins ists
Ġins ults
Ġins urrection
Ġins istently
Ġins istence
Ġvis ions
ft s
ft ime
Ġstill s
oss essed
aw ing
aw ork
aw esome
Ġgr in
Ġgr itt
Ġgr ung
Ġgr atingly
Ġgr inds
Ġgr inning
Ġgr asps
be gins
be han
be hind
Ġco at
Ġco al
Ġco ke
Ġco pe
Ġco ating
Ġco ars
Ġco zy
Ġco asting
Ġco arse
Ġatt acks
Ġatt achment
Ġatt endant
Ġlau ra
Ġlau ndry
Ġgi ants
te ens
te chn
Ġcle ve
Ġcle arer
Ġhard ened
Ġhard ware
Ġscen arios
Ġtri o
Ġtri pe
Ġdown fall
Ġdown hill
con tra
con stantly
ather weight
get ed
get tably
umb lings
iss ipp
Ġgra v
Ġgra ze
Ġgra iny
Ġscript writers
Ġcol in
Ġcol our
Ġcol ored
Ġwo e
Ġwo ven
Ġwo efully
Ġless en
Ġkind ness
Ġap es
Ġap oll
Ġrel ic
Ġrel ocation
Ġfr ater
Ġfr uit
Ġfr inges
Ġca v
Ġca ffeinated
Ġdocument arians
Ġworld ly
Ġrec re
Ġrec ount
Ġrec ently
cept ional
Ġgu ise
Ġgu arded
Ġgu itar
Ġgu ffaw
ib us
ks ome
Ġself ish
ars is
Ġlack ada
av ory
Ġeng ul
Ġeng ineering
Ġeng endering
Ġplay boy
Ġplay book
Ġbel ong
Ġbel gian
Ġback handed
az ine
Ġapp lying
Ġapp ointed
Ġapp arat
Ġapp alled
Ġgl ob
Ġgl ides
Ġgl ued
Ġgl itter
Ġgl immer
Ġset pieces
Ġexc urs
Ġdep os
Ġdep arts
Ġdep endent
Ġsat an
Ġkid lets
Ġhuman ism
Ġhuman istic
Ġmess iness
Ġmess enger
Ġide ological
Ġpers u
Ġpers nick
Ġmus ings
Ġmus cle
Ġmus set
Ġpr ince
Ġpr ints
ale ck
Ġcare ens
Ġcare less
Ġcare takers
Ġind om
Ġind ia
Ġind uces
Ġind elible
Ġind ulge
Ġind istinct
Ġel ic
Ġel vis
Ġel icit
Ġel fried
ex pl
ex quis
ex ploitation
ex hilar
ia h
Ġpleas er
Ġpleas ed
Ġpleas ingly
Ġhigh s
Ġhigh ways
Ġhigh way
Ġdra in
Ġdra ft
Ġdra ins
Ġdra ggy
Ġdra stic
Ġshe en
Ġshe ets
Ġshe ridan
Ġshe arer
Ġshe khar
Ġshe pard
Ġeffect ing
Ġeffect iveness
Ġext ension
Ġsk id
Ġsk ies
Ġsk ims
Ġsk illed
Ġsk irts
Ġsk impy
Ġph ifer
Ġph antom
Ġph oen
Ġir is
Ġir wins
Ġir rational
Ġir ksome
Ġcreat or
Ġcreat ors
Ġrep orting
Ġrep ackaged
Ġrep artee
Ġform ed
Ġswe ating
Ġfull ness
Ġbu ck
Ġbu ying
Ġbu eller
app ro
app able
gu ys
ys itter
Ġmar g
Ġmar ine
Ġmar ry
Ġmar ina
Ġmar quee
Ġmar gins
Ġmar cus
fl at
fl op
fl ies
fl icks
fl ashy
fl uffy
fl awed
me ister
no he
Ġac erbic
olog ue
Ġexpl aining
Ġref using
Ġref erred
Ġdec l
Ġdec line
Ġdec rep
Ġdec isions
Ġdec asia
Ġsimp son
Ġsimp sons
Ġpol son
Ġhor izons
Ġafter ward
Ġafter life
Ġafter taste
you ng
Ġamerican a
Ġfri ed
Ġfri ggin
Ġho b
Ġhist oric
Ġcons ists
Ġcons igned
Ġprod ucing
Ġ2 2
Ġcar rey
Ġcra fty
Ġcra zed
Ġcra ziness
Ġcra fting
lect ed
str ong
str ung
Ġev ap
Ġev ade
Ġev olution
Ġev ocation
Ġev angel
Ġev aluate
Ġmel odic
Ġmel ville
Ġsex ist
Ġsex ism
Ġrun teld
Ġsol o
Ġsol ving
Ġsol ips
Ġsol ilo
Ġmor ris
Ġmor mon
Ġmor rison
Ġyoung ster
Ġwhere ver
Ġed itor
Ġsch tick
Ġsch indler
Ġsch nitzler
Ġinv ite
Ġinv ited
Ġinv asion
ste ve
Ġsubject ed
Ġperson ified
Ġour s
Ġcult ivated
Ġcre ations
Ġcre aky
Ġcre master
Ġcre amy
Ġport ent
Ġport ions
Ġport ugu
Ġpass ive
Ġpass age
Ġpass ably
Ġthought fully
Ġsuper man
Ġsuper lative
xt ies
Ġmon key
Ġmon arch
Ġmon ths
Ġmon keys
Ġstand ing
Ġstand up
Ġmater nal
by ler
iet ies
ub tle
Ġbro ke
Ġbro gue
Ġbro oks
min ably
Ġmind ed
Ġanim Ã£
Ġmaterial s
ord inary
ord inated
Ġdet achment
Ġdet riment
Ġstud ies
Ġstud iously
iment ary
Ġhalf hearted
Ġflick ering
Ġgener ational
Ġgener osity
Ġ19 6
Ġ19 15
Ġ19 20
iar ostami
rif e
rif kin
Ġhand ily
Ġhand held
co ated
Ġtit us
Ġsw ill
Ġsw amp
Ġsw ank
Ġsw ift
Ġsw ooping
Ġsw ingers
Ġdem ise
Ġdem eanor
Ġwr ite
Ġwr ought
Ġwonder ment
vo ked
Ġdark est
que en
Ġabs ent
Ġspecial ty
Ġz ings
Ġz any
Ġz wick
Ġz ingers
ret urning
Ġpain terly
Ġhar bor
Ġhar vest
Ġhar angues
Ġep och
Ġep onymous
Ġep ilogue
Ġexp ose
Ġexp osed
Ġexp ensive
Ġexp edience
Ġexp iration
Ġdull ard
Ġdull ness
Ġinter play
Ġinter ming
Ġinter nal
Ġinter rupt
Ġinter lock
Ġinter personal
Ġinter minable
Ġsou p
Ġsou fflÃ£
ract ing
ract ive
Ġsa igon
Ġlight en
Ġlight est
Ġdef ined
Ġdef ensive
Ġdef iant
Ġdef iance
Ġentertainment s
inc ial
itive ly
Ġey elids
Ġsec ular
oll um
Ġpres ident
Ġpres umes
Ġpres chool
Ġstra ys
Ġstra dd
Ġstra ining
Ġfeature d
Ġma il
Ġma elstrom
Ġma fia
Ġma verick
Ġbra y
Ġbra wn
Ġbra cingly
Ġbra wny
Ġbra zil
Ġnarr ated
br ing
br ance
pro gress
Â© -
Ġbo ast
Ġbo ats
Ġbo iling
Ġbo asting
Ġpar och
Ġpar mentier
Ġhon ored
Ġhon orable
Ġmelodram as
Ġsad dest
Ġbar f
Ġbar an
Ġbar ris
Ġbar ney
Ġbar rage
Ġbar bed
Ġbar low
Ġbar bar
Ġbar oque
Ġlow s
Ġund o
Ġund es
Ġund eter
Ġund emanding
Ġsusp ended
Ġsusp iciously
Ġsusp enser
Ġcomm od
Ġcomm anding
Ġunf inished
Ġsens uous
Ġcapt ain
Ġshort s
Ġuns ure
Ġuns pe
Ġuns oph
Ġuns avory
Ġuns ubtle
Ġadd ress
Ġadd ressing
Ġret ain
Ġret old
Ġret ooled
Ġret aliation
Ġconv inces
off ice
off icially
Ġmid st
Ġmid dling
Ġpot shots
Ġpop ul
Ġpop ulated
Ġconf essions
Ġconf essional
Ġpsych odrama
des erves
Ġdi ves
Ġdi az
Ġdi atri
Ġdi apers
Ġdi plom
Ġprof anity
Ġsound ing
Ġmiss issipp
Ġred one
Ġred uction
Ġred uctive
Ġred iscover
Ġass ert
Ġass umes
Ġass igned
Ġass umption
Ġass aults
Ġass imilated
cl o
cl usive
cl iched
ots am
Ġhead ing
Ġhead ache
Ġhead bang
cy n
wor ked
Ġmen acing
Ġmag gie
Ġmag uire
Ġmag azine
stand s
Ġprob es
Ġplace ment
00 0
Ġwild est
Ġbeh alf
Ġbeh ave
Ġbeh aving
Ġamb ival
Ġsatisf action
cut s
cut ter
Ġdam me
ush i
ush o
ush ion
Ġteen y
Ġinsight fully
Ġfact ors
eng ing
Ġpat ched
Ġpat rol
Ġpat hetically
Ġequ ation
Ġequ ate
Ġhel m
Ġhel mer
Ġslow est
Ġattempt ed
Ġcent re
Ġcent ers
Ġcent ering
Ġprem ises
Ġtrans m
Ġtrans pl
Ġtrans itions
Ġtrans fer
fe ed
fe el
fe ature
Ġacc use
Ġacc ording
Ġprom ised
Ġpast el
Ġpast ry
Ġste w
Ġste pping
Ġste pped
sem itism
Ġrob ots
Ġrob bed
cer y
cer ned
Ġboy d
ced ar
Ġsim on
Ġsim mering
Ġfresh ly
Ġmark ing
Ġmark ed
Ġmark ers
Ġmark ets
Ġpun s
Ġpun ishing
Ġpun chy
Ġintri gu
Ġadm ired
Ġadm itted
Ġsubt lest
Ġoper as
Ġmis c
Ġmis fortun
Ġmis conceived
Ġmis dem
Ġmis under
Ġmis placed
Ġmis cast
Ġmis erably
Ġnor thern
Ġnor wegian
Ġsuccess ion
Ġwarm ly
ron ological
Ġtre nd
Ġsing ularly
Ġben ign
Ġben oit
Ġben chmark
Ġlar ry
Ġlar amie
plic ated
Ġmodern ize
Ġtreat ing
Ġsn ick
Ġsn ide
Ġsn aps
Ġsn azzy
Ġhero ism
Ġblack boards
dy shack
Ġ9 9
Ġodd ity
Ġodd balls
Ġgri p
Ġgri ps
Ġval iant
Ġval edict
mo il
mo ve
mo vies
Ġwa ited
Ġant it
Ġant ique
Ġant agon
Ġant iseptic
oof ing
Ġjohn ny
Ġjohn son
ugg ed
Ġsort s
Ġdr ang
Ġdr uggy
Ġflat ly
Ġflat ter
Ġflat ten
Ġsmall er
Ġcontri ving
Ġve iled
Ġstuff s
Ġstuff ed
Ġbegin nings
chie f
Ġsupp ose
cent ered
und ered
Ġterrif ically
Ġinvol ves
bl and
bl ack
uine ly
Ġmot ifs
ma x
ma elstrom
Ġcal vin
Ġcal iber
Ġreve rent
Ġuni queness
Ġid ol
Ġid emoto
het t
Ġstun ningly
Ġsoul lessness
Ġwrit ings
Ġpa wn
Ġpa ved
Ġlat ino
Ġsuff iciently
comp lex
Ġpassion ately
do zen
Ġstri ves
Ġstri ving
Ġreg ion
Ġreg ain
Ġreg ime
Ġreg ular
Ġreg alia
Ġje z
Ġje opard
Ġleft over
Ġemb ro
Ġemb ark
Ġemb odies
Ġemb edded
ob ser
ob stacles
Ġdou g
Ġinf at
Ġinf used
Ġinf usion
Ġinf requently
Ġinf erior
Ġlit mus
Ġdog me
Ġdev il
Ġdev ot
Ġdev ils
Ġdev otees
Ġsecond ary
how ard
Ġspe edy
Ġspe eds
Ġspe ech
Ġspect er
Ġspect ator
Ġspect rum
Ġrest room
Ġheavy weight
Ġdeser ving
Ġexplo itive
Ġmix ing
Ġfre i
Ġhold ing
rid ge
Ġforget tably
Ġcreep s
Ġcreep ing
Ġcreep iest
ah an
Ġaff ability
Ġfound ers
Ġcor cu
Ġden nis
Ġexam ining
Ġpoet s
Ġdisappoint s
Ġdisappoint ments
Ġunderstand able
Ġdifficult y
Ġdifficult ies
hand some
Ġfat ally
Ġpay back
Ġpay ami
Ġder ive
Ġinst ant
Ġinst ability
Ġnight mar
Ġconcept ions
Ġrefres hed
Ġsimple minded
af raid
ele gantly
Ġ8 3
Ġ8 9
Ġ8 00
Ġair head
Ġopp osed
Ġlif ted
ott i
Ġcomb ine
Ġshock er
Ġlet ters
Ġnovel s
Ġnovel ist
Ġsym ptom
por ates
por aries
Ġaut hent
Ġstup or
Ġexecut ives
Ġdevelop ing
uss en
uss ied
Ġmoment ary
bo x
bo isterous
war med
Ġx ero
Ġsle ight
Ġsle epless
Ġfire works
Ġbal d
Ġbal m
Ġbal ancing
Ġcost s
Ġtop ics
Ġsoap y
Ġsoap er
Ġtechn ological
Ġconsider ation
tra ined
tra pped
tra iler
Ġtar a
Ġtar antula
Ġdri zzle
Ġdri fts
Ġnon threatening
Ġsust enance
Ġblood work
Ġgrand ilo
Ġgrand father
Ġeye balls
Ġliter ature
Ġver t
Ġver dict
Ġver ges
Ġver tical
Ġver bally
Ġachie ving
ital ize
Ġcur s
Ġcur rency
Ġdig est
Ġdig its
Ġdig ressions
Ġunex amined
Ġunex ceptional
Ġimpro ves
Ġimpro vise
Ġmoral istic
Ġmoral izing
Ġdefin ite
Ġmaj idi
over ly
Ġinde cent
Ġinde cipherable
Ġnature d
Ġcho ke
Ġcho king
illing ness
Ġunt id
Ġweird o
Ġcool ness
aust in
whe eling
Ġtest oster
Ġtheat rics
Ġbreat hing
Ġevent ful
Ġtrad itionally
bel ow
bel ongs
gi ate
gi ance
Ġer ror
Ġer nest
Ġer otically
Ġfig ur
Ġcele bi
Ġpure st
Ġthin ness
Ġni ke
Ġunp reced
Ġunp ersuasive
Ġprocess or
Ġcheap o
Ġcheap er
Ġcoll apse
Ġphil adelph
Ġappeal ingly
Ġschool s
Ġepic enter
Ġopen ly
Ġfight er
Ġbur ke
Ġbur nt
Ġcall ing
Ġinvent ed
Ġgod frey
Ġspl it
Ġspl itting
Ġspl ashed
Ġspl atter
Ġtele market
Ġcontem poraries
gen eric
gen uinely
Ġball er
Ġball ast
Ġcop ing
Ġcop ies
Ġcop yc
Ġcamp us
Ġcamp bell
Ġwater boy
anch ored
Ġlist ening
Ġug liness
Ġconfl uence
Ġprop erty
Ġprop osal
Ġartist es
Ġreson ances
Ġdepress ingly
Ġphot os
che ck
mark s
Ġsqu andering
Ġsqu ander
Ġsqu irm
Ġlab our
Ġlab yr
Ġear marks
Ġge ek
Ġge eks
Ġhell ish
Ġhell uv
Ġende ar
Ġ10 2
Ġvision ary
fil es
fil ms
hop kins
ov ar
Ġpurp oses
Ġpurp orts
Ġhot ter
Ġine ffect
char lotte
Ġshoot ings
Ġsurf er
Ġsurf aces
Ġgrace fully
Ġfrustr ations
Ġfrustr ates
zz led
Ġpath s
Ġreleas ing
amb itious
form ity
Ġtrou bling
Ġweak er
Ġweak est
Ġawful ness
Ġbuild up
lo athing
sw allow
sw itching
Ġfore st
Ġmer ge
Ġmer cil
Ġmer maid
Ġbond s
Ġbond ing
Ġwed ge
Ġpet ty
Ġgreen light
Ġmod el
Ġmod em
Ġmod els
oph ob
oph renia
screen writer
sch neider
sch aeffer
sch rader
Ġast ray
Ġfan boy
Ġfan atical
Ġpal ette
Ġlim b
Ġlim bo
Ġgoof iness
Ġintent ional
Ġdeal ers
Ġprec iously
Ġprec arious
Ġamaz e
Ġtriumph antly
Ġunsett led
Ġunsett lingly
Ġsentimental izing
Ġram ble
rel ated
Ġfram ed
Ġyork er
Ġcomplic ity
agg ressive
Ġflash back
Ġflash bul
Ġstrugg led
Ġfrank ie
Ġfrank ness
Ġdistur bed
Ġrecommend ing
gar c
nes see
Ġfree ly
Ġfree way
Ġbatt les
Ġpul chrit
Ġpub escent
Ġpub erty
Ġner dy
Ġner ds
Ġgross ly
Ġann ie
Ġforg ot
Ġforg ivable
ident ity
Ġnecess ity
Ġleg ally
Ġleg itimate
Ġcontin ue
Ġcontin ually
Ġcontin uation
Ġcontin uing
Ġdraw ings
aff irms
aff leck
Ġmach ines
Ġdan i
Ġtom cats
Ġju ice
Ġunlike able
Ġprevious ly
Ġimm ort
Ġappreci ative
Ġappreci ates
Ġsincere ly
Ġstylish ness
Ġbreath less
Ġchalleng ed
Ġsuggest ed
Ġsuggest ive
tr ou
tr uth
Ġsal es
Ġsal le
Ġsal ma
Ġmist y
Ġmist akes
Ġmist aking
Ġbre asts
Ġbre cht
Ġbre ckin
Ġbull wink
Ġpos ition
Ġdang ers
Ġgh oulish
Ġstep s
Ġconvent ion
Ġthanks giving
Ġclos et
Ġprim a
Ġprim er
Ġprim al
Ġrepet itious
Ġbroad er
Ġbroad ly
Ġbroad cast
belie ve
Ġsav our
Ġcat ast
Ġcat aly
Ġwalk en
Ġham mer
Ġlad der
Ġgun play
Ġgun fire
Ġstren uously
Ġrev ol
Ġrev italize
Ġvict ories
Ġemerg ence
Ġemerg ency
Ġrid icule
Ġexplor ations
Ġabsor b
Ġabsor bs
Ġtur f
Ġtur moil
Ġbi kes
Ġbi ographical
Ġbi ased
Ġcand or
Ġcand idly
Ġwal ks
Ġwise girls
onstr ates
Ġdre k
Ġinex tric
vey ard
Ġprep are
Ġprep ared
assion ate
Ġdisgu ising
Ġbrut ality
conscious ness
Ġpunch line
Ġescap es
Ġdoubt less
Ġest rang
Ġtick ing
Ġaim lessness
hem ous
Ġson nen
Ġsick eningly
Ġcris es
Ġwish y
Ġeth n
Ġeth an
Ġeth ical
Ġecc entrics
Ġgre g
Ġgre ed
Ġresp ite
Ġener vating
Ġdistinct ion
Ġframe work
Ġbattle field
Ġpubl ishing
Ġcirc a
Ġcirc ular
Ġwat ts
Ġpri ze
Ġhate ful
Ġlaz iness
Ġlaz iest
see ing
Ġencou rages
Ġunc inematic
Ġsoc io
Ġoutrage ously
Ġroom s
Ġexpress ing
Ġexpress es
Ġspiritual ity
Ġtransc endent
Ġpurpose ful
Ġstereot ype
cr ime
cr ush
cr ushing
fun ction
miss ion
par able
par ody
sm all
Ġwest bro
Ġpan ic
Ġhyp ertime
asp ires
Ġstom p
Ġring ing
Ġspace y
Ġimpl ied
Ġimpl odes
Ġlog ical
Ġdisc arded
Ġdisc reet
Ġsurvi ved
Ġsmo ke
Ġguess ed
Ġexcess ive
Ġprofess or
Ġmodest y
Ġmesmer ize
Ġtransp orts
dis appoint
hol m
ura bly
wo ven
Ġign ite
ator ium
Ġcry in
Ġcry pt
Ġpen ance
Ġpen chant
Ġpen cil
Ġpen alty
Ġlength s
Ġstage y
Ġchang ed
thr illing
Ġplan ned
Ġcompet ence
Ġobject s
cont emporary
Ġirrit atingly
Ġgroup ies
Ġstereotyp ed
ave tes
bor ing
hour s
jo kes
nic olas
Ġmc far
Ġmc dorm
Ġmal es
Ġmal le
Ġbow l
Ġpap in
Ġpick ing
Ġpick up
Ġdim ensions
Ġinfl ated
Ġlangu id
Ġna qoy
Ġalien ated
Ġune quiv
Ġunfor gettably
Ġscar ier
Ġscar ifying
Ġscar face
Ġking dom
Ġlearn s
Ġarri ving
Ġarri ved
Ġsurreal ism
Ġterror ists
Ġperspect ives
Ġincre ase
Ġaccept s
Ġmaint ained
Ġachieve ments
pet er
Ġty kwer
Ġsnow man
Ġfer al
Ġfer ocity
Ġfer rara
Ġfer rera
Ġmult ilay
Ġpic nic
Ġpra ises
Ġgut sy
Ġstret ching
Ġshap ing
Ġuncon cerned
Ġconce ive
Ġconce its
Ġconce ived
Ġconce ivable
Ġsoft ware
Ġprog ress
Ġprog ression
Ġruss os
Ġplod dingly
Ġspoof s
Ġspoof ing
Ġarch ives
Ġrad io
Ġdesp icable
Ġdesp ondent
Ġcontra ption
Ġcontra sting
ext reme
Ġirre pressible
cher ish
dram at
high light
suff ice
suff ocated
Ġfier y
Ġpract ices
Ġhide ous
Ġtoss ing
Ġgold en
Ġchann els
Ġjer ky
dep th
dep ress
dep endence
Ġarg ument
Ġemp athetic
Ġdisp ossessed
Ġdisp assionate
Ġslick ness
Ġchees iest
Ġrecogn ized
Ġglass es
Ġindust rial
Ġsheer ly
Ġphys ics
Ġphys ique
Ġ199 2
Ġ199 4
Ġcaptiv ated
Ġprecious ness
Ġrevolution ary
Ġoutrageous ness
Ġemphas ized
Ġemphas izing
bol ic
bol stered
hu gely
mar vel
pret end
pret entious
Ġ7 5
Ġ7 7
Ġic y
Ġic onic
Ġaust en
Ġaust ere
Ġsed uced
Ġsed uce
Ġsides plitting
Ġfle ming
Ġhur ry
Ġhur ts
Ġhus kies
Ġnick y
Ġnick elode
Ġgar gant
Ġgar bled
Ġasp iring
sec ond
Ġdeb t
Ġdeb ated
Ġuncom mercial
Ġuncom plicated
Ġconscious ly
Ġpreach ing
Ġarn ie
Ġoverwhel m
Ġoverwhel mingly
Ġgrim y
Ġgrad uated
Ġplayful ness
Ġreflect ions
Ġhorrif ic
Ġ195 8
Ġdivers ions
Ġbenef ited
Ġembra ced
Ġsplend idly
Ġincreas ing
Ġdynam ite
mn ast
pleas ure
Ġtor p
Ġtight er
Ġtight ly
Ġtight rope
Ġtort uring
Ġsill ier
Ġfu hr
Ġfish y
Ġmention ed
Ġwide ly
Ġpur ity
Ġpur ists
Ġprison er
Ġprison ers
Ġdys function
Ġgro ans
Ġsuspect s
Ġsuspect ing
abs olutely
Ġjunk ie
Ġseason al
Ġseason ed
Ġnotice able
Ġnotice ably
Ġhair s
Ġunh oly
Ġunh appily
Ġconsp ir
Ġrough ly
Ġrough shod
Ġremem brance
Ġcruel ty
Ġviscer ally
Ġcollect ed
Ġsafe ly
Ġreturn ing
Ġmarket ing
Ġmarket able
Ġtrem bling
Ġdevast atingly
film maker
Ġintellectual s
Ġintrod uce
Ġintrod ucing
Ġchannel ing
natured ly
aid an
bit er
bas ically
del iciously
Ġbed ev
Ġbother s
Ġwoo zy
Ġwann a
Ġdread fully
Ġlos er
Ġnarc ot
Ġcompl acency
Ġintegr ated
Ġdeg rees
Ġunw illingness
Ġunfl appable
Ġweek end
Ġstrang er
Ġcrack les
Ġinvest ment
Ġbarry more
Ġassured ly
Ġcurrent ly
Ġchristian ity
Ġknock out
Ġknock off
Ġingen uity
Ġtotal itarian
Ġindividual ity
bar an
bar ry
bar bera
bra nd
bra vo
bra iner
two hy
Ġsam eness
Ġsam pling
Ġmass acre
Ġbou quet
Ġbol ero
Ġwis er
Ġwond rously
Ġthreat ening
Ġthreat ened
Ġhang over
Ġluc ia
Ġnumb ness
Ġnumb ered
Ġell is
Ġell en
Ġrend ition
Ġsucc inct
Ġjul es
Ġjul ie
Ġjul ianne
igg ling
Ġru in
Ġru inous
Ġric ci
Ġric oche
Ġspring er
Ġcrass ly
Ġcrude ly
Ġappropri ated
Ġelo quence
Ġdistract ion
Ġrefere ntial
Ġevo king
Ġelement al
Ġfantas ia
Ġfantas ized
Ġfantas ma
Ġfairy tale
Ġjeal ous
Ġdespair ing
don ald
har ry
har ris
mill ion
Ġath lete
Ġade pt
Ġsold ier
Ġmount ing
Ġboo zy
Ġboo gal
Ġbab ysitter
Ġhun ting
Ġinherent ly
Ġeg reg
Ġstu pefying
Ġsees awing
Ġens ure
Ġunimag inable
Ġclo aked
ploy ment
Ġflo at
Ġflu ent
Ġflu ke
Ġfluff y
perfect ly
Ġslack er
Ġvide otape
Ġvide odrome
Ġsmug ly
Ġcheer fully
Ġindian a
nov ak
Ġwitness es
Ġequal izer
Ġcounter part
Ġcounter culture
Ġjournal istic
Ġindep endence
Ġsacrif ices
Ġsacrif iced
Ġredeem s
eve lyn
met al
met iculously
sl ack
sl ash
sl uggish
Ġtend encies
Ġtuck ed
Ġsly ly
Ġsell er
Ġsell ers
Ġmisf ires
Ġbes ide
Ġbes otted
Ġbour geois
Ġbang s
Ġbang er
Ġbath room
Ġbath tub
Ġwra ps
Ġhint s
Ġhint on
Ġhost s
Ġhost age
Ġincon clusive
Ġstiff ness
Ġrele gated
Ġreaction ary
Ġali as
umm ate
Ġintric ately
Ġlie utenant
Ġexceed s
Ġunre warding
Ġrat io
Ġleon ine
Ġprefer red
Ġvent ures
Ġvent ura
Ġspan ning
Ġspir al
Ġclock s
Ġmeat y
Ġpecul iarly
Ġcrim inally
Ġgrasp ing
Ġmelanch olic
Ġ197 8
Ġ197 9
Ġconfron ting
Ġsymbol ism
gener ally
gener ates
Ġsketch iest
Ġshakespeare an
bal anced
can adian
dro pping
dem onstrates
effect ive
fr anc
occ up
po or
pic coli
wis eman
Ġtem ple
Ġtem pered
Ġtap estry
Ġtaut ou
Ġach ronological
inn oc
Ġfizz le
Ġfizz les
Ġcath arsis
Ġciv ic
Ġcorn ball
Ġdud s
Ġlump en
Ġnom inated
Ġnation wide
step s
Ġreview s
Ġhey day
Ġjon ze
Ġjon athan
Ġjim my
Ġjag ged
Ġexotic ism
Ġabandon ed
Ġsoci ological
Ġpercept ion
Ġperverse ly
Ġclub s
acc ording
Ġdisgust ed
Ġdramat ized
Ġdramat izing
Ġcover ing
Ġcock tail
Ġdepict ing
Ġacad emic
Ġborder line
Ġparad ox
Ġsensational ism
Ġunsatisf ied
Ġconvolut ions
Ġredund ancy
Ġsatisfy ingly
Ġbrief ly
Ġdrum ming
Ġmetropol itan
Ġstylistic ally
Ġangel es
Ġcorrect ly
Ġhyper bolic
Ġethnic ity
Ġimplaus ibility
Ġpedest al
Ġfleet ingly
Ġrandom ness
Ġathlet ic
Ġathlet icism
Ġfundament ally
ben igni
big elow
half way
Ġtatt oo
Ġtatt ers
Ġtatt oos
Ġaute il
Ġsne aky
erv ation
Ġfellow ship
Ġmam Ã£
Ġbard em
Ġwick ed
Ġwins ome
Ġpage ant
Ġpatch work
Ġhann a
Ġlu v
Ġgy mnast
Ġgli bly
Ġreject s
thet ic
rob ert
Ġanch ors
Ġanch ored
Ġanch oring
seem ingly
thought ful
Ġjar gon
Ġjun i
Ġjun ct
Ġexuber antly
Ġsho e
Ġsho res
Ġround ed
Ġclin ic
Ġemploy ment
Ġcrud ity
avish ly
Ġdidactic ism
Ġintern et
Ġboom er
Ġretro spect
Ġtransl ate
Ġsteam y
Ġsteam ing
Ġillustr ating
Ġillustr ated
Ġphilip pe
Ġopportun ism
Ġconcern s
Ġhallmark s
Ġgerman y
Ġaspir ation
Ġtremend ously
Ġirresist ibly
car rying
cil iation
count ry
mor vern
mor risset
Ġq atsi
Ġapt ly
Ġske let
ref lection
rend ing
rend ously
Ġfred die
Ġmcc onaughey
Ġmcc ulloch
Ġbon a
Ġbon us
Ġbot ched
Ġcy cle
Ġcy lind
Ġcad dyshack
Ġwid get
Ġpor no
Ġpor ridge
Ġdad dy
Ġdust y
Ġdust in
Ġdoll s
Ġdoll ars
Ġhust ler
Ġgle e
Ġstro kes
Ġstag ing
Ġbutter worth
Ġbutter flies
Ġwholes ale
Ġsept uagenarian
Ġexagger ation
Ġshim izu
Ġnote worthy
Ġprovo kes
Ġprovo ked
Ġorgan ized
Ġamid st
Ġblues creen
Ġblank et
Ġdiscer ned
Ġdiscover ing
Ġparticip atory
Ġarticul ates
Ġgib berish
Ġinterpret ations
Ġbob by
Ġconvict ed
Ġstead fast
Ġsubtit led
charact ers
Ġhypnot ically
through out
Ġargent o
absor bing
deli berately
Ġsolemn ity
Ġdishon esty
Ġconfront ations
bu ild
dest roying
iqu es
mat thew
rang ing
spl ashed
simp le
wan ese
Ġtax i
Ġtamb iÃ£
Ġsie ge
Ġow en
Ġfi asc
Ġber ling
Ġcher ry
Ġcarn ahan
Ġww f
Ġpau ly
Ġded icated
Ġhing e
Ġhan uk
Ġhan ussen
Ġinject s
Ġlavish ly
Ġlurid ly
Ġnic col
Ġnut t
Ġgaz a
Ġgaz e
Ġgaz ing
entertain s
Ġsto res
Ġsto ked
Ġster ile
Ġrece iving
Ġangu ished
Ġsup pl
Ġchou raqui
Ġchamp ionship
Ġjumble d
Ġabb ott
Ġabb revi
Ġabund ance
Ġabund antly
Ġconcent ration
Ġka os
Ġka hn
Ġka ige
Ġkath ryn
Ġrug rats
Ġlect ure
Ġlect ures
Ġvic arious
Ġvoy age
Ġspr ung
Ġspaces hip
mann ered
dead ly
Ġard ent
Ġard ently
Ġard uous
Ġaristoc rat
Ġaristoc rats
Ġaristoc racy
Ġcompens ated
shad yac
Ġtrack ing
Ġundermin ing
Ġmyst ical
import ance
Ġgrind er
Ġcohes ion
Ġcolumb us
Ġrecreat ing
Ġrecreat ed
Ġexcruc iatingly
Ġindic ative
Ġspecific ity
Ġconsum er
Ġconsum ed
Ġconsum ers
Ġmax imum
Ġillumin ates
Ġcontribut ed
Ġcontribut ion
Ġinfuri atingly
grand izing
Ġletter man
Ġforceful ness
Ġneglect s
Ġneglect ing
Ġarchitect ural
Ġconspira cies
Ġextravaganz as
Ġaesthet ics
Ġprincip al
cur ling
cross es
camp anella
coll apses
dist urbing
green grass
hat red
luc y
luc as
master piece
prom ises
prom otion
rich ard
sim ultaneously
turn ed
uv re
Ġut il
Ġtab oo
Ġfond ly
Ġfix ating
Ġmish and
Ġba it
Ġbump y
Ġcul kin
Ġcook ie
Ġdot ing
Ġdro ps
Ġdro pped
Ġdro oling
Ġhal ftime
Ġinert ia
Ġlark y
Ġlull s
Ġlull ing
steven s
Ġeffic ient
Ġeffic iently
Ġeffic iency
Ġgasp ing
Ġstream ed
Ġren owned
Ġreact ing
Ġreact ions
Ġrecon struction
Ġrecon ciliation
Ġanarch ists
Ġassem bles
Ġchief ly
Ġenchant ment
Ġintact o
Ġdear th
Ġkin etic
Ġkin near
Ġarth ur
Ġflavor less
Ġadrenal in
Ġdisar mingly
Ġslo venly
Ġmexic o
Ġrival ry
Ġpartners hips
Ġinsuff iciently
Ġkeen ly
Ġglum ly
Ġhighlight s
Ġacqu ired
Ġacqu ainted
Ġexplan ations
Ġcarl os
Ġevol ves
Ġevol ved
Ġ193 4
Ġdemoc ra
Ġdemoc racy
Ġdemoc ratic
Ġexpos ing
Ġexpos Ã£
Ġundert one
Ġundert ones
Ġanton io
Ġinvolve ment
Ġunexpl ainable
Ġsquare ness
Ġsorrow ful
Ġatmospher ics
Ġcircumst antial
Ġdomin ant
Ġdomin ate
Ġhypoc ritical
john son
Ġboun cing
Ġcivil ization
Ġsublime ly
Ġaccompan ies
large ly
bour g
bour ne
bull ock
cred ibility
capt ivates
dazz le
dazz ling
drum line
fing ered
gang s
glor iously
glor ification
love ly
mad onna
mus ic
pol ished
pol itical
poss ibly
poss ession
sor vino
sam uel
Ġig loo
Ġtu be
Ġaus picious
Ġapl enty
Ġastr ingent
Ġaustr alian
Ġalex ander
heart warming
Ġfif th
Ġbm w
Ġbm x
Ġbast ard
Ġbib i
Ġbib lical
Ġcri b
Ġpomp osity
Ġdil utes
Ġdil uted
altern ately
Ġthirst y
Ġinstruct ive
Ġlap aglia
Ġloop y
Ġloop iness
Ġgam ut
Ġbewild ering
Ġbewild eringly
Ġreass uring
Ġchill ingly
Ġintol er
Ġlik ably
Ġexasper ating
Ġexasper atingly
Ġdod ger
Ġunem ot
Ġunem ployment
Ġuncle ar
Ġscient ist
Ġscient ific
Ġconsc ientious
Ġworship ful
Ġkur as
Ġkur ys
Ġpluck y
Ġpluck ing
Ġactiv ities
Ġsporad ic
Ġcliff snotes
Ġamar i
Ġthrust s
Ġcomprehens ive
Ġslipp er
Ġrapt urous
Ġtwink le
Ġgovern ment
Ġnewf oundland
Ġherm etic
Ġherm itage
Ġunderdog s
Ġgrotesque ly
Ġcoinc idences
Ġtrivial izes
Ġafford s
Ġfranc o
Ġfranc isco
exc ellent
exp ression
Ġsweat y
Ġbub bly
Ġmargar itas
Ġacid ic
strict ly
Ġschlock y
Ġbrav ado
Ġparalle l
Ġsyn thetic
Ġaccum ulated
Ġaccum ulates
Ġaccident al
Ġsnoo ze
Ġsnoo zer
Ġcamer as
Ġcamer awork
Ġfacet ious
Ġjackass es
Ġaffl uent
Ġsympath ies
Ġsympath ize
Ġfemin ine
Ġfemin ism
Ġfavour ite
Ġ45 1
formula ic
loving ly
Ġpitiful ly
Ġannoy ingly
Ġsalv age
Ġfragment ed
Ġfragment ary
Ġpanor ama
crack er
Ġnaive tÃ£
Ġspotlight s
Ġconspic uously
Ġinvestig ate
Ġsuccumb ing
Ġcommunic ates
Ġapplaud ed
congrat ulation
Ġmourn ful
Ġmourn fully
Ġhundred s
Ġpessim ism
Ġpessim istic
fight s
gun s
hh h
laz y
laz ily
pay ne
spec ial
schn itzler
tim ed
wal ter
Ġtid al
Ġtwe aked
hel mer
Ġsi xties
Ġsib ling
Ġsib lings
Ġomn ibus
Ġfris sons
Ġmort ality
Ġbom bing
Ġbom bs
Ġberg man
Ġboot s
Ġburd ette
Ġwrest ling
Ġpear l
Ġpuff ery
Ġdy stop
Ġdy lan
Ġdwell ers
oman iac
Ġnause ating
stri p
Ġec ological
Ġgear s
Ġmock umentary
Ġmode led
Ġstam ina
Ġstur m
Ġstult ifying
Ġstult ifyingly
Ġreck less
Ġreck lessness
Ġreef s
Ġrehas hes
Ġrevision ist
Ġrerun s
verb inski
Ġyield s
Ġseal ed
Ġlibert ies
Ġlibert ine
Ġabrupt ly
Ġdegra ded
Ġunmention able
Ġatroc ious
actor ily
force ment
Ġplaus ible
Ġplaus ibility
Ġspo il
Ġperm its
Ġimit ating
Ġclar ify
Ġquint et
Ġtrim med
dev os
Ġnov ak
Ġnov ella
Ġupro ar
Ġupro arious
Ġadop t
Ġadop ts
Ġmuck raking
Ġcompar able
Ġblond e
Ġdiscon nect
Ġdisappe ar
Ġrapp ers
Ġrapp ort
Ġrib isi
Ġridd led
Ġimpat ient
Ġimpat iently
Ġviv re
Ġbru ising
achie ves
Ġresent ment
scra per
Ġgraph ically
Ġgraph ics
Ġglac ial
Ġkidn apping
Ġincor porate
Ġincor porates
Ġcomplet ion
Ġindo ors
Ġextr as
Ġbund y
Ġmargin ally
Ġpoll ution
Ġsilber ling
Ġswoon y
Ġswoon ing
Ġsail or
brilli ant
brilli antly
prof ile
Ġbarri e
Ġbarri ers
Ġunde ad
Ġunde veloped
Ġunders core
Ġdawn s
Ġpatron izing
Ġmurd erer
Ġfantast ical
Ġmiscalcul ation
Ġoccup ied
Ġillog ic
Ġillog ical
Ġsignpost s
Ġjeff rey
obs essed
Ġballet ic
Ġendeav our
Ġendeav ors
Ġpurport edly
Ġdeterior ates
Ġjuxtap osition
Ġimmac ulate
Ġimmac ulately
Ġaccomplish ments
trans l
Ġlaure nce
Ġflee ing
Ġpursu ing
Ġmiracul ous
Ġmiracul ously
Ġjuliet te
frank ly
Ġunapolog etic
Ġunapolog etically
austr alian
bop per
di az
equ ilibrium
fair ly
fron t
gold member
hyp not
jol ie
luck y
mind less
mary am
mild ly
nice ly
nons ense
pain ful
predict ably
russ ian
sn ipes
tell s
upl ifting
Ġtin iest
Ġsul ky
Ġsky scraper
Ġooz ing
Ġtheor izing
Ġfert ile
enjoy ably
Ġmerg es
Ġbell ini
Ġbail ly
Ġbalk ans
Ġbern ard
Ġcod a
Ġcoc oon
Ġcuss ing
Ġwol odarsky
Ġwiz ard
Ġwren ch
Ġple thora
Ġpumm el
Ġdamp ened
Ġdwar fs
Ġthri ves
Ġtow ers
Ġinj uries
Ġlam eness
Ġlag aan
Ġnad ia
Ġital ic
Ġecl ip
Ġecho es
Ġgour met
Ġgoy er
Ġgren ade
Ġstal king
Ġstub born
Ġwhit aker
Ġalmod Ã£
Ġseam less
Ġlivel ier
Ġlibr arian
Ġlibid o
Ġexal ted
Ġexempl ary
Ġshamb les
Ġdoz ens
Ġdece it
Ġunleas hes
Ġneuro ses
Ġscrap book
Ġconnoisse urs
Ġprost it
Ġproced ure
Ġrud imentary
Ġranc id
Ġratt ling
Ġrhaps od
Ġpreval ent
Ġpregn ant
Ġvary ing
Ġspiff y
Ġperple xing
Ġpercol ating
Ġclaw s
plod ding
Ġtruff le
Ġlod ging
Ġarro gant
Ġweig hed
Ġweapon ry
odd ly
Ġpole mical
Ġovercook ed
Ġdiscont ent
Ġdisorient ing
Ġdiscipl ine
intellig ent
Ġslopp ily
Ġrag bag
Ġrig ors
Ġriv als
need ed
Ġimperson ation
Ġsurre nder
Ġsurve ys
Ġdelh i
phil osoph
Ġsme ary
Ġsmoot hes
shoot ing
Ġagree ably
Ġ16 3
Ġheartstr ings
Ġjok ester
Ġobli vious
Ġinsignific ance
Ġgrate fully
Ġattent ive
Ġrecy cle
syn ching
Ġexcl amation
Ġkidd ies
Ġmusket eer
Ġindig est
Ġphon iness
Ġhorn by
Ġesp n
Ġmord ant
Ġschiz ophrenia
Ġtoug her
Ġhandic apped
Ġdemograph ically
Ġpsyched elic
Ġbrazen ly
Ġboiler plate
Ġboorish ness
Ġunsus pecting
Ġunsuccess ful
Ġdaydream s
clut ching
Ġacclaim ed
Ġmischie vous
Ġcredul ity
Ġtreacher y
Ġgrie ving
Ġillum inated
Ġmotor cy
Ġcalib rated
complete ly
Ġregurg it
Ġsandw ich
Ġdenou ement
Ġlifel ong
Ġcombust ible
Ġautop sy
Ġsleaz y
Ġnoncon formist
Ġdigit ally
Ġexhib it
Ġburkin a
Ġhyster ia
Ġgeor gian
spectac ular
Ġramp ant
color ful
Ġmachin ations
Ġimmers ed
Ġimmigr ant
Ġmilest ones
Ġscrut iny
consid ered
Ġtunis ian
Ġignor ant
Ġcryst all
Ġdimin ishing
Ġmasquer ade
Ġmillenn ium
Ġirreve rent
Ġirrevoc able
Ġelli pt
Ġconcoct ed
refere ntial
destr uctive
Ġsprink led
creep y
simpl istic
Ġtablo id
Ġastron aut
rehears ed
Ġlethar gically
Ġovere xposed
Ġelder ly
Ġturntabl ism
sacrif ice
Ġavalanc he
Ġsledgeham mer
Ġinadequ ate
Ġgiann i
Ġjettis oned
Ġencompass es
Ġunrepent ant
Ġoutweigh s
Ġrepugn ance
Ġnonjudgment al
breat hing
burd ened
benn ett
cand id
dv d
dre ary
div ine
eg oyan
east wood
fur ther
fres nadillo
gos ling
gorge ous
haw ke
holl and
jag lom
jour nal
kat z
kur ys
mu ccino
mut il
mere ly
mong ering
mac dowell
moon light
magg ie
maint ains
nom inated
oct ane
pres ervation
psych ologically
rub bo
sun shine
sav vy
tul ly
uyi wa
vamp ire
wil co
wier zbick
yak usho
Ġire land
Ġ00 7
Ġtut orial
Ġtag line
Ġtak ashi
Ġtark ovsky
Ġtup ac
Ġturp in
Ġtai wanese
Ġaver ting
inth ine
Ġsire n
Ġsult ry
Ġsang uine
reput able
reinfor ces
Ġoun ce
Ġomin ous
Ġtherape utic
Ġfas o
Ġfus sy
Ġfrown s
Ġmear a
Ġbum per
Ġbrom ides
Ġbud ding
Ġbens han
Ġbaw dy
Ġbien nial
Ġbudd ies
Ġcag ney
Ġcres cend
Ġcine phile
Ġcower ing
Ġcott on
Ġcudd ly
Ġwate red
Ġwint ry
Ġpom peo
Ġpiz azz
Ġpiv otal
Ġpinn acle
anze es
Ġdent ist
Ġdiz zy
Ġdice y
Ġdits y
Ġdrow sy
Ġdump ed
Ġdrid i
Ġdumm ies
Ġthro es
Ġthresh old
Ġhind ered
educ ational
Ġlars on
Ġlumber ing
Ġlumin ous
Ġlusc ious
Ġnim ble
Ġnour ishing
Ġnaz i
Ġnouvel le
stud y
stup id
Ġeile en
Ġeigh th
Ġegy pt
Ġebull ient
Ġeuph oria
Ġgust o
Ġgog gles
Ġgoss ip
Ġgains bourg
Ġganes h
Ġgoli ath
Ġgheor ghiu
ctier nan
entire ly
Ġstad ium
Ġstard om
Ġstopp ard
Ġbewit ched
Ġreto oling
Ġreyn olds
Ġrequis ite
Ġreconsider ation
Ġupt ight
chall enging
Ġasph alt
Ġasyl um
ridd led
Ġforbid den
irsh ner
Ġcomfor ting
Ġchimp anzees
Ġchains aw
Ġchaf ing
Ġalag na
Ġalph a
unexpect ed
Ġjere my
Ġseren ity
Ġenvel ope
Ġenli ven
Ġintert wined
Ġintrep id
Ġexchang es
Ġabhor rent
Ġdecon struction
Ġdeaf ening
Ġunear thed
Ġunash amedly
Ġunsc athed
Ġunatt ractive
Ġuneng aging
Ġunche cked
Ġunchar ism
Ġunbrid led
Ġunrem ittingly
Ġunseem ly
Ġunthink able
Ġunappe aling
Ġungain ly
Ġunlim ited
Ġunorth odox
Ġunimpe achable
Ġneore alism
Ġnebrid a
Ġnephe w
Ġscoot er
Ġconcess ion
Ġconfect ion
Ġkier an
Ġsopor ific
Ġbyzant ine
Ġprolong ed
Ġproverb ial
Ġrugg ero
Ġplac id
Ġplumm ets
Ġleisure ly
Ġhispan ic
Ġpreord ained
Ġpreempt ive
Ġpredis posed
Ġpredom inantly
Ġimmer se
Ġimbu ed
Ġcloy ingly
Ġtrimm ings
Ġloath some
Ġarrang ements
Ġweiss man
Ġwearis ome
Ġflatt ens
Ġflipp ant
performan ces
Ġadmin istration
Ġadob o
Ġadulter y
Ġcomprehe nd
Ġrodri gues
Ġrook ie
Ġbloss om
Ġblasp hemous
Ġwheez ing
Ġdisgra ce
Ġrabb its
Ġsubgen re
Ġsubsequ ent
Ġribal d
Ġsurfe it
Ġsurrend ers
Ġservant s
Ġauditor ium
Ġundergra d
Ġgrung y
Ġcoars eness
techn ically
Ġapoll o
Ġfrater nity
Ġlackada isical
Ġapparat us
Ġexcurs ion
Ġpersnick ety
Ġelfried e
exquis itely
exhilar ating
Ġphoen ix
Ġafterward s
Ġevangel ical
Ġrunteld at
Ġsolilo quies
Ġportugu ese
Ġepoch s
Ġinterming ling
Ġinterrupt ed
Ġparoch ial
Ġunsoph isticated
Ġmississipp i
Ġambival ence
Ġmisfortun e
Ġmisdem eanor
Ġjeopard y
Ġcorcu era
Ġnightmar ish
Ġauthent ically
Ġxero x
Ġgrandilo quent
Ġtestoster one
Ġunpreced ented
Ġphiladelph ia
Ġtelemarket ers
Ġcopyc at
Ġlabyr inthine
Ġhelluv a
Ġmercil essly
Ġpulchrit ude
Ġbullwink le
Ġinextric ably
Ġestrang ed
Ġsonnen feld
Ġwestbro ok
Ġmcfar lane
Ġmcdorm and
Ġnaqoy qatsi
Ġunequiv ocally
Ġmultilay ered
Ġnickelode on
Ġgargant uan
Ġfuhr man
Ġboogal oo
Ġparadox ically
morrisset te
Ġcylind ers
Ġhanuk kah
Ġabbrevi ated
wierzbick i
! ?
' m
1 6
1 7
2 2
3 0
3 00
4 9
5 3
5 5
5 00
7 3
7 7
8 4
9 5
9 9
a j
a o
a q
a ing
a ist
a ire
a ure
a ven
a vers
a ism
a ef
a ids
a xton
a aliyah
b ent
b ir
b out
b ate
b us
b ere
b ie
b ich
b ue
b ish
b reen
b old
b ris
b ath
b ash
b ys
b ane
b Ã£
b ility
b read
b ub
b ord
b ret
b io
b oll
b ug
b aring
b ird
b ush
b ett
b ob
b ones
b bly
b iest
b ott
b arre
b eth
b arrass
b ashing
b illy
b ittersweet
b rian
b igg
b umps
b oding
b irds
b uries
b owed
b uffed
b acon
b ielinsky
b rious
b osi
b isset
b uggery
b aby
b unct
b bery
b ivore
c q
c el
c as
c ir
c ill
c able
c ie
c ine
c ram
c ert
c are
c our
c ass
c oy
c ry
c atch
c ost
c inem
c ash
c up
c uff
c ates
c ub
c zy
c uri
c ension
c ann
c ular
c let
c uss
c ises
c iled
c umbers
c aked
c ified
c ops
c ases
c uro
c rem
c asting
c hens
c aine
c oring
c ano
c urs
c ule
c asia
c ourse
c oughs
c ushion
d u
d il
d ut
d ul
d ab
d ate
d ig
d ial
d ens
d ip
d ily
d ress
d ign
d ism
d aw
d iss
d ney
d read
d ues
d uring
d ote
d unk
d rown
d ix
d about
d roll
d irty
d uddy
d igg
d icing
d ooper
d raw
d uv
d ahl
d iver
d ressing
d game
d bury
d odgy
e h
e q
e w
e is
e ly
e as
e vi
e ad
e vie
e ers
e un
e ous
e ating
e cc
e ans
e gg
e king
e ither
e zy
e ah
e ze
e cr
e val
e cks
e aning
e conom
e vol
e enth
e qui
e pps
e uvre
f u
f y
f is
f on
f ed
f ut
f ra
f the
f ro
f us
f ood
f ud
f ind
f ac
f ide
f ish
f oc
f ings
f old
f led
f urn
f asc
f ils
f ub
f ier
f inc
f oll
f ool
f ied
f ael
f ancy
f arre
f ills
f inal
f rat
f ano
f uddled
f aithful
f ocused
f ifty
f athers
f inds
f idelity
f ault
f oe
f alters
f oundingly
f agi
f ueled
f lected
g le
g as
g ay
g ow
g ation
g ere
g ies
g oy
g ens
g ance
g ond
g hed
g ren
g li
g istic
g iv
g ib
g uff
g ia
g ils
g orn
g ots
g ments
g oof
g orical
g oose
g atory
g amb
g otten
g rowing
g ression
g hetto
g reg
g aping
g uts
g ollum
g ussied
g iggling
h it
h on
h al
h il
h ust
h os
h ack
h ating
h ren
h ors
h of
h air
h orn
h ob
h ged
h ai
h oppy
h ole
h aus
h itch
h oly
h alloween
h opping
h isto
h awk
h arks
i as
i em
i ast
i pl
i per
i ang
i ors
i ates
i vious
i rable
i ability
i aph
i atory
i hop
i ades
i work
i ka
i ples
i wick
i yi
j i
j s
j er
j it
j le
j el
j ir
j ive
j ell
j ac
j ose
j aw
j ug
j ob
j ork
j udd
j umbo
j obs
j arecki
k le
k as
k im
k id
k am
k ers
k ap
k os
k ie
k ingly
k ily
k ash
k sc
k its
k not
k no
k Ã£
k iller
k enn
k ita
k ieslowski
k ata
k ovsky
k lein
k oury
k oepp
k armen
k udos
k iarostami
k irshner
l f
l it
l ic
l il
l vie
l un
l ive
l us
l ick
l ac
l ip
l ance
l ash
l ater
l ins
l ange
l ord
l ends
l ots
l ush
l opp
l ories
l ude
l ize
l oses
l agg
l ux
l orious
l udicrous
l usive
l apping
l aughter
l ask
l aki
l urid
l icking
l uv
l imps
l ifts
l ensed
l illard
l uj
l oser
l avishly
l aure
m p
m it
m is
m ic
m im
m ess
m id
m ant
m ally
m ire
m ell
m ity
m ap
m able
m ood
m and
m ud
m pt
m ble
m ite
m ass
m ear
m less
m cc
m ily
m ath
m ib
m az
m ates
m ale
m ount
m ia
m ord
m oot
m ied
m ail
m und
m used
m ones
m ont
m ple
m alt
m ix
m unch
m ishes
m eld
m aris
m eth
m ama
m otion
m endes
m ints
m ailing
m emorable
m ilk
m asculine
m atters
m atorium
m ctiernan
m kata
m lins
n n
n s
n in
n at
n or
n ut
n ul
n ol
n ge
n os
n ine
n ne
n ost
n igh
n az
n ale
n app
n ier
n els
n ced
n ail
n ails
n iche
n orm
n aught
n ament
n aked
n ini
n ij
n urt
n emesis
n achtwey
n iving
n nial
n akata
n heit
o om
o el
o ist
o ble
o nder
o kes
o iled
o form
o vela
p c
p at
p ent
p ri
p oo
p ir
p ire
p ity
p one
p ter
p hing
p end
p ick
p ile
p ical
p age
p ry
p rit
p atch
p ense
p imp
p up
p asc
p air
p ier
p ool
p ressive
p acks
p aces
p unch
p ants
p leasant
p rat
p itch
p aint
p ipe
p pered
p inn
p omp
p aa
p rec
p ounding
p isto
p itched
p burn
p addle
p axton
q utting
r il
r im
r out
r us
r ust
r ately
r istic
r ically
r ane
r ons
r att
r antly
r ott
r ung
r anks
r udd
r arily
r uit
r ina
r atively
r inated
r angle
r asive
r ouge
r tle
r usc
r utable
s it
s at
s ly
s ion
s um
s qu
s ell
s us
s all
s ack
s ake
s end
s we
s age
s ating
s ound
s ink
s its
s now
s elling
s aw
s iness
s no
s day
s els
s ugg
s urp
s unk
s light
s kin
s ix
s inger
s ford
s inging
s quee
s atur
s ounding
s enth
s ignific
s alma
s ocrates
s ushi
t t
t re
t it
t ic
t il
t ot
t ch
t ay
t ow
t em
t ire
t art
t ack
t res
t age
t ense
t ingly
t led
t aking
t imes
t ian
t ree
t ock
t ney
t ered
t uck
t ier
t ank
t ony
t use
t iest
t ender
t icks
t ape
t amb
t roll
t iveness
t ante
t apping
t epid
t urt
t enth
t ugging
t ackles
t rod
t urro
u w
u er
u ers
u est
u art
u ep
u its
u elling
u ations
u ition
u ities
u eness
u ka
u zzy
u ptuous
u wer
u enced
u itively
v ion
v ill
v ell
v ine
v ict
v age
v ish
v ated
v ages
v ates
v ulg
v ancy
v ague
v incent
v ault
v ado
v incial
v laki
w d
w w
w y
w en
w at
w es
w on
w ly
w ent
w ack
w end
w ary
w age
w ish
w ang
w its
w ered
w aster
w ither
w ering
w ool
w ank
w ob
w arts
w olds
w ashing
w ave
w asting
w aves
w anders
w reck
w atchable
w imps
w icz
w ieldy
w lis
x y
x en
x an
x ed
x as
x im
x ter
x ian
x ts
x iously
x worthy
x ville
x ieties
y o
y on
y an
y ed
y ers
y man
y ep
y upp
y eah
y fus
y mp
z ar
z ow
z ers
z ak
z ell
z ook
z ily
z sc
z ier
z ler
z ied
z any
z ai
z arre
z ero
z heimer
z mÃ£
z pil
z igzag
z aidan
z oom
z uka
Â £
Â §
Â ´
Â ¶
Â »
Ġ %
Ġ +
Ġ Ã£
Ġ erg
Ġ iles
Ġ ille
Ġt is
Ġt at
Ġt an
Ġt ent
Ġt am
Ġt rom
Ġt ig
Ġt ard
Ġt nt
Ġt ens
Ġt so
Ġt ink
Ġt ash
Ġt its
Ġt ween
Ġt ys
Ġt ied
Ġt und
Ġt ended
Ġt icks
Ġt ape
Ġt ides
Ġt arted
Ġt acks
Ġt aught
Ġt umble
Ġt actic
Ġt su
Ġt angle
Ġt ira
Ġt outs
Ġt ummy
Ġt apped
Ġt inge
Ġt ipped
Ġt chai
Ġt ainted
Ġt rolls
Ġa er
Ġa il
Ġa the
Ġa qu
Ġa ure
Ġa vid
Ġa while
Ġa vis
Ġa uss
Ġa ki
Ġa yal
Ġa hem
Ġa ided
Ġa verse
Ġa vert
Ġa aa
Ġa viv
Ġa version
Ġa kash
in as
in ab
in um
in est
in ate
in ence
in ine
in age
in less
in ually
in con
in ates
in ia
in als
in co
in ize
in ances
in herent
in form
in avi
in ians
in fest
in formed
in itial
in volving
in vigorating
in fat
in itially
in ventive
in fidelity
in hof
in zler
he i
he at
he im
he ard
he ny
he wn
he ll
he mer
he ning
he ars
he av
he ming
he aring
he ls
he ws
he aven
Ġs as
Ġs oo
Ġs ir
Ġs id
Ġs ally
Ġs ain
Ġs ip
Ġs ull
Ġs ings
Ġs iss
Ġs ought
Ġs ale
Ġs ia
Ġs no
Ġs amp
Ġs que
Ġs ized
Ġs ank
Ġs illi
Ġs aps
Ġs ags
Ġs ont
Ġs ample
Ġs aint
Ġs ene
Ġs ica
Ġs iber
Ġs irk
Ġs zpil
re i
re an
re el
re wn
re li
re min
re co
re aring
re els
re sem
re mist
re mark
re action
re cks
re aches
re bell
re appe
re warding
re placing
re move
Ġo s
Ġo at
Ġo es
Ġo il
Ġo om
Ġo ct
Ġo sc
Ġo af
Ġo tar
Ġo ui
Ġo uz
Ġo mission
Ġo euvre
er ve
er ri
er ation
er ity
er op
er man
er ick
er oy
er ating
er ated
er ative
er ately
er ball
er lessly
er icks
er ration
it i
it ly
it le
it ate
it ory
it ge
it iz
it ingly
it led
it iv
it utes
it ering
it ously
it zy
it ational
it aph
it che
it ised
it ives
it ulation
it iation
it iveness
it ano
it bart
Ġthe sp
Ġthe oc
Ġthe ft
Ġthe ron
Ġthe ology
Ġthe wlis
Ġf ed
Ġf ad
Ġf oo
Ġf ir
Ġf ell
Ġf ust
Ġf ass
Ġf ry
Ġf ide
Ġf ost
Ġf aking
Ġf ash
Ġf istic
Ġf ount
Ġf als
Ġf ret
Ġf ract
Ġf ists
Ġf ug
Ġf ishing
Ġf rol
Ġf ades
Ġf uses
Ġf usion
Ġf ishes
Ġf aked
Ġf olds
Ġf irth
Ġf umble
Ġf uddy
Ġf uddled
Ġf ij
Ġf idel
Ġf ift
Ġf umes
Ġf ading
Ġf umbling
Ġf usty
Ġf oundering
Ġf ueled
Ġf athom
is he
is al
is im
is ans
is ations
is cent
is ively
is ement
is eness
is put
is rael
is cient
is cus
is cop
is qatsi
is cuit
is abelle
is cule
en a
en ous
en ity
en able
en ment
en ade
en ching
en cer
en velop
en cou
en chant
en esque
en ette
en ba
en iency
en acting
en riched
en ovela
Ġm un
Ġm um
Ġm ck
Ġm ant
Ġm ig
Ġm ould
Ġm ong
Ġm ating
Ġm int
Ġm ide
Ġm ink
Ġm ors
Ġm ism
Ġm ute
Ġm alf
Ġm ends
Ġm alls
Ġm cl
Ġm ichÃ£
Ġm ending
Ġm itch
Ġm ellow
Ġm umm
Ġm umbles
Ġm uttering
Ġm ctiernan
Ġm paa
Ġm itche
at o
at al
at ly
at ra
at ious
at ore
at ose
at ible
at ia
at uring
at oll
at ched
at ches
at ivity
at zen
at ological
at iable
at omy
at ulate
at elle
at uers
Ġb v
Ġb ic
Ġb il
Ġb out
Ġb ong
Ġb end
Ġb ert
Ġb ac
Ġb ass
Ġb ise
Ġb ost
Ġb ors
Ġb ount
Ġb ons
Ġb air
Ġb ier
Ġb ends
Ġb ots
Ġb itten
Ġb ese
Ġb ai
Ġb ender
Ġb illing
Ġb rew
Ġb inary
Ġb amb
Ġb rent
Ġb ared
Ġb aked
Ġb ills
Ġb iling
Ġb irming
Ġb erk
Ġb atter
Ġb inging
Ġb outs
Ġb athing
Ġb inds
Ġb ummer
Ġb aggy
Ġb arker
Ġb acon
Ġb aker
Ġb aaaa
Ġb jar
Ġb jork
Ġb iscuit
Ġc d
Ġc es
Ġc ly
Ġc el
Ġc im
Ġc ess
Ġc oo
Ġc ous
Ġc out
Ġc ig
Ġc ort
Ġc ert
Ġc ac
Ġc au
Ġc ue
Ġc ens
Ġc so
Ġc hes
Ġc arr
Ġc riter
Ġc asc
Ġc ues
Ġc ities
Ġc ots
Ġc aps
Ġc ats
Ġc ries
Ġc ried
Ġc ashing
Ġc ases
Ġc ards
Ġc ogn
Ġc anter
Ġc oos
Ġc apped
Ġc eo
Ġc attle
Ġc antet
Ġc ackles
Ġc attaneo
Ġc acoyannis
Ġc ushion
Ġc itiz
Ġw im
Ġw ad
Ġw ig
Ġw ong
Ġw elf
Ġw ach
Ġw imp
Ġw az
Ġw ane
Ġw aster
Ġw ines
Ġw inc
Ġw ider
Ġw ank
Ġw ail
Ġw elt
Ġw aged
Ġw ont
Ġw ets
Ġw ides
Ġw incing
Ġw ised
Ġw ades
Ġw ending
Ġw inger
Ġw ilt
Ġw inks
Ġw agers
Ġw ipe
Ġw ifty
Ġw inking
Ġw olf
Ġw ading
Ġw ailing
Ġw lad
Ġw attage
Ġw immer
Ġw iggling
Ġw yman
Ġw recks
ing o
ing les
es es
es on
es press
es cope
es bitt
nd a
nd i
nd iced
nd rome
or o
or ce
or us
or ie
or ian
or der
or ates
or ms
or io
or bing
or ize
or ged
or my
or ability
or phic
or gas
on a
on o
on er
on al
on ge
on ish
on ents
on ics
on izes
on ique
on enberg
on hole
ou ff
ou li
ou red
ou lt
ou ins
ou dy
ou ci
ou ped
Ġp b
Ġp el
Ġp ith
Ġp am
Ġp out
Ġp ell
Ġp act
Ġp ig
Ġp ere
Ġp all
Ġp ard
Ġp ious
Ġp ine
Ġp ound
Ġp ip
Ġp oth
Ġp aw
Ġp up
Ġp ars
Ġp ys
Ġp anc
Ġp Ã£
Ġp ogue
Ġp ains
Ġp oof
Ġp alt
Ġp ared
Ġp ique
Ġp itted
Ġp izz
Ġp ander
Ġp lying
Ġp lex
Ġp inks
Ġp abl
Ġp orous
Ġp ledge
Ġp imental
Ġp iles
Ġp ooper
Ġp umps
Ġp ta
Ġp imps
Ġp ours
Ġp antom
Ġp ige
Ġp oodle
Ġp ounds
Ġp uddle
Ġp iper
Ġp iscop
an i
an ut
an im
an et
an ke
an se
an ning
an Ã£
an ery
an orm
an ford
an tha
an alysis
an iston
Ġd al
Ġd as
Ġd ir
Ġd ive
Ġd ain
Ġd ood
Ġd all
Ġd itt
Ġd ich
Ġd ens
Ġd red
Ġd uct
Ġd ates
Ġd arn
Ġd anc
Ġd ither
Ġd ues
Ġd ug
Ġd ron
Ġd iction
Ġd uly
Ġd allow
Ġd itty
Ġd ung
Ġd ork
Ġd aph
Ġd oles
Ġd uel
Ġd ario
Ġd ooby
Ġd iner
Ġd ilet
Ġd olly
Ġd je
Ġd wind
Ġd irk
Ġd ressing
Ġd oodle
Ġd js
ar i
ar im
ar the
ar ation
ar ice
ar ations
ar ney
ar ms
ar med
ar key
ar alle
ar gent
ar arat
ar boards
ar iably
ar liss
Ġand y
Ġand ro
Ġand ers
Ġand ie
Ġand ys
Ġand rÃ£
Ġand rei
al is
al or
al ed
al om
al ain
al og
al ment
al ating
al antly
al ways
al oof
al ding
al ges
al izes
al ousy
al actic
al together
al vert
al mod
al uation
al vage
al arms
Ġth i
Ġth ou
Ġth ul
Ġth and
Ġth ie
Ġth umb
Ġth ys
Ġth ief
Ġth rob
Ġth wart
Ġth uggery
Ġth urman
ly a
ly ne
ly ana
Ġh i
Ġh il
Ġh ire
Ġh one
Ġh ud
Ġh ile
Ġh ue
Ġh ating
Ġh ose
Ġh oth
Ġh iv
Ġh ib
Ġh Ã£
Ġh ired
Ġh uck
Ġh ier
Ġh ank
Ġh ots
Ġh ugg
Ġh ott
Ġh oney
Ġh ats
Ġh ides
Ġh amb
Ġh orton
Ġh iro
Ġh mm
Ġh opped
Ġh iat
Ġh je
Ġh iber
Ġh oops
Ġh rs
Ġh utch
Ġh ounds
Ġh arks
Ġh uggy
Ġh agi
Ġh anson
Ġh oofing
Ġh jel
Ġh oult
le m
le en
le ge
le vel
le ting
le ft
le br
le ments
le pping
le vision
le head
le gged
le aks
le vard
le gal
le hill
le fs
le aping
le guizamo
le giate
ic id
ic ab
ic um
ic ry
ic ian
ic hes
ic ature
ic anery
Ġto v
Ġto ast
Ġto be
Ġto ts
Ġto ys
Ġto pping
Ġto asts
Ġto pple
Ġin se
Ġin sc
Ġin put
Ġin aus
Ġin cho
Ġin anity
Ġin forms
Ġin qui
Ġin itially
Ġin anities
Ġin active
Ġin version
Ġin mates
Ġin itiation
ed it
ed ay
ed ling
ed ia
ed iction
ed ged
ed itious
ed ges
ed die
il ight
il ie
il ian
il fully
il ton
il tr
il itude
il iatory
il mable
Ġl l
Ġl ut
Ġl ent
Ġl oo
Ġl um
Ġl ant
Ġl act
Ġl ind
Ġl ise
Ġl ang
Ġl ately
Ġl ace
Ġl oth
Ġl av
Ġl apt
Ġl asc
Ġl ug
Ġl aced
Ġl ags
Ġl ustr
Ġl ax
Ġl ai
Ġl ung
Ġl ending
Ġl ux
Ġl ops
Ġl ina
Ġl ashing
Ġl ingu
Ġl umps
Ġl outs
Ġl apping
Ġl iner
Ġl ds
Ġl arded
Ġl oops
Ġl agging
Ġl ulled
Ġl eroy
Ġl eniency
Ġl onge
om i
om it
om on
om ers
om ous
om ically
om me
om ized
om onic
om ached
om oric
om atically
om sday
om orphic
Ġn c
Ġn it
Ġn ast
Ġn old
Ġn ible
Ġn ations
Ġn apt
Ġn ia
Ġn asc
Ġn iet
Ġn ub
Ġn iel
Ġn ude
Ġn osed
Ġn rel
Ġn umbs
Ġn atter
Ġn ift
Ġn atives
Ġn ada
Ġn oodle
Ġn ymp
Ġn enette
Ġn atal
Ġn esbitt
st a
st am
st ur
st ation
st ood
st oy
st ult
st ance
st atic
st aking
st eric
st ock
st iff
st hen
st aged
st asy
st rid
st itious
st orm
st agg
st udd
st arring
st eni
st inks
st unt
st itch
st antial
st ained
st ache
st itial
st uffy
st uffed
st aggeringly
st inting
st atement
st anley
st omps
st atham
st uart
st rewn
st orms
st omached
Ġit ching
Ġit aly
Ġit iner
Ġit eration
Ġe h
Ġe ke
Ġe ur
Ġe ud
Ġe ff
Ġe ard
Ġe up
Ġe to
Ġe ug
Ġe rect
Ġe aves
Ġe ee
Ġe bb
Ġe chel
Ġe instein
Ġg ir
Ġg ill
Ġg ig
Ġg and
Ġg ard
Ġg ue
Ġg ry
Ġg ull
Ġg own
Ġg ays
Ġg aw
Ġg ather
Ġg ates
Ġg ord
Ġg ret
Ġg els
Ġg ush
Ġg ump
Ġg hand
Ġg ator
Ġg ander
Ġg iler
Ġg alan
Ġg iles
Ġg oul
Ġg athers
Ġg ushing
Ġg aping
Ġg awk
Ġg ellar
Ġg arde
Ġg ollum
Ġg ussied
Ġg nat
Ġis ol
Ġis abelle
Ġis mail
ut in
ut ing
ut ally
ut ty
ut ional
ut ations
ut ia
ut schn
ut ilized
ut arsky
ut onium
ut tled
ct er
ct ors
ct urn
ct olog
ct rine
ct rinated
el ve
el ay
el ian
el ia
el str
el ines
el mo
el abor
el gang
el vira
el erated
Ġmo at
Ġmo an
Ġmo pe
Ġmo pp
Ġmo ll
Ġmo lt
Ġmo lin
Ġmo saic
Ġmo pes
Ġmo sque
Ġmo hawk
Ġmo lehill
ent e
ent ous
ent ation
ent ine
ent ary
ent ingly
ent imes
ent iful
ent enn
ent icing
ent atious
ion th
ion able
ion ably
ion ately
as il
as ay
as em
as ks
as els
as ma
as iest
as sembled
as leep
as uj
ot a
ot i
ot he
ot ent
ot ch
ot am
ot eric
ot to
ot yp
ot ches
ot ographed
ot ivated
ot rash
ot istical
ot hesis
ot omized
ve il
ve ers
ve ter
ve ret
ve ille
ve tÃ£
ve tch
Ġthat cher
Ġst oo
Ġst ain
Ġst ap
Ġst able
Ġst ort
Ġst akes
Ġst air
Ġst ains
Ġst alls
Ġst ump
Ġst ability
Ġst acks
Ġst acy
Ġst ave
Ġst ern
Ġst oop
Ġst aid
Ġst anz
Ġst ilet
Ġst oned
Ġst abbing
Ġst rolls
Ġst ench
Ġst anley
Ġst odgy
Ġst atham
Ġst umblings
Ġst ormy
Ġst oner
Ġst anford
im ar
im able
im ful
im age
im ond
im ach
im ney
im plic
im mers
im ator
im inal
im medi
im perfect
im pecc
im fan
im pton
im ulated
im amura
im inally
im inished
im inating
Ġbe ers
Ġbe au
Ġbe be
Ġbe ause
Ġbe gr
Ġbe verage
Ġbe head
Ġbe ached
Ġbe asts
Ġbe aches
Ġbe avis
Ġbe ads
Ġbe gets
Ġbe arded
Ġbe ware
Ġbe mused
vi ent
vi et
vi ol
vi ation
vi est
vi ality
vi br
vi veka
vi eland
vi rus
Ġre z
Ġre ag
Ġre ig
Ġre pt
Ġre edy
Ġre nder
Ġre sh
Ġre vers
Ġre aw
Ġre be
Ġre cept
Ġre inc
Ġre ams
Ġre comp
Ġre wr
Ġre chy
Ġre na
Ġre new
Ġre illy
Ġre verse
Ġre eks
Ġre works
Ġre place
Ġre imagine
Ġre iner
Ġre conf
Ġre vigor
Ġre iter
Ġre strict
Ġre charged
Ġre heated
Ġre opens
Ġre enact
Ġre placing
Ġre neg
Ġre voked
Ġre worked
Ġre affirms
Ġre eking
Ġre hears
Ġre enacting
Ġre eses
Ġre assembled
ra z
ra nd
ra pt
ra ine
ra ft
ra cial
ra des
ra ged
ra ked
ra pped
ra iny
ra bbit
ra iser
ra vaged
ra vels
ra uwer
ra isal
Ġu k
Ġu gh
Ġu pp
Ġu ber
Ġu ma
Ġu pping
Ġu plo
Ġu hhh
Ġu mpt
the ad
the ology
the ological
the kids
the sis
the rapy
ver ing
ver os
ver ts
ro e
ro h
ro ated
ro li
ro sc
ro ger
ro aring
ro gue
ro bed
ro phic
ro cute
ro vich
ro gation
ro senth
ul as
ul se
ul um
ul ak
ul ld
ul ant
ul us
ul ently
ul field
ul iac
ul ibrium
ul nick
ul ativeness
ul thood
ch in
ch ab
ch ain
ch and
ch ip
ch ingly
ch ris
ch ach
ch ism
ch arly
ch Ã£
ch air
ch ann
ch ances
ch oose
ch ological
ch urning
ch omp
ch owski
ch amber
ch ooled
ch alant
ch alantly
ce mi
ce asing
ce ivable
ce rer
ce lebr
Ġfil th
Ġfil ter
Ġfil ip
Ġon ion
Ġon line
Ġon ti
Ġon stage
Ġan ak
Ġan sp
Ġan ts
Ġan ony
Ġan ci
Ġan ec
Ġan atom
Ġan iston
Ġan cill
Ġan ew
Ġan kle
Ġan xieties
Ġan atomy
Ġan alges
et re
et ing
et ed
et hing
et ry
et ting
et ering
et ently
et hn
et rott
Ġfilm ic
Ġfilm going
Ġy am
Ġy est
Ġy ell
Ġy ong
Ġy od
Ġy elling
Ġy aw
Ġy ale
Ġy ank
Ġy ah
Ġy ung
Ġy anks
Ġy acht
Ġy osuke
Ġy anke
Ġy asuj
Ġas qu
Ġas hes
Ġas ia
Ġas ked
Ġas par
Ġas ham
Ġas certain
Ġas bury
Ġas cension
Ġas iaph
Ġas inine
ith ium
ri o
ri er
ri en
ri ly
ri est
ri ge
ri ff
ri ber
ri ele
ri bed
ri ety
ri bably
ri gates
ke a
ke pt
ke ley
ke eping
ke ga
ol o
ol s
ol ar
ol ph
ol ics
ol iation
ol ini
ol nick
ol itical
ol ested
ol iveira
ol igan
ol legiate
ay kin
ay amalan
ow cases
ad ay
ad ers
ad ult
ad ays
ad just
ad vant
ad vice
ad renal
ad owing
ad roit
ad rift
ad mire
ad rangle
ad ena
ad orability
ad ona
Ġfor ty
Ġfor ges
Ġfor rest
Ġfor bearing
Ġwith holds
vie we
se an
se ed
se um
se ur
se pt
se ment
se ated
se vent
se ek
se hood
se arch
se quently
se eds
se infeld
se wer
ess a
ess i
ess ionally
ess ively
Ġbut ton
Ġbut che
Ġbut thead
Ġwh oo
Ġwh ir
Ġwh am
Ġwh ipp
Ġwh ining
Ġwh oop
Ġwh ites
Ġwh opping
Ġwh oos
Ġwh iffle
Ġwh ipping
Ġwh irling
Ġwh acking
Ġwh isp
Ġwh ipl
oo b
oo o
oo zes
oo syn
Ġsu ge
Ġsu av
Ġsu ms
Ġsu ey
Ġsu icid
ir s
ir der
ir py
ir kega
Ġcom in
Ġcom ical
Ġcom fy
Ġcom atose
Ġcom rades
id ity
id able
id ge
id ious
id ance
id ual
id ently
id oscope
if ter
if ace
if ted
if ah
if erous
if ix
if ique
if iably
Ġch ant
Ġch ast
Ġch art
Ġch ong
Ġch ort
Ġch urn
Ġch ins
Ġch anc
Ġch iar
Ġch opp
Ġch yn
Ġch ump
Ġch ung
Ġch unk
Ġch ides
Ġch urns
Ġch ipp
Ġch lor
Ġch itch
Ġch atter
Ġch urning
Ġch oos
Ġch omps
Ġch orus
Ġch icanery
Ġch imney
Ġch aykin
Ġch irpy
Ġmovie house
Ġmovie maker
th ou
th og
th ren
th ons
th ank
th ird
th yn
th ump
th ones
th ole
th irty
th irteen
th rows
th odox
th urman
th roated
am ity
am ble
am ish
am ond
am ination
am used
am orous
am azing
am amie
am ari
Ġal ly
Ġal ac
Ġal co
Ġal ient
Ġal lying
Ġal dr
Ġal cat
Ġal add
Ġal fon
Ġal zheimer
ers plic
ers ki
ers bur
ers napp
Ġhe el
Ġhe ap
Ġhe res
Ġhe ide
Ġhe ather
Ġhe av
Ġhe ms
Ġhe aps
Ġhe athers
Ġhe aped
Ġhe pburn
ab o
ab es
ab ic
ab oo
ab and
ab ling
ab der
ab ys
ab ric
ab ove
ab use
ab berg
ab bling
ab andon
ab rah
un is
un et
un ter
un ty
un ting
un ner
un fl
un ching
un comm
un certain
un surprisingly
un spe
un intellig
un spool
un officially
un ambitious
un pretentious
un cular
un ji
un wieldy
ill at
ill es
ill ers
ill ance
ill usion
ill umin
ill iter
Ġj ed
Ġj am
Ġj ak
Ġj ake
Ġj au
Ġj oc
Ġj ans
Ġj ail
Ġj ags
Ġj ams
Ġj ung
Ġj ury
Ġj avi
Ġj ived
Ġj udic
Ġj angle
Ġj iri
Ġj elly
Ġj amm
Ġj arecki
Ġj iang
Ġj ingles
ag ain
ag ell
ag us
ag her
ag ious
ag ne
ag ingly
ag ogue
ag ery
ag het
ag ged
ag ency
ag ogy
ag ration
ag enda
ag gravating
ag grandizing
ag nale
um a
um s
um en
um sy
um erable
um aki
Ġse an
Ġse ine
Ġse ac
Ġse edy
Ġse iz
Ġse ated
Ġse ign
Ġse aw
Ġse ater
Ġse lect
Ġse izing
Ġse men
Ġse eping
Ġse asons
Ġse rend
Ġse gal
Ġse amy
Ġse gues
Ġse wing
Ġse pia
Ġse gments
Ġse mim
Ġse wage
ck y
ck en
ck ing
ck hand
ck ets
ck ovich
ous el
ous sill
em ies
em ably
em erg
em por
em kin
em bra
em bered
em powered
em eck
em onium
em pire
Ġen able
Ġen com
Ġen cy
Ġen ron
Ġen vision
Ġen vy
Ġen acted
Ġen su
Ġen veloped
Ġen ables
Ġen forced
Ġen forcement
Ġen cumbers
Ġen rapt
Ġen abling
Ġen emies
ur ice
ur ingly
ur ations
ur ts
ur ities
ur ries
ur gy
ur ls
Ġint erg
Ġint ently
Ġint ends
Ġint ract
Ġint uitively
Ġint ersplic
Ġli ver
Ġli qu
Ġli able
Ġli ka
Ġli ana
Ġli bret
Ġli yan
Ġex ig
Ġex iled
Ġex xon
ak o
ak ly
ak iness
ak ovsky
out er
out side
ist a
ist ing
ist ant
ist les
ist ering
Ġsh a
Ġsh u
Ġsh um
Ġsh and
Ġsh ud
Ġsh ook
Ġsh aw
Ġsh uck
Ġsh orn
Ġsh ield
Ġsh rap
Ġsh ave
Ġsh ards
Ġsh ips
Ġsh lock
Ġsh outs
Ġsh ifty
Ġsh awn
Ġsh iri
Ġsh reve
Ġsh indler
Ġsh ivers
Ġsh ipping
Ġsh irt
Ġsh ackles
Ġsh arks
Ġsh mear
Ġsh ticks
Ġsh ayamalan
Ġsh ifted
qu el
qu ers
qu art
qu ick
qu ities
qu ited
qu aid
qu ette
qu elle
rom ething
Ġab us
Ġab ram
Ġab ject
Ġab ys
Ġab used
Ġab rid
Ġab bas
Ġab oul
Ġab original
Ġab iding
Ġab orted
Ġab dul
Ġab hors
Ġab rasive
Ġab erration
Ġab orbing
Ġab agnale
Ġnot ations
Ġnot iced
Ġha re
Ġha il
Ġha ute
Ġha irl
Ġha ird
Ġha iled
Ġha ught
Ġha iri
ation ale
Ġdo e
Ġdo ck
Ġdo pp
Ġdo sh
Ġdo gg
Ġdo yle
Ġdo sage
Ġdo omsday
Ġdo ctrine
ant um
ant ive
ant wone
ant asms
Ġde er
Ġde bl
Ġde comp
Ġde comm
Ġde form
Ġde lete
Ġde ploy
Ġde gener
Ġde human
Ġde constructed
Ġde utch
Ġde wy
Ġde xter
Ġde leting
Ġde cter
Ġde ckhand
est a
est s
est ation
est ep
est ors
est ring
est abl
est ablish
est inians
Ġun it
Ġun ity
Ġun ind
Ġun pl
Ġun hing
Ġun res
Ġun ac
Ġun ans
Ġun sh
Ġun iv
Ġun av
Ġun not
Ġun gu
Ġun read
Ġun self
Ġun pro
Ġun stead
Ġun cut
Ġun mo
Ġun just
Ġun ob
Ġun wise
Ġun lo
Ġun cou
Ġun ending
Ġun conscious
Ġun class
Ġun nam
Ġun ifying
Ġun lock
Ġun stopp
Ġun list
Ġun bro
Ġun natural
Ġun cool
Ġun chang
Ġun earth
Ġun break
Ġun edited
Ġun romantic
Ġun control
Ġun entertaining
Ġun laugh
Ġun clut
Ġun originality
Ġun stable
Ġun essential
Ġun amusing
Ġun qual
Ġun quest
Ġun spool
Ġun appro
Ġun afraid
Ġun trained
Ġun balanced
Ġun lucky
Ġun burdened
Ġun encou
Ġun stinting
Ġun veil
Ġun ravels
Ġun ceasing
ire e
Ġne op
Ġne ater
Ġne ura
Ġne wness
Ġne uw
Ġne eson
Ġsc an
Ġsc ent
Ġsc am
Ġsc um
Ġsc her
Ġsc int
Ġsc hed
Ġsc ree
Ġsc ouse
Ġsc arp
Ġsc arily
Ġsc ented
Ġsc oop
Ġsc ummy
Ġsc raw
Ġsc otland
Ġsc ooping
Ġsc uz
Ġsc rape
Ġsc alds
Ġsc uzzy
Ġsc heming
Ġsc atological
Ġsc uttled
Ġsc otches
Ġsc oob
Ġcon e
Ġcon ge
Ġcon so
Ġcon gr
Ġcon vert
Ġcon rad
Ġcon formity
Ġcon niving
Ġcon verts
Ġcon quers
ain heads
ast ly
ast ically
ast ered
art y
art ist
art ificial
pe e
pe ice
pe ople
pe ze
pe aks
pe ptic
pe ppering
pe ppered
pe rean
ell o
ell or
ell ers
ell ence
ell ite
ell ane
ell antly
ell ini
Ġat e
Ġat om
Ġat av
Ġat yp
Ġat onal
Ġwor ms
Ġwor dy
Ġwor ried
Ġk i
Ġk en
Ġk ap
Ġk end
Ġk ram
Ġk oy
Ġk irst
Ġk ale
Ġk app
Ġk no
Ġk inc
Ġk ool
Ġk uro
Ġk imm
Ġk ok
Ġk ilted
Ġk raw
Ġk ios
Ġk oz
Ġk han
Ġk mart
Ġk omed
Ġk atherine
Ġk armen
Ġk ales
Ġk udos
Ġk iarostami
Ġk irshner
Ġk jell
Ġk erri
Ġk atzen
Ġk arim
Ġk alvert
Ġk asem
Ġk vetch
Ġk raft
Ġk rige
Ġk irkega
Ġk unis
Ġso b
Ġso il
Ġso ck
Ġso aring
Ġso aked
Ġso dden
Ġso da
Ġso ppy
Ġso ggin
Ġso fia
Ġso fthe
Ġso othe
Ġso iree
act ual
act ors
ough ing
ig m
ig s
ig re
ig ious
ig od
ig li
ig ib
ig by
ig ues
ig ger
ig ured
ig ator
ig inous
ig urations
Ġby play
Ġby ways
Ġby ron
Ġby tes
us ical
us age
us ingly
us so
us ually
ust s
ust ed
ust ry
ust ery
ust omed
ap all
ap per
ap ult
ap oc
ap ting
ap rop
ap sych
ap itulation
ap rio
able d
for ages
Ġare as
Ġare na
Ġchar ly
Ġchar ity
Ġchar red
Ġchar ges
Ġchar don
Ġchar lest
and i
and y
and ered
and aries
and escent
Ġpro s
Ġpro cl
Ġpro gen
Ġpro voking
Ġpro zac
Ġpro ctolog
Ġr ick
Ġr ite
Ġr int
Ġr ated
Ġr ang
Ġr ors
Ġr ash
Ġr oth
Ġr icture
Ġr uff
Ġr ates
Ġr Ã£
Ġr ouse
Ġr use
Ġr iche
Ġr udd
Ġr usi
Ġr ara
Ġr umin
Ġr umbles
Ġr ouses
Ġr ho
Ġr usty
Ġr umblings
Ġr inzler
Ġr oussill
Ġr ationale
Ġr usso
Ġr usted
Ġmore tti
Ġhas h
Ġall od
Ġall ied
Ġall iance
Ġall ison
Ġall ergy
Ġsom mers
Ġsom eday
op us
op led
op ted
op oly
op ener
op erative
op atra
op edia
op otam
Ġpl um
Ġpl ant
Ġpl oy
Ġpl ans
Ġpl ates
Ġpl ug
Ġpl ump
Ġpl ung
Ġpl ague
Ġpl ants
Ġpl unge
Ġpl ugged
Ġpl undered
Ġpl utonium
Ġpl entiful
Ġpl asma
Ġpl impton
Ġpl astered
Ġpl oughing
ful ness
ful ler
ful ford
ful filling
ful fills
Ġact ory
Ġact uary
ight forward
Ġfe es
Ġfe ed
Ġfe ver
Ġfe aring
Ġfe asting
Ġfe eding
Ġfe atherweight
ud ed
ud ent
ud up
ud ger
ind or
ind ly
ind ie
ind uc
ind rop
ind iffere
ind ustry
ven ice
ere rs
ere sque
ter y
ter ry
ter rible
ter iades
her ing
her self
her zog
Ġle ers
Ġle one
Ġle pl
Ġle pp
Ġle av
Ġle ery
Ġle ont
Ġle mon
Ġle vant
Ġle cher
Ġle uke
Ġle agues
Ġle wd
Ġhis s
Ġpre pro
Ġpre che
Ġpre conceived
Ġpre lim
Ġpre feminist
Ġpre hist
Ġpre warned
Ġpre teens
Ġpre occup
Ġpre lude
Ġpre amble
Ġpre quel
ge e
ge ons
ge eks
ge oning
os h
os m
os ing
os ic
os ion
os um
os ure
os ions
os itions
os hu
os curo
os seum
ff o
ff le
ff able
ff ish
ff led
ff Ã£
ff iti
ff indor
Ġv ing
Ġv im
Ġv itt
Ġv ars
Ġv illi
Ġv ote
Ġv ices
Ġv inn
Ġv owing
Ġv aun
Ġv ocal
Ġv aing
Ġv omit
Ġv ulak
all op
all ows
Ġsp at
Ġsp ill
Ġsp ain
Ġsp all
Ġsp ies
Ġsp ry
Ġsp ade
Ġsp ans
Ġsp ree
Ġsp ates
Ġsp ied
Ġsp oon
Ġsp ouse
Ġsp itting
Ġsp ades
Ġsp icy
Ġsp angle
Ġsp elled
Ġsp iders
Ġsp asms
Ġsp encer
Ġsp alding
Ġsp aghet
Ġsp urts
Ġsp indly
ard o
ard ly
Ġper ch
Ġper man
Ġper cent
Ġper fer
Ġper ox
Ġper verted
Ġper kiness
Ġper sever
Ġper alta
Ġper mission
Ġper cuss
Ġper abo
Ġor c
Ġor ation
Ġor son
Ġor land
Ġor bit
Ġor nament
Ġor thodox
pt ing
pt ics
Ġim be
Ġim min
Ġim itative
Ġim ogen
Ġim bue
Ġcl ing
Ġcl an
Ġcl ive
Ġcl ick
Ġcl ang
Ġcl ink
Ġcl ams
Ġcl ob
Ġcl ung
Ġcl oses
Ġcl amb
Ġcl ique
Ġcl ara
Ġcl aus
Ġcl erk
Ġcl icking
Ġcl ipped
Ġcl utch
Ġcl iques
Ġcl ericks
Ġcl oudy
itt ish
ie wicz
pl a
pl er
pl at
pl ings
pl ug
pl ung
pl aces
pl ummer
pl otted
pl anet
pp ie
pp iness
pp ola
Ġout re
Ġout age
Ġout ings
Ġout sh
Ġout let
Ġout does
Ġout ta
Ġout cast
Ġout number
Ġout gag
Ġout rÃ£
Ġout paces
Ġout raged
ime y
ake ball
res hing
res our
res pect
res urrection
res cence
res isting
end re
end om
end as
end ous
end ary
end uring
end idly
ble m
ble matic
ble akly
man a
man e
man ia
man euvers
man sion
Ġfun ky
Ġman as
Ġman ically
Ġman kind
Ġman child
Ġman ga
Ġman gle
Ġman oel
Ġam c
Ġam e
Ġam p
Ġam os
Ġam ble
Ġam ish
Ġam ber
Ġam iss
Ġam oses
Ġam uses
Ġam nes
Ġam ok
Ġam ini
Ġam ped
Ġam ours
Ġam icable
Ġam assed
Ġam iably
Ġam oral
Ġam orality
Ġam iability
Ġam usingly
ces e
Ġqu it
Ġqu aking
Ġqu alls
Ġqu ix
Ġqu izz
Ġqu ashed
Ġqu ench
Ġqu adrangle
Ġqu antum
Ġqu andaries
ort ment
ort edly
Ġtr on
Ġtr ot
Ġtr ance
Ġtr ims
Ġtr udge
Ġtr umps
Ġtr inity
Ġtr uest
Ġlo om
Ġlo vel
Ġlo co
Ġlo ony
Ġlo af
Ġlo oney
Ġlo athing
Ġlo bb
Ġlo vably
Ġlo itering
ick ly
ick ed
ick kn
ine z
ine es
ine ate
ine pt
de but
de fl
de fe
de cent
de void
de af
de fic
de lete
de vol
de generates
de bate
de casia
de emably
ict ing
Ġno he
Ġno on
Ġno bl
Ġno ises
Ġno vice
Ġno xious
Ġno stra
Ġno bility
Ġno cturn
ram a
ram atic
ram bles
ert on
ert ies
are t
are tte
Ġup ends
Ġup hol
Ġup stage
Ġup coming
Ġup front
Ġup heav
Ġup staged
reat ive
Ġar ise
Ġar gu
Ġar med
Ġar ouse
Ġar ising
Ġar kin
Ġar che
Ġar ray
Ġar ousing
Ġar can
Ġar gues
Ġar ctic
Ġar guably
Ġar liss
Ġar oused
Ġar wen
Ġar quette
ook ies
Ġwe il
Ġwe aken
Ġwe eping
Ġwe arer
Ġwe aned
Ġwe athered
Ġwe instein
Ġwe asels
Ġwe imar
Ġwe irder
ac ly
ac res
ac iously
ac iated
ac ostal
ac uations
og ame
og rif
og matic
Ġi a
Ġi oss
Ġi vy
Ġi ben
Ġi lya
Ġi ota
Ġi kea
Ġfl ing
Ġfl im
Ġfl ck
Ġfl ood
Ġfl og
Ġfl oy
Ġfl uct
Ġfl ute
Ġfl ib
Ġfl ush
Ġfl ames
Ġfl ims
Ġfl ails
Ġfl oppy
Ġfl ops
Ġfl inging
Ġfl aky
Ġfl inching
Ġfl opping
Ġfl ocking
Ġfl opped
Ġfl ushed
Ġfl uttering
Ġfl agging
Ġfl aun
Ġfl inch
Ġfl oundering
Ġfl otsam
Ġfl abberg
Ġfl urries
Ġfl akiness
Ġfl akeball
Ġtoo led
per ing
per ly
per il
per ry
per ately
au gust
our side
Ġjust ifying
Ġjust ification
Ġjust ifies
Ġthr all
Ġthr ashing
Ġthr illed
Ġwill ies
Ġwill ingly
Ġwill fully
Ġwill ams
Ġad o
Ġad s
Ġad ore
Ġad here
Ġad vis
Ġad just
Ġad herent
Ġad oring
Ġad herence
Ġad versity
Ġad oration
Ġad rift
Ġad ulthood
Ġad rien
Ġad apting
Ġad hering
Ġgood ing
Ġgood ly
Ġgood ies
Ġdirect ive
Ġdirect ress
od er
od ed
od ate
od ical
od ates
od ied
Ġsome place
Ġsome bod
ore nt
com er
com ic
com bing
Ġany time
Ġany place
we led
we iss
we ger
we aring
we eds
we aver
we wann
we alth
Ġmu y
Ġmu le
Ġmu eller
Ġmu zak
Ġmu ffled
Ġcomp act
Ġcomp ass
Ġcomp aring
Ġcomp rise
Ġcomp iled
Ġcomp romising
Ġcomp ulsive
Ġcomp elled
Ġcomp ulsion
Ġcomp atible
Ġcomp onents
Ġcan ning
Ġcan ines
ass ess
ass ive
ass oc
ass ayas
Ġpo ise
Ġpo ky
Ġpo king
Ġpo key
Ġpo sey
Ġpo kÃ£
age y
nt ly
nt ime
oy al
oy ance
ment or
ment ation
Ġent ree
Ġent ering
Ġent rap
Ġent rep
Ġent angled
Ġent wined
Ġent itled
Ġent endre
Ġro ver
Ġro pe
Ġro de
Ġro ach
Ġro ss
Ġro ars
Ġro ster
Ġro aring
Ġro sem
Ġro gue
Ġro sily
Ġro dan
Ġro sa
Ġro ca
Ġro isterous
Ġro hyp
Ġro gers
Ġro pes
Ġwork er
Ġwork able
Ġwork man
Ġwork ings
Ġwork sh
Ġwork manlike
Ġwork aday
Ġus er
Ġus her
Ġus urp
Ġus elessly
Ġus hered
Ġus hers
Ġbl ing
Ġbl ake
Ġbl are
Ġbl imp
Ġbl anc
Ġbl ub
Ġbl ush
Ġbl ah
Ġbl ending
Ġbl asts
Ġbl ips
Ġbl asting
Ġbl ooper
Ġbl urs
Ġbl ushing
Ġbl essed
Ġbl ader
Ġbl azing
Ġbl azingly
Ġbl uep
Ġbl arney
Ġbl utarsky
Ġbl ustery
Ġwhe ezy
Ġwhe edling
Ġover time
Ġover do
Ġover use
Ġover acted
Ġover night
Ġover weight
Ġover power
Ġover take
Ġover sized
Ġover done
Ġover coming
Ġover achie
Ġover laden
Ġover powered
Ġover due
Ġover size
Ġover infl
Ġover simpl
Ġover praised
Ġover indulgence
Ġover manipulative
Ġover grown
Ġover worked
Ġover lapping
Ġover hearing
Ġover reaches
Ġover plotted
ult z
ult ory
ise cond
iz ant
iz ty
Ġtime out
Ġtime waster
Ġem i
Ġem ily
Ġem ailed
Ġem ulates
Ġem ilie
Ġem igre
Ġem blematic
Ġem aciated
Ġdis hed
Ġdis hes
Ġdis like
Ġdis ob
Ġdis quis
Ġdis may
Ġdis rupt
Ġdis mal
Ġdis sol
Ġdis place
Ġdis oriented
Ġdis member
Ġdis likable
Ġdis section
Ġdis affected
Ġdis satisfied
Ġdis sect
Ġdis abilities
Ġdis appro
Ġdis reputable
Ġdis mant
Ġdis robed
Ġdis advant
Ġdis illusion
Ġdis abled
Ġdis respect
Ġdis assoc
ry mer
ry osuke
ry mple
nder ous
Ġoff al
Ġoff ense
Ġoff ered
Ġoff ends
Ġoff ended
Ġoff set
Ġoff sets
Ġoff icially
ear ned
ear ns
ens en
ens ation
ens ity
ens able
ens ively
ens ibly
Ġhum s
Ġhum bling
Ġhum ping
Ġhum buggery
Ġhum idity
Ġbet a
Ġbet ting
Ġbet ters
wh ich
wh ale
wh ole
int ended
int ellect
int ensely
int imate
Ġfeel good
rit o
rit ic
rit ion
rit ch
rit ique
Ġeven ly
Ġeven ings
Ġeven handed
Ġsl c
Ġsl ing
Ġsl ot
Ġsl ain
Ġsl op
Ġsl ather
Ġsl ots
Ġsl aps
Ġsl ides
Ġsl umber
Ġsl ave
Ġsl ips
Ġsl urs
Ġsl iding
Ġsl ummy
Ġsl ummer
Ġsl opped
Ġsl apped
Ġsl ivers
Ġsl anted
Ġsl oughs
Ġsl avishly
Ġsl alom
ish am
ish able
ip ing
ip ity
ip ment
ip itously
ip otent
Ġra e
Ġra il
Ġra ke
Ġra ving
Ġra cc
Ġra vel
Ġra ph
Ġra ft
Ġra ils
Ġra ps
Ġra zz
Ġra iny
Ġra iling
Ġra vag
Ġra ja
Ġra cked
Ġra ison
Ġra imi
Ġra vaged
Ġra fael
Ġra vages
Ġra imond
Ġra ckets
Ġra indrop
Ġra ffish
Ġme in
Ġme ek
Ġme ager
Ġme gal
Ġme asures
Ġme erop
Ġfa irl
Ġfa hren
ull s
Ġsub ord
Ġsub ser
Ġsub cont
Ġsub cult
Ġsub sided
Ġsub urb
Ġsub dues
Ġsub jug
Ġsub zero
Ġsub sequently
Ġri led
Ġri der
Ġri fe
Ġri dle
Ġri ding
Ġri pper
Ġri bb
Ġri viera
cc a
cc umbs
ense mble
ual ize
ne il
ne ill
ne eds
ne atly
Ġtw irl
Ġtw irling
Ġtw ilight
Ġtw elve
Ġlook in
ose fully
ose cond
sp ain
sp end
sp inner
sp arse
sp otting
sp ittingly
sp awn
sp ousal
sp oofing
sp anning
sp ookies
Ġgo b
Ġgo ers
Ġgo ats
Ġgo omb
Ġgo bble
Ġgo bb
oc a
oc re
oc ion
oc ross
oc acy
oc entric
oc ritique
Ġyour s
Ġyour selves
ost ensibly
Ġfunny bone
Ġimp air
Ġimp osed
Ġimp arted
Ġimp rison
Ġimp rint
Ġimp onder
Ġimp rim
Ġimp lements
Ġimp udent
Ġimp assive
vel and
vel ocity
Ġtal anc
Ġtal ked
Ġvi es
Ġvi vi
Ġvi ability
Ġvi gor
Ġvi dgame
Ġvi gils
Ġgen es
Ġgen et
Ġgen esis
Ġgen ev
Ġgen evie
Ġend ang
Ġend ors
Ġend ured
Ġend emic
Ġend game
Ġend orse
Ġsomet ime
Ġthere of
Ġthere after
ans ing
ans ion
ans as
Ġlove fest
Ġlove birds
ily n
ents ia
Ġbad ge
Ġbad der
Ġsur vey
Ġsur plus
Ġbr at
Ġbr ine
Ġbr anc
Ġbr Ã£
Ġbr att
Ġbr uss
Ġbr ats
Ġbr unt
Ġbr ushed
Ġbr assy
Ġbr ushes
Ġbr istles
Ġwas p
ll abic
old ie
ang o
ang er
ang ed
ang les
Ġte ary
Ġte ams
Ġte quil
Ġte xas
Ġte zuka
Ġte etering
Ġte endom
Ġdes ple
Ġdes ires
Ġdes olation
Ġdes mond
Ġdes ecr
Ġdes irable
Ġdes plat
Ġdes ultory
Ġdel ve
Ġdel ay
Ġdel ves
Ġdel ving
Ġdel ib
Ġdel ayed
Ġdel ineate
ph s
ph in
ph ant
ph one
ph atic
ph oles
ph oned
ph illip
ph otographed
Ġrem ade
Ġrem orse
Ġrem brand
ber ies
ber ling
ber ates
ond e
Ġsm ear
Ġsm itten
Ġsm ugg
Ġsm ashing
Ġsm elly
Ġsm othered
Ġsm orgas
Ġsm utty
Ġbest ial
Ġbest owing
Ġbest owed
Ġser io
Ġser bs
Ġser gio
Ġser pent
so lete
so viet
so cky
Ġscreen ful
sh ame
sh aking
sh ank
sh ield
sh ifting
sh aky
sh iner
sh ocking
sh rewd
sh ainberg
sh iri
sh reve
sh afer
sh atner
sh aled
sh unji
Ġother ness
Ġstr ut
Ġstr icken
Ġstr uts
Ġstr utting
vers ally
vers us
vers ible
Ġnew ly
Ġnew cast
ren ces
ren owned
ty pal
ty kwer
ty pical
Ġher d
Ġher ring
Ġher alds
Ġher bivore
Ġmat hes
Ġmat ured
Ġmat ron
Ġentertain er
Ġcont ain
Ġcont ents
Ġcont ract
Ġcont entious
Ġcont ender
Ġcont orting
Ġcont ained
Ġcont ours
Ġcont agious
Ġpe as
Ġpe els
Ġpe aked
Ġpe gged
Ġpe aks
Ġpe pper
Ġpe gs
Ġpe ppering
Ġpe erlessly
Ġpe anut
Ġpe opled
Ġhow ie
Ġhow lers
Ġhow lingly
but es
Ġ? !?
li est
li ved
li pped
li bs
li otta
Ġag ile
Ġag ents
Ġag ape
Ġag round
Ġag ency
Ġag gri
Ġag gress
Ġag grandizing
Ġag nost
Ġag endas
ling er
Ġtra ject
Ġtra ils
Ġtra des
Ġtra cy
Ġtra vis
Ġtra ined
Ġtra ced
Ġtra ding
Ġtra ining
Ġtra verse
Ġtra cks
Ġtra vil
Ġtra veled
Ġtra ffics
Ġtra uma
ach ing
ach utes
ign ation
ign ore
ign oring
Ġ1 40
ink ingly
ink les
ors i
Ġwhen ce
Ġaud io
Ġunder vent
Ġunder wood
Ġunder app
Ġunder play
Ġunder go
Ġunder way
Ġunder plays
Ġunder whel
Ġunder going
Ġunder lines
Ġunder conf
Ġunder world
Ġunder done
Ġunder water
Ġunder achie
Ġunder lay
Ġunder lined
Ġunder lies
Ġunder arm
Ġunder dramat
Ġunder rehearsed
Ġunder pinn
Ġunder statement
Ġunder utilized
Ġlong s
Ġlong ley
Ġpart ing
Ġpart on
Ġpart ies
Ġpart ially
Ġpart way
Ġpart isans
Ġrom e
Ġrom anc
Ġrom anced
Ġrom ero
Ġrom ij
Ġrom oli
Ġrom eo
Ġfam ed
Ġfam ine
Ġfam uyiwa
ath ons
Ġyear n
Ġyear nings
imes que
Ġheart less
Ġheart ily
Ġheart land
Ġheart warm
Ġheart rending
Ġart less
Ġart ner
Ġart ef
Ġart work
Ġart works
Ġmy er
Ġmy rtle
Ġjo in
Ġjo ck
Ġjo int
Ġjo Ã£
Ġjo vo
Ġjo key
Ġjo aqu
Ġjo ffÃ£
Ġbig gie
ject ed
ject ive
les que
les iast
Ġres ide
Ġres ents
Ġres ists
Ġres olute
Ġres ides
Ġres umes
Ġres nick
Ġres erving
Ġres olved
Ġres idents
Ġres idences
Ġres oundingly
Ġres erve
Ġres idual
Ġmin ed
Ġmin ac
Ġmin isters
Ġmin iser
Ġmin nie
Ġmin iscule
Ġmin utia
leas antly
vent ed
vent ura
sc ary
sc ience
sc ape
sc oop
sc hepisi
sc uts
sc ientious
Ġcr umb
Ġcr Ã£
Ġcr ux
Ġcr umm
Ġcr ushed
Ġcr usty
Ġcr onenberg
Ġcr otch
uct ed
uct ions
uct ively
its kill
oth s
Ġob stac
Ġob tuse
Ġob viation
Ġob solete
Ġcast e
Ġcast le
Ġcast les
Ġcast rated
Ġcinem antic
Ġcharacter izing
Ġcharacter ize
Ġcharacter izes
Ġcharacter isations
ian ic
Ġhol istic
Ġhol ographic
Ġaction ers
iv an
iv ation
iv ory
iv aux
Ġshow ed
Ġshow ers
Ġshow iness
Ġshow bo
Ġshow manship
Ġche f
Ġche ating
Ġche ered
Ġche ats
Ġche vy
Ġche eks
Ġche fs
Ġche ech
Ġche mical
Ġthrill ingly
mer ry
mer ingly
mer ci
Ġaw ed
Ġaw ash
Ġwar n
Ġwar p
Ġwar path
Ġwar nings
Ġwar lord
Ġwar thog
Ġins ub
Ġins ular
Ġins isted
Ġins iders
Ġins atiable
Ġins ouci
Ġstill er
oss i
aw ful
aw ake
aw kward
aut o
aut obiographical
aut omatically
Ġke g
Ġke v
Ġke el
Ġke ening
Ġke ener
Ġke gger
ree ks
ree bo
Ġgr ass
Ġgr ub
Ġgr ues
Ġgr ump
Ġgr uel
Ġgr umble
Ġgr umbling
Ġgr ubbing
Ġgr unge
Ġgr uelling
Ġgr isham
Ġgr anger
be an
be al
be am
be ers
be ard
be ating
be ha
be gan
be cue
be ware
be having
be fuddled
be gotten
Ġco ven
Ġco aster
Ġco burn
Ġco vered
Ġco heres
Ġco ordinated
Ġco educational
Ġco inage
Ġatt ach
Ġatt ics
Ġatt itudes
Ġatt ribut
Ġatt uned
Ġlau per
Ġgi ov
te am
te xan
te levision
Ġcle ars
Ġcle av
Ġcle ments
Ġcle aver
Ġcle aving
Ġcle opatra
Ġcle veland
Ġcle ansing
Ġhard est
Ġhard ass
Ġhard wood
Ġhard ship
Ġhard hearted
Ġhard scra
Ġtri er
Ġtri fect
Ġtri ps
Ġtri bul
Ġtri ppy
Ġtri viality
Ġtri angles
Ġtri butes
ript ions
Ġdown ing
Ġdown side
Ġdown plays
Ġdown playing
con str
con tr
con cil
con forms
con noisse
con nected
con scientious
Ġfar ther
Ġfar mer
Ġfar away
Ġhumor ously
row ed
row aves
get ables
Ġdoc s
Ġdoc ile
iss a
iss ue
iss ance
iss ues
Ġter min
Ġter rors
Ġter rain
Ġgra ces
Ġgra ves
Ġgra der
Ġgra ins
Ġgra ced
Ġgra vy
Ġgra bs
Ġgra pple
Ġgra veyard
Ġgra ffiti
Ġscript ers
Ġscript writer
der ing
der ived
der ailed
Ġcol onel
Ġcol gate
Ġcol tish
Ġcol onial
Ġcol onics
Ġcol oured
Ġcol osseum
Ġaf resh
Ġwo ol
Ġwo olf
Ġwo bbly
Ġmom my
Ġkind red
ock around
Ġap ology
Ġap ocal
Ġap ril
Ġap arthe
Ġap olitical
gg ish
ten ance
ten nessee
Ġrel ation
Ġrel ish
Ġrel ated
Ġrel ays
Ġrel ates
Ġrel ishes
Ġrel ocated
Ġrel ayed
Ġrel ieved
Ġfr itters
Ġfr anz
Ġfr inge
Ġfr ittered
Ġfr othing
Ġfr uition
Ġfr anÃ£
Ġca pe
Ġca ved
Ġca using
Ġca used
Ġca uses
Ġca hill
Ġca viezel
Ġca ulfield
Ġdocument ing
Ġdocument ed
Ġdocument arian
Ġworld view
like able
Ġever lyn
Ġever green
Ġrec apt
Ġrec ove
Ġrec ital
Ġrec over
Ġrec asts
Ġrec ru
Ġrec alling
Ġrec essive
Ġrec laim
Ġrec eding
Ġrec esses
Ġrec ruit
Ġrec apitulation
cept able
cept ible
cept ualize
Ġpret end
Ġpret ence
Ġpret ense
Ġpret ention
Ġpret ended
Ġpret tiest
Ġgu iller
Ġgu ises
Ġgu iding
Ġgu idel
Ġgu zman
Ġgu illen
Ġgu zmÃ£
Ġgu idance
ib el
ib ert
ib ited
ib acy
ib tre
Ġself less
Ġlack ed
av ary
av ventura
iff e
iff er
Ġeng ine
Ġeng ross
Ġeng orged
Ġsurp assed
Ġworth less
Ġplay as
Ġplay off
Ġplay writ
Ġplay ground
Ġplay list
Ġplay things
Ġplay station
Ġview ings
Ġview find
Ġbel a
Ġbel ated
Ġbel ittle
Ġbel insky
Ġbel ushi
Ġback s
Ġback ward
Ġback room
Ġback mas
Ġback water
Ġback story
Ġback seat
Ġback bone
Ġback stabbing
Ġback lash
not orious
not withstanding
Ġwant on
vid ed
Ġcharm ers
Ġcharm ingly
Ġfind er
Ġfind ings
Ġpoint ing
Ġpoint edly
Ġlaugh ingly
Ġhere k
Ġhere to
Ġhere by
Ġhere mak
Ġknow ingly
az a
Ġapp Ã£
Ġapp rehens
Ġapp raisal
Ġlot tery
Ġgl ue
Ġgl int
Ġgl ide
Ġgl ance
Ġgl uc
Ġgl ows
Ġgl ories
Ġgl enn
Ġgl ancing
Ġgl iding
Ġgl uing
Ġgl itches
Ġgl inting
Ġgl itzy
Ġsty x
Ġsty led
Ġsty mied
Ġset h
Ġset piece
Ġexc el
Ġexc ite
Ġexc ellence
Ġexc rescence
Ġdep ending
Ġdep ersonal
Ġdep leted
Ġdep alma
Ġdep ortment
Ġsat s
Ġsat yr
Ġsat ellite
Ġbec almed
Ġneed ing
Ġneed less
Ġneed les
Ġhuman ist
Ġhuman ize
Ġhuman kind
Ġhuman itarian
uc iatingly
Ġmess ianic
ner ved
ner vy
ner vous
ner ds
ner gistic
uff s
uff erably
Ġide ally
Ġide als
Ġide ology
Ġori ental
Ġori entation
Ġpers istent
Ġpers pic
Ġpers istently
Ġpers istence
Ġinc uri
Ġinc ogn
Ġinc iner
Ġinc idents
Ġinc urably
Ġinc andescent
Ġcomple ted
Ġcomple tes
antic ipated
Ġmus cles
Ġmus ker
Ġpr one
Ġpr int
Ġpr attle
Ġpr inted
Ġpr ickly
ale x
Ġcare d
Ġcare y
Ġcare ening
Ġcare worn
apt ly
ount able
Ġturn about
Ġind uce
Ġind esc
Ġind ignant
Ġind isp
Ġind isput
Ġind ignation
arr on
Ġel m
Ġel an
Ġel ie
Ġel ves
Ġel ite
Ġel mer
Ġel ude
Ġel more
Ġel udes
Ġel apse
Ġel vira
Ġel bowed
Ġel lefs
Ġel iminating
ex cess
ex ists
ex tra
ex cr
ex udes
ex ec
ex hib
ex amines
ex amination
ia oshu
Ġpleas es
Ġpleas uring
Ġpleas urably
Ġthink ers
Ġhigh land
Ġhigh brow
Ġhigh fal
Ġdra bly
Ġshe ar
Ġshe et
Ġshe ep
Ġfin n
Ġfin ch
Ġfin anc
Ġfin ery
Ġfin ishing
Ġfin ishes
Ġext ant
Ġext end
Ġext ensions
Ġext ortion
Ġext racting
Ġext remist
Ġext ols
Ġext empor
Ġext ensively
Ġsk i
Ġsk it
Ġsk ating
Ġsk ates
Ġsk unk
Ġsk ipp
Ġsk ids
Ġsk ips
Ġsk irm
Ġsk ipping
Ġsk ipped
Ġsk ilfully
Ġsk ulld
Ġsk olnick
Ġsk ittish
Ġsk ulls
Ġph i
Ġph oney
Ġph once
Ġph leg
Ġph illip
Ġph antasms
Ġph ocion
Ġir k
Ġir vine
Ġir rigates
ater rest
Ġrep s
Ġrep air
Ġrep ub
Ġrep orts
Ġrep rehensible
Ġrep ression
Ġrep elled
Ġrep ulsion
Ġrep ulsively
Ġrep rod
Ġrep rieve
Ġrep arations
Ġrep ulse
Ġrep ellantly
Ġform ing
Ġform alism
Ġform ulas
Ġform idable
Ġfull er
Ġbu i
Ġbu gged
Ġbu ggy
Ġbu bb
Ġbu cked
Ġbu cket
Ġpower ment
Ġpower house
arn ation
arn ie
arn old
ster y
ster ism
app ingly
app ings
app iness
gu y
gu ess
gu ilty
gu arante
gu illen
gu brious
ys omet
ys law
Ġ! ?
Ġsin ise
Ġsin ner
Ġsin uously
Ġmar ch
Ġmar row
Ġmar io
Ġmar vin
Ġmar got
Ġmar veled
Ġmar athon
Ġmar mite
Ġmar vell
Ġmar xian
Ġmar veille
Ġmar cken
Ġmar ilyn
Ġmar shaled
Ġmar athons
Ġmar ivaux
fl am
fl ower
fl ung
fl amb
fl avor
fl owing
fl accid
fl ounders
fl aun
fl otsam
fl agell
me al
me zz
me anders
me asured
me inhof
me eting
no vel
no body
Ġac res
Ġac rid
Ġac comm
Ġac oly
Ġac umen
Ġdist ill
Ġdist ort
Ġdist ended
Ġdist ances
Ġdist orts
Ġdist ancing
Ġdist illed
Ġdist ortions
Ġdist ressing
Ġdist ribut
Ġdist illation
olog ies
olog ues
olog izing
Ġexpl odes
to e
to es
to ity
ins ide
ins ically
ins ane
ins ider
ins ula
ins ightfully
ins ufferably
Ġref er
Ġref ers
Ġref resh
Ġref used
Ġref racting
Ġdec ay
Ġdec orous
Ġdec rying
Ġdec iding
Ġdec lines
Ġdec isive
Ġdec ipherable
Ġdec isively
Ġdec oder
Ġdec ibel
Ġromantic s
Ġromantic ism
Ġromantic ized
Ġromantic ization
Ġpol ite
Ġpol ishing
Ġpol lyana
anc ies
Ġhor de
Ġhor ner
Ġhor rid
Ġhor mon
Ġhor rendously
Ġhor mones
Ġafter math
Ġappe ase
Ġes pite
Ġes oteric
Ġspec ious
Ġspec ies
direct ing
Ġright s
Ġright ly
Ġright eousness
Ġamerican ized
fore ign
Ġtake off
Ġho ity
Ġho vers
Ġho bbled
Ġho vering
Ġho oligan
Ġcons ume
Ġcons ummate
Ġcons igli
Ġimag ines
Ġimag inary
Ġimag ining
Ġ2 8
Ġ2 70
Ġ2 95
Ġcar ion
Ġcar lin
Ġcar michael
Ġcar bon
Ġcar rera
Ġcar rier
Ġcar ousel
Ġcra ve
Ġcra ving
Ġcra cks
Ġcra ppy
Ġcra dles
Ġcra zier
Ġcra ppola
Ġhad es
str ing
str uck
Ġev iction
Ġev incing
Ġev aded
Ġev anes
Ġev asive
Ġev acuations
Ġmel ting
Ġmel ts
Ġmel ange
Ġmel ted
Ġmel ding
Ġmel ds
Ġmel rose
Ġmel anie
Ġbit ch
Ġbit chy
Ġexper ien
Ġexper iments
Ġsex es
Ġsex iness
Ġsex ploitation
Ġsex pot
Ġrun g
Ġrun away
Ġrun yon
dict s
Ġsol ved
Ġsol ution
Ġsol iah
Ġsol omonic
Ġmor a
Ġmor on
Ġmor als
Ġmor gen
Ġmor phed
Ġmor lock
Ġmor nings
Ġmor atorium
Ġdiff uses
Ġwhere in
of cener
Ġed it
Ġed dy
Ġed ged
Ġed ifying
Ġed mund
Ġsch wart
Ġsch rader
Ġsch went
Ġsch lepping
Ġsch ultz
Ġsch iffer
Ġinv ade
Ġinv ulner
Ġinv okes
Ġinv itingly
Ġinv ariably
Ġinv aders
ste en
ste ins
ste alth
Ġsubject ing
Ġsubject ive
Ġperson ally
Ġperson able
Ġperson ifying
Ġperson nel
Ġperson ifies
read ing
Ġcult ist
Ġcult ivation
Ġcome back
Ġcome backs
Ġcome upp
Ġdeli rium
Ġdeli rious
Ġdeli riously
ition ing
ition ers
ition ism
Ġmi kes
Ġmi ka
Ġcre ed
Ġcre am
Ġcre aking
Ġcre me
Ġcre sting
Ġcre matorium
Ġport al
Ġport ion
Ġport able
Ġport ug
Ġpass er
Ġpass ivity
Ġthought lessly
Ġsuper human
Ġsuper large
Ġsuper charged
Ġsuper market
Ġsuper stitious
Ġdial ed
Ġsequ ins
Ġintellig ible
Ġintellig ibility
Ġintellig entsia
Ġmon th
Ġmon astic
Ġmon ica
Ġmon ti
Ġmon itor
Ġmon tied
Ġmon osy
Ġmon ologue
Ġmon tage
Ġmon roe
Ġmon opoly
Ġmon ologues
Ġhour long
Ġstand out
Ġstand off
Ġstand outs
Ġstand bys
Ġlea fing
Ġmater alism
by a
Ġsil ences
Ġclass es
Ġclass ism
Ġclass ify
Ġclass room
Ġclass ification
air ly
iet h
iet al
iet te
iet ales
ub ine
ub bers
ub escent
Ġbro der
Ġbro dy
Ġbro iling
Ġbro ached
Ġbro aches
Ġbro ca
Ġbro ckovich
amp het
Ġhapp iest
min ate
min us
min utes
min ates
min ator
min ority
min imum
Ġanim ations
Ġanim ator
Ġmaterial izes
uck s
uck er
uck led
uck lehead
Ġtou chy
Ġsit es
ord ion
ord inarily
Ġdet ention
Ġstud ied
iment ed
with in
Ġhalf wit
empt s
Ġ19 49
erg ensen
Ġfasc ist
Ġhand y
Ġhand bag
Ġhand ker
Ġhand guns
Ġhand iwork
play er
play fully
co at
co al
co res
co ating
co herent
co arse
co vered
Ġtit ans
Ġtit illation
Ġtit illating
Ġsw ing
Ġsw an
Ġsw ap
Ġsw irl
Ġsw ung
Ġsw ims
Ġsw agger
Ġsw ipes
Ġsw athe
Ġsw irling
Ġsw anson
Ġdem i
Ġdem onic
Ġdem ean
Ġdem eo
Ġdem eaning
Ġdem onizes
Ġdem igod
Ġbelie fs
att ention
att empts
Ġwr ath
Ġwr ists
Ġwr ithing
Ġwr inkles
Ġwonder ous
Ġwonder land
Ġportra its
vo iced
hen ed
hen ate
hen ge
hen ry
Ġlast s
Ġspecial s
Ġspecial ized
Ġz en
Ġz est
Ġz ap
Ġz ip
Ġz ool
Ġz ags
Ġz eld
Ġz inger
Ġz ips
Ġz oe
Ġz oning
Ġz huang
Ġz zzzz
Ġz igzag
Ġz aidan
Ġz iyi
Ġz ishe
Ġz emeck
Ġz igs
Ġz aza
Ġz ucker
ret ion
Ġwit lessness
Ġwit hered
Ġpain ed
Ġpain less
Ġpain ters
Ġpain kill
Ġpain staking
Ġhar ps
Ġhar med
Ġhar land
Ġhar angu
Ġhar vey
Ġhar nesses
Ġhar bour
Ġhar lem
Ġep hemer
Ġep itaph
Ġstart er
Ġstart le
Ġstart ers
Ġstart led
Ġstart les
Ġstart lingly
Ġexp and
Ġexp end
Ġexp ound
Ġexp oring
Ġexp ulsion
Ġexp iry
Ġexp ounded
Ġexp anse
Ġexp editious
Ġexp ansion
Ġvisual ized
Ġvisual izing
Ġvisual ize
Ġput ty
Ġput ters
Ġdull s
Ġdull ingly
Ġdull ards
ccess fully
Ġmed al
Ġmed iter
Ġmed dling
Ġmed dles
Ġele ven
Ġele phant
Ġinter act
Ġinter cut
Ġinter ior
Ġinter rel
Ġinter miss
Ġinter medi
Ġinter change
Ġinter pre
Ġinter sect
Ġinter weaves
Ġinter vention
Ġinter minably
Ġinter woven
Ġinter dependence
Ġinter iors
Ġinter stitial
Ġinter rogation
Ġinter viewe
Ġinter mezz
Ġsou red
Ġsou py
Ġsou vlaki
Ġbor g
Ġbor is
Ġbor chard
Ġstar ry
Ġstar ving
Ġstar ship
ract ed
ted ious
Ġsa ek
Ġsa usage
Ġlight ed
Ġlight ens
Ġlight ning
Ġdef end
Ġdef ense
Ġdef uses
Ġdef icit
Ġdef erred
Ġdef iciency
Ġdef unct
Ġdef ensible
Ġdef oliation
Ġdeep en
inc ludes
inc lusive
Ġsec urity
deo k
Ġpres ume
Ġpres iding
Ġpres erving
Ġpres upp
Ġpres erves
Ġpres umption
odram atics
some ly
some what
orn ed
Ġpsy ches
Ġstra p
Ġstra y
Ġstra fings
Ġspirit less
Ġspirit ually
yp se
Ġma i
Ġma ik
Ġma elstr
Ġbra vo
Ġbra dy
Ġbra ided
Ġbra dbury
Ġnarr atives
Ġgirl ish
Ġgirl friend
Ġgirl friends
Ġsmart s
Ġsmart y
br ash
br ought
br ims
br anagh
br utally
br imful
Ġsent ences
Ġperfect ed
pro ced
pro vide
pro bes
pro bably
pro vincial
pro xy
pro blem
pro jected
Ġbo il
Ġbo res
Ġbo de
Ġbo iled
Ġbo hem
Ġbo ards
Ġbo ho
Ġbo hos
Ġbo ffo
Ġbo oths
Ġpar aph
Ġpar aly
Ġpar sec
Ġpar lor
Ġpar ables
Ġpar odies
Ġpar amount
Ġpar lance
Ġpar anorm
Ġpar apsych
Ġpar odied
Ġpar achutes
Ġhon ors
Ġhon ks
Ġhon oring
Ġrare st
Ġsad ists
Ġsad dle
Ġsad dam
Ġsad dens
Ġbar row
Ġbar bs
Ġbar rett
Ġbar becue
Ġlow ly
Ġlow ered
Ġund ying
Ġund ressed
Ġund iminished
Ġund ramatic
Ġund ogmatic
Ġsusp ending
Ġsusp icion
Ġcomm and
Ġcomm end
Ġcomm ander
Ġcomm only
Ġcomm iser
Ġcomm endable
Ġunf ree
Ġunf uss
Ġunf akable
Ġunf athom
Ġunf ilmable
Ġunf urls
Ġunf airly
Ġlead er
ming way
ric ious
Ġsens eless
Ġsens itiv
Ġcapt ive
Ġcapt ions
Ġcapt ors
Ġcapt ives
Ġtogether ness
Ġmoving ly
Ġexpect ant
Ġshort y
Ġshort est
Ġshort age
Ġshort ness
Ġuns urp
Ġuns ung
Ġuns aid
Ġuns olved
Ġuns lick
Ġuns alvage
Ġuns chooled
Ġadd ams
Ġadd itional
Ġadd essi
Ġnow heres
Ġnow adays
Ġret ch
Ġret ard
Ġret ail
Ġret ina
Ġret iring
Ġret aining
Ġret ali
Ġret ribut
Ġret rieve
Ġret itle
Ġconv olution
Ġmid section
Ġmid dles
Ġmid west
Ġmid level
Ġpot ion
Ġpot atoes
Ġpot ato
Ġpot emkin
Ġpop s
Ġpop ulating
Ġpop ping
Ġpop ped
Ġpop ulates
Ġthree fold
Ġconf use
Ġconf uses
Ġconf ession
Ġconf ining
Ġconf irming
Ġconf irm
Ġconf usions
Ġconf ounded
Ġconf idently
Ġconf igurations
Ġpsych otic
Ġpsych iat
Ġpsych odramatics
des erved
des erving
des cri
des perately
Ġdi op
Ġdi pped
Ġdi vides
Ġdi amond
Ġdi vided
Ġprof it
Ġprof its
Ġprof iling
Ġprof iles
Ġprof iciently
Ġprof anities
Ġprof iciency
Ġdirection less
stead fast
Ġsy dow
Ġsy nch
Ġsy tle
Ġsy dney
Ġsy lvie
Ġsy ndrome
Ġsy chowski
Ġsy nergistic
Ġsound ed
Ġmiss ive
Ġmaster ly
Ġmaster pieces
Ġmaster peice
Ġred ux
Ġred ucing
Ġred ford
Ġred olent
Ġred isco
Ġred uctions
Ġass ess
Ġass ign
Ġass ures
Ġass ail
Ġass ets
Ġass urance
Ġass esses
Ġass ignment
Ġass istant
Ġstrong man
cl able
cl are
cl int
cl ose
cl ash
cl ub
cl aud
cl ayburgh
cl aims
cl aire
cl enching
cl iches
cl umsy
cl opedia
cl iffe
Ġop ium
Ġop acity
Ġop ulent
Ġsure st
Ġsure handed
Ġhead ly
Ġhead line
Ġhead long
Ġhead aches
Ġhead lines
Ġlevel ing
cy ber
wor se
Ġvers ace
Ġvers atile
Ġmen u
Ġmen zel
Ġmag i
Ġmag ically
Ġmag gio
Ġmag gots
ows ky
Ġprob ation
Ġplace hold
resh adowing
Ġwild card
Ġda ve
Ġda isy
Ġda foe
Ġda unting
Ġamb ience
Ġamb ling
Ġamb ivalent
Ġquest s
Ġquest ing
Ġsatisf actorily
Ġpolit esse
vis its
Ġdam sel
Ġdam sels
Ġteen aged
Ġteen ager
eng ages
eng rossing
eng agingly
Ġpat ent
Ġpat ter
Ġpat ting
Ġpat tern
Ġpat iently
Ġpat ois
Ġequ ations
Ġequ ipment
Ġhel ms
Ġhel ene
Ġhel ga
Ġentire ty
Ġslow ed
Ġslow ness
Ġslow time
ific ations
Ġprem ier
Ġquir kily
Ġtrans it
Ġtrans fi
Ġtrans fig
Ġtrans vest
Ġtrans gression
fe ardotcom
fe eble
fe atherweight
fe ely
fe aturing
Ġacc used
Ġacc elerated
Ġacc orsi
Ġacc ordion
Ġcou ch
Ġcou ghed
Ġwin ce
Ġwin ces
Ġwin ningly
Ġprom otion
Ġprom inent
Ġprom inently
Ġprom oter
Ġprom inence
Ġprom enade
Ġprom pting
Ġpast a
Ġpast s
Ġpast y
Ġste ak
Ġste ering
Ġste inis
Ġrob otic
Ġrob otically
Ġrob bery
Ġrob beries
Ġmean est
Ġmean while
Ġmean spirited
uri al
uri zed
Ġmain land
Ġmain tenance
Ġboy z
ied er
oon ing
oon ery
Ġsim mer
Ġsim ulation
Ġsim ulate
Ġsim pering
Ġfresh man
Ġmur ray
Ġmark er
Ġmark edly
Ġpun ny
Ġpun itive
Ġpun ched
Ġpun ishable
Ġhome boy
Ġhome work
Ġintri gues
Ġadm itting
Ġadm iring
Ġadm iration
Ġsubt let
Ġoper ating
Ġoper ative
Ġoper ational
Ġoper andi
Ġmis use
Ġmis directed
Ġmis advent
Ġmis leading
Ġmis percept
Ġmis steps
Ġmis begotten
Ġmis constr
Ġbook ing
Ġnor man
Ġnor ris
Ġnor ma
Ġnor ring
Ġwarm est
Ġsolid ity
ron i
ron ted
ron ized
ron ement
Ġtre y
Ġtre asured
Ġtre acle
Ġtre asures
Ġtre acly
Ġsing h
Ġsing ers
Ġben evol
Ġlar gest
Ġlar cen
plic ate
Ġfair ness
Ġmodern ized
Ġmodern izes
Ġtreat ises
Ġsn l
Ġsn uck
Ġsn ugg
Ġsn ags
Ġsn acks
Ġsn ared
Ġsn azz
Ġsn apping
Ġsn iffle
Ġsn agged
Ġsn iping
Ġbas k
Ġbas est
any way
any body
Ġadvent ues
Ġblack s
Ġblack en
Ġblack ed
Ġblack out
Ġblack light
Ġface off
Ġ9 1
Ġ9 6
Ġ9 7
Ġ9 8
Ġodd ities
Ġfren zied
Ġgri ping
Ġgri ffin
Ġgri zzled
Ġread s
Ġread er
Ġread ings
Ġdead eningly
Ġval ium
Ġval ueless
Ġval entine
gr ating
gr itty
gr ubbing
gr ouped
gr ubbers
mo ves
mo vieland
ser b
ser y
ser ry
ser iously
ser bian
Ġmr s
Ġwa i
Ġwa if
Ġwa vers
Ġwa xes
Ġwa ffle
Ġdumb o
Ġdumb est
Ġdumb foundingly
rop he
Ġant ic
Ġant sy
Ġant lers
Ġcomed ically
Ġcomed ians
Ġdebut s
Ġdebut er
Ġjohn nie
Ġcomplex ly
Ġill s
Ġill usions
Ġill icit
Ġdr ill
Ġdr one
Ġdr ung
Ġdr inking
Ġdr udger
Ġactor ly
Ġactor ish
Ġactor liness
Ġflat man
Ġflat ula
Ġflat footed
Ġflat bush
Ġviol ated
Ġviol ates
Ġviol ins
Ġviol ently
Ġviol inist
Ġsmall est
Ġsmall ness
Ġcontri bute
Ġportrait ure
Ġpsycholog izing
Ġve x
Ġve il
Ġve ered
Ġve ering
Ġve iling
Ġve ga
Ġve xing
Ġve rete
Ġve ctors
Ġve getables
ery ear
Ġcut er
Ġcut out
Ġcut ter
Ġcut throat
Ġcut offs
Ġstuff y
Ġstuff ing
Ġstuff iest
Ġsupp le
Ġsupp ression
Ġeasy going
ef its
ef teriades
und ers
und one
und oubted
und ead
Ġsign ing
Ġsign ature
Ġsign ify
Ġmet er
Ġmet ro
Ġmet iculous
Ġmet tle
Ġmet iculously
Ġcount ing
Ġcount enance
Ġenerg ies
Ġenerg ized
Ġenerg izing
Ġenerg izes
Ġproject or
Ġproject ion
Ġproject ile
Ġterrif ied
Ġstyl ists
bl ings
bl anks
bl ades
bl owing
bl uto
bl ithe
bl isteringly
bl uer
bl imey
bl onde
Ġmot ocross
Ġexer cises
ationship s
Ġquiet ness
Ġquiet ude
Ġslight s
ma ud
ma res
ma udlin
Ġcal ories
Ġcal cified
Ġcal amity
Ġhit man
Ġhit men
Ġhit chens
Ġreve red
Ġuni versity
Ġuni versally
med em
Ġid ling
Ġid itar
Ġid oosyn
Ġaffect s
Ġaffect ingly
Ġaffect ions
het te
elt ies
Ġstun ned
Ġword less
Ġword play
ustr atingly
Ġclassic ism
Ġfoll ies
Ġwrit es
Ġpa x
Ġpa ces
Ġpa using
Ġpa ula
Ġpa uses
Ġpa unchy
Ġpa eans
ann i
Ġdream y
Ġdream er
Ġdream ing
Ġdream iness
Ġdream works
Ġdream scape
Ġlat ent
Ġlat ently
Ġlat ches
Ġlat rine
[...]
