#version: 0.2
Ġ t
Ġ a
i n
h e
Ġ s
r e
Ġ .
Ġ o
e r
i t
Ġ ,
Ġt he
i s
e n
a t
Ġ f
in g
e s
Ġ m
n d
Ġ w
Ġ c
Ġ b
o r
o n
o u
Ġo f
Ġ p
a r
Ġa nd
a n
a l
Ġt h
l y
Ġ d
i l
e d
i c
Ġ '
Ġt o
Ġ in
Ġ l
Ġ h
o m
s t
Ġ n
Ġ it
l e
Ġ is
u t
Ġ e
c t
e l
Ġ g
Ġm o
en t
i on
o t
a s
v e
Ġth at
e t
i m
v i
Ġs t
Ġ re
r a
g h
Ġ u
v er
Ġb e
u l
c e
c h
r o
T he
Ġf il
Ġo n
Ġfil m
Ġa n
Ġ y
Ġa s
it h
r i
o l
a y
k e
Ġ -
o w
a d
Ġf or
Ġw ith
vi e
es s
s e
Ġb ut
o o
Ġw h
Ġy ou
i d
Ġc om
Ġit s
Ġs u
i r
Ġmo vie
er s
a m
Ġl i
il l
he r
b le
Ġa l
a g
u n
Ġ S
Ġc h
u m
e m
gh t
c k
ou s
. .
ou t
u r
Ġin t
Ġth is
a k
Ġ en
l d
Ġe x
is t
Ġs e
Ġ he
I t
R B
at ion
an t
Ġn ot
i ve
r om
al ly
es t
i f
q u
Ġh a
Ġ B
' t
Ġd o
Ġa b
u re
ar t
i re
Ġs h
Ġu n
a in
el l
Ġc on
a st
p e
Ġd e
Ġ M
Ġa t
Ġs c
Ġ A
or t
Ġn e
Ġ C
at e
it y
a ct
Ġ j
ou gh
or y
i g
u s
u st
Ġb y
Ġs o
p t
a ble
oo d
Ġa re
p p
Ġ- -
Ġch ar
h ing
Ġ H
Ġp ro
Ġmo re
f f
Ġth an
Ġh as
Ġab out
a nd
om e
Ġli ke
ou ld
Ġw or
i ght
Ġa ct
f ul
e re
Ġf rom
Ġp l
Ġon e
u d
Ġ I
in d
Ġal l
v en
Ġ D
Ġha ve
Ġf e
o s
t er
ver y
Ġp re
Ġh is
o p
Ġ. ..
Ġwh o
ar d
a ck
al l
T h
i al
Ġp er
Ġ r
Ġ W
e ct
i e
p l
Ġo r
on g
Ġ k
it t
Ġst ory
Ġ v
on e
Ġ `
Ġ im
ire ct
g e
Ġ P
im e
Ġchar act
o g
a ke
Ġ F
Ġo ut
a b
re s
en d
en ce
Ġ R
Ġc l
R RB
L RB
a p
o d
i ous
Ġ G
Ġf un
c es
Ġ T
ic k
Ġl e
i es
in e
Ġ L
f or
a re
Ġs p
ic t
m an
Ġt r
Ġm an
v es
re at
er t
Ġu p
oo k
Ġ qu
a c
e p
n t
ra m
Ġto o
ed y
Ġn o
Ġ J
ic h
ou r
Ġf l
a u
e ar
Ġmo st
Ġint o
Ġth r
Ġj ust
ar y
it e
Ġd irect
u ch
Ġs ome
Ġan y
t h
o y
o re
p er
Ġa d
Ġa r
ic al
Ġdo es
Ġcom p
Ġg ood
n y
ag e
as s
m ent
Ġw ill
Ġl o
m er
ak es
Ġw e
Ġc an
n e
Ġ ent
Ġwor k
u e
Ġu s
Ġ The
Ġo ver
Ġw he
o nd
Ġm uch
Th is
Ġcom edy
i z
el f
is e
l l
il e
Ġper for
r y
Ġ N
ul t
at ing
ou nd
Ġof f
Ġp o
w e
ar k
en s
t her
Ġw ay
Ġh um
Ġ' '
is h
Ġ if
Ġcharact ers
d e
Ġt ime
id e
Ġfe el
ert ain
Ġperfor man
Ġb et
Ġe ven
ul l
c c
Ġwh at
in t
i p
at ed
at ch
r it
v ing
Ġ E
Ġs l
Ġe m
itt le
re en
n ess
Ġ K
Ġw ell
Ġg et
w n
an ce
Ġa m
ic e
ad e
Ġon ly
l ess
Ġsu b
o se
o st
u al
en se
om et
A n
Ġb l
Ġd is
Ġthe ir
ing ly
o c
Ġl ittle
an s
Ġf a
Ġl ook
Ġ ra
Ġ ri
Ġfun ny
Ġm ake
Ġyou r
Ġen d
Ġm e
v el
at ive
Ġthe m
Ġg o
ow n
W h
Ġt w
ing s
at ic
Ġe very
Ġre al
Ġu nd
i ence
Ġbe en
pe ct
Ġt al
Ġm ay
ion s
Ġli f
Ġ` `
Ġim p
i ly
Ġd ram
Ġbe c
ent s
.. .
am e
Ġen ough
res s
Ġsu r
Ġs omet
Ġg en
il d
Ġ very
r u
t e
Ġne ver
Ġ vi
Ġthe re
an g
ol d
Ġb ad
Ġin s
ak ing
he d
Ġse em
h y
Ġdirect or
Ġthe y
b er
Ġm akes
Ġd es
Ġw ould
Ġwh ich
Ġd el
g et
Ġc a
Ġre m
Ġw as
Ġt e
ver s
r is
Ġsc reen
t y
Ġ ro
Ġo ther
Ġse e
Ġb est
Ġlif e
t ing
ay s
Ġthr ough
re n
Ġent ertain
Ġs er
Ġ ?
at er
ab ly
Ġlo ve
l ing
ation s
ate ly
Ġs m
Ġe ff
a ch
Ġp e
Ġpl ot
Ġre s
v ed
in k
or s
ig n
g in
Ġ 1
Ġc ould
vi es
ĠC h
ere st
Ġwhe n
Ġ :
Ġa g
re d
Ġw atch
Ġcon t
Ġ her
ion al
Ġp art
Ġa ud
I f
Ġmo vies
im es
Ġy ear
ur n
ot her
u ally
Ġl ong
l es
Ġhe art
Ġar t
i ke
j ect
Ġt ra
Ġf am
Ġb r
The re
Ġh ow
o ck
in em
Ġint erest
Ġund er
is m
le as
v ent
ot h
Ġsh ould
i ble
Ġ rom
a ce
in ut
Ġre c
Ġm ade
i an
s o
Ġo b
Ġre ally
i v
y ing
Ġo wn
Ġcharact er
Ġsomet hing
he s
Ġg reat
ist ic
a w
Ġact ion
d u
Ġthr ill
Ġc ast
Ġc inem
Ġperforman ces
ir st
Ġv is
Ġdram a
im p
f t
p h
pe c
os s
at h
Ġfilm s
Ġman y
o b
Ġst ill
vie w
ell ing
op le
i gh
s s
Ġ O
re e
Ġtw o
n ow
as h
Ġpe ople
r an
Ġsc en
Ġb ig
ri pt
Ġne w
Ġa w
um b
Ġsh ow
s c
au se
Ġhum or
i b
at her
Ġl au
ro w
um ent
Ġc he
Ġfilm m
mer ic
Ġem ot
Ġm y
Ġh ard
Ġdo c
is s
Ġin c
Ġre l
ict ure
Ġbet ter
at ure
Ġf irst
ar ly
Ġd own
Ġt ri
Ġg i
Ġsc ript
j oy
Ġth ose
ol ly
g g
Ġt er
Ġp icture
Ġl ess
l t
n ing
Ġm om
ag es
Ġk ind
a ut
l ed
u p
Ġ ke
Ġm ight
Ġc le
Ġen joy
I n
t en
ow er
Ġat t
Ġf ar
Ġdoc ument
ct ion
ce pt
Ġwith out
Ġal so
Ġaud ience
a v
s y
ĠA meric
k s
n g
t hing
Ġo ld
s p
w ood
Ġa pp
Ġs elf
ou ght
Ġbe ing
Ġpre t
Ġl ack
if f
ful ly
we en
Ġsur p
it s
Ġw ort
Ġg ra
ol l
Ġ view
Ġa p
Ġm inut
Ġe ver
vi d
Ġchar m
A s
Ġs ense
ar s
Ġlau gh
a z
Ġf ind
Ġnot hing
Ġpo int
d er
Ġw ant
Ġb ack
Ġb oth
Ġbet ween
B ut
ar m
Ġl ot
Ġg r
Ġpl ay
Ġst y
Ġhe re
Ġfe w
Ġk now
Ġperforman ce
Wh at
gin al
lt im
f ter
Ġs et
Ġex c
o ol
Ġne ed
ar n
Ġm ess
on s
Ġ ;
Ġcomp le
Ġhum an
k y
u ff
Ġ ide
he re
Ġb el
ant ic
Ġwor ld
ne y
olly wood
Ġo ri
at es
al e
Ġan other
Ġg l
Ġbec ause
m ost
ou nt
ro ss
Ġminut es
Y ou
Ġof ten
Ġp ers
ic ally
Ġsu ch
Ġseem s
n er
x t
Ġt urn
ar r
Ġen g
Ġthrill er
o k
if ul
Ġke ep
c ed
Ġp leas
Ġth ink
Ġdocument ary
i a
in ation
er ing
Ġc are
Ġeff ect
Ġori ginal
a pp
Ġtal e
ut e
Ġst r
Ġqu ite
in ess
Ġs at
st er
Ġm us
Ġc reat
Ġg u
ĠS t
Ġde c
Ġinterest ing
b e
Ġ !
Ġa cc
Ġin d
Ġbe aut
Ġex t
ic s
Ġu ltim
ol og
ĠH ollywood
Ġk id
a il
Ġp r
Ġd ist
Ġh igh
Ġfor m
Ġwh ile
Ġex pl
ere d
Ġfeel s
c om
h ip
Ã Ĥ
Ã ĥ
Ġs k
Ġs in
Ġs he
Ġth ing
Ġre f
Ġits elf
Ġal most
we et
Ġentertain ing
Ġag ain
Ġfilmm ak
Ġsurp ris
Ġwort h
at t
Ġf in
Ġp ower
Ġh im
Ġrom antic
Ġap pe
N ot
Ġw ere
Ġc r
Ġse en
ie ce
g u
p ite
Æ Ĵ
Ġr ather
Ãĥ ÆĴ
ÃĥÆĴ ÃĤ
e w
e ad
or d
Ġh or
Ġy et
end s
Ġmom ents
Ġs imp
Ġs pec
Ġre p
Ġcon s
ĠAmeric an
\ /
f ore
w ard
vi ous
ast er
rit er
Ġri ght
Ġgen er
in s
it her
Ġc ol
an e
Ġh ist
c ess
f l
Ġ 2
Ġa fter
al ity
Ġe as
Ġpro du
Ġim ag
i et
Ġt ake
Ġthe se
Ġw om
Ġb it
al f
il ity
Ġh ad
Ġex per
Ġd ra
og ue
c y
d ict
i er
i ally
v ol
Ġb u
Ġd iff
Ġe l
Ġcom es
Ġact ing
Ġfam ily
Ġ es
it ion
Ġm em
ure s
ell ig
ond er
Ġsub ject
d d
o f
Ġ V
Ġs ame
en ces
Ġc ult
as c
as on
Ġyou ng
Ġcom e
a ve
f ect
m e
re ad
Ġo ur
Ġc o
Ġin st
ion ally
Ġbe fore
ir l
Ġwhe re
Ġdel i
O ne
Ġc re
Ġp ass
Ġth ought
Ġd ial
Ġint ellig
Ġse qu
c on
o ve
y s
Ġm ater
as e
ra p
Ġact ors
Ġpers on
F or
a ir
Ġm el
Ġp ort
al s
Ġst and
Ġde ep
irect or
Wh ile
o ot
t he
Ġt imes
re t
Ġf ull
ic ul
ch ing
am p
ĠS e
Ġcl ass
Ġget s
Ġsin ce
c ing
i ar
u b
Ġthe n
is f
at ter
Ġth ings
Ġse x
ire d
Ġde p
Ġultim ately
Ġdial ogue
Ġmater ial
m s
r on
Ġt akes
Ġa ff
Ġs it
re am
Ġd et
Ġsu per
ĠS p
Ġscen es
s elf
Ġm ind
im ent
f ic
in es
ill i
em pt
Ġ1 9
Ġt ou
Ġs ay
Ġf asc
Ġp ol
Ġe le
Ġst ud
Ġch ild
Ġha nd
ain s
Ġfl ick
Ġbeaut iful
u es
Ġd id
ent ly
ir it
Ġr un
he n
ri d
pl ay
Ġcomp elling
Ġwatch ing
s on
Ġ Y
Ġt it
Ġh alf
Ġyear s
Ġbel ie
Ġport ra
r or
Ġw r
or n
Ġab s
W ith
Ġth ough
Ġd ark
Ġd ull
Ġan im
qu e
Ġha pp
Ġemot ional
Ġmus ic
L ike
Ġp ain
Ġe p
Ġst art
Ġle ast
Ġvis ual
Ġter ri
Ġfasc in
u ck
v in
Ġd em
il ar
il ly
Ġex p
Ġpre dict
Ġeff ort
c o
c ial
k ing
Ġ ed
in ed
Ġp ut
ol id
ĠS h
ĠB l
Ġspec ial
i el
r ic
el ess
Ġli ght
Ġwork s
Ġfam il
Ġcle ver
er a
Ġm ed
Ġc ra
Ġp iece
Ġun e
Ġpro ble
i o
Ġ ir
it ive
Ġh our
Ġg ive
id er
ur ing
Ġun f
us ing
iz ed
Ġfa il
Ġgi ves
Ġm or
Ġint er
ist s
ĠD e
Ġpre s
od ram
ĠJ o
Ġgo ing
Ġentertain ment
Ġcinem atic
t ed
Ġe v
ur al
Ġde f
Ġfe ature
Ġtr ans
Ġvi de
Ġcinem a
Ġn arr
Ġst ra
ous ly
all s
Ġany one
oss ible
i x
y p
Ġs ent
Ġs weet
re ak
Ġm aking
Ġw onder
Ġp sy
ro p
Ġon ce
ast e
Ġwho le
Ġper fect
Ġsm art
Ġsty le
Ġfascin ating
g y
Â ©
Ġp h
Ġl ast
ut ion
Ġen er
ant ly
Ġsh ort
Ġany thing
Ġmel odram
S t
t s
w ays
Ġw it
Ġc ertain
Ġl ow
Ġh on
Ġsu sp
Ġun s
Ġle ad
Ġkid s
c er
o on
Ġs w
Ġs ad
or ing
Ġmo ving
ri ght
Ġra re
Ġca pt
Ġser ious
Ġpret ty
Ġ U
Ġs ens
it ing
al ing
Ġto get
Ġn ow
el s
ul a
Ġcom m
Ġsu cc
ĠS c
Ġex pect
Ġtoget her
Ġe y
are nt
Ġad d
Ġlaugh s
b ut
id d
ap s
Ġdirect ion
Ġeng ag
Ġexper ience
A l
o ff
Ġm ar
Ġb ra
Ġp op
Ġre t
ow s
Ġal ways
ĠB e
Ġcon f
Ġsp irit
Ġtr ue
Ġbec om
Ġob vious
Ġstr ong
Ġhist ory
Ġpsy ch
o ke
z y
Ġs ound
er y
it ies
le ct
Ġsu re
ur p
ure d
Ġle vel
ru ct
Ġins p
Ġaw ay
Ġcomple te
Ġtit le
Ġvide o
E ven
d ay
h a
t o
u g
Ġa c
Ġo p
Ġf ans
Ġm on
ut h
ot s
Ġcom ic
Ġhe ad
ort un
Ġpro b
Ġact ually
Ġwho se
res h
Ġcl ic
vers ion
Ġnarr ative
0 0
o int
u nd
Ġs illy
Ġm atter
Ġw ar
an n
Ġth ree
Ġst ar
ir d
Th ough
Ġqu est
ment s
Ġtal ent
Ġser ies
Ġtra g
Ġsat isf
Ġpol it
Ġpredict able
e c
g er
i ed
Ġc ar
Ġwh y
Ġcom ing
od y
ore d
Ġar ound
Ġins ight
Ġte en
e k
h n
o pe
o pp
Ġf act
et s
Ġre ason
if e
us h
Ġpl ace
Ġent ire
ress ive
Ġsomet imes
Ġgen re
Ġatt empt
Ġsimp ly
` `
e ver
l er
l ike
Ġm iss
Ġd one
st and
if ic
Ġne arly
Ġpro f
Ġpre m
itt en
Ġsl ow
Ġam b
Ġscreen play
Ġide a
Ġwom en
Ġfamil iar
Ġw o
Ġw in
Ġc ou
Ġb o
or ies
ent ion
ra ct
ĠC l
ĠL e
Ġqu ir
Ġad m
ok es
b r
c hed
Ġ It
Ġs y
en g
en ing
Ġm ain
or ge
al k
ce ed
Ġas s
Ġhe l
ud e
pl ic
Ġman ages
Ġfilmmak ers
Ġhor ror
Ġsent iment
Ġhon est
D es
a id
b y
b ing
c i
c ise
Ġf resh
Ġp ar
Ġp ot
Ġd i
Ġe qu
Ġmo der
ch ool
Ġsu m
am s
un ch
Ġint ri
ation al
ĠN ew
Ġsub t
Ġdram atic
Ġdel ight
Ġprob ably
Ġprem ise
o id
Ġs olid
Ġo per
Ġc red
Ġp rom
ch n
se m
um p
iz ing
Ġenjoy able
Ġform ula
Ġsucc ess
c ent
w h
he t
Ġm aster
Ġc ut
or k
Ġtr ying
th ough
Ġgo es
Ġpart icul
Ġeffect s
Ġel se
Ġsusp ense
Ġengag ing
e f
v is
Ġt reat
Ġf ant
Ġf ine
Ġm is
Ġp at
Ġp ast
et t
Ġfa ir
pec ially
ran ge
Ġturn s
Ġproble m
Ġhel p
Ġmoder n
A t
a pt
i ences
m p
o vie
t ime
y n
Ġ 9
Ġs ou
Ġo dd
it ed
Ġw riter
Ġc ent
Ġb ook
Ġin e
Ġhe ro
Ġwor st
og rap
iz e
ult s
Ġme an
ren ch
Ġdiff ere
Ġchild ren
Des pite
c ond
Ġs ing
Ġo cc
is hed
es e
Ġm ust
ro wn
oo f
Ġsu pp
Ġcon st
Ġde but
ĠM r
Ġoff ers
Ġfeel ing
Ġam using
Ġcomple x
Ġes pecially
Ġstud y
ĠJo hn
Ġbecom es
a ves
i ent
Ġ ill
Ġs ort
it ch
Ġw arm
Ġb as
Ġal ong
Ġde v
Ġact or
Ġfl aw
Ġvi ol
Ġsm all
Ġcont ri
Ġrom ance
Ġob s
a h
c l
g o
Ġ version
Ġt ell
Ġs im
Ġf r
Ġm a
Ġm ag
Ġc am
Ġl ar
ot e
Ġst uff
Ġcom ed
Ġli ve
ur d
Ġevery thing
av y
olog ical
Ġintellig ent
Ġportra it
re me
it ation
Ġm ark
Ġc all
Ġb oring
Ġd umb
Ġin vol
om p
el t
ĠS te
ĠA ll
Ġlike ly
Ġv al
ĠR e
ict ion
ac ed
Ġfa ce
vel op
Ġlack s
Ġcharm ing
Ġmess age
Ġeas y
d irector
u se
u ine
Ġthe ater
ent ial
Ġex er
ud d
ĠR ob
ear s
Ġsl ight
Ġbec ome
ations hip
Ġmy ster
Ġsty l
N o
Ġ Th
Ġf ri
Ġg ri
ot ic
Ġre ve
Ġbe gin
ĠA l
Ġj our
us ed
Ġwor d
are ly
Ġad vent
Ġbr illi
Ġrel ationship
Ġfilmmak er
Ġexer cise
m ing
u ri
y ond
er v
on y
ou se
ut ter
Ġst un
Ġre ad
ag s
ĠA n
ust r
ĠD is
ĠF rench
ĠT V
ens ion
oll ow
Ġclass ic
Ġaff ect
Ġquir ky
A nd
c ome
c hes
i ra
n ed
Ġ ve
Ġm en
Ġw rit
Ġh ilar
Ġn or
Ġsu ff
ill er
Ġun i
os ed
Ġrem ark
Ġide as
Ġpower ful
Ġcult ure
Ġinst ead
Ġpass ion
Ġener gy
A ll
p ro
u c
Ġ Q
Ġt one
ar ing
Ġd ay
Ġn on
Ġe ither
Ġg irl
ent ious
ra ge
ul g
ul ar
Ġli ves
ag ed
end ed
Ġcl ose
Ġle ft
Ġfl at
Ġem b
Ġlook ing
Ġgen uine
Ġfilmm aking
Ġsurpris ingly
gu ing
Ġmelodram a
Ġcertain ly
Ġa ch
Ġs ign
is ing
on es
an ces
Ġin f
Ġe ach
Ġmo t
Ġst range
Ġre st
ol es
Ġpro ject
itt y
itt ing
Ġend ing
Ġevery one
Ġdes pite
Ġte chn
Ġrec ent
app oint
Ġsit u
Ġcomplete ly
Ġoper a
C h
J ust
e y
g es
l ine
r t
s h
u ly
Ġs n
Ġs pect
it er
Ġf an
Ġm ix
or able
ou d
le t
as y
Ġre g
Ġu r
Ġbe yond
un k
Ġex cept
Ġhe avy
Ġpl ays
Ġle ave
Ġqu iet
Ġdes er
Ġview ers
arn est
Ġdeep ly
Ġbelie ve
idd le
Ġocc as
U n
a el
l and
m inut
Ġf ound
Ġst ri
ĠB ar
Ġj okes
all ow
Ġtr uly
Ġqu ick
Ġdirect ed
Ġlook s
Ġri de
Ġreal ity
iv al
ash ion
Ġhim self
Ġcre ep
Ġdet ail
Ġstra ight
S h
T oo
a i
m a
m ed
t elling
z e
Ġ Z
ic ult
Ġh old
Ġh ope
ĠS ch
Ġex am
Ġse cond
ire s
Ġsh ot
Ġr ich
Ġsub st
Ġdis appoint
Ġunder stand
Ġshow s
Ġprodu ction
Ġdiff icult
minut e
W e
W hen
d ing
g ed
i est
o v
w ay
Ġm et
Ġc art
Ġl ine
Ġn ice
ot t
Ġfor get
Ġex act
ive ly
Ġab ove
Ġcon cept
ĠA r
Ġne xt
us s
pp ing
Ġtr uth
Ġend s
Ġscen e
Ġapp ro
Ġref res
Ġsimp le
Ġdeli vers
Ġtou ching
Al though
Ġsum mer
a f
g r
r ist
w r
Ġ 8
Ġ id
Ġa ir
Ġc ap
Ġb ro
ou b
an ge
Ġto p
Ġg row
Ġcom b
am es
Ġal read
It s
Ġsh ock
Ġno vel
ĠJ ack
Ġpo et
ild ly
ber g
Ġro le
ib ly
Ġexpl o
Ġbeautiful ly
Ġsatisf ying
Ġintri guing
Ġdiffere nt
Ġhilar ious
Ġalread y
D irector
b all
i en
p or
r ing
r ise
t ra
Ġo pp
ar p
an y
Ġl et
Ġst ories
un g
Ġex ec
Ġcon vin
Ġde ad
Ġde velop
Ġne ither
Ġim ages
end er
ich ÃĥÆĴÃĤ
Ġmost ly
ite ly
Ġimp ort
Ġrem ains
Ġtri es
Ġmom ent
iel d
Ġhour s
Ġfail s
Ġsou l
Ġcam era
Ġlar ge
Ġadvent ure
B e
E very
S o
b ly
w ise
er ous
is hing
Ġm in
Ġw ind
Ġin v
el ves
ent y
Ġst up
Ġan t
Ġli k
un ny
em ber
Ġde ath
Ġpro v
ĠI s
Ġcl ichÃĥÆĴÃĤ
Ġbl ack
Ġimp ossible
Ġvi rt
Ġpret entious
Ġext ra
Ġcons ider
Ġcol le
Ġwom an
Ġperson al
Ġparticul arly
Ġfri ends
Ġjour ney
Ġspect ac
Ġrefres hing
O n
S ome
e le
h and
s elves
Ġ X
he l
Ġf ut
Ġf ollow
Ġm ere
ar re
Ġd ream
Ġl iter
Ġg ags
im s
ra g
Ġsu st
Ġso ap
pt h
ĠH ar
ich ael
Ġad apt
less ly
oc ative
Ġsee ing
Ġaud iences
Ġbr ing
Ġgra nd
Ġpleas ure
Ġcr ime
Ġdra g
Ġes c
Ġsequ el
Ġanim ation
Ġterri fic
Ġpsych ological
Ġexact ly
f ort
w here
Ġ utter
Ġt ed
Ġt aste
re as
er m
it al
en e
at ural
Ġm iddle
Ġc or
Ġb al
ou ble
Ġp ull
Ġd am
ed ly
Ġh it
om m
Ġmo od
Ġbe h
em ent
ĠC r
Ġso cial
Ġpro vid
ĠW h
one y
ick s
ĠL ove
Ġtw ist
Ġimp ro
Ġdel ic
sc ious
Ġagain st
Ġeas ily
Ġintellig ence
Ġmed i
Ġune x
Ġmor al
Ġdef in
Ġpolit ical
Ġsubt le
ĠDis ney
Ġach ie
b out
n ter
o es
p le
y ear
Ġa v
Ġs le
at s
Ġf our
Ġb oy
an k
Ġin n
Ġh ome
Ġis s
Ġg ot
ill ing
ell ent
Ġde pth
ĠM y
Ġpro ves
os es
Ġpo or
Ġway s
Ġget ting
Ġext reme
Ġstand ard
ron t
Ġey e
ograp hy
t on
Ġa ut
Ġs pe
Ġf em
Ġf alls
Ġb reat
Ġp oss
Ġd er
Ġd ri
Ġe vent
Ġg ame
ol ute
Ġfor ce
ĠB rit
Ġun t
Ġj oy
pp ed
ud get
od e
Ġwe ird
Ġbl and
Ġtra d
ran k
olog y
Ġclic hes
Ġviol ence
Ġwrit ing
Ġappro ach
Ġstup id
a pe
h aps
u ous
u ge
in ct
it ious
is es
Ġf ig
Ġc ost
Ġc ase
or m
Ġp ure
Ġp arent
Ġth in
st r
Ġg ent
Ġg one
ro om
ak en
Ġun p
ĠM ichael
Ġso ph
Ġpro cess
ĠD a
Ġstory telling
ab ility
Ġwhe ther
Ġrem ind
Ġro ll
ĠCh rist
Ġche ap
Ġgi ven
Ġkeep s
Ġsat ire
Ġappe al
Ġmem orable
Ġwr ong
Ġwr itten
Ġep ic
Ġop en
ĠRob ert
Ġmyster y
Ġoccas ionally
B y
n ect
Ġs chool
re w
Ġc our
or ough
or ical
Ġp ay
ar l
Ġin vent
Ġl at
le y
ut ed
oo se
id es
ur der
Ġj ob
ĠH e
ight s
Ġact ed
Ġact ress
Ġle aves
ac ing
Ġus es
Ġcont em
Ġview er
app y
Ġthought ful
Ġele ments
Ġma j
Ġbrilli ant
Ġted ious
E x
b l
b o
b an
b ers
i od
m ovie
Ġ z
in ary
Ġthe at
Ġf oot
Ġw a
Ġc ur
Ġc old
Ġc ool
Ġc ount
Ġb us
Ġp ossible
ic es
Ġto ld
Ġg orge
Ġu g
ĠS and
Ġint im
Ġex ist
Ġcon fl
ĠA m
ort s
and s
ĠI I
Ġper iod
Ġpo st
Ġpo ign
atch ing
Ġimp ressive
Ġsur f
Ġdes per
Ġte le
Ġscreen w
Ġres on
Ġart ist
ib ility
Ġcle ar
Ġneed s
here nt
ross ing
Ġep is
Ġpres ent
Ġinsp ir
Ġcart oon
F e
H as
f i
m ist
u ra
Ġ ver
Ġa st
he art
Ġs qu
at ory
Ġf ul
Ġf oc
Ġc ele
Ġd est
Ġd ig
Ġd uring
Ġh y
Ġe mer
ent ially
Ġan g
Ġfor g
ĠM an
Ġsc i
ĠA d
Th at
Ġr out
Ġfun n
Ġoff er
ens ive
ru gg
Ġother wise
Ġres ult
Ġ1 0
Ġrec omm
Ġvis ion
sc ar
Ġsk ill
Ġsurpris ing
Ġfin ally
Ġsex ual
Ġdep ress
Ġrun ning
Ġquest ion
Ġtrag edy
Ġcreep y
b el
c ceed
e e
g ue
h ood
i ro
i ves
k in
r ant
Ġ 4
Ġt yp
in ative
Ġs ide
en er
Ġb reak
Ġp urp
Ġth orough
Ġh op
Ġn ature
Ġe arnest
Ġmo d
as hing
Ġsu cceed
Ġha ving
Ġsh oot
Ġsh arp
Ġun com
ĠM c
act ion
os p
ĠG od
Ġqu ality
Ġlo st
Ġam ount
Ġfa ith
Ġthem selves
Ġres pect
umb ers
Ġemot ionally
Ġinc l
Ġatt ention
Ġhor ri
Ġimag ination
Ġabs urd
Ġcra ft
Ġey es
ortun ately
Ġentire ly
eng th
wh at
het ic
Ġfr ustr
Ġcomed ies
Ġmaj or
M ore
a x
a ces
a ving
c he
t able
Ġ 3
Ġ ess
Ġt est
Ġt ired
re m
at hy
Ġc op
Ġc ond
Ġb arely
Ġp ath
Ġd ays
il ty
Ġl and
Ġn one
Ġst e
Ġre leas
ver al
am b
Ġch all
Ġch ange
Ġse veral
Ġha un
ĠB ig
op h
ap h
ĠT ime
ear ing
Ġwe ak
Ġent h
Ġam ong
Ġfa v
Ġrem ake
Ġeng rossing
Ġcare er
Ġfin al
Ġbu ild
Ġanim ated
Ġwonder ful
sem ble
Ġfant asy
Ġfair ly
Ġsing le
Ġcontri ved
ĠSte ven
Ġsust ain
ĠDa vid
Ġlat est
Ġconfl ict
Ġcele br
H e
c ul
c ret
h op
l in
p s
p iece
z z
Ġ er
Ġt aking
Ġs pl
Ġs our
is ed
Ġc rit
on t
al t
Ġth row
Ġn atural
vi de
Ġre du
ro l
ad es
um ph
ur y
qu is
Ġdo ing
ĠM art
Ġwor se
Ġpl enty
ack s
Ġk n
Ġus ual
Ġsl ap
Ġbl ood
ĠO scar
Ġaw ful
Ġpoint s
Ġknow s
Ġexc ellent
ok ing
Ġappe aling
Ġcol or
Ġremark able
Ġfut ure
Ġmedi oc
olute ly
Ġgent le
Ġug ly
g ra
i or
l i
v il
v able
Ġ ing
in o
Ġs ong
re al
en ed
en ess
Ġf ore
Ġl ist
Ġh om
Ġg oof
Ġint ent
if y
Ġcon nect
ast ic
ĠM on
Ġsc ary
us ion
Ġpl ain
Ġpre c
ĠW ar
ĠG irl
Ġsome one
Ġsome what
Ġad ults
pect ed
Ġvi vid
Ġins ide
Ġother s
Ġvis ually
Ġemot ions
Ġsurp rise
Ġwort hy
Ġdec ent
Not hing
Ġdeli ver
Ġev ents
Ġperfect ly
Ġuns ett
Ġamb itious
Ġsentiment al
Ġmean ing
Ġmag ic
hand ed
Ġmere ly
Ġthorough ly
T o
m on
o x
Ġt ar
re nt
Ġf re
Ġf ast
Ġf ram
Ġm ad
Ġc oll
or ld
Ġp un
Ġp ace
ar ch
an ks
Ġd oub
el come
Ġst rugg
Ġre vel
ra ph
ri es
ri ed
Ġcom plic
ill ed
ort ing
Ġchar ism
Ġv ar
ĠP h
ap an
od er
ac y
au ght
oy ing
Ġem p
Ġimp act
ren ce
Ġtri umph
Ġpicture s
ĠAmeric a
az z
Ġlot s
Ġeffect ive
be at
Ġdist ur
Ġ2 00
Ġmem ory
Ġsequ ences
Ġtou ch
ĠY ork
Ġph ot
Ġcomm un
Ġbra in
Ġbegin s
Ġexec ution
Ġimport ant
Ġprov ocative
Ġadapt ation
Ġfem ale
Ġparent s
Ġgorge ous
Ġrecomm end
7 0
a ff
v ice
w o
Ġa ble
re ci
Ġf ree
Ġm er
Ġc row
Ġc amp
Ġp ack
ar c
ar ily
Ġd en
Ġl ab
Ġg ross
Ġu se
ver age
id ent
ist er
Ġde al
Ġde ft
Ġne cess
us es
Ġv o
Ġim m
ĠP l
ĠF at
ious ly
are d
Ġsp ark
Ġwork ing
Ġover all
de cess
Ġem pt
ĠK iss
Ġdes ign
Ġro ad
Ġcont in
sc reen
gg est
Ġcreat ive
Ġacc om
Ġhist orical
Ġdra w
illi ams
iel berg
vis ion
Ġsupp osed
ashion ed
Ġexam ination
Ġopp ortun
Ġutter ly
Ġbeh ind
Ġav oid
heart ed
Ġcrow d
R e
a wn
b ody
c ou
e an
l ight
l ife
n a
o le
o ver
r um
s ide
Ġ 5
Ġt ension
en cy
Ġf all
Ġf elt
Ġw itty
Ġc ross
Ġc uri
Ġb iz
Ġp ub
Ġh ip
Ġh uge
Ġn ight
Ġmo ther
ra y
ow ers
Ġsu ggest
ir c
am ent
ĠS ol
Ġen semble
ĠB en
Ġdo g
Ġun int
Ġun like
ĠI n
ĠD an
ter n
Ġpre vious
Ġpre decess
ĠW il
ĠW ild
og raph
ĠG u
for m
ĠJ apan
Ġus ed
Ġimp ress
Ġdes c
Ġthrough out
urn s
iv ity
Ġche mist
Ġapp reci
Ġgra ce
Ġwant s
Ġpr ot
Ġsurpris es
att le
Ġcult ural
Ġsince re
Ġdet erm
Ġcapt ures
Ġac ross
Ġpot ential
Ġdelight ful
Ġ9 0
Ġflaw s
Ġobs erv
Ġstyl ish
Ġword s
Ġuni que
Ġquick ly
Ġmet aph
Ġcolle ge
Ġfriends hip
Ġiss ues
Ġbreat h
Ġunt il
Ġchall eng
Ġtar get
Ġaccom pl
Ġchemist ry
M an
a ven
b ed
d own
i ven
k ward
m osp
s w
s es
s pect
u pp
u gg
is hes
en n
Ġf ight
Ġm ist
Ġw elcome
Ġc ute
Ġp os
Ġd ate
Ġmo ve
Ġre ward
ul ative
Ġan n
ke y
Ġsu ck
Ġmovie go
ak ed
ĠB ond
Ġun us
Ġcon vent
Ġcon cer
ast y
Ġat mosp
ĠD am
Ġr hy
ie f
ie ces
ĠP et
Ġcl os
Ġle g
Ġtr y
Ġup on
iz es
av or
Ġgr ound
Ġplay ing
Ġexc iting
Ġcreat es
Ġgu ys
Ġrep et
iet y
Ġsuper fic
Ġmelodram atic
Ġtalent ed
opp y
Ġwin ning
Ġsy mp
Ġdi ver
ĠQ u
Ġsitu ation
Ġdeser ves
Ġid i
por ary
Ġdefin itely
Ġsoph istic
Ġful ly
Ġunsett ling
D e
\ *
a ul
c ol
d y
e orge
f ashioned
h ow
k i
n ce
u ct
Ġt im
in y
he nt
Ġs aw
Ġw aste
Ġb ar
on ic
ar is
il m
il os
Ġin de
st al
Ġn ame
el d
el lect
Ġg if
Ġg ang
as hy
Ġst ren
Ġst ruct
Ġre d
Ġcom fort
ers on
Ġli ving
um ber
out h
Ġha ck
ĠB ro
ĠB oy
Ġab ility
ĠM ar
Ġj oke
ĠH ow
Ġpro p
Ġper haps
ĠW e
ĠW ed
Ġcl um
ĠG rant
ĠT hing
Ġman ner
ac her
Ġlo c
ĠN iro
Ġam az
Ġri d
ang u
Ġro ck
Ġbr ings
Ġcast ing
Ġaw kward
Ġgi ving
Ġap art
Ġgr ou
Ġbeaut y
Ġpr im
Ġ2 0
Ġcre ate
Ġabs or
Ġstart s
Ġlead s
Ġrare ly
Ġmon ster
Ġcou ple
Ġconst ruct
Ġslight ly
Ġrelationship s
Ġur ban
Ġconvin cing
Ġprovid es
Ġcost um
Ġrout ine
Ġrhy th
M ost
P l
P ro
f ying
i um
r al
r ound
y c
Ġ ly
in oc
he ad
er ry
Ġf it
Ġw ild
Ġc ru
Ġb right
or row
on str
Ġp acing
an ced
an cy
il t
ic le
Ġto ward
Ġl im
Ġl oud
om b
ve y
et h
Ġre qu
ess ion
ill s
Ġal one
ag g
ous y
Ġint ellect
ak ers
Ġex h
qu ently
Ġun c
ĠA nd
ĠH ome
Ġthan ks
and ering
Ġfe ar
Ġpre p
op s
Ġv ict
ĠF rid
end ing
ĠG ood
ĠG reen
ass ion
Ġtw ists
ru g
Ġbad ly
Ġag o
Ġwatch able
Ġbr ut
Ġthrill s
Ġter ms
arm ing
Ġhigh ly
Ġsk in
Ġimag ine
con scious
ĠSp y
Ġproble ms
Ġunf unny
Ġserious ly
Ġtrag ic
Ġformula ic
Ġbas ed
Ġflaw ed
Ġinvol ved
ĠAll en
Ġgri pping
Ġreve als
pro v
Un f
Ġsubst ance
Ġesc ap
Ġunex pected
Ġcontem porary
Ġmedioc re
Ġdoub t
Ġ200 2
6 0
A ny
H ow
M ay
S p
W atching
b udget
h ost
i pp
i que
l ic
m y
m aking
r ical
Ġ era
Ġt ick
Ġa im
Ġa ge
he m
Ġs ick
Ġs ac
Ġf ol
Ġf ive
ing er
Ġm es
Ġm il
Ġm ildly
Ġm oney
Ġw ond
Ġw ish
Ġc al
Ġc and
Ġc yn
or ation
ar a
al y
Ġd re
Ġd ry
ic he
Ġto t
Ġh am
Ġn u
le g
Ġst ere
Ġst ars
ro ll
Ġfil led
Ġon es
Ġcom mer
if ied
art h
art s
Ġun in
ĠM ovie
ĠA t
ĠA nt
act ed
us i
ust er
ĠD ay
ĠW illiams
itt ed
ab l
ĠR ock
Ġman ip
iz ation
ating ly
cc ent
ĠE l
Ġra p
Ġri ve
Ġthem es
Ġreal istic
old s
Ġlove ly
Ġhow ever
Ġrec ord
gg ed
Ġlack ing
Ġfind s
Ġplay ed
Ġthink ing
Ġappe ars
Ġgener ic
Ġimag inative
icul ous
Ġele g
Ġhand s
Ġflick s
Ġhapp ens
Ġmed itation
Ġph ilos
ĠU n
Ġsens itive
Ġsound tra
Ġattempt s
Ġmiss ing
Ġprom ise
sem b
Ġsuccess ful
Ġmaster piece
Ġcall ed
Ġinvol ving
ulg ent
Ġconsider able
Ġcour se
Ġinvent ive
Ġbus iness
Ġintim ate
Ġepis ode
Ġincl ud
Ġbiz arre
hent ic
prov oking
Ġsoundtra ck
I s
a ust
e in
e ff
f ield
g th
i ved
m ers
m ark
m ade
n ers
Ġ est
Ġt aken
in a
it able
it ions
en i
at ur
Ġf are
Ġf ran
Ġf right
Ġm id
Ġm atch
Ġm urder
Ġw ise
Ġw ater
Ġc ris
or ity
ar ant
Ġd rug
Ġl oss
Ġl az
Ġh ot
Ġn ons
Ġe ccent
Ġg ay
Ġg un
Ġre nt
ch ar
ch ise
se qu
id s
id ed
ag ger
Ġint ro
Ġint ense
Ġen cou
ĠB r
Ġsh are
ĠM e
ĠA bout
Ġne ar
ate ur
ĠD og
ĠF ull
Ġout rage
ĠT r
ĠT om
iz z
ark er
Ġbl end
Ġyour self
Ġme ans
ris on
Ġinterest ed
Ġche ck
Ġinc red
Ġrel ent
Ġwant ed
Ġset s
Ġset t
arr ing
Ġpleas ant
att ers
Ġrep res
ĠSe cret
ĠSp ielberg
Ġrun s
Ġportra y
Ġterri ble
Ġdem onstr
Ġput s
Ġune ven
Ġtrans c
ĠU nd
Ġmar vel
Ġspirit ual
urp hy
Ġpolit ics
Ġprof ound
Ġsentiment ality
Ġequ ally
wh ile
Ġine x
Ġstun ning
Ġaffect ion
Ġsitu ations
Ġforget table
Ġpoet ry
Ġlarge ly
Ġextra ord
Ġinn oc
Ġder iv
ĠBrit ish
ĠSand ler
Ġpoign ant
Ġtele vision
Fe els
Ġpurp ose
Ġgoof y
Ġsuperfic ial
Ġinde ed
Ġstren gth
Ġstere ot
Ġfran chise
A fter
W ell
c orn
l o
m iss
u x
v ant
x ic
Ġt ur
Ġt ough
in al
re aking
Ġf ire
es y
Ġc irc
Ġb i
Ġb old
Ġb attle
Ġp ul
Ġp ieces
ar ity
Ġd om
il ing
Ġto day
Ġl og
Ġl oses
Ġh ate
Ġh its
Ġh yp
st ick
st ead
Ġe th
ch y
The y
Ġfor ced
oo re
Ġal ive
ag on
ĠS w
Ġch o
ak s
Ġhe ll
Ġcon v
ĠM urphy
ate ver
ĠI nd
ind ed
ven ge
os ity
Ġim pl
ĠR o
ĠG eorge
Ġsp orts
ĠN e
ip s
Ġam ateur
Ġdis c
Ġdis p
Ġmay be
Ġsur vi
Ġsur round
ber gh
get ic
Ġrem ember
Ġres p
ĠCh an
other s
Ġcinem at
Ġapp arent
Ġview ing
Ġset ting
Ġexc it
Ġexc ess
arr ass
Ġcreat ed
Ġgu ess
Ġacc ess
Ġultim ate
Ġdist inct
Ġprodu ct
Ġabs olutely
Ġpain ful
Ġexp ress
co ver
Ġclic he
Ġquest ions
Ġcent ral
Ġstrange ly
wr itten
Ġbro ad
ĠJack son
Ġlik ed
Ġvirt ually
Ġdepress ing
Ġtyp ical
Ġmod est
Ġcraft ed
Ġhaun ting
Ġenth usi
Ġcolor ful
Ġfram e
oder bergh
Ġdistur bing
Ġunint ent
Ġsophistic ated
Ġrid iculous
Ġmes mer
Ġderiv ative
D o
S c
e al
f elt
k es
Ġt ender
in ing
Ġs ch
Ġs av
Ġs aid
at or
ing u
Ġm ach
Ġb en
Ġb ur
or ious
al ian
Ġd ang
Ġl ame
Ġl ets
Ġl ength
Ġh arm
le x
ut s
Ġst ay
Ġst age
Ġre ach
Ġbe ha
ul s
Ġfil l
Ġan sw
ess ional
Ġwh ite
ir th
ag ue
ĠS m
ĠC ount
Ġj u
Ġso c
ood y
ĠH er
ĠH ol
and er
Ġall ow
Ġfe at
Th ose
ĠW orld
ich ol
Ġcomp et
ond z
Ġsl ice
Ġund eni
Ġtal king
ang ing
hy s
Ġro ot
Ġpart s
Ġart istic
Ġob ject
ĠO r
Ġhard ly
Ġcle arly
In stead
Ġhuman ity
Ġgl imp
Ġoriginal ity
Ġgu ilty
ĠSt ory
Ġind ie
ail s
Ġsk et
Ġworth while
Ġfin ish
vol ution
dd en
Ġaff air
Ġpain fully
Ġed ge
Ġir rit
Ġener getic
Ġpop corn
Ġobvious ly
Ġinsp ired
Ġinsight ful
Ġcou rage
Ġadm ira
Ġsim pl
Ġgri ef
Ġaffect ing
Ġsuff ers
Ġemb arrass
ival ent
ires ome
Ġmin or
Ġrefreshing ly
reas ure
ĠCr ush
Ġsle ep
Ġextreme ly
Ġaut hentic
Ġfoot age
Ġsurf ace
Ġsucceed s
Ġvo ice
Ġopportun ity
Ġconvent ional
Ġatmosp here
Ġabsor bing
Ġexh ilar
Ġcommer cial
Ġrive ting
Ġeccent ric
Ġstereot yp
Ġexcit ement
A d
M uch
S omet
W he
a us
b s
e gr
h our
i vid
k ins
n es
n al
s chool
t ain
y le
Ġ ign
Ġ You
Ġt iresome
Ġa verage
Ġs we
Ġf iction
Ġf ashion
Ġc ore
on na
Ġp it
Ġp en
Ġp unch
an cing
al an
ly ing
Ġd im
Ġin fl
Ġl ines
Ġl angu
ut er
as p
et ic
im al
Ġst ep
Ġbe at
Ġfilm ed
ri an
Ġwith in
ant s
ĠB ull
Ġsh ad
Ġun re
Ġun con
ĠM en
ĠC ar
Ġpl aces
ud lin
ĠI ran
ĠD rag
ĠW est
og n
ĠR y
ĠR en
ĠT ra
ick ing
Ġle arn
Ġsp y
Ġsp ook
Ġtr ick
ac hed
Ġfl ash
Ġsome how
Ġad oles
Ġar ri
Ġwe ight
ĠE ng
ĠK e
Ġra w
Ġsur real
vers al
Ġser vice
Ġpart y
Ġheart felt
Ġter ror
up s
Ġpers pect
Ġmus ical
Ġgu y
Ġdec ades
Ġpr ice
Ġcons id
Ġcons ist
Ġgener al
ins ky
Ġbelie vable
Ġeffort s
Ġpres ents
Ġac cept
Ġequ ivalent
Ġparticul ar
Ġtreat ment
Ġwarm th
Ġtell s
Ġve h
Ġremark ably
Ġmot ion
Ġhold s
Ġspectac le
Ġbal ance
ĠWh at
Ġdelic ate
Ġachie ve
Ġpoor ly
Ġfoc us
Ġfav or
Ġslap stick
Ġcharism a
Ġpub lic
ĠJapan ese
Ġprot agon
Ġunus ual
B oth
D oes
L e
O ver
O ff
S te
U ltim
a res
b and
c ies
e en
f le
f un
i ans
k en
l ook
l ish
r ous
v y
Ġt our
Ġt elling
in c
in n
Ġs itting
re y
re nd
Ġo pt
Ġf ur
Ġm ult
Ġw ast
Ġw ry
Ġw alk
Ġw ildly
Ġb an
Ġb og
on ishing
Ġp ed
Ġp onder
ar ies
ar io
Ġd r
Ġl ay
Ġl oose
le by
Ġg em
ent ity
ot ten
as hed
im sy
Ġst ir
Ġst ret
Ġy arn
Ġas pect
ad y
Ġal tern
ĠS oderbergh
Ġint ended
est ival
ĠB all
Ġsh ame
Ġsh allow
Ġun for
Ġcon ce
ast s
ĠM or
ĠM ad
ĠM oore
Ġsc ore
Ġsc ream
Ġne g
ust ing
ĠH our
Ġpro g
Ġpl od
ĠI r
Ġall ows
ard s
Ġv ill
ĠP ian
ĠF re
ĠF rank
ĠR uss
ĠG l
ĠL a
Ġsp ot
Ġsp oof
ĠJ ames
Ġsome where
Ġcomp assion
Ġcomp uter
Ġus ually
ĠN ichol
Ġoff ering
Ġem ph
ative ly
Ġthem e
Ġdirector ial
Ġdes p
ink s
Ġag es
Ġcont ra
Ġlong er
leas ant
Ġgreat est
umb s
Ġtri p
Ġpoint less
Ġneed ed
Ġpleas e
Ġgener ally
Ġsubject s
Ġsequ ence
Ġsex y
Ġsit com
Ġstud io
Ġed iting
ĠBl ack
Ġir re
off man
Ġsound s
Ġsy m
Ġcred its
Ġprom ising
Ġval ue
ĠTh at
Ġgenuine ly
Ġsign ific
gr ound
Ġcomb ination
Ġdevelop ment
Ġspectac ular
Ġposs ibly
Ġevent ually
Ġfig ure
Ġscreenw rit
Ġang st
Ġfunn ier
Ġcommun ity
Ġdeft ly
Ġempt y
Ġdesc ri
iven ess
ĠPet er
Ġrepet itive
Ġgrou p
Unf ortunately
Ġamateur ish
Ġmesmer izing
Ġbeha vi
ĠDrag on
Ġveh icle
B l
E n
G ood
M y
W riter
b ute
c ult
g ing
g ood
i j
l a
m inded
n ces
u it
u ro
w in
w ar
w riter
w hel
y pe
Ġ &
Ġs ol
Ġs ave
er able
it ude
Ġf u
Ġf ac
Ġm at
Ġm ill
Ġc at
Ġb all
Ġb ored
Ġb ott
Ġp u
Ġp ract
Ġp aced
Ġp hys
Ġth ird
il er
ed s
Ġto ss
Ġin ner
Ġh oles
om en
om an
om ach
st ein
Ġn umber
Ġe arly
ent ed
as k
as m
as es
Ġst omach
Ġre nd
ver se
Ġas p
ol ic
ir ty
Ġli ber
Ġal ien
ag al
ur s
if ting
ĠB rown
Ġsh ap
Ġsh ots
Ġcon cl
ort h
act ic
ig g
Ġpro ve
Ġpro vide
all ing
ĠP ol
ĠP inoc
og er
ĠF ire
Ġsp ell
Ġsp ace
ac ious
ac hes
Ġjust ice
Ġar ch
Ġcomp any
Ġwill ing
Ġover ly
Ġperfor mers
ĠN ot
Ġsl ick
ĠK ing
Ġra d
Ġri p
Ġend earing
Ġme as
Ġtal k
Ġdes ire
Ġte am
Ġro om
Ġres ults
Ġheart b
Ġrec ogn
ree k
Ġgi ant
Ġfar ce
av is
sp ired
Ġturn ed
Ġpleas ures
Ġthink s
Ġind ust
Ġexpl oration
Ġshe er
gu ise
ier ce
Ġmem bers
Ġdeep er
amp le
Ġmind less
Ġ19 9
Ġhapp en
Ġvisual s
rop ri
Ġcapt iv
Ġcomm on
Ġexpect ed
Ġine pt
Ġdev oid
Ġmag n
Ġval ues
udd y
Ġstun ts
Ġread ing
ĠQ ue
ey ed
Ġquiet ly
Ġstri king
wr ought
Ġant i
Ġscreenw riter
Ġreleas e
ĠMart in
Ġprec ious
Ġfre quently
Ġcomplic ated
Ġconstruct ed
Ġlaz y
Ġoutrage ous
Ġextraord inary
Ġcinemat ography
Ġaccess ible
Ġirrit ating
Ġsimpl istic
ĠBull ock
ĠKe vin
Ġperspect ive
Ultim ately
Ġemph as
Ġbehavi or
A X
A bout
C on
H igh
M AX
S m
S he
b rid
c ra
f man
g or
g an
l or
l ong
m o
m as
n ight
s hip
w ork
w arming
Ġ 7
Ġ ic
Ġ ram
Ġt ack
Ġt ear
Ġa uth
Ġs al
Ġs ed
Ġs ight
Ġs ides
re k
re st
re et
it ional
is p
at isf
Ġf at
Ġf ather
Ġf ront
es c
Ġb od
Ġb ore
Ġb its
or ic
Ġp us
Ġp ap
Ġp ick
an ity
Ġd yn
Ġd azz
Ġin h
Ġl ate
Ġh ide
Ġh olid
Ġh ouse
st ream
Ġn er
et her
Ġre venge
ver n
ul ation
ch ant
ol a
ow time
Ġcom ment
ir ming
Ġmovie making
am a
Ġal though
Ġch ance
Ġch ase
ck s
Ġex ample
ive red
ĠB ur
ĠB ru
Ġsh am
Ġsh ake
Ġcon scious
ĠM s
ĠA s
ust in
Ġso on
Ġso ft
Ġpro ceed
ĠI MAX
ĠD ead
Ġpre ach
itt ers
ĠP al
og ether
ab or
ĠR oger
Ġcl im
au fman
Ġad ult
Ġover come
Ġover whel
ĠN o
ĠN ick
ress ed
te xt
Ġvi br
Ġins ult
Ġdel ivered
Ġte xt
Ġser ves
ĠCh ines
Ġtra vel
Ġrec yc
Ġshow c
Ġinc reas
ature d
Ġtri fle
Ġtri bute
Ġenjoy ed
Ġatt ract
Ġgr im
Ġplay ful
ney ed
Ġref lect
Ġgener ation
Ġprodu ced
Ġimag ery
Ġ19 5
irit ed
hen s
Ġhapp y
ĠBl ade
Ġcra zy
Ġfail ure
Ġpres ence
Ġnow here
Ġlevel s
ann el
ĠIt alian
Ġintri gue
Ġcred it
cl ass
Ġemb ra
ĠAr n
af e
Ġpoet ic
Ġexplo it
ene ath
Ġpull s
Ġdam n
Ġachie ves
Ġunp leasant
ĠHe aven
Ġfrustr ating
Ġess entially
Ġspl end
Ġintent ions
ĠMon ty
Ġstrugg le
Ġnecess ary
Ġpredecess or
Ġchalleng ing
Ġpos itive
Ġann oying
Ġconcer ned
Ġdiver ting
Ġstruct ure
Ġhack neyed
ĠWed ding
Ġfol ks
Ġmanip ulative
Ġnons ense
Ġincred ibly
Ġben ef
Ġglimp se
Ġexhilar ating
Ġfur ther
Ġbott om
Ġdyn am
ĠChines e
A meric
I m
M r
N ever
P er
S e
e ur
g ar
g ain
i ation
m n
n atured
o ly
p ar
p et
s et
u ke
v al
v ard
z en
Ġ \/
Ġt ort
Ġt ight
Ġt ype
Ġs il
Ġs ill
Ġs appy
re hens
er k
Ġm ild
Ġm ale
Ġm ention
Ġw all
Ġw ide
Ġw ife
Ġc ame
Ġc ause
Ġb le
Ġb unch
Ġb udget
or ous
Ġp ri
Ġp rison
an ing
Ġd ys
Ġd aring
il es
il ities
Ġh ar
st ers
le te
Ġg ames
im ag
Ġst ale
ce ived
ch an
ad d
oo p
Ġsu n
ir ing
ĠS il
ĠS weet
um ing
em b
Ġen de
Ġex quis
Ġse at
Ġse ason
qu ent
Ġha ir
Ġun h
ain e
Ġcon sp
ast ing
Ġde b
Ġde g
Ġde cept
ĠM i
Ġsc ience
ĠA f
ĠA ng
ĠC on
Ġj unk
ĠH offman
and ing
ud es
ind ulgent
ĠD ick
os ition
Ġr ough
pl o
ong s
Ġstory line
Ġv ol
ĠP oke
ĠP arker
end ent
ĠR ed
ĠG reek
Ġsp in
Ġqu al
Ġno stal
ĠJ ason
Ġfl air
th r
th an
oy ant
Ġlo ved
akes pe
Ġent er
Ġoff ensive
Ġme chan
Ġtw ice
Ġreal ism
Ġtal ents
ru ction
Ġdirector s
Ġca ution
Ġrem ain
Ġro les
ors ese
ign i
Ġ1 1
ĠCh ris
Ġrom p
aw rence
Ġvis cer
ĠO ne
Ġemot ion
Ġinc o
Ġter rit
aut iful
ars h
Ġexc use
Ġgl oss
Ġstr ict
Ġcreat ing
ĠSt ar
Ġind ivid
Ġappe ar
Ġrep ort
Ġcol lect
Ġdeli very
Ġpain t
Ġed uc
eless ly
Ġinter m
Ġtrans p
Ġwonder fully
Ġsure ly
stand ing
Ġprof essional
ĠLe e
Ġmain stream
Ġodd ly
Ġdev ast
Ġcontri v
Ġcomed ic
Ġmark s
Ġmark et
Ġuni versal
pro du
Ġgirl s
Ġmot iv
Ġmix ed
Ġreg ard
Ġdeser ve
ov ich
Ġgrow s
Every thing
Ġstandard s
Ġdesper ate
Ġinspir ing
Ġast onishing
Ġdig ital
Ġemer ges
Ġfunn iest
Ġland sc
Ġsour ce
Ġsong s
Ġdesign ed
ĠSol ondz
Ġdeterm ined
Ġmetaph or
Ġbreath t
Ġaccompl ished
Ġmoviego ers
Ġclum sy
Ġcru el
Ġintellect ual
Ġdre ary
Ġintro du
ĠUnd er
Ġsoc iety
Ġadmira ble
Whe ther
ĠRy an
ĠRen o
Ġadoles cent
ĠEng lish
Ġprotagon ist
Off ers
Ġindust ry
Ġpap er
Ġholid ay
itters weet
Ġvibr ant
Ġnostal g
F l
H ere
Y es
a ith
b ack
b ook
c r
d ram
f er
g est
g irl
k n
r at
r ated
Ġt en
Ġt un
Ġs om
re ct
is ion
Ġf le
Ġf able
Ġf ish
ing ing
es que
Ġm ent
Ġm akers
Ġm atters
Ġw at
Ġw ears
Ġc ell
Ġb ri
Ġb ag
Ġb and
Ġb ittersweet
or ks
or ient
Ġp al
Ġp ile
Ġd read
Ġd ouble
ic ism
Ġh ook
st ar
le ction
el i
Ġg rown
Ġst arring
Ġre pe
Ġre semb
ver t
Ġas ide
Ġcom pl
ir m
am il
am alan
Ġli es
her n
ĠS on
Ġch a
Ġch uck
um an
um ble
Ġint ens
Ġint egr
ak er
Ġex ha
Ġse arch
Ġnot ion
Ġnot ice
ĠB y
Ġun w
Ġun fl
Ġsc ar
ĠC ra
ĠC ity
Ġso ber
ĠH ill
ud ic
Ġor d
Ġk ne
Ġv ulg
ĠP aul
ĠR un
ĠG ra
Ġsp end
ac ity
Ġdirect ing
Ġlo ving
Ġwork ed
ĠThe re
Ġover wrought
ens ions
Ġsl oppy
ĠK ore
ost erous
ans ki
Ġthem atic
Ġmay hem
ru pt
Ġser ved
Ġsm o
Ġplot ting
Ġ1 5
red ict
Ġscen ario
Ġbig ger
Ġshow ing
Ġrel atively
gg y
Ġless on
Ġgra ph
Ġminut e
Ġfind ing
Ġback ground
Ġgr itty
Ġacc ount
Ġexpl os
att ered
Ġexper iences
Ġdra wn
Ġbu y
Ġperson ality
Ġstand s
amp ire
ĠSe agal
Ġdep iction
Ġsuper ior
iment al
Ġ19 8
co very
Ġcra ck
Ġmor ality
Ġadd ition
Ġret read
Ġconf using
Ġbecom ing
Ġcar ries
Ġreason ably
Ġamb ig
Ġadm ire
Ġass ured
Ġcomplex ity
Ġviol ent
Ġma udlin
Ġlive ly
Ġbegin ning
Ġtechn ical
ĠBar ry
med i
Ġdisappoint ing
Ġnice ly
Ġcap er
Ġgrow ing
Ġinv est
Ġdream s
Ġdri ve
Ġtrad ition
room field
ĠChrist ian
ĠChrist mas
Ġwa it
Ġcur rent
Ġcount ry
ura ble
Ġforg otten
Ġcond ition
oph ical
Ġing en
Ġfore ign
Ġemp athy
Ġmist ake
\* \*
Ġgang ster
Ġamaz ing
ĠFrid ay
Ġphilos ophical
Ġinclud ing
Ġrepres ents
Somet imes
ĠIran ian
Ġaspect s
Ġconcl usion
ĠQue en
Ġincreas ingly
ĠArn old
ĠPoke mon
akespe are
Ġcaution ary
Ġterrit ory
Ġindivid ual
N e
S uff
T V
T r
W ill
X X
b b
i ents
i xt
l ength
m en
m id
n an
n am
o res
p rom
r un
r ate
t op
t ains
t alk
u ity
u cc
u cing
v ag
v ate
Ġ This
Ġ vers
in ated
at hetic
Ġf al
Ġf ly
Ġf ool
Ġm al
Ġm isf
Ġw ood
Ġw ack
Ġw ann
Ġc ate
Ġc ity
Ġb ree
Ġb uff
Ġb aff
Ġp ity
an et
Ġth ous
Ġth reat
Ġd ish
Ġd ance
Ġl ing
Ġh ig
Ġh us
st ated
Ġn a
Ġn umb
Ġg ut
Ġg ro
Ġmo ves
ve re
im m
Ġst ick
Ġst ock
Ġst uck
Ġre de
ra id
ch io
ri end
ri age
ad ed
ess ions
Ġwh atever
Ġyou th
Ġli ved
ag er
ag ers
ĠS ade
ĠS outh
Ġch illing
em y
ght er
ur t
ak y
Ġen s
ist ent
ĠB art
ĠM ike
Ġj eal
Ġso le
pp er
ĠH ay
ĠH ell
ĠH aw
ĠH ouse
and on
Ġact s
op kins
ĠW ater
pl ays
Ġk iller
Ġv s
ĠP owers
Ġcl oying
ĠG old
Ġle aving
ĠL il
ĠL ittle
Ġtr ouble
Ġman age
ac qu
Ġtoo k
ĠJ ul
ĠJ ew
ĠJ ones
Ġwe ek
Ġus ing
ry ing
we ight
ens ional
ĠK aufman
An other
Ġdis aster
Ġra ce
te en
ang le
hy amalan
urn ing
Ġheart s
Ġbr ought
Ġob sc
Ġthrill ing
Ġbig gest
Ġhumor ous
Ġlau ghter
row ing
Ġche esy
Ġmy th
Ġmy self
Ġold er
Ġapp ropri
Ġknow ing
Ġmess ages
Ġstr ing
Ġcreat ivity
olog ically
Ġdist ingu
Ġref ere
Ġcr ass
Ġcr ude
Ġbit ter
Ġel o
ĠV in
Ġsequ els
Ġperson a
Ġele ment
ĠY a
ĠBl ue
Ġfamil ies
Ġir res
Ġcapt ure
ĠSc orsese
aps es
oint ed
ific ial
Ġpot entially
Ġsuspense ful
Ġfant astic
Ġpat ience
Ġfair y
ograp hed
udd led
Ġreve aling
ĠAn ne
Ġdetail s
Ġdetail ed
Ġid entity
Ġcap able
Be autiful
Ġwind s
Ġlik able
Ġcolle ction
On ce
ĠX XX
Ġfollow ing
Ġliter ary
ĠHar vard
Ġesc ape
ront al
Ġspe aking
bo ard
bers hop
Ġreson ant
Ġreson ance
bel ie
ashing ton
Ġfaith ful
ĠMart ha
Ġhom age
ĠPh il
ĠKiss inger
ĠBen igni
Ġunlike ly
Ġimpress ion
Ġappreci ate
Ġsymp athy
erson al
Ġrhyth ms
Ġprep osterous
Ġbrut al
Ġcyn ical
aly ze
Ġest abl
Ġlog ic
Ġcho ices
Ġconv iction
Ġresp ons
Ġharm less
Ġfeat uring
Ġinfl u
Ġspook y
Ġconsist ently
fun ct
look ing
Ġwast ed
Ġstir ring
ĠMad onna
Ġvill ain
Ġdesp air
ĠPol anski
ĠPinoc chio
Ġcaptiv ating
Ġdazz ling
Ġpreach y
Ġviscer al
aith ful
amil iar
Ġintens ity
udic rous
C omp
D is
F rom
F ull
I nt
L ess
O ft
Q u
T wo
Y et
b it
b or
b oy
b ling
c le
c ut
d im
d ie
d ep
f est
f alls
f raid
g ent
g ressive
h ot
i pe
l s
l ock
n ic
n umbers
n ox
p leas
u v
u able
w ell
Ġ $
Ġt empt
Ġt ears
Ġt rem
Ġt asty
he w
Ġs ag
er ving
is her
en ingly
Ġf er
Ġf ate
Ġf ood
Ġf ab
Ġm ount
Ġm ira
Ġw al
Ġw ent
Ġc as
Ġc ard
Ġc ry
Ġb ite
Ġb eneath
or ig
Ġp an
Ġp air
ly n
il s
ed o
ic ip
Ġin herent
Ġl ousy
st yle
Ġn asty
Ġe t
Ġe vid
Ġe arn
Ġg ar
Ġg host
as ed
as her
Ġst at
Ġst ays
ra pped
Ġu pl
The se
Ġon to
Ġy es
Ġas ks
ri fic
ad s
oo by
Ġwh om
id ly
ag l
ag o
un t
ĠS n
ĠS um
ĠS ant
em an
em ark
out hern
Ġse es
Ġhe al
ant ial
if ying
ĠB er
Ġun b
Ġun imag
ell ow
Ġde aling
Ġat h
ort on
ĠC ol
Ġj ump
and ers
ud ge
ĠI mp
Ġr u
Ġr is
Ġr ises
ĠW oo
ĠW ashington
pl oy
Ġim medi
ĠF or
ĠF rontal
ab e
ĠR ing
Ġcl arity
od es
ĠG er
ĠG ang
ĠT e
ĠT wo
ĠT rek
ĠL ike
ĠL ife
ĠL awrence
Ġsp ent
Ġtr ash
Ġfl uff
Ġinto xic
Ġdirect s
Ġad e
ne ider
Ġoff beat
Ġhum our
Ġtime ly
ĠE uro
Ġsl asher
Ġam used
less ness
omet hing
oc aust
Ġra unch
Ġme andering
Ġreal ized
Ġreal ize
Ġlif eless
ang es
vers ive
Ġsm ile
Ġsm ug
Ġ1 2
ĠCh arl
Ġcont ent
Ġcont rol
Ġheart warming
Ġart ists
Ġart ificial
Ġche er
Ġrel ig
Ġdown right
Ġke y
Ġgra d
Ġcharm s
Ġide al
xt reme
Ġsat ir
Ġacc ur
com edy
Ġfin ale
Ġbu ilt
con om
con ceived
ĠSe a
Ġdep art
ĠY u
With out
Ġhapp ened
Ġdem ands
ĠBl air
Ġunf ortunately
Ġev ocative
reak s
Ġwit ness
Ġsens ual
Ġexpect ations
Ġpop ular
ĠBe ing
Ġop ening
Ġinsight s
Ġteen age
Ġslow ly
Ġwin ner
Ġcou nter
Ġbo x
Ġmain ly
Ġhonest y
Ġequ al
vis ed
Ġpat hetic
Ġcent er
Ġcent ury
Ġbook s
Ġine v
Ġsupp orting
Ġbas ic
ĠBar bershop
Ġunderstand ing
Ġextra vag
Ġliter ally
Ġtwist ed
Ġboy s
Ġiss ue
Ġremind s
Ġactress es
Ġtheat ers
Ġwa iting
Ġpoign ancy
Ġhy brid
ĠMan h
Ġuncom fort
Ġhorri ble
Ġpath os
Ġreleas ed
Ġing red
Ġpack ed
Ġnight m
ĠWil de
ograph ic
ĠGu y
Ġobserv ations
upp ert
Ġclos er
ĠHow ard
Ġcostum es
Ġrhyth m
Pl ays
Ġly rical
Ġrequ ired
Ġcand y
Ġtot al
Ġunin spired
Ġhands ome
ĠInd ian
irth day
Ġembarrass ment
Ġstereotyp es
Ġban al
Ġsym b
Ġpu zz
Ġcomment ary
Ġsill iness
Ġdeg ree
ĠAf ric
ĠDick ens
Ġinterm itt
Ġnostalg ia
Ġrepe ated
Ġwack y
Ġrede em
dim ensional
ĠSant a
B r
M e
N one
O r
R arely
S l
V is
W here
Y a
a j
b ad
f ty
f eld
f aithful
g n
h an
h ang
h ouse
i able
j ointed
k a
l ig
m ill
n ot
p rise
r ang
s ai
u gh
u art
z og
Ġt or
Ġt ong
Ġt end
Ġt reasure
Ġa fraid
in ist
in ally
in ching
Ġs em
er o
er ved
it z
it es
Ġf rank
Ġf ierce
Ġm ass
Ġm ixt
Ġw ear
Ġc rap
Ġb ou
Ġb ed
Ġb oo
Ġb ound
Ġb other
Ġb ath
Ġb ase
Ġb ody
or der
Ġp ic
ar ad
an es
an ch
al d
al le
Ġd a
Ġd ue
Ġd ub
Ġd rown
Ġd ancing
Ġin ane
Ġin off
Ġl os
Ġl uck
Ġl ump
Ġl udicrous
Ġh all
Ġh ost
Ġh ollow
st s
st opp
ut o
ut ions
Ġe arl
Ġe conom
Ġg ore
Ġg ender
im ming
Ġst op
Ġst iff
Ġst reet
Ġre action
ra ilty
ro c
ro ph
Ġon screen
Ġas k
ol ation
se e
oo per
Ġwh ims
Ġwh imsy
Ġsu spect
am ily
ĠS or
ĠS ug
ĠS atur
um e
um m
um in
ous ing
out s
Ġint ric
Ġen vi
Ġen orm
Ġex ceed
Ġhe ld
Ġhe ard
est ic
ĠB el
ĠB ow
ĠB ad
ĠB urns
Ġun ab
Ġun less
ain t
Ġcon ve
Ġcon text
pe red
ĠM ag
ĠM aster
ĠM iller
ĠA ustin
Ġne at
ĠC oll
us ive
pp ings
ĠH ot
ĠH un
ĠH ong
ĠH opkins
Ġpro per
ind talk
ind ucing
ĠD V
ĠD o
ĠD en
ĠD on
Ġpre ss
ack ed
Ġr ic
ĠW ill
ĠW ell
ĠW itch
pl ace
Ġv ague
irect ed
ĠP ro
ĠF r
ĠF estival
Ġout side
ab ama
Ġcl ot
ĠG host
ĠT ay
ĠT ux
ine e
ĠL ast
Ġsp ir
Ġsp are
Ġsp ite
Ġtr ite
Ġup d
ac he
Ġno ir
our ne
Ġfl o
Ġjust ify
th in
per fect
iz ations
Ġpo em
ĠE n
ĠE ast
ĠE very
ĠE ll
ĠE vil
ĠK ong
Ġsub versive
ost er
Ġbl ow
Ġbl ock
Ġdis play
Ġdis bel
oc used
Ġra nd
Wh y
Ġrem ote
Ġte ens
Ġro b
Ġpe cul
Ġres ist
ink ing
Ġ1 00
ĠCh o
Ġart if
Ġtra ppings
Ġunder m
Ġob nox
iv ine
Ġcharacter izations
ĠO ut
Ġaw are
Ġinc on
Ġinc omp
Ġrel ies
Ġter m
led ge
ĠAmeric ans
Ġpret ension
Ġlaugh ing
az ing
Ġgr asp
Ġbel ongs
Ġturn ing
Ġeng age
app ing
Ġind ep
Ġdist ance
Ġdist ract
com es
att an
Ġfin est
Ġmem ories
me aning
Ġmel anch
Ġ19 7
Ġtou ches
Ġsay ing
Ġpol ished
rid a
Ġstart ling
Ġterri fying
ĠSh akespeare
Ġinter p
Ġev il
Ġsmart er
St ill
Ġcomm itted
ĠSc ott
Ġadd s
Ġret urn
Ġinsp ire
Ġclic hed
Ġteen agers
Ġmiss ed
Ġamb ition
ention ed
Ġmain tain
Ġhonest ly
Ġpar able
Ġpar ody
Ġdi version
Ġcut ting
Ġfant as
Ġhelp s
Ġconst antly
itch ie
ah l
go ing
Ġlar ger
Ġstyl ized
ĠAl abama
Ġjour nal
ĠAn alyze
Ġtechn ology
Ġhope ful
Ġsubst it
Ġdisappoint ed
Ġunderstand s
tra ction
arre l
ĠHar ry
Ġbring ing
Ġgrand eur
ĠCr imes
Ġprovid ing
Ġimpro b
Ġsubtle ty
Ġtrad itional
Ġfig ures
Ġsoph om
Ġdesper ately
ĠAd am
ĠGod ard
Ġkn ock
Ġrevel atory
aught er
Ġphot ography
Ġcontin ues
Ġ5 1
Ġcuri osity
Ġsuggest s
Ġpredecess ors
Man ages
Ġreward ing
Ġtim ing
ĠBoy s
Ġloc al
Ġvict ims
May be
Ġtick et
Ġcal cul
Ġtot ally
ĠAt traction
Ġeleg ant
ĠUn faithful
arant ino
Ġdrug s
Ġgun s
Ġencou nter
ĠBr others
ĠTr ouble
Ġrelent less
ĠSecret s
Ġtransc ends
Ġinex plic
Ġinnoc ence
Ġpul p
Ġdistinct ive
Ġunintent ional
Ġansw ers
ĠCount ry
Ġcompet ent
Ġundeni ably
Ġsket ch
Ġlangu age
Ġshad ow
Ġachieve ment
Ġplod ding
Ġsignific ant
cult ure
Ġmat inee
Ġheartb reaking
cra ft
Ġinh ab
Ġconscious ness
Ġproceed ings
Americ an
Ġble ak
emb ered
Ġende avor
Ġinco herent
Ġstrict ly
Ġdevast ating
Ġcontriv ances
dram a
Ġsom ber
orient ed
Ġord inary
Ġvulg ar
redict able
Ġfal se
Ġwann abe
Ġjeal ousy
Oft en
orig inal
Ġgrad ually
ĠManh attan
Ġingred ients
Ġmixt ure
Ġinoff ensive
Ġearl ier
Ġwhims ical
ĠSug ar
ĠSatur day
Ġunab ashed
indtalk ers
ĠTux edo
Ġdisbel ief
C om
C ont
D ow
G I
M akes
S ch
V ery
a ved
b row
b led
c il
c her
d om
e ed
f ree
f illed
g en
g ory
g ency
h am
i ant
i ac
i ently
k ill
l ist
o ch
o ons
o oney
p an
p aced
r atch
s ily
t r
t al
t own
t ogether
u per
u be
v ity
in i
in er
in able
he red
he rence
Ġs an
Ġs ly
Ġs ell
Ġs end
re p
Ġo d
at in
Ġf oll
Ġf reak
Ġf rag
Ġf izz
Ġm as
Ġc able
Ġc atch
Ġc iv
Ġc orn
Ġb ul
Ġb orrow
Ġb omb
Ġb uddy
Ġb order
ou l
Ġp se
Ġp ark
Ġp orn
Ġp itch
ar ian
an o
an z
Ġth ick
Ġd ud
Ġd ie
Ġd rop
ic y
ic col
ic ago
Ġin form
Ġl ad
Ġl imp
Ġh o
Ġh ang
st op
st ract
Ġn om
Ġn ational
Ġn erv
le ts
Ġe arth
Ġg ag
Ġg ory
Ġg imm
as ive
as hes
et ter
et te
im er
Ġst ate
Ġst aged
Ġst ops
Ġre h
Ġre view
Ġre volution
ra w
ri p
ri dden
ow nt
Ġfor ces
se c
se y
id ing
Ġsu it
ir ms
ag ine
un ky
ĠS ar
ĠS pe
ĠS und
ĠS ara
ĠS hyamalan
Ġch ron
Ġch illy
Ġch annel
em me
ur ance
Ġex otic
Ġhe ar
if t
if ty
ĠB est
ĠB ears
Ġab stract
Ġun ne
Ġun ner
Ġcon vol
Ġcon vey
pe cc
ĠM us
Ġsc rew
ĠA ge
ort hy
Ġj ol
Ġso ci
Ġso ggy
ĠH art
ĠH igh
ĠH ave
Ġact ual
ud o
ĠI ce
ĠD ream
ĠD ah
Ġpre cise
Ġpre fer
op ic
all ace
Ġper cept
Ġper verse
Ġr ise
Ġr ush
ĠW ith
ĠW oody
Ġv ampire
Ġim age
ĠP ow
ĠP rop
ĠF isher
ab s
ab rol
ĠR ep
Ġcl aust
ap ur
ĠG os
for d
for ward
man ship
ep ing
ĠJ on
ĠJ im
ĠJ ean
Ġfl u
Ġfl ow
Ġfl ashy
Ġany where
Ġcomp aris
Ġlo ves
Ġlo vers
Ġover long
ll ess
ĠN ight
ĠN ever
Ġoff ice
ish ment
ĠE d
Ġsl ip
ĠK ids
ense ly
Ġdis g
Ġdis miss
Ġend less
Wh o
Ġtal es
Ġgen res
Ġseem ed
Ġseem ingly
get table
Ġrem embered
Ġro ots
ren ching
ater al
Ġres ol
Ġunder stated
ĠO f
ĠO li
Ġscen ery
ib al
ib ilities
ather s
Ġinc ons
gg er
gg io
Ġatt itude
sp irited
Ġknow ledge
Ġbel ly
Ġkeep ing
Ġcare fully
Ġeffect ively
ĠSt uart
Ġind ic
Ġkid die
Ġform at
Ġshe l
Ġgener ate
ane ke
cess ary
iet nam
Ġbit ing
Ġel abor
ĠV ietnam
Ġcult ures
Ġco ver
Ġinst all
Ġinst inct
Ġcre ation
the less
Ġdep ict
Ġsuper b
Ġchild hood
que e
Ġstart ed
Ġterri bly
Ġexp ert
Ġpredict ably
ĠSh owtime
Ġunf olds
Ġunf ocused
Ġfeature s
rop ol
St arts
Ġuns atisf
Ġlead en
Ġsad ness
Ġsens ational
und ament
Ġsatisf y
Ġmiss es
Ġadm it
Ġpot ent
Ġdramatic ally
Ġcred ible
Ġcred ibility
ump kin
Ġmaster ful
Ġhero ine
Ġdiffere nce
Ġconst ant
Ġobs ession
Ġreve al
Ġbrilli antly
Ġstun t
Ġwrit ers
Ġnon et
Ġrest ra
Ġfan c
Ġstri ke
allow een
ĠSch neider
Ġbro ken
Ġshock ing
Ġexplo res
Ġexplo itation
Ġwind ow
Ġvirt ues
On ly
Ġdrag s
Ġcor rect
Ġdam ned
Ġimpro ve
Ġinn ov
Ġposs ess
Ġcour t
Ġcontem pl
Ġtheat rical
Ġexist ence
Ġexist ential
Ġinspir ational
Ġdest ination
Ġhy per
Ġforg ive
Ġ4 0
Ġshoot ing
Ġuncom prom
Ġhorri fying
Ġcelebr ates
Ġredu nd
ĠGirl s
Ġvivid ly
Ġdeliver ing
Ġmad ness
Ġcharism atic
Ġvar ious
Ġnecess arily
Ġdraw s
Ġ5 0
ĠWil son
Ġfight ing
ĠDam age
Ġleg end
Ġgif ted
Ġlim ited
Ġvict im
ĠFrid a
Ġescap ism
Any one
Ġsac char
Ġwond ering
Ġnu anced
Ġfright ening
Ġcris p
Ġrelent lessly
Ġportray al
Ġdom estic
Ġeth nic
Ġimpl aus
Ġapparent ly
Ġunintent ionally
ĠHer zog
ĠHol ocaust
ĠCar vey
Ġped est
ĠBall istic
ĠHour s
ĠIr ish
ĠPian ist
ĠNichol as
Ġcontra dict
Ġrend ered
Ġmagn ific
Ġner ve
ĠPal ma
Ġsplend id
Ġdys funct
ĠAng el
Ġenter prise
Ġlandsc ape
Ġbreatht aking
Ġfle et
Ġbri ef
Ġcha otic
Ġunfl inching
Ġsmo oth
Ġgraph ic
Ġingen ious
Ġbree zy
Ġhus band
ĠVin cent
Beautiful ly
Ġsag a
Ġcas ual
Ġupl ifting
Ġunimag inative
Ġath let
Ġintoxic ating
Ġade qu
ĠEuro pe
Ġnightm are
Vis ually
Ġtong ue
Ġenvi ron
Ġrand om
Ġobnox ious
Ġindep endent
Ġinhab it
Dow ell
Ġpse udo
Ġunne cessary
ĠDah mer
Ġclaust roph
Ġuncomprom ising
Ġsacchar ine
Ġdysfunct ional
1 9
A r
B ar
H is
H ard
H ollywood
P o
S ee
W orth
a vi
a gh
a eff
b id
b ur
b ell
b orn
b alls
c ert
c ock
d o
d rop
e x
e ve
f illing
g oy
g ment
h mer
h ony
i ers
i ated
l ines
l uster
m al
m atic
m alt
n o
n ia
n atural
o e
o ved
u ght
u ber
w rit
y r
Ġt em
Ġt ap
Ġa i
Ġa head
in is
he less
Ġs or
Ġs and
Ġs ne
Ġs ays
Ġs ink
Ġs now
Ġs ix
re g
re ck
is se
is ive
at hing
Ġf ake
Ġf ights
Ġm ur
Ġm art
Ġm ature
Ġm outh
Ġw ick
Ġw ound
Ġw ins
Ġb es
Ġb ab
on el
Ġp ays
Ġp hen
Ġp aid
an ad
Ġd il
Ġd ut
Ġd ying
Ġd roll
il ed
il ted
ic ed
ic hel
Ġto ler
Ġin fect
Ġl un
Ġl ower
Ġh int
Ġh oot
om er
om nia
st em
st ruct
Ġn am
Ġn ation
Ġn umbers
le vant
ent imental
as ons
et ime
im on
im mer
Ġst atic
Ġre el
Ġre ject
ra ble
ra ise
ra ction
ul es
ro vers
Ġfil ling
Ġan ch
se a
id el
id ence
Ġsu dden
Ġsu gar
Ġli e
Ġal leg
ĠS l
ĠS he
ĠS ide
ĠS now
ĠS outhern
Ġch oose
Ġch ills
um es
um ents
um my
em ember
ur ban
Ġex uber
Ġse par
ant er
est er
ĠB ut
ĠB ourne
Ġab use
art er
Ġun belie
ain ed
Ġcon j
Ġcon co
Ġcon sequ
ĠM et
ĠM am
ĠM ac
ĠM att
Ġsc ale
Ġsc attered
Ġsc ores
ĠC he
ĠC ond
ĠC aine
ĠC GI
Ġj o
ig ma
us ions
ust ed
pt ion
ĠH ann
ĠH alloween
ff le
Ġthan k
ind s
ĠD ong
ĠD avis
Ġpre v
Ġper pet
Ġr ound
pl aced
Ġor der
Ġk ick
Ġv ent
Ġv ast
Ġv ap
Ġv int
Ġv ital
Ġim pecc
ĠP ot
ĠP ay
og y
ĠF ears
ĠF reaks
ab eth
Ġcl in
Ġcl unk
od d
od ri
ĠG ener
ĠT reasure
ĠL i
ĠL ong
ĠL ane
for med
Ġsp ring
Ġsp ont
Ġtr ashy
Ġman aged
ep hen
Ġno ble
ĠJ an
ĠJ ess
ĠJ acqu
Ġsome body
Ġany way
oy al
Ġad v
Ġar g
Ġar rest
Ġcomp rom
ne ver
Ġent ry
ĠThe y
iz abeth
int entioned
ĠE nd
ĠE dd
Ġem ploy
ĠK id
Ġam use
Ġsub pl
ost or
Ġdis s
Ġdis guise
Ġdis jointed
oc ity
Ġfa ces
Ġlook ed
Ġme at
Ġme ant
Ġme ets
Ġdram at
ress es
ress ion
Ġnever theless
Ġca res
Ġentertain ed
Ġser ial
Ġplot ted
ĠCh ar
ĠCh abrol
Ġag gressive
Ġcont rovers
Ġher self
Ġart s
Ġfam ous
aw are
Ġthrill ers
ath an
ob ic
Ġnew s
Ġlau g
Ġcle an
av ish
Ġlack luster
Ġback drop
But e
arn ed
Ġgl or
Ġstr ang
Ġgu arant
Ġext ended
Ġref uses
Ġcol ors
ane ously
Ġprodu ce
Ġexper iment
Ġbu oyant
Ġyoung er
Ġco herent
Ġdeli ber
con t
ĠSe x
atter ing
ĠSp ider
Ġmind s
Ġhand ful
Ġdid actic
Ġwr ote
Ġdark ly
vin cing
Ġir on
Ġir ony
Ġtrans l
Ġstra in
Ġuns entimental
idd en
Ġengag ed
Al most
Ġbra nd
Ġret ro
urp ris
Ġmon ot
Ġmon sters
Ġwar ning
ĠCl ooney
ĠLe on
Ġquir ks
plic ity
ams ay
Ġsubt ly
Ġdelight fully
Ġcut s
Ġsou lless
Ġodd s
Ġill ustr
itch cock
Ġsim ilar
Ġsim plicity
Ġmyster ies
Ġstyl istic
Ġfri end
Ġread y
ĠAn imal
Ġmen ace
Ġsuff ering
Ġsn aps
let is
Ġrich ly
Ġsubst antial
Ġ8 0
Ġtop ic
ien ced
Ġlet ting
Ġexec uted
Ġdead pan
Ġmin imal
hel sea
ĠWh ite
Ġdelic ious
Ġmedi um
Ġspe aks
Ġjoy ous
bl own
Ġbus y
ĠAm y
Ġdesper ation
Ġpresent ed
Ġinspir ation
Ġver ve
Ġemer ge
Ġhop ing
Ġamount s
Ġcop y
Ġenth r
Ġbuild ing
Ġcrit ics
Ġthrow s
vide o
Ġlist less
Ġcomplic ations
aff irming
Ġden ying
ister hood
ĠFat al
Ġavoid s
ĠSol aris
ĠWild er
Ġdeterm ination
Ġchalleng es
Ġconcer n
ĠDam ned
Ġgif t
Ġclum sily
Ġloc ations
Ġcostum e
Ġbrut ally
ĠEl izabeth
Ġphilos op
Ġcris is
Ġrent al
sequ ential
ĠBr other
Ġsett les
ĠRo hmer
ĠNe xt
Ġdisp os
Ġsurround ing
Ġguess ing
Ġenthusi asm
Ġmach ine
Ġdang er
Ġdang erous
Ġundeni able
Ġarri ves
Ġconsid ering
Over all
Ġopt im
Ġprog ram
ĠRuss ian
ĠGl ass
Ġscreenwrit ing
Ġscreenwrit ers
Ġphys ical
Ġasp ir
Ġmeas ure
Ġic on
ĠNick leby
Ġexploit ative
Ġbenef it
Im agine
Per haps
rehens ible
Ġhar rowing
Ġgloss y
Ġresemb les
Ġintegr ity
Ġsober ing
Ġkne w
Suff ers
Ġcate gory
Ġbaff ling
ĠHay nes
Ġrefere nces
Ġirres ist
ĠPhil ip
Ġtrem end
agl om
Ġunb ear
ĠGer man
ĠTe acher
Ġsatir ical
Ġinev itable
ĠAfric an
Ġsem i
Ġintric ate
Ġric her
Ġpecul iar
Ġsan ct
Ġfoll ows
Ġgimm ick
ownt own
Ġunner ving
Ġcomparis on
Ġelabor ate
Ġnonet heless
Ġfanc iful
ĠEurope an
Ġenviron ment
aeff er
goy an
Ġphen omen
Ġnam ed
ĠCond uct
Ġvint age
Ġimpecc able
Ġspont ane
B ad
B ig
B oy
C ould
C ons
F ar
F ans
F unny
G r
G od
L ook
N ow
N air
O cc
W ould
a it
a im
a ver
a ud
b um
b acks
c a
c ad
c ers
c ount
d og
e ks
f an
f ire
f act
f aced
f ilm
g id
h um
i k
i ver
i ance
j oke
k ind
l oud
m ar
m et
m pt
m ore
m ember
n otic
o at
p ower
r ity
r ors
s omnia
t oo
u y
u le
u el
u ation
u ces
u rid
w one
w orld
y l
z zy
z ene
Ġ 6
Ġ ven
Ġ ice
Ġt re
Ġt ast
Ġt ies
Ġt aut
Ġt read
Ġt ask
Ġa we
Ġa ims
in ous
in itely
Ġs on
Ġs ke
Ġo de
er ie
er ball
er rida
it ality
is o
at ile
Ġf o
Ġf ict
Ġf aster
ing ers
Ġm ile
Ġw is
Ġw et
Ġw rapped
Ġc ro
Ġc ere
Ġc aught
Ġb re
Ġb ot
Ġb ow
Ġb one
Ġb ang
Ġb ump
on ed
ou g
Ġp a
Ġp age
ar ching
al ter
Ġth rown
Ġd are
Ġd ign
il et
ed ies
ic a
ic ing
Ġin sec
Ġl ater
Ġl aw
Ġl onel
Ġh at
Ġh arsh
st ac
Ġn arc
Ġe ager
el ing
el son
Ġg re
Ġg le
Ġg igg
Ġmo ld
Ġmo ved
Ġmo ody
ent er
ent ury
ot o
ot ion
as ionally
im ul
im ony
vi al
Ġst ro
Ġst ag
Ġst ore
Ġst ead
Ġst ilted
Ġre asons
ra h
Ġu lt
Ġan arch
Ġy awn
Ġas semb
ri um
ri ff
Ġfor th
oo chy
Ġwh oles
id i
Ġsu ited
ir ot
am i
ag and
ĠS o
ĠS uch
ĠS afe
ĠS isterhood
Ġch ore
Ġch iller
Ġch oppy
Ġch anges
em ic
ur ous
ak i
Ġen h
Ġex agger
Ġse cret
Ġse vere
Ġhe avi
qu il
ĠB ard
ĠB rid
ĠB roomfield
Ġdo pe
Ġdo ses
Ġsh ines
Ġun ful
Ġun original
ell a
ell as
Ġcon ven
Ġcon vers
Ġcon cert
ĠM el
ĠM iche
ĠM ichel
Ġsc r
Ġsc ope
ĠA ss
ĠA gain
ĠA cad
ort ance
ĠC a
ĠC at
ĠC om
ĠC all
ĠC ry
ĠC ann
ĠC letis
ĠC helsea
act er
us hing
Ġchar mer
ĠH all
ĠH uppert
ĠH ugh
ĠH itchcock
ĠI d
ĠD ies
ĠD errida
os en
ard ed
Ġr ote
Ġr ousing
ĠW ars
ĠW omen
ĠW indtalkers
ect ive
ie w
Ġor gan
Ġk ill
Ġv itality
Ġim itation
ĠP a
ĠP er
ĠF e
ĠF rom
ĠF our
ĠF red
ĠF ilm
ĠF railty
Ġout standing
ĠR es
ĠR itchie
od ic
ĠT un
ĠT out
ĠT uck
ĠT arantino
ĠT odd
ick en
ĠL and
ĠL uc
Ġtr icks
ac ino
ep id
ĠJ e
ĠJ ane
Ġfl es
oy ce
Ġad vant
ass in
Ġwe ep
ĠN a
ĠN umbers
ult aneously
ound ing
Ġbet ray
ip es
ĠE m
ĠE v
ĠE y
ĠE st
ĠE arnest
Ġsl ack
Ġsl og
ĠK os
ĠK enn
Ġam id
Ġbl ast
Ġbl ank
Ġdis cer
Ġdis cover
Ġra cial
Ġri pe
Ġend lessly
atic ally
ru ci
te ch
old iers
Ġins ane
Ġte acher
ris k
Ġsee king
Ġser ve
Ġpe ek
Ġres olutely
ĠCh ina
erest ing
Ġcont ains
Ġpart ly
Ġpart icip
Ġyear ning
Ġlong ing
Ġart icul
inem a
oth man
Ġvis it
imp s
ob bled
igh bor
ĠO n
umb o
umb les
Ġhumor less
Ġche w
Ġche ese
iss ion
Ġtri ed
Ġless er
Ġdocument aries
Ġapp ly
Ġapp et
Ġgra b
Ġlaugh able
arm en
Ġgr at
Ġplay ers
Ġmess y
Ġgl ass
Ġpleas ing
Ġcare ful
Ġdec ided
Ġacc ent
Ġind ulgent
Ġexpl ore
com p
Ġsk ip
Ġcr im
Ġrep ut
Ġ2 1
Ġeas ier
Ġdra b
ĠV an
Ġinst antly
Ġsuper bly
Ġsuper natural
illi am
Ġpol ice
Ġele v
Ġhalf way
Ġportra ys
Ġhapp ening
Ġdem anding
Ġdem ographic
Ġlight weight
Ġclever ness
Ġir onic
Ġinter n
ĠDe ath
ĠJo e
Ġtrans form
Ġsweet ness
Ġsmart ly
Ġlead ing
Ġsw allow
ĠSc ooby
ĠSc ratch
arent ly
Ġmar ginal
Ġmar riage
Ġconf ront
Ġpsych ology
Ġhead s
Ġtrag edies
Ġcar ry
Ġfact or
ĠLe gged
Ġsy stem
Ġmain tains
Ġpar ade
Ġsubt it
het to
Ġmaster fully
Ġtreat s
Ġmis c
Ġmis erable
Ġpat ient
ett es
Ġproblem atic
Ġbas ically
omp any
Ġmyster ious
ĠDis guise
Ġday time
Ġsign s
Ġtechn ique
Ġfan cy
Ġreg ret
Ġur gency
Ġexcept ional
Ġexcept ionally
Un like
Ġstraight forward
ĠZ one
ĠZ hang
ĠSch war
ĠSch mid
Ġcart oons
ĠAr gent
oub ted
ĠJack ie
Ġdead ly
Ġmoment um
Ġsoul s
ĠIs ra
ĠIs land
rag ing
ĠHar ris
Ġcor ny
Ġcor ner
Ġbeh old
Ġdelic ately
Ġfour th
Ġdepth s
ĠBrit ney
Ġweird ly
Ġtrad emark
Ġunp redictable
Ġremind er
Ġintim acy
Ġtele g
Ġpresent ation
Ġver b
Ġfoc used
Ġdest ined
ĠAd ams
Ġhop ed
Ġrespect able
Ġ3 00
Ġess ence
Ġtest ament
Ġcond esc
Ġste am
Ġhaun ted
Ġcelebr ation
Ġer otic
Ġcrit ical
Ġkn own
gra de
vil le
Ġlist en
Ġphot ographed
Ġmer it
Ġvo ices
ĠPl anet
Ġempt iness
Ġcuri ous
ĠGu ys
Ġobserv ation
Ġreward s
Ġmoviego ing
Ġsymp athetic
Ġtim eless
Ġred empt
Ġcomfort able
ĠBro s
Ġprop agand
Pro of
Ġunc ertain
Ġcyn icism
ĠAnt hony
Ġdemonstr ates
Ġtransc end
Ġmarvel ous
Ġbi opic
ĠSw im
Ġconv ict
Ġsch malt
Ġsav vy
uls ive
ĠSm oochy
Ġunre l
Ġuncon vincing
ĠWest er
Ġmult ip
Ġponder ous
Ġscream ing
ĠPian o
ĠNichol son
Ġdescri be
ij insky
Ġpract ically
Ġliber al
Ġshap eless
Ġrecogn ize
Ġauth or
Ġsed uct
Ġpus hes
ĠBru ce
ĠAs ian
Ġshowc ase
Ġshowc ases
Ġattract ive
Ġpositive ly
Ġtort ured
ĠSil ence
Ġexquis ite
plo itation
kn own
Ġdread ful
ĠCra zy
ĠKore an
Ġwood en
Ġbuff s
Ġdish on
ĠBart leby
Ġsole mn
Ġappropri ate
Ġraunch y
ĠCharl ie
Ġrelig ious
Ġintermitt ently
stopp ers
ĠDV D
Ġspir its
ĠEast wood
Ġartif ice
Ġincon sequential
Ġmelanch oly
Ġinterp ret
Ġimprob able
Ġsophom oric
craft ed
Ġunabashed ly
ĠSpe ars
Ġconvol uted
ĠRep ort
Ġshel f
Ġinstall ment
ropol is
Ġimplaus ible
Ġpedest rian
Ġmagnific ent
Ġclaustroph obic
Ġmart ial
ĠMet ropolis
ffle ck
Ġvap id
ĠPot ter
ĠEnd ing
ĠEdd ie
Ġenthr alling
Ġdispos able
Occ asionally
zene gger
Ġdign ity
Ġult ra
ĠAcad emy
ĠCann es
ĠDies el
ĠSchwar zenegger
ĠSchmid t
Ġpropagand a
A ud
B o
B ra
C la
D avis
D eli
E ach
E arnest
F irst
F ilm
G o
H ar
H ey
I mp
L et
M c
M ade
M urder
P art
P ret
R ob
S ad
T ime
T sai
V iew
W orks
Y our
a a
b es
b ro
b ound
c id
c ity
c ue
c ating
c ingly
d on
d an
d est
d ry
d irected
f ly
f ig
f ice
f ace
f unny
f riend
g el
h or
i y
i qu
i us
i os
i ens
i ving
j ud
j erk
k h
k et
k able
l ow
l ers
l ingly
m m
m akers
p ic
p ut
p ion
p art
p ort
p ole
p acked
r ating
r atic
r unk
s ized
t ick
t ale
t rip
u ing
u ed
u ated
v an
v ary
w an
w orks
w renching
z es
z ed
z el
Ġ ze
Ġ \*\*
Ġt art
Ġt able
Ġt ends
Ġt ug
Ġt iny
Ġt epid
Ġa est
Ġa fl
in ce
in ority
in feld
he st
he imer
Ġs ard
Ġs inks
Ġs afe
Ġs quee
Ġo h
Ġo ught
er al
er ious
it a
it ial
it ect
it ched
en cies
en stein
at ors
at ives
Ġf et
Ġf est
Ġf ren
Ġf its
Ġf uri
Ġf ield
Ġf estival
Ġf ellow
Ġf oul
ing ered
es is
es ome
Ġm und
Ġm uddled
Ġw ishing
Ġc ock
Ġb on
Ġb ull
Ġb anter
or king
on ous
Ġp ur
Ġp ale
Ġp ush
ar ge
an gh
ly mpt
Ġd ed
Ġd iv
Ġd oll
il ot
Ġto ol
Ġto ilet
Ġin ject
Ġl ull
Ġl ends
Ġl atter
Ġl ush
Ġl oyal
Ġl avish
Ġl urid
Ġh ing
Ġh ok
Ġh itting
om y
st ing
le ar
ut es
Ġe at
Ġe ight
Ġe go
el ow
el ocity
Ġg e
Ġg reen
Ġg ently
as er
as ing
et y
et ty
im en
vi gor
Ġst icks
Ġst imul
Ġre v
Ġre ce
Ġre placed
Ġbe w
Ġbe gu
ul arly
ul ner
ro op
Ġan ime
Ġan gu
Ġan ger
ri de
ri fice
ol f
ol ie
ay les
ad pole
Ġfor mer
oo s
Ġwh olly
Ġwh ale
ir ts
Ġal le
Ġal bum
un ion
ĠS y
ĠS al
ĠS am
ĠS us
Ġch amp
Ġch osen
um or
um mer
Ġen light
ist ed
ist ers
ist oc
Ġse a
Ġhe at
est yle
if er
if orm
Ġha st
Ġha ph
ĠB ob
ĠB ride
Ġab und
Ġsh ape
Ġun able
Ġun iform
ell er
ell ed
Ġcon cent
ast ro
Ġde als
ĠM at
ĠM ary
ĠM ile
ĠM ark
ĠM ost
ĠM ach
ĠM iddle
ĠM othman
ĠA h
ĠA fter
ĠA way
Ġne ighbor
ĠC al
ĠC ran
ĠC amp
ĠC arl
ĠC inema
ĠC ompany
ĠC astro
ate au
ig o
us al
ĠH is
ĠH awn
ĠH aneke
Ġpro spect
Ġpl an
Ġpl ight
ven ile
ĠD i
ĠD es
ĠD ie
Ġfe et
Ġfe ars
os yn
os ca
Ġpre d
Th anks
Ġr anks
ĠW W
ĠW ow
ĠW alk
ĠW allace
pl es
pl ess
Ġv oy
Ġim plic
ĠP e
ĠP ri
ĠP unch
ĠP arad
ĠP lympt
og dan
ĠF ran
ĠF ord
Ġout ing
res ents
ĠR om
ĠR am
ĠR ice
ĠR ead
Ġcl unky
ap ing
ap pe
ap able
od ing
od ge
ĠG ot
ĠG rey
ĠT o
ĠT ob
ĠT amb
ĠT osca
Ġle an
ĠL ive
ĠL if
ĠL ope
ĠL ips
for ms
Ġsp r
Ġsp ots
Ġsp aces
Ġtr ust
ĠJ u
ĠJ erry
ĠJ aglom
ich ard
Ġfl our
Ġfl imsy
Ġany body
Ġad vice
Ġar c
Ġar istoc
Ġcomp ens
Ġcomp osed
Ġwe b
Ġover t
Ġover st
Ġover blown
ĠN ap
ĠN ights
ĠN ijinsky
Ġoff end
ens ical
Ġfeel ings
ĠE ve
ĠE ric
ĠE cks
ĠE goyan
ness es
ĠK a
ĠK ah
ĠK line
ĠK ung
ĠK apur
Ġsub l
Ġsub culture
Ġbl ind
Ġdis gu
Ġdis covery
oc ation
Ġra ises
Ġend ure
Ġme et
vel er
Wh atever
Ġevery day
Ġund oubted
Ġdram as
Ġgen ial
ang led
Ġseem ing
Ġrem inis
Ġte eth
vers ity
Ġro w
ren al
gin s
Ġ1 3
ĠCh ou
ĠCh icago
Ġag ing
Ġaud acious
Ġart fully
Ġtra v
Ġtra ck
Ġtra iler
Ġbr others
ock ing
ock stoppers
Ġunder c
Ġunder lying
vent ure
Ġshould ers
Ġrec on
Ġrec reat
Ġob lig
Ġcharacter ization
Ġgreat er
istic ally
aw ay
ath olic
Ġnew com
ib rium
Ġmy st
Ġhard er
Ġinc isive
ature s
Ġdown er
Ġdown beat
Ġtri angle
Ġkind a
ower ment
sp oon
Ġpret ends
Ġpret ensions
iff le
iff ere
Ġgra de
oll erball
az ard
Ġpoint ed
Ġwant ing
Ġgr ind
Ġgr ating
Ġexc ruci
Ġbel ow
Ġgl ory
Ġgl ib
Ġgl orious
xt on
ok ed
Ġpleas urable
Ġcreat ure
Ġgu ilt
ĠSt ock
Ġdec ide
Ġdec ade
Ġacc ents
Ġind ulg
Ġpr oud
Ġdist aste
Ġsk ate
Ġref uge
ew is
Ġspec if
Ġspec ific
Ġrep lete
Ġcons um
Ġcons erv
ither spoon
Ġprodu cers
vol ves
Ġbu ried
Ġour selves
Ġco vers
Ġco hes
Ġcre w
rap y
amp oon
ĠSe ver
ĠSe infeld
Ġdep end
Ġdep ends
Ġ19 70
Ġ19 60
Ġele ct
Ġstud ent
rid an
Ġdark er
Ġdem ented
Ġexp ense
Ġexp osition
Ġeffort lessly
Ġed ited
Ġed ges
ĠBl ood
Ġclever ly
Ġmed ia
Ġune asy
Ġfail ed
Ġinter view
ĠDe eds
ĠJo an
Ġdef e
Ġwit less
oon light
Ġsad ly
Ġcapt uring
Ġsens es
Ġsens ibility
Ġexpect ation
Ġret urns
ows ki
ĠBe ast
Ġconf used
Ġconf ident
oke y
ruct ive
ird s
opp ing
opp ed
opp ola
ific ation
Ġbo om
ĠCl ub
ĠCl ockstoppers
Ġadm ission
br al
Ġdelight s
Ġsolid ly
Ġfine ly
Ġpast iche
Ġhero es
ograp her
Ġsing ing
Ġsupp ort
Ġill umin
Ġbas is
Ġfr antic
Ġval uable
ĠRe ign
ĠRe volution
velop ed
udd le
ĠRob in
Ġbrilli ance
uri es
Ġve in
Ġhilar ity
Ġpassion ate
Ġclose ly
Ġinf uri
Ġproject s
Ġtechn o
Ġsn appy
Ġur ge
Ġoccas ional
ma x
ĠSch aeffer
Ġdisappoint ment
Ġcap acity
Ġcomb at
Ġcomb ined
Ġshock s
Ġopp ressive
ung ry
Ġconvin ced
Ġdevelop s
Ġdevelop ed
Ġsoul ful
Ġliter ate
Ġsust ains
Ġdrag ons
Ġspe ak
Ġforce ful
Ġstupid ity
rew d
Ġpay off
Ġtheat re
Ġepis odes
Ġhy pe
Ġang ry
Ġ10 1
gue z
Ġtyp es
Ġbreak s
Ġearnest ness
Ġabsurd ist
Ġabsurd ity
Ġ3 0
Ġbuild s
ĠSteven son
Ġnatural istic
Ġblood y
Ġmedioc rity
li kable
Ġconnect ions
Ġmeaning ful
Ġmeaning less
Ġmad d
Ġstrugg ling
Ġrevel ation
Ġvar iety
Ġemp owerment
Ġlab ored
Ġcuri ously
ograph ical
Ġobserv ant
ugg ish
Ġunus ually
Ġidi osyn
Ġstruct ured
Ġprim arily
inoc he
ĠAnd erson
Ġaim ed
Ġsac rific
Ġfol k
Ġnu ance
ĠAnt wone
eff ect
Ġdemonstr ate
Ġinnoc ent
Ġpul se
Ġcho ice
Ġdisc uss
Ġansw er
Ġju venile
Ġobject ive
Ġsket chy
ĠTra veler
Ġservice able
Ġconsid ered
Ġaccept able
Ġfavor ite
inn ear
Ġbog us
Ġdr ink
Ġstret ched
Ġunfor ced
Ġunfor gettable
Ġneg lect
Ġfu zzy
Ġarch itect
Ġmeas ured
Ġemphas izes
Con f
Ġauth ority
Ġfat al
ĠBru ck
Ġinsult ing
Ġrecyc led
Ġdynam ic
Ġexquis itely
Ġconsp ira
Ġdecept ively
Ġvol atile
Ġqual ities
thr iller
Ġmechan ical
Ġeduc ational
produ ced
cr atic
Ġwat ched
Ġchuck les
Ġexha usting
Ġambig uity
Ne ither
Ġthous ands
Ġhig her
ĠJew ish
Ġelo quent
Ġrespons ible
Ġmira cle
Ġevid ence
Ġstat us
ĠCol umb
udge on
Ġaccur ate
Ġextravag anz
Ġuncomfort ably
not ch
Ġenorm ous
Ġexceed ingly
ĠHun ter
ĠFr ance
ĠTay lor
Ġblock b
Ġremote ly
Ġfantas ies
Ġbul lets
iccol i
Ġnom ination
ĠSar andon
ĠHart ley
Ġprecise ly
ĠGos ling
Ġexpert ly
Ġunsatisf ying
Ġredund ant
Ġsor ry
Ġwick edly
Ġinfect ious
idel ity
Ġalleg ory
ĠMam et
ĠMatt hew
ĠHann ibal
Ġclunk er
odri guez
Ġaggressive ly
Ġlaug hed
Ġmonot onous
Ġphilosop hy
Ġaspir ations
Ġirresist ible
Ġtremend ous
Gr ath
mar ine
Ġtast eless
Ġcere bral
Ġlonel iness
stac les
Ġheavi ly
Ġconven ient
Ġadvant age
ĠEv ans
ĠEst her
Ġteleg rap
Ġredempt ion
Ġafl oat
Ġmund ane
angh ai
Ġded ic
Ġhok um
Ġbegu iling
roop ers
Ġhaph azard
Ġuniform ly
ĠMost ly
ĠMach ine
ĠParad iso
ĠPlympt on
ĠLope z
ĠKah lo
Ġconserv ative
A h
A m
A pp
B roomfield
C ertain
C oll
D runk
E ver
E xtreme
F ails
G reat
G ener
H er
I I
J o
J ack
J ones
K ay
L a
L ight
L acks
M ar
M any
N ic
N ew
O h
O ther
R et
S ol
S uch
S imp
S weet
T ra
T ake
U ne
a ult
a que
a verage
b ul
b ag
b ert
b age
b uck
b reak
b bing
b aked
c ard
c ible
c ute
d is
d es
d ition
d owntown
e er
f s
f ellas
f isted
g al
g ian
g ener
h u
h ill
h ind
i at
i ate
i antly
j a
j am
l ies
l ich
m od
m aker
n umb
n ered
n oon
n ote
r ation
r ates
s is
s ided
t a
t un
t urn
u eless
u fact
w ith
w ater
w itted
w orthy
x ual
y our
y ll
z pet
Ġt on
Ġt um
Ġt iss
Ġt ail
Ġt ones
in ent
in ner
in arily
he avy
he cies
Ġs am
Ġs ake
Ġs its
Ġs ord
Ġs ane
Ġs orrow
Ġs izz
Ġs aved
re l
re ction
re cating
Ġo o
er ior
er chant
it o
it or
it age
it ative
it ivity
Ġthe rapy
is i
en et
en ry
Ġf i
Ġf ond
Ġf ame
Ġf ix
Ġf irm
Ġf undament
Ġm our
Ġm ish
Ġm ired
Ġm uted
Ġw ed
Ġw ake
Ġw ave
Ġw rap
Ġw earing
Ġw reck
Ġc ad
Ġc ode
Ġc obbled
Ġb are
Ġb io
Ġb risk
or id
or ably
ou ge
ou fl
Ġp ill
Ġp ant
Ġp atch
Ġp owers
Ġp upp
ar at
ar se
ar ious
ar ound
an ny
al ia
Ġd ust
Ġd ares
Ġd irty
il arly
ed om
ed ge
ed ek
ic it
ic ient
ic iently
Ġto oth
Ġin ert
Ġl it
Ġl ust
Ġl ect
Ġl ark
Ġl ady
Ġl apses
Ġh ur
Ġh ole
Ġh ipp
Ġh idden
Ġh okey
om as
st ep
st age
Ġn et
Ġn um
Ġn ail
le ep
Ġis olation
ut t
ut il
Ġe ar
ct ions
Ġg el
Ġg idd
Ġg rew
Ġg asp
ot ting
as ily
im ed
im um
im one
im ents
Ġst er
Ġst if
Ġst ink
Ġst ream
Ġst alk
Ġre in
Ġre act
Ġbe f
Ġbe ars
ul ate
ul oid
ro at
ro ads
The ir
Ġan om
Ġan ach
Ġan ci
ol ent
ow ing
ow ed
ess ed
ess end
Ġbut t
id edly
am ber
her ish
Ġal together
ag ing
ag gy
ĠS ome
ĠS ie
ĠS ign
ĠS aving
ĠS eld
ĠS omething
ĠS uper
ĠS oldiers
Ġch ord
Ġch ances
Ġch ief
Ġch ops
Ġch anging
Ġch ases
um st
um as
em s
em esis
ous es
ous ness
ur rection
ak able
Ġen ig
Ġen chant
ist erous
Ġse as
Ġse ven
Ġse ats
Ġhe aven
Ġnot e
Ġnot es
est y
if est
qu i
qu er
qu iet
ĠB u
ĠB or
ĠB ra
ĠB ollywood
ĠB reak
ĠB ody
ĠB ett
ĠB rian
ĠB irthday
Ġdo or
Ġdo se
Ġab andon
Ġsh out
Ġsh ine
Ġsh rewd
Ġun m
Ġun rem
Ġun likable
ain ing
ĠM iss
ĠM alk
ĠM aid
ĠM urder
ĠM TV
ĠM inority
Ġsc re
Ġsc ares
ĠA lt
ĠA ute
ĠA bb
ĠA ffleck
ĠA vary
ort ant
ort ions
Ġne o
ĠC o
ĠC le
ĠC are
ĠC age
ĠC ross
ĠC ube
ĠC anad
ĠC entury
ĠC armen
Ġj un
ig ree
us hed
pt uous
Ġchar ged
ĠH an
ĠH ard
ĠH ey
ĠH appy
ĠH anks
Ġwor n
ud up
ĠI m
ĠI max
ĠD el
ĠD ass
ĠD own
ĠD ang
ĠD uke
ĠD ivine
ĠD umas
Ġfe ast
op ath
ack ers
all ed
Ġr at
Ġr ating
Ġr ings
Ġr ude
Ġr ank
ĠW at
ĠW end
ĠW oll
ĠW itherspoon
Ġk icks
Ġk illed
Ġv ic
Ġv ac
Ġv anity
Ġv ulner
ĠP ie
ĠP au
ĠP ark
ĠF l
ĠF er
ĠF ar
ĠF un
ĠF ence
ĠF oc
ĠF ather
ĠF riend
ĠF amily
ĠF arrel
Ġout s
Ġout er
Ġout come
end es
ĠR ose
ĠR oman
ĠR ollerball
Ġcl ue
ap es
ĠG reat
ĠG ib
ĠT ri
ĠT est
ĠT roopers
ĠL o
ĠL im
ĠL iz
ĠL ady
ĠL ampoon
Ġsp an
Ġsp ort
Ġsp ice
Ġsp read
ict ment
Ġtr oub
Ġman ners
Ġman ufact
Ġman ifest
Ġup s
Ġqu e
Ġqu arter
ep ed
ĠJ udd
ĠJ agger
Ġfl amb
Ġfl avor
Ġfl orid
per or
Ġad dict
Ġad renal
Ġar gue
Ġcomp an
ment ed
Ġwe igh
Ġperfor med
ĠN or
ĠN ature
ĠN arc
ĠN elson
Ġpo ol
ark s
int s
atch able
ĠE r
ĠE ver
ĠE ight
ĠE nter
Ġam iable
Ġsub marine
ost ner
Ġbl at
Ġbl ur
Ġbl ue
Ġbl own
Ġbl ame
Ġbl ues
Ġdis int
Ġdis quiet
ans port
Ġfa ult
Ġra c
Ġra in
Ġra ise
Ġri val
Ġme al
Ġgo al
Ġund one
Ġund ert
pect edly
Ġtal ky
Ġlif estyle
Ġimp ul
Ġimp art
Ġgen ius
ild ren
ru ck
te i
Ġins uff
Ġins anity
ber ry
vers ations
ren ched
Ġsm acks
Ġsm iles
ach t
Ġpe ace
Ġres cue
ign ant
Ġ1 8
ĠCh ick
ĠCh ai
ĠCh ateau
Ġag ent
Ġcont est
Ġcont roll
Ġpart ners
Ġart ful
Ġart sy
Ġtra in
Ġtra pped
Ġbr other
inem atic
ism o
vent ures
Ġrec o
ian e
so on
aw k
ob s
ript ion
Ġaw fully
sc ale
ib les
Ġche st
Ġinc ess
Ġinc arn
Ġinc ident
Ġrel ate
Ġrel ax
Ġless ons
aut y
Ġke en
Ġke pt
Ġenjoy s
Ġenjoy ably
Ġatt raction
Ġfar c
Ġapp alling
Ġgra vity
vid es
Ġcharm less
az e
az aki
Ġfew er
Ġbel t
Ġgl um
app iness
ĠSt one
ĠSt ephen
Ġdec idedly
Ġacc omp
Ġind iffere
Ġind ictment
ail ing
Ġpr ime
Ġexpl an
com ings
Ġsin cer
Ġsin ister
Ġref lection
Ġref usal
Ġsurpris ed
Ġcr imes
Ġgener ous
ane k
fl ick
Ġeas e
Ġexper ienced
vol ving
Ġel usive
Ġco ff
Ġpass ing
Ġpass es
oot s
Ġclass ics
ron ic
ron istic
Ġdet ached
Ġ19 3
Ġtou ched
Ġhand le
Ġhand led
Ġtit les
Ġbelie ving
orn berry
Ġabs olute
Ġhapp ily
Ġhapp iness
Ġpain ts
uck y
vin o
vin cible
Ġdem and
Ġdem oc
Ġdem ons
Ġexp os
Ġexp ressive
Ġpredict ability
Ġed gy
Ġfamil ial
Ġunf old
Ġunf amiliar
Ġmor ally
Ġmor ning
Ġev oke
Ġdef ies
Ġdef ines
Ġvide os
Ġstra ins
Ġstra ined
Ġsweet ly
Ġperfect ion
Ġshort comings
Ġcapt ured
Ġsucc umbs
Ġpop ul
ĠBe auty
Ġconf irms
Ġconf idence
Ġspirit ed
Ġstrong ly
Ġpsych ologically
Ġac qu
Ġop aque
Ġmon ument
Ġhead y
und lich
Ġsatisf ies
Ġpolit ically
Ġcar ing
Ġcar ried
Ġprof ile
Ġamb itions
Ġfamiliar ity
Ġbo asts
ĠCl ause
ĠLe igh
Ġass oc
Ġfresh ness
Ġpar ano
Ġcut esy
Ġmis ery
Ġhelp ed
Ġconst ruction
Ġdev ices
Ġsim ultaneously
Ġsim ilarly
Ġmag ical
Ġcam oufl
Ġcomed ian
Ġinvol ve
ĠSte aling
ĠTh omas
ĠTh ornberry
Ġadvent urous
Ġve ers
Ġve ter
Ġnor m
Ġach ingly
Ġinf ant
Ġinf omer
Ġmot ions
sh ine
Ġexcept ion
Ġstri kes
Ġexam ines
Ġsecond s
Ġdisappoint ingly
ov an
Ġmet h
af er
Ġbro oding
por ate
Ġopp os
Ġconvin ce
Ġant id
Ġant ics
Ġpersonal ities
Ġfollow ed
Ġbal anced
Ġpull ing
Ġpull ed
Ġdam aged
ĠWh o
Ġunex pl
Ġunex pectedly
Ġsle eve
ats i
Ġposs ibility
Ġdri vel
Ġjoy less
Ġpure ly
Ġremind ed
Ġroll ing
ĠChrist op
ĠRobert o
Ġpay ing
Ġinvent ion
Ex c
bl ood
Ġz one
Ġgorge ously
Ġreson ate
Ġcartoon ish
Ġsqu are
Ġsqu arely
Ġskill s
Ġdepress ed
ee ks
Ġbreak thr
Ġhop es
ĠMc C
ĠMc Grath
Ġincl ude
Ġcraft s
Ġfrustr ation
che ek
Ġland mark
Ġste als
Ġste eped
Ġweak nesses
Ġconflict ed
Ġcelebr ity
Ġcrit ic
Ġthrow ing
Ġredu ces
gra nd
Ġhom es
ĠMon soon
mon ly
Ġpun ct
Ġrevel ations
Ġvar iation
oder n
Ġdistur b
Ġcommun ic
Ġimm ensely
ĠPl ay
Ġspark ling
Ġopportun ities
Re ign
ole on
rum line
Ġfall ing
Ġhuge ly
ĠBen jam
ĠDan iel
Ġimpress ed
Ġgrace ful
Ġmetaph ors
Ġmove ments
Ġreward ed
Ġatmosp her
Ġleg al
Ġdiver se
ĠQu iet
Ġamaz ingly
Most ly
Ġly ric
Ġcru cial
Ġrequ ire
Ġunc anny
ĠGood fellas
ĠGreen e
Ġescap ist
How ever
Sp ielberg
Ġdre ck
ĠAt tal
ĠAnt on
Ġrecord ing
Ġinclud es
Ġnons ensical
Ġencou raging
ĠMe xic
ĠDog s
ĠTr ansport
Ġincred ible
Ġcirc umst
Ġdom in
Ġhyp oc
Ġhyp notic
Ġimpl ies
ĠNe il
Ġsurvi ve
Ġproduct ions
Ġenthusi astic
Ġbur sts
uls ion
uls ively
Ġfill s
ĠHol m
Ġallow ed
Ġroot ing
ĠStory telling
Ġstereotyp ical
Ġign ore
Ġswe eping
Ġpit falls
Ġpen et
Ġshad ows
Ġuncon vent
Ġarri ve
Ġterror ist
Le igh
Ste ven
inc ip
Ġmult i
Ġwalk ed
Ġped igree
Ġlay ers
Ġstret ches
ady ac
Ġaltern ative
Ġaltern ately
Ġconce it
ĠMor vern
ĠFre eman
Ġdescri bed
ĠDragon fly
Ġmill ion
Ġtoss ed
Ġalien ation
Ġheartb reak
High ly
Sm ith
Sm art
mo ving
Ġram bling
Ġtack les
isp uted
Ġbod ies
Ġsham elessly
Ġclim actic
Ġoverwhel ming
Ġ195 0
Ġembra ces
Ġsil ent
Ġsil ver
ĠCon versations
Ġqual ify
Ġmechan ics
Ġeduc ation
Ġmotiv ations
Ġastonishing ly
ĠUnder cover
girl s
Ġment ally
Ġcell uloid
Ġchuck le
ĠRun ner
ĠGra ce
Ġexplos ions
Ġambig uous
Ġindividual s
Ġvers us
Ġvers ions
Ġmisf ire
Ġthous and
Ġling ering
Ġhig hest
Ġyouth ful
Ġobsc ure
Ġinflu ence
dep recating
pleas er
Ġfab ric
Ġgar bage
Ġheal th
ĠImp ortance
ĠGang s
Ġdepart ure
Ġsymb ol
Ġrepeated ly
Ġredeem ing
aj idi
Ġbou n
Ġbase ball
Ġdub ious
Ġlos ing
Ġconve ying
ĠColl ateral
Ġproper ly
ĠWill is
ĠWell s
ĠPro ject
Ġclot hes
Ġsubstit ute
Ġcalcul ated
Ġinexplic able
Com es
Ġciv il
Ġreh ash
ĠSund ance
Ġchron icle
ĠMus ic
ĠProp hecies
abs or
Ġflu id
ĠOli ver
Ġincons istent
Ġinstinct s
Ġrestra ined
Ġlegend ary
Ġfleet ing
Ġathlet es
Ġadequ ate
Ġmur ky
struct ed
Ġunbelie vable
Ġconsequ ences
Ġthank fully
ĠJess ica
Ġarg uments
ĠKid man
Ġsubpl ots
Ġcontrovers y
Ġiron ically
Ġtransl ation
Ġsnaps hot
Ġminimal ist
Ġspontane ity
Ġfo ibles
Ġfict ional
Ġwis dom
Ġassemb led
Ġwholes ome
Ġexagger ated
quil ibrium
ĠCry stal
ĠPa xton
ĠFe athers
ĠEm peror
ĠEy re
Ġreput ation
Ġintern ational
Ġtransform ation
Ġsubtit les
Ġverb al
Ġunrel ent
Ġseduct ive
Ġze al
Ġsard onic
Ġsquee ze
Ġalle ged
ĠSus an
Ġhast ily
ĠCran e
ĠPri vate
ogdan ovich
ĠTob ack
ĠLif etime
Ġflour ishes
ĠNap oleon
Ġsubl ime
Ġundoubted ly
Ġreminis cent
Ġdistaste ful
Ġrefuge es
Ġspecif ically
Ġidiosyn cratic
effect s
ĠBruck heimer
Ġtelegrap hed
Jo hn
zpet ek
Ġtum ult
Ġsord id
Ġfirm ly
edek erk
Ġnum erous
Ġanach ronistic
essend en
Ġenig matic
ĠBett any
ĠMalk ovich
ĠWoll ter
ĠFoc us
ĠFarrel ly
Ġmanufact ured
Ġaccomp an
Ġsincer ity
Ġparano ia
Ġinfomer cial
Ġbreakthr ough
ĠBenjam ins
ĠTransport er
- -
1 3
4 0
A bs
B en
B rit
B ec
B etter
C l
C all
C omb
D S
D en
D ist
D og
D ark
D ef
E v
E ight
E nter
G u
G reen
H alf
H uman
I A
I B
I ce
K ids
K innear
L an
L ong
L ittle
N iro
N oyce
O b
O p
P arker
P umpkin
R en
R es
R om
R ather
S w
S am
S ens
S ec
T w
T er
T akes
T ry
U nd
W arm
W itty
W illiams
W oody
a un
a ude
b ble
b ind
b ang
b ows
b earing
b ased
c ast
c ong
c ence
c ore
c ross
d ro
d ri
d one
d ings
d ash
e fully
f e
f ere
f are
f iction
f amiliar
g am
g asm
h ou
h ard
h rop
i ber
j ust
k ed
k now
l ad
l ings
l ights
l angu
l asting
l owski
m in
m ous
m udgeon
m odern
n ick
o is
o pt
p able
p ress
p uff
p oint
q atsi
r s
r ill
r ict
r ary
r ics
r ase
r ats
r ara
s m
s ome
s pl
s uff
s erious
t i
t es
t ably
t here
u ve
u end
u cy
u ously
u asive
v ating
v oc
v ability
w ed
w ill
w art
w ear
y ne
z ing
z ill
Ġ 60
Ġt act
Ġt ense
Ġt aw
Ġt ub
Ġt aps
Ġt ax
Ġa ck
Ġa pt
Ġa pl
Ġa fic
Ġa kin
in ion
in ch
in ian
in ning
in spired
he on
Ġs ab
Ġs aves
Ġs aving
Ġs ister
re he
re ets
Ġo l
it ter
it ary
it udes
Ġthe ory
Ġthe sis
is c
is eman
en ge
en ice
en ced
en ha
at able
at falls
Ġf ro
Ġf if
Ġf art
Ġf acing
Ġm ac
Ġm use
Ġm aker
Ġm uddle
nd s
Ġw id
Ġw ist
Ġw ret
Ġw allow
Ġc ri
Ġc ook
Ġc ram
Ġc ip
Ġc ath
Ġc arn
Ġc alls
Ġb ast
Ġb ust
Ġb ond
Ġb ord
Ġb ones
Ġb ank
Ġb arrel
or ad
or ial
Ġp ess
Ġp omp
Ġp andering
Ġp ants
Ġp urs
Ġp iffle
ar g
an c
an ic
an ish
an ella
al os
al ism
al cul
al uable
al gam
Ġth irst
Ġth read
Ġth umbs
Ġd u
Ġd ise
Ġd rum
Ġd ressed
Ġd inner
il o
ic ide
ic ense
Ġto wn
Ġin quis
Ġin esc
Ġin itial
Ġl ur
Ġl aid
Ġl oop
Ġl icense
Ġh und
Ġh urt
st ars
Ġn in
Ġn ames
Ġn aught
Ġn aked
Ġn iche
Ġn atur
Ġn ails
le v
ut ty
Ġe c
Ġe g
Ġe ars
Ġe erie
el le
el ine
el be
Ġg am
Ġg ru
Ġg ave
Ġg uts
Ġmo b
ent h
ent in
ion ad
ot es
ot own
ot te
ot ted
ot land
ot esque
as per
et er
et ent
et ween
im ated
Ġst ing
Ġst ation
Ġst ark
Ġst icking
Ġst umble
Ġre ass
Ġre lying
Ġre bell
Ġre levant
Ġre union
ra nd
ra cy
Ġu pper
ver ty
ver ted
Ġbe g
Ġbe ar
Ġbe ings
Ġbe ach
ul ence
ul kin
ce ly
ce ful
ro it
ro gen
The n
Ġy ester
ri ent
ri ved
ol i
ol ate
ay bur
ow ered
ad er
ad ing
ad ent
ad vert
ad venture
Ġfor ward
ess on
ess ive
se ction
oo ses
Ġwh iny
id ers
Ġcom ics
ir k
am o
am era
Ġli p
ill ene
her fig
Ġal ert
Ġal ike
Ġal be
un s
ĠS er
ĠS ix
ĠS erving
ĠS imone
Ġch ur
Ġch ick
Ġch ooses
em orable
ck ed
ur g
ur ity
ur ves
ur ley
Ġint ol
ak ingly
Ġex ists
Ġex asper
Ġse aring
Ġse arching
Ġhe ight
Ġhe don
ant hrop
Ġnot able
rom ises
qu et
ĠB M
ĠB rend
ĠB irot
ĠB etty
ĠB inoche
ĠB esson
Ġab ly
Ġsh od
Ġsh ip
Ġsh immer
Ġsh tick
Ġsh rill
Ġun ass
Ġun bl
ain berg
Ġcon sc
Ġde ja
ĠM al
ĠM ann
ĠM ean
ĠM oonlight
ĠM endes
ĠM otown
Ġsc are
Ġsc ored
Ġsc ient
Ġsc athing
ĠA y
ĠA ud
ĠA ward
ĠA ustr
ĠA lex
ĠA uto
Ġne ur
ĠC or
ĠC arp
ĠC irc
ĠC roc
ĠC oppola
ĠC ostner
ĠC IA
ĠC urves
Ġj er
Ġj ack
Ġj arring
Ġj umble
us o
ust on
ust ic
ust ers
Ġso cc
pt ic
Ġare a
pp y
ĠH ear
ĠH ew
ĠH enry
ĠH urley
Ġpro se
Ġpro be
Ġpro fic
Ġmore s
ff ic
Ġwor ry
Ġwor ship
Ġact ions
Ġact iv
ere ll
ud ity
ĠI nter
ĠD ad
ĠD aw
ĠD irty
ĠD oug
Ġpre vent
ard ot
ack ing
Ġper me
Ġr ug
Ġr uth
Ġr ange
Ġr arity
Ġr ules
ĠW ay
ĠW ood
ĠW arm
ĠW alls
ĠW ife
ĠW ork
ie u
Ġk icking
itt ingly
itt edly
Ġstory t
Ġv u
Ġv ain
ĠP G
ĠP r
ĠP y
ĠP at
ĠP ast
ĠP icture
ĠP ower
ĠP umpkin
ĠP raise
ĠP acino
ĠP iccoli
ĠF ri
ĠF avor
ĠF ingered
Ġout land
ab re
ab les
ab bit
ĠR at
ĠR et
ĠR ay
ĠR and
ĠR emember
ĠR amsay
ĠR ichard
ĠR ouge
Ġcl own
Ġcl ash
Ġcl ashing
ĠG o
ĠG all
ĠG riff
ĠG hetto
ĠG yll
ĠT ony
Ġle ar
ies lowski
ĠL ion
ĠL ist
ĠL ook
ĠL au
ĠL yn
ĠL amb
ĠL anes
ĠL atin
are n
are r
Ġsp ends
Ġsp raw
Ġsp orad
Ġtr ump
ert ime
ac cid
Ġno ise
Ġno body
ĠJ er
ĠJ ay
ĠJ ose
ĠJ enn
ĠJ olie
our s
our se
our ceful
Ġfl ashes
au gh
Ġthr ust
th ought
Ġad vert
Ġar d
Ġcomp rehens
Ġlo b
Ġlo ad
Ġlo se
Ġlo fty
mer ing
Ġwe aves
Ġwe eks
Ġcan n
Ġcan on
Ġcan ned
Ġus eless
Ġover sh
Ġover look
Ġover comes
Ġover kill
Ġwhe never
iz amo
ĠN ational
ĠN emesis
Ġpo kes
Ġpo verty
we y
we ek
de ad
Ġeven ing
ip id
ip aul
ĠE is
ĠE xtreme
Ġsl o
Ġsl ipp
Ġsl uggish
ĠK il
ĠK ur
ĠK af
Ġam algam
Ġsub text
Ġsub urban
ose xual
Ġbl unt
Ġdis plays
oc y
Ġra pt
Ġra ge
Ġra vis
Ġra ised
Ġri ff
Ġri gor
Ġend ed
Ġgo als
Ġgo vern
Ġlif t
Ġlif ts
Ġimp enet
Ġbec ame
ress ing
Ġsur rend
Ġvi a
Ġins urance
Ġins ipid
Ġte ach
Ġscreen ing
Ġsee k
Ġsee ks
Ġentertain ingly
Ġser mon
Ġsm ell
Ġpe e
Ġpe ak
Ġres orting
ign ed
ĠCh annel
Ġaud acity
Ġunder cut
Ġunder dog
ism s
oth ic
Ġrec ipe
so aked
Ġob stacles
iv able
Ġgreat ness
Ġcast s
Ġvis ible
imp ortant
pec ial
oss ibly
oss ession
ob i
now led
ash vil
ash buck
Ġaw ard
umb ling
Ġche at
Ġrel ief
Ġrel uct
Ġtri al
Ġtri vial
Ġenjoy ing
sy ch
Ġapp la
Ġgra c
az zy
Ġgr otesque
Ġplay er
Ġexc els
Ġneed lessly
arn er
uff ed
Ġbel oved
Ġgl o
Ġgl am
Ġgl ob
app ily
Ġmus hy
ĠSt ate
ĠSt rang
Ġdec ency
Ġdec adent
Ġacc um
Ġext ent
ail ed
Ġpr in
Ġpr incip
Ġpr atfalls
Ġdist ant
Ġexpl oring
Ġexpl ored
Ġcr ash
gu es
gu izamo
Ġrep ellent
Ġrep ressed
Ġimag ined
Ġimag inable
Ġbu cks
ĠV elocity
Ġco inc
Ġpass able
Ġpass ions
Ġthought s
con structed
ys sey
For m
als h
ret entious
ĠSe pt
ĠSe ven
Ġaff l
Ġaff ord
ĠSp ike
ĠSp irited
ĠSp anish
Ġmind set
Ġfasc ination
play ing
ĠY our
ĠY idd
Ġtit led
Ġtit ular
Ġdark ness
Ġanim als
Ġstart ing
Ġput ting
ĠSh ow
Ġlight ing
Ġcra w
Ġunf ortun
Ġfail ing
Ġinter action
ĠDe uces
ĠDe Niro
ĠJo el
Ġsent ence
Ġsent iments
Ġph one
Ġph ony
Ġph ones
St range
Ġlow brow
Ġhon or
Ġsusp end
Ġsw im
Ġsw ings
Ġsw ord
Ġsw inging
Ġsw ashbuck
Ġsad d
Ġserious ness
Ġsens ibilities
Ġsens itivity
Ġsucc umb
ĠSc or
ĠSc ar
Ġexpect s
arent s
Ġadd ed
Al as
Al tern
Ġmar ching
Ġmar ried
Ġbra v
Ġbra ins
Ġbra cing
ĠBe han
Ġstrong er
Ġinsp ires
ha o
Ġac id
Ġop inion
und er
Ġprof und
Ġbo at
Ġbo ard
ĠCl iff
Ġadm ittedly
ci pl
Ġpar alle
Ġsum m
Ġsum ptuous
Ġcred ited
Ġsuccess fully
cent ury
wh ite
Ġelse where
Ġmis anthrop
ett elbe
mp ire
Ġ9 5
Ġdiffere nces
Ġsing les
Ġmust y
Ġsupp ly
Ġwarm ed
Ġdev ice
Ġcontri but
Ġobs er
Ġobs erved
Ġfr at
ote chn
Ġdumb ed
ĠSte in
ĠSte ve
ĠRe ggio
ĠTh ree
ĠAl f
ĠAl ice
ĠAn other
Ġsuff er
Ġsuff ered
uc in
Ġnon stop
Ġinf uses
Ġtechn ically
Ch o
sh ot
Ġsn oo
Ġmix es
Ġdeser ved
Un less
Sh ould
Sh owtime
ĠZ eal
Ġhope fully
Ġexam ine
ott a
Ġconcept ion
Ġtruth s
Ġtruth ful
Ġcap ital
Ġtop ical
Ġcomb ines
Ġshock ed
Ġshock ingly
ien cy
Ġexec ut
Ġimport ance
ield s
Ġinv iting
Ġinv aluable
Ġvirt u
Ġliter al
Ġadapt ed
Ġadapt ations
Ġtaste ful
Ġdam age
ĠCr udup
ĠLove ly
Ġimpro ved
Ġimpro vised
Ġdefin ition
Ġdefin itive
Ġsle ek
Ġinn uend
Ġgot ten
ĠMy ers
Ġaut om
Ġfem in
Ġbreat he
Ġevent ual
Ġweird ness
Ġbland ness
Ġthin ly
Ġroll er
Ġopen ness
ĠHe art
Ġz ero
Ġcur mudgeon
Ġcount less
ĠSand ra
Ġexist ed
ĠAm ar
ĠAm azing
Ġpost card
Ġsurf ing
Ġepis odic
Ġast ounding
Ġsqu anders
Ġdest ruction
Ġdig s
Ġemer ging
Ġang le
ĠAd ventures
Ġrout ines
Ġrecomm ended
Ġsexual ity
Ġ4 5
Ġbreak down
Ġuncom monly
osp ital
Ġhorri bly
Ġmajor ity
Ġess ential
Ġpath ology
Ġste al
Ġchall enge
Ġfav our
Ġfav ors
Ġsour ces
ont aine
Ġthrow back
Ġthrow away
Ġkn ack
Ġfore ver
Ġhom osexual
Ġconnect ion
Ġfre edom
Ġcoll ision
Ġcoll apses
ĠPh oto
aff ect
Ġcamp s
Ġcamp y
Ġden ial
ĠKiss ing
Ġdraw ing
Re ggio
Ġmother s
Ġunint eresting
ĠDan a
ĠDan ny
ĠWil co
Ġappreci ation
Ġappreci ated
Ġprot ect
Ġmetaph orical
ugg ing
Ġmove ment
Ġann oy
Ġsuck s
Ġsuck er
ĠDam on
Ġclos ing
Ġleg acy
Ġrepet ition
Ġsymp ath
ĠQu entin
Ġidi ots
Ġidi ocy
Ġgif ts
ĠBro ad
ĠMar quis
ĠMar riage
Ġprop ortions
ĠWe ight
Ġawkward ly
Ġgrou ps
Ġprim ary
Ġprim itive
Pro ves
Pro vides
yc le
Ġfit fully
Ġtoward s
Ġlim its
Ġrequ ires
Ġaim less
Ġsac rifice
Ġmil itary
Ġmil ieu
Ġwond ers
Ġcand id
aly t
Ġham pered
Ġnu ances
Ġeleg antly
Ġest rogen
Ġmid night
char ged
char acter
agger ingly
Ġintense ly
Ġcheck list
Ġrepres ent
ĠUnd isputed
Ġprofound ly
Ġextraord inarily
Ġstrength s
Ġtur key
Ġbi ography
Ġbold ly
ĠRo om
ĠRo ad
Ġremember ing
Ġexcess es
Ġexpress ion
Ġtender ness
Ġsch lock
Ġmach ismo
Ġstay ing
Ġreach ing
Ġju icy
Ġallow ing
Ġadmira bly
Ġauthentic ity
Ad am
Somet hing
Ġign ored
Ġswe at
Ġpit iful
Ġlearn ed
Ġflash backs
Ġconsist ent
Ste aling
band on
inc her
Ġbog s
Ġbog ged
ĠBall ot
ĠIr win
ĠFre undlich
ĠRuss ell
ĠLa Bute
En ough
cult ural
uit ous
win ning
Ġsol utions
Ġfac et
Ġfac ile
Ġcat ches
Ġtoss es
igg s
Ġarch ival
ĠNot ting
Ġrad ar
Ġrad ical
Ġemphas is
She ridan
Ġsal v
Ġsal ute
Ġsed u
Ġfather s
ĠBur ger
Ġsham eless
Ġclim ax
Ġtext book
Ġreflect ive
Ġembra ce
Ġdynam ics
Se x
Ġwall op
oop ing
Ġconsp ic
Ġdeb ate
ĠAng els
Ġspin ning
arsh all
Ġcollect ive
Ġmotiv ated
Ġregard ing
Ġregard less
Ġlandsc apes
Ġbreatht akingly
Ġintrodu ces
Ġintrodu ction
Ġment al
Ġpal pable
Ġresemb ling
Ġunw atchable
ĠPaul ine
ĠKore a
Ġthematic ally
Ġexplos ion
Ġinvest ig
Tr ue
ucc ino
Ġna ive
Ġgro an
ĠHaw k
ĠLil o
ĠJew s
Ġdistingu ished
Ġestabl ishes
Dis ney
uv all
Ġtempt ing
Ġwal king
Ġwal let
Ġpan or
Ġpan ache
Ġet c
ĠSn ipes
Ġjump s
Ġru ins
Ġris k
Ġimmedi ate
Ġaccur ately
Ġuncomfort able
Ġsymb olic
Ġpuzz le
Ġpuzz ling
Ġfrank ly
Ġfierce ly
Ġbound aries
Ġda ily
Ġhall ucin
Ġeconom ical
ĠSor ority
Ġconve ys
ĠDen is
ĠDon ovan
Ġvague ly
ĠEn igma
ĠEll ing
Ġunderm ines
Ġincomp rehensible
Ġincomp etent
ĠScott ish
Ġlocal es
Ġinexplic ably
Ġod yssey
Ġfrag ile
Ġnerv y
Ġnerv ous
Ġpercept ive
ĠJon ah
Ġdisg usting
Ġdismiss ed
ĠVietnam ese
Ġcourt room
Ġcontempl ative
Ġcontradict ory
Hard ly
Po ignant
agh an
writ ers
yr otechn
Ġbes ides
Ġlun acy
Ġreject ed
Ġsepar ate
Ġconco ction
ĠChe kh
Ġprev ents
Ġvent ure
Ġclin ical
ĠJan ice
ĠJacqu ot
Ġadv ance
Ġarrest ing
Ġemploy s
ĠChar les
Ġguarant eed
urpris ingly
Ġillustr ates
Ġoptim ism
Ġunbear ably
Ġphenomen al
Boy s
Look s
Ġtread s
Ġinsec ure
Ġnarc iss
Ġstro ke
Ġstead y
ĠBrid ge
Ġdope y
Ġconvers ation
ĠMiche ll
Ġscr atching
ĠCall ar
ĠHall mark
ĠId entity
ĠFred dy
ĠLuc as
Ġfles h
Ġbetray al
ĠKenn edy
Ġdiscer n
Ġinsane ly
Ġarticul ate
Ġappet ite
Ġgrat uitous
Ġcrim inal
ĠArgent ine
Ġ300 0
Ġcondesc ending
ĠSwim fan
Ġconvict ions
Ġschmalt zy
ĠWester n
Ġinterpret ation
Sad ly
friend ly
Ġ\*\* \*
Ġloyal ty
vigor ating
Ġbew ild
Ġangu ish
ĠSal ton
Ġenlight ening
Ġneighbor hood
ĠTamb or
Ġcompens ate
Ġdisgu ised
Ġrow dy
Ġoblig atory
Ġexcruci ating
Ġskate board
Ġcohes ive
Ġinterview s
Ġinfuri ating
Ġdiscuss ion
Ġconspira cy
Ġextravaganz a
Ġdedic ation
App arently
Certain ly
Extreme ly
Sol ondz
Simp ly
gener ated
numb ingly
with standing
Ġsizz le
Ġmour n
Ġpant heon
Ġgidd y
Ġanom ie
Ġanci ent
ĠSign s
ĠSeld ahl
Ġscre ens
ĠCross roads
ĠDang erous
ĠWend igo
ĠGib son
Ġflamb oyant
Ġcompan ion
Ġblat ant
Ġdisint egr
acht wey
Ġincess ant
Ġfarc ical
Ġcoff ee
ĠThornberry s
Ġveter an
Ġinfant ile
Ġmeth od
Ġantid ote
ĠChristop her
Ġpunct uated
Ġlyric ism
Ġpenet rating
Ġunconvent ional
Bec ause
Ev okes
Sec ret
cong rat
langu age
Ġtaw dry
Ġack nowled
Ġafic ionad
Ġsab ot
enha al
Ġmac abre
Ġwret ched
Ġcip her
Ġbord ers
Ġpess im
Ġdise ase
Ġhund red
Ġnatur ally
Ġyester day
aybur gh
illene uve
Ġalbe it
ĠBrend an
Ġshod dy
Ġunass uming
ĠCarp enter
Ġsocc er
ĠHear st
ĠHew itt
ĠDaw son
ĠPower puff
Ġoutland ish
ĠGyll enhaal
ĠLamb s
ĠJenn ifer
Ġoversh ad
ĠKaf ka
Ġravis hing
Ġimpenet rable
ashvil i
Ġreluct ant
Ġappla ud
ĠStrang ers
ĠYidd ish
Ġunfortun ate
ettelbe ck
ĠChekh ov
Ġaficionad os
1 1
5 0
A S
A mid
B C
B el
B ro
B est
B ears
B arely
B irthday
B etween
C a
C r
C an
C old
C red
C apt
C inematic
D on
D el
D id
D irect
D ull
D ense
D irected
E l
E ff
E nt
E leg
F ew
F rank
G ets
G ives
G rant
G iven
G eorge
H ol
H ilar
H uppert
I DS
J acqu
L ove
L uc
M o
M s
M at
M or
M art
M iller
M ey
M orton
M ajidi
N a
N icks
N arc
O O
P ass
P aul
P uts
P resents
R y
R ep
R ich
R emember
R amsay
S k
S or
S im
S and
S uc
S oph
S uper
S ayles
S urprisingly
T e
T aken
T ries
T ogether
U s
V ivid
V ito
W ait
a pl
a ign
a iting
a unt
b od
b are
b les
b af
b reaking
c re
c ook
c ated
c ener
d s
d ed
d ra
d un
d sy
d ream
d aughter
d renched
e ch
e em
e gg
e ky
e arth
f em
f ast
f itting
g a
g ant
g ary
g by
h h
h o
h at
h as
h art
h man
h alf
h uman
h oned
h ta
i as
i ri
i ably
i ations
j es
k il
k ay
k iness
l as
l im
l ie
l og
l iff
l ÃĥÆĴÃĤ
l ooper
m or
m us
m ical
m ond
m ash
m etic
m insky
n el
n ol
n ie
n our
n ock
o ir
o ge
o ated
p ed
p ent
p ass
p ost
p ons
p reme
p ieces
p arts
p isi
p owered
r ion
r man
s ky
s atisf
s omething
t ÃĥÆĴÃĤ
t inent
t ti
u h
u k
u z
u is
u il
u um
u ary
v o
v ably
v ors
w er
w ing
w es
w all
w are
w arm
w inded
w orking
Â ¢
Â ¨
Â ¯
Â ³
Â ł
Ġ #
Ġ 70
Ġ \*
Ġt id
Ġt all
Ġt orn
Ġt rop
Ġt rench
Ġt ensions
in ently
he ld
he ated
Ġs au
Ġs hed
Ġs elling
Ġs ib
Ġs ize
Ġs ession
Ġs essions
Ġs isters
re ne
Ġo m
Ġo we
Ġo mn
Ġo kay
Ġo wes
er b
er ile
er ably
it c
it he
it ment
it ations
it ches
Ġthe ories
is y
is er
is ingly
is ions
at a
at ty
Ġf ade
Ġf olly
Ġf aced
Ġf ires
Ġf uss
Ġf inger
Ġf iring
ing e
ing les
es cent
Ġm im
Ġm ort
Ġm ap
Ġm ull
Ġm uck
Ġm ug
Ġm ask
Ġm awk
Ġm ugging
Ġw art
Ġw ars
Ġw rest
Ġc um
Ġc og
Ġc up
Ġb less
Ġb urn
Ġb read
Ġb orn
Ġb udd
Ġb agg
Ġb reaking
or a
or o
or ia
on ing
on ou
on se
ou is
Ġp in
Ġp or
Ġp ra
Ġp ad
Ġp ris
Ġp ause
Ġp uff
Ġp ony
Ġp unk
Ġp raise
Ġp iqu
Ġp ilot
Ġp yrotechn
ar ate
an ed
al a
al es
al ph
Ġth irty
Ġd ro
Ġd ime
Ġd ict
Ġd ated
Ġd old
Ġd ied
Ġd ude
Ġd izz
Ġd urable
Ġd well
Ġd arned
il ated
il ogy
ed ish
ic z
ic able
ic eless
ic iously
Ġto m
Ġin advert
Ġin vigorating
Ġl end
Ġl unch
Ġl aud
Ġh oo
Ġh ust
Ġh ors
om ed
st rom
st ory
st ruction
Ġn ic
Ġn od
Ġn ause
Ġn uc
Ġn ifty
le ander
ut able
el ed
Ġg as
Ġg est
Ġg old
Ġg ris
Ġg oose
Ġmo ck
ot ing
ot al
ot ically
as i
et erm
im ate
vi er
Ġst am
Ġst ake
Ġst ult
Ġst ately
Ġst ages
Ġst olid
Ġst umbles
Ġst opped
Ġst ruck
Ġst aggeringly
Ġre ly
Ġre se
Ġre ck
Ġre semble
Ġre vision
Ġre ached
Ġre aches
Ġre run
Ġre lev
ra ck
Ġbe er
Ġbe ats
ul p
ul ous
ce an
ch ard
ch ange
ro ad
ro oge
Ġan th
Ġas c
ith s
ri guing
ri pper
ol an
ol st
ay as
ow ling
ad o
Ġfor te
Ġfor tun
se x
se at
Ġbut ter
Ġwh ine
Ġcom a
Ġcom ically
Ġsu s
Ġsu its
Ġsu itable
Ġsu dsy
Ġsu gary
Ġsu preme
ir y
ir teen
ers chool
am y
am ura
Ġli king
Ġli bert
Ġal iens
ag en
ĠS hip
ĠS kins
Ġch omp
um n
um ination
em ing
em ents
ur ation
ur istic
ur rent
ur ried
Ġint act
Ġen velop
Ġen count
Ġex ter
ist as
ist ine
ist ently
ist encies
Ġse al
Ġse ction
Ġhe y
Ġhe ights
Ġhe fty
ant e
Ġnot ch
Ġnot orious
Ġnot withstanding
est inian
if ies
if ts
if kin
qu ite
qu eness
ĠB re
ĠB ic
ĠB ill
ĠB ack
ĠB ible
ĠB utter
ĠB room
Ġdo ze
Ġdo gged
Ġdo zen
Ġab rupt
Ġsh ut
Ġsh op
Ġsh red
Ġsh ining
Ġsh ares
Ġsh ifting
Ġsh aky
Ġsh aggy
Ġun se
Ġun em
Ġun ap
Ġun ment
Ġun co
Ġun mist
Ġun real
Ġun know
ell ar
Ġde ar
Ġde gra
ĠM ing
ĠM ak
ĠM ick
ĠM ummy
ĠM erchant
ĠM IB
ĠM arshall
Ġat roc
Ġsc and
Ġsc ru
Ġsc hem
ĠA ug
ĠA bandon
ĠA BC
ĠC H
ĠC ind
ĠC ap
ĠC ool
ĠC ase
ĠC rist
ĠC ooper
ĠC atholic
ĠC herish
act or
act ly
Ġj ell
Ġj ud
Ġj aw
Ġj olly
Ġj azz
Ġj aded
ig uch
ig ans
us c
us hes
Ġso ar
pp s
Ġchar ge
Ġchar itable
ĠH alf
ĠH ub
ĠH udlin
ĠH icken
ĠH appiness
ĠH uston
ĠH ospital
Ġpro ved
and ed
Ġlike able
Ġpl at
Ġpl us
Ġpl aced
Ġpl aus
ud y
ĠI f
ind ler
Ġall uring
ĠD r
ĠD ays
ĠD over
ĠD rumline
ĠD iggs
ĠD uvall
Ġpre y
Ġpre ced
Ġwho dun
ard alos
Th r
Th ought
Ġper m
Ġper il
Ġper tinent
Ġr ing
Ġr ate
Ġr ural
Ġr het
Ġr ising
ĠW as
ĠW ere
ĠW aking
ĠW oman
ĠW ahl
ĠW alter
ĠW illiam
ĠW arner
ĠW alsh
pl ing
Ġor che
Ġk in
Ġk its
Ġk ills
itt ered
Ġstory lines
Ġv an
Ġv istas
ĠP ar
ĠP ort
ĠP ry
ĠP ret
ĠP aris
ĠP erry
ĠP ersonal
og yn
ĠF ear
ĠF ien
ĠF orm
ĠF ierce
ĠF undament
ĠF incher
Ġout d
Ġout right
Ġout line
ab out
ab by
ab bing
ab oration
end a
end ence
end ium
ĠR on
ĠR ules
ĠR umor
ĠR odriguez
ĠR abbit
ĠR alph
ĠR owling
Ġcl ock
Ġcl ips
Ġcl ueless
od ile
ĠG r
ĠG ay
ĠG ant
ĠG ere
ĠG ary
ĠG ames
Ġfun ction
ĠT on
ĠT sai
ĠT adpole
ĠL ar
ĠL ond
ĠL ily
ĠL ord
ĠL iar
ĠL ewis
ĠL yne
ĠL ouis
for ce
Ġsp right
Ġsp orting
Ġsp iced
Ġtr im
Ġtr ilogy
Ġman ic
Ġman nered
ert y
Ġup ro
Ġup beat
Ġqu int
Ġqu asi
ac re
ac on
nt il
nt ial
ram ax
Ġno se
ĠJ ar
ĠJ ust
ĠJ ord
ĠJ eff
Ġfl ound
Ġfl ame
Ġfl ower
Ġfl irts
Ġfl ailing
Ġfl accid
ear ly
Ġdirect ly
Ġdirect ions
th s
th on
th ink
Ġad opt
Ġad roit
Ġar ty
Ġar bit
Ġcomp ar
Ġcomp os
Ġcomp are
Ġcomp ared
Ġcomp osition
Ġcomp ulsively
Ġcomp endium
Ġgood s
Ġgood ness
Ġgood will
ass y
ass es
ass ed
Ġlo vable
Ġlo aded
Ġlo ads
Ġcan ny
ne w
Ġent ran
Ġent icing
Ġwork place
Ġover written
Ġover run
Ġover produced
Ġover bearing
ond ry
ĠN ash
ĠN achtwey
Ġpo ster
ark able
ens ed
de al
de veloped
int ing
rit ical
ĠE x
ĠE arn
ĠE aster
ĠE arth
ĠE quilibrium
ĠE mpire
Ġsl am
Ġsl ash
ĠK ath
ĠK iller
ĠK illed
ĠK ieslowski
Ġbl oated
Ġdis con
Ġdis arming
Ġdis appe
Ġfa ults
Ġra pp
Ġra ces
Ġra uc
Ġri ot
Ġri dd
Ġri gid
Ġmake up
Ġend urance
own ed
Ġtw ink
Ġtw enty
atic s
Ġevery body
Ġreal m
Ġreal ization
Ġund ers
Ġund erest
Ġtal ks
Ġimp at
Ġimp ersonal
ru p
ru rient
te au
Ġvi gn
ang er
ang ed
Ġins ider
Ġdes ired
get s
Ġrem em
Ġsm ack
Ġsm ash
ach able
ach ment
Ġplot s
Ġplot line
Ġres ent
Ġres ourceful
ign ific
ĠCh ÃĥÆĴÃĤ
ĠCh apl
Ġag it
Ġag ed
Ġcont end
Ġcont empt
Ġher itage
Ġtra il
Ġtra ce
Ġbr imming
ock ettes
Ġunder bel
Ġunder written
leas e
vent ly
Ġrom ances
iv a
Ġgreat ly
istic ated
ft erschool
Ġstill born
ĠO p
ĠO ld
ĠO ther
ĠO range
ĠO ps
ĠO edekerk
ĠO leander
ran agh
Ġscen ic
Ġaw ak
Ġaw ards
Ġaw esome
Ġshow er
sc ra
ument ary
Ġche es
Ġche ated
Ġche ek
Ġinc or
Ġrel ative
Ġdown s
Ġscript s
Ġscript ing
Ġscript ed
gg ing
Ġenjoy ment
In somnia
sy mp
Ġgra ve
oll and
Ġview ed
As ide
az y
Ġback stage
Ġsty les
Ġset up
Ġexc ited
Ġcomple t
Ġhuman izing
Ġgl ac
Ġgl aring
xt ap
Ġeng ages
ok lyn
Ġpleas antly
app ed
Ġstr ate
ster y
Ġcreat ures
Ġgu est
ĠSt all
ĠSt itch
Ġdec on
Ġdec ides
Ġacc ident
Ġind o
Ġext r
Ġext rem
ail able
Ġpr onou
Ġpr istine
Ġhigh light
Ġexpl ode
com ing
Ġshe nan
att age
att ling
Ġcr ushing
gu ided
ord ing
Ġhor se
Ġhor rors
Ġspec ulation
Ġcons uming
Ġcons olation
Ġgener ating
Ġgener ates
ins on
Ġhist or
Ġhist rion
Ġ2 5
Ġafter noon
Ġprodu ces
Ġprodu cer
Ġexper imental
Ġbu g
Ġbu zz
Ġmem ber
Ġmem oir
of cener
ĠV al
ĠV enice
ĠV illeneuve
ĠV ardalos
me ets
Ġco herence
Ġinst it
Ġinst ance
Ġpass ed
Ġpass ages
Ġdeep est
ret t
icul ously
Ġclass y
Ġclass ical
ub r
Ġdep ra
Ġaff irming
Ġdet ract
Ġdet ective
Ġdet erior
Ġsuper star
ĠSp ace
ĠSp irit
ĠSp ring
Ġpol icy
Ġstud ents
Ġchild like
ĠY ard
ĠY van
Ġbelie ves
Ġbelie ved
Ġbelie vability
Ġportra ying
Ġdull est
Ġanim at
Ġep ip
Ġep ics
Ġdem ean
Ġexp oses
Ġed its
ĠSh anghai
ĠSh adyac
ĠSh ainberg
iel insky
Ġlight er
Ġlight ness
Ġlight hearted
Ġmed ical
Ġmed itative
Ġmor bid
ĠDe an
ĠDe Vito
Ġev okes
Ġtrans formed
Ġtrans forms
Ġnarr ator
Ġsmart est
Ġph rase
Ġener g
Ġshort er
St ar
Ġuns urpris
Ġsw ear
Ġsw oon
Ġsw agg
Ġsad istic
ĠSc reen
ĠSc rooge
Ġadd ing
Ġadd resses
but ton
Ġmar gin
Ġbra ve
Ġbra very
Ġret ool
Ġret ains
ĠBe at
ĠBe an
ĠBe ck
ĠBe ij
ĠBe hind
Ġpsych o
Ġac he
Ġac ute
Ġop ens
Ġmon str
Ġprob ing
Ġnarrative ly
Ġwar fare
Ġcar ic
Ġfact ory
Ġprof ess
Ġprof ane
ĠCl ancy
ĠCl ayburgh
ĠLe guizamo
Ġsy rup
orge ous
ceed s
Ġass ass
Ġass uming
Ġass ume
Ġass assin
Ġass ault
plic ed
Ġpar an
Ġpot ency
Ġdi vide
Ġequ als
Ġoper ates
Ġprom ises
Ġprom isingly
chn itz
sem bly
het ically
Ġcut eness
Ġfant ast
Ġmis ogy
Ġmis ogyn
Ġmis guided
Ġpat ron
apt ation
Ġodd est
Ġcent ered
Ġcent uries
Ġhero ic
Ġsing er
Ġsing ular
Ġocc up
Ġmust er
Ġcomplex ities
Ġill og
Ġill ness
Ġill usion
Ġbas ket
Ġalong side
Ġdev otion
Ġobs essions
Ġobs essive
Ġfr ot
Ġma x
Ġcam er
Ġcall ow
Ġslight est
ĠAl an
ĠAl one
ony mous
utter ing
Ġsuff oc
Ġuni verse
Ġflat ulence
Ġsign post
Ġinf idelity
Ch ou
Ch ar
Ch arl
Ch ildren
ey e
Ġsn ake
let t
let te
Ġquiet er
ael strom
Ġstri pped
ĠBar b
Ġcreep iness
Sh ot
ĠZ hao
Ġrich ness
ov sky
ĠAr k
ĠAr men
wr ote
Ġ8 5
Ġ8 6
Ġ8 8
Ġlet h
Ġlet ter
Ġlet down
Ġdevelop ments
Ġimport antly
ield y
Be fore
Every one
Ġant icip
Ġprov oke
Ġvirt ue
Ġconsider ably
Ġspectac ularly
Ġfut ile
Ġfut uristic
Ġgrand i
Ġted ium
Ġcor rupt
Ġcor porate
Ġbal let
Ġmood s
Ġprovid ed
Ġimpro vis
Ġfem inist
Ġbreat hes
Ġposs ibilities
Ġdri ven
Ġdri ves
Ġforce fully
Ġjoy s
Ġjoy ful
Ġtrad itions
Ġunp retentious
Ġprocess ion
Ġremind ing
Ġroll s
Ġroll icking
ĠRobert s
Ġtedious ly
Ex p
Ex cept
bo at
bo ards
Ġz omb
Ġz ipp
Ġfoot ball
Ġfoot note
Ġcur se
Ġug l
Ġpost uring
Ġpost modern
Ġimpressive ly
Ġartist ry
Fe atures
ura cy
Ġast ute
Ġful f
Ġfoc using
Ġdest iny
Ġhy ster
Ġskill ful
Ġskill fully
Ġdepress ion
Ġquestion able
Ġpurp ort
Ġhop eless
Ġhop elessly
Ġsucceed ed
Ġhorri f
Ġabsurd ly
Ġabsurd ities
Ġfrustr atingly
ax ploitation
Ġtest imony
Ġcop s
amb les
oph isticated
Ġsustain ed
Ġcelebr atory
lin ers
zz le
Ġer ratic
Ġspl ash
alt ers
Ġnatural ism
Ġredu ce
Ġredu ced
Ġslap dash
Ġblood s
li ang
vil s
Ġgoof ball
Ġintent ionally
Ġprec ision
Ġcoll age
Ġcoll abor
Ġcoll aboration
Ġpun ching
Ġpun ishment
Ġstrugg les
Ġ200 0
Ġphot ograph
Ġcommun al
Ġbrain less
Ġrecommend ation
Ġmer its
Ġcamp aign
Ġpack age
arc ia
Ġden ied
Ġlab or
Ġimm ac
ĠPl uto
ĠFat ale
Ġcontin uity
Re al
Re ally
rum s
Ġcross ed
ĠIn somnia
ĠIn vincible
Ġimpress ions
Ġdesc ription
Ġunique ly
Ġfriendship s
Ġtarget ed
Ġaccompl ish
Ġaccompl ishes
spect ive
Ġmist aken
Ġpos ing
Ġsuck ing
Ġsuck ed
Ġconvent ions
Ġsuperfic ially
ĠQu aid
Ġidi otic
Ġsophistic ation
De v
col m
Ġtim id
Ġbar gain
eld om
ĠBro oklyn
ĠWed dings
Ġawkward ness
Ġly ing
agg ing
agg ie
Ġintellect ually
ĠAnd rew
Ġfear less
conscious ly
Unf olds
Ġescap ed
Sp ider
Ġsick ly
Ġmil k
Ġcal m
Ġunin volving
ĠRock y
Ġmanip ulation
Ġrap id
Ġrap idly
Ġrealistic ally
Ġeleg ance
mark et
Ġfright eningly
Ġmurder ous
Ġwater log
Ġhot el
ĠMe hta
ĠDog town
Ġsett le
Ġsett ings
Ġsett led
ĠSecret ary
Ġinex per
Ġaffection ate
Ġinnoc uous
Ġtur nt
Ġtur gid
Ġeth ics
ĠSw edish
ĠInd ians
Ġdisc ord
Ġdisp arate
Ġsurvi val
Ġsurvi vors
Ġresp onse
Ġcinemat ographer
Ġdistinct ly
Ġexpress ions
Ġmodest ly
Ġenthusi ast
Ġridiculous ness
Sc otland
Ġsav age
Ġbur st
Ġlength y
ĠSm ith
ĠCount y
Ġju xtap
Ġartistic ally
Ġobject ivity
ĠOr well
Ġglimp ses
Ġembarrass ed
Ġeccentric ities
Whe never
Ġpit ched
Ġdim ension
Ġlangu orous
ĠCar uso
Ġweight y
ĠEng land
Ġterror ism
Ġprotagon ists
Le ave
Ste ers
Ġwast es
Ġban ality
Ġdr unk
Ġlay er
Ġlay ered
Ġloose ly
Ġaltern ate
Ġscream s
Ġvill ains
ĠFre ud
ĠFrank lin
ĠLa isse
Ġirre levant
Ġsym met
Ġsignific ance
Ġamateurish ly
Bl ue
Ġmill ions
Ġbored om
Ġpu erile
Ġpract ice
Ġliber ating
Ġshap ed
ĠPinoc het
Ġspell bind
Ġwilling ness
Ġrad iant
Ġrecogn iz
Ġmagn etic
cra ck
Ġtack ling
Ġtear jerk
Ġbod ice
Ġbod ily
Ġpus hed
Ġpick ed
Ġner ves
Ġproceed s
Ġoverwhel m
Ġinsult ingly
Ġtext ure
Ġrecyc ling
Ġbenef its
Se ems
Ġtort ure
Ġpri vate
add le
ĠSil ber
ĠSweet est
Ġende av
Ġunh appy
Ġunh urried
Ġdecept ion
ĠMi ike
ĠMi ramax
Ġinco herence
Ġappear ance
Ġcollect ively
Ġtransp orting
Ġprofessional ism
Ġcontriv ance
produ cer
Ġtun ed
Ġfle e
Ġwat ers
Ġpal atable
Ġcompl iment
Ġcompl aint
Ġcha os
Ġexha usted
ĠBy att
ĠBy ler
Ġscar iest
Ġscar cely
Ġloving ly
Tr ans
ucc ess
Ġling ers
Ġnumb ing
Ġnumb ingly
Ġstick y
Ġens ues
ĠHaw ke
ĠGold ie
ĠGold member
ĠJul iet
Ġmyth ic
Ġdistingu ish
Ġelo quently
Ġirres pons
Ġestabl ished
Ġvillain ous
Int riguing
pleas ing
Ġfer vently
Ġmira cul
Ġcard board
Ġpair ing
Ġevid ent
Ġearn s
Ġghost s
Ġstat ement
ĠBer g
Ġris ks
Ġimmedi ately
ĠGang ster
Ġcheer ful
Ġideal ism
Ġdepart ment
Ġsensual ity
Ġpopular ity
Ġcounter parts
Ġbox ing
Ġextravag ant
Ġintermitt ent
Br ings
Ġboo st
Ġbath os
Ġdub bed
Ġdrown s
Ġdrown ed
Ġhall mark
ĠSor vino
Ġenorm ously
ĠBow ling
Ġneat ly
Ġpress ed
ĠFr aser
ĠTay mor
Ġupd ating
Ġflo or
Ġflo ating
Ġ197 5
Ġjournal ism
Ġpulp y
Ġshadow y
Cont rived
tr ash
Ġfreak y
Ġmas och
Ġborrow s
Ġborrow ed
Ġinform ation
Ġinform ative
ĠSund ay
Ġscrew ball
ĠDream s
Ġresol ution
Ġincons istencies
Ġreveal ed
Ġrestra int
Ġcorrect ness
Ġimprove ment
Ġinnov ation
Ġinnov ative
Ġpossess es
Ġsmooth ly
Ġadequ ately
mal baf
no isse
writ ing
reg ard
Ġbab y
Ġdut y
Ġdut iful
imon ious
ĠSl ackers
Ġexuber ance
Ġconj ures
ĠMac Dowell
ĠPay ne
ĠGener ation
ĠLong est
Ġcomprom ise
Ġcomprom ised
Ġbackdrop s
Ġglor iously
Ġglor ified
Ġstrang eness
Ġdeliber ate
Ġfriend ly
Ġdanger ously
Ġoptim istic
Ġunbear able
Ġsanct imony
Ġsanct imonious
Cons ider
Ġ6 5
Ġven eer
Ġpa ean
Ġhat red
Ġgigg les
Ġmold y
Ġstag y
Ġchore ographed
Ġunful filled
Ġunful filling
ĠAss assin
ĠPer dition
Ġweep y
ĠNa ipaul
ĠKos ashvili
Ġelev ated
Ġelev ates
Ġmisc alcul
ĠIsra el
ĠIsra eli
ĠBros nan
Ġmultip le
Ġmultip lex
Ġdishon est
Aud iences
Cla ude
Deli vers
Film makers
Imp ostor
View ers
hor ror
put ting
Ġaest hetic
Ġfet ish
Ġfuri ous
Ġhing es
Ġge ared
Ġstimul ating
Ġrece ive
Ġchamp ion
ĠAh ola
ĠWW II
Ġvoy eur
ĠEve lyn
Ġunderc urrent
Ġnewcom er
Ġillumin ating
Ġmadd eningly
ĠColumb ine
Ġblockb usters
Ġtasteless ness
Coll ateral
Jack son
La Bute
Nic ole
Ret urn
dis covery
hu ang
Ġtail or
Ġmish mash
Ġwed ding
Ġnet work
Ġstink er
ĠSie gel
Ġenchant ing
Ġunm emorable
Ġunrem arkable
ĠAute uil
Ġjun ior
ĠPau lette
ĠFun eral
ĠTest ud
Ġweigh s
ĠEver lasting
Ġdisquiet ing
Ġcontroll ed
Ġreco very
Ġrelax ed
Ġexplan ation
Ġassoc iated
Ġcamoufl age
blood ed
Ġcrafts manship
grand son
Ġatmospher ic
ĠMexic an
Ġcircumst ances
Ġhypoc ris
Ġboun cy
Brit ney
Def initely
Ob vious
Sens itive
Tw enty
dri ven
lad en
zill a
Ġfro zen
Ġwist ful
Ġthread bare
Ġinesc apable
Ġnaught y
Ġrebell ion
ĠSix th
Ġchur ch
Ġheight ened
Ġhedon istic
Ġshimmer ing
Ġunbl inking
Ġneur otic
ĠCirc uit
ĠCroc odile
erell a
ardot com
Ġperme ates
Ġstoryt eller
ĠRand all
Ġlear ning
ĠLyn ch
Ġspraw ling
ĠJer sey
ĠKil mer
obi ographical
Ġgrac eless
Ġglo omy
Ġglam our
Ġglob e
Ġaccum ul
Form ula
ĠShow girls
ĠScor pion
Ġprofund ity
Ġmisanthrop ic
ĠAlf red
ĠZeal and
Ġinnuend o
affect ed
ĠBroad way
alyt ical
Ġacknowled ges
Ġovershad owed
Jacqu ot
Mey jes
Sk ip
Sand ra
Suc ceeds
Soph ie
Vivid ly
fem inist
kil ter
nour ished
nock around
Ġtrop es
Ġtrench ant
Ġmawk ish
Ġwart ime
Ġcum ulative
Ġcog ent
Ġbread th
Ġbagg age
Ġpiqu ant
Ġpyrotechn ics
Ġdold rums
Ġnuc lear
Ġgris ly
Ġfortun e
Ġsupreme ly
Ġunap olog
Ġunment ion
ĠAug ust
ĠCind erella
ĠCap ra
ĠCrist o
ĠHicken looper
Ġwhodun it
ĠWahl berg
Ġorche str
ĠPret ty
ĠFien nes
ĠFundament als
ĠLond on
Ġspright ly
ĠJord an
ĠEarn hart
Ġvign ettes
ĠChapl in
Ġunderbel ly
Ġshenan igans
Ġunsurpris ing
ĠBeij ing
chnitz ler
Ġmisogy ny
Ġbasket ball
Ġzipp y
Ġwaterlog ged
ĠLaisse z
Ġspellbind ing
Ġtearjerk er
Ġirrespons ible
1 0
8 0
9 0
A b
A w
A st
A ff
A cc
A ss
A ustr
A rt
A part
B A
B less
B eneath
B ased
B irot
B ogdanovich
C o
C re
C or
C ar
C le
C ool
C amp
C ha
C ox
C anad
C atholic
C ulkin
D i
D ri
D oo
D em
D ep
D ram
D rag
D azz
D aughter
D emme
D iane
E R
E ll
E sc
E ng
F re
F er
F un
F all
F air
F rid
F ortunately
F illed
F inally
F amily
F oster
F rida
F essenden
G l
G ra
G ang
G old
H y
H or
H el
H ip
H ash
H ands
H offman
H ugh
H aneke
H appily
I N
I r
I nd
I ll
J ul
J ason
K aufman
K apur
L o
L ead
L ife
L awrence
L arge
L ewis
L augh
M en
M el
M et
M ight
M ake
M ary
M ark
M ann
M ichael
M oore
M uddled
M iy
N E
N ice
N early
O ld
O dd
O scar
O zpetek
P re
P ol
P ay
P ure
P ain
P assion
P agl
P acino
P arents
P lease
R em
R ock
R uss
R oman
R emark
R itchie
R odriguez
S n
S ure
S pect
S ever
S upp
S oderbergh
S hyamalan
S erving
S ince
T om
T ri
T op
T alk
T arantino
T adpole
U ntil
V an
V era
W it
W as
W ow
W onder
W indtalkers
W allace
a an
a ic
a ise
a ims
a head
a vern
b a
b in
b on
b as
b ra
b am
b one
b our
b iz
b ull
b urn
b ution
b usting
c at
c al
c as
c op
c ap
c reen
c les
c ool
c ons
c amp
c urd
c ular
c alled
c amera
d les
d ots
d rum
e or
e el
e ble
f r
f at
f et
f ri
f all
f ram
f ound
f ather
f oot
f essional
f angled
g he
g one
g ap
g ame
g ress
g gin
g ium
g lor
g iving
h ack
h ilar
h ots
h any
h appy
h olds
h ungry
h malbaf
i w
i ard
i ary
i ating
i oc
i vers
i pping
i pped
i kes
j o
k er
k ien
k wer
l ay
l ive
l est
l ash
l antic
l ined
l astic
l udes
l arge
m ay
m ad
m out
m ull
m aster
n ch
n ad
n est
n ial
n ingly
n ings
n app
n umber
o ks
p r
p al
p ot
p ra
p se
p us
p op
p rop
p odge
p opping
r ine
r ÃĥÆĴÃĤ
s ian
s so
s olid
s ize
s nan
s aic
t le
t akes
t ail
t orn
t akers
t urning
t imer
u ar
u ire
u ence
u ating
u vers
u gu
v s
v ous
v est
v ile
v asive
w it
w en
w ess
w ink
w orn
w ined
w right
w ann
w alk
w ai
w ashy
w orth
w itz
w olf
w attage
x ing
x ious
x istent
y ou
y ate
y ard
y ber
y ears
y azaki
y kwer
z iness
Â ¡
Â ±
Â ¼
Â Ń
â Ģ
Ġ =
Ġ i
Ġ il
Ġ iv
Ġ xt
Ġ util
Ġt in
Ġt el
Ġt ant
Ġt ie
Ġt we
Ġt ame
Ġt ons
Ġt att
Ġt earing
Ġt abl
Ġt attered
Ġt apping
Ġt angled
Ġa pe
Ġa ute
Ġa uster
in sp
in wood
in fl
in ished
he ro
he rable
he pisi
Ġs ul
Ġs old
Ġs ons
Ġs ky
Ġs ail
Ġs ends
Ġs ights
Ġs alt
Ġs avor
Ġs outhern
Ġs assy
Ġs pliced
Ġs eldom
re ly
re ve
re ase
re ls
re cher
re fere
Ġo od
Ġo vere
er ri
er ves
er ily
er red
er iat
it ar
it an
it as
it ical
it ating
it ably
it als
it ler
it arian
it iated
Ġthe or
is on
is co
en act
en ance
at he
at re
at ri
at ner
at oes
at hered
Ġf ra
Ġf res
Ġf ert
Ġf ru
Ġf ris
Ġf iness
Ġf used
Ġf ashioned
Ġf arts
Ġf lying
Ġf aded
Ġf ifty
Ġf ingers
Ġf alters
es ar
es us
es ley
Ġm ic
Ġm ine
Ġm ars
Ġm ord
Ġm idd
Ġm urd
Ġm uddy
Ġm umbo
Ġw on
Ġw ow
Ġw ore
Ġw iz
Ġw aves
Ġw ander
Ġw anes
Ġw renching
Ġw arned
Ġw afer
Ġc ow
Ġc ust
Ġc od
Ġc oc
Ġc ash
Ġc ars
Ġc uss
Ġc atching
Ġc umbers
Ġc uis
Ġc yber
Ġb ent
Ġb id
Ġb ark
Ġb ru
Ġb ike
Ġb oss
Ġb ib
Ġb ought
Ġb others
Ġb umbling
or se
or ish
or bing
on izing
ou ched
ou yate
Ġp le
Ġp oo
Ġp ep
Ġp ore
Ġp ond
Ġp ink
Ġp ian
Ġp ran
Ġp ages
Ġp oll
Ġp ier
Ġp ump
Ġp ung
Ġp rank
Ġp add
Ġp umm
Ġp rurient
ar ling
ar row
al th
al ys
al ented
al iy
Ġth ro
Ġth ri
Ġth rew
ly mp
ly sian
Ġd ol
Ġd ad
Ġd ire
Ġd ual
Ġd ress
Ġd amp
Ġd ots
Ġd oof
Ġd aught
Ġd awn
Ġd ivine
Ġd aughter
Ġd ensely
Ġd owntown
Ġd uration
il le
il ms
ed ar
ed ience
ed ian
ed ited
ic ine
ic hed
ic les
ic ially
ic ament
ic cated
Ġto es
Ġto xic
Ġin j
Ġin k
Ġin im
Ġin qu
Ġin art
Ġin ade
Ġin du
Ġin app
Ġin vis
Ġin ability
Ġl a
Ġl am
Ġl ap
Ġl ick
Ġl ens
Ġl inger
Ġl uster
Ġl uke
Ġl aser
Ġl ittered
Ġh ood
Ġh ates
Ġh anging
Ġh iding
Ġh inds
Ġh odge
Ġh ungry
st abbing
Ġn ine
Ġn ary
Ġn urt
Ġn utty
Ġn udity
Ġn arrow
Ġit al
le in
le ted
le ague
ut ch
ut ure
ut ting
Ġe ch
Ġe ld
Ġe ating
Ġe vol
Ġe cl
Ġe tern
ct ing
ct or
ct ic
ct ive
ct ress
Ġg y
Ġg al
Ġg ad
Ġg ong
Ġg od
Ġg our
Ġg ained
Ġg aud
Ġg eriat
Ġmo ist
ot er
ot ics
ot iate
as is
as ion
as ms
as ma
et a
et ically
im el
im per
vi olent
Ġst al
Ġst ance
Ġst ub
Ġst reak
Ġst urd
Ġst omp
Ġst orm
Ġst agg
Ġst inks
Ġst reets
Ġst ellar
Ġst asis
Ġre n
Ġre ap
Ġre vol
Ġre sem
Ġre ef
Ġre bel
Ġre ceived
Ġre kind
Ġre working
ra pe
ra ft
ra der
ra ges
ra qui
ra ints
gh an
Ġbe ating
Ġbe aring
Ġbe gging
ul f
ul ter
ul ine
ul atory
ch i
ch t
ch ie
ch ild
ch ief
ch witz
ro y
ro pe
Ġon going
Ġfilm ing
Ġan emic
Ġan alytical
Ġy a
Ġy e
Ġas king
Ġas sembly
ri e
ri or
ri al
ri ous
ri ors
ri ginal
ol as
ol ical
ol ita
ol kien
ol itical
ow maker
ad a
ad re
Ġfor cing
ess entially
se arching
oo ps
Ġwh ip
Ġwh irl
Ġwh imper
id ents
id get
id ences
id owmaker
Ġsu ng
Ġsu icide
ir t
ir ation
ir ling
am m
am ic
am ie
Ġli ven
Ġli vel
Ġli br
Ġli bid
ill o
ill ard
her s
her ry
ag ged
un ce
un ge
un ning
un shine
ĠS A
ĠS L
ĠS O
ĠS a
ĠS an
ĠS ven
ĠS op
ĠS we
ĠS ense
ĠS omet
ĠS erry
ĠS atin
ĠS ayles
ĠS pecial
Ġch ill
Ġch ain
Ġch oc
Ġch air
Ġch okes
Ġch apt
Ġch imps
um acher
um ption
em pl
em ma
ck et
ous al
ur b
ur ved
Ġint r
ak ash
ak ata
Ġen emy
Ġen comp
Ġex it
Ġex al
Ġex ude
Ġex udes
Ġex empl
ist ence
ist ingu
Ġse ams
Ġse eds
Ġse lection
Ġse gment
Ġse rene
Ġhe ck
Ġhe ist
Ġhe ated
Ġhe ft
Ġhe aling
Ġhe els
ant ed
ant et
Ġnot ably
ive ka
rom e
est ed
est eem
if orn
Ġha pless
ĠB ed
ĠB ol
ĠB us
ĠB ab
ĠB ook
ĠB ale
ĠB ub
ĠB illy
ĠB alk
ĠB ander
ĠB irds
ĠB ogdanovich
ĠB ranagh
ĠB ielinsky
Ġdo d
Ġab ilities
art ic
Ġsh o
Ġsh ri
Ġsh all
Ġsh own
Ġsh aking
Ġsh aring
Ġsh rugg
Ġsh ades
Ġsh ared
Ġsh ifts
Ġun ch
Ġun end
Ġun ac
Ġun leas
Ġun imp
Ġun cond
Ġun known
Ġun symp
Ġun affected
ain ted
ell s
ell ingly
ell ows
ell ini
Ġcon quer
Ġcon verted
Ġcon noisse
Ġde ce
Ġde lect
Ġde volves
ĠM o
ĠM ol
ĠM olly
ĠM ars
ĠM ira
ĠM ey
ĠM ement
ĠM oney
ĠM ax
ĠM ask
ĠM uccino
Ġsc ant
Ġsc rap
Ġsc orn
Ġsc ams
Ġsc atters
ĠA b
ĠA us
ĠA ust
ĠA pt
ĠA sh
ĠA IDS
ĠA fterschool
ĠA ctress
Ġne ck
Ġne uro
ĠC Q
ĠC an
ĠC op
ĠC atch
ĠC old
ĠC ub
ĠC ele
ĠC arre
ĠC ont
ĠC ox
ĠC ockettes
act ory
Ġj ar
Ġj ok
Ġj ett
Ġj ugg
Ġj udge
Ġj umbo
Ġj azzy
ig e
ig est
ig rant
ust y
Ġby gone
Ġso ot
Ġso ars
Ġso rely
ood le
pp le
pp ingly
pp led
ĠH al
ĠH el
ĠH us
ĠH ere
ĠH olly
ĠH arm
ĠH erm
ĠH uman
ĠH itler
Ġpro st
Ġpro ving
Ġpro ced
Ġpro of
Ġpro wess
ff y
and re
and id
and ered
Ġwor rying
Ġpl atter
Ġpl uck
Ġpl anet
ud ios
ĠI an
ĠI nt
ĠI gby
ĠI wai
ĠI chi
ind ulg
Ġall usions
ĠD ri
ĠD oo
ĠD irector
ĠD oes
ĠD rew
ĠD emme
ĠD iane
ĠD ante
Ġfe ces
os h
os i
os eless
ter ly
Ġpre sc
Ġpre val
Ġpre teen
Ġpre gn
Ġpre jud
op era
ard e
ack les
ack aged
Th ink
Th orough
Th rowing
Ġper ple
Ġper col
Ġper funct
Ġper ils
Ġper vasive
Ġr an
Ġr ut
Ġr ue
Ġr ans
Ġr haps
Ġr otten
Ġr ushed
Ġr umination
ĠW ant
ĠW ert
ĠW ang
ĠW here
ĠW onder
ĠW els
ĠW alt
ĠW elcome
ĠW eeks
ĠW iseman
ĠW aiting
ĠW esley
ĠW idowmaker
ie ver
pl ed
pl ate
Ġor deal
ong ru
Ġk ook
Ġk ink
Ġk iss
Ġk itten
Ġk ung
Ġk illing
Ġk itc
Ġv on
Ġv ary
Ġv oid
Ġv aude
one ly
Ġim b
Ġim perfect
ĠP A
ĠP B
ĠP as
ĠP ap
ĠP ear
ĠP atch
ĠP elling
ĠP aid
ĠP ray
ĠP ucc
ĠP romises
ĠP ossession
ĠP adre
og g
og en
ĠF ab
ĠF irst
ĠF emme
ĠF essenden
ĠF ields
ĠF ontaine
Ġout we
Ġout bur
Ġout shine
Ġout takes
ab i
ab oo
ab olical
res nad
end iary
ĠR ac
ĠR ib
ĠR ub
Ġcl o
Ġcl ad
Ġcl am
Ġcl one
Ġcl aw
Ġcl ub
Ġcl apt
Ġcl osed
Ġcl aim
Ġcl aims
ap on
ap ed
ap se
ap hys
od ies
od ox
ĠG U
ĠG oy
ĠG ian
ĠG ai
ĠG illiam
ĠG othic
ĠG aghan
ĠG ondry
ĠG arcia
ĠG eor
Ġfun ctions
ĠT u
ĠT ake
ĠT ang
ĠT alk
ĠT rem
ĠT erry
ĠT oots
ĠT oro
ĠT avern
ĠT ouched
ĠT olkien
ick y
Ġle ather
Ġle aps
Ġle aven
Ġle aks
Ġle aky
ine ering
ĠL at
ĠL an
ĠL ag
ĠL os
ĠL ost
ĠL ock
ĠL ives
ĠL etter
ĠL ucy
ĠL olita
for man
Ġsp o
Ġsp out
Ġsp ine
Ġsp iff
Ġsp ins
Ġsp ider
Ġsp ik
ict or
Ġtr uck
Ġman aging
reat ening
Ġup set
Ġqu een
Ġqu aint
ac le
ac oy
ac ob
Ġno isy
ĠJ r
ĠJ et
ĠJ un
ĠJ ie
ĠJ ia
ĠJ ank
ĠJ eline
ĠJ esus
ĠJ acob
our y
our ces
our nal
Ġfl ag
Ġfl ip
Ġfl av
Ġfl owers
Ġfl attering
au x
au ghe
Ġany more
th at
th ouse
th irds
th roat
th reatening
Ġad age
Ġar m
Ġar ro
Ġar ms
Ġcomp rehensible
Ġwill s
Ġwe bs
ne ck
ne ath
Ġent ers
Ġwork out
ĠThe n
ĠThe ater
ĠThe atre
Ġover d
Ġover view
Ġover stated
Ġover cook
Ġover heated
Ġwhe e
Ġwhe els
ond e
iz er
iz ens
Ġperfor mer
Ġperfor ming
ĠN ine
ĠN air
ĠN orton
ĠN oyce
ĠN ettelbeck
ĠN BA
ound s
Ġpo le
Ġpo se
Ġpo ised
we ig
Ġway downtown
Ġhum ble
Ġhum ans
ish ly
de ep
ide o
Ġwhat so
int o
int ed
int erest
ip ulative
ip herable
ĠE pps
ĠE lysian
Ġsl ide
Ġsl ug
Ġsl opp
Ġsl ender
Ġsl edge
ĠK im
ĠK ate
ĠK ings
ĠK ang
ĠK now
ĠK ane
ĠK athy
ĠK wan
ĠK aren
ĠK ubr
ĠK nockaround
ĠK ouyate
Ġam ple
Ġsub stand
Ġsub conscious
Ġbl iss
Ġbl ows
Ġbl uster
Ġbl ithe
Ġbl axploitation
Ġdis com
Ġdis orient
Ġdis cont
Ġdis cipl
Ġdis regard
oc ious
oc ated
oc lastic
Ġra g
Ġra h
Ġra pe
Ġra cy
Ġra ising
Ġra gged
Ġra ging
Ġri b
Ġri g
Ġri v
Ġri pping
Ġend ings
Ġend uring
Ġme gap
Ġtw addle
Ġevery where
Ġreal ities
Ġreal izing
Ġreal izes
Ġund istingu
pect ing
ions hip
Ġlif el
Ġlif etime
Ġimp erson
Ġimp ossibly
Ġsur ve
ru ly
Ġvi r
Ġvi v
Ġvi be
old en
Ġbad ness
Ġins istent
Ġins ignific
Ġdes ert
Ġdes iccated
Ġdel usions
Ġca f
Ġca ustic
Ġwas hed
Ġte a
Ġte asing
Ġte eming
Ġscreen plays
Ġro se
Ġother world
Ġser v
Ġsm ear
Ġsm oot
Ġsm iling
Ġsm irk
Ġres orts
Ġres erved
gin ners
Ġ1 6
Ġ1 70
ĠCh anging
ĠCh amber
Ġag ree
Ġag enda
Ġag onizing
Ġcont act
Ġpart ner
urn ed
Ġheart ache
Ġtra p
Ġtra ct
Ġtra ffic
Ġbr ash
Ġbr ush
Ġinterest s
Ġunder nourished
Ġunder neath
vent ful
vent ually
Ġrec ite
Ġrec alls
iv ated
Ġown ers
Ġcharacter istic
Ġcharacter ized
Ġcharacter istically
hes is
aw ed
oss essed
ob ber
ĠO zpetek
ĠO lymp
ran os
Ġbig ot
Ġnew fangled
Ġaw ry
umb led
Ġshow down
ather ine
Ġche ery
Ġche eky
Ġdoc u
Ġdoc uments
iss et
Ġinc apable
Ġinc ongru
Ġinc endiary
Ġrel ating
Ġrel iable
Ġrel iance
Ġrel atives
Ġdown ward
Ġkind s
up id
Ġmight y
In ter
Ġatt ent
Ġatt ending
Ġatt ached
Ġfar m
sy n
sp orts
Ġapp lies
Ġgra in
Ġgra du
Ġview s
Ġview point
ars ky
Ġlaugh ably
az a
az ed
az ingly
Ġback ed
Ġback yard
arm ingly
Ġgr ate
Ġplay wright
ginal d
ltim ate
Ġset ups
Ġexc l
Ġmess ing
Ġhuman e
Ġhuman ly
uff y
uff le
uff aw
here al
Ġori gin
Ġori gins
Ġgl ow
Ġgl ad
Ġgl itz
Ġpers uasive
Ġcare ers
Ġstr ings
Ġstr ung
Ġmus h
Ġcreat ively
Ġgu ide
ĠSt ates
ĠSt reet
ĠSt udios
Ġdec or
Ġdec ision
Ġacc la
Ġacc uracy
Ġext ends
Ġext ensive
Ġpr iceless
Ġdist ress
Ġdist anced
Ġform s
Ġform al
Ġexpl or
Ġexpl ain
Ġexpl ains
Ġexpl icit
Ġshe ll
Ġref ined
Ġref use
att ane
Ġfin ished
Ġpower fully
Ġappe als
Ġappe aring
Ġappe ared
Not es
Ġwere wolf
Ġcr ush
Ġcr ashing
gu ably
Ġspec ulative
Ġspec imen
Ġrep ug
Ġrep ulsive
Ġgener ated
Ġgener ations
ins elt
ins ki
Ġcol umn
fl uous
Ġ2 4
Ġ2 6
Ġafter thought
Ġbit es
Ġdra ined
Ġdra gged
Ġbu oy
Ġbu bble
Ġel bows
Ġes pion
Ġmem orial
ĠV er
ĠV ery
ĠV egg
asc uline
Ġyoung sters
Ġinst ruct
Ġdial og
Ġintellig ently
con cept
ove red
Ġperson as
For get
Ġmel t
icul ate
amp ires
ĠSe cond
Ġclass ified
iar ies
Ġsex ually
Ġaff able
Ġaff irm
Ġsuper hero
Ġsuper fluous
ĠSp ader
ĠSp recher
Ġ19 40
Ġtou g
Ġele vate
Ġchild ish
Ġhand ed
Ġhand ic
Ġhand ling
Ġhand les
rid ge
Ġbelie f
Ġabs ence
Ġanim al
Ġmusic ians
Ġpain ting
Ġpain ted
Ġterri f
Ġfascin ate
Ġfascin ated
Ġfascin ates
Ġdem ograph
Ġexp ands
Ġexp anded
Ġeffort less
co pe
co res
co aster
Ġed ition
Ġput rid
ĠSh rek
ĠSh afer
ĠBl oody
ric hed
Ġlight s
Ġlight ly
Ġworks hop
Ġmed icine
Ġune ase
Ġune asily
Ġune ventful
Ġfail ings
Ġmor ose
Ġmor onic
Ġinter ludes
odram a
Ġcinematic ally
Ġdef ine
Ġdef iantly
Ġtrans ition
Ġtrans gressive
Ġnarr ation
Ġstra nds
Ġpsy ched
Ġpsy che
Ġph on
Ġlast ing
St ay
St ale
St ephen
Ġsusp ension
Ġuns us
Ġuns uccess
Ġsw ay
Ġsw ipe
Ġsw itches
Ġsad ism
ĠU p
ĠU ltimate
Ġcomm ended
Ġcomm ands
Ġcomm itment
ĠSc ience
ĠSc hepisi
Ġexpect ing
Ġengag ingly
off s
Ġmar red
Ġbra zen
Ġpop ulation
Ġret al
Ġret reat
Ġret elling
ĠBe ach
ĠBe ginners
Ġconf ron
Ġconf ines
Ġconf ined
Ġconf usion
Ġobvious ness
Ġstrong est
Ġpsych ic
Ġpsych opath
Ġsure fire
Ġop s
Ġhead ed
ortun e
und rum
ann is
Ġstar ing
Ġstar red
Ġtrag ically
Ġsatisf ied
Ġsatisf actory
ec ent
ec uted
Ġcar ved
Ġcar rying
Ġfact s
Ġreason able
Ġmiss ion
Ġprof ession
Ġwin ners
Ġcou ples
Ġcou pled
Ġbo iler
Ġbo ils
Ġbo isterous
Ġbo orish
ĠCl ose
ĠLe vy
Ġquir kiness
Ġass et
Ġpar ad
Ġpot bo
Ġdi versity
Ġdi abolical
Ġmoder ately
ĠNew s
ĠNew ton
Ġsubt ler
Ġdramatic s
Ġdelight ed
Ġoper atic
Ġprom otes
Ġsuccess es
Ġsuccess or
cent er
Ġtreat ed
Ġtreat ise
Ġhelp ing
At tal
Ġ9 3
Ġ9 4
Ġsou p
Ġine ff
Ġocc ur
Ġocc urs
Ġconst raints
ient ious
Ġdev ote
Ġflaw less
cl usive
go ers
Ġcam arad
urd ened
Ġdumb ness
ĠSte wart
Ġval id
Ġval iantly
ĠRe al
ĠRe ese
ĠRe venge
ĠRe ginald
ĠRob inson
Ġstyl ist
Ġstyl ings
Ġgri e
Ġgri p
Ġreve rence
ĠAl iens
ĠAl mod
Ġadvent ures
erv ice
Ġread ily
ĠAn a
ĠAn na
ĠDis covery
Ġaffect ed
Ġaffect ation
Ġve ins
Ġnor mal
Ġsuff icient
osed ly
All en
Ġday dream
Ġnon con
Ġnon jud
ulg ar
Ġemb ell
Ġinf initely
Ġmot or
Ġmot ives
Ġrest s
Ch illing
Ch arming
Ch icago
sh ow
sh od
sh oot
Ġsn ap
Ġsn ore
Ġsn ail
Ġfan atics
oud s
Ġreg ister
Ġreg ards
Ġreg urg
Ġur gent
Ġoccas ion
Ġfound ation
Ġstri p
ĠBar rels
Ġquick ie
Ġdetail ing
Sh akespeare
Sh anghai
ai ian
ĠSch umacher
ĠSch weig
Ġexam ples
Ġsecond hand
We ird
Ġmet al
Ġmet aphys
Ġforget s
Ġconcept ual
ĠAr arat
Ġappro ached
Ġappro aches
af ing
gr ass
Ġ8 4
Ġ8 7
Ġair s
Ġair less
Ġcap ability
Ġgrow th
Ġcomb ust
Ġpoet ically
Ġexplo its
Ġexplo iting
Ġhilarious ly
Ġconvin cingly
Be en
Be ing
Be comes
Ġmin us
Ġmin imum
Ġwind ows
Ġinv itation
Ġinv ites
Ġdeath s
Ġprov oc
ĠIs le
Some where
Some how
Ġdream ed
Ġdream like
ĠHar rison
Ġesc ort
Ġcor pse
Ġbal ances
Ġdam ning
ĠCr imen
Ġtwist y
Ġtwist ing
Ġdelic iously
Ġachie ved
Ġav ant
Ġav alan
Ġav ailable
ĠMy stery
Ġaut o
Ġaut op
Ġaut obiographical
Ġder ives
Ġder ived
ĠBrit s
Ġunt alented
Ġunt urned
Ġapproach ing
Ġfig uring
Ġfig ured
Ġcost ly
orm ously
Ġparent al
Ġgent ility
Ġgent eel
Ġprocess ed
ĠDa vies
Ġroll ed
Ġopen ed
nect ed
Ġinvent iveness
Ġthoughtful ness
Ex pect
Ex actly
bl ance
Ġtheat res
Ġwa its
Ġcount s
Ġintim id
Ġexist ing
ĠAm ÃĥÆĴÃĤ
ĠAm bro
ĠII I
Ġpresent ing
Ġver ge
Ġast ron
Ġful filling
Ġfoc uses
Ġdest ructive
Ġdest roy
Ġdig it
Ġforg iven
Ġforg iveness
ĠAd rian
Ġrout e
Ġoffer ings
Ġquestion ing
Ġ4 8
Ġtyp ically
Ġpurp oseless
Ġshoot s
ĠMc Dowell
ĠMc Kay
ĠGod zilla
Ġrespect s
Ġrespect ful
Ġincl ination
Ġfrustr ated
More tti
Ġess ay
Ġtest imon
Ġcond itions
Ġcond ensed
Ġnone xistent
Ġhaun ts
ĠBig elow
Ġfav ored
ĠSteven s
Ġconflict s
Ġcelebr ated
zz zz
Ġer rors
Ġcrit ique
Ġcrit icism
alt a
Ġkn ot
gra ve
Ġing rat
real ist
Ġfore most
ify ingly
Ġconnect ed
ĠMon te
Ġplain ly
handed ness
Ġfre ight
Ġfre quent
Ġfram es
Ġmad cap
Ġcoll ide
Ġpun ches
Ġrevel s
Ġvar iations
Ġemp ire
Ġtriumph s
Ġtriumph ant
ĠYork ers
Ġmer cy
Ġden y
Ġden ou
Ġden izens
Ġlab el
Ġlab orious
ister ingly
Ġimm ers
Ġimm ense
Ġimm ature
Ġimm igrant
ĠPl ace
Ġspark s
Ġspark les
Ġroad s
Ġsupposed ly
Ġfall en
Ġcross es
Ġpub l
Ġhip ness
Ġmother hood
Ġsuggest ing
Ġsuggest ion
Ġdog s
ĠDan ish
ĠDan ang
ĠGu ard
Ġdesc ends
Ġdeterm ine
Ġaccompl ishment
ugg ery
Ġann als
Ġmoviego er
Ġclos est
Ġclos ure
Ġground s
Ġground ed
Ġground breaking
ĠQu ills
ĠQu inn
Ġidi ot
De ep
De ath
col ored
Ġname ly
Ġred neck
Ġcomfort ably
ĠMar g
ĠMar gar
ĠWe aver
ĠWed nes
Ġmanner isms
Ġamaz ement
Ġrock et
Ġconstruct s
Pl od
head s
Ġwild life
Ġbright ly
orrow s
Ġlim itations
Ġexh ib
Ġfear lessness
ĠGood all
Ġskin ny
Ġtick ets
Ġaim lessly
Ġsick ening
Ġmil est
Ġwond ered
Ġwond rous
Ġcal ib
Ġham my
roll s
Ġcommer ce
Ġunin itiated
ĠAt lantic
Ġrive ted
Ġrecord s
Ġimaginative ly
Ġeleg iac
ĠUn ited
Ġinclud ed
atur ity
Ġfright en
Ġmid way
Ġmid life
Ġwise ly
Ġhot dog
Ġintro spective
Ġencou rage
ĠDog ma
Ġcheck ing
Ġrepres ented
Ġportray ed
Ġportray als
Ġdemonstr ation
Ġdemonstr ating
Ġmarvel ously
Ġinex orably
Ġsuperficial ity
lo ving
Ġtur bul
Ġcirc le
Ġcirc us
Ġcirc les
Ġdom inated
Ġhyp ed
Ġeth os
ĠSw imming
Ġdisc ourse
Ġsurvi ving
Ġsurround s
Ġsurround ed
Ġsurround ings
Ġresp ond
Ġexcess ively
Sc reen
Sc ooby
Sc herfig
Ġsch iz
Ġmach in
ĠSm oking
ĠHol ofcener
Ġcompet ition
Ġroot ed
ĠOr d
ĠOr gasm
ĠOr chard
Ġcourage ous
Ġembarrass ing
Ġsleep ing
Ġcommercial ism
Ġeccentric ity
Ad m
Ad ults
Ad aptation
tain ment
Ġign ites
Ġtiresome ly
Ġswe pt
Ġswe ep
Ġdim in
Ġbeat en
Ġunre pent
ĠCar ol
ĠRen ner
ĠTra pped
Ġspook iness
Ġtrick y
Ġadoles cence
Ġweight less
Ġmusical s
Ġconsid ers
Ġaccept ing
Ġaccept ance
Le aves
fun ction
Ġtour ists
Ġopt s
Ġopt ion
Ġwry ly
Ġstir s
Ġstret ch
Ġconce al
ĠMor gan
Ġneg lig
Ġneg otiate
Ġplod s
ĠFrank enstein
ĠGl over
ĠLa ure
Ġspot light
Ġcompassion ate
Ġcontra st
Ġirre ve
Ġirre voc
Ġsignific antly
Ġdescri bes
Bl ade
Bl anc
En joy
En igma
En ormously
Good ing
Ġsol ace
Ġfac ial
Ġmat ched
Ġmill enn
Ġphys ically
Ġrend ering
Ġasp ires
Ġliber ation
Ġalien ate
Ġalien ating
ĠNot orious
Ġ199 5
Ġ199 8
Ġ199 9
ropri ate
Ġinept ly
ĠQue ens
Con aughe
Ġ7 2
Ġram p
Ġtack y
Ġpus hing
Ġhide ously
ĠBur r
ĠBur kin
ĠBur stein
ĠPal estinian
Ġclim ate
Ġoverwhel ms
Ġoverwhel med
Ġtravel ogue
Ġrecyc les
Ġgrim ly
Ġreflect s
Ġ195 2
Ġembra cing
Ġsplend or
Americ ans
Se agal
Ġcame o
Ġcame os
Ġpri de
Ġpri vile
Ġdys function
Ġgames manship
Ġsun k
Ġdecept ions
ĠMi ami
ĠMi yazaki
ĠAf ghan
ĠCon an
plo e
Ġvol ume
Ġvol umes
ĠRed grave
Ġremain ing
Ġ11 0
Ġpaint ings
Ġtransp arent
Ġtransp arently
Ġprofessional s
produ ction
Ġmotiv ation
Ġcruel ly
Ġnostalg ic
Ġten or
Ġten acious
Ġtun es
Ġment ality
Ġwat ches
Ġbri o
Ġpile up
Ġgrown ups
Ġcompl ain
ĠSon ny
Ġexha ust
Ġunw ieldy
ĠCra ig
ĠCra ven
Ġkne e
Ġvulg arity
ĠGra ham
Ġsmo other
Ġbackground s
Ġexplos ive
Ġ198 0
Ġ198 2
Ġ198 4
Ġcrack le
Ġcondition ing
Ġfool ish
Ġmal aise
Ġcate gor
Ġbaff led
Ġthreat ens
Ġna vel
Ġna ÃĥÆĴÃĤ
Ġgro ove
Ġens n
Ġens ures
ĠBart lett
ĠHay ek
ĠHaw aiian
ĠLil ia
ĠJul ia
Ġobsc ured
Ġmyth ology
Ġappropri ately
Ġdistingu ishes
Ġrespons ibility
Ġinflu ences
Ġinflu enced
Comp lete
Int eresting
Qu ite
Qu itting
fest s
Ġtempt ation
Ġmount ed
Ġmount ain
Ġcry st
Ġet hereal
Ġearn ed
ĠSn atch
ĠBer n
ĠImp ostor
Ġru ined
Ġris ky
Ġimmedi acy
ĠCharl otte
Ġrelig ion
Ġideal istic
Ġsatir ic
Ġwitness ed
Ġinev itably
Ġhandsome ly
ĠAfric a
ĠDickens ian
Br illi
Me andering
Sl ow
Sl ap
Where as
not ically
Ġtor por
Ġtor mented
Ġtend ency
Ġmass es
Ġmass ive
Ġbou nces
Ġbed e
Ġboo bs
Ġda ft
Ġlos ers
Ġluck y
Ġluck iest
Ġeconom ic
see king
ĠBel gium
ĠMag nol
ĠMag imel
ĠColl inwood
ĠHot el
ĠDen zel
Ġpress ure
ĠWell es
Ġclot hing
Ġupd ate
Ġupd ated
Ġblow ing
Ġrob ust
Ġartif act
Ġaware ness
Ġterm inally
Ġdistract ing
Ġdistract ed
Ġmaintain ing
Ġjournal ist
Ġsubstit utes
Ġsophom ore
Ġcalcul ating
ĠSugar man
Cont ains
tr ick
Ġod or
Ġfrag ment
Ġmas quer
Ġmas ala
Ġcorn ers
Ġbomb astic
Ġborder ing
Ġpark ing
Ġlad ies
Ġho ary
Ġsuit ably
ĠSar ah
ĠMus ket
Ġscrew ed
Ġjol t
Ġjol ting
Ġjol ts
Ġsoci ology
Ġsoci opath
ĠGos ford
ĠEd ward
Ġdisg ust
Ġresol utions
ĠOli vier
Ġindic ation
Ġindic ates
Ġdepict s
Ġcontempl ation
Ġexistential ism
Ġcontradict ion
Ġinhabit ants
Bar ney
no ir
oe pp
Ġtem per
Ġsand w
Ġsne aks
Ġmur k
Ġwound s
Ġdil emma
Ġtoler ate
Ġtoler able
Ġtoler ance
Ġlun atic
Ġanch or
Ġsudden ly
Ġexuber ant
Ġsepar ation
Ġunbelie vably
Ġconj ured
Ġconco ct
Ġconsequ ence
Ġprev ails
Ġperpet ual
Ġperpet rated
Ġvast ly
ĠGener al
ĠLi u
ĠLi otta
ĠJan uary
ĠJess e
ĠJacqu es
Ġsubpl ot
Ġdramat ization
Ġcontrovers ial
aware ness
Ġclean er
Ġguarant ee
Ġexperiment ation
Ġdeliber ately
Ġiron ies
ĠLeon ard
Ġicon oclastic
Ġgimmick y
Ġenvironment al
Ġphenomen on
Ġspontane ous
God ard
aim i
Ġtre es
Ġtre acher
Ġtread ing
Ġske wed
Ġcro sso
Ġbre ed
Ġbot hered
Ġbow el
Ġinsec urity
Ġlaw s
Ġgre edy
Ġgle efully
Ġgle aned
Ġgigg le
Ġanarch ic
Ġyawn ing
ĠSo ft
Ġchore ography
Ġenh ance
Ġenh ances
Ġsecret s
Ġsevere ly
ĠBrid get
ĠMiche le
ĠMichel le
Ġscr ut
ĠAss ayas
ĠCa esar
ĠHitchcock ian
Ġorgan ic
ĠRes ident
ĠTun is
ĠTun ney
ĠTuck er
ĠJe ong
Ġfles hed
ĠKos minsky
ĠKenn eth
Ġteacher s
Ġparticip ants
Ġcondesc ension
Ġschmalt z
ĠWester ners
Bo asts
Mc Kay
Murder ous
Pret ty
aa aa
low icz
pic ious
Ġfren zy
Ġfren etic
Ġfuri ously
Ġcock y
Ġdiv a
Ġdoll ar
Ġrev ulsion
Ġabund ant
Ġconcent rates
ĠMat tei
ĠCal iforn
ĠCamp anella
ĠDi ary
Ġpred icament
Ġimplic it
Ġimplic ations
ĠPe ploe
ĠFran c
ĠRom anek
Ġspr ink
ĠJu an
ĠJu wann
Ġovert ly
Ġoverst uffed
Ġtrav ails
Ġtrav esty
Ġunderc uts
Ġrecon cil
Ġrecreat es
Ġnewcom ers
Ġindulg ence
Ġelect ric
Ġdefe ated
Ġdefe ats
Ġoppressive ly
Ġmadd ening
Ġsacrific ing
Ġneglect ed
Ġarchitect ure
Conf essions
Ġblockb uster
Une ven
turn er
Ġton al
Ġtiss ue
Ġtiss ues
Ġfi end
Ġfond ness
Ġfundament al
Ġpupp et
Ġtooth less
Ġhipp ie
Ġster ling
Ġstif ling
Ġstalk er
Ġbutt ons
ĠBu ÃĥÆĴÃĤ
ĠBor stal
ĠMaid s
ĠAlt ar
ĠAlt man
ĠAbb ass
ĠCo en
ĠIm amura
ĠDel h
ĠWat ers
Ġvic ious
Ġvac uum
Ġvulner able
Ġvulner ability
Ġouts iders
ĠLo hman
ĠLim an
ĠLiz a
ĠLiz ard
Ġtroub led
Ġmanifest o
Ġque ens
Ġque asy
Ġadrenal ine
ĠEr rol
Ġblur ry
Ġrac ist
Ġrac ism
Ġimpul se
Ġimpul ses
Ġinsuff erable
ĠChai ken
Ġpartners hip
Ġincarn ation
Ġindiffere nt
Ġindiffere nce
Ġunfold ing
Ġmonument al
Ġnorm ally
Ġoppos ite
Ġunexpl ored
Exc iting
Ġdisturb ingly
ĠAnton ia
Ġheartbreak ingly
Ġhealth y
Ġsymbol s
absor bed
absor ption
Ġunrelent ing
Ġunrelent ingly
Ġalleged ly
Ġtumult uous
Ġaccompan ying
Comb ines
Den is
Dog town
Ren ner
Rom anek
Ter rific
Und er
dro ppingly
hou ri
press ible
sm art
suff ering
Ġtact ics
Ġapl omb
Ġfif teen
Ġmuse um
Ġwallow ing
Ġcri ppled
Ġcram med
Ġcath artic
Ġcarn age
Ġbank rupt
Ġpomp ous
Ġinquis itive
Ġlur king
Ġnin ety
Ġgam ble
Ġintol erable
ĠBM W
Ġconsc ience
ĠMal colm
ĠAy urved
ĠAustr alia
ĠAlex andre
Ġjer king
Ġprofic ient
ĠInter view
ĠDoug las
Ġruth less
ĠPy thon
ĠPat ric
ĠFri el
ĠRat liff
ĠRay mond
ĠGall o
ĠGriff iths
ĠLook ing
Ġsporad ically
ĠJose ph
Ġadvert ised
Ġcomprehens ion
Ġlob by
Ġcann ibal
Ġoverlook ed
ĠEis enstein
Ġslipp ery
Ġriff s
Ġprin cess
Ġprincip als
Ġcoinc idence
ĠSept ember
Ġswashbuck ling
Ġsadd led
ĠScar let
Ġbrav ura
Ġparalle ls
Ġsumm ertime
Ġobser ve
Ġcapital ize
Ġexecut ive
Ġvirtu osity
Ġautom atically
ĠAmar o
Ġhomosexual ity
Ġcandid ate
Ġconspic uous
Ġpanor amic
Ġhallucin atory
Ġnarciss ism
Ġdiscern ible
Ġdisintegr ating
Secret ary
congrat ulatory
Ġsabot aged
Bro snan
Direct ors
Hilar ious
Mat tei
Rep resents
Us ing
bod ied
dra wn
satisf ied
uh rman
Ġsau cy
Ġpad ding
Ġpris m
Ġdizz ying
Ġtom orrow
Ġinadvert ently
Ġlaud able
Ġhors es
Ġnic est
Ġrese arch
Ġrelev ance
Ġanth rop
olst ered
Ġsus pected
agen arian
Ġenvelop ing
Ġencount ers
Ġexter ior
ĠBic ycle
ĠBroom s
Ġunco vers
Ġunmist akable
Ġunreal ized
Ġunknow able
ĠMak hmalbaf
Ġscand al
Ġscru ffy
Ġschem es
Ġjud gment
iguch i
ĠHub ert
Ġplat itudes
Ġpreced ed
Ġperil ously
Ġrhet oric
Ġkits ch
ĠPry or
ĠForm ula
Ġoutd ated
ĠGay ton
ĠGant z
ĠTon ight
Ġflound ers
Ġadroit ly
Ġarbit rary
Ġentran ced
ĠEaster n
Ġrauc ous
Ġunderest imated
Ġagit prop
ĠOp rah
Ġawak ening
Ġstrate g
ĠStall one
Ġextrem es
Ġpronou nce
Ġcrushing ly
Ġhistor ically
Ġhistrion ics
Ġinstit ution
Ġdepra ved
Ġanimat ronic
Ġepip hany
Ġswagg ering
ĠScreen writing
Ġmonstr ous
Ġcaric atures
Ġassass ination
Ġparan oid
Ġmisogyn istic
Ġfrot hy
Ġsuffoc ating
ĠBarb ara
ĠArmen ian
Ġleth arg
Ġanticip ated
Ġgrandi osity
Ġcorrupt ion
Ġimprovis ation
Ġzomb ie
Ġfulf ill
Ġbloods hed
Ġcollabor ators
Ġphotograph s
Ġinexper ienced
Ġturnt abl
Ġsymmet ry
Ġrecogniz able
Ġmasoch ism
Ġvoyeur istic
Ġhypocris y
Ast onishing
Bless ed
Cre ep
Cle ver
Ell ing
Fer rara
Fall on
Frid ay
Hy ang
Hash iguchi
Ir win
Miy azaki
Pagl ia
Sever al
Supp osedly
Wit less
bas ement
curd ling
fr ills
fet ched
fri ends
fram e
foot ed
mout hed
mull er
pra ised
âĢ ļ
Ġiv ans
Ġxt c
Ġtabl oid
Ġaute ur
Ġauster ity
Ġood les
Ġfiness e
Ġcust om
Ġcumbers ome
Ġcuis ine
Ġpran ks
Ġpier cing
Ġpung ent
Ġpadd ed
alys is
aliy ah
Ġdoof us
Ġdaught ers
Ġinim itable
Ġinqu iry
Ġinart iculate
Ġinade qu
Ġinapp ropriate
Ġinvis ible
Ġluke warm
Ġhinds ight
Ġhodge podge
Ġgad gets
Ġgaud y
Ġgeriat ric
Ġresem blance
ĠSop ranos
ĠSwe pt
ĠSomet imes
Ġchoc olate
Ġchapt er
akash i
ĠBander as
Ġshrugg ing
Ġunend urable
Ġunimp ressive
Ġuncond itional
Ġunsymp athetic
Ġdelect able
ĠMey er
ĠMement o
Ġscatters hot
ĠAus chwitz
ĠApt ed
ĠCub an
Ġjett is
ĠHarm on
indulg ence
Thorough ly
Ġperfunct ory
Ġrue ful
ĠWert muller
ĠWels h
Ġkook y
Ġkink y
Ġkitc hen
Ġvaude ville
ĠPelling ton
ĠPucc ini
Ġoutwe igh
Ġoutbur sts
resnad illo
Ġclapt rap
ĠGian n
ĠTrem ors
ĠToots ie
ĠTavern ier
Ġleaven ed
Ġspik ed
acoy annis
ĠJank lowicz
ĠJeline k
ĠJacob son
Ġwebs ite
Ġwhatso ever
Ġsledge ham
ĠKings ley
ĠKubr ick
Ġsubstand ard
Ġdiscom fort
Ġmegap lex
Ġundistingu ished
Ġotherworld ly
Ġincongru ous
attane o
Ġrepug n
inselt own
Ġespion age
Ġpsyched el
Ġpsychopath ic
Ġpotbo iler
Ġcamarad erie
Ġnonjud gment
Ġmetaphys ical
ĠAmbro se
Ġtestimon ial
Ġingrat iating
ĠMargar ita
ĠWednes day
Ġturbul ent
Ġneglig ible
Conaughe y
Ġprivile ged
ĠMagnol ia
Ġcrosso ver
ĠCaliforn ia
ĠJuwann a
ĠAyurved a
1 2
1 5
2 0
2 5
A A
A R
A Y
A re
A ut
A nt
A gg
A lt
A sp
A ustin
A ffleck
A cting
B u
B as
B art
B ond
B ull
B oring
B rown
B ring
B urns
B enn
B ourne
B uy
B elow
B inoche
B orrows
B olstered
C K
C he
C ol
C ity
C lo
C entury
C oppola
C herish
C edar
C antet
C andid
C acoyannis
C attaneo
D V
D a
D re
D ar
D ot
D ol
D ong
D ue
D own
D ead
D aring
D orm
D ivine
D oug
D rumline
E L
E S
E s
E ve
E ast
E ss
E ric
E goyan
E asily
E quilibrium
E nds
E ventually
F K
F ur
F ast
F ear
F red
F ran
F alls
F arl
F iles
F ellas
F ontaine
F ilms
F resnadillo
G M
G en
G ot
G ive
G os
G irl
G oes
G lor
G riff
G aghan
G orgeous
H O
H at
H ay
H ad
H um
H art
H op
H aw
H uge
H aving
H opkins
H mm
H umor
I R
I S
I T
I gn
J a
J on
J ud
J apan
J eff
J agger
J aglom
J olie
K at
K ur
K ung
K wan
L ou
L ow
L ast
L ate
L ame
L iter
L oud
L ee
L athan
L ucy
L acking
L azy
M al
M ed
M ad
M ain
M ust
M ere
M ind
M ac
M ike
M att
M aid
M ildly
M ocking
M oonlight
M erchant
M uccino
M aelstrom
M aggie
N D
N T
N ational
N erv
N ichol
N orton
N elson
N ettelbeck
N olan
O A
O K
O f
O ut
O ur
O ng
O edekerk
O riginal
P N
P e
P h
P s
P al
P un
P urp
P aid
P ray
P arts
P redict
P ersonal
P redictable
P rep
P iccoli
P eter
P romises
P ossibly
P ossession
P sych
Q ue
R ed
R un
R ain
R are
R ice
R ub
R ife
R ey
R ichard
R ifkin
R aimi
S em
S pl
S ade
S ame
S illy
S ets
S itting
S kins
S inks
S kill
S erious
S erb
S chnitzler
S unshine
S cores
S PN
T ou
T im
T ul
T ep
T old
T ends
T ier
T erm
T rying
T rapped
T ells
U m
U t
U pl
U ses
U pper
V erb
V ideo
W r
W il
W oo
W est
W ere
W ier
W inds
W alter
W orking
W iseman
Y C
Y as
Y ak
Z ag
Z hang
a qu
a ults
b i
b re
b ar
b ic
b est
b ial
b itt
b ick
b reat
b ear
b ably
b its
b iting
b opp
b itten
b ags
b iter
b ender
b bly
b ury
b illed
b acher
b ending
b uster
b irth
b olic
b uddy
b idden
c u
c en
c ar
c an
c el
c end
c ertain
c ents
c ase
c utter
c ats
c atching
c uts
c ipherable
d el
d ad
d em
d ain
d ies
d ance
d ingly
d oc
d azz
d ancing
e it
e ers
e ck
e king
e pless
e veloped
e ousness
e uvers
f ive
f if
f ight
f ile
f ting
f irst
f resh
f ront
f ights
f ried
f rey
f essions
f amily
f eed
f ingered
g l
g ers
g ag
g ally
g ate
g ie
g ence
g ram
g ical
g ens
g ru
g ates
g azing
g uns
g arde
h ist
h ome
h old
h ib
h itting
h ole
i u
i vi
i pt
i arly
i ÃĥÆĴÃĤ
i otic
i atory
i versal
j e
j okes
k ies
k ah
k ids
l oo
l ical
l ittle
l ative
l iss
l ied
m om
m ong
m other
m ined
m ouse
m ocking
m util
n s
n u
n en
n om
n ation
n ity
n ame
n ons
n cing
n apping
n ik
o it
o en
o ct
o ast
o cc
o vers
o ft
o que
o ets
p es
p ard
p ie
p res
p oll
p orn
p aste
p osed
p ressed
p hew
p ilot
p olitical
q i
q oy
r us
r ong
r int
r iment
r ously
r antly
r ational
r ote
s le
s ur
s pe
s ac
s our
s pec
s ons
s weet
s que
s aken
s urrection
s lash
s Notes
t at
t ar
t ers
t ag
t ack
t ies
t ish
t te
t old
t ub
t aste
t ied
t imed
t inted
u j
u an
u ent
u ers
u pe
u ate
u pt
u ph
u ced
u agenarian
v ar
v as
v ak
v ory
v ise
v aged
v ella
w s
w he
w est
w ire
w ould
w ind
w ick
w ny
w ide
w ash
w ering
w ins
w ife
w oman
w arned
x es
x pected
x posed
y m
y ingly
y ss
y stop
z u
z er
z or
z an
z il
z ant
z man
z ac
z ens
z huang
z bick
Â ¦
Ġ ut
Ġ ig
Ġ 00
Ġ venge
Ġt ing
Ġt ut
Ġt ad
Ġt ill
Ġt ag
Ġt ang
Ġt ics
Ġt uck
Ġt urd
Ġt reas
Ġt anks
Ġt atters
Ġt ux
Ġt rend
Ġt iring
Ġt ube
Ġt enth
Ġt aboo
Ġa is
Ġa ver
Ġa id
Ġa us
Ġa ust
Ġa ven
Ġa ching
Ġa cer
Ġa ug
Ġa ura
in ate
in ity
in ter
in for
in th
in ating
in ction
in antly
in stein
in quent
he it
he or
he res
he ars
Ġs i
Ġs ire
Ġs ack
Ġs ap
Ġs ult
Ġs ang
Ġs arc
Ġs ending
Ġs ixt
Ġs oldiers
re r
re es
re ra
re ced
re land
re quently
re fle
Ġo st
Ġo ily
Ġo cean
Ġo unce
er ly
er ingly
er ner
er otic
er ring
er ox
er ds
it is
it us
it ful
it ism
it sy
it ially
it ching
it ability
it eness
it ator
it aker
it imate
Ġthe rape
is a
is ation
is ure
is ome
is ical
is ode
is cover
en h
en ch
en ant
en ness
en cer
en ger
en berg
en uous
at i
at o
at man
at ical
at hed
at ement
at eness
at iveness
Ġf us
Ġf and
Ġf ud
Ġf og
Ġf ence
Ġf ier
Ġf rown
Ġf use
Ġf itting
Ġf ury
Ġf lex
Ġf railty
Ġf aint
Ġf oster
Ġf umbles
Ġf idget
Ġf aux
ing es
ing dom
ing enuous
es ky
Ġm ut
Ġm ire
Ġm ast
Ġm ate
Ġm ud
Ġm all
Ġm ail
Ġm ÃĥÆĴÃĤ
Ġm aid
Ġm ouse
Ġm irth
Ġm aze
Ġm asculine
Ġm aturity
nd ry
Ġw ing
Ġw an
Ġw el
Ġw oo
Ġw ire
Ġw ate
Ġw ine
Ġw ary
Ġw int
Ġw ink
Ġw arn
Ġw alls
Ġw reak
Ġw rench
Ġw alt
Ġw isp
Ġw anders
Ġw ester
Ġc ul
Ġc ure
Ġc ake
Ġc res
Ġc ine
Ġc ower
Ġc udd
Ġc ott
Ġc rank
Ġc rossing
Ġc odes
Ġc yl
Ġc ycle
Ġc unning
Ġb om
Ġb ol
Ġb um
Ġb rom
Ġb ind
Ġb our
Ġb ile
Ġb atch
Ġb aw
Ġb row
Ġb ars
Ġb arn
Ġb att
Ġb ows
Ġb ags
Ġb ien
Ġb ung
Ġb ands
Ġb urns
Ġb irth
Ġb urning
Ġb irthday
Ġb ait
Ġb oots
or al
or ant
or ful
or ality
on i
on ce
on ial
on ine
on ne
on ium
ou p
ou vel
ou quet
Ġof t
Ġp ent
Ġp et
Ġp ie
Ġp our
Ġp iz
Ġp int
Ġp iv
Ġp iss
Ġp arr
Ġp ics
Ġp atter
Ġp aste
Ġp ots
Ġp ork
Ġp oses
Ġp acks
Ġp awn
Ġp ray
Ġp icking
Ġp inn
Ġp aved
Ġp etty
Ġp esky
ar oo
ar per
ar ish
ar ches
ar ify
ar ians
ar ios
an a
an ie
an ities
an ze
an ley
al in
al se
al ant
al ty
al ft
al izing
al med
al anced
al uate
Ġth us
Ġth ud
Ġth orn
Ġth resh
Ġth ump
Ġth roat
Ġd ing
Ġd on
Ġd ent
Ġd ough
Ġd ab
Ġd ies
Ġd our
Ġd iz
Ġd ating
Ġd ip
Ġd ice
Ġd ense
Ġd ash
Ġd row
Ġd uck
Ġd ams
Ġd ump
Ġd ances
Ġd orm
Ġd rugg
Ġd ashing
Ġd ared
Ġd ips
Ġd onna
Ġd war
Ġd resses
Ġd itched
Ġd renched
Ġd oting
Ġd arling
Ġd azed
Ġd iaries
Ġd ystop
Ġd itsy
il ay
il ip
il ogue
ed ing
ed ed
ed less
ed uc
ed ded
ic ci
ic ule
ic iency
Ġto e
Ġto pless
Ġin aut
Ġin formed
Ġin just
Ġl ou
Ġl ed
Ġl ion
Ġl ake
Ġl od
Ġl ac
Ġl ore
Ġl int
Ġl ays
Ġl ink
Ġl ane
Ġl ists
Ġl ured
Ġl ett
Ġl uc
Ġl ament
Ġl umber
Ġl uv
Ġl umin
Ġl inking
Ġl oos
Ġl usc
Ġl onely
Ġh ol
Ġh ay
Ġh ind
Ġh og
Ġh ated
Ġh ob
Ġh ug
Ġh ugg
Ġh ij
Ġh ousing
Ġh ouses
Ġh alft
om ing
om pe
om ination
st e
st y
st ic
st able
st ore
st antly
st ring
st icks
st udy
Ġn im
Ġn ap
Ġn our
Ġn oses
Ġn agging
Ġit ch
Ġit em
le an
le ming
Ġis land
ut ic
ut ching
ut ral
ut enant
Ġe ast
Ġe ll
Ġe gg
Ġe arm
Ġe ats
Ġe volution
Ġe volves
Ġe bull
Ġe erily
Ġe uph
el a
el ly
el ical
el ible
el ph
el ode
el ids
Ġg a
Ġg ul
Ġg oo
Ġg um
Ġg ur
Ġg ain
Ġg ust
Ġg all
Ġg ap
Ġg ear
Ġg rit
Ġg ren
Ġg oth
Ġg oss
Ġg ib
Ġg arn
Ġg aps
Ġg ored
Ġg ears
Ġg reas
Ġg onna
Ġg azing
Ġg hetto
Ġg olf
Ġg aining
Ġg aze
Ġg eeks
Ġg hou
Ġg othic
Ġg ogg
Ġg uffaw
Ġmo de
Ġmo pping
Ġmo aning
ent le
ent ertain
ent ura
ot a
ot ally
ot ape
ot hered
ot omy
as o
as se
as ps
ve red
et ed
im ou
im pe
im iz
im ilated
vi ra
vi ant
vi ated
Ġst o
Ġst ad
Ġst ur
Ġst ard
Ġst ab
Ġst are
Ġst ress
Ġst ature
Ġst ates
Ġst ew
Ġst amp
Ġst ones
Ġst inging
Ġst ores
Ġst acked
Ġst abs
Ġst itched
Ġst oked
Ġst ooping
Ġst uttering
Ġst oops
Ġst upe
Ġre j
Ġre vi
Ġre ver
Ġre ign
Ġre ek
Ġre quis
Ġre leg
Ġre written
Ġre affirming
Ġre think
Ġre enact
Ġre birth
ra d
ra ult
ra ord
ra king
ra ising
ra ppy
ra qi
gh iu
Ġu h
Ġu pt
ver ick
ver ance
ver bial
Ġbe ast
Ġbe gan
Ġbe acon
ul an
ul ent
ul ity
ul ge
ul ately
ul ford
ch rit
ch ored
ch mark
ch anges
ro ying
ro vised
Ġfil ler
Ġfilm goers
Ġan at
Ġan te
Ġan onymous
Ġan xious
Ġan alysis
Ġy ield
Ġy ellow
Ġy ields
Ġas yl
Ġas leep
ith ing
ith metic
ri x
ri ad
ri ers
ri ble
ri pe
ri ft
ri be
ri dd
ri ously
ri but
ri bed
ri kes
ri eve
ol ing
ol ed
ol and
ol od
ol ved
ay ed
ke ys
ad ies
ad ia
ad ows
ad vised
ad emic
ad elph
Ġfor t
Ġfor um
Ġfor go
Ġfor ged
Ġfor bidden
Ġfor saken
Ġwith stand
vie zel
ess es
ess ly
ess el
ess ential
se in
se ason
se cond
Ġbut ler
Ġwh ist
Ġwh iff
id ered
Ġcom ments
ir s
ir sh
ir ley
Ġmovie makers
ers son
ers uasive
am er
am ation
am less
am ount
am ines
am ined
am using
am ored
am edly
am elessly
am uy
Ġli ability
Ġli ps
ill en
ill ers
ill ation
ill ating
ble m
Ġal as
Ġal ter
Ġal oof
Ġal che
Ġal oft
ag i
ag ree
ag ney
ag ues
ag na
un ed
un ct
un gy
ĠS k
ĠS en
ĠS pl
ĠS ab
ĠS oc
ĠS imp
ĠS av
ĠS kin
ĠS alle
ĠS imon
ĠS imps
ĠS isters
ĠS leep
ĠS ingles
ĠS chnitzler
Ġch imes
Ġch oke
Ġch ann
Ġch oking
Ġch illed
Ġch asm
Ġch icken
Ġch amber
Ġch atty
Ġch anged
Ġch afing
um ming
um inated
em ly
em ingly
em porary
em anding
em power
em oto
ck i
ous ed
ur ro
ur man
ur ling
ur bing
ur rect
Ġint ert
Ġint ention
Ġint entioned
Ġint rep
ak ably
Ġen act
Ġen vel
Ġen vious
Ġen li
Ġen riched
Ġen nu
Ġen amored
Ġex change
Ġex changes
ist y
ist on
ist ant
ist ical
ist inct
Ġse pt
Ġse ren
Ġse vent
Ġse cular
Ġse arches
Ġse amless
Ġhe m
Ġhe ars
Ġhe aring
Ġhe inous
Ġhe ctic
ant om
ant asma
Ġnot ions
Ġnot ew
Ġnot ches
Ġnot icing
rom antic
est ry
est abl
if s
qu al
qu ence
qu ies
qu iv
qu acious
Ġha ul
Ġha zy
Ġha voc
ĠB a
ĠB j
ĠB es
ĠB al
ĠB le
ĠB ry
ĠB ens
ĠB ib
ĠB oll
ĠB az
ĠB ates
ĠB ail
ĠB ÃĥÆĴÃĤ
ĠB read
ĠB oot
ĠB uck
ĠB und
ĠB ush
ĠB urd
ĠB ray
ĠB attle
ĠB reaking
ĠB inks
ĠB urning
ĠB ased
ĠB etter
ĠB ette
ĠB reck
ĠB anger
ĠB rett
ĠB ille
ĠB ellini
ĠB isset
Ġdo ings
Ġdo omed
Ġdo ctor
Ġdo zens
Ġab ound
Ġab uses
Ġab hor
Ġab road
Ġab bre
Ġab yss
art ed
art hed
art ee
art warming
ire ly
Ġsh y
Ġsh akes
Ġsh aken
Ġsh atters
Ġsh ores
Ġsh ift
Ġsh attering
Ġsh iver
Ġsh opping
Ġsh abby
Ġsh ambles
Ġsh arper
Ġun l
Ġun ad
Ġun ash
Ġun sc
Ġun its
Ġun att
Ġun eng
Ġun che
Ġun ified
Ġun char
Ġun cover
Ġun orth
Ġun brid
Ġun gain
Ġun aware
Ġun appe
Ġun lim
Ġun think
Ġun ruly
Ġun erring
Ġun impe
ain able
ell ers
Ġcon cess
Ġcon fect
Ġcon ned
Ġcon undrum
ast rous
pe aks
Ġde em
Ġde arly
Ġde vious
Ġde fl
Ġde fic
Ġde af
Ġde alt
Ġde arth
Ġde leted
Ġde viant
ĠM ed
ĠM id
ĠM ind
ĠM ear
ĠM ore
ĠM ass
ĠM ond
ĠM ull
ĠM ason
ĠM unch
ĠM ai
ĠM uss
ĠM af
ĠM erm
ĠM orm
ĠM acy
ĠM arc
ĠM ama
ĠM orton
ĠM aj
ĠM ajidi
ĠM aelstrom
ĠM aggie
ĠM GM
Ġat op
Ġsc or
Ġsc oring
Ġsc ared
Ġsc ratch
Ġsc ribe
ĠA M
ĠA k
ĠA x
ĠA re
ĠA ny
ĠA cc
ĠA dd
ĠA rt
ĠA bel
ĠA aliyah
ĠA poll
ort ed
ort ion
ort hern
Ġne edy
Ġne ore
Ġne phew
Ġne utral
ĠC os
ĠC ard
ĠC ary
ĠC ass
ĠC arn
ĠC hen
ĠC omm
ĠC reek
ĠC add
ĠC ulkin
ĠC amera
ĠC uar
ĠC herry
ĠC atherine
ĠC agney
act o
act ers
act ive
Ġj ost
Ġj abs
Ġj arg
Ġj aunt
Ġj agged
Ġj umbled
ough s
ough out
ig en
ig on
ig an
ig hed
ig ital
ig Zag
us ional
us ively
us queness
Ġby pass
Ġso por
pt om
pp ering
ĠH o
ĠH og
ĠH ook
ĠH int
ĠH orn
ĠH ush
ĠH icks
ĠH ills
ĠH isp
ĠH oly
ĠH olland
Ġpro l
Ġpro ven
Ġpro vin
Ġpro long
Ġpro saic
Ġpro verbial
ff ics
ff ein
ff lÃĥÆĴÃĤ
and led
Ġwor m
Ġwor ries
ight fully
Ġact ivity
ere k
ere r
ere my
Ġpl ag
Ġpl ate
Ġpl ac
Ġpl umb
Ġpl ane
Ġpl ann
Ġpl acing
Ġpl astic
Ġpl umbs
Ġpl umm
Ġpl ucky
ud a
ud os
ud iment
ĠI Q
ĠI ris
ĠI ron
ĠI van
ĠI reland
ĠI raqi
ind er
ind ers
ind uced
ven ly
ĠD or
ĠD ot
ĠD em
ĠD od
ĠD ep
ĠD ark
ĠD ance
ĠD umb
ĠD rid
ĠD rop
ĠD elt
ĠD enn
ĠD ustin
ĠD umm
ĠD yl
ĠD iva
ĠD OA
ĠD erek
Ġfe eds
Ġfe ardotcom
Ġfe eble
Ġfe isty
os o
os er
os al
os uke
os hu
os cope
Ġpre f
Ġpre view
Ġpre ord
Ġpre empt
Ġpre aches
Ġpre dom
op ard
op athy
ard en
all eng
Th row
Th umbs
ial ity
Ġper se
Ġper versity
Ġr ot
Ġr ant
Ġr ally
Ġr ub
Ġr ats
Ġr otting
Ġr ustic
Ġr attling
Ġr udiment
ĠW en
ĠW al
ĠW ally
ĠW ard
ĠW ise
ĠW hy
ĠW att
ĠW ave
ĠW hen
ĠW inter
ĠW erner
ĠW olod
ect er
ie ves
ie ved
ie utenant
pl om
pl us
pl istic
pl itting
pl acing
Ġor al
Ġor ph
Ġor gy
Ġor bits
Ġk ib
Ġk ilt
Ġk ingdom
Ġv at
Ġv ag
Ġv ine
Ġv ile
Ġv oting
Ġv ampires
Ġv essel
Ġim per
Ġim mer
Ġim itating
ge ois
ĠP an
ĠP ic
ĠP ink
ĠP ool
ĠP oot
ĠP ug
ĠP ender
ĠP enn
ĠP ipe
ĠP anic
ĠP sych
ĠP oets
ĠP ompe
ĠF ist
ĠF ast
ĠF ood
ĠF ai
ĠF idelity
ĠF uture
ĠF ellows
ĠF uhrman
ĠF leming
ĠF aso
ĠF antasma
Ġout ward
Ġout run
ab y
ab ilities
ab elle
end ant
end able
end ering
ĠR O
ĠR a
ĠR ome
ĠR ight
ĠR os
ĠR are
ĠR ings
ĠR ug
ĠR ec
ĠR ising
ĠR oses
ĠR ugg
ĠR ingu
ĠR odri
ĠR iver
ĠR ifkin
ĠR IN
ĠR icci
ĠR oland
Ġcl ut
Ġcl out
Ġcl oy
Ġcl icks
Ġcl ients
Ġcl ashes
Ġcl arify
ap ers
od gy
od rome
ĠG a
ĠG ar
ĠG ed
ĠG et
ĠG ro
ĠG ong
ĠG ains
ĠG ene
ĠG oes
ĠG ray
ĠG anes
ĠG reg
ĠG oli
ĠG orgeous
ĠG aza
ĠG heor
ĠG entle
Ġfun eral
ĠT H
ĠT w
ĠT ed
ĠT im
ĠT ur
ĠT ark
ĠT own
ĠT imes
ĠT ian
ĠT aut
ĠT up
ĠT ok
ĠT urp
ĠT ai
ĠT ax
ĠT owers
ĠT ara
ĠT rying
ĠT ales
ĠT otal
ĠT ykwer
ĠT erri
ĠT akashi
ĠT inseltown
ĠT itus
ick et
Ġle ap
Ġle ash
Ġle aning
Ġle vity
Ġle aping
Ġle isure
Ġle onine
ĠL in
ĠL it
ĠL es
ĠL ate
ĠL ear
ĠL ars
ĠL ights
ĠL ola
ĠL athan
ĠL ucky
ĠL illard
ĠL adies
ĠL ieutenant
for ced
for mist
are cki
Ġsp it
Ġsp un
Ġsp its
Ġsp unk
Ġsp awn
Ġsp ray
Ġsp ending
Ġsp arring
Ġsp unky
Ġsp arse
Ġsp utt
Ġsp ouses
Ġsp ousal
ict s
ict ed
man like
man nered
man ipulative
Ġtr ou
Ġtr un
Ġtr ots
Ġtr imm
Ġtr imming
Ġtr otting
Ġtr uffle
Ġtr iteness
Ġman ual
Ġman hood
Ġman ager
Ġman iac
Ġman euvers
ert ical
Ġup side
Ġup hill
Ġup scale
Ġqu art
Ġqu ib
Ġqu iver
ac ular
ac ency
nt hetic
ram s
Ġno vella
ĠJ FK
ĠJ eremy
Ġfl ight
Ġfl op
Ġfl ies
Ġfl att
Ġfl atter
Ġfl ows
Ġfl ags
Ġfl ashing
Ġfl ipp
Ġfl ux
Ġfl uke
Ġfl abby
th ur
th ood
th ree
th inking
th ora
per ately
Ġad ject
Ġad orn
Ġad ored
Ġad orable
Ġad vised
Ġad orably
Ġad ulter
Ġar du
Ġar row
Ġar guing
Ġar my
Ġar rang
Ġar thouse
Ġar ithmetic
Ġcomp els
Ġcomp ressed
Ġcomp rehe
Ġcomp ellingly
ass ured
ment ier
Ġwill ful
Ġlo ver
Ġlo ck
Ġlo ath
Ġlo athe
Ġlo quacious
mer cial
Ġwe ather
Ġwe ave
Ġwe aving
Ġwe alth
Ġwe apon
Ġwe ighed
Ġcan cer
Ġcan vas
Ġent ity
Ġent ered
Ġent ries
Ġwork ers
ĠThe m
Ġover fl
Ġover play
Ġover used
Ġover lo
Ġover board
Ġwhe t
ond ent
iz ons
ise ptic
ile en
Ġperfor m
Ġperfor ms
ry n
ĠN ative
ĠN ike
ĠN az
ĠN ÃĥÆĴÃĤ
ĠN ov
ĠN ancy
ĠN orth
ĠN iccol
ĠN athan
ĠN olan
ĠN akata
ĠN YC
ĠN erds
ĠN alin
ĠN adia
ound ed
ound ingly
Ġoff ic
Ġpo cket
we gian
ens er
ens ation
ens ible
Ġway ward
Ġhum il
Ġhum ility
Ġhum ming
Ġhum drum
de f
de ed
de pth
Ġtime frame
ide odrome
ull och
ip ated
rit ique
ving ly
ĠE gy
ĠE lect
ĠE than
ĠE lection
ĠE SPN
ĠE ileen
Ġsl im
Ġsl ump
Ġsl apping
Ġsl athered
Ġsl umming
Ġem inently
ĠK az
ĠK ier
ĠK urd
ĠK umble
ĠK urt
ĠK innear
ĠK lein
ĠK oury
ĠK oepp
ĠK houri
Ġsub mer
Ġsub sc
Ġsub sequ
Ġsub gen
ost al
ost ami
An a
An emic
An gel
An chored
Ġbl ed
Ġbl ight
Ġbl ab
Ġbl ond
Ġbl ip
Ġbl ob
Ġbl uff
Ġbl ends
Ġbl aring
Ġbl ended
Ġbl ender
Ġbl anks
Ġbl asp
Ġbl udgeon
Ġbl isteringly
Ġdis l
Ġdis cl
Ġdis gra
Ġdis cou
Ġdis armingly
Ġdis dain
Ġdis ingenuous
Ġdis agree
Ġdis astrous
oc he
oc al
oc ally
oc ide
oc iation
oc rates
ans on
Ġfa x
Ġra cing
Ġra bb
Ġra zzle
Ġra zor
Ġri ver
Ġri ps
Ġri gged
Ġend ear
Ġme ander
Ġme anders
vel a
vel s
Ġthem ed
Wh ite
Ġtw in
Ġtw ent
Ġtw itch
Ġund o
Ġund es
Ġund ead
Ġund eterm
Ġund eveloped
Ġund emanding
Ġlif ted
Ġimp ly
Ġimp et
Ġimp ish
Ġimp ostor
Ġimp ulsive
Ġdram edy
ress ions
Ġsur ge
Ġsur gical
Ġgen itals
Ġgen ocide
Ġthere fore
ang ues
ang elical
Ġins in
Ġins ens
Ġins pect
Ġins ists
Ġins ults
Ġins istently
Ġins istence
hy p
ber a
ber ish
ber ately
Ġdes cent
Ġdes olate
Ġdel inquent
Ġdel usional
get tably
Ġca ffein
Ġrem akes
Ġrem oved
Ġwas h
Ġte ase
Ġte aches
vers ions
ris set
Ġscreen ings
ty pe
Ġro y
Ġro iling
ren ia
ren cy
Ġentertain s
Ġser ving
Ġser vant
ater nity
Ġlove able
Ġeff icient
Ġeff iciently
Ġeff iciency
Ġpe ep
Ġplot less
Ġres pite
Ġres ume
Ġres urrection
Ġres usc
Ġres urrect
ign ment
Ġ1 4
Ġ1 7
Ġcould a
ĠCh in
ĠCh ill
ĠCh uck
ĠCh ildren
ĠCh ronic
Ġag re
Ġag ony
Ġag gra
red ucing
Ġwatch ful
Ġcont rary
Ġher metic
Ġaud itor
Ġlong time
Ġheart ening
Ġheart str
Ġheart beat
Ġtra ces
Ġtra its
Ġtra ps
Ġbr im
Ġbr ass
Ġbr ittle
Ġbr ink
Ġbr atty
Ġbr usqueness
Ġhow ling
Ġhow ler
Ġinterest ingly
Ġunder gra
Ġunder ground
Ġunder rated
Ġunder wear
Ġunder developed
vent ion
vent ive
oth s
Ġshould er
Ġrec re
Ġrec ru
Ġrec ons
Ġrec ount
Ġrec ently
ian ne
ian ism
Ġob li
iv ore
iv ates
Ġown ed
aw ing
aw ork
Ġaction er
du ck
du ate
Ġvis ions
imp y
imp le
imp ossible
imp ortance
imp anze
imp rovised
ft s
ph a
ph s
ph ile
ph alt
oss om
ath on
ath om
ath am
ob o
ob ia
ob ody
ob bly
Ġstill s
ĠO K
ĠO cean
ĠO wen
Ġscen arios
Ġaw ake
umb lings
Ġshow y
sc en
sc ene
sc ape
ib us
ather weight
Ġlau ndry
Ġche m
Ġche ering
Ġmy opic
Ġmy riad
Ġhard y
Ġhard ened
Ġhard ware
iss man
iss ipp
Ġinc rease
Ġrel ic
Ġrel ocation
Ġdown hill
Ġdown fall
Ġtri f
Ġtri o
Ġtri pe
Ġtri ple
Ġscript writers
Ġless en
Ġkind ness
Ġcle arer
Ġatt ack
Ġatt acks
Ġatt achment
Ġatt endant
Ġdocument arians
cept ion
cept ional
av al
av ory
av vy
ks ome
sp ace
sp ool
Ġapp lying
Ġapp ointed
Ġapp arat
Ġapp alled
Ġself ish
Ġlack ada
Ġgra v
Ġgra y
Ġgra ze
Ġgra iny
oll um
Ġap es
ars is
ars ed
ars eness
az ine
az ily
Ġback handed
Ġgr in
Ġgr itt
Ġgr atingly
Ġgr inds
Ġgr inning
Ġgr asps
Ġgr ungy
Ġplay book
Ġset pieces
Ġexc urs
Ġmess iness
Ġmess enger
Ġhuman ism
Ġhuman istic
Ġide ological
Ġbel ong
Ġworld s
Ġworld ly
ale ck
Ġgl ibly
Ġgl ides
Ġgl immer
Ġgl ued
You ng
Ġpers nick
xt ric
Ġeng ulf
Ġeng ineering
Ġeng endering
Ġpleas er
Ġpleas ed
Ġpleas ingly
ia h
Ġcare ens
Ġcare less
Ġcare takers
Ġeffect ing
Ġeffect iveness
app ro
app able
Ġmus ings
Ġmus cle
Ġcreat or
Ġcreat ors
Ġgu ard
Ġgu ise
Ġgu arded
Ġgu itar
ĠSt ays
ĠSt opp
ĠSt reets
ĠSt rikes
Ġdec l
Ġdec line
Ġdec rep
Ġdec isions
be en
be ha
Ġacc use
Ġacc ording
Ġind om
Ġind isp
Ġind igest
Ġind elible
Ġind ulge
Ġind istinct
Ġext ension
olog ue
olog izing
Ġkid lets
Ġkid dies
Ġkid napping
Ġpr ints
Ġdist raction
Ġdist inction
Ġhigh s
Ġhigh ways
Ġhigh way
Ġhigh lights
Ġform ed
Ġexpl aining
com m
Ġsk ies
Ġsk ims
Ġsk irts
Ġsk impy
Ġshe en
Ġshe ets
Ġref using
Ġref erred
Ġcr ud
Ġcr inging
Ġcr ummy
Ġcr udity
Ġcr inge
Ġcr ushes
Ġcr icket
ew ork
ord inated
Ġhor izons
Ġrep orting
Ġrep ackaged
Ġrep artee
Ġcons ists
Ġcons igned
ĠAmerican a
ward s
ward ing
Ġgener ational
Ġgener osity
ither ing
Ġcol our
Ġcol ored
Ġhist oric
fl op
fl ies
Ġ2 2
Ġafter life
Ġafter taste
Ġafter wards
Ġprodu cing
iet ies
Ġdra in
Ġdra ins
Ġdra ggy
Ġdra stic
Ġbu nd
Ġbu ying
Ġbu bb
Ġbu bbly
Ġel ic
Ġel icit
ellig ent
Ġsubject ed
ĠV H
ĠV s
ĠV el
ĠV ice
ĠV ampire
ĠV iveka
ĠV ulgar
ĠV entura
ĠV ertical
ĠV ideodrome
Ġcult ivated
Ġyoung ster
ave tes
me ister
read ing
Ġour s
Ġco at
Ġco al
Ġco ast
Ġco pe
Ġco ating
Ġco zy
Ġco asting
Ġco arse
Ġco arseness
Ġinst ant
Ġinst ability
Ġinst ructive
Ġwhere ver
Ġcre ations
Ġcre aky
Ġcre amy
Ġpass ive
Ġpass age
Ġpass ably
Ġthought fully
ys itter
ys hack
Ġmater nal
Ġperson ified
For gettable
Ġmel odic
Ġport ent
Ġport ions
Ġstand up
oot er
the med
Ġfull ness
ĠSe attle
ĠSe lection
iar ostami
ub lic
ub tle
Ġsex ist
Ġsex ism
Ġdep os
Ġdep arts
Ġdep endent
Ġmaterial s
ron ological
Ġaff ability
Ġdet achment
Ġdet riment
Ġsuper man
Ġsuper lative
Ġmind ed
Ġ19 6
Ġ19 15
Ġ19 20
Ġele ction
Ġstud ies
Ġstud iously
Ġhand ily
Ġhand held
ains aw
Ġflick ering
Ġrun ner
rid es
ĠY i
ĠY ear
ĠY ang
ĠY ellow
ĠY imou
Ġhalf hearted
Ġbelie ver
Ġwr ite
Ġwr ought
Ġabs ent
Ġdark est
Ġdull ed
Ġdull ard
Ġdull ness
Ġanim ÃĥÆĴÃĤ
Like ly
Ġpain terly
Ġep och
Ġep onymous
Ġep ilogue
uck er
Ġdem ise
Ġexp ose
Ġexp osed
Ġexp ensive
Ġexp edience
Ġexp iration
co ing
co ated
Ġed itor
ĠSh ag
ĠSh ort
ĠSh ore
ĠSh ower
ĠSh iner
ĠSh aggy
ĠSh atner
ĠSh imiz
ĠSh adows
ĠSh irley
ĠBl ock
ĠBl ues
ĠBl onde
Ġspecial ty
Ġlight en
Ġlight est
Ġcra fty
Ġcra zed
Ġcra ziness
Ġcra fting
Ġune quiv
Ġune arthed
Ġir rational
Ġir ksome
itive ly
ider ation
Ġunf inished
Ġinter f
Ġinter play
Ġinter ming
Ġinter nal
Ġinter rupt
Ġinter lock
ĠDe y
ĠDe al
ĠDe ep
ĠDe vils
ĠDe cas
Ġpres chool
Ġpres ident
Ġpres umes
Ġentertainment s
Ġev ap
Ġev ade
Ġev oking
Ġev ocation
Ġev aluate
Ġev angelical
Ġdef ined
Ġdef ensive
Ġdef iant
Ġdef iance
Ġfeature d
Ġtrans m
Ġtrans pl
Ġtrans itions
Ġtrans fer
Ġvide otape
Ġnarr ated
Ġstra dd
Ġstra ys
Ġstra ining
ix es
ix on
Ġsweet heart
Ġwonder ment
Â© -
Ġener vating
Ġshort s
Ġmelodram as
St ands
St anding
St rict
St rong
Ġwit ch
Ġlow s
Ġhon ored
Ġhon orable
Ġsusp ended
Ġsusp iciously
Ġsusp enser
Ġuns ure
Ġuns pe
Ġuns ophisticated
Ġuns avory
Ġuns ubtle
cer y
cer ned
Ġsw ill
Ġsw itch
Ġsw ooping
Ġsad dest
Ġcapt ain
ĠU S
ĠU s
ĠU we
Ġsens ation
Ġsens uous
Ġcomm od
Ġcomm anding
Ġsucc inct
ĠSc herfig
Ġey elids
Ġadd ress
Ġadd ressing
off ice
Ġmar ry
Ġmar gar
Ġmar quee
Ġmar gins
Ġbra wn
Ġbra cingly
Ġbra wny
Ġret ain
Ġret old
Ġret urning
ĠBe ard
ĠBe autiful
Ġconf essional
Ġpsych odrama
Ġsound ing
lect ed
Ġac ademic
Ġmon arch
Ġmon key
Ġmon ths
Ġmon keys
ots am
Ġhead ing
Ġhead ache
Ġhead bang
Ġprob es
00 0
und ered
Ġwar p
Ġwar ped
Ġwar riors
Ġsatisf action
Ġinsight fully
Ġteen y
Ġfact ors
ush i
ush o
ush ion
Ġplace ment
Ġattempt ed
Ġprof anity
Ġprem ises
Ġslow est
Ġamb ival
Ġwo e
Ġwo ven
Ġwo efully
Ġwin ter
Ġbo ast
Ġbo ats
Ġbo iling
Ġbo asting
Ġbo omer
ract ing
ract ive
ĠCl ar
ĠCl are
ĠCl int
ĠCl ones
ĠCl aude
ĠCl ouds
ĠLe ys
ĠLe ague
ĠLe Blanc
ĠLe gally
Ġadm ired
Ġadm itted
Ġadm inist
br ance
Ġsy n
Ġass ert
Ġass umes
Ġass igned
Ġass umption
Ġass aults
Ġass imilated
Ġhel m
Ġhel mer
plic ated
Des erves
aid an
Ġfresh ly
Ġpar och
Ġdi ves
Ġdi atri
Ġdi plom
Ġdi apers
Ġdi versions
Ġequ ation
Ġequ ate
Ġintri gu
ĠNew found
Ġsubt lest
Ġoper as
Ġcred ulity
Ġprom ised
chn ically
Ġsuccess ion
cent ered
het t
het ics
Ġtreat ing
Ġmis conceived
Ġmis placed
Ġmis under
Ġmis erably
Ġmis chie
Ġmis dem
Ġpat ri
Ġpat ched
Ġpat rol
Ġpat hetically
Ġpast el
Ġpast ry
Ġmodern ize
yn olds
Ġ9 9
Ġsou fflÃĥÆĴÃĤ
Ġodd ity
Ġodd balls
Ġcent re
Ġcent ers
Ġcent ering
Ġine leg
Ġine xtric
Ġhero ism
Ġsing ularly
oof ing
Ġsupp ose
Ġconst rict
ĠJohn ny
ĠJohn son
Ġill uminated
Ġsort s
Ġwarm ly
Ġdev il
Ġdev ot
Ġsmall er
Ġcontri ving
Ġcontri bution
ah an
cl ock
cl iched
cl utching
Ġsim mering
Ġfr inges
Ġfr aternity
Ġma verick
Ġstuff s
Ġstuff ed
urd y
Ġmark ing
Ġmark ed
Ġmark ers
Ġmark ets
Ġcall ing
Ġinvol ves
ĠSte ers
Ġval ed
Ġval iant
ĠRe a
ĠRe id
ĠRe ynolds
uine ly
No he
No vak
ĠTh ank
ĠTh anks
ĠTh irteen
Ġgri ps
Ġreve rent
Ġbegin nings
ĠAl i
ĠAl ien
ĠAl ias
ĠAl agna
ĠAl pha
erv ation
Ġstun ningly
ĠAn nie
ira ble
Ġve iled
Ġmen acing
Ġwrit ings
Ġsuff iciently
Ġuni queness
Ġpassion ately
pro gress
pro file
Ġnon ch
Ġnon threatening
Ġleft over
Ġflat ly
Ġflat ten
Ġemb ro
Ġemb ark
Ġemb odies
Ġemb edded
Ġach ronological
Ġsign als
Ġinf at
Ġinf used
Ġinf usion
Ġinf erior
Ġinf requently
Ġmot ifs
Ġrest room
Ġtechn ological
Ch alk
Ch rist
Ch oppy
Ch anging
sh ock
sh irt
sh aped
Ġsn ick
Ġsn azzy
Ġspect er
Ġspect rum
Ġspect ator
Ġfan atical
Ġmix ing
Ġreg ion
Ġreg ain
Ġreg ime
Ġreg ular
Ġreg alia
Ġdeser ving
Ġfound ers
Ġstri ves
Ġstri ving
ĠBar an
ĠBar ris
ĠBar ney
ĠBar low
ĠBar rie
Ġcreep s
Ġcreep ing
Ġcreep iest
Sh ort
Sh ows
Sh allow
Sh arp
Sh adyac
Sh amelessly
ĠZ wick
Ġhold ing
ĠSch indler
Ġexam ining
Ġsecond ary
Ġdisappoint s
Ġdisappoint ments
Ġunderstand able
Ġdifficult y
Ġdifficult ies
We ight
ov ar
way downtown
Ġmet ropol
ott i
Ġforget tably
Ġconcept ions
ĠAr m
ĠAr thur
uss en
uss ied
Ġrefres hed
Ġsimple minded
Ġ8 3
Ġ8 9
Ġ8 00
Ġid ol
Ġair head
Ġbro ke
Ġbro gue
Ġtop s
Ġtop ics
Ġcomb ine
Ġshock er
Ġnovel s
Ġnovel ist
ĠJack ass
Ġexplo itive
por ates
por aries
ring ent
tra ined
Ġopp osed
Ġconvin ces
Ġdevelop ing
Ġmoment ary
Be yond
Be han
Be gins
Be hind
Ġmin i
Ġinv ite
Ġinv ited
Ġinv asion
Ġstup or
Ġant ique
Ġant agon
Ġant iseptic
Ġlik es
Ġlik ably
Ġprov okes
Ġprov oked
Ġconsider ation
ĠX erox
Ġliter ature
Ġsust enance
Ġsoap y
Ġsoap er
ĠHar bor
Ġgrand ilo
Ġgrand father
ital ize
Ġbal d
Ġbal m
Ġbal ancing
Ġbeh alf
Ġbeh ave
ĠWh itaker
Ġimpro ves
Ġimpro vise
Ġunex amined
Ġunex ceptional
Ġmoral istic
Ġmoral izing
Ġdefin ite
Ġachie ving
Ġsle ight
Ġsle azy
illing ness
Ġeye balls
Ġaut hent
Ġspe ed
Ġspe edy
Ġspe eds
Ġspe ech
Ġbreat hing
Ġder ive
Ġdri ver
Ġdri ving
Ġdri zzle
Ġdri fts
Ġevent ful
Ġunt id
Ġweird o
Ġbland ly
Ġfig ur
Ġcost s
Ġpure st
Ġthin ness
str ung
Ġunp reced
Ġunp ersuasive
Ġprocess or
Ġcheap o
Ġcheap er
Ġappeal ingly
Ġepic enter
Ġopen ly
By ler
nect ion
Ġschool s
Ġcour ts
Ġpay back
Ġinvent ed
ĠHe idi
Ġcontem poraries
Ex pl
Ex quis
Ex plo
Ex hilar
bl ue
bo x
Ġz ings
Ġz any
Ġz ingers
Ġtheat rics
Ġwa ited
Ġcur s
Ġcur rency
Ġcool ness
Ġconfl uence
ĠAm ir
Ġsurf er
Ġsurf aces
Ġsurf eit
Ġtele market
Ġreson ances
Ġartist es
Fe el
ura bly
Ġver t
Ġver dict
Ġver ges
Ġast ray
Ġast ringent
Ġsqu ad
Ġsqu andering
Ġsqu ander
Ġsqu irm
Ġcele b
Ġdig its
Ġdig ressions
Ġemer gency
Ġemer gence
Ġang els
Ġforg ot
Ġforg ivable
ĠAd venture
ĠAd obo
Ġ10 2
Ġvision ary
Ġskill ed
Ġdepress ingly
ener gy
Ġpurp oses
Ġpurp orts
Ġnature d
Ġmod el
Ġmod em
Ġmod els
Ġmod eled
Ġshoot ings
Ġuncom mercial
Ġuncom plicated
ĠMc Conaughey
ĠMc Dorm
ĠMc Farl
ĠGod frey
Ġhorri fic
Ġfrustr ations
Ġfrustr ates
Ġtest oster
rem aster
Ġcop ing
Ġcop ies
Ġcop yc
Ġpath s
Ġste pping
Ġste pped
Ġreleas ing
amb ling
oph renia
Ġweak er
Ġweak est
Ġbuild up
He avy
He artwarming
zz led
Ġer ror
Ġer otically
Ġspl it
Ġspl atter
Ġspl itting
Ġspl ashed
ont ias
Ġredu ction
Ġredu ctive
Ġawful ness
Ġfore st
Ġlist ening
Ġgoof iness
Ġintent ional
ĠMon sters
Ġprec iously
Ġprec arious
ĠWar ren
ĠWar rior
Ġunsett led
Ġunsett lingly
Ġsentimental izing
ox ically
Ġfram ed
Ġfram ework
Ġcoll apse
Ġpun s
Ġpun ishing
Ġstrugg led
raph ic
Ġcomplic ity
ĠPh ifer
ĠPh oen
ĠPh antom
Ġemp ath
Ġemp athetic
Ġtriumph antly
Ġdistur bed
ĠYork er
Ġphot os
Ġphot ographer
Ġrecommend ing
Ġfree ly
Ġfree way
Ġmer ge
Ġmer ges
Ġmer cil
Ġcamp us
Ġlab our
Ġlab yr
Ġgross ly
ident ity
Ġdeal ers
Ġnecess ity
Ġimm ort
ĠPl ays
ĠPl ummer
Ġcontin ent
Ġcontin ue
Ġcontin ually
Ġcontin uation
Ġcontin uing
Ġdraw ings
Ġopportun ism
Re infor
ean or
over ing
Ġpub escent
Ġpub erty
Ġsuggest ed
Ġsuggest ive
ĠBen oit
Ġunlike able
ĠIn c
ĠIn uit
ĠIn surrection
ĠDan i
Ġprevious ly
form ity
Ġappreci ative
Ġappreci ates
Ġgrace fully
Ġsincere ly
Ġstylish ness
Ġbreath less
Ġchalleng ed
sw allow
sw itching
upp ie
ugg ed
Ġfight er
Ġmist y
Ġmist akes
Ġmist aking
Ġpos ition
Ġconvent ion
ĠDam me
Ġclos et
Ġleg itimate
Ġrepet itious
ĠQu itting
De uces
Ġbar f
Ġbar rage
Ġbar bed
Ġbar oque
Ġbar riers
ilos oph
Ġinde cipherable
Ġstren uously
Ġred one
Ġred iscover
Ġcomfort ing
ĠBro ken
ĠBro oks
ĠBoy d
ĠMar ina
ĠWe ber
ĠWe issman
ĠWed ge
ĠThing s
Ġamaz e
Ġrid icule
Ġrock s
Ġprim a
Ġprim er
Ġprim al
Ġabsor b
Ġabsor bs
Pl ot
Pl ay
Ġwild est
onstr ates
Ġlim b
vey ard
Ġunc lear
Ġunc inematic
Ġprep are
Ġprep ared
Ġvict ories
ĠGood Fellas
ĠGreen light
assion ate
Ġbrut ality
conscious ness
Unf unny
Ġescap es
Ġdoubt less
How ard
Sp y
Sp are
Sp ark
ipp er
Ġtick ing
Ġaim lessness
hem ous
Ġsick eningly
Ġmil es
Ġwond rously
Ġwish y
Ġcal iber
Ġcand or
Ġcand idly
Ġdre k
Ġham mer
leg al
roll ing
Ġmanip ul
ĠEl vis
ĠEl fried
ĠUn cle
ĠUn iversal
Ġest rang
Ġmid st
Ġcris es
Ġlaz iness
Ġlaz iest
Ġhot ter
Ġeccent rics
Ġgun play
Ġencou rages
ĠMe at
ĠDog me
Ġoutrage ously
ĠTr ue
ĠTr uth
ĠTom cats
Ġtransc endent
Ġspiritual ity
Ġpurpose ful
Ġstereot ype
lo athing
miss ion
Ġtur f
Ġtur mo
Ġfire works
Ġcirc a
Ġcirc ular
Ġcirc uit
Ġbi kes
Ġbi ased
Ġbi ographical
Ġpul chrit
Ġlog ical
Ġhate ful
Ġhyp ertime
Ġhyp notically
Ġeth n
Ġeth ical
Ġhell ish
Ġhell uv
ĠInd ia
ĠInd ecent
Ġimpl ied
Ġimpl odes
ĠNe brid
Ġdisc reet
Ġdisc arded
Ġdisp ossessed
Ġdisp assionate
Ġsurvi ved
Ġexcess ive
Ġguess ed
Ġexpress ing
Ġexpress es
Ġbroad er
Ġbroad ly
Ġmodest y
Ġmesmer ize
Sc ar
Sc ott
Sc orsese
Ġsch tick
Ġsav our
ator ium
Ġmach ines
Ġben ign
Ġben chmark
Ġbur nt
Ġdang ers
Ġlength s
Ġstage y
Ġbeha ving
Ġju ice
Ġsoc io
Ġcompet ence
Ġobject s
Ġirrit atingly
Ġsleep er
Ġstereotyp ed
Ad ams
hour s
tain ing
Ġign ite
ĠYou ng
Ġswe ating
Ġpen ance
Ġpen chant
Ġpen cil
Ġpen alty
Ġpunch y
Ġpunch line
Ġdim ensions
Ġinfl ated
Ġlangu id
Ġstep s
ĠBull wink
Ġunre warding
Ġuncon cerned
ĠMen ace
ĠWest bro
ĠTra ffic
Ġlearn s
Ġflash back
Ġflash bul
Ġarri ving
Ġarri ved
Ġraw ness
Ġsurreal ism
Ġterror ists
Ġperspect ives
Ġaccept s
Ġachieve ments
Over ly
Ste ve
inn ie
rend ing
rend ously
Ġmult ilay
Ġstret ching
Ġunfor gettably
Ġconce ive
Ġconce its
Ġconce ived
Ġconce ivable
ĠMor ris
ĠMor rison
Ġprog ress
Ġprog ression
Ġplod dingly
ĠIr wins
ĠFre i
ĠFrank ie
ĠRuss os
ĠGl ory
ĠGl itter
ĠLa Paglia
Ġspot lights
Ġspoof s
Ġspoof ing
Ġdesp icable
Ġdesp ondent
Ġcontra ption
Ġcontra sting
ĠBlack boards
Ġirre par
Ġirre pressible
Ġsym ptom
Ġgroup ies
Ġsol ving
Ġsol ips
Ġsol ilo
Ġmat ches
Ġcat ast
Ġball er
Ġball ast
Ġpract ices
Ġphys ics
Ġphys ique
Ġtoss ing
oman iac
Ġrend ition
Ġasp iring
Ġalien ated
Ġshap ing
igg ling
ĠPol ice
ĠPol son
Ġarch ives
ĠNot hing
Ġslick ness
Ġrad io
Ġroom s
Ġrecogn ized
Ġindust rial
Ġsheer ly
Ġ199 2
Ġ199 4
Ġcaptiv ated
Ġprecious ness
Ġoutrageous ness
Ġemphas ized
Ġemphas izing
Con stantly
work ed
Ġ7 5
Ġ7 7
Ġic y
Ġic onic
Ġram ble
Ġsal es
Ġsides plitting
isp osed
Ġfat ally
Ġpick up
Ġinh uman
Ġhide ous
Ġner dy
ĠBur ke
Ġconscious ly
ĠAs k
Ġsoft ware
Ġpreach ing
ĠNick y
ĠNick elode
Ġrecyc le
Ġincreas ing
Ġgrim y
Ġplayful ness
Ġreflect ions
Ġ195 8
Ġembra ced
ĠArn ie
Ġsplend idly
Ġbenef ited
Ġdynam ite
Per forman
Per alta
Se emingly
mn ast
natured ly
par ody
Ġtort uring
Ġtight er
Ġtight ly
Ġtight rope
Ġsil ence
Ġsill ier
Ġmention ed
Ġwide ly
Ġpri ze
Ġprison er
Ġprison ers
Ġhar vest
Ġhar angues
imag ine
Ġsun set
ĠSil ver
Ġseason al
Ġseason ed
Ġhair s
Ġunh oly
Ġunh appily
Ġconsp ir
Ġdeb t
Ġdeb ated
Ġdeg rees
ĠCon fessions
Ġjunk ie
Ġrough ly
Ġrough shod
Ġviscer ally
Ġcollect ed
Ġinterm inable
Ġtransp orts
Ġdevast atingly
Ġmarket ing
Ġmarket able
Ġcruel ty
Ġintellectual s
Ġintrodu ce
Ġintrodu cing
Fl at
Fl ashy
Fl awed
Fl uffy
cr ime
cr ushing
dram at
Ġtun e
Ġsom n
Ġfish y
Ġpal ette
Ġdread fully
Ġcompl acency
ĠSon nen
Ġintegr ated
Ġnotice able
Ġnotice ably
Ġunw illingness
Ġunfl appable
Ġscar ier
Ġscar ifying
Ġkne es
Ġgraph ically
Ġgraph ics
Ġcrack les
Ġassured ly
ĠBarry more
Ġinvest ment
Ġtradition ally
ĠChristian ity
Ġcurrent ly
Ġingen uity
Ġindividual ity
Suff ice
Suff ocated
prom otion
Ġfool ed
Ġmal es
Ġmisf ires
Ġmisf ortune
Ġwood s
Ġwann a
Ġthreat ening
Ġthreat ened
Ġhus kies
Ġna vi
Ġnumb ness
Ġnumb ered
Ġgut sy
Ġgro ans
urt urro
Ġens ure
Ġjeal ous
Ġsole ly
ĠWater boy
ĠGold en
ĠJul es
ĠJul ie
ĠJul ianne
Ġappropri ated
Ġrefere ntial
Ġcrass ly
Ġcrude ly
Ġelo quence
Ġelement al
Ġfairy tale
belie ve
ĠPhil adelph
Ġestabl ish
Ġdespair ing
Comp elling
Comp lex
Dis appoint
Int elligent
Qu iet
Two hy
dep endence
pleas ure
uv re
Ġtrem bling
Ġfer al
Ġfer ocity
Ġfab ul
Ġfab ulous
Ġmount ing
Ġwal ks
Ġcry in
Ġinherent ly
Ġgar bled
Ġgar gant
ĠSum mer
Ġsees awing
ĠBer ling
Ġunimag inable
Ġath lete
ĠCol in
ĠImp oster
Ġru in
Ġru inous
ploy ment
ĠFor get
ĠFor ster
ĠTwo hy
Ġfluff y
Ġade pt
Ġsmug ly
Ġcheer fully
Ġwitness es
Ġcounter culture
Ġcounter part
Ġequal izer
Ġnightm arish
Ġtotal itarian
ĠIndian a
Ġredeem s
Me o
Me ant
Sl uggish
aj a
mill ion
Ġtor p
Ġtend encies
Ġfrank ness
Ġwear y
Ġwear isome
Ġbed room
Ġboo zy
Ġbath room
Ġbath tub
ald s
Ġlos er
Ġlump en
Ġhost s
Ġhost age
Ġstiff ness
Ġreaction ary
Ġsuspect ing
umm ate
Ġintric ately
Ġexceed s
ĠBel gian
ĠBel iever
ĠMag uire
ĠMaster piece
ĠHun ting
ĠDo ors
Ġric oche
ĠWill ie
ĠPro fessional
ĠGhost s
Ġspir al
Ġflo at
ĠEn ough
ĠEn emy
ĠEll is
ĠEll en
Ġrob ber
Ġrob ots
Ġrob bed
Ġpecul iarly
Ġresist ance
Ġunderm ine
Ġunderm ined
Ġunderm ining
Ġincon clusive
Ġgrasp ing
Ġmelanch olic
Ġ197 8
Ġ197 9
ĠShakespeare an
Ġinterp ersonal
Ġmaintain ed
Ġfantas ia
Ġfantas ized
Ġjournal istic
Ġknock out
Ġknock off
Ġsketch iest
Sch neider
Sch aeffer
Sch rader
Ġsly ly
Ġsell er
rep utable
Ġfrag mented
Ġfizz le
Ġfizz les
Ġciv ic
Ġcorn ball
Ġbomb s
Ġborder line
Ġporn o
Ġdud s
Ġdrop s
Ġlad der
Ġhang over
Ġnom inated
Ġreh ashes
Ġreview s
Ġrevolution ary
Ġchron icles
Ġchannel ing
Ġexotic ism
ift ly
Ġconvol utions
Ġsoci ological
Ġprefer red
Ġpercept ion
Ġperverse ly
ĠWith out
ĠProp osal
ĠJon ze
ĠJon athan
ĠJim my
Ġflu ent
ĠNever land
Ġdisg usted
Ġresol ve
Ġindic ative
Ġcover ing
Ġdepict ing
Ġunsatisf ied
Ġsensational ism
Ġsatisfy ingly
Ġcorrect ly
Ġhyper bolic
Ġredund ancy
Ġethnic ity
Ġimplaus ibility
Ġpedest al
ĠAngel es
Ġfleet ingly
Ġbrief ly
Ġathlet ic
Ġathlet icism
Ġrandom ness
Ar guably
Bar an
Bar ry
Bar bera
Po or
See ing
do zen
ex ploitation
ex ecuted
Ġtem pered
Ġtap estry
Ġsne aky
Ġwick ed
Ġwins ome
Ġbes ide
Ġbab ysitter
Ġdil uted
Ġdil utes
Ġhint s
Ġnation wide
Ġreject s
Ġanch ors
Ġanch oring
Ġanch ored
ĠShe kh
ĠShe ridan
ĠShe arer
ĠShe pard
ĠSnow man
Ġexuber antly
ĠMam ÃĥÆĴÃĤ
Ġjo ie
Ġjo ins
Ġjo ined
Ġjo vial
ĠHann a
Ġround ed
Ġvent ures
ĠPay ami
Ġclin ic
Ġarg ument
Ġemploy ment
Ġdiss ol
Ġdiss ervice
Ġmeat y
Ġdramat ized
Ġdramat izing
ĠChar ade
ĠChar acter
avish ly
Ġstrang er
cont rol
cont emporary
ĠSex y
Ġdidactic ism
Ġtransl ate
Ġretro spect
Ġsoulless ness
Ġillustr ating
Ġillustr ated
Ġconcern s
Ġaspir ation
Ġirresist ibly
ĠPhilip pe
Ġtremend ously
ĠGerman y
Big elow
count ry
met al
Ġske let
Ġwis er
Ġbre asts
Ġbot ched
Ġbang s
Ġbump s
Ġbump y
alter ing
Ġlaw y
Ġnarc ot
Ġgre ed
Ġgre ase
Ġgle e
Ġstro kes
Ġstag ing
Ġstead fast
Ġanarch y
Ġanarch ists
Ġassemb les
Ġwholes ale
Ġexagger ation
ĠBard em
Ġconvers ations
ĠMel ville
ĠCom edy
ĠCom edian
ĠId emoto
Ġorgan ized
Ġkill ers
ĠFred die
ĠRes ources
ĠLuc ia
ĠJe z
ĠNa qoy
Ġslack er
Ġamid st
Ġblank et
Ġdiscer ned
Ġdiscover ing
Ġparticip atory
Ġarticul ates
Ġglass es
comp elling
Ġcrim inally
Ġconfront ations
Ġsubtit led
Ġmisc ast
ĠArgent o
Ġverb ally
Ġsteam y
Ġsteam ing
Ġconvict ed
Ġdishon esty
Ġsolemn ity
Ġinterpret ations
Bo isterous
Bra vo
Deli berately
Film maker
Go ing
Har ry
Har ris
Imp resses
Pret end
Rob in
Rob ert
View ed
dest ructive
dest roying
iqu es
wan ese
Ġaest hetics
Ġsafe ly
Ġcock tail
Ġbon a
Ġbon us
Ġpur ity
Ġpur ists
Ġdoll ars
Ġinject s
Ġlull s
Ġlull ing
Ġlavish ly
Ġlurid ly
Ġhing e
Ġeight h
Ġge ek
Ġrev italize
Ġrece iving
Ġangu ished
ĠSy d
ĠSal ma
Ġchamp ionship
ĠBob by
Ġabund ance
Ġabund antly
Ġconcent ration
ĠMat rix
ĠAfter noon
ĠCal vin
ĠCamp bell
ĠCarl os
ĠDi az
ĠDes pite
Ġpred isposed
ĠWW F
ĠWalk en
Ġvoy age
ĠPe ople
ĠFran co
ĠTamb iÃĥÆĴÃĤ
Ġspr ung
Ġspaces hip
Ġaristoc rat
Ġaristoc rats
Ġaristoc racy
Ġcompens ated
ĠKa os
ĠKa hn
ĠKa ige
Ġdisgu ising
ĠChou raqui
Ġtrack ing
Ġrecon struction
Ġrecreat ing
Ġrecreat ed
Ġmyst ical
Ġgrind er
Ġexcruci atingly
Ġspecific ity
Ġconsum er
Ġconsum ed
Ġconsum ers
Ġcohes ion
ĠBlood work
Ġillumin ates
Ġinfuri atingly
Ġforceful ness
Ġsacrific es
Ġsacrific ed
Ġneglect s
Ġneglect ing
Ġarchitect ural
Ġconspira cies
ĠColumb us
Ġextravaganz as
Ġdedic ated
Am ong
Am azingly
Coll apses
Gener ic
Gener ally
Mar vel
Nic olas
Other s
Other wise
Ret urning
Tra iler
Une xpected
gal oo
turn ed
Ġsam eness
Ġsam pling
Ġsorrow ful
rel ated
Ġoo zing
Ġfi asc
Ġfond ly
Ġfix ating
Ġfundament ally
Ġwrap s
Ġpatch work
Ġdust y
Ġinert ia
Ġlit mus
Ġlect ure
Ġlect ures
Ġlark y
Ġhur ry
Ġhur ts
step s
Ġgasp ing
Ġstream ed
Ġreact ing
Ġreact ions
Ġbef all
ĠSie ge
Ġchief ly
Ġenchant ment
Ġseas ide
ĠBu eller
ĠBra zil
Ġdoor step
Ġabandon ed
Ġunrem ittingly
ĠMiss issipp
ĠAute il
ĠAbb ott
ĠCle an
ĠCanad a
ĠCanad ian
ĠCanad ians
Ġjun ct
ĠHan uk
ĠHan ussen
ĠHard y
Ġrat io
Ġvic arious
ĠPau ly
ĠFl owers
ĠFer rara
ĠFer rera
ĠTri als
ĠTest ament
ĠLim it
Ġspan ning
Ġtroub ling
Ġflavor less
Ġadrenal in
ĠNor wegian
ĠEr nest
ĠEnter tainment
Ġblues creen
Ġrival ry
Ġundert one
Ġundert ones
Ġinsuff iciently
Ġcontroll ing
obs essed
Ġkeen ly
Ġglum ly
Ġexplan ations
Ġ193 4
Ġdemoc ra
Ġdemoc ratic
Ġdemoc racy
Ġexpos ing
Ġexpos ÃĥÆĴÃĤ
Ġpopul ated
Ġacqu ired
Ġacqu ainted
Ġinvolve ment
Ġunexpl ainable
Exc ellent
Ġsquare ness
ĠMcC ulloch
grand izing
Ġcommunic ates
ĠPlay boy
Ġatmospher ics
ĠAnton io
ĠMexic o
Ġcircumst antial
Ġdomin ant
Ġdomin ate
Ġhypoc ritical
Steven s
Ġsymbol ism
Ġboun cing
Ġcivil ization
Ġsublime ly
John son
Ġaccompan ies
Abs olutely
Abs orbing
Ben igni
Dist urbing
Enter tains
Enter taining
Green grass
Half way
Op en
Op ens
Ren o
Res ident
Rom antic
Sam uel
Warm ed
aun ted
cross es
dro pping
fe eling
fere nce
spl ashed
wear y
Ġapt ly
Ġapl enty
rehe arsed
Ġfif th
Ġwid ow
Ġwid get
Ġcook ie
Ġcath arsis
Ġbast ard
Ġbond ing
Ġpomp osity
Ġpurs uing
Ġthirst y
Ġdrum ming
Ġloop y
Ġloop iness
Ġec ological
Ġeg reg
Ġgam ut
Ġreass uring
Ġbeg s
Ġbeg un
ĠSer rault
Ġintol er
Ġexasper ating
Ġexasper atingly
ĠBM X
Ġconsc ientious
ĠMean ing
Ġscient ist
Ġscient ific
ĠAud rey
ĠAud iard
ĠAustr alian
ĠAlex ander
ĠCor cu
Ġjer ky
Ġjack asses
Ġworship ful
Ġactiv ities
ĠWay ne
ĠRet urn
ĠRet urns
ĠGo ing
ĠLau ra
Ġsporad ic
Ġthrust s
Ġard ent
Ġard ently
Ġcomprehens ive
Ġslo venly
Ġslipp er
ĠKur as
ĠKur ys
Ġrapt urous
Ġgovern ment
Ġsurrend er
Ġsurrend ers
Ġunderdog s
Ġtrivial izes
Ġgrotesque ly
Ġprincip al
Ġcoinc idences
Ġaffl uent
Ġafford s
Ġsuccumb ing
ĠScar face
Altern ately
Ġbrav ado
Ġacid ic
ĠCliff sNotes
Ġparalle l
Ġcontribut ed
Ġsnoo ze
Ġsnoo zer
Ġexecut ives
Ġfemin ine
Ġfemin ism
ĠHeart break
ĠAmar i
Ġ45 1
Ġfavour ite
Ġannoy ingly
Ġsympath ies
Ġsympath ize
Ġschlock y
Ġsweat y
Ġpitiful ly
Ġfacet ious
Ġsalv age
Ġsedu ce
Ġsedu ced
Ġconspic uously
Ġinvestig ate
Ġnaive tÃĥÆĴÃĤ
Ġpanor ama
Ġbewild ering
Ġbewild eringly
Ġmourn ful
Ġmourn fully
congrat ulation
Ġpessim ism
Ġpessim istic
Ġhundred s
Ġapplaud ed
AS ES
Bel ongs
Cr ush
Cred it
Cred ibility
Capt ures
Capt ivates
Don ald
Del iciously
Eff ective
Ent irely
Eleg ant
Eleg antly
Frank ly
Hol m
Love ly
Luc as
Mo vies
Mor vern
Mor risset
Ry an
Sor vino
Sim ultaneously
Sim plistic
Te chnically
hh h
hat red
mus ic
pass er
Ġtid al
Ġsib ling
Ġsib lings
Ġom inous
Ġomn ibus
Ġmort ality
Ġmuck raking
Ġmug s
Ġwrest ling
Ġbudd ing
Ġbudd ies
Ġpor ridge
Ġpra ises
Ġpuff ery
Ġdro pped
Ġdro oling
Ġdwell ers
Ġhust ler
Ġnause ating
Ġmock umentary
Ġstam ina
Ġstult ifying
Ġstult ifyingly
Ġreck less
Ġreck lessness
Ġrevision ist
Ġrerun s
Ġasc ends
Ġbutter flies
Ġlibert ies
Ġlibert ine
Ġseal ed
Ġhey day
ĠBre cht
ĠButter worth
Ġabrupt ly
Ġunse en
Ġunse emly
Ġunem ot
Ġunem ployment
Ġdegra ded
Ġatroc ious
ĠCH ASES
actor ily
Ġplaus ible
Ġplaus ibility
Thr oughout
Thought ful
Ġperm its
ĠWas abi
Ġkin etic
ĠPar mentier
ĠPort ugu
ĠFear Dot
Ġclock s
ĠGr oup
ĠLar ry
ĠLar amie
force ment
Ġtrim med
Ġupro ar
Ġupro arious
Ġquint et
ĠJust ine
ĠJeff rey
Ġadopt s
Ġcompar able
ĠKath ryn
Ġdisappe ar
Ġrapp ers
Ġrapp ort
Ġridd led
Ġtwink le
Ġunders core
Ġimpat ient
Ġimpat iently
Ġremem bers
Ġremem brance
Ġresent ment
Ġcontend ers
ĠOther s
scra per
Ġchees iest
Ġincor porate
Ġincor porates
Ġcomplet ion
Ġglac ial
Ġdecon struct
Ġindo ors
Ġextr as
ĠVal ley
Ġdeterior ates
ĠSpace y
ĠSpring er
Ġdemean or
Ġswoon y
Ġswoon ing
Ġmargin ally
Ġretool ing
Ġretool ed
Ġprofess or
Ġfantast ical
Ġpatron izing
Ġoccup ied
Ġillog ic
Ġillog ical
Ġmax imum
Ġcamer as
Ġcamer awork
Ġsignpost s
Char acters
Charl otte
Ġballet ic
Ġugl iness
Ġhyster ia
Ġpurport edly
Ġimmac ulate
Ġimmac ulately
Ġaccomplish ments
Dev os
Ġjuxtap osition
Ġdrunk en
Ġoverwhelm ingly
ĠSilber ling
Ġendeav our
Ġendeav ors
Ġflee ing
Trans l
ĠJuliet te
Ġmiracul ous
Ġmiracul ously
ĠBerg man
Ġhallmark s
Ġmiscalcul ation
huang zhuang
Ġaccumul ated
Ġaccumul ates
Ġunapolog etic
Ġunapolog etically
Ġunmention able
Aw esome
Acc ording
Ass ured
Austr alian
Art eta
Car rying
Camp anella
Cha i
Canad ian
Di az
Dem onstrates
Dazz ling
Fair ly
Gang s
Gold member
Hel mer
Hands ome
Ind eed
Lo vingly
Large ly
Met iculously
Mary am
Nice ly
Odd ly
Pol ished
Pay ne
Pain ful
Russ ian
Remark able
Sn ipes
bra iner
bour g
cons idered
glor ification
iw a
ioc re
live ira
master piece
Ġil k
Ġtin iest
Ġtwe aked
Ġtatt oos
insp iring
Ġsul ky
Ġsky scraper
refere ntial
Ġovere xposed
Ġtheor izing
Ġfert ile
Ġfris sons
Ġmord ant
Ġmidd ling
Ġmurd erer
Ġwiz ard
Ġcod a
Ġcoc oon
Ġcuss ing
Ġbru ising
Ġbib lical
Ġple thora
Ġpian o
Ġpoll ution
Ġpumm el
Ġthro es
Ġthri ves
Ġdamp ened
Ġdawn s
Ġinj uries
Ġindu ces
Ġlam eness
Ġital ic
Ġech oes
Ġeld erly
Ġevol ved
Ġecl ip
Ġgy mnast
Ġgour met
Ġstal king
Ġstub born
Ġren owned
Ġreef s
Ġlivel ier
Ġlibr arian
Ġlibid o
ĠSA T
ĠSa igon
Ġchill ingly
Ġencomp asses
Ġexal ted
Ġexempl ary
ĠBol ero
ĠBalk ans
Ġunch arted
Ġunleas hes
Ġconnoisse urs
Ġscrap book
ĠAust en
Ġneuro ses
ĠCele bi
ĠCarre y
Ġjok ester
Ġsoot hing
ĠHus band
ĠHerm itage
Ġprost it
Ġproced ure
Ġpluck ing
ĠInt acto
ĠDri ver
Ġpreval ent
Ġpregn ant
Ġprejud ice
Ġperple xing
Ġpercol ating
Ġran cid
Ġrhaps od
Ġvary ing
Ġimb ued
ĠPB S
ĠPap in
ĠPear l
ĠRac hel
ĠRib isi
Ġclo aked
Ġclaw s
Ġclub s
ĠGU N
ĠGoy er
ĠGeor gian
ĠLat ino
ĠLag aan
ĠLetter man
Ġspo il
Ġspiff y
ĠJun i
Ġarro gant
Ġovercook ed
Ġwhee zing
Ġpole mical
Ġslopp ily
Ġdisorient ing
Ġdiscont ent
Ġdiscipl ine
Ġrag bag
Ġrib ald
Ġrig ors
Ġriv als
Ġlifel ong
Ġimperson ation
Ġsurve ys
Ġviv re
Ġinsignific ance
Ġsmear y
Ġsmoot hes
Ġ16 3
Ġagree ably
obber ing
Ġattent ive
syn ching
Ġgradu ated
Ġgrate fully
Ġexcl amation
Ġaccla imed
Ġexplor ations
ĠVegg ie
Ġtoug her
Ġhandic apped
Ġterrif ically
Ġdemograph ically
Ġphon iness
Ġunsus pecting
Ġunsuccess ful
Ġbrazen ly
Ġretal iation
Ġconfron ting
Ġboiler plate
Ġboorish ness
Ġparad oxically
Ġdevote es
Ġgrie ving
ĠAlmod ÃĥÆĴÃĤ
Ġdaydream s
Ġnoncon formist
Ġmotor cy
shoot ing
Ġregurg it
Ġcombust ible
Ġavalan che
Ġautop sy
Ġastron aut
Ġdigit ally
Ġdenou ement
Ġimmers ed
Ġpubl ishing
Plod ding
Ġexhib it
Ġmilest ones
Ġcalib rated
Screen writer
Ġschiz ophrenia
Ġmachin ations
ĠOrd ers
Ġdimin ishing
Ġunrepent ant
ĠLaure nce
Ġirreve rent
Ġirrevoc able
Enjoy ably
Ġmillenn ium
Ġramp ant
ĠBurkin a
Complete ly
Ġcryst all
ĠBern ard
Brilli antly
Ġfragment ary
Ġmasquer ade
ĠMusket eer
Ġsandw ich
Ġconcoct ed
Ġtreacher y
Ġscrut iny
ĠTunis ian
ĠFranc isco
Ġsprink led
Ġreconcil iation
ĠDelh i
Ġpartnership s
Ġletharg ically
Ġturntabl ism
Creep y
Ġinadequ ate
Ġjettis oned
Ġoutweigh s
ĠGiann i
Ġsledgeham mer
Ġrepugn ance
Ġpsychedel ic
Ġnonjudgment al
Asp ires
Bu ild
Bas ically
Bull ock
Benn ett
Col orful
DV D
Dre ary
Es pecially
Eve lyn
East wood
Ess entially
Fur ther
Gen uinely
Gos ling
Glor iously
Hum orous
Haw ke
Huge ly
Kat z
Kur ys
Mad onna
Main tains
Mere ly
Mind less
Mac Dowell
Matt hew
Original ity
Predict ably
Psych ologically
Que en
Rub bo
Rey es
Sem itism
Tul ly
Tier nan
Term inally
Upl ifting
Verb inski
Wil co
Wier zbick
Yak usho
breat hing
bopp er
dazz le
mong ering
nom inated
nons ense
oct ane
occ up
pres ervation
sac rifice
whe eling
zant ine
Ġig loo
Ġ00 7
Ġtut orial
Ġtag line
Ġtuck ed
Ġaver ting
Ġaus picious
Ġaust ere
Ġacer bic
inth ine
Ġsire n
Ġsult ry
Ġsang uine
Ġsixt ies
refle ction
Ġtherape utic
enness ee
Ġfus sy
Ġfier y
Ġfrown s
Ġwoo zy
Ġwate red
Ġwint ry
Ġwester n
Ġcres cend
Ġcine phile
Ġcower ing
Ġcudd ly
Ġcott on
Ġcyl inders
Ġbom bing
Ġbum per
Ġbrom ides
Ġbour geois
Ġbaw dy
Ġbatt les
Ġbien nial
ouvel le
Ġpiz azz
Ġpiv otal
Ġpots hots
Ġpinn acle
Ġthresh old
Ġdent ist
Ġdiz zy
Ġdice y
Ġdrow sy
Ġdump ed
Ġdrugg y
educ ational
Ġinaut hentic
Ġlod ging
Ġlett ers
Ġlumber ing
Ġlumin ous
Ġlusc ious
Ġhind ered
Ġhalft ime
Ġnim ble
Ġnour ishing
Ġell ipt
Ġearm arks
Ġebull ient
Ġeuph oria
Ġgust o
Ġgren ade
Ġgoss ip
Ġgib berish
Ġghou lish
Ġgogg les
entertain ing
Ġstad ium
Ġstur m
Ġstard om
Ġstupe fying
Ġrequis ite
Ġreleg ated
Ġupt ight
Ġasyl um
ridd led
Ġforgo es
irsh ner
amuy iwa
ĠSoc iety
ĠSimp son
ĠSimps ons
Ġchann els
Ġintert wined
Ġintrep id
Ġenvel ope
Ġenli ven
Ġennu i
Ġsept uagenarian
Ġseren ity
Ġnotew orthy
ĠBry an
ĠBens han
ĠBib i
ĠBail ly
ĠBund y
ĠBurd ette
ĠBreck in
Ġabhor rent
Ġabbre viated
Ġunash amedly
Ġunsc athed
Ġunatt ractive
Ġuneng aging
Ġunche cked
Ġunchar ism
Ġunorth odox
Ġunbrid led
Ġungain ly
Ġunappe aling
Ġunlim ited
Ġunthink able
Ġunimpe achable
Ġconcess ion
Ġconfect ion
Ġdeaf ening
ĠMear a
ĠMond ay
ĠMuss et
ĠMaf ia
ĠMerm aid
ĠMorm on
ĠMarc us
ĠApoll o
Ġneore alism
ĠCarn ahan
ĠCadd yshack
Ġjarg on
Ġsopor ific
ĠHint on
ĠHorn by
ĠHisp anic
Ġprolong ed
Ġplac id
Ġplann ed
Ġplumm ets
ĠDod ger
ĠDrid i
ĠDelt a
ĠDenn is
ĠDumm ies
ĠDyl an
Ġpreord ained
Ġpreempt ive
Ġpredom inantly
opard y
alleng ing
Ġrudiment ary
ĠWise girls
ĠWatt s
ĠWolod arsky
Ġimmer se
ĠPoot ie
ĠPompe o
ĠFellows hip
ĠRec all
ĠRugg ero
ĠRodri gues
Ġcloy ingly
ĠGains bourg
ĠGanes h
ĠGoli ath
ĠGheor ghiu
ĠTark ovsky
ĠTaut ou
ĠTup ac
ĠTurp in
ĠTai wanese
ĠTax i
Ġleisure ly
ĠLars on
Ġsputt ers
Ġtrimm ings
Ġflatt ens
Ġflipp ant
Ġadulter y
Ġardu ous
Ġarrang ements
Ġcomprehe nd
Ġloath some
Ġweapon ry
ĠNaz i
ĠNov ak
ĠEgy pt
ĠKier an
Ġsubsequ ent
Ġsubgen re
Ġblasp hemous
Ġdisgra ce
Ġrabb its
Ġtwitch y
Ġcaffein ated
Ġservant s
ĠChronic les
Ġaggra vating
Ġauditor ium
Ġheartstr ings
Ġrecons ideration
Ġobli vious
impanze es
Ġapparat us
Ġlackada isical
Ġexcurs ion
Ġpersnick ety
ĠStopp ard
Ġbubb les
Ġepoch s
ĠShimiz u
Ġunequiv ocally
Ġinterming ling
Ġinterrupt ed
ĠDecas ia
Strict ly
Ġmargar itas
Ġambival ence
Ġadminist ration
Ġparoch ial
ĠNewfound land
Ġmischie vous
Ġmisdem eanor
Ġineleg ant
Ġinextric ably
ĠThanks giving
Ġmetropol itan
Ġgrandilo quent
Ġauthent ically
Ġunpreced ented
Exquis itely
Exhilar ating
Ġtelemarket ers
ĠMcDorm and
ĠMcFarl ane
Ġtestoster one
Ġcopyc at
ĠPhoen ix
Ġmercil essly
Ġlabyr inthine
Reinfor ces
ĠElfried e
Ġestrang ed
Ġturmo il
Ġpulchrit ude
Ġhelluv a
ĠNebrid a
ĠBullwink le
ĠWestbro ok
Ġmultilay ered
Ġsolilo quies
ĠNickelode on
Performan ces
ĠSonnen feld
ĠPhiladelph ia
Ġgargant uan
ĠShekh ar
ĠNaqoy qatsi
ĠMississipp i
ĠHanuk kah
ĠCorcu era
Morrisset te
ĠPortugu ese
ĠFearDot Com
Wierzbick i
! ?
' m
1 6
1 7
2 2
3 0
3 00
4 9
5 3
5 5
5 00
7 3
7 7
8 4
9 5
9 9
A p
A v
A an
A id
A ble
A pt
A ction
A dd
A ug
A verage
A my
A lex
A band
A gain
A fraid
A uto
A mar
A vary
A imed
A bandon
A IDS
A chie
A aliyah
B er
B es
B or
B on
B an
B le
B ow
B ir
B ill
B ur
B us
B ere
B all
B og
B ear
B ound
B reen
B ang
B old
B oll
B ÃĥÆĴÃĤ
B ew
B read
B ub
B illy
B right
B ef
B land
B ott
B arre
B ray
B erry
B rian
B igg
B ittersweet
B ella
B risk
B ogdan
B uries
B acon
B ranagh
B ielinsky
B isset
B ouquet
B aby
C Q
C R
C ou
C al
C ut
C ra
C ri
C us
C ong
C ap
C ine
C are
C ram
C our
C oy
C age
C ass
C ry
C atch
C rit
C ru
C ount
C ross
C ute
C ub
C hen
C ann
C yn
C uri
C ele
C rum
C irc
C lic
C uts
C alling
C aine
C lock
C ube
C letis
C helsea
C ostner
C alcul
C hao
C rack
C ockettes
C uar
C herry
C urling
C oughs
C remaster
D er
D at
D il
D et
D ay
D am
D ial
D ie
D one
D ign
D ism
D aw
D iss
D uring
D rop
D ec
D rown
D ele
D rug
D roll
D raw
D iver
D iggs
D uvall
D eterm
D ecent
D oming
D igital
D odgy
D ixon
E D
E E
E O
E P
E T
E d
E h
E p
E q
E y
E is
E nd
E ar
E as
E ck
E mer
E fter
E arn
E ner
E xt
E ither
E dd
E lic
E ccent
E cks
E than
E mpire
E pps
E erily
E IR
E qual
E CR
F L
F r
F ant
F ive
F est
F ud
F ine
F ren
F oll
F ord
F ub
F resh
F rench
F arre
F ried
F ancy
F inal
F la
F ierce
F aithful
F amiliar
F isher
F railty
F emme
F ifty
F athers
F inds
F eral
F ault
F incher
F alters
F ulf
F IR
F alse
F ulford
F amuyiwa
G H
G U
G y
G et
G ay
G ow
G ere
G one
G oy
G ren
G ib
G ently
G rown
G oof
G ee
G arc
G raw
G reg
G uy
G aping
G rand
G aunt
G ondry
G arcia
G ollum
G ussied
G ambling
G raphic
G iggling
H F
H u
H it
H am
H ill
H ist
H ate
H ome
H olly
H its
H arm
H orn
H yp
H ope
H ai
H appy
H awn
H olds
H oly
H arsh
H alloween
H itchcock
H enry
H arks
H uston
H ailed
H olland
H ER
H olden
H andled
I E
I L
I V
I d
I an
I gby
I HO
I vory
J e
J s
J ar
J ol
J ir
J am
J ac
J ose
J aw
J ew
J udd
J aun
J udy
J ournal
J arecki
K e
K l
K en
K im
K id
K os
K now
K its
K icks
K illing
K enn
K een
K armen
K ieslowski
K nockaround
K lein
K oury
K oepp
K houri
K udos
K iarostami
K irshner
L E
L i
L il
L ed
L im
L and
L ac
L ends
L ots
L ush
L aced
L oses
L oose
L agg
L ux
L ask
L udicrous
L urid
L imps
L ucky
L yne
L AS
L ER
L illard
L EL
L isa
L azily
L avishly
L IE
M I
M Y
M a
M er
M is
M on
M om
M ess
M ill
M ag
M ak
M ast
M and
M ass
M ull
M ild
M aking
M az
M ÃĥÆĴÃĤ
M ord
M aster
M ane
M ove
M oot
M ention
M unch
M ovie
M ax
M oder
M aris
M eld
M erry
M eth
M iche
M ein
M atters
M urphy
M oody
M ama
M ichel
M aud
M inority
M endes
M IB
M emorable
M arshall
M ushes
M ixes
M ontias
N G
N L
N N
N O
N in
N or
N on
N ine
N az
N ons
N arr
N orm
N ights
N aught
N asty
N iccol
N ijinsky
N emesis
N achtwey
N akata
N obody
O T
O W
O o
O t
O st
O per
O ops
O bs
O uter
O NE
O liveira
P C
P a
P ar
P an
P ut
P ot
P et
P ri
P rom
P ort
P ap
P ep
P ry
P ull
P atch
P ost
P ress
P ran
P up
P ier
P onder
P asc
P air
P rop
P omp
P erson
P erry
P leasant
P rat
P hot
P ipe
P hill
P honed
P rurient
P utting
P AA
Q ual
Q utting
R T
R o
R at
R ay
R id
R am
R out
R ight
R os
R ash
R ates
R ew
R ead
R ec
R ef
R ee
R anks
R ingu
R anging
R oger
R omething
R anges
R umor
R ollerball
R ouge
R eeks
R uns
R abbit
R uh
R uz
R ambles
S C
S E
S a
S u
S er
S it
S on
S ou
S al
S ly
S le
S et
S ay
S ill
S qu
S us
S ust
S all
S ac
S ear
S elf
S ound
S hed
S now
S its
S ew
S ub
S uck
S olid
S ha
S chn
S unk
S kin
S aving
S che
S ean
S light
S eld
S erry
S inger
S ein
S een
S atisf
S afe
S add
S ucc
S aved
S atin
S oul
S odd
S ounding
S ummer
S imone
S pecial
S ignific
S eldom
S uccess
S ervice
S ym
S peaks
S ocrates
S avvy
S ushi
T A
T al
T ed
T el
T ay
T ow
T un
T art
T hing
T res
T ense
T ian
T ail
T uck
T yp
T ony
T ender
T oes
T amb
T urns
T erry
T roll
T iresome
T een
T ex
T ales
T IN
T ykwer
T ackles
T ruly
T akashi
T otally
T urturro
T ennessee
T LE
U B
U p
U z
U ps
U CK
U GH
V i
V in
V er
V ere
V ile
V ib
V ague
V ampire
V elocity
V enice
V eter
V illeneuve
V iva
V ER
V iveka
V ictor
V ulgar
V eers
W W
W o
W at
W es
W ed
W ay
W end
W ick
W ise
W ish
W atch
W ang
W ew
W ins
W rap
W ork
W ildly
W ank
W orld
W ashington
W anders
W orthy
W oe
W imps
W illiam
W ince
W itherspoon
W atchable
W alsh
W aiting
W iser
W orse
W AY
W obbly
W EP
W ONE
X x
X IT
Y E
Y S
Y e
Y o
Y ep
Z e
Z o
Z ell
Z any
Z igZag
Z aidan
Z huangzhuang
a o
a q
a ing
a ist
a very
a vers
a iss
a fter
a irl
a ef
b en
b ou
b ent
b et
b ol
b ow
b ill
b art
b ate
b ig
b us
b ust
b op
b ie
b ich
b ond
b ish
b oth
b ian
b ath
b ob
b ash
b ord
b ane
b ility
b ys
b ret
b io
b right
b ug
b ird
b ush
b ump
b ett
b aring
b ones
b land
b iest
b arre
b itious
b bers
b ashing
b bed
b orrow
b eth
b anging
b uy
b oding
b irds
b owed
b etween
b rand
b usters
b uffed
b rious
b osi
b ogg
b urdened
b uggery
b orrows
b alanced
b unct
b ivore
c or
c am
c ill
c if
c ell
c us
c ust
c able
c all
c ie
c age
c akes
c red
c ash
c ause
c up
c uff
c ÃĥÆĴÃĤ
c ends
c ub
c oring
c zy
c apt
c uss
c ellent
c ises
c umbers
c oph
c aked
c ops
c ified
c uro
c ases
c urs
c alling
c asting
c ano
c inema
c urity
c ourse
c ritical
c ocious
c urling
c ritique
c ushion
d a
d r
d le
d ut
d et
d ul
d am
d ate
d irect
d ab
d ark
d ish
d ip
d ress
d ling
d led
d read
d ote
d unk
d oes
d awn
d irty
d uddy
d itional
d esc
d eli
d emark
d ooper
d icing
d ressing
d eterm
d about
d game
d amm
d bury
d istant
e z
e at
e es
e un
e ous
e us
e ven
e very
e ating
e ans
e ved
e ze
e ared
e val
e xtreme
e conom
e vity
e qui
e enth
e ga
e ventually
e uvre
e opardy
f u
f y
f in
f al
f il
f ro
f ess
f ant
f rom
f us
f ood
f ine
f ac
f ear
f ish
f ide
f oc
f ans
f ings
f old
f urn
f led
f ool
f asc
f ied
f ee
f ident
f lex
f rat
f rontal
f ils
f ocused
f ano
f uel
f initely
f ingers
f idelity
f uture
f ellows
f agi
f inder
f ixes
f lected
g s
g is
g le
g ut
g as
g ation
g end
g reat
g reen
g ance
g ade
g ang
g hed
g ling
g iv
g istic
g ia
g ently
g io
g ery
g ots
g ments
g rown
g ley
g oose
g iven
g uts
g otten
g usting
g rowing
g ils
g ression
g hetto
g iate
g anger
g rie
g uffaw
h is
h on
h al
h il
h ast
h ate
h os
h ile
h ating
h ling
h ors
h igh
h ash
h its
h arm
h of
h air
h ged
h ames
h tra
h ino
h oppy
h usi
h olic
h obbled
h aping
h opping
h awk
h ashvili
h olland
h olstered
i ell
i ast
i pl
i ore
i per
i ang
i ors
i ates
i vious
i ott
i ability
i aph
i ades
i ants
i work
i Ps
i hil
j i
j er
j it
j or
j le
j el
j ive
j ell
j ack
j ob
j ug
j ein
j eal
j usting
j usted
j umbo
j obs
j ournal
k le
k as
k ie
k ap
k ingly
k ily
k iller
k icks
k illing
k ata
k ovsky
l it
l is
l an
l al
l un
l ap
l ick
l ip
l ance
l ame
l ater
l iv
l aw
l ib
l app
l iness
l ord
l ins
l ane
l ove
l uck
l opp
l aced
l ange
l oose
l orious
l icking
l uv
l apping
l aughter
l aki
l istically
l ifts
l ensed
l uj
l oser
l azily
m i
m at
m il
m ic
m ag
m ak
m ant
m ally
m art
m ell
m ity
m ind
m ake
m ap
m are
m ear
m ary
m ily
m ath
m ates
m ale
m ount
m ia
m ination
m ail
m ÃĥÆĴÃĤ
m uck
m und
m ied
m used
m ones
m urder
m ishes
m outh
m itted
m iers
m otion
m ailing
m asculine
m atorium
n at
n on
n ut
n et
n ul
n if
n os
n ge
n ear
n ical
n ost
n oc
n old
n igh
n ale
n arr
n ced
n ail
n ier
n ub
n els
n na
n ament
n aked
n asty
n iche
n ails
n urt
n ini
n iving
n early
n nial
o z
o he
o el
o ble
o ist
o ate
o form
o iled
o vela
p y
p in
p ing
p il
p ay
p oo
p ir
p un
p ist
p ity
p one
p end
p ap
p age
p ile
p ull
p ense
p hed
p elling
p ool
p ia
p ets
p ressive
p unch
p itch
p aces
p acks
p owers
p erson
p ants
p inn
p irited
p redict
p aint
p redictable
p ression
p ounding
p itched
p Ter
p retentious
p arents
p yrotechn
p addle
p icky
p ossessed
p oused
p imple
r im
r ough
r ust
r ich
r ance
r ice
r ings
r ations
r ately
r ath
r ash
r ument
r ons
r ically
r udd
r ott
r ung
r arily
r ina
r anging
r atively
r inated
r angle
r asive
r attling
s u
s er
s or
s ion
s im
s ch
s ill
s um
s ell
s ust
s and
s ack
s ake
s end
s age
s ue
s ating
s we
s ink
s aw
s elling
s iness
s ane
s ub
s ix
s urp
s day
s ets
s hel
s oph
s atur
s inging
s ford
s quee
s ummer
s leep
s pecial
s urprisingly
s uk
s ophisticated
s imple
s avvy
s lapp
s nub
t t
t w
t re
t it
t il
t ch
t ro
t em
t ell
t ake
t age
t ingly
t aking
t imes
t ock
t ree
t sy
t ney
t ered
t ier
t empt
t ah
t use
t iest
t icks
t ank
t ape
t wo
t urns
t eld
t roll
t iveness
t apping
t isse
t epid
t enth
t ugging
t ripe
u w
u er
u est
u pl
u ep
u ations
u ks
u its
u ities
u ades
u eness
u ij
u zzy
u eller
u ptuous
u enced
u wer
u asion
u itively
v a
v on
v ell
v ine
v ich
v age
v ish
v ated
v ents
v ages
v ates
v ann
v oid
v illing
v orting
v ovich
v ampire
v ault
v ado
v laki
w d
w y
w on
w al
w ly
w ent
w ow
w ful
w ack
w ary
w age
w atch
w ild
w its
w ered
w aster
w ave
w hen
w aves
w itty
w aving
w earing
w arts
w olds
w asting
w rapped
w reck
w rack
w ieldy
w lis
x y
x en
x on
x ed
x as
x im
x ter
x ian
x ieties
x Xx
y a
y at
y nd
y on
y an
y ro
y man
y co
y mp
y cl
y uppie
z ar
z ers
z ook
z ily
z sc
z ier
z ied
z ler
z arre
z ero
z uel
z heimer
z mÃĥÆĴÃĤ
z pil
Â £
Â §
Â ´
Â ¶
Â »
Ġ %
Ġ +
Ġ ick
Ġ ÃĥÆĴÃĤ
Ġ qatsi
Ġ icky
Ġ xXx
Ġt v
Ġt is
Ġt ent
Ġt ro
Ġt rom
Ġt ire
Ġt ard
Ġt ens
Ġt ink
Ġt ree
Ġt ween
Ġt its
Ġt ins
Ġt ier
Ġt und
Ġt ied
Ġt ira
Ġt ended
Ġt icks
Ġt ank
Ġt ape
Ġt ides
Ġt acks
Ġt aught
Ġt actic
Ġt rek
Ġt umble
Ġt angle
Ġt outs
Ġt ummy
Ġt roopers
Ġt ables
Ġt aunt
Ġt inge
Ġt apped
Ġt ipped
Ġt rope
Ġt ainted
Ġt rolls
Ġt inseltown
Ġt amer
Ġa er
Ġa il
Ġa ce
Ġa qu
Ġa vid
Ġa co
Ġa version
Ġa vis
Ġa hem
Ġa ided
Ġa verse
Ġa vert
Ġa fterschool
Ġa fresh
Ġa yat
in as
in et
in est
in ence
in ine
in ac
in ite
in age
in ise
in less
in ably
in ually
in ates
in ia
in ality
in vol
in als
in ize
in ances
in ians
in fest
in formed
in fat
in clusive
in otti
in vents
in zler
he at
he im
he id
he ard
he mer
he ll
he wn
he istic
he ning
he ming
he aring
he aval
Ġs en
Ġs id
Ġs ain
Ġs ie
Ġs ip
Ġs ings
Ġs ought
Ġs ale
Ġs app
Ġs illi
Ġs que
Ġs ized
Ġs aps
Ġs ags
Ġs elves
Ġs ank
Ġs ands
Ġs outh
Ġs aus
Ġs ample
Ġs anity
Ġs aint
Ġs isterhood
Ġs appiness
re i
re an
re el
re ass
re wn
re ting
re els
re ments
re aring
re mist
re action
re li
re aches
re cks
re gory
re bell
re jud
re appe
re fitting
re lease
re flex
Ġo at
Ġo es
Ġo il
Ġo om
Ġo le
Ġo ve
Ġo af
Ġo ops
Ġo wed
Ġo mission
Ġo euvre
Ġo uij
er ve
er ation
er ity
er op
er ick
er man
er oy
er ating
er ated
er ative
er gy
er lessly
er oes
er field
er ration
er gens
er jack
it i
it ly
it le
it ate
it ory
it ge
it iz
it ual
it ingly
it iv
it led
it ering
it ously
it zy
it ational
it ives
it che
it aph
it ised
it iveness
it ulation
it iation
it ano
it utes
it erell
it hesis
it bart
it rust
Ġthe oc
Ġthe ft
Ġthe sp
Ġthe ology
is k
is he
is al
is im
is ans
is ations
is ky
is ci
is ively
is ement
is eness
is qatsi
is cipl
en a
en ity
en ough
en us
en able
en ment
en ade
en ching
en cing
en velop
en cou
en esque
en ette
en itor
en iency
en iality
en otti
en ovela
at ou
at an
at al
at ly
at ra
at ious
at ore
at ose
at ting
at ible
at uring
at ched
at ological
at ivity
at field
at zen
at iable
at ulate
at elle
at hetically
at uers
at bush
Ġf ing
Ġf ed
Ġf el
Ġf ad
Ġf oo
Ġf ir
Ġf ist
Ġf ell
Ġf ust
Ġf ry
Ġf ide
Ġf ost
Ġf ang
Ġf aking
Ġf istic
Ġf ash
Ġf ount
Ġf als
Ġf ret
Ġf atter
Ġf ists
Ġf iddle
Ġf ishing
Ġf rol
Ġf ades
Ġf usion
Ġf uses
Ġf ray
Ġf ishes
Ġf aked
Ġf olds
Ġf uddy
Ġf uddled
Ġf isher
Ġf reaks
Ġf ift
Ġf raction
Ġf umes
Ġf risk
Ġf ading
Ġf umbling
Ġf usty
Ġf umbled
Ġf encer
Ġf athom
Ġf encing
ing h
es es
es on
es op
es press
es cope
es bitt
es bian
Ġm ou
Ġm ir
Ġm um
Ġm ak
Ġm ant
Ġm ig
Ġm and
Ġm ould
Ġm ong
Ġm ating
Ġm int
Ġm ors
Ġm ism
Ġm uff
Ġm ute
Ġm ends
Ġm orn
Ġm ined
Ġm alls
Ġm ett
Ġm ending
Ġm atured
Ġm arsh
Ġm attered
Ġm ellow
Ġm umm
Ġm uy
Ġm umbles
Ġm ingles
Ġm uttering
Ġm ikes
nd ed
nd iced
nd rome
Ġw il
Ġw ra
Ġw ig
Ġw itt
Ġw elf
Ġw ade
Ġw aking
Ġw ren
Ġw imp
Ġw az
Ġw ool
Ġw ail
Ġw aster
Ġw ane
Ġw ines
Ġw iel
Ġw ider
Ġw ets
Ġw elt
Ġw aged
Ġw ank
Ġw ides
Ġw ives
Ġw ised
Ġw ades
Ġw ilt
Ġw ending
Ġw arth
Ġw inks
Ġw add
Ġw agers
Ġw ipe
Ġw reaks
Ġw inking
Ġw ifty
Ġw olf
Ġw ailing
Ġw ading
Ġw attage
Ġw andered
Ġw arden
Ġw obbly
Ġw ithering
Ġw iggling
Ġw recks
Ġc es
Ġc el
Ġc ess
Ġc oo
Ġc her
Ġc ous
Ġc out
Ġc ig
Ġc ab
Ġc ert
Ġc ac
Ġc age
Ġc ass
Ġc ue
Ġc ens
Ġc ull
Ġc hes
Ġc ran
Ġc asc
Ġc ub
Ġc ues
Ġc aps
Ġc ows
Ġc ities
Ġc ork
Ġc ats
Ġc ashing
Ġc ries
Ġc ried
Ġc attle
Ġc ogn
Ġc ards
Ġc ases
Ġc ube
Ġc anter
Ġc oos
Ġc ulp
Ġc ackles
Ġc ushion
Ġb il
Ġb ill
Ġb out
Ġb ard
Ġb ong
Ġb end
Ġb ick
Ġb ass
Ġb ise
Ġb ish
Ġb rit
Ġb ob
Ġb ons
Ġb ount
Ġb ail
Ġb ends
Ġb atter
Ġb off
Ġb itten
Ġb ese
Ġb rown
Ġb urd
Ġb ender
Ġb ene
Ġb illing
Ġb ode
Ġb rew
Ġb inary
Ġb ared
Ġb aked
Ġb ills
Ġb iling
Ġb anging
Ġb inging
Ġb attered
Ġb outs
Ġb athing
Ġb inds
Ġb ummer
Ġb isc
Ġb attling
Ġb ells
Ġb ridge
Ġb urdened
Ġb aaaa
Ġb atting
or i
or st
or ce
or us
or ie
or ance
or ph
or ky
or ates
or ner
or ÃĥÆĴÃĤ
or ms
or io
or ize
or ged
or ability
or step
or gas
on a
on o
on er
on al
on ish
on ents
on so
on ics
on ze
on ton
on iously
on izes
on ique
on fly
on hole
on orÃĥÆĴÃĤ
ou le
ou ff
ou red
ou lt
ou ins
ou ci
ou lin
ou li
ou ped
Ġp ith
Ġp ow
Ġp out
Ġp ell
Ġp act
Ġp ig
Ġp and
Ġp ere
Ġp ard
Ġp all
Ġp ab
Ġp ious
Ġp ies
Ġp ine
Ġp au
Ġp ear
Ġp ound
Ġp ip
Ġp oth
Ġp aw
Ġp up
Ġp ars
Ġp ÃĥÆĴÃĤ
Ġp ys
Ġp ains
Ġp ix
Ġp oof
Ġp unny
Ġp aces
Ġp ared
Ġp ique
Ġp itted
Ġp abl
Ġp izz
Ġp lex
Ġp ander
Ġp lying
Ġp inks
Ġp orous
Ġp iles
Ġp ooper
Ġp imps
Ġp uddle
Ġp inch
Ġp eter
Ġp owered
Ġp ours
Ġp ige
Ġp oodle
Ġp andered
Ġp ounds
Ġp asse
Ġp yro
ar im
ar ag
ar ation
ar ne
ar ice
ar ingly
ar ations
ar ney
ar ÃĥÆĴÃĤ
ar key
ar iety
ar alle
ar iably
ar boards
ar zan
ar oni
Ġand ro
an ut
an ke
an se
an ook
an ose
an other
an ning
an ky
an ia
an cial
an cer
an ery
an ha
an ched
an ov
an imal
an cies
an boy
an ford
an cers
an quil
an imated
an alytical
an alysis
al or
al ed
al og
al ment
al ry
al ating
al antly
al ges
al ding
al izes
al insky
al vert
al uation
al oming
al vage
Ġth ie
Ġth umb
Ġth ys
Ġth und
Ġth wart
Ġth under
Ġth irteen
Ġth uggery
ly a
ly de
ly tes
Ġd ic
Ġd ot
Ġd ow
Ġd ir
Ġd un
Ġd um
Ġd ive
Ġd ain
Ġd ood
Ġd itt
Ġd ich
Ġd ens
Ġd red
Ġd aw
Ġd arn
Ġd ates
Ġd ron
Ġd ues
Ġd ug
Ġd ork
Ġd iction
Ġd oles
Ġd itty
Ġd uly
Ġd ung
Ġd ank
Ġd rew
Ġd uct
Ġd umber
Ġd iner
Ġd ownt
Ġd uel
Ġd otted
Ġd ressing
Ġd unce
Ġd oodle
Ġd wind
Ġd ithering
Ġd aringly
Ġd ancers
il il
il ight
il ie
il ary
il ian
il fully
il ized
il andering
il etic
il itude
il itating
il itator
ed it
ed ro
ed ay
ed ling
ed ia
ed ric
ed ger
ed iction
ed ges
ed ged
ed itious
ed gling
ic ent
ic ion
ic id
ic um
ic ab
ic ry
ic ian
ic ature
ic olas
ic anery
Ġto v
Ġto y
Ġto ast
Ġto dd
Ġto me
Ġto ys
Ġto ts
Ġto pping
Ġto asts
Ġto pple
Ġto wering
Ġin ch
Ġin se
Ġin version
Ġin aus
Ġin anity
Ġin put
Ġin forms
Ġin qui
Ġin vincible
Ġin itially
Ġin anities
Ġin active
Ġin mates
Ġin itiation
Ġl ent
Ġl ol
Ġl oo
Ġl um
Ġl em
Ġl act
Ġl ite
Ġl ately
Ġl ord
Ġl asc
Ġl amp
Ġl apt
Ġl aced
Ġl ags
Ġl ustr
Ġl ung
Ġl ashing
Ġl ax
Ġl awn
Ġl ops
Ġl ending
Ġl ux
Ġl ingu
Ġl isp
Ġl add
Ġl outs
Ġl apping
Ġl iner
Ġl arded
Ġl ampoon
Ġl aun
Ġl agging
Ġl ugu
Ġl oops
Ġl eniency
Ġl esbian
Ġh i
Ġh ill
Ġh ire
Ġh os
Ġh one
Ġh ue
Ġh ile
Ġh ating
Ġh ose
Ġh oth
Ġh ool
Ġh olog
Ġh ier
Ġh ired
Ġh uck
Ġh ots
Ġh itch
Ġh unk
Ġh ott
Ġh arp
Ġh oney
Ġh icks
Ġh ats
Ġh ank
Ġh ides
Ġh osp
Ġh amb
Ġh oly
Ġh alle
Ġh unky
Ġh obbled
Ġh mm
Ġh opped
Ġh iat
Ġh arks
Ġh iber
Ġh ospital
Ġh ubr
Ġh ounds
Ġh agi
Ġh oofing
Ġh overing
Ġh anky
om i
om it
om on
om ic
om ers
om ous
om ical
om imes
om ically
om me
om ized
om ino
om onic
om ached
om oric
om atically
om sday
om orph
st a
st ri
st ir
st art
st ood
st one
st ert
st ance
st ress
st ru
st aking
st ock
st hen
st omp
st udd
st aged
st asy
st itious
st orm
st eni
st arring
st eal
st een
st unt
st antial
st ache
st rip
st arter
st ained
st itial
st ruck
st oria
st inting
st upid
st atement
st raord
st rewn
st orms
st omached
Ġn it
Ġn ut
Ġn ad
Ġn ur
Ġn ast
Ġn ative
Ġn ations
Ġn ible
Ġn asc
Ġn ub
Ġn atter
Ġn ude
Ġn apt
Ġn osed
Ġn ights
Ġn uts
Ġn umbs
Ġn urs
Ġn orth
Ġn ift
Ġn atives
Ġn rel
Ġn utt
Ġn ada
Ġn oodle
Ġn orthern
Ġn aval
Ġn ouvelle
Ġn ihil
Ġn ymp
Ġn anose
Ġit ching
Ġit iner
Ġit ems
Ġit eration
le m
le en
le able
le ven
le ge
le ans
le vel
le ting
le ments
le pping
le vision
le head
le gged
le fs
le hill
le ading
le epless
Ġis ol
ut in
ut ing
ut her
ut ally
ut ably
ut ations
ut ional
ut arsky
ut onium
Ġe h
Ġe ke
Ġe ag
Ġe art
Ġe ard
Ġe up
Ġe aves
Ġe rect
Ġe bb
Ġe vincing
Ġe volving
ct op
ct ors
ct urn
ct olog
ct rine
ct rinated
el ve
el ay
el and
el ty
el ian
el ines
el by
el inn
el good
el osi
el ganger
el erated
Ġg ig
Ġg us
Ġg ab
Ġg au
Ġg ull
Ġg own
Ġg ays
Ġg aw
Ġg ather
Ġg az
Ġg ates
Ġg els
Ġg utter
Ġg erm
Ġg ee
Ġg amb
Ġg ander
Ġg rey
Ġg oul
Ġg athers
Ġg ait
Ġg ushing
Ġg aping
Ġg alled
Ġg awk
Ġg arner
Ġg otta
Ġg ulp
Ġg ambles
Ġg osh
Ġg arde
Ġg ussied
Ġg hast
Ġg nat
Ġmo at
Ġmo on
Ġmo an
Ġmo pe
Ġmo pp
Ġmo th
Ġmo lt
Ġmo jo
Ġmo lest
Ġmo saic
Ġmo pes
Ġmo sque
Ġmo lehill
ent ous
ent ation
ent ine
ent ary
ent ingly
ent imes
ent iful
ent ric
ent ec
ent ley
ent enn
ent ification
ent atious
ion able
ion th
ion ably
ion ately
ot i
ot ent
ot ch
ot am
ot ations
ot hes
ot yp
ot ient
ot ches
ot ographer
ot ivated
ot hesis
ot istical
ot rash
ot omized
as il
as ch
as em
as ide
as ia
as els
as ured
as semb
as leep
as uj
ve il
ve als
ve heart
ve rest
ve tÃĥÆĴÃĤ
ve ille
ve tch
et re
et ing
et ry
et ting
et ering
et ently
et ball
et rott
im ing
im ar
im ally
im us
im pt
im able
im ful
im age
im ach
im ney
im arr
im mers
im inal
im ator
im ulation
im inally
im aver
im fan
im inished
im inating
vi v
vi an
vi ent
vi et
vi ol
vi ation
vi est
vi ality
vi era
vi rus
vi eland
Ġst able
Ġst one
Ġst ap
Ġst akes
Ġst ave
Ġst air
Ġst alls
Ġst oke
Ġst aid
Ġst ump
Ġst itch
Ġst ability
Ġst acks
Ġst oop
Ġst reaks
Ġst anz
Ġst oned
Ġst ilet
Ġst abbing
Ġst rolls
Ġst ench
Ġst odgy
Ġst umblings
Ġst rides
Ġst oner
Ġst imulation
Ġre z
Ġre un
Ġre pt
Ġre op
Ġre edy
Ġre ne
Ġre vers
Ġre aw
Ġre ams
Ġre vis
Ġre iter
Ġre wr
Ġre aff
Ġre versal
Ġre inc
Ġre verse
Ġre place
Ġre eks
Ġre works
Ġre vigor
Ġre charged
Ġre heated
Ġre new
Ġre eking
Ġre hears
Ġre placing
Ġre ception
Ġre worked
Ġre imagine
Ġre assemb
ra z
ra in
ra it
ra pt
ra ight
ra ine
ra cing
ra cial
ra ged
ra eli
ra des
ra ked
ra vating
ra iser
ra vaged
ra vels
ra isal
Ġu gh
Ġu pp
Ġu ber
Ġu pping
Ġu plo
Ġu mpt
Ġu hhh
ver ts
Ġbe es
Ġbe ers
Ġbe ck
Ġbe ause
Ġbe gr
Ġbe verage
Ġbe head
Ġbe ached
Ġbe asts
Ġbe aches
Ġbe ads
Ġbe arded
Ġbe gets
Ġbe mused
ul as
ul se
ul um
ul ak
ul ld
ul ant
ul ated
ul ates
ul ently
ul iac
ul ibrium
ul nick
ul thood
ul holland
ul zar
ce asing
ce ivable
ce rer
ce mi
ch in
ch ill
ch ain
ch and
ch ip
ch ingly
ch ach
ch ism
ch ib
ch ÃĥÆĴÃĤ
ch air
ch ological
ch ai
ch illing
ch anging
ch annel
ch urning
ch owski
ch alantly
ro e
ro h
ro se
ro ck
ro ated
ro du
ro sc
ro aring
ro ze
ro gue
ro bed
ro ken
ro do
ro bin
ro gation
ro vich
The ological
The ology
The kids
Ġfil ter
Ġfil th
Ġon line
Ġon stage
Ġfilm ic
Ġfilm going
Ġan ne
Ġan ew
Ġan ts
Ġan ec
Ġan ony
Ġan alyze
Ġan cill
Ġan kle
Ġan xieties
Ġan alges
Ġy am
Ġy est
Ġy ell
Ġy ard
Ġy aw
Ġy elling
Ġy ah
Ġy ung
Ġy ank
Ġy acht
Ġy ikes
Ġy uppie
Ġy uks
Ġas hes
Ġas ham
Ġas phalt
Ġas htra
Ġas inine
ith ium
ri o
ri er
ri en
ri ly
ri ot
ri est
ri ge
ri ber
ri ef
ri ele
ri pped
ri ka
ri ety
ri bution
ri bably
ri gates
ol o
ol s
ol ar
ol ph
ol ia
ol ics
ol by
ol let
ol leg
ol iation
ol ini
ol nick
ol ested
ay kin
ay amalan
ke a
ke en
ke ley
ke eping
ke ga
ke pie
ow se
ow itz
ow cases
ad ay
ad ers
ad our
ad ult
ad ays
ad ults
ad cl
ad oles
ad vice
ad vant
ad renal
ad owing
ad ventures
ad fast
ad justed
ad rangle
ad zook
ad ena
ad orability
ad ona
Ġfor k
Ġfor ty
Ġfor ges
Ġfor bearing
Ġwith holds
vie ve
vie we
ess a
ess e
ess i
ess ively
se ed
se ct
se um
se ated
se vent
se ek
se quently
se eds
se eming
se cting
Ġbut ton
Ġbut che
oo b
oo pe
oo ges
oo syn
oo galoo
Ġwh it
Ġwh ir
Ġwh am
Ġwh ipp
Ġwh ining
Ġwh isp
Ġwh oop
Ġwh ites
Ġwh oos
Ġwh acking
Ġwh ipping
Ġwh irling
Ġwh ipl
Ġwh oope
id an
id ity
id able
id ge
id ious
id ance
id ual
id ering
id ently
id ley
id oscope
Ġcom in
Ġcom ical
Ġcom fy
Ġcom atose
Ġcom rades
Ġsu av
Ġsu ms
Ġsu ey
Ġsu icid
ir ren
ir der
ir ky
ir ardot
ir py
ir ulnick
ir kega
Ġmovie house
Ġmovie maker
ers ace
ers bur
ers pliced
ers napp
ers uasion
am u
am ble
am ous
am ant
am ity
am os
am ond
am ish
am ination
am used
am let
am orous
am oto
am boat
am amie
am ela
am stress
Ġli ar
Ġli ver
Ġli qu
Ġli able
Ġli bret
ill a
ill at
ill ip
ill ance
ill usion
ill igan
her ing
her ick
her self
ble matic
Ġal ac
Ġal arm
Ġal co
Ġal ient
Ġal arming
Ġal lying
Ġal armingly
Ġal tered
ag an
ag le
ag her
ag ell
ag ious
ag ne
ag ingly
ag ogue
ag ery
ag het
ag ency
ag ogy
ag ration
ag enda
ag grandizing
ag jit
un e
un is
un st
un et
un ity
un ter
un iz
un ting
un ism
un ner
un ts
un ges
un set
un cular
un ji
un pretentious
ĠS ly
ĠS ay
ĠS ir
ĠS ally
ĠS ight
ĠS ter
ĠS ong
ĠS end
ĠS ound
ĠS ull
ĠS old
ĠS ty
ĠS ting
ĠS ling
ĠS iss
ĠS up
ĠS ia
ĠS ail
ĠS of
ĠS amp
ĠS ub
ĠS illy
ĠS aid
ĠS chool
ĠS ene
ĠS omm
ĠS uge
ĠS ont
ĠS alt
ĠS tern
ĠS eth
ĠS add
ĠS ongs
ĠS ald
ĠS aved
ĠS yl
ĠS ica
ĠS ince
ĠS iber
ĠS irk
ĠS OO
ĠS acre
ĠS ophisticated
ĠS unshine
ĠS ellers
ĠS ensation
ĠS ECR
ĠS NL
ĠS WEP
ĠS zpil
ĠS inise
ĠS atan
ĠS ingh
ĠS leepless
ĠS elby
ĠS asch
ĠS unset
Ġch ant
Ġch art
Ġch ast
Ġch ort
Ġch ate
Ġch op
Ġch urn
Ġch ins
Ġch iar
Ġch atter
Ġch opp
Ġch ump
Ġch itch
Ġch unk
Ġch ides
Ġch urns
Ġch ina
Ġch lor
Ġch urning
Ġch asing
Ġch oos
Ġch ainsaw
Ġch ipper
Ġch impanzees
Ġch orus
Ġch icanery
Ġch imney
Ġch irpy
um a
um s
um en
um sy
um erable
um aki
em em
em ies
em ably
em ories
em ming
em por
em ple
em kin
em powered
em eck
em onium
ck en
ck ets
ck hand
ck ovich
ck erman
ous el
ous sill
out rage
ur ch
ur se
ur ice
ur ingly
ur ations
ur ts
ur ities
ur ges
ur ries
ur ray
ur ls
ur itan
ur otrash
Ġint ends
Ġint ently
Ġint ract
Ġint uitively
Ġint erspliced
ak o
ak in
ak ly
ak ob
ak iness
ak ovsky
Ġen able
Ġen ab
Ġen com
Ġen cy
Ġen vision
Ġen acted
Ġen vy
Ġen igma
Ġen veloped
Ġen ables
Ġen forced
Ġen forcement
Ġen cumbers
Ġen rapt
Ġen emies
ld er
ld rich
Ġex ig
Ġex iled
ist a
ist ing
ist ory
ist ance
ist les
ist ering
Ġse ac
Ġse edy
Ġse iz
Ġse ated
Ġse ater
Ġse aw
Ġse lect
Ġse izing
Ġse rend
Ġse eping
Ġse ptic
Ġse gues
Ġse wing
Ġse amy
Ġse vered
Ġse curity
Ġse gments
Ġse pia
Ġse wage
Ġhe ed
Ġhe el
Ġhe res
Ġhe ap
Ġhe av
Ġhe ms
Ġhe aps
Ġhe aving
Ġhe nce
Ġhe aped
Ġhe ws
Ġhe edless
Ġhe nna
ation ale
ant her
ant um
ant ive
ant ry
ant ula
ant ha
ant asms
Ġnot ations
Ġnot iced
rom ania
est a
est on
est ine
est ep
est ors
est ring
est inians
est ionably
if ter
if ac
if ted
if ah
if erous
if ford
if iably
qu el
qu ith
qu ers
qu art
qu ities
qu ited
qu ette
qu estionably
Ġha il
Ġha ute
Ġha irl
Ġha ird
Ġha ught
Ġha iled
Ġha iri
ĠB A
ĠB V
ĠB o
ĠB and
ĠB ick
ĠB ert
ĠB ac
ĠB ear
ĠB ish
ĠB ost
ĠB ors
ĠB olly
ĠB led
ĠB uff
ĠB att
ĠB ew
ĠB ier
ĠB air
ĠB ron
ĠB ug
ĠB ots
ĠB elt
ĠB ai
ĠB ring
ĠB erm
ĠB ank
ĠB amb
ĠB ox
ĠB rent
ĠB erry
ĠB omb
ĠB arker
ĠB ask
ĠB ola
ĠB irming
ĠB eneath
ĠB erk
ĠB aker
ĠB anz
ĠB oat
ĠB uy
ĠB rehe
ĠB acon
ĠB eta
ĠB atman
ĠB oni
ĠB ouquet
ĠB aja
ĠB oule
ĠB entley
ĠB oogaloo
Ġdo e
Ġdo ck
Ġdo pp
Ġdo ors
Ġdo gg
Ġdo sh
Ġdo zing
Ġdo sage
Ġdo omsday
Ġdo ctrine
Ġab us
Ġab ject
Ġab ys
Ġab rid
Ġab used
Ġab original
Ġab oul
Ġab iding
Ġab orbing
Ġab omination
Ġab orted
Ġab hors
Ġab rasive
Ġab erration
ure n
ure ls
ure lie
art on
art ist
art ment
art ificial
ire e
ire rs
Ġsh un
Ġsh ud
Ġsh ook
Ġsh ore
Ġsh ave
Ġsh rap
Ġsh orn
Ġsh uck
Ġsh ield
Ġsh oes
Ġsh iny
Ġsh rug
Ġsh ips
Ġsh ards
Ġsh lock
Ġsh outs
Ġsh ifty
Ġsh oe
Ġsh uns
Ġsh ivers
Ġsh irt
Ġsh ackles
Ġsh ambling
Ġsh mear
Ġsh ticks
Ġsh immers
Ġsh ifted
Ġun it
Ġun ity
Ġun hing
Ġun ind
Ġun pl
Ġun res
Ġun ans
Ġun ob
Ġun av
Ġun gu
Ġun read
Ġun self
Ġun cl
Ġun af
Ġun wise
Ġun ending
Ġun conscious
Ġun prov
Ġun lo
Ġun stead
Ġun mo
Ġun class
Ġun emb
Ġun nam
Ġun lock
Ġun orig
Ġun ifying
Ġun stopp
Ġun list
Ġun natural
Ġun notic
Ġun just
Ġun edited
Ġun stable
Ġun essential
Ġun amusing
Ġun romantic
Ġun qual
Ġun spool
Ġun appro
Ġun trained
Ġun entertaining
Ġun encou
Ġun stinting
Ġun veil
Ġun ravels
Ġun ceasing
Ġun questionably
ain ton
ain heads
ell ence
ell ite
ell ane
ell antly
Ġcon e
Ġcon ge
Ġcon version
Ġcon gr
Ġcon volution
Ġcon vert
Ġcon cil
Ġcon gen
Ġcon cre
Ġcon formity
Ġcon niving
Ġcon verts
Ġcon quers
ast ically
ast ered
pe ly
pe ice
pe ze
pe ptic
Ġde er
Ġde form
Ġde lete
Ġde ploy
Ġde human
Ġde wy
Ġde xter
Ġde leting
Ġde ckhand
ĠM om
ĠM ood
ĠM and
ĠM ight
ĠM ake
ĠM ap
ĠM uch
ĠM ide
ĠM ild
ĠM ink
ĠM other
ĠM inut
ĠM ob
ĠM oll
ĠM arm
ĠM alf
ĠM ove
ĠM oon
ĠM itch
ĠM urd
ĠM use
ĠM ael
ĠM ichÃĥÆĴÃĤ
ĠM arily
ĠM agg
ĠM arker
ĠM iles
ĠM alle
ĠM ule
ĠM oug
ĠM odern
ĠM uz
ĠM asse
ĠM ulan
ĠM ontias
ĠM innie
ĠM PAA
ĠM ueller
ĠM inac
ĠM itche
ĠM oulin
ĠM ulholland
ĠM irren
ĠM illa
ĠM uniz
ĠM emories
ĠM urray
Ġat e
Ġat av
Ġat yp
Ġat heistic
Ġat onal
Ġsc an
Ġsc ent
Ġsc am
Ġsc um
Ġsc int
Ġsc hed
Ġsc ree
Ġsc arily
Ġsc ented
Ġsc oop
Ġsc rat
Ġsc raw
Ġsc ummy
Ġsc utt
Ġsc ooping
Ġsc uz
Ġsc rape
Ġsc rappy
Ġsc ooter
Ġsc alds
Ġsc uzzy
Ġsc heming
Ġsc atological
Ġsc otches
ĠA ce
ĠA pp
ĠA ven
ĠA ction
ĠA go
ĠA uss
ĠA rag
ĠA che
ĠA verage
ĠA bag
ĠA rand
ĠA pr
ĠA pple
ĠA AA
ĠA ND
ĠA NT
ĠA RT
ĠA WAY
ĠA iell
ĠA von
ĠA wful
ĠA esop
ĠA storia
ĠA viv
ĠA chill
ĠA idan
ĠA ckerman
ĠA ldrich
ĠA urelie
ort ment
ort elling
ort edly
ort ez
Ġne op
Ġne ater
Ġne ura
ĠC D
ĠC ut
ĠC am
ĠC ate
ĠC ong
ĠC ab
ĠC reat
ĠC ook
ĠC au
ĠC rit
ĠC ru
ĠC hy
ĠC ris
ĠC so
ĠC ath
ĠC ob
ĠC av
ĠC arm
ĠC arr
ĠC riter
ĠC ron
ĠC ows
ĠC oke
ĠC ots
ĠC ler
ĠC ah
ĠC aul
ĠC uts
ĠC arter
ĠC enter
ĠC lear
ĠC roat
ĠC ourse
ĠC ritical
ĠC edar
ĠC unning
ĠC antet
ĠC andid
ĠC acoyannis
ĠC attaneo
ĠC EL
ĠC amer
ĠC remaster
ĠC EO
ĠC ynd
ĠC itiz
ĠC lyde
ĠC edric
ĠC imarr
ĠC roze
ĠC irulnick
ĠC ortez
act ing
act ual
act ors
Ġj am
Ġj au
Ġj oc
Ġj ock
Ġj ail
Ġj ew
Ġj oint
Ġj ams
Ġj ags
Ġj ones
Ġj ung
Ġj ury
Ġj ived
Ġj udic
Ġj angle
Ġj acked
Ġj ingles
Ġj amm
Ġj elly
Ġj eopardy
ough ing
ory telling
ig m
ig s
ig re
ig er
ig el
ig od
ig ib
ig ues
ig ger
ig li
ig ator
ig inous
ig urations
us ingly
us so
us ky
us iveness
ust s
ust ry
ust ery
Ġby play
Ġby ways
Ġby tes
Ġby zantine
Ġso b
Ġso il
Ġso ck
Ġso aring
Ġso aked
Ġso dden
Ġso ppy
Ġso ggin
Ġso da
Ġso iree
pt ing
pt ics
pt ember
Ġare as
Ġare na
pp ard
pp iness
pp ortun
pp ola
Ġchar ity
Ġchar red
Ġchar ges
ĠH as
ĠH im
ĠH ate
ĠH ood
ĠH ud
ĠH os
ĠH ence
ĠH are
ĠH ep
ĠH ip
ĠH ib
ĠH ÃĥÆĴÃĤ
ĠH ead
ĠH ug
ĠH und
ĠH ope
ĠH unk
ĠH iro
ĠH ades
ĠH ole
ĠH enn
ĠH amil
ĠH orton
ĠH alle
ĠH omer
ĠH ungry
ĠH ouses
ĠH rs
ĠH alos
ĠH itc
ĠH iguch
ĠH utch
ĠH ideo
ĠH olden
ĠH je
ĠH anson
ĠH aunted
ĠH IV
ĠH jel
ĠH atfield
ĠH orner
ĠH onorÃĥÆĴÃĤ
ĠH oult
ĠH ilary
ĠH amlet
ĠH emming
ĠH istory
Ġpro d
Ġpro s
Ġpro cl
Ġpro ctolog
ff ind
ff ish
ff aut
ff ÃĥÆĴÃĤ
ff iti
Ġhas h
and i
and ly
and le
and ere
and ie
and ling
and alf
and ina
and aries
and escent
and ora
ome i
Ġwor ms
Ġwor ried
ight ness
Ġact ory
Ġact uary
ful l
ful ness
ful filling
ere te
ere sque
Ġpl um
Ġpl ant
Ġpl oy
Ġpl ans
Ġpl ates
Ġpl ug
Ġpl ump
Ġpl ung
Ġpl ague
Ġpl ants
Ġpl atin
Ġpl ateau
Ġpl edge
Ġpl asma
Ġpl unge
Ġpl undered
Ġpl ugged
Ġpl entiful
Ġpl astered
Ġpl oughing
ud ed
ud ent
ud ora
ud gery
ĠI S
ĠI V
ĠI a
ĠI les
ĠI oss
ĠI vy
ĠI gn
ĠI deal
ĠI vory
ĠI ben
ĠI lya
ĠI kea
ind a
ind ly
ind ie
ind rop
ind uc
ind ustry
Ġall iance
Ġall ergy
ĠD as
ĠD id
ĠD ate
ĠD all
ĠD irect
ĠD oy
ĠD ash
ĠD olly
ĠD oll
ĠD ave
ĠD ub
ĠD allow
ĠD af
ĠD ouble
ĠD ank
ĠD aph
ĠD umber
ĠD erry
ĠD rey
ĠD ario
ĠD war
ĠD eli
ĠD ooby
ĠD rang
ĠD umbo
ĠD runk
ĠD irk
ĠD arling
ĠD raft
ĠD unge
ĠD igest
ĠD iaries
ĠD igital
ĠD ecter
ĠD Js
ĠD jein
ĠD alry
ĠD omino
ĠD olby
ĠD owse
ĠD unst
ĠD estine
Ġfe es
Ġfe ed
Ġfe ver
Ġfe aring
Ġfe asting
Ġfe athers
Ġfe eding
Ġfe atherweight
os m
os y
os ing
os ic
os ion
os um
os ure
os ions
os ÃĥÆĴÃĤ
os itions
os yll
os curo
os seum
ter y
ter ing
Ġpre te
Ġpre pro
Ġpre che
Ġpre conceived
Ġpre lim
Ġpre feminist
Ġpre hist
Ġpre warned
Ġpre ference
Ġpre occup
Ġpre amble
Ġpre quel
Ġhis s
op o
op led
op ening
op ener
op oly
op erative
op atra
op edia
op otam
Ġwho pping
ard o
ard ing
ard ly
ard onne
ack le
ack down
all er
all op
all ingly
Th in
Th ird
Th ank
Th irty
Th irteen
Th urman
Ġper ch
Ġper man
Ġper cent
Ġper ox
Ġper fer
Ġper sec
Ġper dition
Ġper verted
Ġper kiness
Ġper mission
Ġper cuss
Ġr on
Ġr ite
Ġr ated
Ġr ash
Ġr icture
Ġr ates
Ġr att
Ġr ÃĥÆĴÃĤ
Ġr use
Ġr ouse
Ġr ara
Ġr iche
Ġr inging
Ġr anges
Ġr umin
Ġr iled
Ġr usted
Ġr umbles
Ġr ouses
Ġr anc
Ġr usty
Ġr uffle
Ġr umblings
Ġr hino
Ġr itual
Ġr ationale
ĠW ent
ĠW im
ĠW ould
ĠW ong
ĠW itt
ĠW ade
ĠW ays
ĠW ach
ĠW ash
ĠW ool
ĠW iel
ĠW aste
ĠW ann
ĠW ai
ĠW atching
ĠW ives
ĠW inger
ĠW ald
ĠW immer
ĠW ait
ĠW orking
ĠW olf
ĠW lad
ĠW AS
ĠW rote
ĠW EIR
ĠW rath
ĠW yman
ĠW orst
ĠW onton
ĠW elty
ĠW andere
ect ual
ect ively
ect ionately
ie ving
ie vability
pl a
pl er
pl at
pl ings
pl ug
pl anet
pl ification
pl otted
Ġor ation
Ġor th
Ġor ange
Ġor bit
Ġor gasm
Ġor nament
ong a
Ġk ings
Ġk ale
Ġk ilted
Ġk ios
Ġk udos
Ġk vetch
itt ish
itt orio
Ġv im
Ġv ice
Ġv ars
Ġv arm
Ġv illi
Ġv ote
Ġv ices
Ġv elocity
Ġv owing
Ġv ocal
Ġv aunted
Ġv aing
Ġv omit
Ġim be
Ġim itative
Ġim itations
Ġim itator
ge eks
ge oning
ĠP R
ĠP ab
ĠP ick
ĠP ies
ĠP age
ĠP ass
ĠP ose
ĠP ress
ĠP olly
ĠP oll
ĠP ok
ĠP ogue
ĠP ix
ĠP oint
ĠP ax
ĠP alt
ĠP ieces
ĠP leasant
ĠP ierce
ĠP imental
ĠP rel
ĠP isc
ĠP utty
ĠP urg
ĠP arents
ĠP ulp
ĠP HO
ĠP ublic
ĠP urdy
ĠP OW
ĠP TA
ĠP iper
ĠP rejud
ĠP enotti
ĠP orky
ĠP edro
ĠP elosi
ĠP entec
ĠP ersuasion
ĠP amela
ĠP uritan
ĠP anther
ĠP arton
ĠP andora
ime y
og ers
og ame
og rific
og matic
ake ball
ĠF ight
ĠF ore
ĠF ass
ĠF ish
ĠF ans
ĠF ame
ĠF ang
ĠF led
ĠF arm
ĠF ool
ĠF ew
ĠF air
ĠF reak
ĠF ug
ĠF ork
ĠF ah
ĠF iction
ĠF unk
ĠF ield
ĠF aces
ĠF ox
ĠF ried
ĠF lo
ĠF inal
ĠF irth
ĠF inn
ĠF ij
ĠF lor
ĠF amiliar
ĠF lyn
ĠF oster
ĠF idel
ĠF inch
ĠF aren
ĠF ilms
ĠF ortune
ĠF resnadillo
ĠF IS
ĠF alse
ĠF ilip
ĠF ulford
ĠF inder
ĠF amuyiwa
ĠF IL
ĠF airl
ĠF iore
ĠF isk
ĠF anboy
ĠF elinn
ĠF rodo
ĠF amous
Ġout re
Ġout age
Ġout ings
Ġout sh
Ġout let
Ġout ta
Ġout cast
Ġout number
Ġout rÃĥÆĴÃĤ
Ġout gag
Ġout paces
Ġout raged
ab a
ab o
ab es
ab ic
ab led
ab ove
ab ric
ab use
ab berg
ab bling
ab riele
res hing
res pected
res cence
res isting
end re
end om
end as
end ers
end ous
end all
end idly
ĠR an
ĠR ain
ĠR ap
ĠR od
ĠR ick
ĠR ook
ĠR ich
ĠR oy
ĠR int
ĠR oc
ĠR ors
ĠR oss
ĠR ush
ĠR ams
ĠR udd
ĠR af
ĠR ises
ĠR azz
ĠR over
ĠR usi
ĠR emb
ĠR aim
ĠR ule
ĠR osen
ĠR othman
ĠR itter
ĠR ho
ĠR udy
ĠR aimi
ĠR ivi
ĠR aja
ĠR ED
ĠR hames
ĠR inzler
ĠR isky
ĠR adcl
ĠR idley
ĠR emem
ĠR oussill
ĠR usso
ĠR ogers
Ġcl ing
Ġcl an
Ġcl ick
Ġcl ink
Ġcl ause
Ġcl ams
Ġcl ones
Ġcl oud
Ġcl ung
Ġcl oses
Ġcl amb
Ġcl ique
Ġcl anging
Ġcl icking
Ġcl erk
Ġcl ipped
Ġcl utch
Ġcl ouds
Ġcl iques
Ġcl obbering
ap ult
ap oc
ap ably
ap ism
ap rop
ap iro
ap uts
ap sych
ap dish
ap itulation
od a
od i
od ed
od ate
od ical
od ates
od ied
ĠG il
ĠG oo
ĠG one
ĠG au
ĠG ue
ĠG ry
ĠG ame
ĠG ren
ĠG ord
ĠG ret
ĠG io
ĠG ets
ĠG ump
ĠG utter
ĠG hand
ĠG oose
ĠG rem
ĠG aul
ĠG ilm
ĠG arth
ĠG ator
ĠG alan
ĠG iler
ĠG iles
ĠG rang
ĠG ift
ĠG enet
ĠG uns
ĠG ulp
ĠG ellar
ĠG rease
ĠG idget
ĠG ym
ĠG arden
ĠG oths
ĠG ollum
ĠG iants
ĠG regory
ĠG alinsky
ĠG ulzar
ĠG rief
ĠG adzook
ĠG irardot
ĠG illigan
ĠG ifford
ĠG andalf
ĠG abriele
Ġfun k
Ġfun ky
ces e
ĠT en
ĠT el
ĠT ell
ĠT ap
ĠT oy
ĠT we
ĠT ru
ĠT urn
ĠT so
ĠT ree
ĠT ash
ĠT ale
ĠT att
ĠT ier
ĠT ys
ĠT ron
ĠT orn
ĠT rop
ĠT ele
ĠT omm
ĠT ank
ĠT ries
ĠT arant
ĠT alan
ĠT rey
ĠT win
ĠT ogether
ĠT rip
ĠT ruck
ĠT olst
ĠT wink
ĠT AY
ĠT NT
ĠT otally
ĠT urturro
ĠT ennessee
ĠT UCK
ĠT suk
ĠT yco
ĠT atou
ĠT ori
ĠT arzan
ĠT anov
ĠT chai
ĠT emple
ĠT iger
ĠT omei
ĠT onga
ick ly
ick ed
ick kn
Ġle ers
Ġle ague
Ġle uke
Ġle cher
Ġle afing
Ġle wd
ine z
ine ate
ine pt
ĠL A
ĠL L
ĠL ess
ĠL one
ĠL ake
ĠL ite
ĠL ise
ĠL ang
ĠL ink
ĠL oth
ĠL ace
ĠL ian
ĠL av
ĠL ines
ĠL ug
ĠL oud
ĠL ai
ĠL eth
ĠL ina
ĠL abor
ĠL uke
ĠL udicrous
ĠL ooney
ĠL oved
ĠL anter
ĠL oyal
ĠL arge
ĠL odge
ĠL DS
ĠL acking
ĠL uis
ĠL onely
ĠL uhrman
ĠL IT
ĠL isa
ĠL ecter
ĠL eroy
ĠL edger
ĠL uther
ĠL ightness
ĠL inda
for gettable
for given
are t
are tte
Ġsp at
Ġsp ill
Ġsp ies
Ġsp ry
Ġsp ans
Ġsp ree
Ġsp ates
Ġsp ok
Ġsp oon
Ġsp ied
Ġsp ouse
Ġsp itting
Ġsp ades
Ġsp yc
Ġsp angle
Ġsp icy
Ġsp iders
Ġsp ikes
Ġsp asms
Ġsp aghet
Ġsp urts
Ġsp indly
ict ing
ict ory
man e
man ia
man sion
Ġtr ot
Ġtr ance
Ġtr ims
Ġtr usting
Ġtr udge
Ġtr usted
Ġtr uest
Ġtr anquil
Ġman ically
Ġman kind
Ġman ga
Ġman child
Ġman gle
reat ive
ert ies
Ġup ends
Ġup stage
Ġup coming
Ġup front
Ġup holstered
Ġup heaval
Ġup staged
ook ies
Ġqu it
Ġqu aking
Ġqu ix
Ġqu izz
Ġqu ashed
Ġqu ench
Ġqu ota
Ġqu otient
Ġqu adrangle
Ġqu antum
Ġqu andaries
ac ly
ac res
ac iously
ac iated
ac ularly
ac ostal
ac uations
ep ford
ep endence
ep isode
nt ly
nt ino
nt iver
nt hesis
ram a
ram er
ram atic
Ġno ises
Ġno bl
Ġno vice
Ġno xious
Ġno bility
Ġno cturn
ĠJ ed
ĠJ ake
ĠJ ans
ĠJ ob
ĠJ avi
ĠJ iri
ĠJ osh
ĠJ ournal
ĠJ uda
ĠJ oshu
ĠJ arecki
ĠJ iang
ĠJ agjit
ĠJ akob
ĠJ osÃĥÆĴÃĤ
Ġfl ing
Ġfl im
Ġfl ck
Ġfl ood
Ġfl og
Ġfl ib
Ġfl ute
Ġfl ush
Ġfl ames
Ġfl ims
Ġfl ights
Ġfl oppy
Ġfl uct
Ġfl ops
Ġfl ails
Ġfl inging
Ġfl aky
Ġfl inching
Ġfl ocking
Ġfl opping
Ġfl opped
Ġfl ushed
Ġfl aun
Ġfl inch
Ġfl uttering
Ġfl agging
Ġfl otsam
Ġfl edgling
Ġfl urries
Ġfl akiness
Ġfl akeball
Ġfl abberg
ear ned
Ġthr all
Ġthr ashing
Ġjust ifying
Ġjust ification
Ġjust ifies
Ġdirect ive
Ġdirect ress
Ġsome place
Ġsome bod
Ġany time
Ġany place
th is
th ou
th rit
th ose
th ru
th ren
th row
th ons
th ump
th yn
th ones
th roated
oy d
oy ance
oy aan
per ing
per ly
per il
per ception
Ġad s
Ġad ore
Ġad here
Ġad oring
Ġad vis
Ġad herent
Ġad oration
Ġad herence
Ġad versity
Ġad rift
Ġad justing
Ġad ulthood
Ġad amant
Ġad hering
Ġar ise
Ġar te
Ġar gu
Ġar ouse
Ġar ising
Ġar med
Ġar che
Ġar ray
Ġar ousing
Ġar gues
Ġar ctic
Ġar guably
Ġar oused
Ġar thrit
Ġcomp act
Ġcomp ass
Ġcomp aring
Ġcomp rise
Ġcomp iled
Ġcomp ulsive
Ġcomp elled
Ġcomp ulsion
Ġcomp atible
Ġcomp onents
Ġgood ly
Ġgood ies
age y
ass ing
ass ess
ass ive
ass uring
ass ociation
ment or
ment ation
Ġwill ies
Ġwill ingly
Ġwill fully
Ġlo om
Ġlo vel
Ġlo co
Ġlo ony
Ġlo bb
Ġlo athing
Ġlo cked
Ġlo vably
Ġlo itering
mer ce
Ġwe aken
Ġwe eping
Ġwe arer
Ġwe aned
Ġwe athered
Ġwe asels
Ġwe irder
Ġcan ning
Ġcan ines
ne es
ne eded
Ġent ree
Ġent ering
Ġent rap
Ġent rep
Ġent angled
Ġent rÃĥÆĴÃĤ
Ġent wined
Ġent rance
Ġent itled
Ġent endre
Ġwork er
Ġwork able
Ġwork man
Ġwork ings
Ġwork manlike
Ġwork aday
Ġus er
Ġus her
Ġus urp
Ġus elessly
Ġus hered
Ġus hers
ĠThe ron
ĠThe wlis
Ġover ach
Ġover time
Ġover use
Ġover acted
Ġover night
Ġover weight
Ġover do
Ġover power
Ġover sized
Ġover done
Ġover powered
Ġover coming
Ġover laden
Ġover size
Ġover infl
Ġover praised
Ġover indulgence
Ġover ripe
Ġover manipulative
Ġover rides
Ġover worked
Ġover grown
Ġover lapping
Ġover sim
Ġover hearing
Ġover reaches
Ġover plotted
Ġwhe edling
ond i
iz ant
iz ty
ise cond
ĠN C
ĠN ation
ĠN ost
ĠN av
ĠN ia
ĠN iet
ĠN iel
ĠN oon
ĠN anet
ĠN ik
ĠN utt
ĠN olden
ĠN orthern
ĠN obody
ĠN ixon
ĠN ouvelle
ĠN OT
ĠN enette
ĠN atal
ĠN esbitt
ĠN anook
ĠN icolas
ĠN urse
ult z
ult ory
ult ifyingly
ound ers
Ġoff al
Ġoff ense
Ġoff ered
Ġoff ends
Ġoff ended
Ġoff set
Ġoff icially
Ġoff sets
Ġpo ise
Ġpo ky
Ġpo king
Ġpo pping
Ġpo pped
Ġpo key
Ġpo kepie
we ger
we aves
we ights
we eds
we alth
ens ity
ens able
ens ively
ens ibly
Ġhum s
Ġhum bling
Ġhum buggery
Ġhum ping
Ġhum idity
ish am
ish able
de ath
de fic
de af
de fying
de fe
de vils
de emably
Ġtime out
Ġtime waster
ide gger
Ġbet ting
Ġbet ters
Ġeven ly
Ġeven ings
Ġeven handed
ull s
cc a
cc les
int ellig
int ellect
ip ing
ip ity
ip ment
ip itously
ip otent
rit o
rit ion
rit ch
rit ies
ĠE ven
ĠE xt
ĠE to
ĠE ug
ĠE asy
ĠE asily
ĠE instein
ĠE scape
ĠE EE
ĠE MI
ĠE NO
ĠE VER
ĠE XIT
ĠE YE
ĠE leven
ĠE rika
ĠE agle
ĠE urotrash
ĠE lder
ĠE udora
ĠE ccles
Ġsl ot
Ġsl ain
Ġsl op
Ġsl ather
Ġsl ave
Ġsl aps
Ġsl ots
Ġsl ope
Ġsl ides
Ġsl umber
Ġsl ips
Ġsl urs
Ġsl ummy
Ġsl ummer
Ġsl opped
Ġsl imed
Ġsl apped
Ġsl ivers
Ġsl anted
Ġsl oughs
Ġsl avishly
Ġsl obbering
Ġsl avery
Ġsl aloming
Ġem ailed
Ġem ulates
Ġem blematic
Ġem igre
Ġem aciated
ĠK i
ĠK en
ĠK ill
ĠK ind
ĠK irst
ĠK ool
ĠK app
ĠK idd
ĠK illing
ĠK inc
ĠK uro
ĠK night
ĠK imm
ĠK nox
ĠK han
ĠK ahl
ĠK raw
ĠK armen
ĠK ales
ĠK omed
ĠK erri
ĠK raft
ĠK atherine
ĠK OK
ĠK illers
ĠK iarostami
ĠK irshner
ĠK jell
ĠK mart
ĠK oz
ĠK atzen
ĠK arim
ĠK alvert
ĠK asem
ĠK rige
ĠK irkega
ĠK unis
ĠK endall
ĠK aputs
ĠK ramer
ĠK oyaan
ĠK nees
Ġwell ed
Ġam e
Ġam p
Ġam ble
Ġam iss
Ġam ok
Ġam uses
Ġam nes
Ġam ours
Ġam iably
Ġam ped
Ġam icable
Ġam assed
Ġam oral
Ġam orality
Ġam iability
Ġam usingly
Ġsub du
Ġsub ord
Ġsub cult
Ġsub cont
Ġsub sided
Ġsub urb
Ġsub jug
Ġsub ser
Ġsub zero
Ġsub sequently
ose fully
ual ize
An alyze
An imated
An iston
Ġbl ing
Ġbl are
Ġbl ade
Ġbl ub
Ġbl und
Ġbl ush
Ġbl ah
Ġbl ending
Ġbl ips
Ġbl asts
Ġbl urs
Ġbl asting
Ġbl ooper
Ġbl azing
Ġbl ushing
Ġbl under
Ġbl azingly
Ġbl ossom
Ġbl uep
Ġbl arney
Ġbl ustery
Ġdis hed
Ġdis hes
Ġdis ob
Ġdis co
Ġdis like
Ġdis cret
Ġdis quis
Ġdis rupt
Ġdis place
Ġdis oriented
Ġdis mal
Ġdis member
Ġdis likable
Ġdis section
Ġdis affected
Ġdis may
Ġdis abilities
Ġdis appro
Ġdis reputable
Ġdis mant
Ġdis robed
Ġdis advant
Ġdis secting
Ġdis illusion
Ġdis abled
Ġdis respected
Ġdis association
oc a
oc ion
oc ence
oc ross
oc acy
oc ritique
oc entric
ans ing
ans ion
ans as
Ġlook in
Ġra y
Ġra il
Ġra ke
Ġra ving
Ġra ft
Ġra ps
Ġra iny
Ġra iling
Ġra vag
Ġra ils
Ġra cked
Ġra ison
Ġra vaged
Ġra vages
Ġra ckets
Ġra ffish
Ġra indrop
Ġri der
Ġri ding
Ġri pper
Ġri bbing
Ġri fe
Ġfunny bone
Ġyour s
Ġyour selves
Ġend ang
Ġend ors
Ġend ured
Ġend emic
Ġend game
Ġend orse
Ġme in
Ġme ow
Ġme ek
Ġme ager
Ġme gal
vel ed
vel and
Ġgo b
Ġgo ers
Ġgo ats
Ġgo omb
Ġgo bb
Ġgo bble
Wh ich
Wh ale
Wh ole
Ġtw irl
Ġtw irling
Ġtw elve
Ġevery man
Ġund ying
Ġund isputed
Ġund iscipl
Ġund iminished
Ġund ogmatic
Ġund ramatic
pect s
Ġlif ting
Ġimp onder
Ġimp air
Ġimp osed
Ġimp rison
Ġimp rint
Ġimp rim
Ġimp lements
Ġimp udent
Ġimp assive
Ġdram atur
Ġbec almed
ents ia
ress ingly
Ġsur vey
Ġsur plus
Ġsomet ime
Ġgen es
Ġgen esis
ru k
te levision
Ġnever land
Ġvi es
Ġvi ability
Ġvi gor
Ġvi bes
Ġvi dgame
Ġvi gils
Ġthere of
Ġthere after
ang o
ang les
old ie
Ġbad ge
Ġbad der
Ġins ub
Ġins ular
Ġins cr
Ġins omnia
Ġins isted
Ġins iders
Ġins atiable
Ġins ouci
hy te
ber ates
ber Sh
Ġdes ec
Ġdes ires
Ġdes olation
Ġdes irable
Ġdes ultory
Ġdel ve
Ġdel ay
Ġdel ves
Ġdel ving
Ġdel ib
Ġdel ayed
Ġdel ineate
get ed
get ables
Ġca pe
Ġca ved
Ġca using
Ġca used
Ġca pped
Ġca uses
Ġca utions
Ġca vorting
Ġrem ade
Ġrem orse
Ġte ch
Ġte ams
Ġte quil
Ġte etering
Ġte endom
vers ally
vers us
vers ible
Ġscreen ful
ty pal
Ġro pe
Ġro de
Ġro ars
Ġro ok
Ġro ster
Ġro aring
Ġro gue
Ġro sily
Ġro isterous
Ġro pes
Ġother ness
Ġbest ial
Ġbest owing
Ġbest owed
ren ces
ren owned
ren heit
Ġser pent
Ġser ioc
Ġ? !?
ater rest
Ġlove fest
Ġlove birds
Ġsm oke
Ġsm itten
Ġsm ashing
Ġsm ugg
Ġsm utty
Ġsm elly
Ġsm othered
Ġsm eared
Ġsm orgas
Ġeff usion
ach ing
ach utes
ach iever
ach ieves
Ġpe as
Ġpe els
Ġpe aked
Ġpe gged
Ġpe ppering
Ġpe gs
Ġpe erlessly
Ġpe anut
Ġpe opled
Ġres ide
Ġres ents
Ġres ists
Ġres olute
Ġres ides
Ġres erving
Ġres umes
Ġres idents
Ġres idences
Ġres ources
Ġres oundingly
Ġres haping
Ġres erve
Ġres idual
ink ingly
ink les
ors i
ign er
ign ation
Ġ1 40
ĠCh ain
ĠCh ong
ĠCh ild
ĠCh arly
ĠCh ase
ĠCh ances
ĠCh ung
ĠCh ips
ĠCh icken
ĠCh asing
ĠCh anger
ĠCh ainsaw
ĠCh impanzees
ĠCh aykin
ĠCh urch
ĠCh ardonne
Ġwhen ce
Ġag ile
Ġag ents
Ġag ape
Ġag ency
Ġag round
Ġag gress
Ġag grandizing
Ġag grie
Ġag nost
Ġag endas
Ġcont ain
Ġcont ents
Ġcont ract
Ġcont entious
Ġcont ender
Ġcont orting
Ġcont ained
Ġcont ours
Ġcont agious
Ġher d
Ġher ring
Ġher alds
Ġher bivore
Ġher rings
Ġpart ing
Ġpart ies
Ġpart ially
Ġpart way
Ġpart isans
Ġaud io
Ġyear n
Ġyear nings
Ġlong s
Ġlong est
Ġlong evity
les que
Ġheart less
Ġheart ily
Ġheart land
Ġheart warm
Ġheart string
Ġheart rending
Ġart less
Ġart ner
Ġart work
Ġart works
ject ed
ject ive
ject ory
Ġtra de
Ġtra ced
Ġtra ins
Ġtra ined
Ġtra ding
Ġtra ining
Ġtra verse
Ġtra cks
Ġtra ils
Ġtra ffics
Ġtra uma
Ġtra jectory
Ġfam ed
Ġfam ine
Ġbr at
Ġbr ine
Ġbr ÃĥÆĴÃĤ
Ġbr ats
Ġbr unt
Ġbr ushed
Ġbr ushes
Ġbr assy
Ġbr onze
Ġbr anched
Ġbr istles
Ġhow lers
Ġhow lingly
ock y
Ġunder vent
Ġunder arm
Ġunder app
Ġunder con
Ġunder play
Ġunder go
[...]
