{"<|endoftext|>":0,"!":1,"\"":2,"#":3,"$":4,"%":5,"&":6,"'":7,"(":8,")":9,"*":10,"+":11,",":12,"-":13,".":14,"/":15,"0":16,"1":17,"2":18,"3":19,"4":20,"5":21,"6":22,"7":23,"8":24,"9":25,":":26,";":27,"<":28,"=":29,">":30,"?":31,"@":32,"A":33,"B":34,"C":35,"D":36,"E":37,"F":38,"G":39,"H":40,"I":41,"J":42,"K":43,"L":44,"M":45,"N":46,"O":47,"P":48,"Q":49,"R":50,"S":51,"T":52,"U":53,"V":54,"W":55,"X":56,"Y":57,"Z":58,"[":59,"\\":60,"]":61,"^":62,"_":63,"`":64,"a":65,"b":66,"c":67,"d":68,"e":69,"f":70,"g":71,"h":72,"i":73,"j":74,"k":75,"l":76,"m":77,"n":78,"o":79,"p":80,"q":81,"r":82,"s":83,"t":84,"u":85,"v":86,"w":87,"x":88,"y":89,"z":90,"{":91,"|":92,"}":93,"~":94,"¡":95,"¢":96,"£":97,"¤":98,"¥":99,"¦":100,"§":101,"¨":102,"©":103,"ª":104,"«":105,"¬":106,"®":107,"¯":108,"°":109,"±":110,"²":111,"³":112,"´":113,"µ":114,"¶":115,"·":116,"¸":117,"¹":118,"º":119,"»":120,"¼":121,"½":122,"¾":123,"¿":124,"À":125,"Á":126,"Â":127,"Ã":128,"Ä":129,"Å":130,"Æ":131,"Ç":132,"È":133,"É":134,"Ê":135,"Ë":136,"Ì":137,"Í":138,"Î":139,"Ï":140,"Ð":141,"Ñ":142,"Ò":143,"Ó":144,"Ô":145,"Õ":146,"Ö":147,"×":148,"Ø":149,"Ù":150,"Ú":151,"Û":152,"Ü":153,"Ý":154,"Þ":155,"ß":156,"à":157,"á":158,"â":159,"ã":160,"ä":161,"å":162,"æ":163,"ç":164,"è":165,"é":166,"ê":167,"ë":168,"ì":169,"í":170,"î":171,"ï":172,"ð":173,"ñ":174,"ò":175,"ó":176,"ô":177,"õ":178,"ö":179,"÷":180,"ø":181,"ù":182,"ú":183,"û":184,"ü":185,"ý":186,"þ":187,"ÿ":188,"Ā":189,"ā":190,"Ă":191,"ă":192,"Ą":193,"ą":194,"Ć":195,"ć":196,"Ĉ":197,"ĉ":198,"Ċ":199,"ċ":200,"Č":201,"č":202,"Ď":203,"ď":204,"Đ":205,"đ":206,"Ē":207,"ē":208,"Ĕ":209,"ĕ":210,"Ė":211,"ė":212,"Ę":213,"ę":214,"Ě":215,"ě":216,"Ĝ":217,"ĝ":218,"Ğ":219,"ğ":220,"Ġ":221,"ġ":222,"Ģ":223,"ģ":224,"Ĥ":225,"ĥ":226,"Ħ":227,"ħ":228,"Ĩ":229,"ĩ":230,"Ī":231,"ī":232,"Ĭ":233,"ĭ":234,"Į":235,"į":236,"İ":237,"ı":238,"Ĳ":239,"ĳ":240,"Ĵ":241,"ĵ":242,"Ķ":243,"ķ":244,"ĸ":245,"Ĺ":246,"ĺ":247,"Ļ":248,"ļ":249,"Ľ":250,"ľ":251,"Ŀ":252,"ŀ":253,"Ł":254,"ł":255,"Ń":256,"Ġt":257,"Ġa":258,"in":259,"he":260,"Ġs":261,"re":262,"Ġ.":263,"Ġo":264,"er":265,"it":266,"Ġ,":267,"Ġthe":268,"is":269,"en":270,"at":271,"Ġf":272,"ing":273,"es":274,"Ġm":275,"nd":276,"Ġw":277,"Ġc":278,"Ġb":279,"or":280,"on":281,"ou":282,"Ġof":283,"Ġp":284,"ar":285,"Ġand":286,"an":287,"al":288,"Ġth":289,"ly":290,"Ġd":291,"il":292,"ed":293,"ic":294,"Ġ'":295,"Ġto":296,"Ġin":297,"Ġl":298,"Ġh":299,"om":300,"st":301,"Ġn":302,"Ġit":303,"le":304,"Ġis":305,"ut":306,"Ġe":307,"ct":308,"el":309,"Ġg":310,"Ġmo":311,"ent":312,"ion":313,"ot":314,"as":315,"ve":316,"Ġthat":317,"et":318,"im":319,"vi":320,"Ġst":321,"Ġre":322,"ra":323,"gh":324,"Ġu":325,"ver":326,"Ġbe":327,"ul":328,"ce":329,"ch":330,"ro":331,"The":332,"Ġfil":333,"Ġon":334,"Ġfilm":335,"Ġan":336,"Ġy":337,"Ġas":338,"ith":339,"ri":340,"ol":341,"ay":342,"ke":343,"Ġ-":344,"ow":345,"ad":346,"Ġfor":347,"Ġwith":348,"vie":349,"ess":350,"se":351,"Ġbut":352,"oo":353,"Ġwh":354,"Ġyou":355,"id":356,"Ġcom":357,"Ġits":358,"Ġsu":359,"ir":360,"Ġmovie":361,"ers":362,"am":363,"Ġli":364,"ill":365,"her":366,"ble":367,"Ġal":368,"ag":369,"un":370,"ĠS":371,"Ġch":372,"um":373,"em":374,"ght":375,"ck":376,"ous":377,"..":378,"out":379,"ur":380,"Ġint":381,"Ġthis":382,"ak":383,"Ġen":384,"ld":385,"Ġex":386,"ist":387,"Ġse":388,"Ġhe":389,"It":390,"RB":391,"ation":392,"ant":393,"Ġnot":394,"ive":395,"rom":396,"ally":397,"est":398,"if":399,"qu":400,"Ġha":401,"ĠB":402,"'t":403,"Ġdo":404,"Ġab":405,"ure":406,"art":407,"ire":408,"Ġsh":409,"Ġun":410,"ain":411,"ell":412,"Ġcon":413,"ast":414,"pe":415,"Ġde":416,"ĠM":417,"Ġat":418,"Ġsc":419,"ĠA":420,"ort":421,"Ġne":422,"ĠC":423,"ate":424,"ity":425,"act":426,"Ġj":427,"ough":428,"ory":429,"ig":430,"us":431,"ust":432,"Ġby":433,"Ġso":434,"pt":435,"able":436,"ood":437,"Ġare":438,"pp":439,"Ġ--":440,"Ġchar":441,"hing":442,"ĠH":443,"Ġpro":444,"Ġmore":445,"ff":446,"Ġthan":447,"Ġhas":448,"Ġabout":449,"and":450,"ome":451,"Ġlike":452,"ould":453,"Ġwor":454,"ight":455,"Ġact":456,"ful":457,"ere":458,"Ġfrom":459,"Ġpl":460,"Ġone":461,"ud":462,"ĠI":463,"ind":464,"Ġall":465,"ven":466,"ĠD":467,"Ġhave":468,"Ġfe":469,"os":470,"ter":471,"very":472,"Ġpre":473,"Ġhis":474,"op":475,"Ġ...":476,"Ġwho":477,"ard":478,"ack":479,"all":480,"Th":481,"ial":482,"Ġper":483,"Ġr":484,"ĠW":485,"ect":486,"ie":487,"pl":488,"Ġor":489,"ong":490,"Ġk":491,"itt":492,"Ġstory":493,"Ġv":494,"one":495,"Ġ`":496,"Ġim":497,"irect":498,"ge":499,"ĠP":500,"ime":501,"Ġcharact":502,"og":503,"ake":504,"ĠF":505,"Ġout":506,"ab":507,"res":508,"end":509,"ence":510,"ĠR":511,"Ġcl":512,"RRB":513,"LRB":514,"ap":515,"od":516,"ious":517,"ĠG":518,"Ġfun":519,"ces":520,"ĠT":521,"ick":522,"Ġle":523,"ies":524,"ine":525,"ĠL":526,"for":527,"are":528,"Ġsp":529,"ict":530,"man":531,"Ġtr":532,"Ġman":533,"ves":534,"reat":535,"ert":536,"Ġup":537,"ook":538,"Ġqu":539,"ac":540,"ep":541,"nt":542,"ram":543,"Ġtoo":544,"edy":545,"Ġno":546,"ĠJ":547,"ich":548,"our":549,"Ġfl":550,"au":551,"ear":552,"Ġmost":553,"Ġinto":554,"Ġthr":555,"Ġjust":556,"ary":557,"ite":558,"Ġdirect":559,"uch":560,"Ġsome":561,"Ġany":562,"th":563,"oy":564,"ore":565,"per":566,"Ġad":567,"Ġar":568,"ical":569,"Ġdoes":570,"Ġcomp":571,"Ġgood":572,"ny":573,"age":574,"ass":575,"ment":576,"Ġwill":577,"Ġlo":578,"mer":579,"akes":580,"Ġwe":581,"Ġcan":582,"ne":583,"Ġent":584,"Ġwork":585,"ue":586,"Ġus":587,"ĠThe":588,"Ġover":589,"Ġwhe":590,"ond":591,"Ġmuch":592,"This":593,"Ġcomedy":594,"iz":595,"elf":596,"ise":597,"ll":598,"ile":599,"Ġperfor":600,"ry":601,"ĠN":602,"ult":603,"ating":604,"ound":605,"Ġoff":606,"Ġpo":607,"we":608,"ark":609,"ens":610,"ther":611,"Ġway":612,"Ġhum":613,"Ġ''":614,"ish":615,"Ġif":616,"Ġcharacters":617,"de":618,"Ġtime":619,"ide":620,"Ġfeel":621,"ertain":622,"Ġperforman":623,"Ġbet":624,"Ġeven":625,"ull":626,"cc":627,"Ġwhat":628,"int":629,"ip":630,"ated":631,"atch":632,"rit":633,"ving":634,"ĠE":635,"Ġsl":636,"Ġem":637,"ittle":638,"reen":639,"ness":640,"ĠK":641,"Ġwell":642,"Ġget":643,"wn":644,"ance":645,"Ġam":646,"ice":647,"ade":648,"Ġonly":649,"less":650,"Ġsub":651,"ose":652,"ost":653,"ual":654,"ense":655,"omet":656,"An":657,"Ġbl":658,"Ġdis":659,"Ġtheir":660,"ingly":661,"oc":662,"Ġlittle":663,"ans":664,"Ġfa":665,"Ġlook":666,"Ġra":667,"Ġri":668,"Ġfunny":669,"Ġmake":670,"Ġyour":671,"Ġend":672,"Ġme":673,"vel":674,"ative":675,"Ġthem":676,"Ġgo":677,"own":678,"Wh":679,"Ġtw":680,"ings":681,"atic":682,"Ġevery":683,"Ġreal":684,"Ġund":685,"ience":686,"Ġbeen":687,"pect":688,"Ġtal":689,"Ġmay":690,"ions":691,"Ġlif":692,"Ġ``":693,"Ġimp":694,"ily":695,"Ġdram":696,"Ġbec":697,"ents":698,"...":699,"ame":700,"Ġenough":701,"ress":702,"Ġsur":703,"Ġsomet":704,"Ġgen":705,"ild":706,"Ġvery":707,"ru":708,"te":709,"Ġnever":710,"Ġvi":711,"Ġthere":712,"ang":713,"old":714,"Ġbad":715,"Ġins":716,"aking":717,"hed":718,"Ġseem":719,"hy":720,"Ġdirector":721,"Ġthey":722,"ber":723,"Ġmakes":724,"Ġdes":725,"Ġwould":726,"Ġwhich":727,"Ġdel":728,"get":729,"Ġca":730,"Ġrem":731,"Ġwas":732,"Ġte":733,"vers":734,"ris":735,"Ġscreen":736,"ty":737,"Ġro":738,"Ġother":739,"Ġsee":740,"Ġbest":741,"Ġlife":742,"ting":743,"ays":744,"Ġthrough":745,"ren":746,"Ġentertain":747,"Ġser":748,"Ġ?":749,"ater":750,"ably":751,"Ġlove":752,"ling":753,"ations":754,"ately":755,"Ġsm":756,"Ġeff":757,"ach":758,"Ġpe":759,"Ġplot":760,"Ġres":761,"ved":762,"ink":763,"ors":764,"ign":765,"gin":766,"Ġ1":767,"Ġcould":768,"vies":769,"ĠCh":770,"erest":771,"Ġwhen":772,"Ġ:":773,"Ġag":774,"red":775,"Ġwatch":776,"Ġcont":777,"Ġher":778,"ional":779,"Ġpart":780,"Ġaud":781,"If":782,"Ġmovies":783,"imes":784,"Ġyear":785,"urn":786,"other":787,"ually":788,"Ġlong":789,"les":790,"Ġheart":791,"Ġart":792,"ike":793,"ject":794,"Ġtra":795,"Ġfam":796,"Ġbr":797,"There":798,"Ġhow":799,"ock":800,"inem":801,"Ġinterest":802,"Ġunder":803,"ism":804,"leas":805,"vent":806,"oth":807,"Ġshould":808,"ible":809,"Ġrom":810,"ace":811,"inut":812,"Ġrec":813,"Ġmade":814,"ian":815,"so":816,"Ġob":817,"Ġreally":818,"iv":819,"ying":820,"Ġown":821,"Ġcharacter":822,"Ġsomething":823,"hes":824,"Ġgreat":825,"istic":826,"aw":827,"Ġaction":828,"du":829,"Ġthrill":830,"Ġcast":831,"Ġcinem":832,"Ġperformances":833,"irst":834,"Ġvis":835,"Ġdrama":836,"imp":837,"ft":838,"ph":839,"pec":840,"oss":841,"ath":842,"Ġfilms":843,"Ġmany":844,"ob":845,"Ġstill":846,"view":847,"elling":848,"ople":849,"igh":850,"ss":851,"ĠO":852,"ree":853,"Ġtwo":854,"now":855,"ash":856,"Ġpeople":857,"ran":858,"Ġscen":859,"Ġbig":860,"ript":861,"Ġnew":862,"Ġaw":863,"umb":864,"Ġshow":865,"sc":866,"ause":867,"Ġhumor":868,"ib":869,"ather":870,"Ġlau":871,"row":872,"ument":873,"Ġche":874,"Ġfilmm":875,"meric":876,"Ġemot":877,"Ġmy":878,"Ġhard":879,"Ġdoc":880,"iss":881,"Ġinc":882,"Ġrel":883,"icture":884,"Ġbetter":885,"ature":886,"Ġfirst":887,"arly":888,"Ġdown":889,"Ġtri":890,"Ġgi":891,"Ġscript":892,"joy":893,"Ġthose":894,"olly":895,"gg":896,"Ġter":897,"Ġpicture":898,"Ġless":899,"lt":900,"ning":901,"Ġmom":902,"ages":903,"Ġkind":904,"aut":905,"led":906,"up":907,"Ġke":908,"Ġmight":909,"Ġcle":910,"Ġenjoy":911,"In":912,"ten":913,"ower":914,"Ġatt":915,"Ġfar":916,"Ġdocument":917,"ction":918,"cept":919,"Ġwithout":920,"Ġalso":921,"Ġaudience":922,"av":923,"sy":924,"ĠAmeric":925,"ks":926,"ng":927,"thing":928,"Ġold":929,"sp":930,"wood":931,"Ġapp":932,"Ġself":933,"ought":934,"Ġbeing":935,"Ġpret":936,"Ġlack":937,"iff":938,"fully":939,"ween":940,"Ġsurp":941,"its":942,"Ġwort":943,"Ġgra":944,"oll":945,"Ġview":946,"Ġap":947,"Ġminut":948,"Ġever":949,"vid":950,"Ġcharm":951,"As":952,"Ġsense":953,"ars":954,"Ġlaugh":955,"az":956,"Ġfind":957,"Ġnothing":958,"Ġpoint":959,"der":960,"Ġwant":961,"Ġback":962,"Ġboth":963,"Ġbetween":964,"But":965,"arm":966,"Ġlot":967,"Ġgr":968,"Ġplay":969,"Ġsty":970,"Ġhere":971,"Ġfew":972,"Ġknow":973,"Ġperformance":974,"What":975,"ginal":976,"ltim":977,"fter":978,"Ġset":979,"Ġexc":980,"ool":981,"Ġneed":982,"arn":983,"Ġmess":984,"ons":985,"Ġ;":986,"Ġcomple":987,"Ġhuman":988,"ky":989,"uff":990,"Ġide":991,"here":992,"Ġbel":993,"antic":994,"Ġworld":995,"ney":996,"ollywood":997,"Ġori":998,"ates":999,"ale":1000,"Ġanother":1001,"Ġgl":1002,"Ġbecause":1003,"most":1004,"ount":1005,"ross":1006,"Ġminutes":1007,"You":1008,"Ġoften":1009,"Ġpers":1010,"ically":1011,"Ġsuch":1012,"Ġseems":1013,"ner":1014,"xt":1015,"Ġturn":1016,"arr":1017,"Ġeng":1018,"Ġthriller":1019,"ok":1020,"iful":1021,"Ġkeep":1022,"ced":1023,"Ġpleas":1024,"Ġthink":1025,"Ġdocumentary":1026,"ia":1027,"ination":1028,"ering":1029,"Ġcare":1030,"Ġeffect":1031,"Ġoriginal":1032,"app":1033,"Ġtale":1034,"ute":1035,"Ġstr":1036,"Ġquite":1037,"iness":1038,"Ġsat":1039,"ster":1040,"Ġmus":1041,"Ġcreat":1042,"Ġgu":1043,"ĠSt":1044,"Ġdec":1045,"Ġinteresting":1046,"be":1047,"Ġ!":1048,"Ġacc":1049,"Ġind":1050,"Ġbeaut":1051,"Ġext":1052,"ics":1053,"Ġultim":1054,"olog":1055,"ĠHollywood":1056,"Ġkid":1057,"ail":1058,"Ġpr":1059,"Ġdist":1060,"Ġhigh":1061,"Ġform":1062,"Ġwhile":1063,"Ġexpl":1064,"ered":1065,"Ġfeels":1066,"com":1067,"hip":1068,"ÃĤ":1069,"Ãĥ":1070,"Ġsk":1071,"Ġsin":1072,"Ġshe":1073,"Ġthing":1074,"Ġref":1075,"Ġitself":1076,"Ġalmost":1077,"weet":1078,"Ġentertaining":1079,"Ġagain":1080,"Ġfilmmak":1081,"Ġsurpris":1082,"Ġworth":1083,"att":1084,"Ġfin":1085,"Ġpower":1086,"Ġhim":1087,"Ġromantic":1088,"Ġappe":1089,"Not":1090,"Ġwere":1091,"Ġcr":1092,"Ġseen":1093,"iece":1094,"gu":1095,"pite":1096,"ÆĴ":1097,"Ġrather":1098,"ÃĥÆĴ":1099,"ÃĥÆĴÃĤ":1100,"ew":1101,"ead":1102,"ord":1103,"Ġhor":1104,"Ġyet":1105,"ends":1106,"Ġmoments":1107,"Ġsimp":1108,"Ġspec":1109,"Ġrep":1110,"Ġcons":1111,"ĠAmerican":1112,"\\/":1113,"fore":1114,"ward":1115,"vious":1116,"aster":1117,"riter":1118,"Ġright":1119,"Ġgener":1120,"ins":1121,"ither":1122,"Ġcol":1123,"ane":1124,"Ġhist":1125,"cess":1126,"fl":1127,"Ġ2":1128,"Ġafter":1129,"ality":1130,"Ġeas":1131,"Ġprodu":1132,"Ġimag":1133,"iet":1134,"Ġtake":1135,"Ġthese":1136,"Ġwom":1137,"Ġbit":1138,"alf":1139,"ility":1140,"Ġhad":1141,"Ġexper":1142,"Ġdra":1143,"ogue":1144,"cy":1145,"dict":1146,"ier":1147,"ially":1148,"vol":1149,"Ġbu":1150,"Ġdiff":1151,"Ġel":1152,"Ġcomes":1153,"Ġacting":1154,"Ġfamily":1155,"Ġes":1156,"ition":1157,"Ġmem":1158,"ures":1159,"ellig":1160,"onder":1161,"Ġsubject":1162,"dd":1163,"of":1164,"ĠV":1165,"Ġsame":1166,"ences":1167,"Ġcult":1168,"asc":1169,"ason":1170,"Ġyoung":1171,"Ġcome":1172,"ave":1173,"fect":1174,"me":1175,"read":1176,"Ġour":1177,"Ġco":1178,"Ġinst":1179,"ionally":1180,"Ġbefore":1181,"irl":1182,"Ġwhere":1183,"Ġdeli":1184,"One":1185,"Ġcre":1186,"Ġpass":1187,"Ġthought":1188,"Ġdial":1189,"Ġintellig":1190,"Ġsequ":1191,"con":1192,"ove":1193,"ys":1194,"Ġmater":1195,"ase":1196,"rap":1197,"Ġactors":1198,"Ġperson":1199,"For":1200,"air":1201,"Ġmel":1202,"Ġport":1203,"als":1204,"Ġstand":1205,"Ġdeep":1206,"irector":1207,"While":1208,"oot":1209,"the":1210,"Ġtimes":1211,"ret":1212,"Ġfull":1213,"icul":1214,"ching":1215,"amp":1216,"ĠSe":1217,"Ġclass":1218,"Ġgets":1219,"Ġsince":1220,"cing":1221,"iar":1222,"ub":1223,"Ġthen":1224,"isf":1225,"atter":1226,"Ġthings":1227,"Ġsex":1228,"ired":1229,"Ġdep":1230,"Ġultimately":1231,"Ġdialogue":1232,"Ġmaterial":1233,"ms":1234,"ron":1235,"Ġtakes":1236,"Ġaff":1237,"Ġsit":1238,"ream":1239,"Ġdet":1240,"Ġsuper":1241,"ĠSp":1242,"Ġscenes":1243,"self":1244,"Ġmind":1245,"iment":1246,"fic":1247,"ines":1248,"illi":1249,"empt":1250,"Ġ19":1251,"Ġtou":1252,"Ġsay":1253,"Ġfasc":1254,"Ġpol":1255,"Ġele":1256,"Ġstud":1257,"Ġchild":1258,"Ġhand":1259,"ains":1260,"Ġflick":1261,"Ġbeautiful":1262,"ues":1263,"Ġdid":1264,"ently":1265,"irit":1266,"Ġrun":1267,"hen":1268,"rid":1269,"play":1270,"Ġcompelling":1271,"Ġwatching":1272,"son":1273,"ĠY":1274,"Ġtit":1275,"Ġhalf":1276,"Ġyears":1277,"Ġbelie":1278,"Ġportra":1279,"ror":1280,"Ġwr":1281,"orn":1282,"Ġabs":1283,"With":1284,"Ġthough":1285,"Ġdark":1286,"Ġdull":1287,"Ġanim":1288,"que":1289,"Ġhapp":1290,"Ġemotional":1291,"Ġmusic":1292,"Like":1293,"Ġpain":1294,"Ġep":1295,"Ġstart":1296,"Ġleast":1297,"Ġvisual":1298,"Ġterri":1299,"Ġfascin":1300,"uck":1301,"vin":1302,"Ġdem":1303,"ilar":1304,"illy":1305,"Ġexp":1306,"Ġpredict":1307,"Ġeffort":1308,"co":1309,"cial":1310,"king":1311,"Ġed":1312,"ined":1313,"Ġput":1314,"olid":1315,"ĠSh":1316,"ĠBl":1317,"Ġspecial":1318,"iel":1319,"ric":1320,"eless":1321,"Ġlight":1322,"Ġworks":1323,"Ġfamil":1324,"Ġclever":1325,"era":1326,"Ġmed":1327,"Ġcra":1328,"Ġpiece":1329,"Ġune":1330,"Ġproble":1331,"io":1332,"Ġir":1333,"itive":1334,"Ġhour":1335,"Ġgive":1336,"ider":1337,"uring":1338,"Ġunf":1339,"using":1340,"ized":1341,"Ġfail":1342,"Ġgives":1343,"Ġmor":1344,"Ġinter":1345,"ists":1346,"ĠDe":1347,"Ġpres":1348,"odram":1349,"ĠJo":1350,"Ġgoing":1351,"Ġentertainment":1352,"Ġcinematic":1353,"ted":1354,"Ġev":1355,"ural":1356,"Ġdef":1357,"Ġfeature":1358,"Ġtrans":1359,"Ġvide":1360,"Ġcinema":1361,"Ġnarr":1362,"Ġstra":1363,"ously":1364,"alls":1365,"Ġanyone":1366,"ossible":1367,"ix":1368,"yp":1369,"Ġsent":1370,"Ġsweet":1371,"reak":1372,"Ġmaking":1373,"Ġwonder":1374,"Ġpsy":1375,"rop":1376,"Ġonce":1377,"aste":1378,"Ġwhole":1379,"Ġperfect":1380,"Ġsmart":1381,"Ġstyle":1382,"Ġfascinating":1383,"gy":1384,"Â©":1385,"Ġph":1386,"Ġlast":1387,"ution":1388,"Ġener":1389,"antly":1390,"Ġshort":1391,"Ġanything":1392,"Ġmelodram":1393,"St":1394,"ts":1395,"ways":1396,"Ġwit":1397,"Ġcertain":1398,"Ġlow":1399,"Ġhon":1400,"Ġsusp":1401,"Ġuns":1402,"Ġlead":1403,"Ġkids":1404,"cer":1405,"oon":1406,"Ġsw":1407,"Ġsad":1408,"oring":1409,"Ġmoving":1410,"right":1411,"Ġrare":1412,"Ġcapt":1413,"Ġserious":1414,"Ġpretty":1415,"ĠU":1416,"Ġsens":1417,"iting":1418,"aling":1419,"Ġtoget":1420,"Ġnow":1421,"els":1422,"ula":1423,"Ġcomm":1424,"Ġsucc":1425,"ĠSc":1426,"Ġexpect":1427,"Ġtogether":1428,"Ġey":1429,"arent":1430,"Ġadd":1431,"Ġlaughs":1432,"but":1433,"idd":1434,"aps":1435,"Ġdirection":1436,"Ġengag":1437,"Ġexperience":1438,"Al":1439,"off":1440,"Ġmar":1441,"Ġbra":1442,"Ġpop":1443,"Ġret":1444,"ows":1445,"Ġalways":1446,"ĠBe":1447,"Ġconf":1448,"Ġspirit":1449,"Ġtrue":1450,"Ġbecom":1451,"Ġobvious":1452,"Ġstrong":1453,"Ġhistory":1454,"Ġpsych":1455,"oke":1456,"zy":1457,"Ġsound":1458,"ery":1459,"ities":1460,"lect":1461,"Ġsure":1462,"urp":1463,"ured":1464,"Ġlevel":1465,"ruct":1466,"Ġinsp":1467,"Ġaway":1468,"Ġcomplete":1469,"Ġtitle":1470,"Ġvideo":1471,"Even":1472,"day":1473,"ha":1474,"to":1475,"ug":1476,"Ġac":1477,"Ġop":1478,"Ġfans":1479,"Ġmon":1480,"uth":1481,"ots":1482,"Ġcomic":1483,"Ġhead":1484,"ortun":1485,"Ġprob":1486,"Ġactually":1487,"Ġwhose":1488,"resh":1489,"Ġclic":1490,"version":1491,"Ġnarrative":1492,"00":1493,"oint":1494,"und":1495,"Ġsilly":1496,"Ġmatter":1497,"Ġwar":1498,"ann":1499,"Ġthree":1500,"Ġstar":1501,"ird":1502,"Though":1503,"Ġquest":1504,"ments":1505,"Ġtalent":1506,"Ġseries":1507,"Ġtrag":1508,"Ġsatisf":1509,"Ġpolit":1510,"Ġpredictable":1511,"ec":1512,"ger":1513,"ied":1514,"Ġcar":1515,"Ġwhy":1516,"Ġcoming":1517,"ody":1518,"ored":1519,"Ġaround":1520,"Ġinsight":1521,"Ġteen":1522,"ek":1523,"hn":1524,"ope":1525,"opp":1526,"Ġfact":1527,"ets":1528,"Ġreason":1529,"ife":1530,"ush":1531,"Ġplace":1532,"Ġentire":1533,"ressive":1534,"Ġsometimes":1535,"Ġgenre":1536,"Ġattempt":1537,"Ġsimply":1538,"``":1539,"ever":1540,"ler":1541,"like":1542,"Ġmiss":1543,"Ġdone":1544,"stand":1545,"ific":1546,"Ġnearly":1547,"Ġprof":1548,"Ġprem":1549,"itten":1550,"Ġslow":1551,"Ġamb":1552,"Ġscreenplay":1553,"Ġidea":1554,"Ġwomen":1555,"Ġfamiliar":1556,"Ġwo":1557,"Ġwin":1558,"Ġcou":1559,"Ġbo":1560,"ories":1561,"ention":1562,"ract":1563,"ĠCl":1564,"ĠLe":1565,"Ġquir":1566,"Ġadm":1567,"okes":1568,"br":1569,"ched":1570,"ĠIt":1571,"Ġsy":1572,"eng":1573,"ening":1574,"Ġmain":1575,"orge":1576,"alk":1577,"ceed":1578,"Ġass":1579,"Ġhel":1580,"ude":1581,"plic":1582,"Ġmanages":1583,"Ġfilmmakers":1584,"Ġhorror":1585,"Ġsentiment":1586,"Ġhonest":1587,"Des":1588,"aid":1589,"by":1590,"bing":1591,"ci":1592,"cise":1593,"Ġfresh":1594,"Ġpar":1595,"Ġpot":1596,"Ġdi":1597,"Ġequ":1598,"Ġmoder":1599,"chool":1600,"Ġsum":1601,"ams":1602,"unch":1603,"Ġintri":1604,"ational":1605,"ĠNew":1606,"Ġsubt":1607,"Ġdramatic":1608,"Ġdelight":1609,"Ġprobably":1610,"Ġpremise":1611,"oid":1612,"Ġsolid":1613,"Ġoper":1614,"Ġcred":1615,"Ġprom":1616,"chn":1617,"sem":1618,"ump":1619,"izing":1620,"Ġenjoyable":1621,"Ġformula":1622,"Ġsuccess":1623,"cent":1624,"wh":1625,"het":1626,"Ġmaster":1627,"Ġcut":1628,"ork":1629,"Ġtrying":1630,"though":1631,"Ġgoes":1632,"Ġparticul":1633,"Ġeffects":1634,"Ġelse":1635,"Ġsuspense":1636,"Ġengaging":1637,"ef":1638,"vis":1639,"Ġtreat":1640,"Ġfant":1641,"Ġfine":1642,"Ġmis":1643,"Ġpat":1644,"Ġpast":1645,"ett":1646,"Ġfair":1647,"pecially":1648,"range":1649,"Ġturns":1650,"Ġproblem":1651,"Ġhelp":1652,"Ġmodern":1653,"At":1654,"apt":1655,"iences":1656,"mp":1657,"ovie":1658,"time":1659,"yn":1660,"Ġ9":1661,"Ġsou":1662,"Ġodd":1663,"ited":1664,"Ġwriter":1665,"Ġcent":1666,"Ġbook":1667,"Ġine":1668,"Ġhero":1669,"Ġworst":1670,"ograp":1671,"ize":1672,"ults":1673,"Ġmean":1674,"rench":1675,"Ġdiffere":1676,"Ġchildren":1677,"Despite":1678,"cond":1679,"Ġsing":1680,"Ġocc":1681,"ished":1682,"ese":1683,"Ġmust":1684,"rown":1685,"oof":1686,"Ġsupp":1687,"Ġconst":1688,"Ġdebut":1689,"ĠMr":1690,"Ġoffers":1691,"Ġfeeling":1692,"Ġamusing":1693,"Ġcomplex":1694,"Ġespecially":1695,"Ġstudy":1696,"ĠJohn":1697,"Ġbecomes":1698,"aves":1699,"ient":1700,"Ġill":1701,"Ġsort":1702,"itch":1703,"Ġwarm":1704,"Ġbas":1705,"Ġalong":1706,"Ġdev":1707,"Ġactor":1708,"Ġflaw":1709,"Ġviol":1710,"Ġsmall":1711,"Ġcontri":1712,"Ġromance":1713,"Ġobs":1714,"ah":1715,"cl":1716,"go":1717,"Ġversion":1718,"Ġtell":1719,"Ġsim":1720,"Ġfr":1721,"Ġma":1722,"Ġmag":1723,"Ġcam":1724,"Ġlar":1725,"ote":1726,"Ġstuff":1727,"Ġcomed":1728,"Ġlive":1729,"urd":1730,"Ġeverything":1731,"avy":1732,"ological":1733,"Ġintelligent":1734,"Ġportrait":1735,"reme":1736,"itation":1737,"Ġmark":1738,"Ġcall":1739,"Ġboring":1740,"Ġdumb":1741,"Ġinvol":1742,"omp":1743,"elt":1744,"ĠSte":1745,"ĠAll":1746,"Ġlikely":1747,"Ġval":1748,"ĠRe":1749,"iction":1750,"aced":1751,"Ġface":1752,"velop":1753,"Ġlacks":1754,"Ġcharming":1755,"Ġmessage":1756,"Ġeasy":1757,"director":1758,"use":1759,"uine":1760,"Ġtheater":1761,"ential":1762,"Ġexer":1763,"udd":1764,"ĠRob":1765,"ears":1766,"Ġslight":1767,"Ġbecome":1768,"ationship":1769,"Ġmyster":1770,"Ġstyl":1771,"No":1772,"ĠTh":1773,"Ġfri":1774,"Ġgri":1775,"otic":1776,"Ġreve":1777,"Ġbegin":1778,"ĠAl":1779,"Ġjour":1780,"used":1781,"Ġword":1782,"arely":1783,"Ġadvent":1784,"Ġbrilli":1785,"Ġrelationship":1786,"Ġfilmmaker":1787,"Ġexercise":1788,"ming":1789,"uri":1790,"yond":1791,"erv":1792,"ony":1793,"ouse":1794,"utter":1795,"Ġstun":1796,"Ġread":1797,"ags":1798,"ĠAn":1799,"ustr":1800,"ĠDis":1801,"ĠFrench":1802,"ĠTV":1803,"ension":1804,"ollow":1805,"Ġclassic":1806,"Ġaffect":1807,"Ġquirky":1808,"And":1809,"come":1810,"ches":1811,"ira":1812,"ned":1813,"Ġve":1814,"Ġmen":1815,"Ġwrit":1816,"Ġhilar":1817,"Ġnor":1818,"Ġsuff":1819,"iller":1820,"Ġuni":1821,"osed":1822,"Ġremark":1823,"Ġideas":1824,"Ġpowerful":1825,"Ġculture":1826,"Ġinstead":1827,"Ġpassion":1828,"Ġenergy":1829,"All":1830,"pro":1831,"uc":1832,"ĠQ":1833,"Ġtone":1834,"aring":1835,"Ġday":1836,"Ġnon":1837,"Ġeither":1838,"Ġgirl":1839,"entious":1840,"rage":1841,"ulg":1842,"ular":1843,"Ġlives":1844,"aged":1845,"ended":1846,"Ġclose":1847,"Ġleft":1848,"Ġflat":1849,"Ġemb":1850,"Ġlooking":1851,"Ġgenuine":1852,"Ġfilmmaking":1853,"Ġsurprisingly":1854,"guing":1855,"Ġmelodrama":1856,"Ġcertainly":1857,"Ġach":1858,"Ġsign":1859,"ising":1860,"ones":1861,"ances":1862,"Ġinf":1863,"Ġeach":1864,"Ġmot":1865,"Ġstrange":1866,"Ġrest":1867,"oles":1868,"Ġproject":1869,"itty":1870,"itting":1871,"Ġending":1872,"Ġeveryone":1873,"Ġdespite":1874,"Ġtechn":1875,"Ġrecent":1876,"appoint":1877,"Ġsitu":1878,"Ġcompletely":1879,"Ġopera":1880,"Ch":1881,"Just":1882,"ey":1883,"ges":1884,"line":1885,"rt":1886,"sh":1887,"uly":1888,"Ġsn":1889,"Ġspect":1890,"iter":1891,"Ġfan":1892,"Ġmix":1893,"orable":1894,"oud":1895,"let":1896,"asy":1897,"Ġreg":1898,"Ġur":1899,"Ġbeyond":1900,"unk":1901,"Ġexcept":1902,"Ġheavy":1903,"Ġplays":1904,"Ġleave":1905,"Ġquiet":1906,"Ġdeser":1907,"Ġviewers":1908,"arnest":1909,"Ġdeeply":1910,"Ġbelieve":1911,"iddle":1912,"Ġoccas":1913,"Un":1914,"ael":1915,"land":1916,"minut":1917,"Ġfound":1918,"Ġstri":1919,"ĠBar":1920,"Ġjokes":1921,"allow":1922,"Ġtruly":1923,"Ġquick":1924,"Ġdirected":1925,"Ġlooks":1926,"Ġride":1927,"Ġreality":1928,"ival":1929,"ashion":1930,"Ġhimself":1931,"Ġcreep":1932,"Ġdetail":1933,"Ġstraight":1934,"Sh":1935,"Too":1936,"ai":1937,"ma":1938,"med":1939,"telling":1940,"ze":1941,"ĠZ":1942,"icult":1943,"Ġhold":1944,"Ġhope":1945,"ĠSch":1946,"Ġexam":1947,"Ġsecond":1948,"ires":1949,"Ġshot":1950,"Ġrich":1951,"Ġsubst":1952,"Ġdisappoint":1953,"Ġunderstand":1954,"Ġshows":1955,"Ġproduction":1956,"Ġdifficult":1957,"minute":1958,"We":1959,"When":1960,"ding":1961,"ged":1962,"iest":1963,"ov":1964,"way":1965,"Ġmet":1966,"Ġcart":1967,"Ġline":1968,"Ġnice":1969,"ott":1970,"Ġforget":1971,"Ġexact":1972,"ively":1973,"Ġabove":1974,"Ġconcept":1975,"ĠAr":1976,"Ġnext":1977,"uss":1978,"pping":1979,"Ġtruth":1980,"Ġends":1981,"Ġscene":1982,"Ġappro":1983,"Ġrefres":1984,"Ġsimple":1985,"Ġdelivers":1986,"Ġtouching":1987,"Although":1988,"Ġsummer":1989,"af":1990,"gr":1991,"rist":1992,"wr":1993,"Ġ8":1994,"Ġid":1995,"Ġair":1996,"Ġcap":1997,"Ġbro":1998,"oub":1999,"ange":2000,"Ġtop":2001,"Ġgrow":2002,"Ġcomb":2003,"ames":2004,"Ġalread":2005,"Its":2006,"Ġshock":2007,"Ġnovel":2008,"ĠJack":2009,"Ġpoet":2010,"ildly":2011,"berg":2012,"Ġrole":2013,"ibly":2014,"Ġexplo":2015,"Ġbeautifully":2016,"Ġsatisfying":2017,"Ġintriguing":2018,"Ġdifferent":2019,"Ġhilarious":2020,"Ġalready":2021,"Director":2022,"ball":2023,"ien":2024,"por":2025,"ring":2026,"rise":2027,"tra":2028,"Ġopp":2029,"arp":2030,"any":2031,"Ġlet":2032,"Ġstories":2033,"ung":2034,"Ġexec":2035,"Ġconvin":2036,"Ġdead":2037,"Ġdevelop":2038,"Ġneither":2039,"Ġimages":2040,"ender":2041,"ichÃĥÆĴÃĤ":2042,"Ġmostly":2043,"itely":2044,"Ġimport":2045,"Ġremains":2046,"Ġtries":2047,"Ġmoment":2048,"ield":2049,"Ġhours":2050,"Ġfails":2051,"Ġsoul":2052,"Ġcamera":2053,"Ġlarge":2054,"Ġadventure":2055,"Be":2056,"Every":2057,"So":2058,"bly":2059,"wise":2060,"erous":2061,"ishing":2062,"Ġmin":2063,"Ġwind":2064,"Ġinv":2065,"elves":2066,"enty":2067,"Ġstup":2068,"Ġant":2069,"Ġlik":2070,"unny":2071,"ember":2072,"Ġdeath":2073,"Ġprov":2074,"ĠIs":2075,"ĠclichÃĥÆĴÃĤ":2076,"Ġblack":2077,"Ġimpossible":2078,"Ġvirt":2079,"Ġpretentious":2080,"Ġextra":2081,"Ġconsider":2082,"Ġcolle":2083,"Ġwoman":2084,"Ġpersonal":2085,"Ġparticularly":2086,"Ġfriends":2087,"Ġjourney":2088,"Ġspectac":2089,"Ġrefreshing":2090,"On":2091,"Some":2092,"ele":2093,"hand":2094,"selves":2095,"ĠX":2096,"hel":2097,"Ġfut":2098,"Ġfollow":2099,"Ġmere":2100,"arre":2101,"Ġdream":2102,"Ġliter":2103,"Ġgags":2104,"ims":2105,"rag":2106,"Ġsust":2107,"Ġsoap":2108,"pth":2109,"ĠHar":2110,"ichael":2111,"Ġadapt":2112,"lessly":2113,"ocative":2114,"Ġseeing":2115,"Ġaudiences":2116,"Ġbring":2117,"Ġgrand":2118,"Ġpleasure":2119,"Ġcrime":2120,"Ġdrag":2121,"Ġesc":2122,"Ġsequel":2123,"Ġanimation":2124,"Ġterrific":2125,"Ġpsychological":2126,"Ġexactly":2127,"fort":2128,"where":2129,"Ġutter":2130,"Ġted":2131,"Ġtaste":2132,"reas":2133,"erm":2134,"ital":2135,"ene":2136,"atural":2137,"Ġmiddle":2138,"Ġcor":2139,"Ġbal":2140,"ouble":2141,"Ġpull":2142,"Ġdam":2143,"edly":2144,"Ġhit":2145,"omm":2146,"Ġmood":2147,"Ġbeh":2148,"ement":2149,"ĠCr":2150,"Ġsocial":2151,"Ġprovid":2152,"ĠWh":2153,"oney":2154,"icks":2155,"ĠLove":2156,"Ġtwist":2157,"Ġimpro":2158,"Ġdelic":2159,"scious":2160,"Ġagainst":2161,"Ġeasily":2162,"Ġintelligence":2163,"Ġmedi":2164,"Ġunex":2165,"Ġmoral":2166,"Ġdefin":2167,"Ġpolitical":2168,"Ġsubtle":2169,"ĠDisney":2170,"Ġachie":2171,"bout":2172,"nter":2173,"oes":2174,"ple":2175,"year":2176,"Ġav":2177,"Ġsle":2178,"ats":2179,"Ġfour":2180,"Ġboy":2181,"ank":2182,"Ġinn":2183,"Ġhome":2184,"Ġiss":2185,"Ġgot":2186,"illing":2187,"ellent":2188,"Ġdepth":2189,"ĠMy":2190,"Ġproves":2191,"oses":2192,"Ġpoor":2193,"Ġways":2194,"Ġgetting":2195,"Ġextreme":2196,"Ġstandard":2197,"ront":2198,"Ġeye":2199,"ography":2200,"ton":2201,"Ġaut":2202,"Ġspe":2203,"Ġfem":2204,"Ġfalls":2205,"Ġbreat":2206,"Ġposs":2207,"Ġder":2208,"Ġdri":2209,"Ġevent":2210,"Ġgame":2211,"olute":2212,"Ġforce":2213,"ĠBrit":2214,"Ġunt":2215,"Ġjoy":2216,"pped":2217,"udget":2218,"ode":2219,"Ġweird":2220,"Ġbland":2221,"Ġtrad":2222,"rank":2223,"ology":2224,"Ġcliches":2225,"Ġviolence":2226,"Ġwriting":2227,"Ġapproach":2228,"Ġstupid":2229,"ape":2230,"haps":2231,"uous":2232,"uge":2233,"inct":2234,"itious":2235,"ises":2236,"Ġfig":2237,"Ġcost":2238,"Ġcase":2239,"orm":2240,"Ġpure":2241,"Ġparent":2242,"Ġthin":2243,"str":2244,"Ġgent":2245,"Ġgone":2246,"room":2247,"aken":2248,"Ġunp":2249,"ĠMichael":2250,"Ġsoph":2251,"Ġprocess":2252,"ĠDa":2253,"Ġstorytelling":2254,"ability":2255,"Ġwhether":2256,"Ġremind":2257,"Ġroll":2258,"ĠChrist":2259,"Ġcheap":2260,"Ġgiven":2261,"Ġkeeps":2262,"Ġsatire":2263,"Ġappeal":2264,"Ġmemorable":2265,"Ġwrong":2266,"Ġwritten":2267,"Ġepic":2268,"Ġopen":2269,"ĠRobert":2270,"Ġmystery":2271,"Ġoccasionally":2272,"By":2273,"nect":2274,"Ġschool":2275,"rew":2276,"Ġcour":2277,"orough":2278,"orical":2279,"Ġpay":2280,"arl":2281,"Ġinvent":2282,"Ġlat":2283,"ley":2284,"uted":2285,"oose":2286,"ides":2287,"urder":2288,"Ġjob":2289,"ĠHe":2290,"ights":2291,"Ġacted":2292,"Ġactress":2293,"Ġleaves":2294,"acing":2295,"Ġuses":2296,"Ġcontem":2297,"Ġviewer":2298,"appy":2299,"Ġthoughtful":2300,"Ġelements":2301,"Ġmaj":2302,"Ġbrilliant":2303,"Ġtedious":2304,"Ex":2305,"bl":2306,"bo":2307,"ban":2308,"bers":2309,"iod":2310,"movie":2311,"Ġz":2312,"inary":2313,"Ġtheat":2314,"Ġfoot":2315,"Ġwa":2316,"Ġcur":2317,"Ġcold":2318,"Ġcool":2319,"Ġcount":2320,"Ġbus":2321,"Ġpossible":2322,"ices":2323,"Ġtold":2324,"Ġgorge":2325,"Ġug":2326,"ĠSand":2327,"Ġintim":2328,"Ġexist":2329,"Ġconfl":2330,"ĠAm":2331,"orts":2332,"ands":2333,"ĠII":2334,"Ġperiod":2335,"Ġpost":2336,"Ġpoign":2337,"atching":2338,"Ġimpressive":2339,"Ġsurf":2340,"Ġdesper":2341,"Ġtele":2342,"Ġscreenw":2343,"Ġreson":2344,"Ġartist":2345,"ibility":2346,"Ġclear":2347,"Ġneeds":2348,"herent":2349,"rossing":2350,"Ġepis":2351,"Ġpresent":2352,"Ġinspir":2353,"Ġcartoon":2354,"Fe":2355,"Has":2356,"fi":2357,"mist":2358,"ura":2359,"Ġver":2360,"Ġast":2361,"heart":2362,"Ġsqu":2363,"atory":2364,"Ġful":2365,"Ġfoc":2366,"Ġcele":2367,"Ġdest":2368,"Ġdig":2369,"Ġduring":2370,"Ġhy":2371,"Ġemer":2372,"entially":2373,"Ġang":2374,"Ġforg":2375,"ĠMan":2376,"Ġsci":2377,"ĠAd":2378,"That":2379,"Ġrout":2380,"Ġfunn":2381,"Ġoffer":2382,"ensive":2383,"rugg":2384,"Ġotherwise":2385,"Ġresult":2386,"Ġ10":2387,"Ġrecomm":2388,"Ġvision":2389,"scar":2390,"Ġskill":2391,"Ġsurprising":2392,"Ġfinally":2393,"Ġsexual":2394,"Ġdepress":2395,"Ġrunning":2396,"Ġquestion":2397,"Ġtragedy":2398,"Ġcreepy":2399,"bel":2400,"cceed":2401,"ee":2402,"gue":2403,"hood":2404,"iro":2405,"ives":2406,"kin":2407,"rant":2408,"Ġ4":2409,"Ġtyp":2410,"inative":2411,"Ġside":2412,"ener":2413,"Ġbreak":2414,"Ġpurp":2415,"Ġthorough":2416,"Ġhop":2417,"Ġnature":2418,"Ġearnest":2419,"Ġmod":2420,"ashing":2421,"Ġsucceed":2422,"Ġhaving":2423,"Ġshoot":2424,"Ġsharp":2425,"Ġuncom":2426,"ĠMc":2427,"action":2428,"osp":2429,"ĠGod":2430,"Ġquality":2431,"Ġlost":2432,"Ġamount":2433,"Ġfaith":2434,"Ġthemselves":2435,"Ġrespect":2436,"umbers":2437,"Ġemotionally":2438,"Ġincl":2439,"Ġattention":2440,"Ġhorri":2441,"Ġimagination":2442,"Ġabsurd":2443,"Ġcraft":2444,"Ġeyes":2445,"ortunately":2446,"Ġentirely":2447,"ength":2448,"what":2449,"hetic":2450,"Ġfrustr":2451,"Ġcomedies":2452,"Ġmajor":2453,"More":2454,"ax":2455,"aces":2456,"aving":2457,"che":2458,"table":2459,"Ġ3":2460,"Ġess":2461,"Ġtest":2462,"Ġtired":2463,"rem":2464,"athy":2465,"Ġcop":2466,"Ġcond":2467,"Ġbarely":2468,"Ġpath":2469,"Ġdays":2470,"ilty":2471,"Ġland":2472,"Ġnone":2473,"Ġste":2474,"Ġreleas":2475,"veral":2476,"amb":2477,"Ġchall":2478,"Ġchange":2479,"Ġseveral":2480,"Ġhaun":2481,"ĠBig":2482,"oph":2483,"aph":2484,"ĠTime":2485,"earing":2486,"Ġweak":2487,"Ġenth":2488,"Ġamong":2489,"Ġfav":2490,"Ġremake":2491,"Ġengrossing":2492,"Ġcareer":2493,"Ġfinal":2494,"Ġbuild":2495,"Ġanimated":2496,"Ġwonderful":2497,"semble":2498,"Ġfantasy":2499,"Ġfairly":2500,"Ġsingle":2501,"Ġcontrived":2502,"ĠSteven":2503,"Ġsustain":2504,"ĠDavid":2505,"Ġlatest":2506,"Ġconflict":2507,"Ġcelebr":2508,"He":2509,"cul":2510,"cret":2511,"hop":2512,"lin":2513,"ps":2514,"piece":2515,"zz":2516,"Ġer":2517,"Ġtaking":2518,"Ġspl":2519,"Ġsour":2520,"ised":2521,"Ġcrit":2522,"ont":2523,"alt":2524,"Ġthrow":2525,"Ġnatural":2526,"vide":2527,"Ġredu":2528,"rol":2529,"ades":2530,"umph":2531,"ury":2532,"quis":2533,"Ġdoing":2534,"ĠMart":2535,"Ġworse":2536,"Ġplenty":2537,"acks":2538,"Ġkn":2539,"Ġusual":2540,"Ġslap":2541,"Ġblood":2542,"ĠOscar":2543,"Ġawful":2544,"Ġpoints":2545,"Ġknows":2546,"Ġexcellent":2547,"oking":2548,"Ġappealing":2549,"Ġcolor":2550,"Ġremarkable":2551,"Ġfuture":2552,"Ġmedioc":2553,"olutely":2554,"Ġgentle":2555,"Ġugly":2556,"gra":2557,"ior":2558,"li":2559,"vil":2560,"vable":2561,"Ġing":2562,"ino":2563,"Ġsong":2564,"real":2565,"ened":2566,"eness":2567,"Ġfore":2568,"Ġlist":2569,"Ġhom":2570,"Ġgoof":2571,"Ġintent":2572,"ify":2573,"Ġconnect":2574,"astic":2575,"ĠMon":2576,"Ġscary":2577,"usion":2578,"Ġplain":2579,"Ġprec":2580,"ĠWar":2581,"ĠGirl":2582,"Ġsomeone":2583,"Ġsomewhat":2584,"Ġadults":2585,"pected":2586,"Ġvivid":2587,"Ġinside":2588,"Ġothers":2589,"Ġvisually":2590,"Ġemotions":2591,"Ġsurprise":2592,"Ġworthy":2593,"Ġdecent":2594,"Nothing":2595,"Ġdeliver":2596,"Ġevents":2597,"Ġperfectly":2598,"Ġunsett":2599,"Ġambitious":2600,"Ġsentimental":2601,"Ġmeaning":2602,"Ġmagic":2603,"handed":2604,"Ġmerely":2605,"Ġthoroughly":2606,"To":2607,"mon":2608,"ox":2609,"Ġtar":2610,"rent":2611,"Ġfre":2612,"Ġfast":2613,"Ġfram":2614,"Ġmad":2615,"Ġcoll":2616,"orld":2617,"Ġpun":2618,"Ġpace":2619,"arch":2620,"anks":2621,"Ġdoub":2622,"elcome":2623,"Ġstrugg":2624,"Ġrevel":2625,"raph":2626,"ries":2627,"ried":2628,"Ġcomplic":2629,"illed":2630,"orting":2631,"Ġcharism":2632,"Ġvar":2633,"ĠPh":2634,"apan":2635,"oder":2636,"acy":2637,"aught":2638,"oying":2639,"Ġemp":2640,"Ġimpact":2641,"rence":2642,"Ġtriumph":2643,"Ġpictures":2644,"ĠAmerica":2645,"azz":2646,"Ġlots":2647,"Ġeffective":2648,"beat":2649,"Ġdistur":2650,"Ġ200":2651,"Ġmemory":2652,"Ġsequences":2653,"Ġtouch":2654,"ĠYork":2655,"Ġphot":2656,"Ġcommun":2657,"Ġbrain":2658,"Ġbegins":2659,"Ġexecution":2660,"Ġimportant":2661,"Ġprovocative":2662,"Ġadaptation":2663,"Ġfemale":2664,"Ġparents":2665,"Ġgorgeous":2666,"Ġrecommend":2667,"70":2668,"aff":2669,"vice":2670,"wo":2671,"Ġable":2672,"reci":2673,"Ġfree":2674,"Ġmer":2675,"Ġcrow":2676,"Ġcamp":2677,"Ġpack":2678,"arc":2679,"arily":2680,"Ġden":2681,"Ġlab":2682,"Ġgross":2683,"Ġuse":2684,"verage":2685,"ident":2686,"ister":2687,"Ġdeal":2688,"Ġdeft":2689,"Ġnecess":2690,"uses":2691,"Ġvo":2692,"Ġimm":2693,"ĠPl":2694,"ĠFat":2695,"iously":2696,"ared":2697,"Ġspark":2698,"Ġworking":2699,"Ġoverall":2700,"decess":2701,"Ġempt":2702,"ĠKiss":2703,"Ġdesign":2704,"Ġroad":2705,"Ġcontin":2706,"screen":2707,"ggest":2708,"Ġcreative":2709,"Ġaccom":2710,"Ġhistorical":2711,"Ġdraw":2712,"illiams":2713,"ielberg":2714,"vision":2715,"Ġsupposed":2716,"ashioned":2717,"Ġexamination":2718,"Ġopportun":2719,"Ġutterly":2720,"Ġbehind":2721,"Ġavoid":2722,"hearted":2723,"Ġcrowd":2724,"Re":2725,"awn":2726,"body":2727,"cou":2728,"ean":2729,"light":2730,"life":2731,"na":2732,"ole":2733,"over":2734,"rum":2735,"side":2736,"Ġ5":2737,"Ġtension":2738,"ency":2739,"Ġfall":2740,"Ġfelt":2741,"Ġwitty":2742,"Ġcross":2743,"Ġcuri":2744,"Ġbiz":2745,"Ġpub":2746,"Ġhip":2747,"Ġhuge":2748,"Ġnight":2749,"Ġmother":2750,"ray":2751,"owers":2752,"Ġsuggest":2753,"irc":2754,"ament":2755,"ĠSol":2756,"Ġensemble":2757,"ĠBen":2758,"Ġdog":2759,"Ġunint":2760,"Ġunlike":2761,"ĠIn":2762,"ĠDan":2763,"tern":2764,"Ġprevious":2765,"Ġpredecess":2766,"ĠWil":2767,"ĠWild":2768,"ograph":2769,"ĠGu":2770,"form":2771,"ĠJapan":2772,"Ġused":2773,"Ġimpress":2774,"Ġdesc":2775,"Ġthroughout":2776,"urns":2777,"ivity":2778,"Ġchemist":2779,"Ġappreci":2780,"Ġgrace":2781,"Ġwants":2782,"Ġprot":2783,"Ġsurprises":2784,"attle":2785,"Ġcultural":2786,"Ġsincere":2787,"Ġdeterm":2788,"Ġcaptures":2789,"Ġacross":2790,"Ġpotential":2791,"Ġdelightful":2792,"Ġ90":2793,"Ġflaws":2794,"Ġobserv":2795,"Ġstylish":2796,"Ġwords":2797,"Ġunique":2798,"Ġquickly":2799,"Ġmetaph":2800,"Ġcollege":2801,"Ġfriendship":2802,"Ġissues":2803,"Ġbreath":2804,"Ġuntil":2805,"Ġchalleng":2806,"Ġtarget":2807,"Ġaccompl":2808,"Ġchemistry":2809,"Man":2810,"aven":2811,"bed":2812,"down":2813,"iven":2814,"kward":2815,"mosp":2816,"sw":2817,"ses":2818,"spect":2819,"upp":2820,"ugg":2821,"ishes":2822,"enn":2823,"Ġfight":2824,"Ġmist":2825,"Ġwelcome":2826,"Ġcute":2827,"Ġpos":2828,"Ġdate":2829,"Ġmove":2830,"Ġreward":2831,"ulative":2832,"Ġann":2833,"key":2834,"Ġsuck":2835,"Ġmoviego":2836,"aked":2837,"ĠBond":2838,"Ġunus":2839,"Ġconvent":2840,"Ġconcer":2841,"asty":2842,"Ġatmosp":2843,"ĠDam":2844,"Ġrhy":2845,"ief":2846,"ieces":2847,"ĠPet":2848,"Ġclos":2849,"Ġleg":2850,"Ġtry":2851,"Ġupon":2852,"izes":2853,"avor":2854,"Ġground":2855,"Ġplaying":2856,"Ġexciting":2857,"Ġcreates":2858,"Ġguys":2859,"Ġrepet":2860,"iety":2861,"Ġsuperfic":2862,"Ġmelodramatic":2863,"Ġtalented":2864,"oppy":2865,"Ġwinning":2866,"Ġsymp":2867,"Ġdiver":2868,"ĠQu":2869,"Ġsituation":2870,"Ġdeserves":2871,"Ġidi":2872,"porary":2873,"Ġdefinitely":2874,"Ġsophistic":2875,"Ġfully":2876,"Ġunsettling":2877,"De":2878,"\\*":2879,"aul":2880,"col":2881,"dy":2882,"eorge":2883,"fashioned":2884,"how":2885,"ki":2886,"nce":2887,"uct":2888,"Ġtim":2889,"iny":2890,"hent":2891,"Ġsaw":2892,"Ġwaste":2893,"Ġbar":2894,"onic":2895,"aris":2896,"ilm":2897,"ilos":2898,"Ġinde":2899,"stal":2900,"Ġname":2901,"eld":2902,"ellect":2903,"Ġgif":2904,"Ġgang":2905,"ashy":2906,"Ġstren":2907,"Ġstruct":2908,"Ġred":2909,"Ġcomfort":2910,"erson":2911,"Ġliving":2912,"umber":2913,"outh":2914,"Ġhack":2915,"ĠBro":2916,"ĠBoy":2917,"Ġability":2918,"ĠMar":2919,"Ġjoke":2920,"ĠHow":2921,"Ġprop":2922,"Ġperhaps":2923,"ĠWe":2924,"ĠWed":2925,"Ġclum":2926,"ĠGrant":2927,"ĠThing":2928,"Ġmanner":2929,"acher":2930,"Ġloc":2931,"ĠNiro":2932,"Ġamaz":2933,"Ġrid":2934,"angu":2935,"Ġrock":2936,"Ġbrings":2937,"Ġcasting":2938,"Ġawkward":2939,"Ġgiving":2940,"Ġapart":2941,"Ġgrou":2942,"Ġbeauty":2943,"Ġprim":2944,"Ġ20":2945,"Ġcreate":2946,"Ġabsor":2947,"Ġstarts":2948,"Ġleads":2949,"Ġrarely":2950,"Ġmonster":2951,"Ġcouple":2952,"Ġconstruct":2953,"Ġslightly":2954,"Ġrelationships":2955,"Ġurban":2956,"Ġconvincing":2957,"Ġprovides":2958,"Ġcostum":2959,"Ġroutine":2960,"Ġrhyth":2961,"Most":2962,"Pl":2963,"Pro":2964,"fying":2965,"ium":2966,"ral":2967,"round":2968,"yc":2969,"Ġly":2970,"inoc":2971,"head":2972,"erry":2973,"Ġfit":2974,"Ġwild":2975,"Ġcru":2976,"Ġbright":2977,"orrow":2978,"onstr":2979,"Ġpacing":2980,"anced":2981,"ancy":2982,"ilt":2983,"icle":2984,"Ġtoward":2985,"Ġlim":2986,"Ġloud":2987,"omb":2988,"vey":2989,"eth":2990,"Ġrequ":2991,"ession":2992,"ills":2993,"Ġalone":2994,"agg":2995,"ousy":2996,"Ġintellect":2997,"akers":2998,"Ġexh":2999,"quently":3000,"Ġunc":3001,"ĠAnd":3002,"ĠHome":3003,"Ġthanks":3004,"andering":3005,"Ġfear":3006,"Ġprep":3007,"ops":3008,"Ġvict":3009,"ĠFrid":3010,"ending":3011,"ĠGood":3012,"ĠGreen":3013,"assion":3014,"Ġtwists":3015,"rug":3016,"Ġbadly":3017,"Ġago":3018,"Ġwatchable":3019,"Ġbrut":3020,"Ġthrills":3021,"Ġterms":3022,"arming":3023,"Ġhighly":3024,"Ġskin":3025,"Ġimagine":3026,"conscious":3027,"ĠSpy":3028,"Ġproblems":3029,"Ġunfunny":3030,"Ġseriously":3031,"Ġtragic":3032,"Ġformulaic":3033,"Ġbased":3034,"Ġflawed":3035,"Ġinvolved":3036,"ĠAllen":3037,"Ġgripping":3038,"Ġreveals":3039,"prov":3040,"Unf":3041,"Ġsubstance":3042,"Ġescap":3043,"Ġunexpected":3044,"Ġcontemporary":3045,"Ġmediocre":3046,"Ġdoubt":3047,"Ġ2002":3048,"60":3049,"Any":3050,"How":3051,"May":3052,"Sp":3053,"Watching":3054,"budget":3055,"host":3056,"ipp":3057,"ique":3058,"lic":3059,"my":3060,"making":3061,"rical":3062,"Ġera":3063,"Ġtick":3064,"Ġaim":3065,"Ġage":3066,"hem":3067,"Ġsick":3068,"Ġsac":3069,"Ġfol":3070,"Ġfive":3071,"inger":3072,"Ġmes":3073,"Ġmil":3074,"Ġmildly":3075,"Ġmoney":3076,"Ġwond":3077,"Ġwish":3078,"Ġcal":3079,"Ġcand":3080,"Ġcyn":3081,"oration":3082,"ara":3083,"aly":3084,"Ġdre":3085,"Ġdry":3086,"iche":3087,"Ġtot":3088,"Ġham":3089,"Ġnu":3090,"leg":3091,"Ġstere":3092,"Ġstars":3093,"roll":3094,"Ġfilled":3095,"Ġones":3096,"Ġcommer":3097,"ified":3098,"arth":3099,"arts":3100,"Ġunin":3101,"ĠMovie":3102,"ĠAt":3103,"ĠAnt":3104,"acted":3105,"usi":3106,"uster":3107,"ĠDay":3108,"ĠWilliams":3109,"itted":3110,"abl":3111,"ĠRock":3112,"Ġmanip":3113,"ization":3114,"atingly":3115,"ccent":3116,"ĠEl":3117,"Ġrap":3118,"Ġrive":3119,"Ġthemes":3120,"Ġrealistic":3121,"olds":3122,"Ġlovely":3123,"Ġhowever":3124,"Ġrecord":3125,"gged":3126,"Ġlacking":3127,"Ġfinds":3128,"Ġplayed":3129,"Ġthinking":3130,"Ġappears":3131,"Ġgeneric":3132,"Ġimaginative":3133,"iculous":3134,"Ġeleg":3135,"Ġhands":3136,"Ġflicks":3137,"Ġhappens":3138,"Ġmeditation":3139,"Ġphilos":3140,"ĠUn":3141,"Ġsensitive":3142,"Ġsoundtra":3143,"Ġattempts":3144,"Ġmissing":3145,"Ġpromise":3146,"semb":3147,"Ġsuccessful":3148,"Ġmasterpiece":3149,"Ġcalled":3150,"Ġinvolving":3151,"ulgent":3152,"Ġconsiderable":3153,"Ġcourse":3154,"Ġinventive":3155,"Ġbusiness":3156,"Ġintimate":3157,"Ġepisode":3158,"Ġinclud":3159,"Ġbizarre":3160,"hentic":3161,"provoking":3162,"Ġsoundtrack":3163,"Is":3164,"aust":3165,"ein":3166,"eff":3167,"field":3168,"gth":3169,"ived":3170,"mers":3171,"mark":3172,"made":3173,"ners":3174,"Ġest":3175,"Ġtaken":3176,"ina":3177,"itable":3178,"itions":3179,"eni":3180,"atur":3181,"Ġfare":3182,"Ġfran":3183,"Ġfright":3184,"Ġmid":3185,"Ġmatch":3186,"Ġmurder":3187,"Ġwise":3188,"Ġwater":3189,"Ġcris":3190,"ority":3191,"arant":3192,"Ġdrug":3193,"Ġloss":3194,"Ġlaz":3195,"Ġhot":3196,"Ġnons":3197,"Ġeccent":3198,"Ġgay":3199,"Ġgun":3200,"Ġrent":3201,"char":3202,"chise":3203,"sequ":3204,"ids":3205,"ided":3206,"agger":3207,"Ġintro":3208,"Ġintense":3209,"Ġencou":3210,"ĠBr":3211,"Ġshare":3212,"ĠMe":3213,"ĠAbout":3214,"Ġnear":3215,"ateur":3216,"ĠDog":3217,"ĠFull":3218,"Ġoutrage":3219,"ĠTr":3220,"ĠTom":3221,"izz":3222,"arker":3223,"Ġblend":3224,"Ġyourself":3225,"Ġmeans":3226,"rison":3227,"Ġinterested":3228,"Ġcheck":3229,"Ġincred":3230,"Ġrelent":3231,"Ġwanted":3232,"Ġsets":3233,"Ġsett":3234,"arring":3235,"Ġpleasant":3236,"atters":3237,"Ġrepres":3238,"ĠSecret":3239,"ĠSpielberg":3240,"Ġruns":3241,"Ġportray":3242,"Ġterrible":3243,"Ġdemonstr":3244,"Ġputs":3245,"Ġuneven":3246,"Ġtransc":3247,"ĠUnd":3248,"Ġmarvel":3249,"Ġspiritual":3250,"urphy":3251,"Ġpolitics":3252,"Ġprofound":3253,"Ġsentimentality":3254,"Ġequally":3255,"while":3256,"Ġinex":3257,"Ġstunning":3258,"Ġaffection":3259,"Ġsituations":3260,"Ġforgettable":3261,"Ġpoetry":3262,"Ġlargely":3263,"Ġextraord":3264,"Ġinnoc":3265,"Ġderiv":3266,"ĠBritish":3267,"ĠSandler":3268,"Ġpoignant":3269,"Ġtelevision":3270,"Feels":3271,"Ġpurpose":3272,"Ġgoofy":3273,"Ġsuperficial":3274,"Ġindeed":3275,"Ġstrength":3276,"Ġstereot":3277,"Ġfranchise":3278,"After":3279,"Well":3280,"corn":3281,"lo":3282,"miss":3283,"ux":3284,"vant":3285,"xic":3286,"Ġtur":3287,"Ġtough":3288,"inal":3289,"reaking":3290,"Ġfire":3291,"esy":3292,"Ġcirc":3293,"Ġbi":3294,"Ġbold":3295,"Ġbattle":3296,"Ġpul":3297,"Ġpieces":3298,"arity":3299,"Ġdom":3300,"iling":3301,"Ġtoday":3302,"Ġlog":3303,"Ġloses":3304,"Ġhate":3305,"Ġhits":3306,"Ġhyp":3307,"stick":3308,"stead":3309,"Ġeth":3310,"chy":3311,"They":3312,"Ġforced":3313,"oore":3314,"Ġalive":3315,"agon":3316,"ĠSw":3317,"Ġcho":3318,"aks":3319,"Ġhell":3320,"Ġconv":3321,"ĠMurphy":3322,"atever":3323,"ĠInd":3324,"inded":3325,"venge":3326,"osity":3327,"Ġimpl":3328,"ĠRo":3329,"ĠGeorge":3330,"Ġsports":3331,"ĠNe":3332,"ips":3333,"Ġamateur":3334,"Ġdisc":3335,"Ġdisp":3336,"Ġmaybe":3337,"Ġsurvi":3338,"Ġsurround":3339,"bergh":3340,"getic":3341,"Ġremember":3342,"Ġresp":3343,"ĠChan":3344,"others":3345,"Ġcinemat":3346,"Ġapparent":3347,"Ġviewing":3348,"Ġsetting":3349,"Ġexcit":3350,"Ġexcess":3351,"arrass":3352,"Ġcreated":3353,"Ġguess":3354,"Ġaccess":3355,"Ġultimate":3356,"Ġdistinct":3357,"Ġproduct":3358,"Ġabsolutely":3359,"Ġpainful":3360,"Ġexpress":3361,"cover":3362,"Ġcliche":3363,"Ġquestions":3364,"Ġcentral":3365,"Ġstrangely":3366,"written":3367,"Ġbroad":3368,"ĠJackson":3369,"Ġliked":3370,"Ġvirtually":3371,"Ġdepressing":3372,"Ġtypical":3373,"Ġmodest":3374,"Ġcrafted":3375,"Ġhaunting":3376,"Ġenthusi":3377,"Ġcolorful":3378,"Ġframe":3379,"oderbergh":3380,"Ġdisturbing":3381,"Ġunintent":3382,"Ġsophisticated":3383,"Ġridiculous":3384,"Ġmesmer":3385,"Ġderivative":3386,"Do":3387,"Sc":3388,"eal":3389,"felt":3390,"kes":3391,"Ġtender":3392,"ining":3393,"Ġsch":3394,"Ġsav":3395,"Ġsaid":3396,"ator":3397,"ingu":3398,"Ġmach":3399,"Ġben":3400,"Ġbur":3401,"orious":3402,"alian":3403,"Ġdang":3404,"Ġlame":3405,"Ġlets":3406,"Ġlength":3407,"Ġharm":3408,"lex":3409,"uts":3410,"Ġstay":3411,"Ġstage":3412,"Ġreach":3413,"Ġbeha":3414,"uls":3415,"Ġfill":3416,"Ġansw":3417,"essional":3418,"Ġwhite":3419,"irth":3420,"ague":3421,"ĠSm":3422,"ĠCount":3423,"Ġju":3424,"Ġsoc":3425,"oody":3426,"ĠHer":3427,"ĠHol":3428,"ander":3429,"Ġallow":3430,"Ġfeat":3431,"Those":3432,"ĠWorld":3433,"ichol":3434,"Ġcompet":3435,"ondz":3436,"Ġslice":3437,"Ġundeni":3438,"Ġtalking":3439,"anging":3440,"hys":3441,"Ġroot":3442,"Ġparts":3443,"Ġartistic":3444,"Ġobject":3445,"ĠOr":3446,"Ġhardly":3447,"Ġclearly":3448,"Instead":3449,"Ġhumanity":3450,"Ġglimp":3451,"Ġoriginality":3452,"Ġguilty":3453,"ĠStory":3454,"Ġindie":3455,"ails":3456,"Ġsket":3457,"Ġworthwhile":3458,"Ġfinish":3459,"volution":3460,"dden":3461,"Ġaffair":3462,"Ġpainfully":3463,"Ġedge":3464,"Ġirrit":3465,"Ġenergetic":3466,"Ġpopcorn":3467,"Ġobviously":3468,"Ġinspired":3469,"Ġinsightful":3470,"Ġcourage":3471,"Ġadmira":3472,"Ġsimpl":3473,"Ġgrief":3474,"Ġaffecting":3475,"Ġsuffers":3476,"Ġembarrass":3477,"ivalent":3478,"iresome":3479,"Ġminor":3480,"Ġrefreshingly":3481,"reasure":3482,"ĠCrush":3483,"Ġsleep":3484,"Ġextremely":3485,"Ġauthentic":3486,"Ġfootage":3487,"Ġsurface":3488,"Ġsucceeds":3489,"Ġvoice":3490,"Ġopportunity":3491,"Ġconventional":3492,"Ġatmosphere":3493,"Ġabsorbing":3494,"Ġexhilar":3495,"Ġcommercial":3496,"Ġriveting":3497,"Ġeccentric":3498,"Ġstereotyp":3499,"Ġexcitement":3500,"Ad":3501,"Much":3502,"Somet":3503,"Whe":3504,"aus":3505,"bs":3506,"egr":3507,"hour":3508,"ivid":3509,"kins":3510,"nes":3511,"nal":3512,"school":3513,"tain":3514,"yle":3515,"Ġign":3516,"ĠYou":3517,"Ġtiresome":3518,"Ġaverage":3519,"Ġswe":3520,"Ġfiction":3521,"Ġfashion":3522,"Ġcore":3523,"onna":3524,"Ġpit":3525,"Ġpen":3526,"Ġpunch":3527,"ancing":3528,"alan":3529,"lying":3530,"Ġdim":3531,"Ġinfl":3532,"Ġlines":3533,"Ġlangu":3534,"uter":3535,"asp":3536,"etic":3537,"imal":3538,"Ġstep":3539,"Ġbeat":3540,"Ġfilmed":3541,"rian":3542,"Ġwithin":3543,"ants":3544,"ĠBull":3545,"Ġshad":3546,"Ġunre":3547,"Ġuncon":3548,"ĠMen":3549,"ĠCar":3550,"Ġplaces":3551,"udlin":3552,"ĠIran":3553,"ĠDrag":3554,"ĠWest":3555,"ogn":3556,"ĠRy":3557,"ĠRen":3558,"ĠTra":3559,"icking":3560,"Ġlearn":3561,"Ġspy":3562,"Ġspook":3563,"Ġtrick":3564,"ached":3565,"Ġflash":3566,"Ġsomehow":3567,"Ġadoles":3568,"Ġarri":3569,"Ġweight":3570,"ĠEng":3571,"ĠKe":3572,"Ġraw":3573,"Ġsurreal":3574,"versal":3575,"Ġservice":3576,"Ġparty":3577,"Ġheartfelt":3578,"Ġterror":3579,"ups":3580,"Ġperspect":3581,"Ġmusical":3582,"Ġguy":3583,"Ġdecades":3584,"Ġprice":3585,"Ġconsid":3586,"Ġconsist":3587,"Ġgeneral":3588,"insky":3589,"Ġbelievable":3590,"Ġefforts":3591,"Ġpresents":3592,"Ġaccept":3593,"Ġequivalent":3594,"Ġparticular":3595,"Ġtreatment":3596,"Ġwarmth":3597,"Ġtells":3598,"Ġveh":3599,"Ġremarkably":3600,"Ġmotion":3601,"Ġholds":3602,"Ġspectacle":3603,"Ġbalance":3604,"ĠWhat":3605,"Ġdelicate":3606,"Ġachieve":3607,"Ġpoorly":3608,"Ġfocus":3609,"Ġfavor":3610,"Ġslapstick":3611,"Ġcharisma":3612,"Ġpublic":3613,"ĠJapanese":3614,"Ġprotagon":3615,"Ġunusual":3616,"Both":3617,"Does":3618,"Le":3619,"Over":3620,"Off":3621,"Ste":3622,"Ultim":3623,"ares":3624,"band":3625,"cies":3626,"een":3627,"fle":3628,"fun":3629,"ians":3630,"ken":3631,"look":3632,"lish":3633,"rous":3634,"vy":3635,"Ġtour":3636,"Ġtelling":3637,"inc":3638,"inn":3639,"Ġsitting":3640,"rey":3641,"rend":3642,"Ġopt":3643,"Ġfur":3644,"Ġmult":3645,"Ġwast":3646,"Ġwry":3647,"Ġwalk":3648,"Ġwildly":3649,"Ġban":3650,"Ġbog":3651,"onishing":3652,"Ġped":3653,"Ġponder":3654,"aries":3655,"ario":3656,"Ġdr":3657,"Ġlay":3658,"Ġloose":3659,"leby":3660,"Ġgem":3661,"entity":3662,"otten":3663,"ashed":3664,"imsy":3665,"Ġstir":3666,"Ġstret":3667,"Ġyarn":3668,"Ġaspect":3669,"ady":3670,"Ġaltern":3671,"ĠSoderbergh":3672,"Ġintended":3673,"estival":3674,"ĠBall":3675,"Ġshame":3676,"Ġshallow":3677,"Ġunfor":3678,"Ġconce":3679,"asts":3680,"ĠMor":3681,"ĠMad":3682,"ĠMoore":3683,"Ġscore":3684,"Ġscream":3685,"Ġneg":3686,"usting":3687,"ĠHour":3688,"Ġprog":3689,"Ġplod":3690,"ĠIr":3691,"Ġallows":3692,"ards":3693,"Ġvill":3694,"ĠPian":3695,"ĠFre":3696,"ĠFrank":3697,"ĠRuss":3698,"ĠGl":3699,"ĠLa":3700,"Ġspot":3701,"Ġspoof":3702,"ĠJames":3703,"Ġsomewhere":3704,"Ġcompassion":3705,"Ġcomputer":3706,"Ġusually":3707,"ĠNichol":3708,"Ġoffering":3709,"Ġemph":3710,"atively":3711,"Ġtheme":3712,"Ġdirectorial":3713,"Ġdesp":3714,"inks":3715,"Ġages":3716,"Ġcontra":3717,"Ġlonger":3718,"leasant":3719,"Ġgreatest":3720,"umbs":3721,"Ġtrip":3722,"Ġpointless":3723,"Ġneeded":3724,"Ġplease":3725,"Ġgenerally":3726,"Ġsubjects":3727,"Ġsequence":3728,"Ġsexy":3729,"Ġsitcom":3730,"Ġstudio":3731,"Ġediting":3732,"ĠBlack":3733,"Ġirre":3734,"offman":3735,"Ġsounds":3736,"Ġsym":3737,"Ġcredits":3738,"Ġpromising":3739,"Ġvalue":3740,"ĠThat":3741,"Ġgenuinely":3742,"Ġsignific":3743,"ground":3744,"Ġcombination":3745,"Ġdevelopment":3746,"Ġspectacular":3747,"Ġpossibly":3748,"Ġeventually":3749,"Ġfigure":3750,"Ġscreenwrit":3751,"Ġangst":3752,"Ġfunnier":3753,"Ġcommunity":3754,"Ġdeftly":3755,"Ġempty":3756,"Ġdescri":3757,"iveness":3758,"ĠPeter":3759,"Ġrepetitive":3760,"Ġgroup":3761,"Unfortunately":3762,"Ġamateurish":3763,"Ġmesmerizing":3764,"Ġbehavi":3765,"ĠDragon":3766,"Ġvehicle":3767,"Bl":3768,"En":3769,"Good":3770,"My":3771,"Writer":3772,"bute":3773,"cult":3774,"ging":3775,"good":3776,"ij":3777,"la":3778,"minded":3779,"nces":3780,"uit":3781,"uro":3782,"win":3783,"war":3784,"writer":3785,"whel":3786,"ype":3787,"Ġ&":3788,"Ġsol":3789,"Ġsave":3790,"erable":3791,"itude":3792,"Ġfu":3793,"Ġfac":3794,"Ġmat":3795,"Ġmill":3796,"Ġcat":3797,"Ġball":3798,"Ġbored":3799,"Ġbott":3800,"Ġpu":3801,"Ġpract":3802,"Ġpaced":3803,"Ġphys":3804,"Ġthird":3805,"iler":3806,"eds":3807,"Ġtoss":3808,"Ġinner":3809,"Ġholes":3810,"omen":3811,"oman":3812,"omach":3813,"stein":3814,"Ġnumber":3815,"Ġearly":3816,"ented":3817,"ask":3818,"asm":3819,"ases":3820,"Ġstomach":3821,"Ġrend":3822,"verse":3823,"Ġasp":3824,"olic":3825,"irty":3826,"Ġliber":3827,"Ġalien":3828,"agal":3829,"urs":3830,"ifting":3831,"ĠBrown":3832,"Ġshap":3833,"Ġshots":3834,"Ġconcl":3835,"orth":3836,"actic":3837,"igg":3838,"Ġprove":3839,"Ġprovide":3840,"alling":3841,"ĠPol":3842,"ĠPinoc":3843,"oger":3844,"ĠFire":3845,"Ġspell":3846,"Ġspace":3847,"acious":3848,"aches":3849,"Ġjustice":3850,"Ġarch":3851,"Ġcompany":3852,"Ġwilling":3853,"Ġoverly":3854,"Ġperformers":3855,"ĠNot":3856,"Ġslick":3857,"ĠKing":3858,"Ġrad":3859,"Ġrip":3860,"Ġendearing":3861,"Ġmeas":3862,"Ġtalk":3863,"Ġdesire":3864,"Ġteam":3865,"Ġroom":3866,"Ġresults":3867,"Ġheartb":3868,"Ġrecogn":3869,"reek":3870,"Ġgiant":3871,"Ġfarce":3872,"avis":3873,"spired":3874,"Ġturned":3875,"Ġpleasures":3876,"Ġthinks":3877,"Ġindust":3878,"Ġexploration":3879,"Ġsheer":3880,"guise":3881,"ierce":3882,"Ġmembers":3883,"Ġdeeper":3884,"ample":3885,"Ġmindless":3886,"Ġ199":3887,"Ġhappen":3888,"Ġvisuals":3889,"ropri":3890,"Ġcaptiv":3891,"Ġcommon":3892,"Ġexpected":3893,"Ġinept":3894,"Ġdevoid":3895,"Ġmagn":3896,"Ġvalues":3897,"uddy":3898,"Ġstunts":3899,"Ġreading":3900,"ĠQue":3901,"eyed":3902,"Ġquietly":3903,"Ġstriking":3904,"wrought":3905,"Ġanti":3906,"Ġscreenwriter":3907,"Ġrelease":3908,"ĠMartin":3909,"Ġprecious":3910,"Ġfrequently":3911,"Ġcomplicated":3912,"Ġconstructed":3913,"Ġlazy":3914,"Ġoutrageous":3915,"Ġextraordinary":3916,"Ġcinematography":3917,"Ġaccessible":3918,"Ġirritating":3919,"Ġsimplistic":3920,"ĠBullock":3921,"ĠKevin":3922,"Ġperspective":3923,"Ultimately":3924,"Ġemphas":3925,"Ġbehavior":3926,"AX":3927,"About":3928,"Con":3929,"High":3930,"MAX":3931,"Sm":3932,"She":3933,"brid":3934,"cra":3935,"fman":3936,"gor":3937,"gan":3938,"lor":3939,"long":3940,"mo":3941,"mas":3942,"night":3943,"ship":3944,"work":3945,"warming":3946,"Ġ7":3947,"Ġic":3948,"Ġram":3949,"Ġtack":3950,"Ġtear":3951,"Ġauth":3952,"Ġsal":3953,"Ġsed":3954,"Ġsight":3955,"Ġsides":3956,"rek":3957,"rest":3958,"reet":3959,"itional":3960,"isp":3961,"atisf":3962,"Ġfat":3963,"Ġfather":3964,"Ġfront":3965,"esc":3966,"Ġbod":3967,"Ġbore":3968,"Ġbits":3969,"oric":3970,"Ġpus":3971,"Ġpap":3972,"Ġpick":3973,"anity":3974,"Ġdyn":3975,"Ġdazz":3976,"Ġinh":3977,"Ġlate":3978,"Ġhide":3979,"Ġholid":3980,"Ġhouse":3981,"stream":3982,"Ġner":3983,"ether":3984,"Ġrevenge":3985,"vern":3986,"ulation":3987,"chant":3988,"ola":3989,"owtime":3990,"Ġcomment":3991,"irming":3992,"Ġmoviemaking":3993,"ama":3994,"Ġalthough":3995,"Ġchance":3996,"Ġchase":3997,"cks":3998,"Ġexample":3999,"ivered":4000,"ĠBur":4001,"ĠBru":4002,"Ġsham":4003,"Ġshake":4004,"Ġconscious":4005,"ĠMs":4006,"ĠAs":4007,"ustin":4008,"Ġsoon":4009,"Ġsoft":4010,"Ġproceed":4011,"ĠIMAX":4012,"ĠDead":4013,"Ġpreach":4014,"itters":4015,"ĠPal":4016,"ogether":4017,"abor":4018,"ĠRoger":4019,"Ġclim":4020,"aufman":4021,"Ġadult":4022,"Ġovercome":4023,"Ġoverwhel":4024,"ĠNo":4025,"ĠNick":4026,"ressed":4027,"text":4028,"Ġvibr":4029,"Ġinsult":4030,"Ġdelivered":4031,"Ġtext":4032,"Ġserves":4033,"ĠChines":4034,"Ġtravel":4035,"Ġrecyc":4036,"Ġshowc":4037,"Ġincreas":4038,"atured":4039,"Ġtrifle":4040,"Ġtribute":4041,"Ġenjoyed":4042,"Ġattract":4043,"Ġgrim":4044,"Ġplayful":4045,"neyed":4046,"Ġreflect":4047,"Ġgeneration":4048,"Ġproduced":4049,"Ġimagery":4050,"Ġ195":4051,"irited":4052,"hens":4053,"Ġhappy":4054,"ĠBlade":4055,"Ġcrazy":4056,"Ġfailure":4057,"Ġpresence":4058,"Ġnowhere":4059,"Ġlevels":4060,"annel":4061,"ĠItalian":4062,"Ġintrigue":4063,"Ġcredit":4064,"class":4065,"Ġembra":4066,"ĠArn":4067,"afe":4068,"Ġpoetic":4069,"Ġexploit":4070,"eneath":4071,"Ġpulls":4072,"Ġdamn":4073,"Ġachieves":4074,"Ġunpleasant":4075,"ĠHeaven":4076,"Ġfrustrating":4077,"Ġessentially":4078,"Ġsplend":4079,"Ġintentions":4080,"ĠMonty":4081,"Ġstruggle":4082,"Ġnecessary":4083,"Ġpredecessor":4084,"Ġchallenging":4085,"Ġpositive":4086,"Ġannoying":4087,"Ġconcerned":4088,"Ġdiverting":4089,"Ġstructure":4090,"Ġhackneyed":4091,"ĠWedding":4092,"Ġfolks":4093,"Ġmanipulative":4094,"Ġnonsense":4095,"Ġincredibly":4096,"Ġbenef":4097,"Ġglimpse":4098,"Ġexhilarating":4099,"Ġfurther":4100,"Ġbottom":4101,"Ġdynam":4102,"ĠChinese":4103,"Americ":4104,"Im":4105,"Mr":4106,"Never":4107,"Per":4108,"Se":4109,"eur":4110,"gar":4111,"gain":4112,"iation":4113,"mn":4114,"natured":4115,"oly":4116,"par":4117,"pet":4118,"set":4119,"uke":4120,"val":4121,"vard":4122,"zen":4123,"Ġ\\/":4124,"Ġtort":4125,"Ġtight":4126,"Ġtype":4127,"Ġsil":4128,"Ġsill":4129,"Ġsappy":4130,"rehens":4131,"erk":4132,"Ġmild":4133,"Ġmale":4134,"Ġmention":4135,"Ġwall":4136,"Ġwide":4137,"Ġwife":4138,"Ġcame":4139,"Ġcause":4140,"Ġble":4141,"Ġbunch":4142,"Ġbudget":4143,"orous":4144,"Ġpri":4145,"Ġprison":4146,"aning":4147,"Ġdys":4148,"Ġdaring":4149,"iles":4150,"ilities":4151,"Ġhar":4152,"sters":4153,"lete":4154,"Ġgames":4155,"imag":4156,"Ġstale":4157,"ceived":4158,"chan":4159,"add":4160,"oop":4161,"Ġsun":4162,"iring":4163,"ĠSil":4164,"ĠSweet":4165,"uming":4166,"emb":4167,"Ġende":4168,"Ġexquis":4169,"Ġseat":4170,"Ġseason":4171,"quent":4172,"Ġhair":4173,"Ġunh":4174,"aine":4175,"Ġconsp":4176,"asting":4177,"Ġdeb":4178,"Ġdeg":4179,"Ġdecept":4180,"ĠMi":4181,"Ġscience":4182,"ĠAf":4183,"ĠAng":4184,"ĠCon":4185,"Ġjunk":4186,"ĠHoffman":4187,"anding":4188,"udes":4189,"indulgent":4190,"ĠDick":4191,"osition":4192,"Ġrough":4193,"plo":4194,"ongs":4195,"Ġstoryline":4196,"Ġvol":4197,"ĠPoke":4198,"ĠParker":4199,"endent":4200,"ĠRed":4201,"ĠGreek":4202,"Ġspin":4203,"Ġqual":4204,"Ġnostal":4205,"ĠJason":4206,"Ġflair":4207,"thr":4208,"than":4209,"oyant":4210,"Ġloved":4211,"akespe":4212,"Ġenter":4213,"Ġoffensive":4214,"Ġmechan":4215,"Ġtwice":4216,"Ġrealism":4217,"Ġtalents":4218,"ruction":4219,"Ġdirectors":4220,"Ġcaution":4221,"Ġremain":4222,"Ġroles":4223,"orsese":4224,"igni":4225,"Ġ11":4226,"ĠChris":4227,"Ġromp":4228,"awrence":4229,"Ġviscer":4230,"ĠOne":4231,"Ġemotion":4232,"Ġinco":4233,"Ġterrit":4234,"autiful":4235,"arsh":4236,"Ġexcuse":4237,"Ġgloss":4238,"Ġstrict":4239,"Ġcreating":4240,"ĠStar":4241,"Ġindivid":4242,"Ġappear":4243,"Ġreport":4244,"Ġcollect":4245,"Ġdelivery":4246,"Ġpaint":4247,"Ġeduc":4248,"elessly":4249,"Ġinterm":4250,"Ġtransp":4251,"Ġwonderfully":4252,"Ġsurely":4253,"standing":4254,"Ġprofessional":4255,"ĠLee":4256,"Ġmainstream":4257,"Ġoddly":4258,"Ġdevast":4259,"Ġcontriv":4260,"Ġcomedic":4261,"Ġmarks":4262,"Ġmarket":4263,"Ġuniversal":4264,"produ":4265,"Ġgirls":4266,"Ġmotiv":4267,"Ġmixed":4268,"Ġregard":4269,"Ġdeserve":4270,"ovich":4271,"Ġgrows":4272,"Everything":4273,"Ġstandards":4274,"Ġdesperate":4275,"Ġinspiring":4276,"Ġastonishing":4277,"Ġdigital":4278,"Ġemerges":4279,"Ġfunniest":4280,"Ġlandsc":4281,"Ġsource":4282,"Ġsongs":4283,"Ġdesigned":4284,"ĠSolondz":4285,"Ġdetermined":4286,"Ġmetaphor":4287,"Ġbreatht":4288,"Ġaccomplished":4289,"Ġmoviegoers":4290,"Ġclumsy":4291,"Ġcruel":4292,"Ġintellectual":4293,"Ġdreary":4294,"Ġintrodu":4295,"ĠUnder":4296,"Ġsociety":4297,"Ġadmirable":4298,"Whether":4299,"ĠRyan":4300,"ĠReno":4301,"Ġadolescent":4302,"ĠEnglish":4303,"Ġprotagonist":4304,"Offers":4305,"Ġindustry":4306,"Ġpaper":4307,"Ġholiday":4308,"ittersweet":4309,"Ġvibrant":4310,"Ġnostalg":4311,"Fl":4312,"Here":4313,"Yes":4314,"aith":4315,"back":4316,"book":4317,"cr":4318,"dram":4319,"fer":4320,"gest":4321,"girl":4322,"kn":4323,"rat":4324,"rated":4325,"Ġten":4326,"Ġtun":4327,"Ġsom":4328,"rect":4329,"ision":4330,"Ġfle":4331,"Ġfable":4332,"Ġfish":4333,"inging":4334,"esque":4335,"Ġment":4336,"Ġmakers":4337,"Ġmatters":4338,"Ġwat":4339,"Ġwears":4340,"Ġcell":4341,"Ġbri":4342,"Ġbag":4343,"Ġband":4344,"Ġbittersweet":4345,"orks":4346,"orient":4347,"Ġpal":4348,"Ġpile":4349,"Ġdread":4350,"Ġdouble":4351,"icism":4352,"Ġhook":4353,"star":4354,"lection":4355,"eli":4356,"Ġgrown":4357,"Ġstarring":4358,"Ġrepe":4359,"Ġresemb":4360,"vert":4361,"Ġaside":4362,"Ġcompl":4363,"irm":4364,"amil":4365,"amalan":4366,"Ġlies":4367,"hern":4368,"ĠSon":4369,"Ġcha":4370,"Ġchuck":4371,"uman":4372,"umble":4373,"Ġintens":4374,"Ġintegr":4375,"aker":4376,"Ġexha":4377,"Ġsearch":4378,"Ġnotion":4379,"Ġnotice":4380,"ĠBy":4381,"Ġunw":4382,"Ġunfl":4383,"Ġscar":4384,"ĠCra":4385,"ĠCity":4386,"Ġsober":4387,"ĠHill":4388,"udic":4389,"Ġord":4390,"Ġkne":4391,"Ġvulg":4392,"ĠPaul":4393,"ĠRun":4394,"ĠGra":4395,"Ġspend":4396,"acity":4397,"Ġdirecting":4398,"Ġloving":4399,"Ġworked":4400,"ĠThere":4401,"Ġoverwrought":4402,"ensions":4403,"Ġsloppy":4404,"ĠKore":4405,"osterous":4406,"anski":4407,"Ġthematic":4408,"Ġmayhem":4409,"rupt":4410,"Ġserved":4411,"Ġsmo":4412,"Ġplotting":4413,"Ġ15":4414,"redict":4415,"Ġscenario":4416,"Ġbigger":4417,"Ġshowing":4418,"Ġrelatively":4419,"ggy":4420,"Ġlesson":4421,"Ġgraph":4422,"Ġminute":4423,"Ġfinding":4424,"Ġbackground":4425,"Ġgritty":4426,"Ġaccount":4427,"Ġexplos":4428,"attered":4429,"Ġexperiences":4430,"Ġdrawn":4431,"Ġbuy":4432,"Ġpersonality":4433,"Ġstands":4434,"ampire":4435,"ĠSeagal":4436,"Ġdepiction":4437,"Ġsuperior":4438,"imental":4439,"Ġ198":4440,"covery":4441,"Ġcrack":4442,"Ġmorality":4443,"Ġaddition":4444,"Ġretread":4445,"Ġconfusing":4446,"Ġbecoming":4447,"Ġcarries":4448,"Ġreasonably":4449,"Ġambig":4450,"Ġadmire":4451,"Ġassured":4452,"Ġcomplexity":4453,"Ġviolent":4454,"Ġmaudlin":4455,"Ġlively":4456,"Ġbeginning":4457,"Ġtechnical":4458,"ĠBarry":4459,"medi":4460,"Ġdisappointing":4461,"Ġnicely":4462,"Ġcaper":4463,"Ġgrowing":4464,"Ġinvest":4465,"Ġdreams":4466,"Ġdrive":4467,"Ġtradition":4468,"roomfield":4469,"ĠChristian":4470,"ĠChristmas":4471,"Ġwait":4472,"Ġcurrent":4473,"Ġcountry":4474,"urable":4475,"Ġforgotten":4476,"Ġcondition":4477,"ophical":4478,"Ġingen":4479,"Ġforeign":4480,"Ġempathy":4481,"Ġmistake":4482,"\\*\\*":4483,"Ġgangster":4484,"Ġamazing":4485,"ĠFriday":4486,"Ġphilosophical":4487,"Ġincluding":4488,"Ġrepresents":4489,"Sometimes":4490,"ĠIranian":4491,"Ġaspects":4492,"Ġconclusion":4493,"ĠQueen":4494,"Ġincreasingly":4495,"ĠArnold":4496,"ĠPokemon":4497,"akespeare":4498,"Ġcautionary":4499,"Ġterritory":4500,"Ġindividual":4501,"Ne":4502,"Suff":4503,"TV":4504,"Tr":4505,"Will":4506,"XX":4507,"bb":4508,"ients":4509,"ixt":4510,"length":4511,"men":4512,"mid":4513,"nan":4514,"nam":4515,"ores":4516,"prom":4517,"run":4518,"rate":4519,"top":4520,"tains":4521,"talk":4522,"uity":4523,"ucc":4524,"ucing":4525,"vag":4526,"vate":4527,"ĠThis":4528,"Ġvers":4529,"inated":4530,"athetic":4531,"Ġfal":4532,"Ġfly":4533,"Ġfool":4534,"Ġmal":4535,"Ġmisf":4536,"Ġwood":4537,"Ġwack":4538,"Ġwann":4539,"Ġcate":4540,"Ġcity":4541,"Ġbree":4542,"Ġbuff":4543,"Ġbaff":4544,"Ġpity":4545,"anet":4546,"Ġthous":4547,"Ġthreat":4548,"Ġdish":4549,"Ġdance":4550,"Ġling":4551,"Ġhig":4552,"Ġhus":4553,"stated":4554,"Ġna":4555,"Ġnumb":4556,"Ġgut":4557,"Ġgro":4558,"Ġmoves":4559,"vere":4560,"imm":4561,"Ġstick":4562,"Ġstock":4563,"Ġstuck":4564,"Ġrede":4565,"raid":4566,"chio":4567,"riend":4568,"riage":4569,"aded":4570,"essions":4571,"Ġwhatever":4572,"Ġyouth":4573,"Ġlived":4574,"ager":4575,"agers":4576,"ĠSade":4577,"ĠSouth":4578,"Ġchilling":4579,"emy":4580,"ghter":4581,"urt":4582,"aky":4583,"Ġens":4584,"istent":4585,"ĠBart":4586,"ĠMike":4587,"Ġjeal":4588,"Ġsole":4589,"pper":4590,"ĠHay":4591,"ĠHell":4592,"ĠHaw":4593,"ĠHouse":4594,"andon":4595,"Ġacts":4596,"opkins":4597,"ĠWater":4598,"plays":4599,"Ġkiller":4600,"Ġvs":4601,"ĠPowers":4602,"Ġcloying":4603,"ĠGold":4604,"Ġleaving":4605,"ĠLil":4606,"ĠLittle":4607,"Ġtrouble":4608,"Ġmanage":4609,"acqu":4610,"Ġtook":4611,"ĠJul":4612,"ĠJew":4613,"ĠJones":4614,"Ġweek":4615,"Ġusing":4616,"rying":4617,"weight":4618,"ensional":4619,"ĠKaufman":4620,"Another":4621,"Ġdisaster":4622,"Ġrace":4623,"teen":4624,"angle":4625,"hyamalan":4626,"urning":4627,"Ġhearts":4628,"Ġbrought":4629,"Ġobsc":4630,"Ġthrilling":4631,"Ġbiggest":4632,"Ġhumorous":4633,"Ġlaughter":4634,"rowing":4635,"Ġcheesy":4636,"Ġmyth":4637,"Ġmyself":4638,"Ġolder":4639,"Ġappropri":4640,"Ġknowing":4641,"Ġmessages":4642,"Ġstring":4643,"Ġcreativity":4644,"ologically":4645,"Ġdistingu":4646,"Ġrefere":4647,"Ġcrass":4648,"Ġcrude":4649,"Ġbitter":4650,"Ġelo":4651,"ĠVin":4652,"Ġsequels":4653,"Ġpersona":4654,"Ġelement":4655,"ĠYa":4656,"ĠBlue":4657,"Ġfamilies":4658,"Ġirres":4659,"Ġcapture":4660,"ĠScorsese":4661,"apses":4662,"ointed":4663,"ificial":4664,"Ġpotentially":4665,"Ġsuspenseful":4666,"Ġfantastic":4667,"Ġpatience":4668,"Ġfairy":4669,"ographed":4670,"uddled":4671,"Ġrevealing":4672,"ĠAnne":4673,"Ġdetails":4674,"Ġdetailed":4675,"Ġidentity":4676,"Ġcapable":4677,"Beautiful":4678,"Ġwinds":4679,"Ġlikable":4680,"Ġcollection":4681,"Once":4682,"ĠXXX":4683,"Ġfollowing":4684,"Ġliterary":4685,"ĠHarvard":4686,"Ġescape":4687,"rontal":4688,"Ġspeaking":4689,"board":4690,"bershop":4691,"Ġresonant":4692,"Ġresonance":4693,"belie":4694,"ashington":4695,"Ġfaithful":4696,"ĠMartha":4697,"Ġhomage":4698,"ĠPhil":4699,"ĠKissinger":4700,"ĠBenigni":4701,"Ġunlikely":4702,"Ġimpression":4703,"Ġappreciate":4704,"Ġsympathy":4705,"ersonal":4706,"Ġrhythms":4707,"Ġpreposterous":4708,"Ġbrutal":4709,"Ġcynical":4710,"alyze":4711,"Ġestabl":4712,"Ġlogic":4713,"Ġchoices":4714,"Ġconviction":4715,"Ġrespons":4716,"Ġharmless":4717,"Ġfeaturing":4718,"Ġinflu":4719,"Ġspooky":4720,"Ġconsistently":4721,"funct":4722,"looking":4723,"Ġwasted":4724,"Ġstirring":4725,"ĠMadonna":4726,"Ġvillain":4727,"Ġdespair":4728,"ĠPolanski":4729,"ĠPinocchio":4730,"Ġcaptivating":4731,"Ġdazzling":4732,"Ġpreachy":4733,"Ġvisceral":4734,"aithful":4735,"amiliar":4736,"Ġintensity":4737,"udicrous":4738,"Comp":4739,"Dis":4740,"From":4741,"Full":4742,"Int":4743,"Less":4744,"Oft":4745,"Qu":4746,"Two":4747,"Yet":4748,"bit":4749,"bor":4750,"boy":4751,"bling":4752,"cle":4753,"cut":4754,"dim":4755,"die":4756,"dep":4757,"fest":4758,"falls":4759,"fraid":4760,"gent":4761,"gressive":4762,"hot":4763,"ipe":4764,"ls":4765,"lock":4766,"nic":4767,"numbers":4768,"nox":4769,"pleas":4770,"uv":4771,"uable":4772,"well":4773,"Ġ$":4774,"Ġtempt":4775,"Ġtears":4776,"Ġtrem":4777,"Ġtasty":4778,"hew":4779,"Ġsag":4780,"erving":4781,"isher":4782,"eningly":4783,"Ġfer":4784,"Ġfate":4785,"Ġfood":4786,"Ġfab":4787,"Ġmount":4788,"Ġmira":4789,"Ġwal":4790,"Ġwent":4791,"Ġcas":4792,"Ġcard":4793,"Ġcry":4794,"Ġbite":4795,"Ġbeneath":4796,"orig":4797,"Ġpan":4798,"Ġpair":4799,"lyn":4800,"ils":4801,"edo":4802,"icip":4803,"Ġinherent":4804,"Ġlousy":4805,"style":4806,"Ġnasty":4807,"Ġet":4808,"Ġevid":4809,"Ġearn":4810,"Ġgar":4811,"Ġghost":4812,"ased":4813,"asher":4814,"Ġstat":4815,"Ġstays":4816,"rapped":4817,"Ġupl":4818,"These":4819,"Ġonto":4820,"Ġyes":4821,"Ġasks":4822,"rific":4823,"ads":4824,"ooby":4825,"Ġwhom":4826,"idly":4827,"agl":4828,"ago":4829,"unt":4830,"ĠSn":4831,"ĠSum":4832,"ĠSant":4833,"eman":4834,"emark":4835,"outhern":4836,"Ġsees":4837,"Ġheal":4838,"antial":4839,"ifying":4840,"ĠBer":4841,"Ġunb":4842,"Ġunimag":4843,"ellow":4844,"Ġdealing":4845,"Ġath":4846,"orton":4847,"ĠCol":4848,"Ġjump":4849,"anders":4850,"udge":4851,"ĠImp":4852,"Ġru":4853,"Ġris":4854,"Ġrises":4855,"ĠWoo":4856,"ĠWashington":4857,"ploy":4858,"Ġimmedi":4859,"ĠFor":4860,"ĠFrontal":4861,"abe":4862,"ĠRing":4863,"Ġclarity":4864,"odes":4865,"ĠGer":4866,"ĠGang":4867,"ĠTe":4868,"ĠTwo":4869,"ĠTrek":4870,"ĠLike":4871,"ĠLife":4872,"ĠLawrence":4873,"Ġspent":4874,"Ġtrash":4875,"Ġfluff":4876,"Ġintoxic":4877,"Ġdirects":4878,"Ġade":4879,"neider":4880,"Ġoffbeat":4881,"Ġhumour":4882,"Ġtimely":4883,"ĠEuro":4884,"Ġslasher":4885,"Ġamused":4886,"lessness":4887,"omething":4888,"ocaust":4889,"Ġraunch":4890,"Ġmeandering":4891,"Ġrealized":4892,"Ġrealize":4893,"Ġlifeless":4894,"anges":4895,"versive":4896,"Ġsmile":4897,"Ġsmug":4898,"Ġ12":4899,"ĠCharl":4900,"Ġcontent":4901,"Ġcontrol":4902,"Ġheartwarming":4903,"Ġartists":4904,"Ġartificial":4905,"Ġcheer":4906,"Ġrelig":4907,"Ġdownright":4908,"Ġkey":4909,"Ġgrad":4910,"Ġcharms":4911,"Ġideal":4912,"xtreme":4913,"Ġsatir":4914,"Ġaccur":4915,"comedy":4916,"Ġfinale":4917,"Ġbuilt":4918,"conom":4919,"conceived":4920,"ĠSea":4921,"Ġdepart":4922,"ĠYu":4923,"Without":4924,"Ġhappened":4925,"Ġdemands":4926,"ĠBlair":4927,"Ġunfortunately":4928,"Ġevocative":4929,"reaks":4930,"Ġwitness":4931,"Ġsensual":4932,"Ġexpectations":4933,"Ġpopular":4934,"ĠBeing":4935,"Ġopening":4936,"Ġinsights":4937,"Ġteenage":4938,"Ġslowly":4939,"Ġwinner":4940,"Ġcounter":4941,"Ġbox":4942,"Ġmainly":4943,"Ġhonesty":4944,"Ġequal":4945,"vised":4946,"Ġpathetic":4947,"Ġcenter":4948,"Ġcentury":4949,"Ġbooks":4950,"Ġinev":4951,"Ġsupporting":4952,"Ġbasic":4953,"ĠBarbershop":4954,"Ġunderstanding":4955,"Ġextravag":4956,"Ġliterally":4957,"Ġtwisted":4958,"Ġboys":4959,"Ġissue":4960,"Ġreminds":4961,"Ġactresses":4962,"Ġtheaters":4963,"Ġwaiting":4964,"Ġpoignancy":4965,"Ġhybrid":4966,"ĠManh":4967,"Ġuncomfort":4968,"Ġhorrible":4969,"Ġpathos":4970,"Ġreleased":4971,"Ġingred":4972,"Ġpacked":4973,"Ġnightm":4974,"ĠWilde":4975,"ographic":4976,"ĠGuy":4977,"Ġobservations":4978,"uppert":4979,"Ġcloser":4980,"ĠHoward":4981,"Ġcostumes":4982,"Ġrhythm":4983,"Plays":4984,"Ġlyrical":4985,"Ġrequired":4986,"Ġcandy":4987,"Ġtotal":4988,"Ġuninspired":4989,"Ġhandsome":4990,"ĠIndian":4991,"irthday":4992,"Ġembarrassment":4993,"Ġstereotypes":4994,"Ġbanal":4995,"Ġsymb":4996,"Ġpuzz":4997,"Ġcommentary":4998,"Ġsilliness":4999,"Ġdegree":5000,"ĠAfric":5001,"ĠDickens":5002,"Ġintermitt":5003,"Ġnostalgia":5004,"Ġrepeated":5005,"Ġwacky":5006,"Ġredeem":5007,"dimensional":5008,"ĠSanta":5009,"Br":5010,"Me":5011,"None":5012,"Or":5013,"Rarely":5014,"Sl":5015,"Vis":5016,"Where":5017,"Ya":5018,"aj":5019,"bad":5020,"fty":5021,"feld":5022,"faithful":5023,"gn":5024,"han":5025,"hang":5026,"house":5027,"iable":5028,"jointed":5029,"ka":5030,"lig":5031,"mill":5032,"not":5033,"prise":5034,"rang":5035,"sai":5036,"ugh":5037,"uart":5038,"zog":5039,"Ġtor":5040,"Ġtong":5041,"Ġtend":5042,"Ġtreasure":5043,"Ġafraid":5044,"inist":5045,"inally":5046,"inching":5047,"Ġsem":5048,"ero":5049,"erved":5050,"itz":5051,"ites":5052,"Ġfrank":5053,"Ġfierce":5054,"Ġmass":5055,"Ġmixt":5056,"Ġwear":5057,"Ġcrap":5058,"Ġbou":5059,"Ġbed":5060,"Ġboo":5061,"Ġbound":5062,"Ġbother":5063,"Ġbath":5064,"Ġbase":5065,"Ġbody":5066,"order":5067,"Ġpic":5068,"arad":5069,"anes":5070,"anch":5071,"ald":5072,"alle":5073,"Ġda":5074,"Ġdue":5075,"Ġdub":5076,"Ġdrown":5077,"Ġdancing":5078,"Ġinane":5079,"Ġinoff":5080,"Ġlos":5081,"Ġluck":5082,"Ġlump":5083,"Ġludicrous":5084,"Ġhall":5085,"Ġhost":5086,"Ġhollow":5087,"sts":5088,"stopp":5089,"uto":5090,"utions":5091,"Ġearl":5092,"Ġeconom":5093,"Ġgore":5094,"Ġgender":5095,"imming":5096,"Ġstop":5097,"Ġstiff":5098,"Ġstreet":5099,"Ġreaction":5100,"railty":5101,"roc":5102,"roph":5103,"Ġonscreen":5104,"Ġask":5105,"olation":5106,"see":5107,"ooper":5108,"Ġwhims":5109,"Ġwhimsy":5110,"Ġsuspect":5111,"amily":5112,"ĠSor":5113,"ĠSug":5114,"ĠSatur":5115,"ume":5116,"umm":5117,"umin":5118,"ousing":5119,"outs":5120,"Ġintric":5121,"Ġenvi":5122,"Ġenorm":5123,"Ġexceed":5124,"Ġheld":5125,"Ġheard":5126,"estic":5127,"ĠBel":5128,"ĠBow":5129,"ĠBad":5130,"ĠBurns":5131,"Ġunab":5132,"Ġunless":5133,"aint":5134,"Ġconve":5135,"Ġcontext":5136,"pered":5137,"ĠMag":5138,"ĠMaster":5139,"ĠMiller":5140,"ĠAustin":5141,"Ġneat":5142,"ĠColl":5143,"usive":5144,"ppings":5145,"ĠHot":5146,"ĠHun":5147,"ĠHong":5148,"ĠHopkins":5149,"Ġproper":5150,"indtalk":5151,"inducing":5152,"ĠDV":5153,"ĠDo":5154,"ĠDen":5155,"ĠDon":5156,"Ġpress":5157,"acked":5158,"Ġric":5159,"ĠWill":5160,"ĠWell":5161,"ĠWitch":5162,"place":5163,"Ġvague":5164,"irected":5165,"ĠPro":5166,"ĠFr":5167,"ĠFestival":5168,"Ġoutside":5169,"abama":5170,"Ġclot":5171,"ĠGhost":5172,"ĠTay":5173,"ĠTux":5174,"inee":5175,"ĠLast":5176,"Ġspir":5177,"Ġspare":5178,"Ġspite":5179,"Ġtrite":5180,"Ġupd":5181,"ache":5182,"Ġnoir":5183,"ourne":5184,"Ġflo":5185,"Ġjustify":5186,"thin":5187,"perfect":5188,"izations":5189,"Ġpoem":5190,"ĠEn":5191,"ĠEast":5192,"ĠEvery":5193,"ĠEll":5194,"ĠEvil":5195,"ĠKong":5196,"Ġsubversive":5197,"oster":5198,"Ġblow":5199,"Ġblock":5200,"Ġdisplay":5201,"Ġdisbel":5202,"ocused":5203,"Ġrand":5204,"Why":5205,"Ġremote":5206,"Ġteens":5207,"Ġrob":5208,"Ġpecul":5209,"Ġresist":5210,"inking":5211,"Ġ100":5212,"ĠCho":5213,"Ġartif":5214,"Ġtrappings":5215,"Ġunderm":5216,"Ġobnox":5217,"ivine":5218,"Ġcharacterizations":5219,"ĠOut":5220,"Ġaware":5221,"Ġincon":5222,"Ġincomp":5223,"Ġrelies":5224,"Ġterm":5225,"ledge":5226,"ĠAmericans":5227,"Ġpretension":5228,"Ġlaughing":5229,"azing":5230,"Ġgrasp":5231,"Ġbelongs":5232,"Ġturning":5233,"Ġengage":5234,"apping":5235,"Ġindep":5236,"Ġdistance":5237,"Ġdistract":5238,"comes":5239,"attan":5240,"Ġfinest":5241,"Ġmemories":5242,"meaning":5243,"Ġmelanch":5244,"Ġ197":5245,"Ġtouches":5246,"Ġsaying":5247,"Ġpolished":5248,"rida":5249,"Ġstartling":5250,"Ġterrifying":5251,"ĠShakespeare":5252,"Ġinterp":5253,"Ġevil":5254,"Ġsmarter":5255,"Still":5256,"Ġcommitted":5257,"ĠScott":5258,"Ġadds":5259,"Ġreturn":5260,"Ġinspire":5261,"Ġcliched":5262,"Ġteenagers":5263,"Ġmissed":5264,"Ġambition":5265,"entioned":5266,"Ġmaintain":5267,"Ġhonestly":5268,"Ġparable":5269,"Ġparody":5270,"Ġdiversion":5271,"Ġcutting":5272,"Ġfantas":5273,"Ġhelps":5274,"Ġconstantly":5275,"itchie":5276,"ahl":5277,"going":5278,"Ġlarger":5279,"Ġstylized":5280,"ĠAlabama":5281,"Ġjournal":5282,"ĠAnalyze":5283,"Ġtechnology":5284,"Ġhopeful":5285,"Ġsubstit":5286,"Ġdisappointed":5287,"Ġunderstands":5288,"traction":5289,"arrel":5290,"ĠHarry":5291,"Ġbringing":5292,"Ġgrandeur":5293,"ĠCrimes":5294,"Ġproviding":5295,"Ġimprob":5296,"Ġsubtlety":5297,"Ġtraditional":5298,"Ġfigures":5299,"Ġsophom":5300,"Ġdesperately":5301,"ĠAdam":5302,"ĠGodard":5303,"Ġknock":5304,"Ġrevelatory":5305,"aughter":5306,"Ġphotography":5307,"Ġcontinues":5308,"Ġ51":5309,"Ġcuriosity":5310,"Ġsuggests":5311,"Ġpredecessors":5312,"Manages":5313,"Ġrewarding":5314,"Ġtiming":5315,"ĠBoys":5316,"Ġlocal":5317,"Ġvictims":5318,"Maybe":5319,"Ġticket":5320,"Ġcalcul":5321,"Ġtotally":5322,"ĠAttraction":5323,"Ġelegant":5324,"ĠUnfaithful":5325,"arantino":5326,"Ġdrugs":5327,"Ġguns":5328,"Ġencounter":5329,"ĠBrothers":5330,"ĠTrouble":5331,"Ġrelentless":5332,"ĠSecrets":5333,"Ġtranscends":5334,"Ġinexplic":5335,"Ġinnocence":5336,"Ġpulp":5337,"Ġdistinctive":5338,"Ġunintentional":5339,"Ġanswers":5340,"ĠCountry":5341,"Ġcompetent":5342,"Ġundeniably":5343,"Ġsketch":5344,"Ġlanguage":5345,"Ġshadow":5346,"Ġachievement":5347,"Ġplodding":5348,"Ġsignificant":5349,"culture":5350,"Ġmatinee":5351,"Ġheartbreaking":5352,"craft":5353,"Ġinhab":5354,"Ġconsciousness":5355,"Ġproceedings":5356,"American":5357,"Ġbleak":5358,"embered":5359,"Ġendeavor":5360,"Ġincoherent":5361,"Ġstrictly":5362,"Ġdevastating":5363,"Ġcontrivances":5364,"drama":5365,"Ġsomber":5366,"oriented":5367,"Ġordinary":5368,"Ġvulgar":5369,"redictable":5370,"Ġfalse":5371,"Ġwannabe":5372,"Ġjealousy":5373,"Often":5374,"original":5375,"Ġgradually":5376,"ĠManhattan":5377,"Ġingredients":5378,"Ġmixture":5379,"Ġinoffensive":5380,"Ġearlier":5381,"Ġwhimsical":5382,"ĠSugar":5383,"ĠSaturday":5384,"Ġunabashed":5385,"indtalkers":5386,"ĠTuxedo":5387,"Ġdisbelief":5388,"Com":5389,"Cont":5390,"Dow":5391,"GI":5392,"Makes":5393,"Sch":5394,"Very":5395,"aved":5396,"brow":5397,"bled":5398,"cil":5399,"cher":5400,"dom":5401,"eed":5402,"free":5403,"filled":5404,"gen":5405,"gory":5406,"gency":5407,"ham":5408,"iant":5409,"iac":5410,"iently":5411,"kill":5412,"list":5413,"och":5414,"oons":5415,"ooney":5416,"pan":5417,"paced":5418,"ratch":5419,"sily":5420,"tr":5421,"tal":5422,"town":5423,"together":5424,"uper":5425,"ube":5426,"vity":5427,"ini":5428,"iner":5429,"inable":5430,"hered":5431,"herence":5432,"Ġsan":5433,"Ġsly":5434,"Ġsell":5435,"Ġsend":5436,"rep":5437,"Ġod":5438,"atin":5439,"Ġfoll":5440,"Ġfreak":5441,"Ġfrag":5442,"Ġfizz":5443,"Ġmas":5444,"Ġcable":5445,"Ġcatch":5446,"Ġciv":5447,"Ġcorn":5448,"Ġbul":5449,"Ġborrow":5450,"Ġbomb":5451,"Ġbuddy":5452,"Ġborder":5453,"oul":5454,"Ġpse":5455,"Ġpark":5456,"Ġporn":5457,"Ġpitch":5458,"arian":5459,"ano":5460,"anz":5461,"Ġthick":5462,"Ġdud":5463,"Ġdie":5464,"Ġdrop":5465,"icy":5466,"iccol":5467,"icago":5468,"Ġinform":5469,"Ġlad":5470,"Ġlimp":5471,"Ġho":5472,"Ġhang":5473,"stop":5474,"stract":5475,"Ġnom":5476,"Ġnational":5477,"Ġnerv":5478,"lets":5479,"Ġearth":5480,"Ġgag":5481,"Ġgory":5482,"Ġgimm":5483,"asive":5484,"ashes":5485,"etter":5486,"ette":5487,"imer":5488,"Ġstate":5489,"Ġstaged":5490,"Ġstops":5491,"Ġreh":5492,"Ġreview":5493,"Ġrevolution":5494,"raw":5495,"rip":5496,"ridden":5497,"ownt":5498,"Ġforces":5499,"sec":5500,"sey":5501,"iding":5502,"Ġsuit":5503,"irms":5504,"agine":5505,"unky":5506,"ĠSar":5507,"ĠSpe":5508,"ĠSund":5509,"ĠSara":5510,"ĠShyamalan":5511,"Ġchron":5512,"Ġchilly":5513,"Ġchannel":5514,"emme":5515,"urance":5516,"Ġexotic":5517,"Ġhear":5518,"ift":5519,"ifty":5520,"ĠBest":5521,"ĠBears":5522,"Ġabstract":5523,"Ġunne":5524,"Ġunner":5525,"Ġconvol":5526,"Ġconvey":5527,"pecc":5528,"ĠMus":5529,"Ġscrew":5530,"ĠAge":5531,"orthy":5532,"Ġjol":5533,"Ġsoci":5534,"Ġsoggy":5535,"ĠHart":5536,"ĠHigh":5537,"ĠHave":5538,"Ġactual":5539,"udo":5540,"ĠIce":5541,"ĠDream":5542,"ĠDah":5543,"Ġprecise":5544,"Ġprefer":5545,"opic":5546,"allace":5547,"Ġpercept":5548,"Ġperverse":5549,"Ġrise":5550,"Ġrush":5551,"ĠWith":5552,"ĠWoody":5553,"Ġvampire":5554,"Ġimage":5555,"ĠPow":5556,"ĠProp":5557,"ĠFisher":5558,"abs":5559,"abrol":5560,"ĠRep":5561,"Ġclaust":5562,"apur":5563,"ĠGos":5564,"ford":5565,"forward":5566,"manship":5567,"eping":5568,"ĠJon":5569,"ĠJim":5570,"ĠJean":5571,"Ġflu":5572,"Ġflow":5573,"Ġflashy":5574,"Ġanywhere":5575,"Ġcomparis":5576,"Ġloves":5577,"Ġlovers":5578,"Ġoverlong":5579,"lless":5580,"ĠNight":5581,"ĠNever":5582,"Ġoffice":5583,"ishment":5584,"ĠEd":5585,"Ġslip":5586,"ĠKids":5587,"ensely":5588,"Ġdisg":5589,"Ġdismiss":5590,"Ġendless":5591,"Who":5592,"Ġtales":5593,"Ġgenres":5594,"Ġseemed":5595,"Ġseemingly":5596,"gettable":5597,"Ġremembered":5598,"Ġroots":5599,"renching":5600,"ateral":5601,"Ġresol":5602,"Ġunderstated":5603,"ĠOf":5604,"ĠOli":5605,"Ġscenery":5606,"ibal":5607,"ibilities":5608,"athers":5609,"Ġincons":5610,"gger":5611,"ggio":5612,"Ġattitude":5613,"spirited":5614,"Ġknowledge":5615,"Ġbelly":5616,"Ġkeeping":5617,"Ġcarefully":5618,"Ġeffectively":5619,"ĠStuart":5620,"Ġindic":5621,"Ġkiddie":5622,"Ġformat":5623,"Ġshel":5624,"Ġgenerate":5625,"aneke":5626,"cessary":5627,"ietnam":5628,"Ġbiting":5629,"Ġelabor":5630,"ĠVietnam":5631,"Ġcultures":5632,"Ġcover":5633,"Ġinstall":5634,"Ġinstinct":5635,"Ġcreation":5636,"theless":5637,"Ġdepict":5638,"Ġsuperb":5639,"Ġchildhood":5640,"quee":5641,"Ġstarted":5642,"Ġterribly":5643,"Ġexpert":5644,"Ġpredictably":5645,"ĠShowtime":5646,"Ġunfolds":5647,"Ġunfocused":5648,"Ġfeatures":5649,"ropol":5650,"Starts":5651,"Ġunsatisf":5652,"Ġleaden":5653,"Ġsadness":5654,"Ġsensational":5655,"undament":5656,"Ġsatisfy":5657,"Ġmisses":5658,"Ġadmit":5659,"Ġpotent":5660,"Ġdramatically":5661,"Ġcredible":5662,"Ġcredibility":5663,"umpkin":5664,"Ġmasterful":5665,"Ġheroine":5666,"Ġdifference":5667,"Ġconstant":5668,"Ġobsession":5669,"Ġreveal":5670,"Ġbrilliantly":5671,"Ġstunt":5672,"Ġwriters":5673,"Ġnonet":5674,"Ġrestra":5675,"Ġfanc":5676,"Ġstrike":5677,"alloween":5678,"ĠSchneider":5679,"Ġbroken":5680,"Ġshocking":5681,"Ġexplores":5682,"Ġexploitation":5683,"Ġwindow":5684,"Ġvirtues":5685,"Only":5686,"Ġdrags":5687,"Ġcorrect":5688,"Ġdamned":5689,"Ġimprove":5690,"Ġinnov":5691,"Ġpossess":5692,"Ġcourt":5693,"Ġcontempl":5694,"Ġtheatrical":5695,"Ġexistence":5696,"Ġexistential":5697,"Ġinspirational":5698,"Ġdestination":5699,"Ġhyper":5700,"Ġforgive":5701,"Ġ40":5702,"Ġshooting":5703,"Ġuncomprom":5704,"Ġhorrifying":5705,"Ġcelebrates":5706,"Ġredund":5707,"ĠGirls":5708,"Ġvividly":5709,"Ġdelivering":5710,"Ġmadness":5711,"Ġcharismatic":5712,"Ġvarious":5713,"Ġnecessarily":5714,"Ġdraws":5715,"Ġ50":5716,"ĠWilson":5717,"Ġfighting":5718,"ĠDamage":5719,"Ġlegend":5720,"Ġgifted":5721,"Ġlimited":5722,"Ġvictim":5723,"ĠFrida":5724,"Ġescapism":5725,"Anyone":5726,"Ġsacchar":5727,"Ġwondering":5728,"Ġnuanced":5729,"Ġfrightening":5730,"Ġcrisp":5731,"Ġrelentlessly":5732,"Ġportrayal":5733,"Ġdomestic":5734,"Ġethnic":5735,"Ġimplaus":5736,"Ġapparently":5737,"Ġunintentionally":5738,"ĠHerzog":5739,"ĠHolocaust":5740,"ĠCarvey":5741,"Ġpedest":5742,"ĠBallistic":5743,"ĠHours":5744,"ĠIrish":5745,"ĠPianist":5746,"ĠNicholas":5747,"Ġcontradict":5748,"Ġrendered":5749,"Ġmagnific":5750,"Ġnerve":5751,"ĠPalma":5752,"Ġsplendid":5753,"Ġdysfunct":5754,"ĠAngel":5755,"Ġenterprise":5756,"Ġlandscape":5757,"Ġbreathtaking":5758,"Ġfleet":5759,"Ġbrief":5760,"Ġchaotic":5761,"Ġunflinching":5762,"Ġsmooth":5763,"Ġgraphic":5764,"Ġingenious":5765,"Ġbreezy":5766,"Ġhusband":5767,"ĠVincent":5768,"Beautifully":5769,"Ġsaga":5770,"Ġcasual":5771,"Ġuplifting":5772,"Ġunimaginative":5773,"Ġathlet":5774,"Ġintoxicating":5775,"Ġadequ":5776,"ĠEurope":5777,"Ġnightmare":5778,"Visually":5779,"Ġtongue":5780,"Ġenviron":5781,"Ġrandom":5782,"Ġobnoxious":5783,"Ġindependent":5784,"Ġinhabit":5785,"Dowell":5786,"Ġpseudo":5787,"Ġunnecessary":5788,"ĠDahmer":5789,"Ġclaustroph":5790,"Ġuncompromising":5791,"Ġsaccharine":5792,"Ġdysfunctional":5793,"19":5794,"Ar":5795,"Bar":5796,"His":5797,"Hard":5798,"Hollywood":5799,"Po":5800,"See":5801,"Worth":5802,"avi":5803,"agh":5804,"aeff":5805,"bid":5806,"bur":5807,"bell":5808,"born":5809,"balls":5810,"cert":5811,"cock":5812,"do":5813,"drop":5814,"ex":5815,"eve":5816,"filling":5817,"goy":5818,"gment":5819,"hmer":5820,"hony":5821,"iers":5822,"iated":5823,"lines":5824,"luster":5825,"mal":5826,"matic":5827,"malt":5828,"no":5829,"nia":5830,"natural":5831,"oe":5832,"oved":5833,"ught":5834,"uber":5835,"writ":5836,"yr":5837,"Ġtem":5838,"Ġtap":5839,"Ġai":5840,"Ġahead":5841,"inis":5842,"heless":5843,"Ġsor":5844,"Ġsand":5845,"Ġsne":5846,"Ġsays":5847,"Ġsink":5848,"Ġsnow":5849,"Ġsix":5850,"reg":5851,"reck":5852,"isse":5853,"isive":5854,"athing":5855,"Ġfake":5856,"Ġfights":5857,"Ġmur":5858,"Ġmart":5859,"Ġmature":5860,"Ġmouth":5861,"Ġwick":5862,"Ġwound":5863,"Ġwins":5864,"Ġbes":5865,"Ġbab":5866,"onel":5867,"Ġpays":5868,"Ġphen":5869,"Ġpaid":5870,"anad":5871,"Ġdil":5872,"Ġdut":5873,"Ġdying":5874,"Ġdroll":5875,"iled":5876,"ilted":5877,"iced":5878,"ichel":5879,"Ġtoler":5880,"Ġinfect":5881,"Ġlun":5882,"Ġlower":5883,"Ġhint":5884,"Ġhoot":5885,"omer":5886,"omnia":5887,"stem":5888,"struct":5889,"Ġnam":5890,"Ġnation":5891,"Ġnumbers":5892,"levant":5893,"entimental":5894,"asons":5895,"etime":5896,"imon":5897,"immer":5898,"Ġstatic":5899,"Ġreel":5900,"Ġreject":5901,"rable":5902,"raise":5903,"raction":5904,"ules":5905,"rovers":5906,"Ġfilling":5907,"Ġanch":5908,"sea":5909,"idel":5910,"idence":5911,"Ġsudden":5912,"Ġsugar":5913,"Ġlie":5914,"Ġalleg":5915,"ĠSl":5916,"ĠShe":5917,"ĠSide":5918,"ĠSnow":5919,"ĠSouthern":5920,"Ġchoose":5921,"Ġchills":5922,"umes":5923,"uments":5924,"ummy":5925,"emember":5926,"urban":5927,"Ġexuber":5928,"Ġsepar":5929,"anter":5930,"ester":5931,"ĠBut":5932,"ĠBourne":5933,"Ġabuse":5934,"arter":5935,"Ġunbelie":5936,"ained":5937,"Ġconj":5938,"Ġconco":5939,"Ġconsequ":5940,"ĠMet":5941,"ĠMam":5942,"ĠMac":5943,"ĠMatt":5944,"Ġscale":5945,"Ġscattered":5946,"Ġscores":5947,"ĠChe":5948,"ĠCond":5949,"ĠCaine":5950,"ĠCGI":5951,"Ġjo":5952,"igma":5953,"usions":5954,"usted":5955,"ption":5956,"ĠHann":5957,"ĠHalloween":5958,"ffle":5959,"Ġthank":5960,"inds":5961,"ĠDong":5962,"ĠDavis":5963,"Ġprev":5964,"Ġperpet":5965,"Ġround":5966,"placed":5967,"Ġorder":5968,"Ġkick":5969,"Ġvent":5970,"Ġvast":5971,"Ġvap":5972,"Ġvint":5973,"Ġvital":5974,"Ġimpecc":5975,"ĠPot":5976,"ĠPay":5977,"ogy":5978,"ĠFears":5979,"ĠFreaks":5980,"abeth":5981,"Ġclin":5982,"Ġclunk":5983,"odd":5984,"odri":5985,"ĠGener":5986,"ĠTreasure":5987,"ĠLi":5988,"ĠLong":5989,"ĠLane":5990,"formed":5991,"Ġspring":5992,"Ġspont":5993,"Ġtrashy":5994,"Ġmanaged":5995,"ephen":5996,"Ġnoble":5997,"ĠJan":5998,"ĠJess":5999,"ĠJacqu":6000,"Ġsomebody":6001,"Ġanyway":6002,"oyal":6003,"Ġadv":6004,"Ġarg":6005,"Ġarrest":6006,"Ġcomprom":6007,"never":6008,"Ġentry":6009,"ĠThey":6010,"izabeth":6011,"intentioned":6012,"ĠEnd":6013,"ĠEdd":6014,"Ġemploy":6015,"ĠKid":6016,"Ġamuse":6017,"Ġsubpl":6018,"ostor":6019,"Ġdiss":6020,"Ġdisguise":6021,"Ġdisjointed":6022,"ocity":6023,"Ġfaces":6024,"Ġlooked":6025,"Ġmeat":6026,"Ġmeant":6027,"Ġmeets":6028,"Ġdramat":6029,"resses":6030,"ression":6031,"Ġnevertheless":6032,"Ġcares":6033,"Ġentertained":6034,"Ġserial":6035,"Ġplotted":6036,"ĠChar":6037,"ĠChabrol":6038,"Ġaggressive":6039,"Ġcontrovers":6040,"Ġherself":6041,"Ġarts":6042,"Ġfamous":6043,"aware":6044,"Ġthrillers":6045,"athan":6046,"obic":6047,"Ġnews":6048,"Ġlaug":6049,"Ġclean":6050,"avish":6051,"Ġlackluster":6052,"Ġbackdrop":6053,"Bute":6054,"arned":6055,"Ġglor":6056,"Ġstrang":6057,"Ġguarant":6058,"Ġextended":6059,"Ġrefuses":6060,"Ġcolors":6061,"aneously":6062,"Ġproduce":6063,"Ġexperiment":6064,"Ġbuoyant":6065,"Ġyounger":6066,"Ġcoherent":6067,"Ġdeliber":6068,"cont":6069,"ĠSex":6070,"attering":6071,"ĠSpider":6072,"Ġminds":6073,"Ġhandful":6074,"Ġdidactic":6075,"Ġwrote":6076,"Ġdarkly":6077,"vincing":6078,"Ġiron":6079,"Ġirony":6080,"Ġtransl":6081,"Ġstrain":6082,"Ġunsentimental":6083,"idden":6084,"Ġengaged":6085,"Almost":6086,"Ġbrand":6087,"Ġretro":6088,"urpris":6089,"Ġmonot":6090,"Ġmonsters":6091,"Ġwarning":6092,"ĠClooney":6093,"ĠLeon":6094,"Ġquirks":6095,"plicity":6096,"amsay":6097,"Ġsubtly":6098,"Ġdelightfully":6099,"Ġcuts":6100,"Ġsoulless":6101,"Ġodds":6102,"Ġillustr":6103,"itchcock":6104,"Ġsimilar":6105,"Ġsimplicity":6106,"Ġmysteries":6107,"Ġstylistic":6108,"Ġfriend":6109,"Ġready":6110,"ĠAnimal":6111,"Ġmenace":6112,"Ġsuffering":6113,"Ġsnaps":6114,"letis":6115,"Ġrichly":6116,"Ġsubstantial":6117,"Ġ80":6118,"Ġtopic":6119,"ienced":6120,"Ġletting":6121,"Ġexecuted":6122,"Ġdeadpan":6123,"Ġminimal":6124,"helsea":6125,"ĠWhite":6126,"Ġdelicious":6127,"Ġmedium":6128,"Ġspeaks":6129,"Ġjoyous":6130,"blown":6131,"Ġbusy":6132,"ĠAmy":6133,"Ġdesperation":6134,"Ġpresented":6135,"Ġinspiration":6136,"Ġverve":6137,"Ġemerge":6138,"Ġhoping":6139,"Ġamounts":6140,"Ġcopy":6141,"Ġenthr":6142,"Ġbuilding":6143,"Ġcritics":6144,"Ġthrows":6145,"video":6146,"Ġlistless":6147,"Ġcomplications":6148,"affirming":6149,"Ġdenying":6150,"isterhood":6151,"ĠFatal":6152,"Ġavoids":6153,"ĠSolaris":6154,"ĠWilder":6155,"Ġdetermination":6156,"Ġchallenges":6157,"Ġconcern":6158,"ĠDamned":6159,"Ġgift":6160,"Ġclumsily":6161,"Ġlocations":6162,"Ġcostume":6163,"Ġbrutally":6164,"ĠElizabeth":6165,"Ġphilosop":6166,"Ġcrisis":6167,"Ġrental":6168,"sequential":6169,"ĠBrother":6170,"Ġsettles":6171,"ĠRohmer":6172,"ĠNext":6173,"Ġdispos":6174,"Ġsurrounding":6175,"Ġguessing":6176,"Ġenthusiasm":6177,"Ġmachine":6178,"Ġdanger":6179,"Ġdangerous":6180,"Ġundeniable":6181,"Ġarrives":6182,"Ġconsidering":6183,"Overall":6184,"Ġoptim":6185,"Ġprogram":6186,"ĠRussian":6187,"ĠGlass":6188,"Ġscreenwriting":6189,"Ġscreenwriters":6190,"Ġphysical":6191,"Ġaspir":6192,"Ġmeasure":6193,"Ġicon":6194,"ĠNickleby":6195,"Ġexploitative":6196,"Ġbenefit":6197,"Imagine":6198,"Perhaps":6199,"rehensible":6200,"Ġharrowing":6201,"Ġglossy":6202,"Ġresembles":6203,"Ġintegrity":6204,"Ġsobering":6205,"Ġknew":6206,"Suffers":6207,"Ġcategory":6208,"Ġbaffling":6209,"ĠHaynes":6210,"Ġreferences":6211,"Ġirresist":6212,"ĠPhilip":6213,"Ġtremend":6214,"aglom":6215,"Ġunbear":6216,"ĠGerman":6217,"ĠTeacher":6218,"Ġsatirical":6219,"Ġinevitable":6220,"ĠAfrican":6221,"Ġsemi":6222,"Ġintricate":6223,"Ġricher":6224,"Ġpeculiar":6225,"Ġsanct":6226,"Ġfollows":6227,"Ġgimmick":6228,"owntown":6229,"Ġunnerving":6230,"Ġcomparison":6231,"Ġelaborate":6232,"Ġnonetheless":6233,"Ġfanciful":6234,"ĠEuropean":6235,"Ġenvironment":6236,"aeffer":6237,"goyan":6238,"Ġphenomen":6239,"Ġnamed":6240,"ĠConduct":6241,"Ġvintage":6242,"Ġimpeccable":6243,"Ġspontane":6244,"Bad":6245,"Big":6246,"Boy":6247,"Could":6248,"Cons":6249,"Far":6250,"Fans":6251,"Funny":6252,"Gr":6253,"God":6254,"Look":6255,"Now":6256,"Nair":6257,"Occ":6258,"Would":6259,"ait":6260,"aim":6261,"aver":6262,"aud":6263,"bum":6264,"backs":6265,"ca":6266,"cad":6267,"cers":6268,"count":6269,"dog":6270,"eks":6271,"fan":6272,"fire":6273,"fact":6274,"faced":6275,"film":6276,"gid":6277,"hum":6278,"ik":6279,"iver":6280,"iance":6281,"joke":6282,"kind":6283,"loud":6284,"mar":6285,"met":6286,"mpt":6287,"more":6288,"member":6289,"notic":6290,"oat":6291,"power":6292,"rity":6293,"rors":6294,"somnia":6295,"too":6296,"uy":6297,"ule":6298,"uel":6299,"uation":6300,"uces":6301,"urid":6302,"wone":6303,"world":6304,"yl":6305,"zzy":6306,"zene":6307,"Ġ6":6308,"Ġven":6309,"Ġice":6310,"Ġtre":6311,"Ġtast":6312,"Ġties":6313,"Ġtaut":6314,"Ġtread":6315,"Ġtask":6316,"Ġawe":6317,"Ġaims":6318,"inous":6319,"initely":6320,"Ġson":6321,"Ġske":6322,"Ġode":6323,"erie":6324,"erball":6325,"errida":6326,"itality":6327,"iso":6328,"atile":6329,"Ġfo":6330,"Ġfict":6331,"Ġfaster":6332,"ingers":6333,"Ġmile":6334,"Ġwis":6335,"Ġwet":6336,"Ġwrapped":6337,"Ġcro":6338,"Ġcere":6339,"Ġcaught":6340,"Ġbre":6341,"Ġbot":6342,"Ġbow":6343,"Ġbone":6344,"Ġbang":6345,"Ġbump":6346,"oned":6347,"oug":6348,"Ġpa":6349,"Ġpage":6350,"arching":6351,"alter":6352,"Ġthrown":6353,"Ġdare":6354,"Ġdign":6355,"ilet":6356,"edies":6357,"ica":6358,"icing":6359,"Ġinsec":6360,"Ġlater":6361,"Ġlaw":6362,"Ġlonel":6363,"Ġhat":6364,"Ġharsh":6365,"stac":6366,"Ġnarc":6367,"Ġeager":6368,"eling":6369,"elson":6370,"Ġgre":6371,"Ġgle":6372,"Ġgigg":6373,"Ġmold":6374,"Ġmoved":6375,"Ġmoody":6376,"enter":6377,"entury":6378,"oto":6379,"otion":6380,"asionally":6381,"imul":6382,"imony":6383,"vial":6384,"Ġstro":6385,"Ġstag":6386,"Ġstore":6387,"Ġstead":6388,"Ġstilted":6389,"Ġreasons":6390,"rah":6391,"Ġult":6392,"Ġanarch":6393,"Ġyawn":6394,"Ġassemb":6395,"rium":6396,"riff":6397,"Ġforth":6398,"oochy":6399,"Ġwholes":6400,"idi":6401,"Ġsuited":6402,"irot":6403,"ami":6404,"agand":6405,"ĠSo":6406,"ĠSuch":6407,"ĠSafe":6408,"ĠSisterhood":6409,"Ġchore":6410,"Ġchiller":6411,"Ġchoppy":6412,"Ġchanges":6413,"emic":6414,"urous":6415,"aki":6416,"Ġenh":6417,"Ġexagger":6418,"Ġsecret":6419,"Ġsevere":6420,"Ġheavi":6421,"quil":6422,"ĠBard":6423,"ĠBrid":6424,"ĠBroomfield":6425,"Ġdope":6426,"Ġdoses":6427,"Ġshines":6428,"Ġunful":6429,"Ġunoriginal":6430,"ella":6431,"ellas":6432,"Ġconven":6433,"Ġconvers":6434,"Ġconcert":6435,"ĠMel":6436,"ĠMiche":6437,"ĠMichel":6438,"Ġscr":6439,"Ġscope":6440,"ĠAss":6441,"ĠAgain":6442,"ĠAcad":6443,"ortance":6444,"ĠCa":6445,"ĠCat":6446,"ĠCom":6447,"ĠCall":6448,"ĠCry":6449,"ĠCann":6450,"ĠCletis":6451,"ĠChelsea":6452,"acter":6453,"ushing":6454,"Ġcharmer":6455,"ĠHall":6456,"ĠHuppert":6457,"ĠHugh":6458,"ĠHitchcock":6459,"ĠId":6460,"ĠDies":6461,"ĠDerrida":6462,"osen":6463,"arded":6464,"Ġrote":6465,"Ġrousing":6466,"ĠWars":6467,"ĠWomen":6468,"ĠWindtalkers":6469,"ective":6470,"iew":6471,"Ġorgan":6472,"Ġkill":6473,"Ġvitality":6474,"Ġimitation":6475,"ĠPa":6476,"ĠPer":6477,"ĠFe":6478,"ĠFrom":6479,"ĠFour":6480,"ĠFred":6481,"ĠFilm":6482,"ĠFrailty":6483,"Ġoutstanding":6484,"ĠRes":6485,"ĠRitchie":6486,"odic":6487,"ĠTun":6488,"ĠTout":6489,"ĠTuck":6490,"ĠTarantino":6491,"ĠTodd":6492,"icken":6493,"ĠLand":6494,"ĠLuc":6495,"Ġtricks":6496,"acino":6497,"epid":6498,"ĠJe":6499,"ĠJane":6500,"Ġfles":6501,"oyce":6502,"Ġadvant":6503,"assin":6504,"Ġweep":6505,"ĠNa":6506,"ĠNumbers":6507,"ultaneously":6508,"ounding":6509,"Ġbetray":6510,"ipes":6511,"ĠEm":6512,"ĠEv":6513,"ĠEy":6514,"ĠEst":6515,"ĠEarnest":6516,"Ġslack":6517,"Ġslog":6518,"ĠKos":6519,"ĠKenn":6520,"Ġamid":6521,"Ġblast":6522,"Ġblank":6523,"Ġdiscer":6524,"Ġdiscover":6525,"Ġracial":6526,"Ġripe":6527,"Ġendlessly":6528,"atically":6529,"ruci":6530,"tech":6531,"oldiers":6532,"Ġinsane":6533,"Ġteacher":6534,"risk":6535,"Ġseeking":6536,"Ġserve":6537,"Ġpeek":6538,"Ġresolutely":6539,"ĠChina":6540,"eresting":6541,"Ġcontains":6542,"Ġpartly":6543,"Ġparticip":6544,"Ġyearning":6545,"Ġlonging":6546,"Ġarticul":6547,"inema":6548,"othman":6549,"Ġvisit":6550,"imps":6551,"obbled":6552,"ighbor":6553,"ĠOn":6554,"umbo":6555,"umbles":6556,"Ġhumorless":6557,"Ġchew":6558,"Ġcheese":6559,"ission":6560,"Ġtried":6561,"Ġlesser":6562,"Ġdocumentaries":6563,"Ġapply":6564,"Ġappet":6565,"Ġgrab":6566,"Ġlaughable":6567,"armen":6568,"Ġgrat":6569,"Ġplayers":6570,"Ġmessy":6571,"Ġglass":6572,"Ġpleasing":6573,"Ġcareful":6574,"Ġdecided":6575,"Ġaccent":6576,"Ġindulgent":6577,"Ġexplore":6578,"comp":6579,"Ġskip":6580,"Ġcrim":6581,"Ġreput":6582,"Ġ21":6583,"Ġeasier":6584,"Ġdrab":6585,"ĠVan":6586,"Ġinstantly":6587,"Ġsuperbly":6588,"Ġsupernatural":6589,"illiam":6590,"Ġpolice":6591,"Ġelev":6592,"Ġhalfway":6593,"Ġportrays":6594,"Ġhappening":6595,"Ġdemanding":6596,"Ġdemographic":6597,"Ġlightweight":6598,"Ġcleverness":6599,"Ġironic":6600,"Ġintern":6601,"ĠDeath":6602,"ĠJoe":6603,"Ġtransform":6604,"Ġsweetness":6605,"Ġsmartly":6606,"Ġleading":6607,"Ġswallow":6608,"ĠScooby":6609,"ĠScratch":6610,"arently":6611,"Ġmarginal":6612,"Ġmarriage":6613,"Ġconfront":6614,"Ġpsychology":6615,"Ġheads":6616,"Ġtragedies":6617,"Ġcarry":6618,"Ġfactor":6619,"ĠLegged":6620,"Ġsystem":6621,"Ġmaintains":6622,"Ġparade":6623,"Ġsubtit":6624,"hetto":6625,"Ġmasterfully":6626,"Ġtreats":6627,"Ġmisc":6628,"Ġmiserable":6629,"Ġpatient":6630,"ettes":6631,"Ġproblematic":6632,"Ġbasically":6633,"ompany":6634,"Ġmysterious":6635,"ĠDisguise":6636,"Ġdaytime":6637,"Ġsigns":6638,"Ġtechnique":6639,"Ġfancy":6640,"Ġregret":6641,"Ġurgency":6642,"Ġexceptional":6643,"Ġexceptionally":6644,"Unlike":6645,"Ġstraightforward":6646,"ĠZone":6647,"ĠZhang":6648,"ĠSchwar":6649,"ĠSchmid":6650,"Ġcartoons":6651,"ĠArgent":6652,"oubted":6653,"ĠJackie":6654,"Ġdeadly":6655,"Ġmomentum":6656,"Ġsouls":6657,"ĠIsra":6658,"ĠIsland":6659,"raging":6660,"ĠHarris":6661,"Ġcorny":6662,"Ġcorner":6663,"Ġbehold":6664,"Ġdelicately":6665,"Ġfourth":6666,"Ġdepths":6667,"ĠBritney":6668,"Ġweirdly":6669,"Ġtrademark":6670,"Ġunpredictable":6671,"Ġreminder":6672,"Ġintimacy":6673,"Ġteleg":6674,"Ġpresentation":6675,"Ġverb":6676,"Ġfocused":6677,"Ġdestined":6678,"ĠAdams":6679,"Ġhoped":6680,"Ġrespectable":6681,"Ġ300":6682,"Ġessence":6683,"Ġtestament":6684,"Ġcondesc":6685,"Ġsteam":6686,"Ġhaunted":6687,"Ġcelebration":6688,"Ġerotic":6689,"Ġcritical":6690,"Ġknown":6691,"grade":6692,"ville":6693,"Ġlisten":6694,"Ġphotographed":6695,"Ġmerit":6696,"Ġvoices":6697,"ĠPlanet":6698,"Ġemptiness":6699,"Ġcurious":6700,"ĠGuys":6701,"Ġobservation":6702,"Ġrewards":6703,"Ġmoviegoing":6704,"Ġsympathetic":6705,"Ġtimeless":6706,"Ġredempt":6707,"Ġcomfortable":6708,"ĠBros":6709,"Ġpropagand":6710,"Proof":6711,"Ġuncertain":6712,"Ġcynicism":6713,"ĠAnthony":6714,"Ġdemonstrates":6715,"Ġtranscend":6716,"Ġmarvelous":6717,"Ġbiopic":6718,"ĠSwim":6719,"Ġconvict":6720,"Ġschmalt":6721,"Ġsavvy":6722,"ulsive":6723,"ĠSmoochy":6724,"Ġunrel":6725,"Ġunconvincing":6726,"ĠWester":6727,"Ġmultip":6728,"Ġponderous":6729,"Ġscreaming":6730,"ĠPiano":6731,"ĠNicholson":6732,"Ġdescribe":6733,"ijinsky":6734,"Ġpractically":6735,"Ġliberal":6736,"Ġshapeless":6737,"Ġrecognize":6738,"Ġauthor":6739,"Ġseduct":6740,"Ġpushes":6741,"ĠBruce":6742,"ĠAsian":6743,"Ġshowcase":6744,"Ġshowcases":6745,"Ġattractive":6746,"Ġpositively":6747,"Ġtortured":6748,"ĠSilence":6749,"Ġexquisite":6750,"ploitation":6751,"known":6752,"Ġdreadful":6753,"ĠCrazy":6754,"ĠKorean":6755,"Ġwooden":6756,"Ġbuffs":6757,"Ġdishon":6758,"ĠBartleby":6759,"Ġsolemn":6760,"Ġappropriate":6761,"Ġraunchy":6762,"ĠCharlie":6763,"Ġreligious":6764,"Ġintermittently":6765,"stoppers":6766,"ĠDVD":6767,"Ġspirits":6768,"ĠEastwood":6769,"Ġartifice":6770,"Ġinconsequential":6771,"Ġmelancholy":6772,"Ġinterpret":6773,"Ġimprobable":6774,"Ġsophomoric":6775,"crafted":6776,"Ġunabashedly":6777,"ĠSpears":6778,"Ġconvoluted":6779,"ĠReport":6780,"Ġshelf":6781,"Ġinstallment":6782,"ropolis":6783,"Ġimplausible":6784,"Ġpedestrian":6785,"Ġmagnificent":6786,"Ġclaustrophobic":6787,"Ġmartial":6788,"ĠMetropolis":6789,"ffleck":6790,"Ġvapid":6791,"ĠPotter":6792,"ĠEnding":6793,"ĠEddie":6794,"Ġenthralling":6795,"Ġdisposable":6796,"Occasionally":6797,"zenegger":6798,"Ġdignity":6799,"Ġultra":6800,"ĠAcademy":6801,"ĠCannes":6802,"ĠDiesel":6803,"ĠSchwarzenegger":6804,"ĠSchmidt":6805,"Ġpropaganda":6806,"Aud":6807,"Bo":6808,"Bra":6809,"Cla":6810,"Davis":6811,"Deli":6812,"Each":6813,"Earnest":6814,"First":6815,"Film":6816,"Go":6817,"Har":6818,"Hey":6819,"Imp":6820,"Let":6821,"Mc":6822,"Made":6823,"Murder":6824,"Part":6825,"Pret":6826,"Rob":6827,"Sad":6828,"Time":6829,"Tsai":6830,"View":6831,"Works":6832,"Your":6833,"aa":6834,"bes":6835,"bro":6836,"bound":6837,"cid":6838,"city":6839,"cue":6840,"cating":6841,"cingly":6842,"don":6843,"dan":6844,"dest":6845,"dry":6846,"directed":6847,"fly":6848,"fig":6849,"fice":6850,"face":6851,"funny":6852,"friend":6853,"gel":6854,"hor":6855,"iy":6856,"iqu":6857,"ius":6858,"ios":6859,"iens":6860,"iving":6861,"jud":6862,"jerk":6863,"kh":6864,"ket":6865,"kable":6866,"low":6867,"lers":6868,"lingly":6869,"mm":6870,"makers":6871,"pic":6872,"put":6873,"pion":6874,"part":6875,"port":6876,"pole":6877,"packed":6878,"rating":6879,"ratic":6880,"runk":6881,"sized":6882,"tick":6883,"tale":6884,"trip":6885,"uing":6886,"ued":6887,"uated":6888,"van":6889,"vary":6890,"wan":6891,"works":6892,"wrenching":6893,"zes":6894,"zed":6895,"zel":6896,"Ġze":6897,"Ġ\\*\\*":6898,"Ġtart":6899,"Ġtable":6900,"Ġtends":6901,"Ġtug":6902,"Ġtiny":6903,"Ġtepid":6904,"Ġaest":6905,"Ġafl":6906,"ince":6907,"inority":6908,"infeld":6909,"hest":6910,"heimer":6911,"Ġsard":6912,"Ġsinks":6913,"Ġsafe":6914,"Ġsquee":6915,"Ġoh":6916,"Ġought":6917,"eral":6918,"erious":6919,"ita":6920,"itial":6921,"itect":6922,"itched":6923,"encies":6924,"enstein":6925,"ators":6926,"atives":6927,"Ġfet":6928,"Ġfest":6929,"Ġfren":6930,"Ġfits":6931,"Ġfuri":6932,"Ġfield":6933,"Ġfestival":6934,"Ġfellow":6935,"Ġfoul":6936,"ingered":6937,"esis":6938,"esome":6939,"Ġmund":6940,"Ġmuddled":6941,"Ġwishing":6942,"Ġcock":6943,"Ġbon":6944,"Ġbull":6945,"Ġbanter":6946,"orking":6947,"onous":6948,"Ġpur":6949,"Ġpale":6950,"Ġpush":6951,"arge":6952,"angh":6953,"lympt":6954,"Ġded":6955,"Ġdiv":6956,"Ġdoll":6957,"ilot":6958,"Ġtool":6959,"Ġtoilet":6960,"Ġinject":6961,"Ġlull":6962,"Ġlends":6963,"Ġlatter":6964,"Ġlush":6965,"Ġloyal":6966,"Ġlavish":6967,"Ġlurid":6968,"Ġhing":6969,"Ġhok":6970,"Ġhitting":6971,"omy":6972,"sting":6973,"lear":6974,"utes":6975,"Ġeat":6976,"Ġeight":6977,"Ġego":6978,"elow":6979,"elocity":6980,"Ġge":6981,"Ġgreen":6982,"Ġgently":6983,"aser":6984,"asing":6985,"ety":6986,"etty":6987,"imen":6988,"vigor":6989,"Ġsticks":6990,"Ġstimul":6991,"Ġrev":6992,"Ġrece":6993,"Ġreplaced":6994,"Ġbew":6995,"Ġbegu":6996,"ularly":6997,"ulner":6998,"roop":6999,"Ġanime":7000,"Ġangu":7001,"Ġanger":7002,"ride":7003,"rifice":7004,"olf":7005,"olie":7006,"ayles":7007,"adpole":7008,"Ġformer":7009,"oos":7010,"Ġwholly":7011,"Ġwhale":7012,"irts":7013,"Ġalle":7014,"Ġalbum":7015,"union":7016,"ĠSy":7017,"ĠSal":7018,"ĠSam":7019,"ĠSus":7020,"Ġchamp":7021,"Ġchosen":7022,"umor":7023,"ummer":7024,"Ġenlight":7025,"isted":7026,"isters":7027,"istoc":7028,"Ġsea":7029,"Ġheat":7030,"estyle":7031,"ifer":7032,"iform":7033,"Ġhast":7034,"Ġhaph":7035,"ĠBob":7036,"ĠBride":7037,"Ġabund":7038,"Ġshape":7039,"Ġunable":7040,"Ġuniform":7041,"eller":7042,"elled":7043,"Ġconcent":7044,"astro":7045,"Ġdeals":7046,"ĠMat":7047,"ĠMary":7048,"ĠMile":7049,"ĠMark":7050,"ĠMost":7051,"ĠMach":7052,"ĠMiddle":7053,"ĠMothman":7054,"ĠAh":7055,"ĠAfter":7056,"ĠAway":7057,"Ġneighbor":7058,"ĠCal":7059,"ĠCran":7060,"ĠCamp":7061,"ĠCarl":7062,"ĠCinema":7063,"ĠCompany":7064,"ĠCastro":7065,"ateau":7066,"igo":7067,"usal":7068,"ĠHis":7069,"ĠHawn":7070,"ĠHaneke":7071,"Ġprospect":7072,"Ġplan":7073,"Ġplight":7074,"venile":7075,"ĠDi":7076,"ĠDes":7077,"ĠDie":7078,"Ġfeet":7079,"Ġfears":7080,"osyn":7081,"osca":7082,"Ġpred":7083,"Thanks":7084,"Ġranks":7085,"ĠWW":7086,"ĠWow":7087,"ĠWalk":7088,"ĠWallace":7089,"ples":7090,"pless":7091,"Ġvoy":7092,"Ġimplic":7093,"ĠPe":7094,"ĠPri":7095,"ĠPunch":7096,"ĠParad":7097,"ĠPlympt":7098,"ogdan":7099,"ĠFran":7100,"ĠFord":7101,"Ġouting":7102,"resents":7103,"ĠRom":7104,"ĠRam":7105,"ĠRice":7106,"ĠRead":7107,"Ġclunky":7108,"aping":7109,"appe":7110,"apable":7111,"oding":7112,"odge":7113,"ĠGot":7114,"ĠGrey":7115,"ĠTo":7116,"ĠTob":7117,"ĠTamb":7118,"ĠTosca":7119,"Ġlean":7120,"ĠLive":7121,"ĠLif":7122,"ĠLope":7123,"ĠLips":7124,"forms":7125,"Ġspr":7126,"Ġspots":7127,"Ġspaces":7128,"Ġtrust":7129,"ĠJu":7130,"ĠJerry":7131,"ĠJaglom":7132,"ichard":7133,"Ġflour":7134,"Ġflimsy":7135,"Ġanybody":7136,"Ġadvice":7137,"Ġarc":7138,"Ġaristoc":7139,"Ġcompens":7140,"Ġcomposed":7141,"Ġweb":7142,"Ġovert":7143,"Ġoverst":7144,"Ġoverblown":7145,"ĠNap":7146,"ĠNights":7147,"ĠNijinsky":7148,"Ġoffend":7149,"ensical":7150,"Ġfeelings":7151,"ĠEve":7152,"ĠEric":7153,"ĠEcks":7154,"ĠEgoyan":7155,"nesses":7156,"ĠKa":7157,"ĠKah":7158,"ĠKline":7159,"ĠKung":7160,"ĠKapur":7161,"Ġsubl":7162,"Ġsubculture":7163,"Ġblind":7164,"Ġdisgu":7165,"Ġdiscovery":7166,"ocation":7167,"Ġraises":7168,"Ġendure":7169,"Ġmeet":7170,"veler":7171,"Whatever":7172,"Ġeveryday":7173,"Ġundoubted":7174,"Ġdramas":7175,"Ġgenial":7176,"angled":7177,"Ġseeming":7178,"Ġreminis":7179,"Ġteeth":7180,"versity":7181,"Ġrow":7182,"renal":7183,"gins":7184,"Ġ13":7185,"ĠChou":7186,"ĠChicago":7187,"Ġaging":7188,"Ġaudacious":7189,"Ġartfully":7190,"Ġtrav":7191,"Ġtrack":7192,"Ġtrailer":7193,"Ġbrothers":7194,"ocking":7195,"ockstoppers":7196,"Ġunderc":7197,"Ġunderlying":7198,"venture":7199,"Ġshoulders":7200,"Ġrecon":7201,"Ġrecreat":7202,"Ġoblig":7203,"Ġcharacterization":7204,"Ġgreater":7205,"istically":7206,"away":7207,"atholic":7208,"Ġnewcom":7209,"ibrium":7210,"Ġmyst":7211,"Ġharder":7212,"Ġincisive":7213,"atures":7214,"Ġdowner":7215,"Ġdownbeat":7216,"Ġtriangle":7217,"Ġkinda":7218,"owerment":7219,"spoon":7220,"Ġpretends":7221,"Ġpretensions":7222,"iffle":7223,"iffere":7224,"Ġgrade":7225,"ollerball":7226,"azard":7227,"Ġpointed":7228,"Ġwanting":7229,"Ġgrind":7230,"Ġgrating":7231,"Ġexcruci":7232,"Ġbelow":7233,"Ġglory":7234,"Ġglib":7235,"Ġglorious":7236,"xton":7237,"oked":7238,"Ġpleasurable":7239,"Ġcreature":7240,"Ġguilt":7241,"ĠStock":7242,"Ġdecide":7243,"Ġdecade":7244,"Ġaccents":7245,"Ġindulg":7246,"Ġproud":7247,"Ġdistaste":7248,"Ġskate":7249,"Ġrefuge":7250,"ewis":7251,"Ġspecif":7252,"Ġspecific":7253,"Ġreplete":7254,"Ġconsum":7255,"Ġconserv":7256,"itherspoon":7257,"Ġproducers":7258,"volves":7259,"Ġburied":7260,"Ġourselves":7261,"Ġcovers":7262,"Ġcohes":7263,"Ġcrew":7264,"rapy":7265,"ampoon":7266,"ĠSever":7267,"ĠSeinfeld":7268,"Ġdepend":7269,"Ġdepends":7270,"Ġ1970":7271,"Ġ1960":7272,"Ġelect":7273,"Ġstudent":7274,"ridan":7275,"Ġdarker":7276,"Ġdemented":7277,"Ġexpense":7278,"Ġexposition":7279,"Ġeffortlessly":7280,"Ġedited":7281,"Ġedges":7282,"ĠBlood":7283,"Ġcleverly":7284,"Ġmedia":7285,"Ġuneasy":7286,"Ġfailed":7287,"Ġinterview":7288,"ĠDeeds":7289,"ĠJoan":7290,"Ġdefe":7291,"Ġwitless":7292,"oonlight":7293,"Ġsadly":7294,"Ġcapturing":7295,"Ġsenses":7296,"Ġsensibility":7297,"Ġexpectation":7298,"Ġreturns":7299,"owski":7300,"ĠBeast":7301,"Ġconfused":7302,"Ġconfident":7303,"okey":7304,"ructive":7305,"irds":7306,"opping":7307,"opped":7308,"oppola":7309,"ification":7310,"Ġboom":7311,"ĠClub":7312,"ĠClockstoppers":7313,"Ġadmission":7314,"bral":7315,"Ġdelights":7316,"Ġsolidly":7317,"Ġfinely":7318,"Ġpastiche":7319,"Ġheroes":7320,"ographer":7321,"Ġsinging":7322,"Ġsupport":7323,"Ġillumin":7324,"Ġbasis":7325,"Ġfrantic":7326,"Ġvaluable":7327,"ĠReign":7328,"ĠRevolution":7329,"veloped":7330,"uddle":7331,"ĠRobin":7332,"Ġbrilliance":7333,"uries":7334,"Ġvein":7335,"Ġhilarity":7336,"Ġpassionate":7337,"Ġclosely":7338,"Ġinfuri":7339,"Ġprojects":7340,"Ġtechno":7341,"Ġsnappy":7342,"Ġurge":7343,"Ġoccasional":7344,"max":7345,"ĠSchaeffer":7346,"Ġdisappointment":7347,"Ġcapacity":7348,"Ġcombat":7349,"Ġcombined":7350,"Ġshocks":7351,"Ġoppressive":7352,"ungry":7353,"Ġconvinced":7354,"Ġdevelops":7355,"Ġdeveloped":7356,"Ġsoulful":7357,"Ġliterate":7358,"Ġsustains":7359,"Ġdragons":7360,"Ġspeak":7361,"Ġforceful":7362,"Ġstupidity":7363,"rewd":7364,"Ġpayoff":7365,"Ġtheatre":7366,"Ġepisodes":7367,"Ġhype":7368,"Ġangry":7369,"Ġ101":7370,"guez":7371,"Ġtypes":7372,"Ġbreaks":7373,"Ġearnestness":7374,"Ġabsurdist":7375,"Ġabsurdity":7376,"Ġ30":7377,"Ġbuilds":7378,"ĠStevenson":7379,"Ġnaturalistic":7380,"Ġbloody":7381,"Ġmediocrity":7382,"likable":7383,"Ġconnections":7384,"Ġmeaningful":7385,"Ġmeaningless":7386,"Ġmadd":7387,"Ġstruggling":7388,"Ġrevelation":7389,"Ġvariety":7390,"Ġempowerment":7391,"Ġlabored":7392,"Ġcuriously":7393,"ographical":7394,"Ġobservant":7395,"uggish":7396,"Ġunusually":7397,"Ġidiosyn":7398,"Ġstructured":7399,"Ġprimarily":7400,"inoche":7401,"ĠAnderson":7402,"Ġaimed":7403,"Ġsacrific":7404,"Ġfolk":7405,"Ġnuance":7406,"ĠAntwone":7407,"effect":7408,"Ġdemonstrate":7409,"Ġinnocent":7410,"Ġpulse":7411,"Ġchoice":7412,"Ġdiscuss":7413,"Ġanswer":7414,"Ġjuvenile":7415,"Ġobjective":7416,"Ġsketchy":7417,"ĠTraveler":7418,"Ġserviceable":7419,"Ġconsidered":7420,"Ġacceptable":7421,"Ġfavorite":7422,"innear":7423,"Ġbogus":7424,"Ġdrink":7425,"Ġstretched":7426,"Ġunforced":7427,"Ġunforgettable":7428,"Ġneglect":7429,"Ġfuzzy":7430,"Ġarchitect":7431,"Ġmeasured":7432,"Ġemphasizes":7433,"Conf":7434,"Ġauthority":7435,"Ġfatal":7436,"ĠBruck":7437,"Ġinsulting":7438,"Ġrecycled":7439,"Ġdynamic":7440,"Ġexquisitely":7441,"Ġconspira":7442,"Ġdeceptively":7443,"Ġvolatile":7444,"Ġqualities":7445,"thriller":7446,"Ġmechanical":7447,"Ġeducational":7448,"produced":7449,"cratic":7450,"Ġwatched":7451,"Ġchuckles":7452,"Ġexhausting":7453,"Ġambiguity":7454,"Neither":7455,"Ġthousands":7456,"Ġhigher":7457,"ĠJewish":7458,"Ġeloquent":7459,"Ġresponsible":7460,"Ġmiracle":7461,"Ġevidence":7462,"Ġstatus":7463,"ĠColumb":7464,"udgeon":7465,"Ġaccurate":7466,"Ġextravaganz":7467,"Ġuncomfortably":7468,"notch":7469,"Ġenormous":7470,"Ġexceedingly":7471,"ĠHunter":7472,"ĠFrance":7473,"ĠTaylor":7474,"Ġblockb":7475,"Ġremotely":7476,"Ġfantasies":7477,"Ġbullets":7478,"iccoli":7479,"Ġnomination":7480,"ĠSarandon":7481,"ĠHartley":7482,"Ġprecisely":7483,"ĠGosling":7484,"Ġexpertly":7485,"Ġunsatisfying":7486,"Ġredundant":7487,"Ġsorry":7488,"Ġwickedly":7489,"Ġinfectious":7490,"idelity":7491,"Ġallegory":7492,"ĠMamet":7493,"ĠMatthew":7494,"ĠHannibal":7495,"Ġclunker":7496,"odriguez":7497,"Ġaggressively":7498,"Ġlaughed":7499,"Ġmonotonous":7500,"Ġphilosophy":7501,"Ġaspirations":7502,"Ġirresistible":7503,"Ġtremendous":7504,"Grath":7505,"marine":7506,"Ġtasteless":7507,"Ġcerebral":7508,"Ġloneliness":7509,"stacles":7510,"Ġheavily":7511,"Ġconvenient":7512,"Ġadvantage":7513,"ĠEvans":7514,"ĠEsther":7515,"Ġtelegrap":7516,"Ġredemption":7517,"Ġafloat":7518,"Ġmundane":7519,"anghai":7520,"Ġdedic":7521,"Ġhokum":7522,"Ġbeguiling":7523,"roopers":7524,"Ġhaphazard":7525,"Ġuniformly":7526,"ĠMostly":7527,"ĠMachine":7528,"ĠParadiso":7529,"ĠPlympton":7530,"ĠLopez":7531,"ĠKahlo":7532,"Ġconservative":7533,"Ah":7534,"Am":7535,"App":7536,"Broomfield":7537,"Certain":7538,"Coll":7539,"Drunk":7540,"Ever":7541,"Extreme":7542,"Fails":7543,"Great":7544,"Gener":7545,"Her":7546,"II":7547,"Jo":7548,"Jack":7549,"Jones":7550,"Kay":7551,"La":7552,"Light":7553,"Lacks":7554,"Mar":7555,"Many":7556,"Nic":7557,"New":7558,"Oh":7559,"Other":7560,"Ret":7561,"Sol":7562,"Such":7563,"Simp":7564,"Sweet":7565,"Tra":7566,"Take":7567,"Une":7568,"ault":7569,"aque":7570,"average":7571,"bul":7572,"bag":7573,"bert":7574,"bage":7575,"buck":7576,"break":7577,"bbing":7578,"baked":7579,"card":7580,"cible":7581,"cute":7582,"dis":7583,"des":7584,"dition":7585,"downtown":7586,"eer":7587,"fs":7588,"fellas":7589,"fisted":7590,"gal":7591,"gian":7592,"gener":7593,"hu":7594,"hill":7595,"hind":7596,"iat":7597,"iate":7598,"iantly":7599,"ja":7600,"jam":7601,"lies":7602,"lich":7603,"mod":7604,"maker":7605,"numb":7606,"nered":7607,"noon":7608,"note":7609,"ration":7610,"rates":7611,"sis":7612,"sided":7613,"ta":7614,"tun":7615,"turn":7616,"ueless":7617,"ufact":7618,"with":7619,"water":7620,"witted":7621,"worthy":7622,"xual":7623,"your":7624,"yll":7625,"zpet":7626,"Ġton":7627,"Ġtum":7628,"Ġtiss":7629,"Ġtail":7630,"Ġtones":7631,"inent":7632,"inner":7633,"inarily":7634,"heavy":7635,"hecies":7636,"Ġsam":7637,"Ġsake":7638,"Ġsits":7639,"Ġsord":7640,"Ġsane":7641,"Ġsorrow":7642,"Ġsizz":7643,"Ġsaved":7644,"rel":7645,"rection":7646,"recating":7647,"Ġoo":7648,"erior":7649,"erchant":7650,"ito":7651,"itor":7652,"itage":7653,"itative":7654,"itivity":7655,"Ġtherapy":7656,"isi":7657,"enet":7658,"enry":7659,"Ġfi":7660,"Ġfond":7661,"Ġfame":7662,"Ġfix":7663,"Ġfirm":7664,"Ġfundament":7665,"Ġmour":7666,"Ġmish":7667,"Ġmired":7668,"Ġmuted":7669,"Ġwed":7670,"Ġwake":7671,"Ġwave":7672,"Ġwrap":7673,"Ġwearing":7674,"Ġwreck":7675,"Ġcad":7676,"Ġcode":7677,"Ġcobbled":7678,"Ġbare":7679,"Ġbio":7680,"Ġbrisk":7681,"orid":7682,"orably":7683,"ouge":7684,"oufl":7685,"Ġpill":7686,"Ġpant":7687,"Ġpatch":7688,"Ġpowers":7689,"Ġpupp":7690,"arat":7691,"arse":7692,"arious":7693,"around":7694,"anny":7695,"alia":7696,"Ġdust":7697,"Ġdares":7698,"Ġdirty":7699,"ilarly":7700,"edom":7701,"edge":7702,"edek":7703,"icit":7704,"icient":7705,"iciently":7706,"Ġtooth":7707,"Ġinert":7708,"Ġlit":7709,"Ġlust":7710,"Ġlect":7711,"Ġlark":7712,"Ġlady":7713,"Ġlapses":7714,"Ġhur":7715,"Ġhole":7716,"Ġhipp":7717,"Ġhidden":7718,"Ġhokey":7719,"omas":7720,"step":7721,"stage":7722,"Ġnet":7723,"Ġnum":7724,"Ġnail":7725,"leep":7726,"Ġisolation":7727,"utt":7728,"util":7729,"Ġear":7730,"ctions":7731,"Ġgel":7732,"Ġgidd":7733,"Ġgrew":7734,"Ġgasp":7735,"otting":7736,"asily":7737,"imed":7738,"imum":7739,"imone":7740,"iments":7741,"Ġster":7742,"Ġstif":7743,"Ġstink":7744,"Ġstream":7745,"Ġstalk":7746,"Ġrein":7747,"Ġreact":7748,"Ġbef":7749,"Ġbears":7750,"ulate":7751,"uloid":7752,"roat":7753,"roads":7754,"Their":7755,"Ġanom":7756,"Ġanach":7757,"Ġanci":7758,"olent":7759,"owing":7760,"owed":7761,"essed":7762,"essend":7763,"Ġbutt":7764,"idedly":7765,"amber":7766,"herish":7767,"Ġaltogether":7768,"aging":7769,"aggy":7770,"ĠSome":7771,"ĠSie":7772,"ĠSign":7773,"ĠSaving":7774,"ĠSeld":7775,"ĠSomething":7776,"ĠSuper":7777,"ĠSoldiers":7778,"Ġchord":7779,"Ġchances":7780,"Ġchief":7781,"Ġchops":7782,"Ġchanging":7783,"Ġchases":7784,"umst":7785,"umas":7786,"ems":7787,"emesis":7788,"ouses":7789,"ousness":7790,"urrection":7791,"akable":7792,"Ġenig":7793,"Ġenchant":7794,"isterous":7795,"Ġseas":7796,"Ġseven":7797,"Ġseats":7798,"Ġheaven":7799,"Ġnote":7800,"Ġnotes":7801,"esty":7802,"ifest":7803,"qui":7804,"quer":7805,"quiet":7806,"ĠBu":7807,"ĠBor":7808,"ĠBra":7809,"ĠBollywood":7810,"ĠBreak":7811,"ĠBody":7812,"ĠBett":7813,"ĠBrian":7814,"ĠBirthday":7815,"Ġdoor":7816,"Ġdose":7817,"Ġabandon":7818,"Ġshout":7819,"Ġshine":7820,"Ġshrewd":7821,"Ġunm":7822,"Ġunrem":7823,"Ġunlikable":7824,"aining":7825,"ĠMiss":7826,"ĠMalk":7827,"ĠMaid":7828,"ĠMurder":7829,"ĠMTV":7830,"ĠMinority":7831,"Ġscre":7832,"Ġscares":7833,"ĠAlt":7834,"ĠAute":7835,"ĠAbb":7836,"ĠAffleck":7837,"ĠAvary":7838,"ortant":7839,"ortions":7840,"Ġneo":7841,"ĠCo":7842,"ĠCle":7843,"ĠCare":7844,"ĠCage":7845,"ĠCross":7846,"ĠCube":7847,"ĠCanad":7848,"ĠCentury":7849,"ĠCarmen":7850,"Ġjun":7851,"igree":7852,"ushed":7853,"ptuous":7854,"Ġcharged":7855,"ĠHan":7856,"ĠHard":7857,"ĠHey":7858,"ĠHappy":7859,"ĠHanks":7860,"Ġworn":7861,"udup":7862,"ĠIm":7863,"ĠImax":7864,"ĠDel":7865,"ĠDass":7866,"ĠDown":7867,"ĠDang":7868,"ĠDuke":7869,"ĠDivine":7870,"ĠDumas":7871,"Ġfeast":7872,"opath":7873,"ackers":7874,"alled":7875,"Ġrat":7876,"Ġrating":7877,"Ġrings":7878,"Ġrude":7879,"Ġrank":7880,"ĠWat":7881,"ĠWend":7882,"ĠWoll":7883,"ĠWitherspoon":7884,"Ġkicks":7885,"Ġkilled":7886,"Ġvic":7887,"Ġvac":7888,"Ġvanity":7889,"Ġvulner":7890,"ĠPie":7891,"ĠPau":7892,"ĠPark":7893,"ĠFl":7894,"ĠFer":7895,"ĠFar":7896,"ĠFun":7897,"ĠFence":7898,"ĠFoc":7899,"ĠFather":7900,"ĠFriend":7901,"ĠFamily":7902,"ĠFarrel":7903,"Ġouts":7904,"Ġouter":7905,"Ġoutcome":7906,"endes":7907,"ĠRose":7908,"ĠRoman":7909,"ĠRollerball":7910,"Ġclue":7911,"apes":7912,"ĠGreat":7913,"ĠGib":7914,"ĠTri":7915,"ĠTest":7916,"ĠTroopers":7917,"ĠLo":7918,"ĠLim":7919,"ĠLiz":7920,"ĠLady":7921,"ĠLampoon":7922,"Ġspan":7923,"Ġsport":7924,"Ġspice":7925,"Ġspread":7926,"ictment":7927,"Ġtroub":7928,"Ġmanners":7929,"Ġmanufact":7930,"Ġmanifest":7931,"Ġups":7932,"Ġque":7933,"Ġquarter":7934,"eped":7935,"ĠJudd":7936,"ĠJagger":7937,"Ġflamb":7938,"Ġflavor":7939,"Ġflorid":7940,"peror":7941,"Ġaddict":7942,"Ġadrenal":7943,"Ġargue":7944,"Ġcompan":7945,"mented":7946,"Ġweigh":7947,"Ġperformed":7948,"ĠNor":7949,"ĠNature":7950,"ĠNarc":7951,"ĠNelson":7952,"Ġpool":7953,"arks":7954,"ints":7955,"atchable":7956,"ĠEr":7957,"ĠEver":7958,"ĠEight":7959,"ĠEnter":7960,"Ġamiable":7961,"Ġsubmarine":7962,"ostner":7963,"Ġblat":7964,"Ġblur":7965,"Ġblue":7966,"Ġblown":7967,"Ġblame":7968,"Ġblues":7969,"Ġdisint":7970,"Ġdisquiet":7971,"ansport":7972,"Ġfault":7973,"Ġrac":7974,"Ġrain":7975,"Ġraise":7976,"Ġrival":7977,"Ġmeal":7978,"Ġgoal":7979,"Ġundone":7980,"Ġundert":7981,"pectedly":7982,"Ġtalky":7983,"Ġlifestyle":7984,"Ġimpul":7985,"Ġimpart":7986,"Ġgenius":7987,"ildren":7988,"ruck":7989,"tei":7990,"Ġinsuff":7991,"Ġinsanity":7992,"berry":7993,"versations":7994,"renched":7995,"Ġsmacks":7996,"Ġsmiles":7997,"acht":7998,"Ġpeace":7999,"Ġrescue":8000,"ignant":8001,"Ġ18":8002,"ĠChick":8003,"ĠChai":8004,"ĠChateau":8005,"Ġagent":8006,"Ġcontest":8007,"Ġcontroll":8008,"Ġpartners":8009,"Ġartful":8010,"Ġartsy":8011,"Ġtrain":8012,"Ġtrapped":8013,"Ġbrother":8014,"inematic":8015,"ismo":8016,"ventures":8017,"Ġreco":8018,"iane":8019,"soon":8020,"awk":8021,"obs":8022,"ription":8023,"Ġawfully":8024,"scale":8025,"ibles":8026,"Ġchest":8027,"Ġincess":8028,"Ġincarn":8029,"Ġincident":8030,"Ġrelate":8031,"Ġrelax":8032,"Ġlessons":8033,"auty":8034,"Ġkeen":8035,"Ġkept":8036,"Ġenjoys":8037,"Ġenjoyably":8038,"Ġattraction":8039,"Ġfarc":8040,"Ġappalling":8041,"Ġgravity":8042,"vides":8043,"Ġcharmless":8044,"aze":8045,"azaki":8046,"Ġfewer":8047,"Ġbelt":8048,"Ġglum":8049,"appiness":8050,"ĠStone":8051,"ĠStephen":8052,"Ġdecidedly":8053,"Ġaccomp":8054,"Ġindiffere":8055,"Ġindictment":8056,"ailing":8057,"Ġprime":8058,"Ġexplan":8059,"comings":8060,"Ġsincer":8061,"Ġsinister":8062,"Ġreflection":8063,"Ġrefusal":8064,"Ġsurprised":8065,"Ġcrimes":8066,"Ġgenerous":8067,"anek":8068,"flick":8069,"Ġease":8070,"Ġexperienced":8071,"volving":8072,"Ġelusive":8073,"Ġcoff":8074,"Ġpassing":8075,"Ġpasses":8076,"oots":8077,"Ġclassics":8078,"ronic":8079,"ronistic":8080,"Ġdetached":8081,"Ġ193":8082,"Ġtouched":8083,"Ġhandle":8084,"Ġhandled":8085,"Ġtitles":8086,"Ġbelieving":8087,"ornberry":8088,"Ġabsolute":8089,"Ġhappily":8090,"Ġhappiness":8091,"Ġpaints":8092,"ucky":8093,"vino":8094,"vincible":8095,"Ġdemand":8096,"Ġdemoc":8097,"Ġdemons":8098,"Ġexpos":8099,"Ġexpressive":8100,"Ġpredictability":8101,"Ġedgy":8102,"Ġfamilial":8103,"Ġunfold":8104,"Ġunfamiliar":8105,"Ġmorally":8106,"Ġmorning":8107,"Ġevoke":8108,"Ġdefies":8109,"Ġdefines":8110,"Ġvideos":8111,"Ġstrains":8112,"Ġstrained":8113,"Ġsweetly":8114,"Ġperfection":8115,"Ġshortcomings":8116,"Ġcaptured":8117,"Ġsuccumbs":8118,"Ġpopul":8119,"ĠBeauty":8120,"Ġconfirms":8121,"Ġconfidence":8122,"Ġspirited":8123,"Ġstrongly":8124,"Ġpsychologically":8125,"Ġacqu":8126,"Ġopaque":8127,"Ġmonument":8128,"Ġheady":8129,"undlich":8130,"Ġsatisfies":8131,"Ġpolitically":8132,"Ġcaring":8133,"Ġcarried":8134,"Ġprofile":8135,"Ġambitions":8136,"Ġfamiliarity":8137,"Ġboasts":8138,"ĠClause":8139,"ĠLeigh":8140,"Ġassoc":8141,"Ġfreshness":8142,"Ġparano":8143,"Ġcutesy":8144,"Ġmisery":8145,"Ġhelped":8146,"Ġconstruction":8147,"Ġdevices":8148,"Ġsimultaneously":8149,"Ġsimilarly":8150,"Ġmagical":8151,"Ġcamoufl":8152,"Ġcomedian":8153,"Ġinvolve":8154,"ĠStealing":8155,"ĠThomas":8156,"ĠThornberry":8157,"Ġadventurous":8158,"Ġveers":8159,"Ġveter":8160,"Ġnorm":8161,"Ġachingly":8162,"Ġinfant":8163,"Ġinfomer":8164,"Ġmotions":8165,"shine":8166,"Ġexception":8167,"Ġstrikes":8168,"Ġexamines":8169,"Ġseconds":8170,"Ġdisappointingly":8171,"ovan":8172,"Ġmeth":8173,"afer":8174,"Ġbrooding":8175,"porate":8176,"Ġoppos":8177,"Ġconvince":8178,"Ġantid":8179,"Ġantics":8180,"Ġpersonalities":8181,"Ġfollowed":8182,"Ġbalanced":8183,"Ġpulling":8184,"Ġpulled":8185,"Ġdamaged":8186,"ĠWho":8187,"Ġunexpl":8188,"Ġunexpectedly":8189,"Ġsleeve":8190,"atsi":8191,"Ġpossibility":8192,"Ġdrivel":8193,"Ġjoyless":8194,"Ġpurely":8195,"Ġreminded":8196,"Ġrolling":8197,"ĠChristop":8198,"ĠRoberto":8199,"Ġpaying":8200,"Ġinvention":8201,"Exc":8202,"blood":8203,"Ġzone":8204,"Ġgorgeously":8205,"Ġresonate":8206,"Ġcartoonish":8207,"Ġsquare":8208,"Ġsquarely":8209,"Ġskills":8210,"Ġdepressed":8211,"eeks":8212,"Ġbreakthr":8213,"Ġhopes":8214,"ĠMcC":8215,"ĠMcGrath":8216,"Ġinclude":8217,"Ġcrafts":8218,"Ġfrustration":8219,"cheek":8220,"Ġlandmark":8221,"Ġsteals":8222,"Ġsteeped":8223,"Ġweaknesses":8224,"Ġconflicted":8225,"Ġcelebrity":8226,"Ġcritic":8227,"Ġthrowing":8228,"Ġreduces":8229,"grand":8230,"Ġhomes":8231,"ĠMonsoon":8232,"monly":8233,"Ġpunct":8234,"Ġrevelations":8235,"Ġvariation":8236,"odern":8237,"Ġdisturb":8238,"Ġcommunic":8239,"Ġimmensely":8240,"ĠPlay":8241,"Ġsparkling":8242,"Ġopportunities":8243,"Reign":8244,"oleon":8245,"rumline":8246,"Ġfalling":8247,"Ġhugely":8248,"ĠBenjam":8249,"ĠDaniel":8250,"Ġimpressed":8251,"Ġgraceful":8252,"Ġmetaphors":8253,"Ġmovements":8254,"Ġrewarded":8255,"Ġatmospher":8256,"Ġlegal":8257,"Ġdiverse":8258,"ĠQuiet":8259,"Ġamazingly":8260,"Mostly":8261,"Ġlyric":8262,"Ġcrucial":8263,"Ġrequire":8264,"Ġuncanny":8265,"ĠGoodfellas":8266,"ĠGreene":8267,"Ġescapist":8268,"However":8269,"Spielberg":8270,"Ġdreck":8271,"ĠAttal":8272,"ĠAnton":8273,"Ġrecording":8274,"Ġincludes":8275,"Ġnonsensical":8276,"Ġencouraging":8277,"ĠMexic":8278,"ĠDogs":8279,"ĠTransport":8280,"Ġincredible":8281,"Ġcircumst":8282,"Ġdomin":8283,"Ġhypoc":8284,"Ġhypnotic":8285,"Ġimplies":8286,"ĠNeil":8287,"Ġsurvive":8288,"Ġproductions":8289,"Ġenthusiastic":8290,"Ġbursts":8291,"ulsion":8292,"ulsively":8293,"Ġfills":8294,"ĠHolm":8295,"Ġallowed":8296,"Ġrooting":8297,"ĠStorytelling":8298,"Ġstereotypical":8299,"Ġignore":8300,"Ġsweeping":8301,"Ġpitfalls":8302,"Ġpenet":8303,"Ġshadows":8304,"Ġunconvent":8305,"Ġarrive":8306,"Ġterrorist":8307,"Leigh":8308,"Steven":8309,"incip":8310,"Ġmulti":8311,"Ġwalked":8312,"Ġpedigree":8313,"Ġlayers":8314,"Ġstretches":8315,"adyac":8316,"Ġalternative":8317,"Ġalternately":8318,"Ġconceit":8319,"ĠMorvern":8320,"ĠFreeman":8321,"Ġdescribed":8322,"ĠDragonfly":8323,"Ġmillion":8324,"Ġtossed":8325,"Ġalienation":8326,"Ġheartbreak":8327,"Highly":8328,"Smith":8329,"Smart":8330,"moving":8331,"Ġrambling":8332,"Ġtackles":8333,"isputed":8334,"Ġbodies":8335,"Ġshamelessly":8336,"Ġclimactic":8337,"Ġoverwhelming":8338,"Ġ1950":8339,"Ġembraces":8340,"Ġsilent":8341,"Ġsilver":8342,"ĠConversations":8343,"Ġqualify":8344,"Ġmechanics":8345,"Ġeducation":8346,"Ġmotivations":8347,"Ġastonishingly":8348,"ĠUndercover":8349,"girls":8350,"Ġmentally":8351,"Ġcelluloid":8352,"Ġchuckle":8353,"ĠRunner":8354,"ĠGrace":8355,"Ġexplosions":8356,"Ġambiguous":8357,"Ġindividuals":8358,"Ġversus":8359,"Ġversions":8360,"Ġmisfire":8361,"Ġthousand":8362,"Ġlingering":8363,"Ġhighest":8364,"Ġyouthful":8365,"Ġobscure":8366,"Ġinfluence":8367,"deprecating":8368,"pleaser":8369,"Ġfabric":8370,"Ġgarbage":8371,"Ġhealth":8372,"ĠImportance":8373,"ĠGangs":8374,"Ġdeparture":8375,"Ġsymbol":8376,"Ġrepeatedly":8377,"Ġredeeming":8378,"ajidi":8379,"Ġboun":8380,"Ġbaseball":8381,"Ġdubious":8382,"Ġlosing":8383,"Ġconveying":8384,"ĠCollateral":8385,"Ġproperly":8386,"ĠWillis":8387,"ĠWells":8388,"ĠProject":8389,"Ġclothes":8390,"Ġsubstitute":8391,"Ġcalculated":8392,"Ġinexplicable":8393,"Comes":8394,"Ġcivil":8395,"Ġrehash":8396,"ĠSundance":8397,"Ġchronicle":8398,"ĠMusic":8399,"ĠProphecies":8400,"absor":8401,"Ġfluid":8402,"ĠOliver":8403,"Ġinconsistent":8404,"Ġinstincts":8405,"Ġrestrained":8406,"Ġlegendary":8407,"Ġfleeting":8408,"Ġathletes":8409,"Ġadequate":8410,"Ġmurky":8411,"structed":8412,"Ġunbelievable":8413,"Ġconsequences":8414,"Ġthankfully":8415,"ĠJessica":8416,"Ġarguments":8417,"ĠKidman":8418,"Ġsubplots":8419,"Ġcontroversy":8420,"Ġironically":8421,"Ġtranslation":8422,"Ġsnapshot":8423,"Ġminimalist":8424,"Ġspontaneity":8425,"Ġfoibles":8426,"Ġfictional":8427,"Ġwisdom":8428,"Ġassembled":8429,"Ġwholesome":8430,"Ġexaggerated":8431,"quilibrium":8432,"ĠCrystal":8433,"ĠPaxton":8434,"ĠFeathers":8435,"ĠEmperor":8436,"ĠEyre":8437,"Ġreputation":8438,"Ġinternational":8439,"Ġtransformation":8440,"Ġsubtitles":8441,"Ġverbal":8442,"Ġunrelent":8443,"Ġseductive":8444,"Ġzeal":8445,"Ġsardonic":8446,"Ġsqueeze":8447,"Ġalleged":8448,"ĠSusan":8449,"Ġhastily":8450,"ĠCrane":8451,"ĠPrivate":8452,"ogdanovich":8453,"ĠToback":8454,"ĠLifetime":8455,"Ġflourishes":8456,"ĠNapoleon":8457,"Ġsublime":8458,"Ġundoubtedly":8459,"Ġreminiscent":8460,"Ġdistasteful":8461,"Ġrefugees":8462,"Ġspecifically":8463,"Ġidiosyncratic":8464,"effects":8465,"ĠBruckheimer":8466,"Ġtelegraphed":8467,"John":8468,"zpetek":8469,"Ġtumult":8470,"Ġsordid":8471,"Ġfirmly":8472,"edekerk":8473,"Ġnumerous":8474,"Ġanachronistic":8475,"essenden":8476,"Ġenigmatic":8477,"ĠBettany":8478,"ĠMalkovich":8479,"ĠWollter":8480,"ĠFocus":8481,"ĠFarrelly":8482,"Ġmanufactured":8483,"Ġaccompan":8484,"Ġsincerity":8485,"Ġparanoia":8486,"Ġinfomercial":8487,"Ġbreakthrough":8488,"ĠBenjamins":8489,"ĠTransporter":8490,"--":8491,"13":8492,"40":8493,"Abs":8494,"Ben":8495,"Brit":8496,"Bec":8497,"Better":8498,"Cl":8499,"Call":8500,"Comb":8501,"DS":8502,"Den":8503,"Dist":8504,"Dog":8505,"Dark":8506,"Def":8507,"Ev":8508,"Eight":8509,"Enter":8510,"Gu":8511,"Green":8512,"Half":8513,"Human":8514,"IA":8515,"IB":8516,"Ice":8517,"Kids":8518,"Kinnear":8519,"Lan":8520,"Long":8521,"Little":8522,"Niro":8523,"Noyce":8524,"Ob":8525,"Op":8526,"Parker":8527,"Pumpkin":8528,"Ren":8529,"Res":8530,"Rom":8531,"Rather":8532,"Sw":8533,"Sam":8534,"Sens":8535,"Sec":8536,"Tw":8537,"Ter":8538,"Takes":8539,"Try":8540,"Und":8541,"Warm":8542,"Witty":8543,"Williams":8544,"Woody":8545,"aun":8546,"aude":8547,"bble":8548,"bind":8549,"bang":8550,"bows":8551,"bearing":8552,"based":8553,"cast":8554,"cong":8555,"cence":8556,"core":8557,"cross":8558,"dro":8559,"dri":8560,"done":8561,"dings":8562,"dash":8563,"efully":8564,"fe":8565,"fere":8566,"fare":8567,"fiction":8568,"familiar":8569,"gam":8570,"gasm":8571,"hou":8572,"hard":8573,"hrop":8574,"iber":8575,"just":8576,"ked":8577,"know":8578,"lad":8579,"lings":8580,"lights":8581,"langu":8582,"lasting":8583,"lowski":8584,"min":8585,"mous":8586,"mudgeon":8587,"modern":8588,"nick":8589,"ois":8590,"opt":8591,"pable":8592,"press":8593,"puff":8594,"point":8595,"qatsi":8596,"rs":8597,"rill":8598,"rict":8599,"rary":8600,"rics":8601,"rase":8602,"rats":8603,"rara":8604,"sm":8605,"some":8606,"spl":8607,"suff":8608,"serious":8609,"ti":8610,"tes":8611,"tably":8612,"there":8613,"uve":8614,"uend":8615,"ucy":8616,"uously":8617,"uasive":8618,"vating":8619,"voc":8620,"vability":8621,"wed":8622,"will":8623,"wart":8624,"wear":8625,"yne":8626,"zing":8627,"zill":8628,"Ġ60":8629,"Ġtact":8630,"Ġtense":8631,"Ġtaw":8632,"Ġtub":8633,"Ġtaps":8634,"Ġtax":8635,"Ġack":8636,"Ġapt":8637,"Ġapl":8638,"Ġafic":8639,"Ġakin":8640,"inion":8641,"inch":8642,"inian":8643,"inning":8644,"inspired":8645,"heon":8646,"Ġsab":8647,"Ġsaves":8648,"Ġsaving":8649,"Ġsister":8650,"rehe":8651,"reets":8652,"Ġol":8653,"itter":8654,"itary":8655,"itudes":8656,"Ġtheory":8657,"Ġthesis":8658,"isc":8659,"iseman":8660,"enge":8661,"enice":8662,"enced":8663,"enha":8664,"atable":8665,"atfalls":8666,"Ġfro":8667,"Ġfif":8668,"Ġfart":8669,"Ġfacing":8670,"Ġmac":8671,"Ġmuse":8672,"Ġmaker":8673,"Ġmuddle":8674,"nds":8675,"Ġwid":8676,"Ġwist":8677,"Ġwret":8678,"Ġwallow":8679,"Ġcri":8680,"Ġcook":8681,"Ġcram":8682,"Ġcip":8683,"Ġcath":8684,"Ġcarn":8685,"Ġcalls":8686,"Ġbast":8687,"Ġbust":8688,"Ġbond":8689,"Ġbord":8690,"Ġbones":8691,"Ġbank":8692,"Ġbarrel":8693,"orad":8694,"orial":8695,"Ġpess":8696,"Ġpomp":8697,"Ġpandering":8698,"Ġpants":8699,"Ġpurs":8700,"Ġpiffle":8701,"arg":8702,"anc":8703,"anic":8704,"anish":8705,"anella":8706,"alos":8707,"alism":8708,"alcul":8709,"aluable":8710,"algam":8711,"Ġthirst":8712,"Ġthread":8713,"Ġthumbs":8714,"Ġdu":8715,"Ġdise":8716,"Ġdrum":8717,"Ġdressed":8718,"Ġdinner":8719,"ilo":8720,"icide":8721,"icense":8722,"Ġtown":8723,"Ġinquis":8724,"Ġinesc":8725,"Ġinitial":8726,"Ġlur":8727,"Ġlaid":8728,"Ġloop":8729,"Ġlicense":8730,"Ġhund":8731,"Ġhurt":8732,"stars":8733,"Ġnin":8734,"Ġnames":8735,"Ġnaught":8736,"Ġnaked":8737,"Ġniche":8738,"Ġnatur":8739,"Ġnails":8740,"lev":8741,"utty":8742,"Ġec":8743,"Ġeg":8744,"Ġears":8745,"Ġeerie":8746,"elle":8747,"eline":8748,"elbe":8749,"Ġgam":8750,"Ġgru":8751,"Ġgave":8752,"Ġguts":8753,"Ġmob":8754,"enth":8755,"entin":8756,"ionad":8757,"otes":8758,"otown":8759,"otte":8760,"otted":8761,"otland":8762,"otesque":8763,"asper":8764,"eter":8765,"etent":8766,"etween":8767,"imated":8768,"Ġsting":8769,"Ġstation":8770,"Ġstark":8771,"Ġsticking":8772,"Ġstumble":8773,"Ġreass":8774,"Ġrelying":8775,"Ġrebell":8776,"Ġrelevant":8777,"Ġreunion":8778,"rand":8779,"racy":8780,"Ġupper":8781,"verty":8782,"verted":8783,"Ġbeg":8784,"Ġbear":8785,"Ġbeings":8786,"Ġbeach":8787,"ulence":8788,"ulkin":8789,"cely":8790,"ceful":8791,"roit":8792,"rogen":8793,"Then":8794,"Ġyester":8795,"rient":8796,"rived":8797,"oli":8798,"olate":8799,"aybur":8800,"owered":8801,"ader":8802,"ading":8803,"adent":8804,"advert":8805,"adventure":8806,"Ġforward":8807,"esson":8808,"essive":8809,"section":8810,"ooses":8811,"Ġwhiny":8812,"iders":8813,"Ġcomics":8814,"irk":8815,"amo":8816,"amera":8817,"Ġlip":8818,"illene":8819,"herfig":8820,"Ġalert":8821,"Ġalike":8822,"Ġalbe":8823,"uns":8824,"ĠSer":8825,"ĠSix":8826,"ĠServing":8827,"ĠSimone":8828,"Ġchur":8829,"Ġchick":8830,"Ġchooses":8831,"emorable":8832,"cked":8833,"urg":8834,"urity":8835,"urves":8836,"urley":8837,"Ġintol":8838,"akingly":8839,"Ġexists":8840,"Ġexasper":8841,"Ġsearing":8842,"Ġsearching":8843,"Ġheight":8844,"Ġhedon":8845,"anthrop":8846,"Ġnotable":8847,"romises":8848,"quet":8849,"ĠBM":8850,"ĠBrend":8851,"ĠBirot":8852,"ĠBetty":8853,"ĠBinoche":8854,"ĠBesson":8855,"Ġably":8856,"Ġshod":8857,"Ġship":8858,"Ġshimmer":8859,"Ġshtick":8860,"Ġshrill":8861,"Ġunass":8862,"Ġunbl":8863,"ainberg":8864,"Ġconsc":8865,"Ġdeja":8866,"ĠMal":8867,"ĠMann":8868,"ĠMean":8869,"ĠMoonlight":8870,"ĠMendes":8871,"ĠMotown":8872,"Ġscare":8873,"Ġscored":8874,"Ġscient":8875,"Ġscathing":8876,"ĠAy":8877,"ĠAud":8878,"ĠAward":8879,"ĠAustr":8880,"ĠAlex":8881,"ĠAuto":8882,"Ġneur":8883,"ĠCor":8884,"ĠCarp":8885,"ĠCirc":8886,"ĠCroc":8887,"ĠCoppola":8888,"ĠCostner":8889,"ĠCIA":8890,"ĠCurves":8891,"Ġjer":8892,"Ġjack":8893,"Ġjarring":8894,"Ġjumble":8895,"uso":8896,"uston":8897,"ustic":8898,"usters":8899,"Ġsocc":8900,"ptic":8901,"Ġarea":8902,"ppy":8903,"ĠHear":8904,"ĠHew":8905,"ĠHenry":8906,"ĠHurley":8907,"Ġprose":8908,"Ġprobe":8909,"Ġprofic":8910,"Ġmores":8911,"ffic":8912,"Ġworry":8913,"Ġworship":8914,"Ġactions":8915,"Ġactiv":8916,"erell":8917,"udity":8918,"ĠInter":8919,"ĠDad":8920,"ĠDaw":8921,"ĠDirty":8922,"ĠDoug":8923,"Ġprevent":8924,"ardot":8925,"acking":8926,"Ġperme":8927,"Ġrug":8928,"Ġruth":8929,"Ġrange":8930,"Ġrarity":8931,"Ġrules":8932,"ĠWay":8933,"ĠWood":8934,"ĠWarm":8935,"ĠWalls":8936,"ĠWife":8937,"ĠWork":8938,"ieu":8939,"Ġkicking":8940,"ittingly":8941,"ittedly":8942,"Ġstoryt":8943,"Ġvu":8944,"Ġvain":8945,"ĠPG":8946,"ĠPr":8947,"ĠPy":8948,"ĠPat":8949,"ĠPast":8950,"ĠPicture":8951,"ĠPower":8952,"ĠPumpkin":8953,"ĠPraise":8954,"ĠPacino":8955,"ĠPiccoli":8956,"ĠFri":8957,"ĠFavor":8958,"ĠFingered":8959,"Ġoutland":8960,"abre":8961,"ables":8962,"abbit":8963,"ĠRat":8964,"ĠRet":8965,"ĠRay":8966,"ĠRand":8967,"ĠRemember":8968,"ĠRamsay":8969,"ĠRichard":8970,"ĠRouge":8971,"Ġclown":8972,"Ġclash":8973,"Ġclashing":8974,"ĠGo":8975,"ĠGall":8976,"ĠGriff":8977,"ĠGhetto":8978,"ĠGyll":8979,"ĠTony":8980,"Ġlear":8981,"ieslowski":8982,"ĠLion":8983,"ĠList":8984,"ĠLook":8985,"ĠLau":8986,"ĠLyn":8987,"ĠLamb":8988,"ĠLanes":8989,"ĠLatin":8990,"aren":8991,"arer":8992,"Ġspends":8993,"Ġspraw":8994,"Ġsporad":8995,"Ġtrump":8996,"ertime":8997,"accid":8998,"Ġnoise":8999,"Ġnobody":9000,"ĠJer":9001,"ĠJay":9002,"ĠJose":9003,"ĠJenn":9004,"ĠJolie":9005,"ours":9006,"ourse":9007,"ourceful":9008,"Ġflashes":9009,"augh":9010,"Ġthrust":9011,"thought":9012,"Ġadvert":9013,"Ġard":9014,"Ġcomprehens":9015,"Ġlob":9016,"Ġload":9017,"Ġlose":9018,"Ġlofty":9019,"mering":9020,"Ġweaves":9021,"Ġweeks":9022,"Ġcann":9023,"Ġcanon":9024,"Ġcanned":9025,"Ġuseless":9026,"Ġoversh":9027,"Ġoverlook":9028,"Ġovercomes":9029,"Ġoverkill":9030,"Ġwhenever":9031,"izamo":9032,"ĠNational":9033,"ĠNemesis":9034,"Ġpokes":9035,"Ġpoverty":9036,"wey":9037,"week":9038,"dead":9039,"Ġevening":9040,"ipid":9041,"ipaul":9042,"ĠEis":9043,"ĠExtreme":9044,"Ġslo":9045,"Ġslipp":9046,"Ġsluggish":9047,"ĠKil":9048,"ĠKur":9049,"ĠKaf":9050,"Ġamalgam":9051,"Ġsubtext":9052,"Ġsuburban":9053,"osexual":9054,"Ġblunt":9055,"Ġdisplays":9056,"ocy":9057,"Ġrapt":9058,"Ġrage":9059,"Ġravis":9060,"Ġraised":9061,"Ġriff":9062,"Ġrigor":9063,"Ġended":9064,"Ġgoals":9065,"Ġgovern":9066,"Ġlift":9067,"Ġlifts":9068,"Ġimpenet":9069,"Ġbecame":9070,"ressing":9071,"Ġsurrend":9072,"Ġvia":9073,"Ġinsurance":9074,"Ġinsipid":9075,"Ġteach":9076,"Ġscreening":9077,"Ġseek":9078,"Ġseeks":9079,"Ġentertainingly":9080,"Ġsermon":9081,"Ġsmell":9082,"Ġpee":9083,"Ġpeak":9084,"Ġresorting":9085,"igned":9086,"ĠChannel":9087,"Ġaudacity":9088,"Ġundercut":9089,"Ġunderdog":9090,"isms":9091,"othic":9092,"Ġrecipe":9093,"soaked":9094,"Ġobstacles":9095,"ivable":9096,"Ġgreatness":9097,"Ġcasts":9098,"Ġvisible":9099,"important":9100,"pecial":9101,"ossibly":9102,"ossession":9103,"obi":9104,"nowled":9105,"ashvil":9106,"ashbuck":9107,"Ġaward":9108,"umbling":9109,"Ġcheat":9110,"Ġrelief":9111,"Ġreluct":9112,"Ġtrial":9113,"Ġtrivial":9114,"Ġenjoying":9115,"sych":9116,"Ġappla":9117,"Ġgrac":9118,"azzy":9119,"Ġgrotesque":9120,"Ġplayer":9121,"Ġexcels":9122,"Ġneedlessly":9123,"arner":9124,"uffed":9125,"Ġbeloved":9126,"Ġglo":9127,"Ġglam":9128,"Ġglob":9129,"appily":9130,"Ġmushy":9131,"ĠState":9132,"ĠStrang":9133,"Ġdecency":9134,"Ġdecadent":9135,"Ġaccum":9136,"Ġextent":9137,"ailed":9138,"Ġprin":9139,"Ġprincip":9140,"Ġpratfalls":9141,"Ġdistant":9142,"Ġexploring":9143,"Ġexplored":9144,"Ġcrash":9145,"gues":9146,"guizamo":9147,"Ġrepellent":9148,"Ġrepressed":9149,"Ġimagined":9150,"Ġimaginable":9151,"Ġbucks":9152,"ĠVelocity":9153,"Ġcoinc":9154,"Ġpassable":9155,"Ġpassions":9156,"Ġthoughts":9157,"constructed":9158,"yssey":9159,"Form":9160,"alsh":9161,"retentious":9162,"ĠSept":9163,"ĠSeven":9164,"Ġaffl":9165,"Ġafford":9166,"ĠSpike":9167,"ĠSpirited":9168,"ĠSpanish":9169,"Ġmindset":9170,"Ġfascination":9171,"playing":9172,"ĠYour":9173,"ĠYidd":9174,"Ġtitled":9175,"Ġtitular":9176,"Ġdarkness":9177,"Ġanimals":9178,"Ġstarting":9179,"Ġputting":9180,"ĠShow":9181,"Ġlighting":9182,"Ġcraw":9183,"Ġunfortun":9184,"Ġfailing":9185,"Ġinteraction":9186,"ĠDeuces":9187,"ĠDeNiro":9188,"ĠJoel":9189,"Ġsentence":9190,"Ġsentiments":9191,"Ġphone":9192,"Ġphony":9193,"Ġphones":9194,"Strange":9195,"Ġlowbrow":9196,"Ġhonor":9197,"Ġsuspend":9198,"Ġswim":9199,"Ġswings":9200,"Ġsword":9201,"Ġswinging":9202,"Ġswashbuck":9203,"Ġsadd":9204,"Ġseriousness":9205,"Ġsensibilities":9206,"Ġsensitivity":9207,"Ġsuccumb":9208,"ĠScor":9209,"ĠScar":9210,"Ġexpects":9211,"arents":9212,"Ġadded":9213,"Alas":9214,"Altern":9215,"Ġmarching":9216,"Ġmarried":9217,"Ġbrav":9218,"Ġbrains":9219,"Ġbracing":9220,"ĠBehan":9221,"Ġstronger":9222,"Ġinspires":9223,"hao":9224,"Ġacid":9225,"Ġopinion":9226,"under":9227,"Ġprofund":9228,"Ġboat":9229,"Ġboard":9230,"ĠCliff":9231,"Ġadmittedly":9232,"cipl":9233,"Ġparalle":9234,"Ġsumm":9235,"Ġsumptuous":9236,"Ġcredited":9237,"Ġsuccessfully":9238,"century":9239,"white":9240,"Ġelsewhere":9241,"Ġmisanthrop":9242,"ettelbe":9243,"mpire":9244,"Ġ95":9245,"Ġdifferences":9246,"Ġsingles":9247,"Ġmusty":9248,"Ġsupply":9249,"Ġwarmed":9250,"Ġdevice":9251,"Ġcontribut":9252,"Ġobser":9253,"Ġobserved":9254,"Ġfrat":9255,"otechn":9256,"Ġdumbed":9257,"ĠStein":9258,"ĠSteve":9259,"ĠReggio":9260,"ĠThree":9261,"ĠAlf":9262,"ĠAlice":9263,"ĠAnother":9264,"Ġsuffer":9265,"Ġsuffered":9266,"ucin":9267,"Ġnonstop":9268,"Ġinfuses":9269,"Ġtechnically":9270,"Cho":9271,"shot":9272,"Ġsnoo":9273,"Ġmixes":9274,"Ġdeserved":9275,"Unless":9276,"Should":9277,"Showtime":9278,"ĠZeal":9279,"Ġhopefully":9280,"Ġexamine":9281,"otta":9282,"Ġconception":9283,"Ġtruths":9284,"Ġtruthful":9285,"Ġcapital":9286,"Ġtopical":9287,"Ġcombines":9288,"Ġshocked":9289,"Ġshockingly":9290,"iency":9291,"Ġexecut":9292,"Ġimportance":9293,"ields":9294,"Ġinviting":9295,"Ġinvaluable":9296,"Ġvirtu":9297,"Ġliteral":9298,"Ġadapted":9299,"Ġadaptations":9300,"Ġtasteful":9301,"Ġdamage":9302,"ĠCrudup":9303,"ĠLovely":9304,"Ġimproved":9305,"Ġimprovised":9306,"Ġdefinition":9307,"Ġdefinitive":9308,"Ġsleek":9309,"Ġinnuend":9310,"Ġgotten":9311,"ĠMyers":9312,"Ġautom":9313,"Ġfemin":9314,"Ġbreathe":9315,"Ġeventual":9316,"Ġweirdness":9317,"Ġblandness":9318,"Ġthinly":9319,"Ġroller":9320,"Ġopenness":9321,"ĠHeart":9322,"Ġzero":9323,"Ġcurmudgeon":9324,"Ġcountless":9325,"ĠSandra":9326,"Ġexisted":9327,"ĠAmar":9328,"ĠAmazing":9329,"Ġpostcard":9330,"Ġsurfing":9331,"Ġepisodic":9332,"Ġastounding":9333,"Ġsquanders":9334,"Ġdestruction":9335,"Ġdigs":9336,"Ġemerging":9337,"Ġangle":9338,"ĠAdventures":9339,"Ġroutines":9340,"Ġrecommended":9341,"Ġsexuality":9342,"Ġ45":9343,"Ġbreakdown":9344,"Ġuncommonly":9345,"ospital":9346,"Ġhorribly":9347,"Ġmajority":9348,"Ġessential":9349,"Ġpathology":9350,"Ġsteal":9351,"Ġchallenge":9352,"Ġfavour":9353,"Ġfavors":9354,"Ġsources":9355,"ontaine":9356,"Ġthrowback":9357,"Ġthrowaway":9358,"Ġknack":9359,"Ġforever":9360,"Ġhomosexual":9361,"Ġconnection":9362,"Ġfreedom":9363,"Ġcollision":9364,"Ġcollapses":9365,"ĠPhoto":9366,"affect":9367,"Ġcamps":9368,"Ġcampy":9369,"Ġdenial":9370,"ĠKissing":9371,"Ġdrawing":9372,"Reggio":9373,"Ġmothers":9374,"Ġuninteresting":9375,"ĠDana":9376,"ĠDanny":9377,"ĠWilco":9378,"Ġappreciation":9379,"Ġappreciated":9380,"Ġprotect":9381,"Ġmetaphorical":9382,"ugging":9383,"Ġmovement":9384,"Ġannoy":9385,"Ġsucks":9386,"Ġsucker":9387,"ĠDamon":9388,"Ġclosing":9389,"Ġlegacy":9390,"Ġrepetition":9391,"Ġsympath":9392,"ĠQuentin":9393,"Ġidiots":9394,"Ġidiocy":9395,"Ġgifts":9396,"ĠBroad":9397,"ĠMarquis":9398,"ĠMarriage":9399,"Ġproportions":9400,"ĠWeight":9401,"Ġawkwardly":9402,"Ġgroups":9403,"Ġprimary":9404,"Ġprimitive":9405,"Proves":9406,"Provides":9407,"ycle":9408,"Ġfitfully":9409,"Ġtowards":9410,"Ġlimits":9411,"Ġrequires":9412,"Ġaimless":9413,"Ġsacrifice":9414,"Ġmilitary":9415,"Ġmilieu":9416,"Ġwonders":9417,"Ġcandid":9418,"alyt":9419,"Ġhampered":9420,"Ġnuances":9421,"Ġelegantly":9422,"Ġestrogen":9423,"Ġmidnight":9424,"charged":9425,"character":9426,"aggeringly":9427,"Ġintensely":9428,"Ġchecklist":9429,"Ġrepresent":9430,"ĠUndisputed":9431,"Ġprofoundly":9432,"Ġextraordinarily":9433,"Ġstrengths":9434,"Ġturkey":9435,"Ġbiography":9436,"Ġboldly":9437,"ĠRoom":9438,"ĠRoad":9439,"Ġremembering":9440,"Ġexcesses":9441,"Ġexpression":9442,"Ġtenderness":9443,"Ġschlock":9444,"Ġmachismo":9445,"Ġstaying":9446,"Ġreaching":9447,"Ġjuicy":9448,"Ġallowing":9449,"Ġadmirably":9450,"Ġauthenticity":9451,"Adam":9452,"Something":9453,"Ġignored":9454,"Ġsweat":9455,"Ġpitiful":9456,"Ġlearned":9457,"Ġflashbacks":9458,"Ġconsistent":9459,"Stealing":9460,"bandon":9461,"incher":9462,"Ġbogs":9463,"Ġbogged":9464,"ĠBallot":9465,"ĠIrwin":9466,"ĠFreundlich":9467,"ĠRussell":9468,"ĠLaBute":9469,"Enough":9470,"cultural":9471,"uitous":9472,"winning":9473,"Ġsolutions":9474,"Ġfacet":9475,"Ġfacile":9476,"Ġcatches":9477,"Ġtosses":9478,"iggs":9479,"Ġarchival":9480,"ĠNotting":9481,"Ġradar":9482,"Ġradical":9483,"Ġemphasis":9484,"Sheridan":9485,"Ġsalv":9486,"Ġsalute":9487,"Ġsedu":9488,"Ġfathers":9489,"ĠBurger":9490,"Ġshameless":9491,"Ġclimax":9492,"Ġtextbook":9493,"Ġreflective":9494,"Ġembrace":9495,"Ġdynamics":9496,"Sex":9497,"Ġwallop":9498,"ooping":9499,"Ġconspic":9500,"Ġdebate":9501,"ĠAngels":9502,"Ġspinning":9503,"arshall":9504,"Ġcollective":9505,"Ġmotivated":9506,"Ġregarding":9507,"Ġregardless":9508,"Ġlandscapes":9509,"Ġbreathtakingly":9510,"Ġintroduces":9511,"Ġintroduction":9512,"Ġmental":9513,"Ġpalpable":9514,"Ġresembling":9515,"Ġunwatchable":9516,"ĠPauline":9517,"ĠKorea":9518,"Ġthematically":9519,"Ġexplosion":9520,"Ġinvestig":9521,"True":9522,"uccino":9523,"Ġnaive":9524,"Ġgroan":9525,"ĠHawk":9526,"ĠLilo":9527,"ĠJews":9528,"Ġdistinguished":9529,"Ġestablishes":9530,"Disney":9531,"uvall":9532,"Ġtempting":9533,"Ġwalking":9534,"Ġwallet":9535,"Ġpanor":9536,"Ġpanache":9537,"Ġetc":9538,"ĠSnipes":9539,"Ġjumps":9540,"Ġruins":9541,"Ġrisk":9542,"Ġimmediate":9543,"Ġaccurately":9544,"Ġuncomfortable":9545,"Ġsymbolic":9546,"Ġpuzzle":9547,"Ġpuzzling":9548,"Ġfrankly":9549,"Ġfiercely":9550,"Ġboundaries":9551,"Ġdaily":9552,"Ġhallucin":9553,"Ġeconomical":9554,"ĠSorority":9555,"Ġconveys":9556,"ĠDenis":9557,"ĠDonovan":9558,"Ġvaguely":9559,"ĠEnigma":9560,"ĠElling":9561,"Ġundermines":9562,"Ġincomprehensible":9563,"Ġincompetent":9564,"ĠScottish":9565,"Ġlocales":9566,"Ġinexplicably":9567,"Ġodyssey":9568,"Ġfragile":9569,"Ġnervy":9570,"Ġnervous":9571,"Ġperceptive":9572,"ĠJonah":9573,"Ġdisgusting":9574,"Ġdismissed":9575,"ĠVietnamese":9576,"Ġcourtroom":9577,"Ġcontemplative":9578,"Ġcontradictory":9579,"Hardly":9580,"Poignant":9581,"aghan":9582,"writers":9583,"yrotechn":9584,"Ġbesides":9585,"Ġlunacy":9586,"Ġrejected":9587,"Ġseparate":9588,"Ġconcoction":9589,"ĠChekh":9590,"Ġprevents":9591,"Ġventure":9592,"Ġclinical":9593,"ĠJanice":9594,"ĠJacquot":9595,"Ġadvance":9596,"Ġarresting":9597,"Ġemploys":9598,"ĠCharles":9599,"Ġguaranteed":9600,"urprisingly":9601,"Ġillustrates":9602,"Ġoptimism":9603,"Ġunbearably":9604,"Ġphenomenal":9605,"Boys":9606,"Looks":9607,"Ġtreads":9608,"Ġinsecure":9609,"Ġnarciss":9610,"Ġstroke":9611,"Ġsteady":9612,"ĠBridge":9613,"Ġdopey":9614,"Ġconversation":9615,"ĠMichell":9616,"Ġscratching":9617,"ĠCallar":9618,"ĠHallmark":9619,"ĠIdentity":9620,"ĠFreddy":9621,"ĠLucas":9622,"Ġflesh":9623,"Ġbetrayal":9624,"ĠKennedy":9625,"Ġdiscern":9626,"Ġinsanely":9627,"Ġarticulate":9628,"Ġappetite":9629,"Ġgratuitous":9630,"Ġcriminal":9631,"ĠArgentine":9632,"Ġ3000":9633,"Ġcondescending":9634,"ĠSwimfan":9635,"Ġconvictions":9636,"Ġschmaltzy":9637,"ĠWestern":9638,"Ġinterpretation":9639,"Sadly":9640,"friendly":9641,"Ġ\\*\\*\\*":9642,"Ġloyalty":9643,"vigorating":9644,"Ġbewild":9645,"Ġanguish":9646,"ĠSalton":9647,"Ġenlightening":9648,"Ġneighborhood":9649,"ĠTambor":9650,"Ġcompensate":9651,"Ġdisguised":9652,"Ġrowdy":9653,"Ġobligatory":9654,"Ġexcruciating":9655,"Ġskateboard":9656,"Ġcohesive":9657,"Ġinterviews":9658,"Ġinfuriating":9659,"Ġdiscussion":9660,"Ġconspiracy":9661,"Ġextravaganza":9662,"Ġdedication":9663,"Apparently":9664,"Certainly":9665,"Extremely":9666,"Solondz":9667,"Simply":9668,"generated":9669,"numbingly":9670,"withstanding":9671,"Ġsizzle":9672,"Ġmourn":9673,"Ġpantheon":9674,"Ġgiddy":9675,"Ġanomie":9676,"Ġancient":9677,"ĠSigns":9678,"ĠSeldahl":9679,"Ġscreens":9680,"ĠCrossroads":9681,"ĠDangerous":9682,"ĠWendigo":9683,"ĠGibson":9684,"Ġflamboyant":9685,"Ġcompanion":9686,"Ġblatant":9687,"Ġdisintegr":9688,"achtwey":9689,"Ġincessant":9690,"Ġfarcical":9691,"Ġcoffee":9692,"ĠThornberrys":9693,"Ġveteran":9694,"Ġinfantile":9695,"Ġmethod":9696,"Ġantidote":9697,"ĠChristopher":9698,"Ġpunctuated":9699,"Ġlyricism":9700,"Ġpenetrating":9701,"Ġunconventional":9702,"Because":9703,"Evokes":9704,"Secret":9705,"congrat":9706,"language":9707,"Ġtawdry":9708,"Ġacknowled":9709,"Ġaficionad":9710,"Ġsabot":9711,"enhaal":9712,"Ġmacabre":9713,"Ġwretched":9714,"Ġcipher":9715,"Ġborders":9716,"Ġpessim":9717,"Ġdisease":9718,"Ġhundred":9719,"Ġnaturally":9720,"Ġyesterday":9721,"ayburgh":9722,"illeneuve":9723,"Ġalbeit":9724,"ĠBrendan":9725,"Ġshoddy":9726,"Ġunassuming":9727,"ĠCarpenter":9728,"Ġsoccer":9729,"ĠHearst":9730,"ĠHewitt":9731,"ĠDawson":9732,"ĠPowerpuff":9733,"Ġoutlandish":9734,"ĠGyllenhaal":9735,"ĠLambs":9736,"ĠJennifer":9737,"Ġovershad":9738,"ĠKafka":9739,"Ġravishing":9740,"Ġimpenetrable":9741,"ashvili":9742,"Ġreluctant":9743,"Ġapplaud":9744,"ĠStrangers":9745,"ĠYiddish":9746,"Ġunfortunate":9747,"ettelbeck":9748,"ĠChekhov":9749,"Ġaficionados":9750,"11":9751,"50":9752,"AS":9753,"Amid":9754,"BC":9755,"Bel":9756,"Bro":9757,"Best":9758,"Bears":9759,"Barely":9760,"Birthday":9761,"Between":9762,"Ca":9763,"Cr":9764,"Can":9765,"Cold":9766,"Cred":9767,"Capt":9768,"Cinematic":9769,"Don":9770,"Del":9771,"Did":9772,"Direct":9773,"Dull":9774,"Dense":9775,"Directed":9776,"El":9777,"Eff":9778,"Ent":9779,"Eleg":9780,"Few":9781,"Frank":9782,"Gets":9783,"Gives":9784,"Grant":9785,"Given":9786,"George":9787,"Hol":9788,"Hilar":9789,"Huppert":9790,"IDS":9791,"Jacqu":9792,"Love":9793,"Luc":9794,"Mo":9795,"Ms":9796,"Mat":9797,"Mor":9798,"Mart":9799,"Miller":9800,"Mey":9801,"Morton":9802,"Majidi":9803,"Na":9804,"Nicks":9805,"Narc":9806,"OO":9807,"Pass":9808,"Paul":9809,"Puts":9810,"Presents":9811,"Ry":9812,"Rep":9813,"Rich":9814,"Remember":9815,"Ramsay":9816,"Sk":9817,"Sor":9818,"Sim":9819,"Sand":9820,"Suc":9821,"Soph":9822,"Super":9823,"Sayles":9824,"Surprisingly":9825,"Te":9826,"Taken":9827,"Tries":9828,"Together":9829,"Us":9830,"Vivid":9831,"Vito":9832,"Wait":9833,"apl":9834,"aign":9835,"aiting":9836,"aunt":9837,"bod":9838,"bare":9839,"bles":9840,"baf":9841,"breaking":9842,"cre":9843,"cook":9844,"cated":9845,"cener":9846,"ds":9847,"ded":9848,"dra":9849,"dun":9850,"dsy":9851,"dream":9852,"daughter":9853,"drenched":9854,"ech":9855,"eem":9856,"egg":9857,"eky":9858,"earth":9859,"fem":9860,"fast":9861,"fitting":9862,"ga":9863,"gant":9864,"gary":9865,"gby":9866,"hh":9867,"ho":9868,"hat":9869,"has":9870,"hart":9871,"hman":9872,"half":9873,"human":9874,"honed":9875,"hta":9876,"ias":9877,"iri":9878,"iably":9879,"iations":9880,"jes":9881,"kil":9882,"kay":9883,"kiness":9884,"las":9885,"lim":9886,"lie":9887,"log":9888,"liff":9889,"lÃĥÆĴÃĤ":9890,"looper":9891,"mor":9892,"mus":9893,"mical":9894,"mond":9895,"mash":9896,"metic":9897,"minsky":9898,"nel":9899,"nol":9900,"nie":9901,"nour":9902,"nock":9903,"oir":9904,"oge":9905,"oated":9906,"ped":9907,"pent":9908,"pass":9909,"post":9910,"pons":9911,"preme":9912,"pieces":9913,"parts":9914,"pisi":9915,"powered":9916,"rion":9917,"rman":9918,"sky":9919,"satisf":9920,"something":9921,"tÃĥÆĴÃĤ":9922,"tinent":9923,"tti":9924,"uh":9925,"uk":9926,"uz":9927,"uis":9928,"uil":9929,"uum":9930,"uary":9931,"vo":9932,"vably":9933,"vors":9934,"wer":9935,"wing":9936,"wes":9937,"wall":9938,"ware":9939,"warm":9940,"winded":9941,"working":9942,"Â¢":9943,"Â¨":9944,"Â¯":9945,"Â³":9946,"Âł":9947,"Ġ#":9948,"Ġ70":9949,"Ġ\\*":9950,"Ġtid":9951,"Ġtall":9952,"Ġtorn":9953,"Ġtrop":9954,"Ġtrench":9955,"Ġtensions":9956,"inently":9957,"held":9958,"heated":9959,"Ġsau":9960,"Ġshed":9961,"Ġselling":9962,"Ġsib":9963,"Ġsize":9964,"Ġsession":9965,"Ġsessions":9966,"Ġsisters":9967,"rene":9968,"Ġom":9969,"Ġowe":9970,"Ġomn":9971,"Ġokay":9972,"Ġowes":9973,"erb":9974,"erile":9975,"erably":9976,"itc":9977,"ithe":9978,"itment":9979,"itations":9980,"itches":9981,"Ġtheories":9982,"isy":9983,"iser":9984,"isingly":9985,"isions":9986,"ata":9987,"atty":9988,"Ġfade":9989,"Ġfolly":9990,"Ġfaced":9991,"Ġfires":9992,"Ġfuss":9993,"Ġfinger":9994,"Ġfiring":9995,"inge":9996,"ingles":9997,"escent":9998,"Ġmim":9999,"Ġmort":10000,"Ġmap":10001,"Ġmull":10002,"Ġmuck":10003,"Ġmug":10004,"Ġmask":10005,"Ġmawk":10006,"Ġmugging":10007,"Ġwart":10008,"Ġwars":10009,"Ġwrest":10010,"Ġcum":10011,"Ġcog":10012,"Ġcup":10013,"Ġbless":10014,"Ġburn":10015,"Ġbread":10016,"Ġborn":10017,"Ġbudd":10018,"Ġbagg":10019,"Ġbreaking":10020,"ora":10021,"oro":10022,"oria":10023,"oning":10024,"onou":10025,"onse":10026,"ouis":10027,"Ġpin":10028,"Ġpor":10029,"Ġpra":10030,"Ġpad":10031,"Ġpris":10032,"Ġpause":10033,"Ġpuff":10034,"Ġpony":10035,"Ġpunk":10036,"Ġpraise":10037,"Ġpiqu":10038,"Ġpilot":10039,"Ġpyrotechn":10040,"arate":10041,"aned":10042,"ala":10043,"ales":10044,"alph":10045,"Ġthirty":10046,"Ġdro":10047,"Ġdime":10048,"Ġdict":10049,"Ġdated":10050,"Ġdold":10051,"Ġdied":10052,"Ġdude":10053,"Ġdizz":10054,"Ġdurable":10055,"Ġdwell":10056,"Ġdarned":10057,"ilated":10058,"ilogy":10059,"edish":10060,"icz":10061,"icable":10062,"iceless":10063,"iciously":10064,"Ġtom":10065,"Ġinadvert":10066,"Ġinvigorating":10067,"Ġlend":10068,"Ġlunch":10069,"Ġlaud":10070,"Ġhoo":10071,"Ġhust":10072,"Ġhors":10073,"omed":10074,"strom":10075,"story":10076,"struction":10077,"Ġnic":10078,"Ġnod":10079,"Ġnause":10080,"Ġnuc":10081,"Ġnifty":10082,"leander":10083,"utable":10084,"eled":10085,"Ġgas":10086,"Ġgest":10087,"Ġgold":10088,"Ġgris":10089,"Ġgoose":10090,"Ġmock":10091,"oting":10092,"otal":10093,"otically":10094,"asi":10095,"eterm":10096,"imate":10097,"vier":10098,"Ġstam":10099,"Ġstake":10100,"Ġstult":10101,"Ġstately":10102,"Ġstages":10103,"Ġstolid":10104,"Ġstumbles":10105,"Ġstopped":10106,"Ġstruck":10107,"Ġstaggeringly":10108,"Ġrely":10109,"Ġrese":10110,"Ġreck":10111,"Ġresemble":10112,"Ġrevision":10113,"Ġreached":10114,"Ġreaches":10115,"Ġrerun":10116,"Ġrelev":10117,"rack":10118,"Ġbeer":10119,"Ġbeats":10120,"ulp":10121,"ulous":10122,"cean":10123,"chard":10124,"change":10125,"road":10126,"rooge":10127,"Ġanth":10128,"Ġasc":10129,"iths":10130,"riguing":10131,"ripper":10132,"olan":10133,"olst":10134,"ayas":10135,"owling":10136,"ado":10137,"Ġforte":10138,"Ġfortun":10139,"sex":10140,"seat":10141,"Ġbutter":10142,"Ġwhine":10143,"Ġcoma":10144,"Ġcomically":10145,"Ġsus":10146,"Ġsuits":10147,"Ġsuitable":10148,"Ġsudsy":10149,"Ġsugary":10150,"Ġsupreme":10151,"iry":10152,"irteen":10153,"erschool":10154,"amy":10155,"amura":10156,"Ġliking":10157,"Ġlibert":10158,"Ġaliens":10159,"agen":10160,"ĠShip":10161,"ĠSkins":10162,"Ġchomp":10163,"umn":10164,"umination":10165,"eming":10166,"ements":10167,"uration":10168,"uristic":10169,"urrent":10170,"urried":10171,"Ġintact":10172,"Ġenvelop":10173,"Ġencount":10174,"Ġexter":10175,"istas":10176,"istine":10177,"istently":10178,"istencies":10179,"Ġseal":10180,"Ġsection":10181,"Ġhey":10182,"Ġheights":10183,"Ġhefty":10184,"ante":10185,"Ġnotch":10186,"Ġnotorious":10187,"Ġnotwithstanding":10188,"estinian":10189,"ifies":10190,"ifts":10191,"ifkin":10192,"quite":10193,"queness":10194,"ĠBre":10195,"ĠBic":10196,"ĠBill":10197,"ĠBack":10198,"ĠBible":10199,"ĠButter":10200,"ĠBroom":10201,"Ġdoze":10202,"Ġdogged":10203,"Ġdozen":10204,"Ġabrupt":10205,"Ġshut":10206,"Ġshop":10207,"Ġshred":10208,"Ġshining":10209,"Ġshares":10210,"Ġshifting":10211,"Ġshaky":10212,"Ġshaggy":10213,"Ġunse":10214,"Ġunem":10215,"Ġunap":10216,"Ġunment":10217,"Ġunco":10218,"Ġunmist":10219,"Ġunreal":10220,"Ġunknow":10221,"ellar":10222,"Ġdear":10223,"Ġdegra":10224,"ĠMing":10225,"ĠMak":10226,"ĠMick":10227,"ĠMummy":10228,"ĠMerchant":10229,"ĠMIB":10230,"ĠMarshall":10231,"Ġatroc":10232,"Ġscand":10233,"Ġscru":10234,"Ġschem":10235,"ĠAug":10236,"ĠAbandon":10237,"ĠABC":10238,"ĠCH":10239,"ĠCind":10240,"ĠCap":10241,"ĠCool":10242,"ĠCase":10243,"ĠCrist":10244,"ĠCooper":10245,"ĠCatholic":10246,"ĠCherish":10247,"actor":10248,"actly":10249,"Ġjell":10250,"Ġjud":10251,"Ġjaw":10252,"Ġjolly":10253,"Ġjazz":10254,"Ġjaded":10255,"iguch":10256,"igans":10257,"usc":10258,"ushes":10259,"Ġsoar":10260,"pps":10261,"Ġcharge":10262,"Ġcharitable":10263,"ĠHalf":10264,"ĠHub":10265,"ĠHudlin":10266,"ĠHicken":10267,"ĠHappiness":10268,"ĠHuston":10269,"ĠHospital":10270,"Ġproved":10271,"anded":10272,"Ġlikeable":10273,"Ġplat":10274,"Ġplus":10275,"Ġplaced":10276,"Ġplaus":10277,"udy":10278,"ĠIf":10279,"indler":10280,"Ġalluring":10281,"ĠDr":10282,"ĠDays":10283,"ĠDover":10284,"ĠDrumline":10285,"ĠDiggs":10286,"ĠDuvall":10287,"Ġprey":10288,"Ġpreced":10289,"Ġwhodun":10290,"ardalos":10291,"Thr":10292,"Thought":10293,"Ġperm":10294,"Ġperil":10295,"Ġpertinent":10296,"Ġring":10297,"Ġrate":10298,"Ġrural":10299,"Ġrhet":10300,"Ġrising":10301,"ĠWas":10302,"ĠWere":10303,"ĠWaking":10304,"ĠWoman":10305,"ĠWahl":10306,"ĠWalter":10307,"ĠWilliam":10308,"ĠWarner":10309,"ĠWalsh":10310,"pling":10311,"Ġorche":10312,"Ġkin":10313,"Ġkits":10314,"Ġkills":10315,"ittered":10316,"Ġstorylines":10317,"Ġvan":10318,"Ġvistas":10319,"ĠPar":10320,"ĠPort":10321,"ĠPry":10322,"ĠPret":10323,"ĠParis":10324,"ĠPerry":10325,"ĠPersonal":10326,"ogyn":10327,"ĠFear":10328,"ĠFien":10329,"ĠForm":10330,"ĠFierce":10331,"ĠFundament":10332,"ĠFincher":10333,"Ġoutd":10334,"Ġoutright":10335,"Ġoutline":10336,"about":10337,"abby":10338,"abbing":10339,"aboration":10340,"enda":10341,"endence":10342,"endium":10343,"ĠRon":10344,"ĠRules":10345,"ĠRumor":10346,"ĠRodriguez":10347,"ĠRabbit":10348,"ĠRalph":10349,"ĠRowling":10350,"Ġclock":10351,"Ġclips":10352,"Ġclueless":10353,"odile":10354,"ĠGr":10355,"ĠGay":10356,"ĠGant":10357,"ĠGere":10358,"ĠGary":10359,"ĠGames":10360,"Ġfunction":10361,"ĠTon":10362,"ĠTsai":10363,"ĠTadpole":10364,"ĠLar":10365,"ĠLond":10366,"ĠLily":10367,"ĠLord":10368,"ĠLiar":10369,"ĠLewis":10370,"ĠLyne":10371,"ĠLouis":10372,"force":10373,"Ġspright":10374,"Ġsporting":10375,"Ġspiced":10376,"Ġtrim":10377,"Ġtrilogy":10378,"Ġmanic":10379,"Ġmannered":10380,"erty":10381,"Ġupro":10382,"Ġupbeat":10383,"Ġquint":10384,"Ġquasi":10385,"acre":10386,"acon":10387,"ntil":10388,"ntial":10389,"ramax":10390,"Ġnose":10391,"ĠJar":10392,"ĠJust":10393,"ĠJord":10394,"ĠJeff":10395,"Ġflound":10396,"Ġflame":10397,"Ġflower":10398,"Ġflirts":10399,"Ġflailing":10400,"Ġflaccid":10401,"early":10402,"Ġdirectly":10403,"Ġdirections":10404,"ths":10405,"thon":10406,"think":10407,"Ġadopt":10408,"Ġadroit":10409,"Ġarty":10410,"Ġarbit":10411,"Ġcompar":10412,"Ġcompos":10413,"Ġcompare":10414,"Ġcompared":10415,"Ġcomposition":10416,"Ġcompulsively":10417,"Ġcompendium":10418,"Ġgoods":10419,"Ġgoodness":10420,"Ġgoodwill":10421,"assy":10422,"asses":10423,"assed":10424,"Ġlovable":10425,"Ġloaded":10426,"Ġloads":10427,"Ġcanny":10428,"new":10429,"Ġentran":10430,"Ġenticing":10431,"Ġworkplace":10432,"Ġoverwritten":10433,"Ġoverrun":10434,"Ġoverproduced":10435,"Ġoverbearing":10436,"ondry":10437,"ĠNash":10438,"ĠNachtwey":10439,"Ġposter":10440,"arkable":10441,"ensed":10442,"deal":10443,"developed":10444,"inting":10445,"ritical":10446,"ĠEx":10447,"ĠEarn":10448,"ĠEaster":10449,"ĠEarth":10450,"ĠEquilibrium":10451,"ĠEmpire":10452,"Ġslam":10453,"Ġslash":10454,"ĠKath":10455,"ĠKiller":10456,"ĠKilled":10457,"ĠKieslowski":10458,"Ġbloated":10459,"Ġdiscon":10460,"Ġdisarming":10461,"Ġdisappe":10462,"Ġfaults":10463,"Ġrapp":10464,"Ġraces":10465,"Ġrauc":10466,"Ġriot":10467,"Ġridd":10468,"Ġrigid":10469,"Ġmakeup":10470,"Ġendurance":10471,"owned":10472,"Ġtwink":10473,"Ġtwenty":10474,"atics":10475,"Ġeverybody":10476,"Ġrealm":10477,"Ġrealization":10478,"Ġunders":10479,"Ġunderest":10480,"Ġtalks":10481,"Ġimpat":10482,"Ġimpersonal":10483,"rup":10484,"rurient":10485,"teau":10486,"Ġvign":10487,"anger":10488,"anged":10489,"Ġinsider":10490,"Ġdesired":10491,"gets":10492,"Ġremem":10493,"Ġsmack":10494,"Ġsmash":10495,"achable":10496,"achment":10497,"Ġplots":10498,"Ġplotline":10499,"Ġresent":10500,"Ġresourceful":10501,"ignific":10502,"ĠChÃĥÆĴÃĤ":10503,"ĠChapl":10504,"Ġagit":10505,"Ġaged":10506,"Ġcontend":10507,"Ġcontempt":10508,"Ġheritage":10509,"Ġtrail":10510,"Ġtrace":10511,"Ġbrimming":10512,"ockettes":10513,"Ġunderbel":10514,"Ġunderwritten":10515,"lease":10516,"vently":10517,"Ġromances":10518,"iva":10519,"Ġgreatly":10520,"isticated":10521,"fterschool":10522,"Ġstillborn":10523,"ĠOp":10524,"ĠOld":10525,"ĠOther":10526,"ĠOrange":10527,"ĠOps":10528,"ĠOedekerk":10529,"ĠOleander":10530,"ranagh":10531,"Ġscenic":10532,"Ġawak":10533,"Ġawards":10534,"Ġawesome":10535,"Ġshower":10536,"scra":10537,"umentary":10538,"Ġchees":10539,"Ġcheated":10540,"Ġcheek":10541,"Ġincor":10542,"Ġrelative":10543,"Ġdowns":10544,"Ġscripts":10545,"Ġscripting":10546,"Ġscripted":10547,"gging":10548,"Ġenjoyment":10549,"Insomnia":10550,"symp":10551,"Ġgrave":10552,"olland":10553,"Ġviewed":10554,"Aside":10555,"azy":10556,"Ġbackstage":10557,"Ġstyles":10558,"Ġsetup":10559,"Ġexcited":10560,"Ġcomplet":10561,"Ġhumanizing":10562,"Ġglac":10563,"Ġglaring":10564,"xtap":10565,"Ġengages":10566,"oklyn":10567,"Ġpleasantly":10568,"apped":10569,"Ġstrate":10570,"stery":10571,"Ġcreatures":10572,"Ġguest":10573,"ĠStall":10574,"ĠStitch":10575,"Ġdecon":10576,"Ġdecides":10577,"Ġaccident":10578,"Ġindo":10579,"Ġextr":10580,"Ġextrem":10581,"ailable":10582,"Ġpronou":10583,"Ġpristine":10584,"Ġhighlight":10585,"Ġexplode":10586,"coming":10587,"Ġshenan":10588,"attage":10589,"attling":10590,"Ġcrushing":10591,"guided":10592,"ording":10593,"Ġhorse":10594,"Ġhorrors":10595,"Ġspeculation":10596,"Ġconsuming":10597,"Ġconsolation":10598,"Ġgenerating":10599,"Ġgenerates":10600,"inson":10601,"Ġhistor":10602,"Ġhistrion":10603,"Ġ25":10604,"Ġafternoon":10605,"Ġproduces":10606,"Ġproducer":10607,"Ġexperimental":10608,"Ġbug":10609,"Ġbuzz":10610,"Ġmember":10611,"Ġmemoir":10612,"ofcener":10613,"ĠVal":10614,"ĠVenice":10615,"ĠVilleneuve":10616,"ĠVardalos":10617,"meets":10618,"Ġcoherence":10619,"Ġinstit":10620,"Ġinstance":10621,"Ġpassed":10622,"Ġpassages":10623,"Ġdeepest":10624,"rett":10625,"iculously":10626,"Ġclassy":10627,"Ġclassical":10628,"ubr":10629,"Ġdepra":10630,"Ġaffirming":10631,"Ġdetract":10632,"Ġdetective":10633,"Ġdeterior":10634,"Ġsuperstar":10635,"ĠSpace":10636,"ĠSpirit":10637,"ĠSpring":10638,"Ġpolicy":10639,"Ġstudents":10640,"Ġchildlike":10641,"ĠYard":10642,"ĠYvan":10643,"Ġbelieves":10644,"Ġbelieved":10645,"Ġbelievability":10646,"Ġportraying":10647,"Ġdullest":10648,"Ġanimat":10649,"Ġepip":10650,"Ġepics":10651,"Ġdemean":10652,"Ġexposes":10653,"Ġedits":10654,"ĠShanghai":10655,"ĠShadyac":10656,"ĠShainberg":10657,"ielinsky":10658,"Ġlighter":10659,"Ġlightness":10660,"Ġlighthearted":10661,"Ġmedical":10662,"Ġmeditative":10663,"Ġmorbid":10664,"ĠDean":10665,"ĠDeVito":10666,"Ġevokes":10667,"Ġtransformed":10668,"Ġtransforms":10669,"Ġnarrator":10670,"Ġsmartest":10671,"Ġphrase":10672,"Ġenerg":10673,"Ġshorter":10674,"Star":10675,"Ġunsurpris":10676,"Ġswear":10677,"Ġswoon":10678,"Ġswagg":10679,"Ġsadistic":10680,"ĠScreen":10681,"ĠScrooge":10682,"Ġadding":10683,"Ġaddresses":10684,"button":10685,"Ġmargin":10686,"Ġbrave":10687,"Ġbravery":10688,"Ġretool":10689,"Ġretains":10690,"ĠBeat":10691,"ĠBean":10692,"ĠBeck":10693,"ĠBeij":10694,"ĠBehind":10695,"Ġpsycho":10696,"Ġache":10697,"Ġacute":10698,"Ġopens":10699,"Ġmonstr":10700,"Ġprobing":10701,"Ġnarratively":10702,"Ġwarfare":10703,"Ġcaric":10704,"Ġfactory":10705,"Ġprofess":10706,"Ġprofane":10707,"ĠClancy":10708,"ĠClayburgh":10709,"ĠLeguizamo":10710,"Ġsyrup":10711,"orgeous":10712,"ceeds":10713,"Ġassass":10714,"Ġassuming":10715,"Ġassume":10716,"Ġassassin":10717,"Ġassault":10718,"pliced":10719,"Ġparan":10720,"Ġpotency":10721,"Ġdivide":10722,"Ġequals":10723,"Ġoperates":10724,"Ġpromises":10725,"Ġpromisingly":10726,"chnitz":10727,"sembly":10728,"hetically":10729,"Ġcuteness":10730,"Ġfantast":10731,"Ġmisogy":10732,"Ġmisogyn":10733,"Ġmisguided":10734,"Ġpatron":10735,"aptation":10736,"Ġoddest":10737,"Ġcentered":10738,"Ġcenturies":10739,"Ġheroic":10740,"Ġsinger":10741,"Ġsingular":10742,"Ġoccup":10743,"Ġmuster":10744,"Ġcomplexities":10745,"Ġillog":10746,"Ġillness":10747,"Ġillusion":10748,"Ġbasket":10749,"Ġalongside":10750,"Ġdevotion":10751,"Ġobsessions":10752,"Ġobsessive":10753,"Ġfrot":10754,"Ġmax":10755,"Ġcamer":10756,"Ġcallow":10757,"Ġslightest":10758,"ĠAlan":10759,"ĠAlone":10760,"onymous":10761,"uttering":10762,"Ġsuffoc":10763,"Ġuniverse":10764,"Ġflatulence":10765,"Ġsignpost":10766,"Ġinfidelity":10767,"Chou":10768,"Char":10769,"Charl":10770,"Children":10771,"eye":10772,"Ġsnake":10773,"lett":10774,"lette":10775,"Ġquieter":10776,"aelstrom":10777,"Ġstripped":10778,"ĠBarb":10779,"Ġcreepiness":10780,"Shot":10781,"ĠZhao":10782,"Ġrichness":10783,"ovsky":10784,"ĠArk":10785,"ĠArmen":10786,"wrote":10787,"Ġ85":10788,"Ġ86":10789,"Ġ88":10790,"Ġleth":10791,"Ġletter":10792,"Ġletdown":10793,"Ġdevelopments":10794,"Ġimportantly":10795,"ieldy":10796,"Before":10797,"Everyone":10798,"Ġanticip":10799,"Ġprovoke":10800,"Ġvirtue":10801,"Ġconsiderably":10802,"Ġspectacularly":10803,"Ġfutile":10804,"Ġfuturistic":10805,"Ġgrandi":10806,"Ġtedium":10807,"Ġcorrupt":10808,"Ġcorporate":10809,"Ġballet":10810,"Ġmoods":10811,"Ġprovided":10812,"Ġimprovis":10813,"Ġfeminist":10814,"Ġbreathes":10815,"Ġpossibilities":10816,"Ġdriven":10817,"Ġdrives":10818,"Ġforcefully":10819,"Ġjoys":10820,"Ġjoyful":10821,"Ġtraditions":10822,"Ġunpretentious":10823,"Ġprocession":10824,"Ġreminding":10825,"Ġrolls":10826,"Ġrollicking":10827,"ĠRoberts":10828,"Ġtediously":10829,"Exp":10830,"Except":10831,"boat":10832,"boards":10833,"Ġzomb":10834,"Ġzipp":10835,"Ġfootball":10836,"Ġfootnote":10837,"Ġcurse":10838,"Ġugl":10839,"Ġposturing":10840,"Ġpostmodern":10841,"Ġimpressively":10842,"Ġartistry":10843,"Features":10844,"uracy":10845,"Ġastute":10846,"Ġfulf":10847,"Ġfocusing":10848,"Ġdestiny":10849,"Ġhyster":10850,"Ġskillful":10851,"Ġskillfully":10852,"Ġdepression":10853,"Ġquestionable":10854,"Ġpurport":10855,"Ġhopeless":10856,"Ġhopelessly":10857,"Ġsucceeded":10858,"Ġhorrif":10859,"Ġabsurdly":10860,"Ġabsurdities":10861,"Ġfrustratingly":10862,"axploitation":10863,"Ġtestimony":10864,"Ġcops":10865,"ambles":10866,"ophisticated":10867,"Ġsustained":10868,"Ġcelebratory":10869,"liners":10870,"zzle":10871,"Ġerratic":10872,"Ġsplash":10873,"alters":10874,"Ġnaturalism":10875,"Ġreduce":10876,"Ġreduced":10877,"Ġslapdash":10878,"Ġbloods":10879,"liang":10880,"vils":10881,"Ġgoofball":10882,"Ġintentionally":10883,"Ġprecision":10884,"Ġcollage":10885,"Ġcollabor":10886,"Ġcollaboration":10887,"Ġpunching":10888,"Ġpunishment":10889,"Ġstruggles":10890,"Ġ2000":10891,"Ġphotograph":10892,"Ġcommunal":10893,"Ġbrainless":10894,"Ġrecommendation":10895,"Ġmerits":10896,"Ġcampaign":10897,"Ġpackage":10898,"arcia":10899,"Ġdenied":10900,"Ġlabor":10901,"Ġimmac":10902,"ĠPluto":10903,"ĠFatale":10904,"Ġcontinuity":10905,"Real":10906,"Really":10907,"rums":10908,"Ġcrossed":10909,"ĠInsomnia":10910,"ĠInvincible":10911,"Ġimpressions":10912,"Ġdescription":10913,"Ġuniquely":10914,"Ġfriendships":10915,"Ġtargeted":10916,"Ġaccomplish":10917,"Ġaccomplishes":10918,"spective":10919,"Ġmistaken":10920,"Ġposing":10921,"Ġsucking":10922,"Ġsucked":10923,"Ġconventions":10924,"Ġsuperficially":10925,"ĠQuaid":10926,"Ġidiotic":10927,"Ġsophistication":10928,"Dev":10929,"colm":10930,"Ġtimid":10931,"Ġbargain":10932,"eldom":10933,"ĠBrooklyn":10934,"ĠWeddings":10935,"Ġawkwardness":10936,"Ġlying":10937,"agging":10938,"aggie":10939,"Ġintellectually":10940,"ĠAndrew":10941,"Ġfearless":10942,"consciously":10943,"Unfolds":10944,"Ġescaped":10945,"Spider":10946,"Ġsickly":10947,"Ġmilk":10948,"Ġcalm":10949,"Ġuninvolving":10950,"ĠRocky":10951,"Ġmanipulation":10952,"Ġrapid":10953,"Ġrapidly":10954,"Ġrealistically":10955,"Ġelegance":10956,"market":10957,"Ġfrighteningly":10958,"Ġmurderous":10959,"Ġwaterlog":10960,"Ġhotel":10961,"ĠMehta":10962,"ĠDogtown":10963,"Ġsettle":10964,"Ġsettings":10965,"Ġsettled":10966,"ĠSecretary":10967,"Ġinexper":10968,"Ġaffectionate":10969,"Ġinnocuous":10970,"Ġturnt":10971,"Ġturgid":10972,"Ġethics":10973,"ĠSwedish":10974,"ĠIndians":10975,"Ġdiscord":10976,"Ġdisparate":10977,"Ġsurvival":10978,"Ġsurvivors":10979,"Ġresponse":10980,"Ġcinematographer":10981,"Ġdistinctly":10982,"Ġexpressions":10983,"Ġmodestly":10984,"Ġenthusiast":10985,"Ġridiculousness":10986,"Scotland":10987,"Ġsavage":10988,"Ġburst":10989,"Ġlengthy":10990,"ĠSmith":10991,"ĠCounty":10992,"Ġjuxtap":10993,"Ġartistically":10994,"Ġobjectivity":10995,"ĠOrwell":10996,"Ġglimpses":10997,"Ġembarrassed":10998,"Ġeccentricities":10999,"Whenever":11000,"Ġpitched":11001,"Ġdimension":11002,"Ġlanguorous":11003,"ĠCaruso":11004,"Ġweighty":11005,"ĠEngland":11006,"Ġterrorism":11007,"Ġprotagonists":11008,"Leave":11009,"Steers":11010,"Ġwastes":11011,"Ġbanality":11012,"Ġdrunk":11013,"Ġlayer":11014,"Ġlayered":11015,"Ġloosely":11016,"Ġalternate":11017,"Ġscreams":11018,"Ġvillains":11019,"ĠFreud":11020,"ĠFranklin":11021,"ĠLaisse":11022,"Ġirrelevant":11023,"Ġsymmet":11024,"Ġsignificance":11025,"Ġamateurishly":11026,"Blue":11027,"Ġmillions":11028,"Ġboredom":11029,"Ġpuerile":11030,"Ġpractice":11031,"Ġliberating":11032,"Ġshaped":11033,"ĠPinochet":11034,"Ġspellbind":11035,"Ġwillingness":11036,"Ġradiant":11037,"Ġrecogniz":11038,"Ġmagnetic":11039,"crack":11040,"Ġtackling":11041,"Ġtearjerk":11042,"Ġbodice":11043,"Ġbodily":11044,"Ġpushed":11045,"Ġpicked":11046,"Ġnerves":11047,"Ġproceeds":11048,"Ġoverwhelm":11049,"Ġinsultingly":11050,"Ġtexture":11051,"Ġrecycling":11052,"Ġbenefits":11053,"Seems":11054,"Ġtorture":11055,"Ġprivate":11056,"addle":11057,"ĠSilber":11058,"ĠSweetest":11059,"Ġendeav":11060,"Ġunhappy":11061,"Ġunhurried":11062,"Ġdeception":11063,"ĠMiike":11064,"ĠMiramax":11065,"Ġincoherence":11066,"Ġappearance":11067,"Ġcollectively":11068,"Ġtransporting":11069,"Ġprofessionalism":11070,"Ġcontrivance":11071,"producer":11072,"Ġtuned":11073,"Ġflee":11074,"Ġwaters":11075,"Ġpalatable":11076,"Ġcompliment":11077,"Ġcomplaint":11078,"Ġchaos":11079,"Ġexhausted":11080,"ĠByatt":11081,"ĠByler":11082,"Ġscariest":11083,"Ġscarcely":11084,"Ġlovingly":11085,"Trans":11086,"uccess":11087,"Ġlingers":11088,"Ġnumbing":11089,"Ġnumbingly":11090,"Ġsticky":11091,"Ġensues":11092,"ĠHawke":11093,"ĠGoldie":11094,"ĠGoldmember":11095,"ĠJuliet":11096,"Ġmythic":11097,"Ġdistinguish":11098,"Ġeloquently":11099,"Ġirrespons":11100,"Ġestablished":11101,"Ġvillainous":11102,"Intriguing":11103,"pleasing":11104,"Ġfervently":11105,"Ġmiracul":11106,"Ġcardboard":11107,"Ġpairing":11108,"Ġevident":11109,"Ġearns":11110,"Ġghosts":11111,"Ġstatement":11112,"ĠBerg":11113,"Ġrisks":11114,"Ġimmediately":11115,"ĠGangster":11116,"Ġcheerful":11117,"Ġidealism":11118,"Ġdepartment":11119,"Ġsensuality":11120,"Ġpopularity":11121,"Ġcounterparts":11122,"Ġboxing":11123,"Ġextravagant":11124,"Ġintermittent":11125,"Brings":11126,"Ġboost":11127,"Ġbathos":11128,"Ġdubbed":11129,"Ġdrowns":11130,"Ġdrowned":11131,"Ġhallmark":11132,"ĠSorvino":11133,"Ġenormously":11134,"ĠBowling":11135,"Ġneatly":11136,"Ġpressed":11137,"ĠFraser":11138,"ĠTaymor":11139,"Ġupdating":11140,"Ġfloor":11141,"Ġfloating":11142,"Ġ1975":11143,"Ġjournalism":11144,"Ġpulpy":11145,"Ġshadowy":11146,"Contrived":11147,"trash":11148,"Ġfreaky":11149,"Ġmasoch":11150,"Ġborrows":11151,"Ġborrowed":11152,"Ġinformation":11153,"Ġinformative":11154,"ĠSunday":11155,"Ġscrewball":11156,"ĠDreams":11157,"Ġresolution":11158,"Ġinconsistencies":11159,"Ġrevealed":11160,"Ġrestraint":11161,"Ġcorrectness":11162,"Ġimprovement":11163,"Ġinnovation":11164,"Ġinnovative":11165,"Ġpossesses":11166,"Ġsmoothly":11167,"Ġadequately":11168,"malbaf":11169,"noisse":11170,"writing":11171,"regard":11172,"Ġbaby":11173,"Ġduty":11174,"Ġdutiful":11175,"imonious":11176,"ĠSlackers":11177,"Ġexuberance":11178,"Ġconjures":11179,"ĠMacDowell":11180,"ĠPayne":11181,"ĠGeneration":11182,"ĠLongest":11183,"Ġcompromise":11184,"Ġcompromised":11185,"Ġbackdrops":11186,"Ġgloriously":11187,"Ġglorified":11188,"Ġstrangeness":11189,"Ġdeliberate":11190,"Ġfriendly":11191,"Ġdangerously":11192,"Ġoptimistic":11193,"Ġunbearable":11194,"Ġsanctimony":11195,"Ġsanctimonious":11196,"Consider":11197,"Ġ65":11198,"Ġveneer":11199,"Ġpaean":11200,"Ġhatred":11201,"Ġgiggles":11202,"Ġmoldy":11203,"Ġstagy":11204,"Ġchoreographed":11205,"Ġunfulfilled":11206,"Ġunfulfilling":11207,"ĠAssassin":11208,"ĠPerdition":11209,"Ġweepy":11210,"ĠNaipaul":11211,"ĠKosashvili":11212,"Ġelevated":11213,"Ġelevates":11214,"Ġmiscalcul":11215,"ĠIsrael":11216,"ĠIsraeli":11217,"ĠBrosnan":11218,"Ġmultiple":11219,"Ġmultiplex":11220,"Ġdishonest":11221,"Audiences":11222,"Claude":11223,"Delivers":11224,"Filmmakers":11225,"Impostor":11226,"Viewers":11227,"horror":11228,"putting":11229,"Ġaesthetic":11230,"Ġfetish":11231,"Ġfurious":11232,"Ġhinges":11233,"Ġgeared":11234,"Ġstimulating":11235,"Ġreceive":11236,"Ġchampion":11237,"ĠAhola":11238,"ĠWWII":11239,"Ġvoyeur":11240,"ĠEvelyn":11241,"Ġundercurrent":11242,"Ġnewcomer":11243,"Ġilluminating":11244,"Ġmaddeningly":11245,"ĠColumbine":11246,"Ġblockbusters":11247,"Ġtastelessness":11248,"Collateral":11249,"Jackson":11250,"LaBute":11251,"Nicole":11252,"Return":11253,"discovery":11254,"huang":11255,"Ġtailor":11256,"Ġmishmash":11257,"Ġwedding":11258,"Ġnetwork":11259,"Ġstinker":11260,"ĠSiegel":11261,"Ġenchanting":11262,"Ġunmemorable":11263,"Ġunremarkable":11264,"ĠAuteuil":11265,"Ġjunior":11266,"ĠPaulette":11267,"ĠFuneral":11268,"ĠTestud":11269,"Ġweighs":11270,"ĠEverlasting":11271,"Ġdisquieting":11272,"Ġcontrolled":11273,"Ġrecovery":11274,"Ġrelaxed":11275,"Ġexplanation":11276,"Ġassociated":11277,"Ġcamouflage":11278,"blooded":11279,"Ġcraftsmanship":11280,"grandson":11281,"Ġatmospheric":11282,"ĠMexican":11283,"Ġcircumstances":11284,"Ġhypocris":11285,"Ġbouncy":11286,"Britney":11287,"Definitely":11288,"Obvious":11289,"Sensitive":11290,"Twenty":11291,"driven":11292,"laden":11293,"zilla":11294,"Ġfrozen":11295,"Ġwistful":11296,"Ġthreadbare":11297,"Ġinescapable":11298,"Ġnaughty":11299,"Ġrebellion":11300,"ĠSixth":11301,"Ġchurch":11302,"Ġheightened":11303,"Ġhedonistic":11304,"Ġshimmering":11305,"Ġunblinking":11306,"Ġneurotic":11307,"ĠCircuit":11308,"ĠCrocodile":11309,"erella":11310,"ardotcom":11311,"Ġpermeates":11312,"Ġstoryteller":11313,"ĠRandall":11314,"Ġlearning":11315,"ĠLynch":11316,"Ġsprawling":11317,"ĠJersey":11318,"ĠKilmer":11319,"obiographical":11320,"Ġgraceless":11321,"Ġgloomy":11322,"Ġglamour":11323,"Ġglobe":11324,"Ġaccumul":11325,"Formula":11326,"ĠShowgirls":11327,"ĠScorpion":11328,"Ġprofundity":11329,"Ġmisanthropic":11330,"ĠAlfred":11331,"ĠZealand":11332,"Ġinnuendo":11333,"affected":11334,"ĠBroadway":11335,"alytical":11336,"Ġacknowledges":11337,"Ġovershadowed":11338,"Jacquot":11339,"Meyjes":11340,"Skip":11341,"Sandra":11342,"Succeeds":11343,"Sophie":11344,"Vividly":11345,"feminist":11346,"kilter":11347,"nourished":11348,"nockaround":11349,"Ġtropes":11350,"Ġtrenchant":11351,"Ġmawkish":11352,"Ġwartime":11353,"Ġcumulative":11354,"Ġcogent":11355,"Ġbreadth":11356,"Ġbaggage":11357,"Ġpiquant":11358,"Ġpyrotechnics":11359,"Ġdoldrums":11360,"Ġnuclear":11361,"Ġgrisly":11362,"Ġfortune":11363,"Ġsupremely":11364,"Ġunapolog":11365,"Ġunmention":11366,"ĠAugust":11367,"ĠCinderella":11368,"ĠCapra":11369,"ĠCristo":11370,"ĠHickenlooper":11371,"Ġwhodunit":11372,"ĠWahlberg":11373,"Ġorchestr":11374,"ĠPretty":11375,"ĠFiennes":11376,"ĠFundamentals":11377,"ĠLondon":11378,"Ġsprightly":11379,"ĠJordan":11380,"ĠEarnhart":11381,"Ġvignettes":11382,"ĠChaplin":11383,"Ġunderbelly":11384,"Ġshenanigans":11385,"Ġunsurprising":11386,"ĠBeijing":11387,"chnitzler":11388,"Ġmisogyny":11389,"Ġbasketball":11390,"Ġzippy":11391,"Ġwaterlogged":11392,"ĠLaissez":11393,"Ġspellbinding":11394,"Ġtearjerker":11395,"Ġirresponsible":11396,"10":11397,"80":11398,"90":11399,"Ab":11400,"Aw":11401,"Ast":11402,"Aff":11403,"Acc":11404,"Ass":11405,"Austr":11406,"Art":11407,"Apart":11408,"BA":11409,"Bless":11410,"Beneath":11411,"Based":11412,"Birot":11413,"Bogdanovich":11414,"Co":11415,"Cre":11416,"Cor":11417,"Car":11418,"Cle":11419,"Cool":11420,"Camp":11421,"Cha":11422,"Cox":11423,"Canad":11424,"Catholic":11425,"Culkin":11426,"Di":11427,"Dri":11428,"Doo":11429,"Dem":11430,"Dep":11431,"Dram":11432,"Drag":11433,"Dazz":11434,"Daughter":11435,"Demme":11436,"Diane":11437,"ER":11438,"Ell":11439,"Esc":11440,"Eng":11441,"Fre":11442,"Fer":11443,"Fun":11444,"Fall":11445,"Fair":11446,"Frid":11447,"Fortunately":11448,"Filled":11449,"Finally":11450,"Family":11451,"Foster":11452,"Frida":11453,"Fessenden":11454,"Gl":11455,"Gra":11456,"Gang":11457,"Gold":11458,"Hy":11459,"Hor":11460,"Hel":11461,"Hip":11462,"Hash":11463,"Hands":11464,"Hoffman":11465,"Hugh":11466,"Haneke":11467,"Happily":11468,"IN":11469,"Ir":11470,"Ind":11471,"Ill":11472,"Jul":11473,"Jason":11474,"Kaufman":11475,"Kapur":11476,"Lo":11477,"Lead":11478,"Life":11479,"Lawrence":11480,"Large":11481,"Lewis":11482,"Laugh":11483,"Men":11484,"Mel":11485,"Met":11486,"Might":11487,"Make":11488,"Mary":11489,"Mark":11490,"Mann":11491,"Michael":11492,"Moore":11493,"Muddled":11494,"Miy":11495,"NE":11496,"Nice":11497,"Nearly":11498,"Old":11499,"Odd":11500,"Oscar":11501,"Ozpetek":11502,"Pre":11503,"Pol":11504,"Pay":11505,"Pure":11506,"Pain":11507,"Passion":11508,"Pagl":11509,"Pacino":11510,"Parents":11511,"Please":11512,"Rem":11513,"Rock":11514,"Russ":11515,"Roman":11516,"Remark":11517,"Ritchie":11518,"Rodriguez":11519,"Sn":11520,"Sure":11521,"Spect":11522,"Sever":11523,"Supp":11524,"Soderbergh":11525,"Shyamalan":11526,"Serving":11527,"Since":11528,"Tom":11529,"Tri":11530,"Top":11531,"Talk":11532,"Tarantino":11533,"Tadpole":11534,"Until":11535,"Van":11536,"Vera":11537,"Wit":11538,"Was":11539,"Wow":11540,"Wonder":11541,"Windtalkers":11542,"Wallace":11543,"aan":11544,"aic":11545,"aise":11546,"aims":11547,"ahead":11548,"avern":11549,"ba":11550,"bin":11551,"bon":11552,"bas":11553,"bra":11554,"bam":11555,"bone":11556,"bour":11557,"biz":11558,"bull":11559,"burn":11560,"bution":11561,"busting":11562,"cat":11563,"cal":11564,"cas":11565,"cop":11566,"cap":11567,"creen":11568,"cles":11569,"cool":11570,"cons":11571,"camp":11572,"curd":11573,"cular":11574,"called":11575,"camera":11576,"dles":11577,"dots":11578,"drum":11579,"eor":11580,"eel":11581,"eble":11582,"fr":11583,"fat":11584,"fet":11585,"fri":11586,"fall":11587,"fram":11588,"found":11589,"father":11590,"foot":11591,"fessional":11592,"fangled":11593,"ghe":11594,"gone":11595,"gap":11596,"game":11597,"gress":11598,"ggin":11599,"gium":11600,"glor":11601,"giving":11602,"hack":11603,"hilar":11604,"hots":11605,"hany":11606,"happy":11607,"holds":11608,"hungry":11609,"hmalbaf":11610,"iw":11611,"iard":11612,"iary":11613,"iating":11614,"ioc":11615,"ivers":11616,"ipping":11617,"ipped":11618,"ikes":11619,"jo":11620,"ker":11621,"kien":11622,"kwer":11623,"lay":11624,"live":11625,"lest":11626,"lash":11627,"lantic":11628,"lined":11629,"lastic":11630,"ludes":11631,"large":11632,"may":11633,"mad":11634,"mout":11635,"mull":11636,"master":11637,"nch":11638,"nad":11639,"nest":11640,"nial":11641,"ningly":11642,"nings":11643,"napp":11644,"number":11645,"oks":11646,"pr":11647,"pal":11648,"pot":11649,"pra":11650,"pse":11651,"pus":11652,"pop":11653,"prop":11654,"podge":11655,"popping":11656,"rine":11657,"rÃĥÆĴÃĤ":11658,"sian":11659,"sso":11660,"solid":11661,"size":11662,"snan":11663,"saic":11664,"tle":11665,"takes":11666,"tail":11667,"torn":11668,"takers":11669,"turning":11670,"timer":11671,"uar":11672,"uire":11673,"uence":11674,"uating":11675,"uvers":11676,"ugu":11677,"vs":11678,"vous":11679,"vest":11680,"vile":11681,"vasive":11682,"wit":11683,"wen":11684,"wess":11685,"wink":11686,"worn":11687,"wined":11688,"wright":11689,"wann":11690,"walk":11691,"wai":11692,"washy":11693,"worth":11694,"witz":11695,"wolf":11696,"wattage":11697,"xing":11698,"xious":11699,"xistent":11700,"you":11701,"yate":11702,"yard":11703,"yber":11704,"years":11705,"yazaki":11706,"ykwer":11707,"ziness":11708,"Â¡":11709,"Â±":11710,"Â¼":11711,"ÂŃ":11712,"âĢ":11713,"Ġ=":11714,"Ġi":11715,"Ġil":11716,"Ġiv":11717,"Ġxt":11718,"Ġutil":11719,"Ġtin":11720,"Ġtel":11721,"Ġtant":11722,"Ġtie":11723,"Ġtwe":11724,"Ġtame":11725,"Ġtons":11726,"Ġtatt":11727,"Ġtearing":11728,"Ġtabl":11729,"Ġtattered":11730,"Ġtapping":11731,"Ġtangled":11732,"Ġape":11733,"Ġaute":11734,"Ġauster":11735,"insp":11736,"inwood":11737,"infl":11738,"inished":11739,"hero":11740,"herable":11741,"hepisi":11742,"Ġsul":11743,"Ġsold":11744,"Ġsons":11745,"Ġsky":11746,"Ġsail":11747,"Ġsends":11748,"Ġsights":11749,"Ġsalt":11750,"Ġsavor":11751,"Ġsouthern":11752,"Ġsassy":11753,"Ġspliced":11754,"Ġseldom":11755,"rely":11756,"reve":11757,"rease":11758,"rels":11759,"recher":11760,"refere":11761,"Ġood":11762,"Ġovere":11763,"erri":11764,"erves":11765,"erily":11766,"erred":11767,"eriat":11768,"itar":11769,"itan":11770,"itas":11771,"itical":11772,"itating":11773,"itably":11774,"itals":11775,"itler":11776,"itarian":11777,"itiated":11778,"Ġtheor":11779,"ison":11780,"isco":11781,"enact":11782,"enance":11783,"athe":11784,"atre":11785,"atri":11786,"atner":11787,"atoes":11788,"athered":11789,"Ġfra":11790,"Ġfres":11791,"Ġfert":11792,"Ġfru":11793,"Ġfris":11794,"Ġfiness":11795,"Ġfused":11796,"Ġfashioned":11797,"Ġfarts":11798,"Ġflying":11799,"Ġfaded":11800,"Ġfifty":11801,"Ġfingers":11802,"Ġfalters":11803,"esar":11804,"esus":11805,"esley":11806,"Ġmic":11807,"Ġmine":11808,"Ġmars":11809,"Ġmord":11810,"Ġmidd":11811,"Ġmurd":11812,"Ġmuddy":11813,"Ġmumbo":11814,"Ġwon":11815,"Ġwow":11816,"Ġwore":11817,"Ġwiz":11818,"Ġwaves":11819,"Ġwander":11820,"Ġwanes":11821,"Ġwrenching":11822,"Ġwarned":11823,"Ġwafer":11824,"Ġcow":11825,"Ġcust":11826,"Ġcod":11827,"Ġcoc":11828,"Ġcash":11829,"Ġcars":11830,"Ġcuss":11831,"Ġcatching":11832,"Ġcumbers":11833,"Ġcuis":11834,"Ġcyber":11835,"Ġbent":11836,"Ġbid":11837,"Ġbark":11838,"Ġbru":11839,"Ġbike":11840,"Ġboss":11841,"Ġbib":11842,"Ġbought":11843,"Ġbothers":11844,"Ġbumbling":11845,"orse":11846,"orish":11847,"orbing":11848,"onizing":11849,"ouched":11850,"ouyate":11851,"Ġple":11852,"Ġpoo":11853,"Ġpep":11854,"Ġpore":11855,"Ġpond":11856,"Ġpink":11857,"Ġpian":11858,"Ġpran":11859,"Ġpages":11860,"Ġpoll":11861,"Ġpier":11862,"Ġpump":11863,"Ġpung":11864,"Ġprank":11865,"Ġpadd":11866,"Ġpumm":11867,"Ġprurient":11868,"arling":11869,"arrow":11870,"alth":11871,"alys":11872,"alented":11873,"aliy":11874,"Ġthro":11875,"Ġthri":11876,"Ġthrew":11877,"lymp":11878,"lysian":11879,"Ġdol":11880,"Ġdad":11881,"Ġdire":11882,"Ġdual":11883,"Ġdress":11884,"Ġdamp":11885,"Ġdots":11886,"Ġdoof":11887,"Ġdaught":11888,"Ġdawn":11889,"Ġdivine":11890,"Ġdaughter":11891,"Ġdensely":11892,"Ġdowntown":11893,"Ġduration":11894,"ille":11895,"ilms":11896,"edar":11897,"edience":11898,"edian":11899,"edited":11900,"icine":11901,"iched":11902,"icles":11903,"icially":11904,"icament":11905,"iccated":11906,"Ġtoes":11907,"Ġtoxic":11908,"Ġinj":11909,"Ġink":11910,"Ġinim":11911,"Ġinqu":11912,"Ġinart":11913,"Ġinade":11914,"Ġindu":11915,"Ġinapp":11916,"Ġinvis":11917,"Ġinability":11918,"Ġla":11919,"Ġlam":11920,"Ġlap":11921,"Ġlick":11922,"Ġlens":11923,"Ġlinger":11924,"Ġluster":11925,"Ġluke":11926,"Ġlaser":11927,"Ġlittered":11928,"Ġhood":11929,"Ġhates":11930,"Ġhanging":11931,"Ġhiding":11932,"Ġhinds":11933,"Ġhodge":11934,"Ġhungry":11935,"stabbing":11936,"Ġnine":11937,"Ġnary":11938,"Ġnurt":11939,"Ġnutty":11940,"Ġnudity":11941,"Ġnarrow":11942,"Ġital":11943,"lein":11944,"leted":11945,"league":11946,"utch":11947,"uture":11948,"utting":11949,"Ġech":11950,"Ġeld":11951,"Ġeating":11952,"Ġevol":11953,"Ġecl":11954,"Ġetern":11955,"cting":11956,"ctor":11957,"ctic":11958,"ctive":11959,"ctress":11960,"Ġgy":11961,"Ġgal":11962,"Ġgad":11963,"Ġgong":11964,"Ġgod":11965,"Ġgour":11966,"Ġgained":11967,"Ġgaud":11968,"Ġgeriat":11969,"Ġmoist":11970,"oter":11971,"otics":11972,"otiate":11973,"asis":11974,"asion":11975,"asms":11976,"asma":11977,"eta":11978,"etically":11979,"imel":11980,"imper":11981,"violent":11982,"Ġstal":11983,"Ġstance":11984,"Ġstub":11985,"Ġstreak":11986,"Ġsturd":11987,"Ġstomp":11988,"Ġstorm":11989,"Ġstagg":11990,"Ġstinks":11991,"Ġstreets":11992,"Ġstellar":11993,"Ġstasis":11994,"Ġren":11995,"Ġreap":11996,"Ġrevol":11997,"Ġresem":11998,"Ġreef":11999,"Ġrebel":12000,"Ġreceived":12001,"Ġrekind":12002,"Ġreworking":12003,"rape":12004,"raft":12005,"rader":12006,"rages":12007,"raqui":12008,"raints":12009,"ghan":12010,"Ġbeating":12011,"Ġbearing":12012,"Ġbegging":12013,"ulf":12014,"ulter":12015,"uline":12016,"ulatory":12017,"chi":12018,"cht":12019,"chie":12020,"child":12021,"chief":12022,"chwitz":12023,"roy":12024,"rope":12025,"Ġongoing":12026,"Ġfilming":12027,"Ġanemic":12028,"Ġanalytical":12029,"Ġya":12030,"Ġye":12031,"Ġasking":12032,"Ġassembly":12033,"rie":12034,"rior":12035,"rial":12036,"rious":12037,"riors":12038,"riginal":12039,"olas":12040,"olical":12041,"olita":12042,"olkien":12043,"olitical":12044,"owmaker":12045,"ada":12046,"adre":12047,"Ġforcing":12048,"essentially":12049,"searching":12050,"oops":12051,"Ġwhip":12052,"Ġwhirl":12053,"Ġwhimper":12054,"idents":12055,"idget":12056,"idences":12057,"idowmaker":12058,"Ġsung":12059,"Ġsuicide":12060,"irt":12061,"iration":12062,"irling":12063,"amm":12064,"amic":12065,"amie":12066,"Ġliven":12067,"Ġlivel":12068,"Ġlibr":12069,"Ġlibid":12070,"illo":12071,"illard":12072,"hers":12073,"herry":12074,"agged":12075,"unce":12076,"unge":12077,"unning":12078,"unshine":12079,"ĠSA":12080,"ĠSL":12081,"ĠSO":12082,"ĠSa":12083,"ĠSan":12084,"ĠSven":12085,"ĠSop":12086,"ĠSwe":12087,"ĠSense":12088,"ĠSomet":12089,"ĠSerry":12090,"ĠSatin":12091,"ĠSayles":12092,"ĠSpecial":12093,"Ġchill":12094,"Ġchain":12095,"Ġchoc":12096,"Ġchair":12097,"Ġchokes":12098,"Ġchapt":12099,"Ġchimps":12100,"umacher":12101,"umption":12102,"empl":12103,"emma":12104,"cket":12105,"ousal":12106,"urb":12107,"urved":12108,"Ġintr":12109,"akash":12110,"akata":12111,"Ġenemy":12112,"Ġencomp":12113,"Ġexit":12114,"Ġexal":12115,"Ġexude":12116,"Ġexudes":12117,"Ġexempl":12118,"istence":12119,"istingu":12120,"Ġseams":12121,"Ġseeds":12122,"Ġselection":12123,"Ġsegment":12124,"Ġserene":12125,"Ġheck":12126,"Ġheist":12127,"Ġheated":12128,"Ġheft":12129,"Ġhealing":12130,"Ġheels":12131,"anted":12132,"antet":12133,"Ġnotably":12134,"iveka":12135,"rome":12136,"ested":12137,"esteem":12138,"iforn":12139,"Ġhapless":12140,"ĠBed":12141,"ĠBol":12142,"ĠBus":12143,"ĠBab":12144,"ĠBook":12145,"ĠBale":12146,"ĠBub":12147,"ĠBilly":12148,"ĠBalk":12149,"ĠBander":12150,"ĠBirds":12151,"ĠBogdanovich":12152,"ĠBranagh":12153,"ĠBielinsky":12154,"Ġdod":12155,"Ġabilities":12156,"artic":12157,"Ġsho":12158,"Ġshri":12159,"Ġshall":12160,"Ġshown":12161,"Ġshaking":12162,"Ġsharing":12163,"Ġshrugg":12164,"Ġshades":12165,"Ġshared":12166,"Ġshifts":12167,"Ġunch":12168,"Ġunend":12169,"Ġunac":12170,"Ġunleas":12171,"Ġunimp":12172,"Ġuncond":12173,"Ġunknown":12174,"Ġunsymp":12175,"Ġunaffected":12176,"ainted":12177,"ells":12178,"ellingly":12179,"ellows":12180,"ellini":12181,"Ġconquer":12182,"Ġconverted":12183,"Ġconnoisse":12184,"Ġdece":12185,"Ġdelect":12186,"Ġdevolves":12187,"ĠMo":12188,"ĠMol":12189,"ĠMolly":12190,"ĠMars":12191,"ĠMira":12192,"ĠMey":12193,"ĠMement":12194,"ĠMoney":12195,"ĠMax":12196,"ĠMask":12197,"ĠMuccino":12198,"Ġscant":12199,"Ġscrap":12200,"Ġscorn":12201,"Ġscams":12202,"Ġscatters":12203,"ĠAb":12204,"ĠAus":12205,"ĠAust":12206,"ĠApt":12207,"ĠAsh":12208,"ĠAIDS":12209,"ĠAfterschool":12210,"ĠActress":12211,"Ġneck":12212,"Ġneuro":12213,"ĠCQ":12214,"ĠCan":12215,"ĠCop":12216,"ĠCatch":12217,"ĠCold":12218,"ĠCub":12219,"ĠCele":12220,"ĠCarre":12221,"ĠCont":12222,"ĠCox":12223,"ĠCockettes":12224,"actory":12225,"Ġjar":12226,"Ġjok":12227,"Ġjett":12228,"Ġjugg":12229,"Ġjudge":12230,"Ġjumbo":12231,"Ġjazzy":12232,"ige":12233,"igest":12234,"igrant":12235,"usty":12236,"Ġbygone":12237,"Ġsoot":12238,"Ġsoars":12239,"Ġsorely":12240,"oodle":12241,"pple":12242,"ppingly":12243,"ppled":12244,"ĠHal":12245,"ĠHel":12246,"ĠHus":12247,"ĠHere":12248,"ĠHolly":12249,"ĠHarm":12250,"ĠHerm":12251,"ĠHuman":12252,"ĠHitler":12253,"Ġprost":12254,"Ġproving":12255,"Ġproced":12256,"Ġproof":12257,"Ġprowess":12258,"ffy":12259,"andre":12260,"andid":12261,"andered":12262,"Ġworrying":12263,"Ġplatter":12264,"Ġpluck":12265,"Ġplanet":12266,"udios":12267,"ĠIan":12268,"ĠInt":12269,"ĠIgby":12270,"ĠIwai":12271,"ĠIchi":12272,"indulg":12273,"Ġallusions":12274,"ĠDri":12275,"ĠDoo":12276,"ĠDirector":12277,"ĠDoes":12278,"ĠDrew":12279,"ĠDemme":12280,"ĠDiane":12281,"ĠDante":12282,"Ġfeces":12283,"osh":12284,"osi":12285,"oseless":12286,"terly":12287,"Ġpresc":12288,"Ġpreval":12289,"Ġpreteen":12290,"Ġpregn":12291,"Ġprejud":12292,"opera":12293,"arde":12294,"ackles":12295,"ackaged":12296,"Think":12297,"Thorough":12298,"Throwing":12299,"Ġperple":12300,"Ġpercol":12301,"Ġperfunct":12302,"Ġperils":12303,"Ġpervasive":12304,"Ġran":12305,"Ġrut":12306,"Ġrue":12307,"Ġrans":12308,"Ġrhaps":12309,"Ġrotten":12310,"Ġrushed":12311,"Ġrumination":12312,"ĠWant":12313,"ĠWert":12314,"ĠWang":12315,"ĠWhere":12316,"ĠWonder":12317,"ĠWels":12318,"ĠWalt":12319,"ĠWelcome":12320,"ĠWeeks":12321,"ĠWiseman":12322,"ĠWaiting":12323,"ĠWesley":12324,"ĠWidowmaker":12325,"iever":12326,"pled":12327,"plate":12328,"Ġordeal":12329,"ongru":12330,"Ġkook":12331,"Ġkink":12332,"Ġkiss":12333,"Ġkitten":12334,"Ġkung":12335,"Ġkilling":12336,"Ġkitc":12337,"Ġvon":12338,"Ġvary":12339,"Ġvoid":12340,"Ġvaude":12341,"onely":12342,"Ġimb":12343,"Ġimperfect":12344,"ĠPA":12345,"ĠPB":12346,"ĠPas":12347,"ĠPap":12348,"ĠPear":12349,"ĠPatch":12350,"ĠPelling":12351,"ĠPaid":12352,"ĠPray":12353,"ĠPucc":12354,"ĠPromises":12355,"ĠPossession":12356,"ĠPadre":12357,"ogg":12358,"ogen":12359,"ĠFab":12360,"ĠFirst":12361,"ĠFemme":12362,"ĠFessenden":12363,"ĠFields":12364,"ĠFontaine":12365,"Ġoutwe":12366,"Ġoutbur":12367,"Ġoutshine":12368,"Ġouttakes":12369,"abi":12370,"aboo":12371,"abolical":12372,"resnad":12373,"endiary":12374,"ĠRac":12375,"ĠRib":12376,"ĠRub":12377,"Ġclo":12378,"Ġclad":12379,"Ġclam":12380,"Ġclone":12381,"Ġclaw":12382,"Ġclub":12383,"Ġclapt":12384,"Ġclosed":12385,"Ġclaim":12386,"Ġclaims":12387,"apon":12388,"aped":12389,"apse":12390,"aphys":12391,"odies":12392,"odox":12393,"ĠGU":12394,"ĠGoy":12395,"ĠGian":12396,"ĠGai":12397,"ĠGilliam":12398,"ĠGothic":12399,"ĠGaghan":12400,"ĠGondry":12401,"ĠGarcia":12402,"ĠGeor":12403,"Ġfunctions":12404,"ĠTu":12405,"ĠTake":12406,"ĠTang":12407,"ĠTalk":12408,"ĠTrem":12409,"ĠTerry":12410,"ĠToots":12411,"ĠToro":12412,"ĠTavern":12413,"ĠTouched":12414,"ĠTolkien":12415,"icky":12416,"Ġleather":12417,"Ġleaps":12418,"Ġleaven":12419,"Ġleaks":12420,"Ġleaky":12421,"ineering":12422,"ĠLat":12423,"ĠLan":12424,"ĠLag":12425,"ĠLos":12426,"ĠLost":12427,"ĠLock":12428,"ĠLives":12429,"ĠLetter":12430,"ĠLucy":12431,"ĠLolita":12432,"forman":12433,"Ġspo":12434,"Ġspout":12435,"Ġspine":12436,"Ġspiff":12437,"Ġspins":12438,"Ġspider":12439,"Ġspik":12440,"ictor":12441,"Ġtruck":12442,"Ġmanaging":12443,"reatening":12444,"Ġupset":12445,"Ġqueen":12446,"Ġquaint":12447,"acle":12448,"acoy":12449,"acob":12450,"Ġnoisy":12451,"ĠJr":12452,"ĠJet":12453,"ĠJun":12454,"ĠJie":12455,"ĠJia":12456,"ĠJank":12457,"ĠJeline":12458,"ĠJesus":12459,"ĠJacob":12460,"oury":12461,"ources":12462,"ournal":12463,"Ġflag":12464,"Ġflip":12465,"Ġflav":12466,"Ġflowers":12467,"Ġflattering":12468,"aux":12469,"aughe":12470,"Ġanymore":12471,"that":12472,"thouse":12473,"thirds":12474,"throat":12475,"threatening":12476,"Ġadage":12477,"Ġarm":12478,"Ġarro":12479,"Ġarms":12480,"Ġcomprehensible":12481,"Ġwills":12482,"Ġwebs":12483,"neck":12484,"neath":12485,"Ġenters":12486,"Ġworkout":12487,"ĠThen":12488,"ĠTheater":12489,"ĠTheatre":12490,"Ġoverd":12491,"Ġoverview":12492,"Ġoverstated":12493,"Ġovercook":12494,"Ġoverheated":12495,"Ġwhee":12496,"Ġwheels":12497,"onde":12498,"izer":12499,"izens":12500,"Ġperformer":12501,"Ġperforming":12502,"ĠNine":12503,"ĠNair":12504,"ĠNorton":12505,"ĠNoyce":12506,"ĠNettelbeck":12507,"ĠNBA":12508,"ounds":12509,"Ġpole":12510,"Ġpose":12511,"Ġpoised":12512,"weig":12513,"Ġwaydowntown":12514,"Ġhumble":12515,"Ġhumans":12516,"ishly":12517,"deep":12518,"ideo":12519,"Ġwhatso":12520,"into":12521,"inted":12522,"interest":12523,"ipulative":12524,"ipherable":12525,"ĠEpps":12526,"ĠElysian":12527,"Ġslide":12528,"Ġslug":12529,"Ġslopp":12530,"Ġslender":12531,"Ġsledge":12532,"ĠKim":12533,"ĠKate":12534,"ĠKings":12535,"ĠKang":12536,"ĠKnow":12537,"ĠKane":12538,"ĠKathy":12539,"ĠKwan":12540,"ĠKaren":12541,"ĠKubr":12542,"ĠKnockaround":12543,"ĠKouyate":12544,"Ġample":12545,"Ġsubstand":12546,"Ġsubconscious":12547,"Ġbliss":12548,"Ġblows":12549,"Ġbluster":12550,"Ġblithe":12551,"Ġblaxploitation":12552,"Ġdiscom":12553,"Ġdisorient":12554,"Ġdiscont":12555,"Ġdiscipl":12556,"Ġdisregard":12557,"ocious":12558,"ocated":12559,"oclastic":12560,"Ġrag":12561,"Ġrah":12562,"Ġrape":12563,"Ġracy":12564,"Ġraising":12565,"Ġragged":12566,"Ġraging":12567,"Ġrib":12568,"Ġrig":12569,"Ġriv":12570,"Ġripping":12571,"Ġendings":12572,"Ġenduring":12573,"Ġmegap":12574,"Ġtwaddle":12575,"Ġeverywhere":12576,"Ġrealities":12577,"Ġrealizing":12578,"Ġrealizes":12579,"Ġundistingu":12580,"pecting":12581,"ionship":12582,"Ġlifel":12583,"Ġlifetime":12584,"Ġimperson":12585,"Ġimpossibly":12586,"Ġsurve":12587,"ruly":12588,"Ġvir":12589,"Ġviv":12590,"Ġvibe":12591,"olden":12592,"Ġbadness":12593,"Ġinsistent":12594,"Ġinsignific":12595,"Ġdesert":12596,"Ġdesiccated":12597,"Ġdelusions":12598,"Ġcaf":12599,"Ġcaustic":12600,"Ġwashed":12601,"Ġtea":12602,"Ġteasing":12603,"Ġteeming":12604,"Ġscreenplays":12605,"Ġrose":12606,"Ġotherworld":12607,"Ġserv":12608,"Ġsmear":12609,"Ġsmoot":12610,"Ġsmiling":12611,"Ġsmirk":12612,"Ġresorts":12613,"Ġreserved":12614,"ginners":12615,"Ġ16":12616,"Ġ170":12617,"ĠChanging":12618,"ĠChamber":12619,"Ġagree":12620,"Ġagenda":12621,"Ġagonizing":12622,"Ġcontact":12623,"Ġpartner":12624,"urned":12625,"Ġheartache":12626,"Ġtrap":12627,"Ġtract":12628,"Ġtraffic":12629,"Ġbrash":12630,"Ġbrush":12631,"Ġinterests":12632,"Ġundernourished":12633,"Ġunderneath":12634,"ventful":12635,"ventually":12636,"Ġrecite":12637,"Ġrecalls":12638,"ivated":12639,"Ġowners":12640,"Ġcharacteristic":12641,"Ġcharacterized":12642,"Ġcharacteristically":12643,"hesis":12644,"awed":12645,"ossessed":12646,"obber":12647,"ĠOzpetek":12648,"ĠOlymp":12649,"ranos":12650,"Ġbigot":12651,"Ġnewfangled":12652,"Ġawry":12653,"umbled":12654,"Ġshowdown":12655,"atherine":12656,"Ġcheery":12657,"Ġcheeky":12658,"Ġdocu":12659,"Ġdocuments":12660,"isset":12661,"Ġincapable":12662,"Ġincongru":12663,"Ġincendiary":12664,"Ġrelating":12665,"Ġreliable":12666,"Ġreliance":12667,"Ġrelatives":12668,"Ġdownward":12669,"Ġkinds":12670,"upid":12671,"Ġmighty":12672,"Inter":12673,"Ġattent":12674,"Ġattending":12675,"Ġattached":12676,"Ġfarm":12677,"syn":12678,"sports":12679,"Ġapplies":12680,"Ġgrain":12681,"Ġgradu":12682,"Ġviews":12683,"Ġviewpoint":12684,"arsky":12685,"Ġlaughably":12686,"aza":12687,"azed":12688,"azingly":12689,"Ġbacked":12690,"Ġbackyard":12691,"armingly":12692,"Ġgrate":12693,"Ġplaywright":12694,"ginald":12695,"ltimate":12696,"Ġsetups":12697,"Ġexcl":12698,"Ġmessing":12699,"Ġhumane":12700,"Ġhumanly":12701,"uffy":12702,"uffle":12703,"uffaw":12704,"hereal":12705,"Ġorigin":12706,"Ġorigins":12707,"Ġglow":12708,"Ġglad":12709,"Ġglitz":12710,"Ġpersuasive":12711,"Ġcareers":12712,"Ġstrings":12713,"Ġstrung":12714,"Ġmush":12715,"Ġcreatively":12716,"Ġguide":12717,"ĠStates":12718,"ĠStreet":12719,"ĠStudios":12720,"Ġdecor":12721,"Ġdecision":12722,"Ġaccla":12723,"Ġaccuracy":12724,"Ġextends":12725,"Ġextensive":12726,"Ġpriceless":12727,"Ġdistress":12728,"Ġdistanced":12729,"Ġforms":12730,"Ġformal":12731,"Ġexplor":12732,"Ġexplain":12733,"Ġexplains":12734,"Ġexplicit":12735,"Ġshell":12736,"Ġrefined":12737,"Ġrefuse":12738,"attane":12739,"Ġfinished":12740,"Ġpowerfully":12741,"Ġappeals":12742,"Ġappearing":12743,"Ġappeared":12744,"Notes":12745,"Ġwerewolf":12746,"Ġcrush":12747,"Ġcrashing":12748,"guably":12749,"Ġspeculative":12750,"Ġspecimen":12751,"Ġrepug":12752,"Ġrepulsive":12753,"Ġgenerated":12754,"Ġgenerations":12755,"inselt":12756,"inski":12757,"Ġcolumn":12758,"fluous":12759,"Ġ24":12760,"Ġ26":12761,"Ġafterthought":12762,"Ġbites":12763,"Ġdrained":12764,"Ġdragged":12765,"Ġbuoy":12766,"Ġbubble":12767,"Ġelbows":12768,"Ġespion":12769,"Ġmemorial":12770,"ĠVer":12771,"ĠVery":12772,"ĠVegg":12773,"asculine":12774,"Ġyoungsters":12775,"Ġinstruct":12776,"Ġdialog":12777,"Ġintelligently":12778,"concept":12779,"overed":12780,"Ġpersonas":12781,"Forget":12782,"Ġmelt":12783,"iculate":12784,"ampires":12785,"ĠSecond":12786,"Ġclassified":12787,"iaries":12788,"Ġsexually":12789,"Ġaffable":12790,"Ġaffirm":12791,"Ġsuperhero":12792,"Ġsuperfluous":12793,"ĠSpader":12794,"ĠSprecher":12795,"Ġ1940":12796,"Ġtoug":12797,"Ġelevate":12798,"Ġchildish":12799,"Ġhanded":12800,"Ġhandic":12801,"Ġhandling":12802,"Ġhandles":12803,"ridge":12804,"Ġbelief":12805,"Ġabsence":12806,"Ġanimal":12807,"Ġmusicians":12808,"Ġpainting":12809,"Ġpainted":12810,"Ġterrif":12811,"Ġfascinate":12812,"Ġfascinated":12813,"Ġfascinates":12814,"Ġdemograph":12815,"Ġexpands":12816,"Ġexpanded":12817,"Ġeffortless":12818,"cope":12819,"cores":12820,"coaster":12821,"Ġedition":12822,"Ġputrid":12823,"ĠShrek":12824,"ĠShafer":12825,"ĠBloody":12826,"riched":12827,"Ġlights":12828,"Ġlightly":12829,"Ġworkshop":12830,"Ġmedicine":12831,"Ġunease":12832,"Ġuneasily":12833,"Ġuneventful":12834,"Ġfailings":12835,"Ġmorose":12836,"Ġmoronic":12837,"Ġinterludes":12838,"odrama":12839,"Ġcinematically":12840,"Ġdefine":12841,"Ġdefiantly":12842,"Ġtransition":12843,"Ġtransgressive":12844,"Ġnarration":12845,"Ġstrands":12846,"Ġpsyched":12847,"Ġpsyche":12848,"Ġphon":12849,"Ġlasting":12850,"Stay":12851,"Stale":12852,"Stephen":12853,"Ġsuspension":12854,"Ġunsus":12855,"Ġunsuccess":12856,"Ġsway":12857,"Ġswipe":12858,"Ġswitches":12859,"Ġsadism":12860,"ĠUp":12861,"ĠUltimate":12862,"Ġcommended":12863,"Ġcommands":12864,"Ġcommitment":12865,"ĠScience":12866,"ĠSchepisi":12867,"Ġexpecting":12868,"Ġengagingly":12869,"offs":12870,"Ġmarred":12871,"Ġbrazen":12872,"Ġpopulation":12873,"Ġretal":12874,"Ġretreat":12875,"Ġretelling":12876,"ĠBeach":12877,"ĠBeginners":12878,"Ġconfron":12879,"Ġconfines":12880,"Ġconfined":12881,"Ġconfusion":12882,"Ġobviousness":12883,"Ġstrongest":12884,"Ġpsychic":12885,"Ġpsychopath":12886,"Ġsurefire":12887,"Ġops":12888,"Ġheaded":12889,"ortune":12890,"undrum":12891,"annis":12892,"Ġstaring":12893,"Ġstarred":12894,"Ġtragically":12895,"Ġsatisfied":12896,"Ġsatisfactory":12897,"ecent":12898,"ecuted":12899,"Ġcarved":12900,"Ġcarrying":12901,"Ġfacts":12902,"Ġreasonable":12903,"Ġmission":12904,"Ġprofession":12905,"Ġwinners":12906,"Ġcouples":12907,"Ġcoupled":12908,"Ġboiler":12909,"Ġboils":12910,"Ġboisterous":12911,"Ġboorish":12912,"ĠClose":12913,"ĠLevy":12914,"Ġquirkiness":12915,"Ġasset":12916,"Ġparad":12917,"Ġpotbo":12918,"Ġdiversity":12919,"Ġdiabolical":12920,"Ġmoderately":12921,"ĠNews":12922,"ĠNewton":12923,"Ġsubtler":12924,"Ġdramatics":12925,"Ġdelighted":12926,"Ġoperatic":12927,"Ġpromotes":12928,"Ġsuccesses":12929,"Ġsuccessor":12930,"center":12931,"Ġtreated":12932,"Ġtreatise":12933,"Ġhelping":12934,"Attal":12935,"Ġ93":12936,"Ġ94":12937,"Ġsoup":12938,"Ġineff":12939,"Ġoccur":12940,"Ġoccurs":12941,"Ġconstraints":12942,"ientious":12943,"Ġdevote":12944,"Ġflawless":12945,"clusive":12946,"goers":12947,"Ġcamarad":12948,"urdened":12949,"Ġdumbness":12950,"ĠStewart":12951,"Ġvalid":12952,"Ġvaliantly":12953,"ĠReal":12954,"ĠReese":12955,"ĠRevenge":12956,"ĠReginald":12957,"ĠRobinson":12958,"Ġstylist":12959,"Ġstylings":12960,"Ġgrie":12961,"Ġgrip":12962,"Ġreverence":12963,"ĠAliens":12964,"ĠAlmod":12965,"Ġadventures":12966,"ervice":12967,"Ġreadily":12968,"ĠAna":12969,"ĠAnna":12970,"ĠDiscovery":12971,"Ġaffected":12972,"Ġaffectation":12973,"Ġveins":12974,"Ġnormal":12975,"Ġsufficient":12976,"osedly":12977,"Allen":12978,"Ġdaydream":12979,"Ġnoncon":12980,"Ġnonjud":12981,"ulgar":12982,"Ġembell":12983,"Ġinfinitely":12984,"Ġmotor":12985,"Ġmotives":12986,"Ġrests":12987,"Chilling":12988,"Charming":12989,"Chicago":12990,"show":12991,"shod":12992,"shoot":12993,"Ġsnap":12994,"Ġsnore":12995,"Ġsnail":12996,"Ġfanatics":12997,"ouds":12998,"Ġregister":12999,"Ġregards":13000,"Ġregurg":13001,"Ġurgent":13002,"Ġoccasion":13003,"Ġfoundation":13004,"Ġstrip":13005,"ĠBarrels":13006,"Ġquickie":13007,"Ġdetailing":13008,"Shakespeare":13009,"Shanghai":13010,"aiian":13011,"ĠSchumacher":13012,"ĠSchweig":13013,"Ġexamples":13014,"Ġsecondhand":13015,"Weird":13016,"Ġmetal":13017,"Ġmetaphys":13018,"Ġforgets":13019,"Ġconceptual":13020,"ĠArarat":13021,"Ġapproached":13022,"Ġapproaches":13023,"afing":13024,"grass":13025,"Ġ84":13026,"Ġ87":13027,"Ġairs":13028,"Ġairless":13029,"Ġcapability":13030,"Ġgrowth":13031,"Ġcombust":13032,"Ġpoetically":13033,"Ġexploits":13034,"Ġexploiting":13035,"Ġhilariously":13036,"Ġconvincingly":13037,"Been":13038,"Being":13039,"Becomes":13040,"Ġminus":13041,"Ġminimum":13042,"Ġwindows":13043,"Ġinvitation":13044,"Ġinvites":13045,"Ġdeaths":13046,"Ġprovoc":13047,"ĠIsle":13048,"Somewhere":13049,"Somehow":13050,"Ġdreamed":13051,"Ġdreamlike":13052,"ĠHarrison":13053,"Ġescort":13054,"Ġcorpse":13055,"Ġbalances":13056,"Ġdamning":13057,"ĠCrimen":13058,"Ġtwisty":13059,"Ġtwisting":13060,"Ġdeliciously":13061,"Ġachieved":13062,"Ġavant":13063,"Ġavalan":13064,"Ġavailable":13065,"ĠMystery":13066,"Ġauto":13067,"Ġautop":13068,"Ġautobiographical":13069,"Ġderives":13070,"Ġderived":13071,"ĠBrits":13072,"Ġuntalented":13073,"Ġunturned":13074,"Ġapproaching":13075,"Ġfiguring":13076,"Ġfigured":13077,"Ġcostly":13078,"ormously":13079,"Ġparental":13080,"Ġgentility":13081,"Ġgenteel":13082,"Ġprocessed":13083,"ĠDavies":13084,"Ġrolled":13085,"Ġopened":13086,"nected":13087,"Ġinventiveness":13088,"Ġthoughtfulness":13089,"Expect":13090,"Exactly":13091,"blance":13092,"Ġtheatres":13093,"Ġwaits":13094,"Ġcounts":13095,"Ġintimid":13096,"Ġexisting":13097,"ĠAmÃĥÆĴÃĤ":13098,"ĠAmbro":13099,"ĠIII":13100,"Ġpresenting":13101,"Ġverge":13102,"Ġastron":13103,"Ġfulfilling":13104,"Ġfocuses":13105,"Ġdestructive":13106,"Ġdestroy":13107,"Ġdigit":13108,"Ġforgiven":13109,"Ġforgiveness":13110,"ĠAdrian":13111,"Ġroute":13112,"Ġofferings":13113,"Ġquestioning":13114,"Ġ48":13115,"Ġtypically":13116,"Ġpurposeless":13117,"Ġshoots":13118,"ĠMcDowell":13119,"ĠMcKay":13120,"ĠGodzilla":13121,"Ġrespects":13122,"Ġrespectful":13123,"Ġinclination":13124,"Ġfrustrated":13125,"Moretti":13126,"Ġessay":13127,"Ġtestimon":13128,"Ġconditions":13129,"Ġcondensed":13130,"Ġnonexistent":13131,"Ġhaunts":13132,"ĠBigelow":13133,"Ġfavored":13134,"ĠStevens":13135,"Ġconflicts":13136,"Ġcelebrated":13137,"zzzz":13138,"Ġerrors":13139,"Ġcritique":13140,"Ġcriticism":13141,"alta":13142,"Ġknot":13143,"grave":13144,"Ġingrat":13145,"realist":13146,"Ġforemost":13147,"ifyingly":13148,"Ġconnected":13149,"ĠMonte":13150,"Ġplainly":13151,"handedness":13152,"Ġfreight":13153,"Ġfrequent":13154,"Ġframes":13155,"Ġmadcap":13156,"Ġcollide":13157,"Ġpunches":13158,"Ġrevels":13159,"Ġvariations":13160,"Ġempire":13161,"Ġtriumphs":13162,"Ġtriumphant":13163,"ĠYorkers":13164,"Ġmercy":13165,"Ġdeny":13166,"Ġdenou":13167,"Ġdenizens":13168,"Ġlabel":13169,"Ġlaborious":13170,"isteringly":13171,"Ġimmers":13172,"Ġimmense":13173,"Ġimmature":13174,"Ġimmigrant":13175,"ĠPlace":13176,"Ġsparks":13177,"Ġsparkles":13178,"Ġroads":13179,"Ġsupposedly":13180,"Ġfallen":13181,"Ġcrosses":13182,"Ġpubl":13183,"Ġhipness":13184,"Ġmotherhood":13185,"Ġsuggesting":13186,"Ġsuggestion":13187,"Ġdogs":13188,"ĠDanish":13189,"ĠDanang":13190,"ĠGuard":13191,"Ġdescends":13192,"Ġdetermine":13193,"Ġaccomplishment":13194,"uggery":13195,"Ġannals":13196,"Ġmoviegoer":13197,"Ġclosest":13198,"Ġclosure":13199,"Ġgrounds":13200,"Ġgrounded":13201,"Ġgroundbreaking":13202,"ĠQuills":13203,"ĠQuinn":13204,"Ġidiot":13205,"Deep":13206,"Death":13207,"colored":13208,"Ġnamely":13209,"Ġredneck":13210,"Ġcomfortably":13211,"ĠMarg":13212,"ĠMargar":13213,"ĠWeaver":13214,"ĠWednes":13215,"Ġmannerisms":13216,"Ġamazement":13217,"Ġrocket":13218,"Ġconstructs":13219,"Plod":13220,"heads":13221,"Ġwildlife":13222,"Ġbrightly":13223,"orrows":13224,"Ġlimitations":13225,"Ġexhib":13226,"Ġfearlessness":13227,"ĠGoodall":13228,"Ġskinny":13229,"Ġtickets":13230,"Ġaimlessly":13231,"Ġsickening":13232,"Ġmilest":13233,"Ġwondered":13234,"Ġwondrous":13235,"Ġcalib":13236,"Ġhammy":13237,"rolls":13238,"Ġcommerce":13239,"Ġuninitiated":13240,"ĠAtlantic":13241,"Ġriveted":13242,"Ġrecords":13243,"Ġimaginatively":13244,"Ġelegiac":13245,"ĠUnited":13246,"Ġincluded":13247,"aturity":13248,"Ġfrighten":13249,"Ġmidway":13250,"Ġmidlife":13251,"Ġwisely":13252,"Ġhotdog":13253,"Ġintrospective":13254,"Ġencourage":13255,"ĠDogma":13256,"Ġchecking":13257,"Ġrepresented":13258,"Ġportrayed":13259,"Ġportrayals":13260,"Ġdemonstration":13261,"Ġdemonstrating":13262,"Ġmarvelously":13263,"Ġinexorably":13264,"Ġsuperficiality":13265,"loving":13266,"Ġturbul":13267,"Ġcircle":13268,"Ġcircus":13269,"Ġcircles":13270,"Ġdominated":13271,"Ġhyped":13272,"Ġethos":13273,"ĠSwimming":13274,"Ġdiscourse":13275,"Ġsurviving":13276,"Ġsurrounds":13277,"Ġsurrounded":13278,"Ġsurroundings":13279,"Ġrespond":13280,"Ġexcessively":13281,"Screen":13282,"Scooby":13283,"Scherfig":13284,"Ġschiz":13285,"Ġmachin":13286,"ĠSmoking":13287,"ĠHolofcener":13288,"Ġcompetition":13289,"Ġrooted":13290,"ĠOrd":13291,"ĠOrgasm":13292,"ĠOrchard":13293,"Ġcourageous":13294,"Ġembarrassing":13295,"Ġsleeping":13296,"Ġcommercialism":13297,"Ġeccentricity":13298,"Adm":13299,"Adults":13300,"Adaptation":13301,"tainment":13302,"Ġignites":13303,"Ġtiresomely":13304,"Ġswept":13305,"Ġsweep":13306,"Ġdimin":13307,"Ġbeaten":13308,"Ġunrepent":13309,"ĠCarol":13310,"ĠRenner":13311,"ĠTrapped":13312,"Ġspookiness":13313,"Ġtricky":13314,"Ġadolescence":13315,"Ġweightless":13316,"Ġmusicals":13317,"Ġconsiders":13318,"Ġaccepting":13319,"Ġacceptance":13320,"Leaves":13321,"function":13322,"Ġtourists":13323,"Ġopts":13324,"Ġoption":13325,"Ġwryly":13326,"Ġstirs":13327,"Ġstretch":13328,"Ġconceal":13329,"ĠMorgan":13330,"Ġneglig":13331,"Ġnegotiate":13332,"Ġplods":13333,"ĠFrankenstein":13334,"ĠGlover":13335,"ĠLaure":13336,"Ġspotlight":13337,"Ġcompassionate":13338,"Ġcontrast":13339,"Ġirreve":13340,"Ġirrevoc":13341,"Ġsignificantly":13342,"Ġdescribes":13343,"Blade":13344,"Blanc":13345,"Enjoy":13346,"Enigma":13347,"Enormously":13348,"Gooding":13349,"Ġsolace":13350,"Ġfacial":13351,"Ġmatched":13352,"Ġmillenn":13353,"Ġphysically":13354,"Ġrendering":13355,"Ġaspires":13356,"Ġliberation":13357,"Ġalienate":13358,"Ġalienating":13359,"ĠNotorious":13360,"Ġ1995":13361,"Ġ1998":13362,"Ġ1999":13363,"ropriate":13364,"Ġineptly":13365,"ĠQueens":13366,"Conaughe":13367,"Ġ72":13368,"Ġramp":13369,"Ġtacky":13370,"Ġpushing":13371,"Ġhideously":13372,"ĠBurr":13373,"ĠBurkin":13374,"ĠBurstein":13375,"ĠPalestinian":13376,"Ġclimate":13377,"Ġoverwhelms":13378,"Ġoverwhelmed":13379,"Ġtravelogue":13380,"Ġrecycles":13381,"Ġgrimly":13382,"Ġreflects":13383,"Ġ1952":13384,"Ġembracing":13385,"Ġsplendor":13386,"Americans":13387,"Seagal":13388,"Ġcameo":13389,"Ġcameos":13390,"Ġpride":13391,"Ġprivile":13392,"Ġdysfunction":13393,"Ġgamesmanship":13394,"Ġsunk":13395,"Ġdeceptions":13396,"ĠMiami":13397,"ĠMiyazaki":13398,"ĠAfghan":13399,"ĠConan":13400,"ploe":13401,"Ġvolume":13402,"Ġvolumes":13403,"ĠRedgrave":13404,"Ġremaining":13405,"Ġ110":13406,"Ġpaintings":13407,"Ġtransparent":13408,"Ġtransparently":13409,"Ġprofessionals":13410,"production":13411,"Ġmotivation":13412,"Ġcruelly":13413,"Ġnostalgic":13414,"Ġtenor":13415,"Ġtenacious":13416,"Ġtunes":13417,"Ġmentality":13418,"Ġwatches":13419,"Ġbrio":13420,"Ġpileup":13421,"Ġgrownups":13422,"Ġcomplain":13423,"ĠSonny":13424,"Ġexhaust":13425,"Ġunwieldy":13426,"ĠCraig":13427,"ĠCraven":13428,"Ġknee":13429,"Ġvulgarity":13430,"ĠGraham":13431,"Ġsmoother":13432,"Ġbackgrounds":13433,"Ġexplosive":13434,"Ġ1980":13435,"Ġ1982":13436,"Ġ1984":13437,"Ġcrackle":13438,"Ġconditioning":13439,"Ġfoolish":13440,"Ġmalaise":13441,"Ġcategor":13442,"Ġbaffled":13443,"Ġthreatens":13444,"Ġnavel":13445,"ĠnaÃĥÆĴÃĤ":13446,"Ġgroove":13447,"Ġensn":13448,"Ġensures":13449,"ĠBartlett":13450,"ĠHayek":13451,"ĠHawaiian":13452,"ĠLilia":13453,"ĠJulia":13454,"Ġobscured":13455,"Ġmythology":13456,"Ġappropriately":13457,"Ġdistinguishes":13458,"Ġresponsibility":13459,"Ġinfluences":13460,"Ġinfluenced":13461,"Complete":13462,"Interesting":13463,"Quite":13464,"Quitting":13465,"fests":13466,"Ġtemptation":13467,"Ġmounted":13468,"Ġmountain":13469,"Ġcryst":13470,"Ġethereal":13471,"Ġearned":13472,"ĠSnatch":13473,"ĠBern":13474,"ĠImpostor":13475,"Ġruined":13476,"Ġrisky":13477,"Ġimmediacy":13478,"ĠCharlotte":13479,"Ġreligion":13480,"Ġidealistic":13481,"Ġsatiric":13482,"Ġwitnessed":13483,"Ġinevitably":13484,"Ġhandsomely":13485,"ĠAfrica":13486,"ĠDickensian":13487,"Brilli":13488,"Meandering":13489,"Slow":13490,"Slap":13491,"Whereas":13492,"notically":13493,"Ġtorpor":13494,"Ġtormented":13495,"Ġtendency":13496,"Ġmasses":13497,"Ġmassive":13498,"Ġbounces":13499,"Ġbede":13500,"Ġboobs":13501,"Ġdaft":13502,"Ġlosers":13503,"Ġlucky":13504,"Ġluckiest":13505,"Ġeconomic":13506,"seeking":13507,"ĠBelgium":13508,"ĠMagnol":13509,"ĠMagimel":13510,"ĠCollinwood":13511,"ĠHotel":13512,"ĠDenzel":13513,"Ġpressure":13514,"ĠWelles":13515,"Ġclothing":13516,"Ġupdate":13517,"Ġupdated":13518,"Ġblowing":13519,"Ġrobust":13520,"Ġartifact":13521,"Ġawareness":13522,"Ġterminally":13523,"Ġdistracting":13524,"Ġdistracted":13525,"Ġmaintaining":13526,"Ġjournalist":13527,"Ġsubstitutes":13528,"Ġsophomore":13529,"Ġcalculating":13530,"ĠSugarman":13531,"Contains":13532,"trick":13533,"Ġodor":13534,"Ġfragment":13535,"Ġmasquer":13536,"Ġmasala":13537,"Ġcorners":13538,"Ġbombastic":13539,"Ġbordering":13540,"Ġparking":13541,"Ġladies":13542,"Ġhoary":13543,"Ġsuitably":13544,"ĠSarah":13545,"ĠMusket":13546,"Ġscrewed":13547,"Ġjolt":13548,"Ġjolting":13549,"Ġjolts":13550,"Ġsociology":13551,"Ġsociopath":13552,"ĠGosford":13553,"ĠEdward":13554,"Ġdisgust":13555,"Ġresolutions":13556,"ĠOlivier":13557,"Ġindication":13558,"Ġindicates":13559,"Ġdepicts":13560,"Ġcontemplation":13561,"Ġexistentialism":13562,"Ġcontradiction":13563,"Ġinhabitants":13564,"Barney":13565,"noir":13566,"oepp":13567,"Ġtemper":13568,"Ġsandw":13569,"Ġsneaks":13570,"Ġmurk":13571,"Ġwounds":13572,"Ġdilemma":13573,"Ġtolerate":13574,"Ġtolerable":13575,"Ġtolerance":13576,"Ġlunatic":13577,"Ġanchor":13578,"Ġsuddenly":13579,"Ġexuberant":13580,"Ġseparation":13581,"Ġunbelievably":13582,"Ġconjured":13583,"Ġconcoct":13584,"Ġconsequence":13585,"Ġprevails":13586,"Ġperpetual":13587,"Ġperpetrated":13588,"Ġvastly":13589,"ĠGeneral":13590,"ĠLiu":13591,"ĠLiotta":13592,"ĠJanuary":13593,"ĠJesse":13594,"ĠJacques":13595,"Ġsubplot":13596,"Ġdramatization":13597,"Ġcontroversial":13598,"awareness":13599,"Ġcleaner":13600,"Ġguarantee":13601,"Ġexperimentation":13602,"Ġdeliberately":13603,"Ġironies":13604,"ĠLeonard":13605,"Ġiconoclastic":13606,"Ġgimmicky":13607,"Ġenvironmental":13608,"Ġphenomenon":13609,"Ġspontaneous":13610,"Godard":13611,"aimi":13612,"Ġtrees":13613,"Ġtreacher":13614,"Ġtreading":13615,"Ġskewed":13616,"Ġcrosso":13617,"Ġbreed":13618,"Ġbothered":13619,"Ġbowel":13620,"Ġinsecurity":13621,"Ġlaws":13622,"Ġgreedy":13623,"Ġgleefully":13624,"Ġgleaned":13625,"Ġgiggle":13626,"Ġanarchic":13627,"Ġyawning":13628,"ĠSoft":13629,"Ġchoreography":13630,"Ġenhance":13631,"Ġenhances":13632,"Ġsecrets":13633,"Ġseverely":13634,"ĠBridget":13635,"ĠMichele":13636,"ĠMichelle":13637,"Ġscrut":13638,"ĠAssayas":13639,"ĠCaesar":13640,"ĠHitchcockian":13641,"Ġorganic":13642,"ĠResident":13643,"ĠTunis":13644,"ĠTunney":13645,"ĠTucker":13646,"ĠJeong":13647,"Ġfleshed":13648,"ĠKosminsky":13649,"ĠKenneth":13650,"Ġteachers":13651,"Ġparticipants":13652,"Ġcondescension":13653,"Ġschmaltz":13654,"ĠWesterners":13655,"Boasts":13656,"McKay":13657,"Murderous":13658,"Pretty":13659,"aaaa":13660,"lowicz":13661,"picious":13662,"Ġfrenzy":13663,"Ġfrenetic":13664,"Ġfuriously":13665,"Ġcocky":13666,"Ġdiva":13667,"Ġdollar":13668,"Ġrevulsion":13669,"Ġabundant":13670,"Ġconcentrates":13671,"ĠMattei":13672,"ĠCaliforn":13673,"ĠCampanella":13674,"ĠDiary":13675,"Ġpredicament":13676,"Ġimplicit":13677,"Ġimplications":13678,"ĠPeploe":13679,"ĠFranc":13680,"ĠRomanek":13681,"Ġsprink":13682,"ĠJuan":13683,"ĠJuwann":13684,"Ġovertly":13685,"Ġoverstuffed":13686,"Ġtravails":13687,"Ġtravesty":13688,"Ġundercuts":13689,"Ġreconcil":13690,"Ġrecreates":13691,"Ġnewcomers":13692,"Ġindulgence":13693,"Ġelectric":13694,"Ġdefeated":13695,"Ġdefeats":13696,"Ġoppressively":13697,"Ġmaddening":13698,"Ġsacrificing":13699,"Ġneglected":13700,"Ġarchitecture":13701,"Confessions":13702,"Ġblockbuster":13703,"Uneven":13704,"turner":13705,"Ġtonal":13706,"Ġtissue":13707,"Ġtissues":13708,"Ġfiend":13709,"Ġfondness":13710,"Ġfundamental":13711,"Ġpuppet":13712,"Ġtoothless":13713,"Ġhippie":13714,"Ġsterling":13715,"Ġstifling":13716,"Ġstalker":13717,"Ġbuttons":13718,"ĠBuÃĥÆĴÃĤ":13719,"ĠBorstal":13720,"ĠMaids":13721,"ĠAltar":13722,"ĠAltman":13723,"ĠAbbass":13724,"ĠCoen":13725,"ĠImamura":13726,"ĠDelh":13727,"ĠWaters":13728,"Ġvicious":13729,"Ġvacuum":13730,"Ġvulnerable":13731,"Ġvulnerability":13732,"Ġoutsiders":13733,"ĠLohman":13734,"ĠLiman":13735,"ĠLiza":13736,"ĠLizard":13737,"Ġtroubled":13738,"Ġmanifesto":13739,"Ġqueens":13740,"Ġqueasy":13741,"Ġadrenaline":13742,"ĠErrol":13743,"Ġblurry":13744,"Ġracist":13745,"Ġracism":13746,"Ġimpulse":13747,"Ġimpulses":13748,"Ġinsufferable":13749,"ĠChaiken":13750,"Ġpartnership":13751,"Ġincarnation":13752,"Ġindifferent":13753,"Ġindifference":13754,"Ġunfolding":13755,"Ġmonumental":13756,"Ġnormally":13757,"Ġopposite":13758,"Ġunexplored":13759,"Exciting":13760,"Ġdisturbingly":13761,"ĠAntonia":13762,"Ġheartbreakingly":13763,"Ġhealthy":13764,"Ġsymbols":13765,"absorbed":13766,"absorption":13767,"Ġunrelenting":13768,"Ġunrelentingly":13769,"Ġallegedly":13770,"Ġtumultuous":13771,"Ġaccompanying":13772,"Combines":13773,"Denis":13774,"Dogtown":13775,"Renner":13776,"Romanek":13777,"Terrific":13778,"Under":13779,"droppingly":13780,"houri":13781,"pressible":13782,"smart":13783,"suffering":13784,"Ġtactics":13785,"Ġaplomb":13786,"Ġfifteen":13787,"Ġmuseum":13788,"Ġwallowing":13789,"Ġcrippled":13790,"Ġcrammed":13791,"Ġcathartic":13792,"Ġcarnage":13793,"Ġbankrupt":13794,"Ġpompous":13795,"Ġinquisitive":13796,"Ġlurking":13797,"Ġninety":13798,"Ġgamble":13799,"Ġintolerable":13800,"ĠBMW":13801,"Ġconscience":13802,"ĠMalcolm":13803,"ĠAyurved":13804,"ĠAustralia":13805,"ĠAlexandre":13806,"Ġjerking":13807,"Ġproficient":13808,"ĠInterview":13809,"ĠDouglas":13810,"Ġruthless":13811,"ĠPython":13812,"ĠPatric":13813,"ĠFriel":13814,"ĠRatliff":13815,"ĠRaymond":13816,"ĠGallo":13817,"ĠGriffiths":13818,"ĠLooking":13819,"Ġsporadically":13820,"ĠJoseph":13821,"Ġadvertised":13822,"Ġcomprehension":13823,"Ġlobby":13824,"Ġcannibal":13825,"Ġoverlooked":13826,"ĠEisenstein":13827,"Ġslippery":13828,"Ġriffs":13829,"Ġprincess":13830,"Ġprincipals":13831,"Ġcoincidence":13832,"ĠSeptember":13833,"Ġswashbuckling":13834,"Ġsaddled":13835,"ĠScarlet":13836,"Ġbravura":13837,"Ġparallels":13838,"Ġsummertime":13839,"Ġobserve":13840,"Ġcapitalize":13841,"Ġexecutive":13842,"Ġvirtuosity":13843,"Ġautomatically":13844,"ĠAmaro":13845,"Ġhomosexuality":13846,"Ġcandidate":13847,"Ġconspicuous":13848,"Ġpanoramic":13849,"Ġhallucinatory":13850,"Ġnarcissism":13851,"Ġdiscernible":13852,"Ġdisintegrating":13853,"Secretary":13854,"congratulatory":13855,"Ġsabotaged":13856,"Brosnan":13857,"Directors":13858,"Hilarious":13859,"Mattei":13860,"Represents":13861,"Using":13862,"bodied":13863,"drawn":13864,"satisfied":13865,"uhrman":13866,"Ġsaucy":13867,"Ġpadding":13868,"Ġprism":13869,"Ġdizzying":13870,"Ġtomorrow":13871,"Ġinadvertently":13872,"Ġlaudable":13873,"Ġhorses":13874,"Ġnicest":13875,
[...]
