{
  "version": "1.0",
  "truncation": null,
  "padding": null,
  "added_tokens": [
    {
      "id": 0,
      "content": "<|endoftext|>",
      "single_word": false,
      "lstrip": false,
      "rstrip": false,
      "normalized": false,
      "special": true
    }
  ],
  "normalizer": null,
  "pre_tokenizer": {
    "type": "ByteLevel",
    "add_prefix_space": false,
    "trim_offsets": true,
    "use_regex": true
  },
  "post_processor": {
    "type": "ByteLevel",
    "add_prefix_space": true,
    "trim_offsets": false,
    "use_regex": true
  },
  "decoder": {
    "type": "ByteLevel",
    "add_prefix_space": true,
    "trim_offsets": true,
    "use_regex": true
  },
  "model": {
    "type": "BPE",
    "dropout": null,
    "unk_token": null,
    "continuing_subword_prefix": null,
    "end_of_word_suffix": null,
    "fuse_unk": false,
    "byte_fallback": false,
    "ignore_merges": false,
    "vocab": {
      "<|endoftext|>": 0,
      "!": 1,
      "#": 2,
      "$": 3,
      "%": 4,
      "&": 5,
      "'": 6,
      "(": 7,
      ")": 8,
      "*": 9,
      "+": 10,
      ",": 11,
      "-": 12,
      ".": 13,
      "/": 14,
      "0": 15,
      "1": 16,
      "2": 17,
      "3": 18,
      "4": 19,
      "5": 20,
      "6": 21,
      "7": 22,
      "8": 23,
      "9": 24,
      ":": 25,
      ";": 26,
      "=": 27,
      "?": 28,
      "\\": 29,
      "`": 30,
      "a": 31,
      "b": 32,
      "c": 33,
      "d": 34,
      "e": 35,
      "f": 36,
      "g": 37,
      "h": 38,
      "i": 39,
      "j": 40,
      "k": 41,
      "l": 42,
      "m": 43,
      "n": 44,
      "o": 45,
      "p": 46,
      "q": 47,
      "r": 48,
      "s": 49,
      "t": 50,
      "u": 51,
      "v": 52,
      "w": 53,
      "x": 54,
      "y": 55,
      "z": 56,
      "¡": 57,
      "¢": 58,
      "£": 59,
      "¦": 60,
      "§": 61,
      "¨": 62,
      "©": 63,
      "¯": 64,
      "±": 65,
      "³": 66,
      "´": 67,
      "¶": 68,
      "»": 69,
      "¼": 70,
      "Â": 71,
      "Ã": 72,
      "Ġ": 73,
      "Ń": 74,
      "Ġt": 75,
      "Ġa": 76,
      "in": 77,
      "he": 78,
      "Ġs": 79,
      "re": 80,
      "Ġ.": 81,
      "Ġo": 82,
      "er": 83,
      "it": 84,
      "Ġthe": 85,
      "Ġ,": 86,
      "Ġf": 87,
      "is": 88,
      "en": 89,
      "Ġm": 90,
      "at": 91,
      "Ġb": 92,
      "Ġc": 93,
      "Ġw": 94,
      "ing": 95,
      "es": 96,
      "nd": 97,
      "or": 98,
      "on": 99,
      "ou": 100,
      "Ġp": 101,
      "Ġof": 102,
      "an": 103,
      "Ġd": 104,
      "ar": 105,
      "Ġand": 106,
      "al": 107,
      "Ġth": 108,
      "ly": 109,
      "Ġh": 110,
      "le": 111,
      "ic": 112,
      "Ġto": 113,
      "Ġ'": 114,
      "Ġin": 115,
      "ed": 116,
      "il": 117,
      "Ġl": 118,
      "om": 119,
      "Ġn": 120,
      "st": 121,
      "Ġit": 122,
      "Ġe": 123,
      "Ġg": 124,
      "Ġis": 125,
      "ut": 126,
      "ct": 127,
      "el": 128,
      "Ġmo": 129,
      "ent": 130,
      "ion": 131,
      "as": 132,
      "ot": 133,
      "ve": 134,
      "Ġthat": 135,
      "Ġst": 136,
      "im": 137,
      "Ġbe": 138,
      "vi": 139,
      "Ġre": 140,
      "ra": 141,
      "Ġu": 142,
      "gh": 143,
      "the": 144,
      "ver": 145,
      "ro": 146,
      "ul": 147,
      "ch": 148,
      "ce": 149,
      "Ġfil": 150,
      "Ġon": 151,
      "Ġan": 152,
      "et": 153,
      "Ġfilm": 154,
      "Ġy": 155,
      "Ġas": 156,
      "ith": 157,
      "ri": 158,
      "ke": 159,
      "ol": 160,
      "ay": 161,
      "ow": 162,
      "ad": 163,
      "Ġfor": 164,
      "Ġwith": 165,
      "vie": 166,
      "se": 167,
      "ess": 168,
      "Ġbut": 169,
      "Ġwh": 170,
      "oo": 171,
      "Ġyou": 172,
      "Ġsu": 173,
      "ir": 174,
      "Ġcom": 175,
      "id": 176,
      "if": 177,
      "Ġits": 178,
      "Ġch": 179,
      "Ġmovie": 180,
      "th": 181,
      "am": 182,
      "Ġal": 183,
      "ers": 184,
      "Ġhe": 185,
      "ab": 186,
      "un": 187,
      "ill": 188,
      "Ġj": 189,
      "ag": 190,
      "um": 191,
      "Ġse": 192,
      "ck": 193,
      "ght": 194,
      "ous": 195,
      "..": 196,
      "em": 197,
      "Ġen": 198,
      "ur": 199,
      "Ġint": 200,
      "Ġthis": 201,
      "Ġli": 202,
      "Ġex": 203,
      "ak": 204,
      "out": 205,
      "ld": 206,
      "ist": 207,
      "Ġsh": 208,
      "qu": 209,
      "rom": 210,
      "Ġab": 211,
      "Ġnot": 212,
      "Ġha": 213,
      "ation": 214,
      "Ġdo": 215,
      "ant": 216,
      "Ġde": 217,
      "ally": 218,
      "ive": 219,
      "est": 220,
      "'t": 221,
      "Ġun": 222,
      "ire": 223,
      "ure": 224,
      "Ġne": 225,
      "Ġsc": 226,
      "Ġcon": 227,
      "ain": 228,
      "ast": 229,
      "art": 230,
      "pe": 231,
      "Ġ-": 232,
      "ell": 233,
      "Ġat": 234,
      "Ġwor": 235,
      "Ġk": 236,
      "ate": 237,
      "ity": 238,
      "Ġso": 239,
      "act": 240,
      "ough": 241,
      "ig": 242,
      "Ġby": 243,
      "ory": 244,
      "us": 245,
      "ust": 246,
      "ap": 247,
      "able": 248,
      "for": 249,
      "ood": 250,
      "Ġare": 251,
      "Ġchar": 252,
      "and": 253,
      "Ġpro": 254,
      "Ġr": 255,
      "Ġ--": 256,
      "Ġabout": 257,
      "Ġmore": 258,
      "Ġthan": 259,
      "Ġhas": 260,
      "Ġall": 261,
      "Ġlike": 262,
      "Ġsom": 263,
      "op": 264,
      "Ġpl": 265,
      "ould": 266,
      "ful": 267,
      "Ġact": 268,
      "Ġone": 269,
      "ight": 270,
      "Ġfrom": 271,
      "one": 272,
      "Ġfe": 273,
      "ud": 274,
      "ind": 275,
      "ven": 276,
      "Ġhave": 277,
      "ere": 278,
      "ter": 279,
      "her": 280,
      "very": 281,
      "Ġle": 282,
      "Ġhis": 283,
      "Ġpre": 284,
      "ge": 285,
      "os": 286,
      "ff": 287,
      "Ġv": 288,
      "Ġ...": 289,
      "all": 290,
      "Ġwho": 291,
      "Ġsp": 292,
      "ard": 293,
      "Ġper": 294,
      "Ġor": 295,
      "ack": 296,
      "pt": 297,
      "ial": 298,
      "Ġim": 299,
      "Ġcl": 300,
      "Ġstory": 301,
      "ong": 302,
      "ect": 303,
      "itt": 304,
      "ie": 305,
      "pl": 306,
      "hing": 307,
      "Ġ`": 308,
      "irect": 309,
      "pp": 310,
      "Ġcharact": 311,
      "Ġout": 312,
      "ime": 313,
      "ake": 314,
      "res": 315,
      "end": 316,
      "ence": 317,
      "ble": 318,
      "man": 319,
      "Ġfun": 320,
      "Ġ)": 321,
      "Ġman": 322,
      "ious": 323,
      "Ġam": 324,
      "ces": 325,
      "Ġqu": 326,
      "ort": 327,
      "Ġtr": 328,
      "Ġlo": 329,
      "ick": 330,
      "ies": 331,
      "ine": 332,
      "de": 333,
      "ict": 334,
      "Ġno": 335,
      "ram": 336,
      "ert": 337,
      "are": 338,
      "Ġup": 339,
      "ves": 340,
      "reat": 341,
      "ther": 342,
      "Ġar": 343,
      "ook": 344,
      "Ġwe": 345,
      "ac": 346,
      "og": 347,
      "Ġi": 348,
      "Ġfl": 349,
      "Ġtoo": 350,
      "per": 351,
      "ich": 352,
      "Ġmost": 353,
      "edy": 354,
      "au": 355,
      "Ġinto": 356,
      "our": 357,
      "ary": 358,
      "Ġjust": 359,
      "Ġthr": 360,
      "Ġwill": 361,
      "Ġad": 362,
      "Ġgood": 363,
      "Ġdirect": 364,
      "ite": 365,
      "od": 366,
      "Ġsome": 367,
      "ore": 368,
      "com": 369,
      "Ġany": 370,
      "we": 371,
      "Ġmu": 372,
      "Ġcomp": 373,
      "ile": 374,
      "Ġdoes": 375,
      "Ġcan": 376,
      "ical": 377,
      "ass": 378,
      "Ġpo": 379,
      "age": 380,
      "nt": 381,
      "oy": 382,
      "ment": 383,
      "Ġent": 384,
      "Ġro": 385,
      "Ġwork": 386,
      "akes": 387,
      "Ġus": 388,
      "Ġbl": 389,
      "ep": 390,
      "Ġwhe": 391,
      "Ġover": 392,
      "Ġcomedy": 393,
      "Ġmuch": 394,
      "ult": 395,
      "ny": 396,
      "elf": 397,
      "ise": 398,
      "iz": 399,
      "Ġtime": 400,
      "ue": 401,
      "Ġperfor": 402,
      "Ġem": 403,
      "this": 404,
      "Ġdis": 405,
      "ry": 406,
      "nder": 407,
      "ating": 408,
      "Ġoff": 409,
      "ear": 410,
      "ound": 411,
      "Ġway": 412,
      "ark": 413,
      "ens": 414,
      "Ġwhat": 415,
      "Ġhum": 416,
      "Ġbet": 417,
      "wh": 418,
      "Ġ(": 419,
      "Ġif": 420,
      "Ġ''": 421,
      "int": 422,
      "ertain": 423,
      "Ġcharacters": 424,
      "Ġfeel": 425,
      "rit": 426,
      "ide": 427,
      "Ġperforman": 428,
      "Ġeven": 429,
      "Ġsl": 430,
      "ish": 431,
      "ated": 432,
      "atch": 433,
      "Ġwell": 434,
      "less": 435,
      "ving": 436,
      "ice": 437,
      "ip": 438,
      "Ġra": 439,
      "ittle": 440,
      "reen": 441,
      "Ġget": 442,
      "wn": 443,
      "Ġme": 444,
      "ness": 445,
      "ance": 446,
      "Ġfa": 447,
      "Ġlittle": 448,
      "ull": 449,
      "Ġonly": 450,
      "ade": 451,
      "Ġsub": 452,
      "Ġri": 453,
      "ife": 454,
      "cc": 455,
      "ense": 456,
      "ual": 457,
      "ne": 458,
      "Ġtw": 459,
      "Ġlook": 460,
      "Ġtheir": 461,
      "ingly": 462,
      "ose": 463,
      "sp": 464,
      "Ġgo": 465,
      "oc": 466,
      "Ġyour": 467,
      "ost": 468,
      "Ġmake": 469,
      "Ġevery": 470,
      "Ġfunny": 471,
      "Ġimp": 472,
      "Ġthem": 473,
      "ative": 474,
      "ings": 475,
      "vel": 476,
      "Ġtal": 477,
      "Ġreal": 478,
      "own": 479,
      "Ġvi": 480,
      "atic": 481,
      "Ġgen": 482,
      "ience": 483,
      "Ġbeen": 484,
      "Ġend": 485,
      "pect": 486,
      "Ġmay": 487,
      "ions": 488,
      "Ġsomet": 489,
      "Ġ``": 490,
      "Ġdram": 491,
      "Ġthere": 492,
      "ans": 493,
      "Ġlove": 494,
      "Ġenough": 495,
      "ily": 496,
      "Ġnever": 497,
      "ents": 498,
      "...": 499,
      "Ġbad": 500,
      "ame": 501,
      "Ġsur": 502,
      "ress": 503,
      "ild": 504,
      "Ġvery": 505,
      "Ġbr": 506,
      "Ġwas": 507,
      "ll": 508,
      "Ġthey": 509,
      "old": 510,
      "ang": 511,
      "led": 512,
      "Ġte": 513,
      "Ġdes": 514,
      "Ġdel": 515,
      "ph": 516,
      "Ġdirector": 517,
      "Ġseem": 518,
      "aking": 519,
      "Ġrem": 520,
      "ber": 521,
      "Ġmakes": 522,
      "ond": 523,
      "Ġwould": 524,
      "Ġlife": 525,
      "hed": 526,
      "Ġsm": 527,
      "Ġbest": 528,
      "Ġwhich": 529,
      "Ġser": 530,
      "so": 531,
      "Ġscreen": 532,
      "sh": 533,
      "Ġother": 534,
      "Ġstr": 535,
      "vers": 536,
      "Ġsee": 537,
      "Ġnew": 538,
      "ren": 539,
      "ty": 540,
      "Ġher": 541,
      "ting": 542,
      "Ġmat": 543,
      "Ġentertain": 544,
      "Ġthrough": 545,
      "Ġcont": 546,
      "ays": 547,
      "Ġpe": 548,
      "Ġhow": 549,
      "but": 550,
      "ris": 551,
      "Ġ?": 552,
      "li": 553,
      "Ġag": 554,
      "ably": 555,
      "ately": 556,
      "ling": 557,
      "Ġtra": 558,
      "ach": 559,
      "ign": 560,
      "Ġ1": 561,
      "Ġplot": 562,
      "ved": 563,
      "ink": 564,
      "ors": 565,
      "Ġwhen": 566,
      "red": 567,
      "Ġcould": 568,
      "Ġwatch": 569,
      "vies": 570,
      "erest": 571,
      "gin": 572,
      "Ġ:": 573,
      "Ġaud": 574,
      "Ġunder": 575,
      "Ġlong": 576,
      "ional": 577,
      "Ġpart": 578,
      "Ġrom": 579,
      "Ġfam": 580,
      "other": 581,
      "there": 582,
      "ath": 583,
      "Ġmovies": 584,
      "Ġyear": 585,
      "imes": 586,
      "Ġheart": 587,
      "urn": 588,
      "Ġart": 589,
      "eric": 590,
      "ually": 591,
      "Ġmy": 592,
      "Ġjo": 593,
      "Ġbig": 594,
      "ject": 595,
      "les": 596,
      "Ġres": 597,
      "inem": 598,
      "Ġinterest": 599,
      "ism": 600,
      "Ġmin": 601,
      "leas": 602,
      "ash": 603,
      "Ġshould": 604,
      "vent": 605,
      "ible": 606,
      "ffect": 607,
      "ace": 608,
      "sc": 609,
      "Ġcr": 610,
      "Ġsomething": 611,
      "Ġgreat": 612,
      "uct": 613,
      "its": 614,
      "Ġmade": 615,
      "oth": 616,
      "Ġreally": 617,
      "ying": 618,
      "Ġob": 619,
      "Ġcast": 620,
      "Ġcinem": 621,
      "Ġcharacter": 622,
      "ian": 623,
      "Ġhol": 624,
      "Ġown": 625,
      "istic": 626,
      "Ġaction": 627,
      "iv": 628,
      "hes": 629,
      "imp": 630,
      "Ġshow": 631,
      "Ġche": 632,
      "Ġtwo": 633,
      "Ġthrill": 634,
      "mer": 635,
      "Ġaw": 636,
      "Ġwar": 637,
      "view": 638,
      "Ġperformances": 639,
      "Ġins": 640,
      "irst": 641,
      "Ġvis": 642,
      "Ġdrama": 643,
      "now": 644,
      "pec": 645,
      "elling": 646,
      "ft": 647,
      "Ġstill": 648,
      "Ġfilms": 649,
      "oss": 650,
      "igh": 651,
      "Ġmany": 652,
      "aw": 653,
      "aut": 654,
      "Ġke": 655,
      "ree": 656,
      "Ġgr": 657,
      "ople": 658,
      "be": 659,
      "Ġco": 660,
      "ute": 661,
      "Ġpeople": 662,
      "Ġatt": 663,
      "Ġlau": 664,
      "Ġgi": 665,
      "what": 666,
      "te": 667,
      "Ġcle": 668,
      "Ġhard": 669,
      "Ġscen": 670,
      "Ġtri": 671,
      "ript": 672,
      "Ġdown": 673,
      "ome": 674,
      "con": 675,
      "Ġfar": 676,
      "ause": 677,
      "Ġhumor": 678,
      "ather": 679,
      "row": 680,
      "ument": 681,
      "ations": 682,
      "get": 683,
      "Ġfirst": 684,
      "Ġfilmm": 685,
      "Ġemot": 686,
      "Ġbetter": 687,
      "umb": 688,
      "Ġdoc": 689,
      "iss": 690,
      "fort": 691,
      "icture": 692,
      "Ġter": 693,
      "Ġpicture": 694,
      "ss": 695,
      "arly": 696,
      "Ġgra": 697,
      "Ġscript": 698,
      "der": 699,
      "up": 700,
      "Ġcol": 701,
      "Ġthose": 702,
      "Ġbeing": 703,
      "joy": 704,
      "Ġaf": 705,
      "Ġwo": 706,
      "Ġless": 707,
      "Ġmom": 708,
      "Ġkind": 709,
      "ning": 710,
      "ock": 711,
      "Ġap": 712,
      "Ġmight": 713,
      "ages": 714,
      "gg": 715,
      "ten": 716,
      "Ġrel": 717,
      "Ġenjoy": 718,
      "Ġfr": 719,
      "most": 720,
      "Ġca": 721,
      "Ġwithout": 722,
      "Ġdocument": 723,
      "wood": 724,
      "Ġold": 725,
      "ature": 726,
      "ower": 727,
      "Ġworld": 728,
      "like": 729,
      "Ġaudience": 730,
      "Ġever": 731,
      "Ġrec": 732,
      "cept": 733,
      "Ġalso": 734,
      "Ġpret": 735,
      "Ġameric": 736,
      "sy": 737,
      "Ġgu": 738,
      "ib": 739,
      "ks": 740,
      "Ġself": 741,
      "ought": 742,
      "ars": 743,
      "Ġlack": 744,
      "thing": 745,
      "av": 746,
      "iff": 747,
      "Ġeng": 748,
      "fully": 749,
      "ween": 750,
      "Ġsurp": 751,
      "Ġsense": 752,
      "utes": 753,
      "Ġworth": 754,
      "Ġplay": 755,
      "Ġview": 756,
      "Ġbel": 757,
      "Ġback": 758,
      "not": 759,
      "Ġwant": 760,
      "vid": 761,
      "Ġnothing": 762,
      "Ġcharm": 763,
      "Ġfind": 764,
      "Ġpoint": 765,
      "Ġlaugh": 766,
      "Ġhere": 767,
      "Ġknow": 768,
      "az": 769,
      "Ġapp": 770,
      "Ġboth": 771,
      "Ġbetween": 772,
      "Ġlot": 773,
      "Ġgl": 774,
      "Ġsty": 775,
      "Ġfew": 776,
      "Ġperformance": 777,
      "Ġset": 778,
      "Ġthing": 779,
      "Ġexc": 780,
      "Ġdep": 781,
      "Ġsat": 782,
      "Ġbec": 783,
      "Ġneed": 784,
      "Ġkid": 785,
      "Ġanother": 786,
      "Ġsuch": 787,
      "Ġhuman": 788,
      "ginal": 789,
      "here": 790,
      "uc": 791,
      "Ġmess": 792,
      "ner": 793,
      "uff": 794,
      "Ġ;": 795,
      "Ġide": 796,
      "Ġori": 797,
      "Ġpers": 798,
      "Ġinc": 799,
      "Ġcomple": 800,
      "even": 801,
      "ky": 802,
      "lywood": 803,
      "antic": 804,
      "ney": 805,
      "Ġmus": 806,
      "ates": 807,
      "Ġpr": 808,
      "ale": 809,
      "Ġbecause": 810,
      "lt": 811,
      "Ġcare": 812,
      "apt": 813,
      "Ġminutes": 814,
      "ount": 815,
      "Ġseems": 816,
      "Ġturn": 817,
      "Ġoften": 818,
      "Ġind": 819,
      "Ġult": 820,
      "ross": 821,
      "though": 822,
      "arr": 823,
      "ically": 824,
      "Ġel": 825,
      "Ġthriller": 826,
      "ex": 827,
      "ia": 828,
      "Ġpleas": 829,
      "Ġthink": 830,
      "Ġhigh": 831,
      "Ġbeaut": 832,
      "iful": 833,
      "Ġkeep": 834,
      "Ġdra": 835,
      "Ġdocumentary": 836,
      "Ġoriginal": 837,
      "ination": 838,
      "Ġshe": 839,
      "Ġfin": 840,
      "Ġeffect": 841,
      "Ġbecom": 842,
      "Ġext": 843,
      "Ġtale": 844,
      "Ġsk": 845,
      "Ġph": 846,
      "Ġagain": 847,
      "Ġir": 848,
      "ts": 849,
      "Ġquite": 850,
      "while": 851,
      "ater": 852,
      "Ġcreat": 853,
      "Ġrep": 854,
      "Ġform": 855,
      "Ġultim": 856,
      "Ġswe": 857,
      "Ġfull": 858,
      "Ġbu": 859,
      "Ġpower": 860,
      "arn": 861,
      "ster": 862,
      "app": 863,
      "Ġinteresting": 864,
      "gu": 865,
      "ys": 866,
      "Ġ!": 867,
      "Ġwom": 868,
      "iness": 869,
      "Ġsin": 870,
      "Ġmar": 871,
      "Ġwere": 872,
      "Ġwhile": 873,
      "Ġhollywood": 874,
      "fl": 875,
      "me": 876,
      "no": 877,
      "Ġac": 878,
      "Ġdist": 879,
      "ics": 880,
      "olog": 881,
      "Ġalmost": 882,
      "Ġexpl": 883,
      "ered": 884,
      "Ġfeels": 885,
      "to": 886,
      "ins": 887,
      "Ġhim": 888,
      "Ġref": 889,
      "Ġitself": 890,
      "Ġdec": 891,
      "Ġentertaining": 892,
      "Ġromantic": 893,
      "Ġfilmmak": 894,
      "Ġsurpris": 895,
      "king": 896,
      "Ġsimp": 897,
      "Ġpol": 898,
      "anc": 899,
      "ane": 900,
      "Ġhor": 901,
      "Ġafter": 902,
      "Ġappe": 903,
      "Ġes": 904,
      "Ġspec": 905,
      "Ġseen": 906,
      "iece": 907,
      "you": 908,
      "Ã£": 909,
      "Ġrather": 910,
      "direct": 911,
      "ons": 912,
      "Ġyet": 913,
      "Ġright": 914,
      "Ġmoments": 915,
      "pite": 916,
      "aster": 917,
      "Ġfamily": 918,
      "Ġamerican": 919,
      "\\/": 920,
      "fore": 921,
      "ng": 922,
      "Ġtake": 923,
      "Ġfri": 924,
      "ality": 925,
      "Ġho": 926,
      "Ġhist": 927,
      "Ġeas": 928,
      "vious": 929,
      "Ġcons": 930,
      "riter": 931,
      "ither": 932,
      "Ġprod": 933,
      "Ġimag": 934,
      "cess": 935,
      "Ġ2": 936,
      "Ġmem": 937,
      "Ġcar": 938,
      "Ġcra": 939,
      "Ġhad": 940,
      "lect": 941,
      "str": 942,
      "Ġev": 943,
      "Ġthese": 944,
      "Ġmel": 945,
      "Ġbit": 946,
      "alf": 947,
      "ility": 948,
      "Ġexper": 949,
      "ward": 950,
      "ering": 951,
      "Ġsex": 952,
      "Ġrun": 953,
      "ogue": 954,
      "dict": 955,
      "ially": 956,
      "Ġsol": 957,
      "Ġmor": 958,
      "Ġdiff": 959,
      "ionally": 960,
      "Ġyoung": 961,
      "Ġcomes": 962,
      "Ġacting": 963,
      "Ġwhere": 964,
      "of": 965,
      "Ġed": 966,
      "Ġsch": 967,
      "Ġinv": 968,
      "ste": 969,
      "ures": 970,
      "ellig": 971,
      "Ġsubject": 972,
      "Ġperson": 973,
      "Ġsame": 974,
      "read": 975,
      "Ġour": 976,
      "ences": 977,
      "Ġcult": 978,
      "ange": 979,
      "asc": 980,
      "ason": 981,
      "Ġcome": 982,
      "Ġdeli": 983,
      "fect": 984,
      "ition": 985,
      "Ġmi": 986,
      "Ġcre": 987,
      "Ġport": 988,
      "Ġpass": 989,
      "Ġthought": 990,
      "Ġbefore": 991,
      "Ġsuper": 992,
      "irl": 993,
      "Ġdial": 994,
      "ils": 995,
      "Ġsequ": 996,
      "Ġintellig": 997,
      "ms": 998,
      "xt": 999,
      "Ġtimes": 1000,
      "Ġthen": 1001,
      "Ġmon": 1002,
      "Ġhour": 1003,
      "ase": 1004,
      "Ġstand": 1005,
      "Ġactors": 1006,
      "Ġlea": 1007,
      "ship": 1008,
      "Ġmater": 1009,
      "by": 1010,
      "Ġsil": 1011,
      "Ġthings": 1012,
      "Ġclass": 1013,
      "Ġgets": 1014,
      "Ġsince": 1015,
      "air": 1016,
      "iet": 1017,
      "ub": 1018,
      "Ġbro": 1019,
      "icul": 1020,
      "ching": 1021,
      "amp": 1022,
      "Ġhapp": 1023,
      "min": 1024,
      "Ġsay": 1025,
      "Ġmind": 1026,
      "Ġanim": 1027,
      "ired": 1028,
      "Ġultimately": 1029,
      "Ġdialogue": 1030,
      "Ġmaterial": 1031,
      "self": 1032,
      "uck": 1033,
      "Ġtou": 1034,
      "Ġtakes": 1035,
      "Ġsit": 1036,
      "ream": 1037,
      "ord": 1038,
      "Ġdet": 1039,
      "Ġstud": 1040,
      "Ġchild": 1041,
      "Ġscenes": 1042,
      "director": 1043,
      "dd": 1044,
      "isf": 1045,
      "iment": 1046,
      "Ġbeautiful": 1047,
      "ues": 1048,
      "with": 1049,
      "als": 1050,
      "Ġhalf": 1051,
      "empt": 1052,
      "Ġflick": 1053,
      "Ġgener": 1054,
      "Ġ19": 1055,
      "Ġmusic": 1056,
      "ier": 1057,
      "iar": 1058,
      "erg": 1059,
      "Ġfasc": 1060,
      "Ġdid": 1061,
      "rif": 1062,
      "Ġhand": 1063,
      "play": 1064,
      "co": 1065,
      "Ġtit": 1066,
      "Ġsw": 1067,
      "Ġdem": 1068,
      "ently": 1069,
      "irit": 1070,
      "Ġwatching": 1071,
      "Ġbelie": 1072,
      "att": 1073,
      "Ġwr": 1074,
      "ains": 1075,
      "Ġcompelling": 1076,
      "Ġwonder": 1077,
      "Ġportra": 1078,
      "vo": 1079,
      "Ġdark": 1080,
      "que": 1081,
      "gether": 1082,
      "Ġyears": 1083,
      "Ġsweet": 1084,
      "ror": 1085,
      "ines": 1086,
      "Ġabs": 1087,
      "hen": 1088,
      "Ġthough": 1089,
      "Ġlast": 1090,
      "Ġemotional": 1091,
      "Ġspecial": 1092,
      "day": 1093,
      "Ġz": 1094,
      "ret": 1095,
      "Ġwit": 1096,
      "Ġpain": 1097,
      "Ġhar": 1098,
      "Ġep": 1099,
      "Ġstart": 1100,
      "Ġexp": 1101,
      "Ġleast": 1102,
      "ends": 1103,
      "Ġcinema": 1104,
      "Ġvisual": 1105,
      "Ġfascin": 1106,
      "ffort": 1107,
      "kes": 1108,
      "Ġput": 1109,
      "Ġdull": 1110,
      "ilar": 1111,
      "Ġeffort": 1112,
      "Ġpredict": 1113,
      "ogra": 1114,
      "ccess": 1115,
      "Ġkids": 1116,
      "ger": 1117,
      "Ġmed": 1118,
      "Ġele": 1119,
      "Ġinter": 1120,
      "using": 1121,
      "Ġfamil": 1122,
      "iel": 1123,
      "Ġsou": 1124,
      "Ġbor": 1125,
      "eless": 1126,
      "Ġstar": 1127,
      "ract": 1128,
      "Ġproble": 1129,
      "Ġclever": 1130,
      "oot": 1131,
      "ted": 1132,
      "Ġsa": 1133,
      "Ġpiece": 1134,
      "Ġlight": 1135,
      "Ġdef": 1136,
      "Ġdeep": 1137,
      "Ġgoing": 1138,
      "Ġentertainment": 1139,
      "io": 1140,
      "inc": 1141,
      "era": 1142,
      "itive": 1143,
      "Ġey": 1144,
      "Ġgive": 1145,
      "ider": 1146,
      "Ġsec": 1147,
      "uring": 1148,
      "deo": 1149,
      "ized": 1150,
      "Ġgives": 1151,
      "son": 1152,
      "oll": 1153,
      "ists": 1154,
      "Ġpres": 1155,
      "odram": 1156,
      "Ġworks": 1157,
      "Ġcinematic": 1158,
      "ool": 1159,
      "some": 1160,
      "orn": 1161,
      "Ġpsy": 1162,
      "Ġstra": 1163,
      "ural": 1164,
      "Ġfeature": 1165,
      "Ġspirit": 1166,
      "Ġanyone": 1167,
      "yp": 1168,
      "Ġma": 1169,
      "Ġbra": 1170,
      "Ġnarr": 1171,
      "Ġgirl": 1172,
      "Ġonce": 1173,
      "ously": 1174,
      "alls": 1175,
      "Ġsmart": 1176,
      "ossible": 1177,
      "Ġpretty": 1178,
      "br": 1179,
      "ps": 1180,
      "Ġsent": 1181,
      "reak": 1182,
      "Ġmaking": 1183,
      "aste": 1184,
      "Ġwhole": 1185,
      "Ġperfect": 1186,
      "Ġaway": 1187,
      "Ġstyle": 1188,
      "Ġfascinating": 1189,
      "pro": 1190,
      "Â©": 1191,
      "Ġbo": 1192,
      "Ġpar": 1193,
      "Ġhon": 1194,
      "antly": 1195,
      "Ġanything": 1196,
      "Ġrare": 1197,
      "Ġmelodram": 1198,
      "cial": 1199,
      "ug": 1200,
      "ways": 1201,
      "Ġsad": 1202,
      "Ġbar": 1203,
      "Ġcertain": 1204,
      "Ġlow": 1205,
      "Ġund": 1206,
      "Ġsusp": 1207,
      "Ġcomm": 1208,
      "Ġunf": 1209,
      "Ġlead": 1210,
      "ming": 1211,
      "ric": 1212,
      "Ġsens": 1213,
      "Ġcapt": 1214,
      "Ġtogether": 1215,
      "Ġmoving": 1216,
      "Ġexpect": 1217,
      "Ġshort": 1218,
      "Ġuns": 1219,
      "Ġadd": 1220,
      "Ġserious": 1221,
      "iting": 1222,
      "ank": 1223,
      "aling": 1224,
      "Ġnow": 1225,
      "Ġret": 1226,
      "ula": 1227,
      "Ġsum": 1228,
      "Ġconv": 1229,
      "off": 1230,
      "Ġmid": 1231,
      "Ġpot": 1232,
      "Ġpop": 1233,
      "aring": 1234,
      "Ġthree": 1235,
      "Ġconf": 1236,
      "Ġtrue": 1237,
      "arent": 1238,
      "Ġlaughs": 1239,
      "Ġwomen": 1240,
      "Ġpsych": 1241,
      "des": 1242,
      "Ġdi": 1243,
      "Ġday": 1244,
      "Ġprof": 1245,
      "Ġdirection": 1246,
      "Ġengag": 1247,
      "Ġhistory": 1248,
      "Ġexperience": 1249,
      "stead": 1250,
      "Ġsy": 1251,
      "Ġsound": 1252,
      "Ġmiss": 1253,
      "Ġmaster": 1254,
      "els": 1255,
      "Ġred": 1256,
      "Ġass": 1257,
      "Ġalways": 1258,
      "ured": 1259,
      "Ġstrong": 1260,
      "uction": 1261,
      "Ġobvious": 1262,
      "cl": 1263,
      "zy": 1264,
      "Ġop": 1265,
      "ities": 1266,
      "Ġfans": 1267,
      "Ġinsp": 1268,
      "ots": 1269,
      "Ġsure": 1270,
      "Ġcomic": 1271,
      "Ġhead": 1272,
      "Ġlevel": 1273,
      "Ġvideo": 1274,
      "Ġcomplete": 1275,
      "Ġtitle": 1276,
      "cy": 1277,
      "wor": 1278,
      "Ġvers": 1279,
      "Ġmen": 1280,
      "Ġmag": 1281,
      "stand": 1282,
      "uth": 1283,
      "ows": 1284,
      "Ġwhy": 1285,
      "ird": 1286,
      "Ġprob": 1287,
      "Ġplace": 1288,
      "Ġactually": 1289,
      "Ġwhose": 1290,
      "Ġclic": 1291,
      "resh": 1292,
      "Ġsometimes": 1293,
      "Ġseries": 1294,
      "Ġsilly": 1295,
      "Ġnarrative": 1296,
      "00": 1297,
      "Ġwild": 1298,
      "Ġda": 1299,
      "Ġbeh": 1300,
      "Ġamb": 1301,
      "Ġquest": 1302,
      "ments": 1303,
      "Ġtalent": 1304,
      "Ġmatter": 1305,
      "Ġtrag": 1306,
      "Ġsatisf": 1307,
      "Ġpolit": 1308,
      "Ġpredictable": 1309,
      "cut": 1310,
      "vis": 1311,
      "Ġdam": 1312,
      "Ġcoming": 1313,
      "illi": 1314,
      "ush": 1315,
      "Ġaround": 1316,
      "ody": 1317,
      "ored": 1318,
      "Ġteen": 1319,
      "Ġinsight": 1320,
      "ek": 1321,
      "hn": 1322,
      "ler": 1323,
      "oint": 1324,
      "Ġfact": 1325,
      "eng": 1326,
      "Ġpat": 1327,
      "Ġequ": 1328,
      "Ġreason": 1329,
      "Ġhel": 1330,
      "Ġentire": 1331,
      "Ġslow": 1332,
      "Ġgenre": 1333,
      "ressive": 1334,
      "Ġattempt": 1335,
      "Ġsimply": 1336,
      "ograph": 1337,
      "Ġfamiliar": 1338,
      "``": 1339,
      "time": 1340,
      "Ġcent": 1341,
      "Ġdone": 1342,
      "ific": 1343,
      "Ġnearly": 1344,
      "aps": 1345,
      "opp": 1346,
      "Ġprem": 1347,
      "itten": 1348,
      "Ġquir": 1349,
      "Ġtrans": 1350,
      "Ġscreenplay": 1351,
      "Ġidea": 1352,
      "fe": 1353,
      "Ġacc": 1354,
      "Ġcou": 1355,
      "Ġwin": 1356,
      "ories": 1357,
      "Ġprom": 1358,
      "Ġpast": 1359,
      "Ġste": 1360,
      "sem": 1361,
      "Ġrob": 1362,
      "Ġmean": 1363,
      "Ġformula": 1364,
      "cer": 1365,
      "uri": 1366,
      "ined": 1367,
      "ening": 1368,
      "Ġmain": 1369,
      "Ġboy": 1370,
      "orge": 1371,
      "Ġmoder": 1372,
      "ention": 1373,
      "ceed": 1374,
      "ude": 1375,
      "Ġmanages": 1376,
      "Ġfilmmakers": 1377,
      "Ġhorror": 1378,
      "Ġsentiment": 1379,
      "Ġhonest": 1380,
      "bing": 1381,
      "ced": 1382,
      "cise": 1383,
      "ched": 1384,
      "go": 1385,
      "ied": 1386,
      "ient": 1387,
      "oon": 1388,
      "Ġsim": 1389,
      "Ġfresh": 1390,
      "Ġmur": 1391,
      "Ġmark": 1392,
      "Ġpun": 1393,
      "Ġhome": 1394,
      "Ġintri": 1395,
      "Ġlive": 1396,
      "ational": 1397,
      "Ġtrying": 1398,
      "Ġadm": 1399,
      "Ġsubt": 1400,
      "Ġgoes": 1401,
      "Ġdramatic": 1402,
      "Ġdelight": 1403,
      "Ġprobably": 1404,
      "Ġpremise": 1405,
      "dle": 1406,
      "Ġoper": 1407,
      "Ġfant": 1408,
      "Ġmis": 1409,
      "Ġbook": 1410,
      "Ġcred": 1411,
      "Ġnor": 1412,
      "Ġsuccess": 1413,
      "izing": 1414,
      "Ġwarm": 1415,
      "Ġenjoyable": 1416,
      "Ġsolid": 1417,
      "ail": 1418,
      "ron": 1419,
      "Ġtre": 1420,
      "Ġsing": 1421,
      "Ġben": 1422,
      "alk": 1423,
      "Ġlar": 1424,
      "plic": 1425,
      "Ġfair": 1426,
      "Ġparticul": 1427,
      "Ġelse": 1428,
      "Ġeffects": 1429,
      "Ġchildren": 1430,
      "Ġproblem": 1431,
      "Ġsuspense": 1432,
      "Ġengaging": 1433,
      "Ġmodern": 1434,
      "Ġtreat": 1435,
      "Ġsn": 1436,
      "Ġfine": 1437,
      "Ġbas": 1438,
      "Ġbri": 1439,
      "Ġcam": 1440,
      "any": 1441,
      "Ġhero": 1442,
      "Ġworst": 1443,
      "Ġadvent": 1444,
      "Ġblack": 1445,
      "Ġface": 1446,
      "pecially": 1447,
      "Ġturns": 1448,
      "Ġdrag": 1449,
      "despite": 1450,
      "dy": 1451,
      "iences": 1452,
      "Ġ9": 1453,
      "Ġodd": 1454,
      "ited": 1455,
      "Ġfren": 1456,
      "Ġwriter": 1457,
      "Ġgri": 1458,
      "Ġread": 1459,
      "Ġdead": 1460,
      "Ġval": 1461,
      "ults": 1462,
      "ize": 1463,
      "Ġdiffere": 1464,
      "gr": 1465,
      "mo": 1466,
      "ser": 1467,
      "Ġocc": 1468,
      "ished": 1469,
      "Ġmr": 1470,
      "Ġmust": 1471,
      "Ġwa": 1472,
      "ese": 1473,
      "Ġdumb": 1474,
      "rop": 1475,
      "Ġant": 1476,
      "oof": 1477,
      "Ġcomed": 1478,
      "Ġdebut": 1479,
      "Ġamusing": 1480,
      "Ġoffers": 1481,
      "Ġfeeling": 1482,
      "Ġjohn": 1483,
      "Ġcomplex": 1484,
      "Ġbecomes": 1485,
      "Ġespecially": 1486,
      "Ġstudy": 1487,
      "ugg": 1488,
      "Ġill": 1489,
      "Ġtell": 1490,
      "Ġsort": 1491,
      "Ġtheater": 1492,
      "Ġdr": 1493,
      "Ġearn": 1494,
      "Ġalong": 1495,
      "Ġactor": 1496,
      "Ġflat": 1497,
      "Ġflaw": 1498,
      "Ġviol": 1499,
      "Ġending": 1500,
      "Ġsmall": 1501,
      "Ġcontri": 1502,
      "Ġromance": 1503,
      "Ġmyster": 1504,
      "Ġportrait": 1505,
      "Ġpsycholog": 1506,
      "ned": 1507,
      "ove": 1508,
      "Ġve": 1509,
      "ery": 1510,
      "Ġcut": 1511,
      "Ġstuff": 1512,
      "Ġbegin": 1513,
      "chie": 1514,
      "Ġsupp": 1515,
      "Ġeverything": 1516,
      "avy": 1517,
      "Ġeasy": 1518,
      "Ġintelligent": 1519,
      "Ġversion": 1520,
      "cent": 1521,
      "ef": 1522,
      "just": 1523,
      "und": 1524,
      "Ġsign": 1525,
      "reme": 1526,
      "itation": 1527,
      "Ġmet": 1528,
      "Ġcount": 1529,
      "Ġenerg": 1530,
      "Ġproject": 1531,
      "Ġlikely": 1532,
      "iction": 1533,
      "aced": 1534,
      "velop": 1535,
      "Ġterrif": 1536,
      "Ġlacks": 1537,
      "Ġcharming": 1538,
      "Ġstyl": 1539,
      "Ġmessage": 1540,
      "Ġinvol": 1541,
      "Ġboring": 1542,
      "bl": 1543,
      "too": 1544,
      "uine": 1545,
      "yn": 1546,
      "Ġmot": 1547,
      "ential": 1548,
      "Ġjour": 1549,
      "Ġexer": 1550,
      "ationship": 1551,
      "Ġnext": 1552,
      "Ġquiet": 1553,
      "Ġslight": 1554,
      "Ġbecome": 1555,
      "ma": 1556,
      "Ġtv": 1557,
      "Ġcal": 1558,
      "Ġhit": 1559,
      "Ġreve": 1560,
      "chn": 1561,
      "Ġlives": 1562,
      "Ġuni": 1563,
      "used": 1564,
      "Ġclose": 1565,
      "Ġlooking": 1566,
      "Ġbrilli": 1567,
      "Ġrelationship": 1568,
      "Ġfilmmaker": 1569,
      "Ġhours": 1570,
      "Ġquirky": 1571,
      "Ġexercise": 1572,
      "med": 1573,
      "yond": 1574,
      "Ġid": 1575,
      "Ġaffect": 1576,
      "het": 1577,
      "ony": 1578,
      "ouse": 1579,
      "elt": 1580,
      "Ġstun": 1581,
      "ags": 1582,
      "Ġword": 1583,
      "ustr": 1584,
      "Ġrich": 1585,
      "ension": 1586,
      "Ġclassic": 1587,
      "Ġsoul": 1588,
      "Ġfrench": 1589,
      "uly": 1590,
      "where": 1591,
      "writer": 1592,
      "Ġfoll": 1593,
      "Ġwrit": 1594,
      "Ġpa": 1595,
      "ann": 1596,
      "Ġdream": 1597,
      "Ġhilar": 1598,
      "Ġinstead": 1599,
      "Ġlat": 1600,
      "Ġsuff": 1601,
      "ams": 1602,
      "ump": 1603,
      "osed": 1604,
      "allow": 1605,
      "come": 1606,
      "comp": 1607,
      "Ġdespite": 1608,
      "Ġremark": 1609,
      "Ġideas": 1610,
      "Ġpowerful": 1611,
      "Ġculture": 1612,
      "Ġpassion": 1613,
      "Ġenergy": 1614,
      "ches": 1615,
      "do": 1616,
      "land": 1617,
      "Ġtone": 1618,
      "Ġwind": 1619,
      "Ġeither": 1620,
      "entious": 1621,
      "ote": 1622,
      "Ġstri": 1623,
      "Ġreg": 1624,
      "rage": 1625,
      "ulg": 1626,
      "ular": 1627,
      "ett": 1628,
      "iller": 1629,
      "Ġje": 1630,
      "Ġjack": 1631,
      "aged": 1632,
      "Ġdeath": 1633,
      "Ġplays": 1634,
      "Ġleft": 1635,
      "ended": 1636,
      "Ġmostly": 1637,
      "Ġemb": 1638,
      "Ġeveryone": 1639,
      "Ġimport": 1640,
      "Ġgenuine": 1641,
      "Ġfilmmaking": 1642,
      "guing": 1643,
      "Ġsurprisingly": 1644,
      "Ġmelodrama": 1645,
      "Ġcertainly": 1646,
      "ax": 1647,
      "ob": 1648,
      "ising": 1649,
      "ones": 1650,
      "ances": 1651,
      "Ġdou": 1652,
      "Ġinf": 1653,
      "Ġlit": 1654,
      "Ġeach": 1655,
      "Ġbeyond": 1656,
      "Ġur": 1657,
      "Ġang": 1658,
      "urd": 1659,
      "urp": 1660,
      "Ġdog": 1661,
      "Ġdev": 1662,
      "itty": 1663,
      "itting": 1664,
      "Ġrock": 1665,
      "Ġstrange": 1666,
      "Ġrecent": 1667,
      "appoint": 1668,
      "Ġsitu": 1669,
      "Ġsecond": 1670,
      "Ġcompletely": 1671,
      "Ġhelp": 1672,
      "Ġopera": 1673,
      "ding": 1674,
      "how": 1675,
      "line": 1676,
      "use": 1677,
      "Ġspe": 1678,
      "Ġspect": 1679,
      "Ġcap": 1680,
      "orable": 1681,
      "utter": 1682,
      "Ġrest": 1683,
      "Ġheavy": 1684,
      "Ġexcept": 1685,
      "Ġstoryt": 1686,
      "Ġdeser": 1687,
      "Ġviewers": 1688,
      "Ġexplo": 1689,
      "Ġmix": 1690,
      "Ġleave": 1691,
      "Ġbelieve": 1692,
      "Ġdeeply": 1693,
      "Ġoccas": 1694,
      "ci": 1695,
      "Ġfre": 1696,
      "Ġfour": 1697,
      "Ġmad": 1698,
      "oud": 1699,
      "Ġhold": 1700,
      "let": 1701,
      "Ġgot": 1702,
      "asy": 1703,
      "rid": 1704,
      "Ġforget": 1705,
      "Ġquick": 1706,
      "Ġtruth": 1707,
      "Ġtruly": 1708,
      "Ġdirected": 1709,
      "Ġride": 1710,
      "Ġlooks": 1711,
      "Ġreality": 1712,
      "Ġjokes": 1713,
      "ashion": 1714,
      "ival": 1715,
      "Ġhimself": 1716,
      "Ġhope": 1717,
      "Ġcreep": 1718,
      "void": 1719,
      "Ġstraight": 1720,
      "Ġsummer": 1721,
      "Ġmiddle": 1722,
      "ah": 1723,
      "ecut": 1724,
      "hy": 1725,
      "wr": 1726,
      "when": 1727,
      "Ġaff": 1728,
      "Ġsand": 1729,
      "Ġfound": 1730,
      "Ġcor": 1731,
      "Ġcart": 1732,
      "ont": 1733,
      "Ġden": 1734,
      "icult": 1735,
      "Ġexam": 1736,
      "Ġshot": 1737,
      "Ġpoet": 1738,
      "Ġdisappoint": 1739,
      "Ġsubst": 1740,
      "Ġunderstand": 1741,
      "Ġshows": 1742,
      "Ġwoman": 1743,
      "Ġproduction": 1744,
      "Ġdifficult": 1745,
      "Ġpersonal": 1746,
      "minute": 1747,
      "hand": 1748,
      "Ġfat": 1749,
      "Ġpay": 1750,
      "Ġder": 1751,
      "although": 1752,
      "Ġinst": 1753,
      "Ġline": 1754,
      "Ġnight": 1755,
      "Ġnice": 1756,
      "otic": 1757,
      "Ġexact": 1758,
      "Ġabove": 1759,
      "ively": 1760,
      "Ġconcept": 1761,
      "comm": 1762,
      "Ġvir": 1763,
      "Ġends": 1764,
      "Ġscene": 1765,
      "Ġappro": 1766,
      "Ġrefres": 1767,
      "Ġsimple": 1768,
      "Ġdelivers": 1769,
      "Ġtouching": 1770,
      "Ġcamera": 1771,
      "Ġadventure": 1772,
      "af": 1773,
      "bly": 1774,
      "ball": 1775,
      "ele": 1776,
      "ever": 1777,
      "ged": 1778,
      "gra": 1779,
      "iest": 1780,
      "sel": 1781,
      "Ġ8": 1782,
      "Ġair": 1783,
      "Ġopp": 1784,
      "Ġhop": 1785,
      "Ġlif": 1786,
      "Ġgrow": 1787,
      "ott": 1788,
      "Ġcomb": 1789,
      "ames": 1790,
      "Ġalread": 1791,
      "Ġshock": 1792,
      "Ġlet": 1793,
      "Ġspy": 1794,
      "Ġnovel": 1795,
      "Ġrole": 1796,
      "berg": 1797,
      "Ġtries": 1798,
      "Ġextreme": 1799,
      "Ġbeautifully": 1800,
      "Ġsym": 1801,
      "Ġsatisfying": 1802,
      "Ġintriguing": 1803,
      "Ġlarge": 1804,
      "Ġdifferent": 1805,
      "Ġhilarious": 1806,
      "Ġalready": 1807,
      "ai": 1808,
      "ael": 1809,
      "every": 1810,
      "ien": 1811,
      "por": 1812,
      "rise": 1813,
      "wise": 1814,
      "Ġaut": 1815,
      "Ġfut": 1816,
      "Ġhu": 1817,
      "Ġstup": 1818,
      "Ġstories": 1819,
      "ung": 1820,
      "unk": 1821,
      "Ġexecut": 1822,
      "Ġdevelop": 1823,
      "Ġneither": 1824,
      "uss": 1825,
      "Ġimages": 1826,
      "pping": 1827,
      "ender": 1828,
      "ichÃ£": 1829,
      "itely": 1830,
      "Ġfails": 1831,
      "Ġremains": 1832,
      "Ġmoment": 1833,
      "Ġstorytelling": 1834,
      "bo": 1835,
      "has": 1836,
      "my": 1837,
      "uous": 1838,
      "war": 1839,
      "year": 1840,
      "Ġx": 1841,
      "Ġted": 1842,
      "Ġsle": 1843,
      "Ġside": 1844,
      "Ġfire": 1845,
      "ishing": 1846,
      "Ġbal": 1847,
      "Ġcost": 1848,
      "Ġtop": 1849,
      "enty": 1850,
      "ember": 1851,
      "Ġsoap": 1852,
      "ĠclichÃ£": 1853,
      "arely": 1854,
      "Ġimpossible": 1855,
      "Ġbring": 1856,
      "Ġtechn": 1857,
      "Ġpretentious": 1858,
      "ibly": 1859,
      "Ġextra": 1860,
      "Ġesc": 1861,
      "Ġfriend": 1862,
      "Ġconsider": 1863,
      "Ġparticularly": 1864,
      "Ġjourney": 1865,
      "Ġspectac": 1866,
      "Ġvirt": 1867,
      "Ġrefreshing": 1868,
      "ked": 1869,
      "more": 1870,
      "tra": 1871,
      "Ġtar": 1872,
      "erous": 1873,
      "Ġfem": 1874,
      "Ġmere": 1875,
      "Ġcond": 1876,
      "Ġcase": 1877,
      "Ġposs": 1878,
      "Ġdri": 1879,
      "Ġnon": 1880,
      "Ġnone": 1881,
      "Ġgags": 1882,
      "Ġmood": 1883,
      "ims": 1884,
      "Ġsust": 1885,
      "unny": 1886,
      "ichael": 1887,
      "Ġadapt": 1888,
      "Ġblood": 1889,
      "lessly": 1890,
      "Ġtwist": 1891,
      "ocative": 1892,
      "Ġseeing": 1893,
      "Ġaudiences": 1894,
      "Ġcrime": 1895,
      "Ġgrand": 1896,
      "Ġpleasure": 1897,
      "Ġeasily": 1898,
      "Ġsequel": 1899,
      "Ġanimation": 1900,
      "Ġmedi": 1901,
      "Ġeye": 1902,
      "Ġearnest": 1903,
      "Ġpsychological": 1904,
      "Ġterrific": 1905,
      "Ġfollow": 1906,
      "Ġliter": 1907,
      "Ġexactly": 1908,
      "selves": 1909,
      "lin": 1910,
      "ple": 1911,
      "rist": 1912,
      "ze": 1913,
      "Ġver": 1914,
      "Ġutter": 1915,
      "Ġtaste": 1916,
      "Ġachie": 1917,
      "ital": 1918,
      "Ġfoc": 1919,
      "atural": 1920,
      "Ġcur": 1921,
      "Ġdig": 1922,
      "edly": 1923,
      "Ġland": 1924,
      "rable": 1925,
      "rown": 1926,
      "ets": 1927,
      "Ġunex": 1928,
      "Ġsocial": 1929,
      "Ġprovid": 1930,
      "oney": 1931,
      "icks": 1932,
      "Ġroll": 1933,
      "Ġdisney": 1934,
      "Ġways": 1935,
      "Ġimpro": 1936,
      "Ġdelic": 1937,
      "scious": 1938,
      "fortun": 1939,
      "Ġagainst": 1940,
      "Ġmoral": 1941,
      "Ġintelligence": 1942,
      "Ġdefin": 1943,
      "Ġmaj": 1944,
      "Ġpolitical": 1945,
      "Ġsubtle": 1946,
      "Ġmystery": 1947,
      "over": 1948,
      "way": 1949,
      "inct": 1950,
      "Ġmild": 1951,
      "ats": 1952,
      "Ġbrit": 1953,
      "Ġbreak": 1954,
      "Ġinde": 1955,
      "Ġnature": 1956,
      "Ġgent": 1957,
      "Ġgame": 1958,
      "Ġiss": 1959,
      "Ġcho": 1960,
      "unity": 1961,
      "illing": 1962,
      "Ġsever": 1963,
      "Ġunt": 1964,
      "ellent": 1965,
      "Ġproves": 1966,
      "Ġactress": 1967,
      "Ġweird": 1968,
      "Ġpoor": 1969,
      "Ġbland": 1970,
      "Ġgetting": 1971,
      "Ġcool": 1972,
      "Ġdepth": 1973,
      "struct": 1974,
      "Ġstandard": 1975,
      "ield": 1976,
      "ography": 1977,
      "Ġstupid": 1978,
      "ape": 1979,
      "aust": 1980,
      "light": 1981,
      "whe": 1982,
      "Ġtest": 1983,
      "Ġtheat": 1984,
      "Ġfalls": 1985,
      "Ġbus": 1986,
      "Ġbreat": 1987,
      "Ġcold": 1988,
      "Ġparent": 1989,
      "ices": 1990,
      "Ġevent": 1991,
      "Ġgone": 1992,
      "chy": 1993,
      "olut": 1994,
      "olute": 1995,
      "Ġforce": 1996,
      "Ġjoy": 1997,
      "Ġexh": 1998,
      "Ġsoph": 1999,
      "udget": 2000,
      "Ġtrad": 2001,
      "Ġcliches": 2002,
      "semble": 2003,
      "Ġviolence": 2004,
      "Ġwriting": 2005,
      "Ġapproach": 2006,
      "bel": 2007,
      "gi": 2008,
      "haps": 2009,
      "ring": 2010,
      "ton": 2011,
      "Ġer": 2012,
      "itious": 2013,
      "Ġfig": 2014,
      "ises": 2015,
      "Ġmichael": 2016,
      "Ġcour": 2017,
      "Ġcele": 2018,
      "Ġpure": 2019,
      "arp": 2020,
      "Ġthin": 2021,
      "Ġni": 2022,
      "Ġgang": 2023,
      "Ġgorge": 2024,
      "Ġchrist": 2025,
      "that": 2026,
      "ability": 2027,
      "ement": 2028,
      "aken": 2029,
      "Ġunp": 2030,
      "Ġprocess": 2031,
      "oses": 2032,
      "Ġwhether": 2033,
      "Ġfav": 2034,
      "Ġremind": 2035,
      "Ġjob": 2036,
      "Ġobser": 2037,
      "Ġcheap": 2038,
      "Ġgiven": 2039,
      "Ġcoll": 2040,
      "Ġsatire": 2041,
      "Ġkeeps": 2042,
      "Ġphil": 2043,
      "Ġappeal": 2044,
      "Ġmemorable": 2045,
      "Ġschool": 2046,
      "Ġwrong": 2047,
      "Ġwritten": 2048,
      "Ġepic": 2049,
      "Ġopen": 2050,
      "Ġrobert": 2051,
      "Ġoccasionally": 2052,
      "ban": 2053,
      "bers": 2054,
      "kin": 2055,
      "nect": 2056,
      "ino": 2057,
      "rew": 2058,
      "Ġfight": 2059,
      "Ġbur": 2060,
      "Ġcall": 2061,
      "Ġwel": 2062,
      "orough": 2063,
      "orical": 2064,
      "Ġdays": 2065,
      "Ġinvent": 2066,
      "Ġgod": 2067,
      "rible": 2068,
      "oose": 2069,
      "ides": 2070,
      "Ġacted": 2071,
      "Ġspl": 2072,
      "pped": 2073,
      "Ġlost": 2074,
      "acing": 2075,
      "Ġuses": 2076,
      "Ġtele": 2077,
      "Ġdesper": 2078,
      "Ġcontem": 2079,
      "Ġclear": 2080,
      "Ġviewer": 2081,
      "Ġthoughtful": 2082,
      "Ġleaves": 2083,
      "Ġelements": 2084,
      "movie": 2085,
      "Ġbrilliant": 2086,
      "Ġtedious": 2087,
      "fi": 2088,
      "gen": 2089,
      "iod": 2090,
      "path": 2091,
      "inary": 2092,
      "Ġful": 2093,
      "Ġfoot": 2094,
      "Ġball": 2095,
      "Ġcop": 2096,
      "Ġcamp": 2097,
      "Ġwater": 2098,
      "ork": 2099,
      "Ġpossible": 2100,
      "anch": 2101,
      "Ġdest": 2102,
      "ley": 2103,
      "Ġtold": 2104,
      "Ġlist": 2105,
      "Ġug": 2106,
      "rol": 2107,
      "key": 2108,
      "Ġintim": 2109,
      "Ġexist": 2110,
      "Ġconfl": 2111,
      "aph": 2112,
      "Ġprop": 2113,
      "Ġprov": 2114,
      "Ġperiod": 2115,
      "orts": 2116,
      "Ġii": 2117,
      "Ġpost": 2118,
      "Ġpoign": 2119,
      "Ġimpressive": 2120,
      "Ġartist": 2121,
      "Ġreson": 2122,
      "Ġguys": 2123,
      "ibility": 2124,
      "Ġdepress": 2125,
      "Ġneeds": 2126,
      "herent": 2127,
      "rossing": 2128,
      "Ġphot": 2129,
      "Ġepis": 2130,
      "incing": 2131,
      "Ġpresent": 2132,
      "Ġinspir": 2133,
      "Ġcartoon": 2134,
      "che": 2135,
      "cul": 2136,
      "good": 2137,
      "mist": 2138,
      "mark": 2139,
      "Ġsqu": 2140,
      "real": 2141,
      "atory": 2142,
      "Ġpull": 2143,
      "Ġduring": 2144,
      "Ġhy": 2145,
      "Ġlab": 2146,
      "Ġear": 2147,
      "Ġge": 2148,
      "entially": 2149,
      "Ġrecomm": 2150,
      "Ġhell": 2151,
      "Ġende": 2152,
      "Ġsharp": 2153,
      "Ġsci": 2154,
      "action": 2155,
      "Ġrout": 2156,
      "Ġfunn": 2157,
      "iled": 2158,
      "Ġoffer": 2159,
      "ensive": 2160,
      "atching": 2161,
      "Ġotherwise": 2162,
      "Ġ10": 2163,
      "Ġresult": 2164,
      "Ġvision": 2165,
      "Ġfinally": 2166,
      "Ġsurprising": 2167,
      "Ġsexual": 2168,
      "Ġrunning": 2169,
      "Ġeyes": 2170,
      "Ġquestion": 2171,
      "Ġtragedy": 2172,
      "Ġcreepy": 2173,
      "Ġmajor": 2174,
      "cceed": 2175,
      "fil": 2176,
      "gue": 2177,
      "hood": 2178,
      "hop": 2179,
      "ov": 2180,
      "spect": 2181,
      "well": 2182,
      "Ġ4": 2183,
      "Ġly": 2184,
      "Ġtyp": 2185,
      "Ġage": 2186,
      "inative": 2187,
      "Ġcrit": 2188,
      "Ġpurp": 2189,
      "Ġthorough": 2190,
      "Ġhot": 2191,
      "Ġine": 2192,
      "char": 2193,
      "Ġsucceed": 2194,
      "Ġshoot": 2195,
      "Ġhaun": 2196,
      "Ġhaving": 2197,
      "osp": 2198,
      "Ġamount": 2199,
      "Ġquality": 2200,
      "Ġroad": 2201,
      "Ġfail": 2202,
      "Ġfaith": 2203,
      "Ġthemselves": 2204,
      "Ġsurf": 2205,
      "Ġbrother": 2206,
      "Ġrespect": 2207,
      "scar": 2208,
      "Ġattract": 2209,
      "Ġattention": 2210,
      "Ġemotionally": 2211,
      "umbers": 2212,
      "Ġgrace": 2213,
      "Ġcolor": 2214,
      "Ġfrustr": 2215,
      "Ġincl": 2216,
      "Ġfinal": 2217,
      "Ġimagination": 2218,
      "Ġcraft": 2219,
      "Ġwonderful": 2220,
      "Ġabsurd": 2221,
      "ength": 2222,
      "Ġentirely": 2223,
      "Ġcomedies": 2224,
      "Ġfuture": 2225,
      "fortunately": 2226,
      "Ġgentle": 2227,
      "Ġcelebr": 2228,
      "ails": 2229,
      "mon": 2230,
      "table": 2231,
      "vant": 2232,
      "zz": 2233,
      "Ġ3": 2234,
      "Ġess": 2235,
      "Ġtired": 2236,
      "Ġsong": 2237,
      "Ġbarely": 2238,
      "Ġcross": 2239,
      "Ġpow": 2240,
      "Ġpath": 2241,
      "alt": 2242,
      "iche": 2243,
      "ilty": 2244,
      "Ġsteven": 2245,
      "Ġreleas": 2246,
      "oles": 2247,
      "Ġchall": 2248,
      "Ġchange": 2249,
      "amb": 2250,
      "arted": 2251,
      "form": 2252,
      "Ġamong": 2253,
      "Ġtrou": 2254,
      "Ġweak": 2255,
      "Ġenth": 2256,
      "Ġusual": 2257,
      "Ġslap": 2258,
      "Ġremake": 2259,
      "Ġothers": 2260,
      "Ġawful": 2261,
      "Ġengrossing": 2262,
      "Ġexcellent": 2263,
      "uced": 2264,
      "Ġcareer": 2265,
      "Ġskill": 2266,
      "Ġbuild": 2267,
      "ancy": 2268,
      "Ġanimated": 2269,
      "Ġdavid": 2270,
      "Ġbehind": 2271,
      "Ġmeaning": 2272,
      "Ġfantasy": 2273,
      "Ġsingle": 2274,
      "Ġfairly": 2275,
      "Ġcontrived": 2276,
      "Ġlatest": 2277,
      "Ġsustain": 2278,
      "Ġmedioc": 2279,
      "Ġseveral": 2280,
      "Ġconflict": 2281,
      "lo": 2282,
      "na": 2283,
      "piece": 2284,
      "sw": 2285,
      "vice": 2286,
      "Ġtaking": 2287,
      "Ġsour": 2288,
      "Ġoscar": 2289,
      "Ġfast": 2290,
      "Ġfore": 2291,
      "ised": 2292,
      "Ġmer": 2293,
      "Ġbond": 2294,
      "Ġwed": 2295,
      "Ġpet": 2296,
      "Ġpark": 2297,
      "Ġthrow": 2298,
      "Ġhom": 2299,
      "Ġnatural": 2300,
      "Ġgreen": 2301,
      "Ġmod": 2302,
      "right": 2303,
      "Ġhea": 2304,
      "umph": 2305,
      "ury": 2306,
      "quis": 2307,
      "Ġdoing": 2308,
      "Ġconnect": 2309,
      "Ġworse": 2310,
      "Ġkn": 2311,
      "Ġkiss": 2312,
      "oph": 2313,
      "Ġplenty": 2314,
      "Ġvo": 2315,
      "Ġvar": 2316,
      "acks": 2317,
      "Ġsomeone": 2318,
      "screen": 2319,
      "Ġguy": 2320,
      "Ġpoints": 2321,
      "Ġknows": 2322,
      "Ġbeauty": 2323,
      "Ġappealing": 2324,
      "lection": 2325,
      "Ġevents": 2326,
      "Ġdeliver": 2327,
      "Ġdeter": 2328,
      "Ġremarkable": 2329,
      "olutely": 2330,
      "Ġgorgeous": 2331,
      "Ġugly": 2332,
      "aces": 2333,
      "ior": 2334,
      "life": 2335,
      "sch": 2336,
      "vable": 2337,
      "Ġing": 2338,
      "Ġtear": 2339,
      "Ġast": 2340,
      "Ġfan": 2341,
      "ened": 2342,
      "eness": 2343,
      "orm": 2344,
      "Ġpal": 2345,
      "Ġpie": 2346,
      "anks": 2347,
      "Ġlim": 2348,
      "Ġgoof": 2349,
      "Ġrevel": 2350,
      "ades": 2351,
      "ify": 2352,
      "Ġintent": 2353,
      "Ġdeal": 2354,
      "Ġscary": 2355,
      "astic": 2356,
      "uses": 2357,
      "usion": 2358,
      "Ġplain": 2359,
      "Ġprec": 2360,
      "Ġamaz": 2361,
      "Ġadults": 2362,
      "Ġsomewhat": 2363,
      "Ġvivid": 2364,
      "Ġinside": 2365,
      "Ġvisually": 2366,
      "beat": 2367,
      "Ġtriumph": 2368,
      "Ġemotions": 2369,
      "Ġpictures": 2370,
      "Ġsurprise": 2371,
      "Ġworthy": 2372,
      "nothing": 2373,
      "appy": 2374,
      "Ġdecent": 2375,
      "Ġperfectly": 2376,
      "Ġunsett": 2377,
      "Ġmagic": 2378,
      "Ġambitious": 2379,
      "Ġsentimental": 2380,
      "Ġmetaph": 2381,
      "Ġimportant": 2382,
      "handed": 2383,
      "Ġmerely": 2384,
      "Ġadaptation": 2385,
      "Ġunexpect": 2386,
      "Ġparents": 2387,
      "Ġthoroughly": 2388,
      "body": 2389,
      "cou": 2390,
      "ges": 2391,
      "ix": 2392,
      "made": 2393,
      "uch": 2394,
      "Ġram": 2395,
      "rel": 2396,
      "rent": 2397,
      "Ġfram": 2398,
      "Ġpit": 2399,
      "Ġpace": 2400,
      "Ġhouse": 2401,
      "Ġinn": 2402,
      "asure": 2403,
      "Ġyork": 2404,
      "Ġwhite": 2405,
      "Ġcomplic": 2406,
      "agg": 2407,
      "apan": 2408,
      "Ġcharism": 2409,
      "ands": 2410,
      "Ġspark": 2411,
      "orting": 2412,
      "acy": 2413,
      "Ġflash": 2414,
      "aught": 2415,
      "oying": 2416,
      "Ġworking": 2417,
      "Ġimpact": 2418,
      "Ġdesign": 2419,
      "Ġstrugg": 2420,
      "rence": 2421,
      "Ġcolle": 2422,
      "Ġfrank": 2423,
      "Ġamerica": 2424,
      "Ġlots": 2425,
      "Ġeffective": 2426,
      "Ġdistur": 2427,
      "ology": 2428,
      "Ġ200": 2429,
      "Ġmemory": 2430,
      "Ġsequences": 2431,
      "Ġbrain": 2432,
      "Ġbegins": 2433,
      "Ġopport": 2434,
      "Ġexecution": 2435,
      "Ġfemale": 2436,
      "Ġwelcome": 2437,
      "Ġprovocative": 2438,
      "Ġrecommend": 2439,
      "70": 2440,
      "cle": 2441,
      "down": 2442,
      "een": 2443,
      "fic": 2444,
      "gar": 2445,
      "nes": 2446,
      "Ġavoid": 2447,
      "reci": 2448,
      "Ġfree": 2449,
      "Ġbatt": 2450,
      "Ġcrow": 2451,
      "Ġwood": 2452,
      "Ġpul": 2453,
      "Ġpack": 2454,
      "Ġpub": 2455,
      "Ġhip": 2456,
      "Ġner": 2457,
      "Ġgross": 2458,
      "Ġmother": 2459,
      "Ġuse": 2460,
      "verage": 2461,
      "Ġann": 2462,
      "ries": 2463,
      "ried": 2464,
      "Ġforg": 2465,
      "ident": 2466,
      "Ġalone": 2467,
      "unch": 2468,
      "ister": 2469,
      "Ġable": 2470,
      "Ġdeft": 2471,
      "Ġnecess": 2472,
      "udd": 2473,
      "Ġleg": 2474,
      "iously": 2475,
      "decess": 2476,
      "ared": 2477,
      "Ġoverall": 2478,
      "Ġempt": 2479,
      "Ġlovely": 2480,
      "Ġcontin": 2481,
      "Ġfront": 2482,
      "azz": 2483,
      "Ġdraw": 2484,
      "Ġcreative": 2485,
      "Ġaccom": 2486,
      "Ġhistorical": 2487,
      "Ġtouch": 2488,
      "ielberg": 2489,
      "vision": 2490,
      "Ġmurder": 2491,
      "Ġsupposed": 2492,
      "Ġdoub": 2493,
      "ashioned": 2494,
      "Ġexamination": 2495,
      "Ġutterly": 2496,
      "Ġuntil": 2497,
      "Ġcrowd": 2498,
      "aff": 2499,
      "col": 2500,
      "ode": 2501,
      "uel": 2502,
      "uce": 2503,
      "writ": 2504,
      "Ġ5": 2505,
      "Ġtim": 2506,
      "Ġtension": 2507,
      "Ġfol": 2508,
      "Ġfall": 2509,
      "Ġfelt": 2510,
      "Ġmart": 2511,
      "Ġmach": 2512,
      "Ġbiz": 2513,
      "Ġcir": 2514,
      "Ġcity": 2515,
      "Ġcuri": 2516,
      "Ġwitty": 2517,
      "Ġdan": 2518,
      "Ġdate": 2519,
      "arch": 2520,
      "arily": 2521,
      "Ġtom": 2522,
      "Ġgif": 2523,
      "Ġmove": 2524,
      "Ġsugg": 2525,
      "ament": 2526,
      "Ġju": 2527,
      "Ġjapan": 2528,
      "Ġensemble": 2529,
      "Ġunint": 2530,
      "Ġunlike": 2531,
      "tern": 2532,
      "Ġprevious": 2533,
      "Ġpredecess": 2534,
      "Ġimm": 2535,
      "Ġupon": 2536,
      "Ġwilli": 2537,
      "Ġused": 2538,
      "Ġimpress": 2539,
      "Ġdesc": 2540,
      "Ġthroughout": 2541,
      "urns": 2542,
      "Ġminor": 2543,
      "ivity": 2544,
      "Ġchemist": 2545,
      "Ġgrou": 2546,
      "Ġwants": 2547,
      "Ġappreci": 2548,
      "Ġprot": 2549,
      "Ġcreates": 2550,
      "Ġacross": 2551,
      "Ġsurprises": 2552,
      "anced": 2553,
      "Ġcultural": 2554,
      "Ġsincere": 2555,
      "Ġcaptures": 2556,
      "Ġpotential": 2557,
      "Ġdelightful": 2558,
      "Ġ90": 2559,
      "Ġflaws": 2560,
      "Ġstylish": 2561,
      "Ġunique": 2562,
      "hetic": 2563,
      "Ġwords": 2564,
      "Ġquickly": 2565,
      "Ġhuge": 2566,
      "Ġfriendship": 2567,
      "Ġtarget": 2568,
      "Ġissues": 2569,
      "Ġbreath": 2570,
      "Ġsophistic": 2571,
      "pathy": 2572,
      "Ġchalleng": 2573,
      "Ġtrouble": 2574,
      "Ġcollege": 2575,
      "Ġaccompl": 2576,
      "Ġsuggest": 2577,
      "Ġchemistry": 2578,
      "bed": 2579,
      "ey": 2580,
      "ki": 2581,
      "kward": 2582,
      "look": 2583,
      "men": 2584,
      "may": 2585,
      "mosp": 2586,
      "ses": 2587,
      "side": 2588,
      "tr": 2589,
      "iny": 2590,
      "Ġsor": 2591,
      "Ġsal": 2592,
      "ishes": 2593,
      "Ġmist": 2594,
      "Ġmoney": 2595,
      "Ġbre": 2596,
      "Ġbull": 2597,
      "Ġcute": 2598,
      "Ġwaste": 2599,
      "Ġpu": 2600,
      "Ġpos": 2601,
      "Ġdang": 2602,
      "arre": 2603,
      "Ġtot": 2604,
      "Ġla": 2605,
      "Ġgh": 2606,
      "Ġgay": 2607,
      "ction": 2608,
      "Ġstep": 2609,
      "Ġreward": 2610,
      "ulative": 2611,
      "Ġsuck": 2612,
      "Ġmoviego": 2613,
      "aked": 2614,
      "Ġunus": 2615,
      "Ġconvent": 2616,
      "Ġconcer": 2617,
      "asty": 2618,
      "Ġatmosp": 2619,
      "Ġrhy": 2620,
      "Ġthanks": 2621,
      "Ġfear": 2622,
      "Ġclos": 2623,
      "Ġtry": 2624,
      "izes": 2625,
      "Ġremember": 2626,
      "Ġgrant": 2627,
      "Ġground": 2628,
      "Ġplaying": 2629,
      "Ġexciting": 2630,
      "Ġprim": 2631,
      "Ġskin": 2632,
      "Ġrepet": 2633,
      "Ġsuperfic": 2634,
      "Ġmonster": 2635,
      "iety": 2636,
      "Ġbroad": 2637,
      "Ġmelodramatic": 2638,
      "Ġdiver": 2639,
      "Ġtalented": 2640,
      "oppy": 2641,
      "Ġwinning": 2642,
      "Ġbased": 2643,
      "Ġidi": 2644,
      "Ġsituation": 2645,
      "Ġdeserves": 2646,
      "porary": 2647,
      "Ġdefinitely": 2648,
      "belie": 2649,
      "Ġfully": 2650,
      "Ġunsettling": 2651,
      "\\*": 2652,
      "fashioned": 2653,
      "ives": 2654,
      "nce": 2655,
      "uces": 2656,
      "hent": 2657,
      "Ġsaw": 2658,
      "Ġsav": 2659,
      "Ġfest": 2660,
      "Ġcat": 2661,
      "Ġwalk": 2662,
      "Ġham": 2663,
      "Ġlad": 2664,
      "Ġloud": 2665,
      "Ġname": 2666,
      "stal": 2667,
      "Ġgun": 2668,
      "ellect": 2669,
      "Ġstren": 2670,
      "Ġrev": 2671,
      "Ġrequ": 2672,
      "room": 2673,
      "umber": 2674,
      "Ġliving": 2675,
      "Ġshad": 2676,
      "Ġability": 2677,
      "Ġhack": 2678,
      "Ġconst": 2679,
      "Ġconstruct": 2680,
      "Ġvict": 2681,
      "Ġperhaps": 2682,
      "Ġclum": 2683,
      "plays": 2684,
      "Ġmanner": 2685,
      "Ġloc": 2686,
      "acher": 2687,
      "Ġemerg": 2688,
      "Ġrid": 2689,
      "Ġgeneric": 2690,
      "Ġbrings": 2691,
      "angu": 2692,
      "Ġstruct": 2693,
      "Ġago": 2694,
      "Ġcasting": 2695,
      "Ġawkward": 2696,
      "Ġgiving": 2697,
      "Ġexplor": 2698,
      "Ġimagine": 2699,
      "Ġ20": 2700,
      "Ġcreate": 2701,
      "Ġabsor": 2702,
      "Ġstarts": 2703,
      "Ġgirls": 2704,
      "Ġrarely": 2705,
      "Ġleads": 2706,
      "Ġconvincing": 2707,
      "Ġmasterpiece": 2708,
      "Ġcouple": 2709,
      "Ġcountry": 2710,
      "Ġslightly": 2711,
      "Ġrelationships": 2712,
      "Ġurban": 2713,
      "Ġcostum": 2714,
      "Ġfocus": 2715,
      "Ġprovides": 2716,
      "olution": 2717,
      "Ġniro": 2718,
      "Ġroutine": 2719,
      "Ġmediocre": 2720,
      "Ġrhyth": 2721,
      "cing": 2722,
      "making": 2723,
      "ral": 2724,
      "round": 2725,
      "vy": 2726,
      "yal": 2727,
      "Ġtur": 2728,
      "inoc": 2729,
      "hearted": 2730,
      "Ġsac": 2731,
      "Ġfit": 2732,
      "Ġfra": 2733,
      "Ġmil": 2734,
      "Ġmak": 2735,
      "Ġbi": 2736,
      "Ġcand": 2737,
      "Ġwal": 2738,
      "Ġwise": 2739,
      "onic": 2740,
      "onstr": 2741,
      "Ġpacing": 2742,
      "Ġdre": 2743,
      "arc": 2744,
      "icle": 2745,
      "Ġtoward": 2746,
      "Ġinex": 2747,
      "omet": 2748,
      "eld": 2749,
      "vey": 2750,
      "imag": 2751,
      "Ġones": 2752,
      "Ġya": 2753,
      "ession": 2754,
      "Ġcommer": 2755,
      "ills": 2756,
      "ousy": 2757,
      "Ġintellect": 2758,
      "quently": 2759,
      "usi": 2760,
      "andering": 2761,
      "Ġallen": 2762,
      "Ġprep": 2763,
      "ending": 2764,
      "Ġweight": 2765,
      "Ġcompany": 2766,
      "assion": 2767,
      "Ġdisgu": 2768,
      "never": 2769,
      "Ġtwists": 2770,
      "Ġbadly": 2771,
      "Ġbrut": 2772,
      "Ġhowever": 2773,
      "Ġwatchable": 2774,
      "Ġjoke": 2775,
      "Ġthrills": 2776,
      "conscious": 2777,
      "Ġterms": 2778,
      "Ġapart": 2779,
      "Ġlacking": 2780,
      "Ġthinking": 2781,
      "Ġhighly": 2782,
      "Ġultimate": 2783,
      "Ġcrazy": 2784,
      "voking": 2785,
      "Ġproblems": 2786,
      "Ġunfunny": 2787,
      "Ġseriously": 2788,
      "Ġtragic": 2789,
      "Ġformulaic": 2790,
      "Ġpunch": 2791,
      "Ġbright": 2792,
      "Ġgripping": 2793,
      "Ġflawed": 2794,
      "Ġinvolved": 2795,
      "Ġreveals": 2796,
      "Ġsubstance": 2797,
      "Ġescap": 2798,
      "Ġbusiness": 2799,
      "Ġcourse": 2800,
      "Ġfavor": 2801,
      "Ġcontemporary": 2802,
      "Ġunexpected": 2803,
      "Ġ2002": 2804,
      "Ġdoubt": 2805,
      "60": 2806,
      "budget": 2807,
      "die": 2808,
      "hum": 2809,
      "ipp": 2810,
      "ique": 2811,
      "low": 2812,
      "mers": 2813,
      "nter": 2814,
      "rical": 2815,
      "somet": 2816,
      "ux": 2817,
      "watching": 2818,
      "zen": 2819,
      "Ġest": 2820,
      "Ġera": 2821,
      "Ġtick": 2822,
      "Ġaim": 2823,
      "hem": 2824,
      "head": 2825,
      "Ġson": 2826,
      "Ġsick": 2827,
      "Ġfive": 2828,
      "Ġfare": 2829,
      "enn": 2830,
      "Ġmes": 2831,
      "Ġcris": 2832,
      "Ġcyn": 2833,
      "Ġwish": 2834,
      "inger": 2835,
      "Ġdry": 2836,
      "aris": 2837,
      "aly": 2838,
      "ilt": 2839,
      "Ġnu": 2840,
      "Ġeth": 2841,
      "Ġecc": 2842,
      "Ġgre": 2843,
      "Ġstere": 2844,
      "Ġstars": 2845,
      "Ġbeat": 2846,
      "Ġresp": 2847,
      "Ġfilled": 2848,
      "eth": 2849,
      "Ġcomfort": 2850,
      "ified": 2851,
      "Ġener": 2852,
      "Ġunin": 2853,
      "Ġscr": 2854,
      "arts": 2855,
      "acted": 2856,
      "uster": 2857,
      "ops": 2858,
      "itted": 2859,
      "Ġmanip": 2860,
      "weet": 2861,
      "ization": 2862,
      "atingly": 2863,
      "Ġrap": 2864,
      "Ġrive": 2865,
      "Ġyourself": 2866,
      "Ġthemes": 2867,
      "Ġrealistic": 2868,
      "olds": 2869,
      "Ġcrush": 2870,
      "cons": 2871,
      "gged": 2872,
      "Ġrecord": 2873,
      "Ġplayed": 2874,
      "Ġfinds": 2875,
      "Ġpleasant": 2876,
      "Ġreport": 2877,
      "Ġdistinct": 2878,
      "Ġappears": 2879,
      "Ġimaginative": 2880,
      "iculous": 2881,
      "Ġhappens": 2882,
      "Ġflicks": 2883,
      "Ġmeditation": 2884,
      "provoking": 2885,
      "Ġsensitive": 2886,
      "Ġsoundtra": 2887,
      "Ġmissing": 2888,
      "Ġattempts": 2889,
      "Ġpromise": 2890,
      "Ġboys": 2891,
      "Ġsuccessful": 2892,
      "Ġinvolving": 2893,
      "Ġcalled": 2894,
      "ulgent": 2895,
      "Ġsandler": 2896,
      "Ġconsiderable": 2897,
      "Ġmildly": 2898,
      "Ġphilos": 2899,
      "Ġinventive": 2900,
      "Ġintimate": 2901,
      "Ġepisode": 2902,
      "Ġinclud": 2903,
      "Ġframe": 2904,
      "Ġbattle": 2905,
      "Ġpubl": 2906,
      "Ġbizarre": 2907,
      "Ġcirc": 2908,
      "Ġwilliams": 2909,
      "Ġghost": 2910,
      "hentic": 2911,
      "Ġsoundtrack": 2912,
      "avi": 2913,
      "field": 2914,
      "gth": 2915,
      "ived": 2916,
      "lish": 2917,
      "ners": 2918,
      "put": 2919,
      "Ġtun": 2920,
      "Ġtaken": 2921,
      "itable": 2922,
      "itions": 2923,
      "Ġfather": 2924,
      "Ġmatch": 2925,
      "Ġwat": 2926,
      "Ġpri": 2927,
      "Ġdom": 2928,
      "Ġhate": 2929,
      "Ġloss": 2930,
      "Ġlaz": 2931,
      "Ġnons": 2932,
      "stick": 2933,
      "entric": 2934,
      "vide": 2935,
      "Ġrent": 2936,
      "they": 2937,
      "see": 2938,
      "sequ": 2939,
      "ided": 2940,
      "agger": 2941,
      "Ġencou": 2942,
      "Ġintro": 2943,
      "Ġintense": 2944,
      "Ġshare": 2945,
      "Ġunc": 2946,
      "Ġuneven": 2947,
      "ires": 2948,
      "Ġnear": 2949,
      "ateur": 2950,
      "Ġsoc": 2951,
      "Ġvill": 2952,
      "Ġsports": 2953,
      "Ġspielberg": 2954,
      "Ġimax": 2955,
      "Ġoutrage": 2956,
      "Ġtran": 2957,
      "Ġroom": 2958,
      "Ġblend": 2959,
      "izz": 2960,
      "phy": 2961,
      "rison": 2962,
      "Ġtravel": 2963,
      "Ġinterested": 2964,
      "Ġcheck": 2965,
      "Ġterrible": 2966,
      "Ġrelent": 2967,
      "Ġfranch": 2968,
      "Ġwanted": 2969,
      "Ġsets": 2970,
      "Ġsett": 2971,
      "Ġincred": 2972,
      "arring": 2973,
      "Ġrepres": 2974,
      "Ġmarvel": 2975,
      "Ġfright": 2976,
      "Ġevil": 2977,
      "Ġruns": 2978,
      "Ġhappy": 2979,
      "Ġgeneral": 2980,
      "Ġdemonstr": 2981,
      "Ġexpress": 2982,
      "Ġputs": 2983,
      "Ġspiritual": 2984,
      "Ġprofound": 2985,
      "Ġpolitics": 2986,
      "Ġequally": 2987,
      "Ġtransc": 2988,
      "feels": 2989,
      "Ġsentimentality": 2990,
      "Ġdrug": 2991,
      "Ġaffection": 2992,
      "Ġstunning": 2993,
      "Ġsituations": 2994,
      "Ġforgettable": 2995,
      "written": 2996,
      "Ġpoetry": 2997,
      "Ġderiv": 2998,
      "after": 2999,
      "Ġlargely": 3000,
      "Ġextraord": 3001,
      "Ġbritish": 3002,
      "Ġindeed": 3003,
      "Ġtelevision": 3004,
      "Ġpoignant": 3005,
      "Ġpurpose": 3006,
      "Ġheaven": 3007,
      "Ġpieces": 3008,
      "Ġgoofy": 3009,
      "Ġinnoc": 3010,
      "Ġsophisticated": 3011,
      "Ġsuperficial": 3012,
      "Ġstrength": 3013,
      "Ġstereot": 3014,
      "Ġfranchise": 3015,
      "bear": 3016,
      "cr": 3017,
      "corn": 3018,
      "eper": 3019,
      "fer": 3020,
      "fun": 3021,
      "ium": 3022,
      "long": 3023,
      "miss": 3024,
      "par": 3025,
      "sm": 3026,
      "ters": 3027,
      "xic": 3028,
      "Ġtough": 3029,
      "Ġaccess": 3030,
      "Ġfreak": 3031,
      "eni": 3032,
      "Ġbog": 3033,
      "Ġbold": 3034,
      "Ġwest": 3035,
      "Ġwall": 3036,
      "Ġpan": 3037,
      "Ġpian": 3038,
      "ara": 3039,
      "arity": 3040,
      "Ġhits": 3041,
      "Ġhyp": 3042,
      "Ġtoday": 3043,
      "iling": 3044,
      "Ġloses": 3045,
      "asp": 3046,
      "Ġstom": 3047,
      "Ġstay": 3048,
      "uls": 3049,
      "Ġforced": 3050,
      "those": 3051,
      "Ġalive": 3052,
      "erson": 3053,
      "agon": 3054,
      "Ġliked": 3055,
      "aks": 3056,
      "atever": 3057,
      "Ġring": 3058,
      "inded": 3059,
      "venge": 3060,
      "osity": 3061,
      "Ġspace": 3062,
      "Ġimpl": 3063,
      "Ġamateur": 3064,
      "Ġtrash": 3065,
      "Ġlog": 3066,
      "Ġdisc": 3067,
      "Ġmeans": 3068,
      "Ġmaybe": 3069,
      "Ġsurvi": 3070,
      "Ġsurround": 3071,
      "bergh": 3072,
      "Ġsmo": 3073,
      "Ġscreenwrit": 3074,
      "Ġcinemat": 3075,
      "getic": 3076,
      "Ġguess": 3077,
      "Ġviewing": 3078,
      "Ġapparent": 3079,
      "Ġsetting": 3080,
      "Ġexcit": 3081,
      "Ġexcess": 3082,
      "arrass": 3083,
      "Ġcreated": 3084,
      "ancing": 3085,
      "Ġproduct": 3086,
      "Ġedge": 3087,
      "mined": 3088,
      "Ġdetail": 3089,
      "cover": 3090,
      "Ġabsolutely": 3091,
      "Ġpainful": 3092,
      "Ġeleg": 3093,
      "Ġsaid": 3094,
      "Ġprofess": 3095,
      "worth": 3096,
      "Ġmagn": 3097,
      "Ġcliche": 3098,
      "Ġquestions": 3099,
      "Ġcentral": 3100,
      "Ġmurphy": 3101,
      "Ġgrief": 3102,
      "Ġjackson": 3103,
      "Ġstrangely": 3104,
      "Ġvirtually": 3105,
      "Ġdepressing": 3106,
      "Ġgeorge": 3107,
      "Ġtypical": 3108,
      "Ġhaunting": 3109,
      "Ġcolorful": 3110,
      "Ġcrafted": 3111,
      "Ġenthusi": 3112,
      "Ġmodest": 3113,
      "Ġdisturbing": 3114,
      "Ġunintent": 3115,
      "Ġridiculous": 3116,
      "Ġmesmer": 3117,
      "Ġtransp": 3118,
      "Ġderivative": 3119,
      "bad": 3120,
      "back": 3121,
      "boy": 3122,
      "bling": 3123,
      "dis": 3124,
      "felt": 3125,
      "ging": 3126,
      "hol": 3127,
      "ken": 3128,
      "kable": 3129,
      "ole": 3130,
      "phed": 3131,
      "uit": 3132,
      "ura": 3133,
      "vin": 3134,
      "wo": 3135,
      "yle": 3136,
      "Ġign": 3137,
      "Ġtire": 3138,
      "Ġtender": 3139,
      "Ġaverage": 3140,
      "ina": 3141,
      "instead": 3142,
      "Ġsight": 3143,
      "Ġfiction": 3144,
      "ator": 3145,
      "Ġcry": 3146,
      "Ġwife": 3147,
      "orious": 3148,
      "Ġpen": 3149,
      "Ġdu": 3150,
      "alian": 3151,
      "Ġlame": 3152,
      "Ġlaw": 3153,
      "Ġlines": 3154,
      "Ġlength": 3155,
      "ashing": 3156,
      "Ġstage": 3157,
      "Ġstock": 3158,
      "Ġreach": 3159,
      "rap": 3160,
      "chant": 3161,
      "Ġfill": 3162,
      "Ġansw": 3163,
      "Ġsugar": 3164,
      "irth": 3165,
      "ids": 3166,
      "Ġchan": 3167,
      "Ġchang": 3168,
      "thr": 3169,
      "about": 3170,
      "ague": 3171,
      "ants": 3172,
      "ander": 3173,
      "Ġallow": 3174,
      "Ġplan": 3175,
      "Ġfeat": 3176,
      "Ġlets": 3177,
      "ichol": 3178,
      "Ġcompet": 3179,
      "Ġroot": 3180,
      "Ġslice": 3181,
      "Ġtalking": 3182,
      "ondz": 3183,
      "Ġparts": 3184,
      "Ġartistic": 3185,
      "Ġobs": 3186,
      "Ġobject": 3187,
      "Ġclearly": 3188,
      "Ġhardly": 3189,
      "cont": 3190,
      "ups": 3191,
      "Ġguilty": 3192,
      "Ġworthwhile": 3193,
      "Ġglimp": 3194,
      "Ġhumanity": 3195,
      "Ġprice": 3196,
      "Ġindie": 3197,
      "Ġoriginality": 3198,
      "Ġfinish": 3199,
      "Ġsket": 3200,
      "Ġirrit": 3201,
      "Ġsexy": 3202,
      "dden": 3203,
      "Ġgeneration": 3204,
      "Ġpainfully": 3205,
      "Ġundeni": 3206,
      "Ġpopcorn": 3207,
      "Ġobviously": 3208,
      "Ġinspired": 3209,
      "Ġinsightful": 3210,
      "Ġcourage": 3211,
      "Ġsimpl": 3212,
      "Ġadmi": 3213,
      "Ġwarmth": 3214,
      "Ġtreasure": 3215,
      "Ġaffecting": 3216,
      "Ġsuffers": 3217,
      "does": 3218,
      "Ġembarrass": 3219,
      "ivalent": 3220,
      "Ġaffair": 3221,
      "Ġextremely": 3222,
      "Ġauthentic": 3223,
      "Ġrefreshingly": 3224,
      "Ġexhilar": 3225,
      "Ġobserv": 3226,
      "Ġfootage": 3227,
      "Ġsucceeds": 3228,
      "Ġsurface": 3229,
      "Ġwedding": 3230,
      "Ġvoice": 3231,
      "Ġopportunity": 3232,
      "Ġgroup": 3233,
      "Ġconventional": 3234,
      "Ġatmosphere": 3235,
      "Ġabsorbing": 3236,
      "Ġcommercial": 3237,
      "Ġeccentric": 3238,
      "Ġenergetic": 3239,
      "Ġriveting": 3240,
      "Ġpublic": 3241,
      "Ġstereotyp": 3242,
      "Ġexcitement": 3243,
      "ave": 3244,
      "aus": 3245,
      "bs": 3246,
      "bor": 3247,
      "bles": 3248,
      "both": 3249,
      "cra": 3250,
      "den": 3251,
      "egr": 3252,
      "hour": 3253,
      "hmer": 3254,
      "ians": 3255,
      "jo": 3256,
      "much": 3257,
      "nal": 3258,
      "nic": 3259,
      "inal": 3260,
      "Ġfashion": 3261,
      "ency": 3262,
      "Ġmc": 3263,
      "Ġmal": 3264,
      "Ġban": 3265,
      "Ġbow": 3266,
      "Ġcore": 3267,
      "onna": 3268,
      "Ġped": 3269,
      "Ġpap": 3270,
      "Ġpick": 3271,
      "Ġdim": 3272,
      "lying": 3273,
      "Ġhall": 3274,
      "lex": 3275,
      "Ġinfl": 3276,
      "illed": 3277,
      "Ġlangu": 3278,
      "Ġna": 3279,
      "Ġgames": 3280,
      "ases": 3281,
      "Ġstre": 3282,
      "Ġrevenge": 3283,
      "theless": 3284,
      "roll": 3285,
      "Ġfilmed": 3286,
      "Ġwithin": 3287,
      "Ġalien": 3288,
      "abor": 3289,
      "Ġjol": 3290,
      "Ġsea": 3291,
      "Ġune": 3292,
      "Ġunfor": 3293,
      "Ġscar": 3294,
      "Ġscream": 3295,
      "Ġking": 3296,
      "Ġry": 3297,
      "Ġallows": 3298,
      "Ġplaces": 3299,
      "udlin": 3300,
      "Ġlearn": 3301,
      "Ġspook": 3302,
      "ards": 3303,
      "Ġtrick": 3304,
      "Ġarri": 3305,
      "ached": 3306,
      "ogn": 3307,
      "Ġadoles": 3308,
      "Ġsomehow": 3309,
      "Ġponder": 3310,
      "Ġblue": 3311,
      "new": 3312,
      "Ġtalk": 3313,
      "Ġsurreal": 3314,
      "Ġservice": 3315,
      "versal": 3316,
      "Ġparty": 3317,
      "Ġheartb": 3318,
      "Ġheartfelt": 3319,
      "Ġgreatest": 3320,
      "Ġtrip": 3321,
      "Ġterror": 3322,
      "Ġperspect": 3323,
      "Ġincre": 3324,
      "Ġmusical": 3325,
      "Ġiran": 3326,
      "Ġaccept": 3327,
      "insky": 3328,
      "Ġdecades": 3329,
      "Ġconsid": 3330,
      "Ġconsist": 3331,
      "Ġbelievable": 3332,
      "Ġefforts": 3333,
      "Ġpresents": 3334,
      "Ġdamned": 3335,
      "Ġequivalent": 3336,
      "Ġmaint": 3337,
      "Ġparticular": 3338,
      "Ġtreatment": 3339,
      "Ġdragon": 3340,
      "Ġtells": 3341,
      "Ġveh": 3342,
      "Ġmotion": 3343,
      "Ġident": 3344,
      "Ġremarkably": 3345,
      "Ġholds": 3346,
      "Ġsleep": 3347,
      "Ġbalance": 3348,
      "Ġspectacle": 3349,
      "Ġachieve": 3350,
      "Ġdelicate": 3351,
      "Ġpoorly": 3352,
      "Ġpowers": 3353,
      "Ġslapstick": 3354,
      "Ġpeter": 3355,
      "school": 3356,
      "Ġamazing": 3357,
      "Ġcharisma": 3358,
      "Ġjapanese": 3359,
      "Ġprotagon": 3360,
      "Ġunusual": 3361,
      "Ġtiresome": 3362,
      "ha": 3363,
      "ike": 3364,
      "pet": 3365,
      "rous": 3366,
      "set": 3367,
      "val": 3368,
      "will": 3369,
      "yc": 3370,
      "Ġice": 3371,
      "Ġty": 3372,
      "Ġtour": 3373,
      "Ġtelling": 3374,
      "ining": 3375,
      "Ġsnow": 3376,
      "Ġsitting": 3377,
      "rely": 3378,
      "Ġopt": 3379,
      "Ġfer": 3380,
      "Ġfur": 3381,
      "Ġmas": 3382,
      "Ġmill": 3383,
      "Ġmult": 3384,
      "Ġwil": 3385,
      "Ġwast": 3386,
      "Ġwry": 3387,
      "esc": 3388,
      "only": 3389,
      "onishing": 3390,
      "Ġpic": 3391,
      "Ġpra": 3392,
      "Ġdiv": 3393,
      "aries": 3394,
      "ario": 3395,
      "Ġthird": 3396,
      "leby": 3397,
      "Ġlay": 3398,
      "Ġlate": 3399,
      "Ġloose": 3400,
      "Ġnichol": 3401,
      "star": 3402,
      "Ġgut": 3403,
      "Ġgem": 3404,
      "uter": 3405,
      "Ġmoore": 3406,
      "otten": 3407,
      "Ġstir": 3408,
      "Ġstick": 3409,
      "Ġstret": 3410,
      "imsy": 3411,
      "etic": 3412,
      "Ġyarn": 3413,
      "Ġaspect": 3414,
      "Ġaltern": 3415,
      "unfortunately": 3416,
      "Ġjames": 3417,
      "Ġintended": 3418,
      "Ġshap": 3419,
      "Ġshame": 3420,
      "Ġshallow": 3421,
      "Ġdeeper": 3422,
      "Ġuncon": 3423,
      "Ġneg": 3424,
      "Ġscore": 3425,
      "Ġscience": 3426,
      "Ġconce": 3427,
      "asts": 3428,
      "Ġsoft": 3429,
      "Ġsoder": 3430,
      "andon": 3431,
      "Ġprog": 3432,
      "Ġruss": 3433,
      "Ġplod": 3434,
      "veness": 3435,
      "Ġvan": 3436,
      "Ġspot": 3437,
      "Ġspoof": 3438,
      "Ġarch": 3439,
      "Ġsomewhere": 3440,
      "Ġcompassion": 3441,
      "Ġcomputer": 3442,
      "Ġenter": 3443,
      "Ġusually": 3444,
      "ultim": 3445,
      "Ġemph": 3446,
      "Ġoffering": 3447,
      "Ġrad": 3448,
      "Ġtheme": 3449,
      "atively": 3450,
      "Ġdesp": 3451,
      "Ġdirectorial": 3452,
      "Ġscreenwriter": 3453,
      "Ġcontra": 3454,
      "Ġages": 3455,
      "inks": 3456,
      "Ġlonger": 3457,
      "Ġtrif": 3458,
      "umbs": 3459,
      "avor": 3460,
      "Ġpointless": 3461,
      "Ġneeded": 3462,
      "ucing": 3463,
      "ext": 3464,
      "Ġplease": 3465,
      "Ġirre": 3466,
      "Ġediting": 3467,
      "Ġsubjects": 3468,
      "Ġsequence": 3469,
      "Ġbrown": 3470,
      "Ġsitcom": 3471,
      "Ġstudio": 3472,
      "Ġgenerally": 3473,
      "Ġswim": 3474,
      "Ġharm": 3475,
      "Ġcommunity": 3476,
      "Ġsounds": 3477,
      "work": 3478,
      "Ġwildly": 3479,
      "Ġbehavi": 3480,
      "Ġcentury": 3481,
      "Ġpromising": 3482,
      "Ġcredits": 3483,
      "Ġvalue": 3484,
      "ground": 3485,
      "Ġsignific": 3486,
      "Ġdreams": 3487,
      "Ġgenuinely": 3488,
      "Ġangst": 3489,
      "Ġcombination": 3490,
      "Ġdevelopment": 3491,
      "Ġspectacular": 3492,
      "Ġpossibly": 3493,
      "Ġeventually": 3494,
      "Ġfigure": 3495,
      "Ġgangster": 3496,
      "Ġfunnier": 3497,
      "Ġbrothers": 3498,
      "Ġdeftly": 3499,
      "Ġempty": 3500,
      "Ġmartin": 3501,
      "Ġdescri": 3502,
      "Ġrepetitive": 3503,
      "Ġfestival": 3504,
      "Ġamateurish": 3505,
      "Ġmesmerizing": 3506,
      "Ġvehicle": 3507,
      "Ġidentity": 3508,
      "Ġsoderbergh": 3509,
      "cher": 3510,
      "cult": 3511,
      "dri": 3512,
      "dow": 3513,
      "dram": 3514,
      "funny": 3515,
      "gory": 3516,
      "high": 3517,
      "minded": 3518,
      "nces": 3519,
      "ru": 3520,
      "rum": 3521,
      "she": 3522,
      "suff": 3523,
      "uro": 3524,
      "win": 3525,
      "Ġ&": 3526,
      "ern": 3527,
      "itude": 3528,
      "Ġfier": 3529,
      "Ġble": 3530,
      "Ġbody": 3531,
      "Ġbored": 3532,
      "Ġbott": 3533,
      "ingu": 3534,
      "Ġpract": 3535,
      "Ġpaced": 3536,
      "Ġpinoc": 3537,
      "Ġdie": 3538,
      "Ġhide": 3539,
      "Ġtoss": 3540,
      "Ġinner": 3541,
      "eds": 3542,
      "iler": 3543,
      "illy": 3544,
      "omb": 3545,
      "Ġnumbers": 3546,
      "Ġnumber": 3547,
      "stream": 3548,
      "Ġearly": 3549,
      "Ġgold": 3550,
      "ented": 3551,
      "asm": 3552,
      "ashed": 3553,
      "Ġresem": 3554,
      "verse": 3555,
      "Ġsun": 3556,
      "irty": 3557,
      "ifting": 3558,
      "Ġchase": 3559,
      "Ġchann": 3560,
      "Ġjer": 3561,
      "agal": 3562,
      "umble": 3563,
      "cks": 3564,
      "Ġliber": 3565,
      "Ġsham": 3566,
      "Ġshots": 3567,
      "Ġdevoid": 3568,
      "Ġsco": 3569,
      "Ġconcl": 3570,
      "Ġkiller": 3571,
      "actic": 3572,
      "Ġprove": 3573,
      "Ġprovide": 3574,
      "uddy": 3575,
      "alling": 3576,
      "Ġord": 3577,
      "Ġqueen": 3578,
      "dep": 3579,
      "Ġarg": 3580,
      "acious": 3581,
      "aches": 3582,
      "Ġjustice": 3583,
      "Ġwilling": 3584,
      "comes": 3585,
      "Ġblade": 3586,
      "Ġoverly": 3587,
      "Ġperformers": 3588,
      "Ġemp": 3589,
      "Ġdisp": 3590,
      "Ġslick": 3591,
      "ips": 3592,
      "Ġraw": 3593,
      "Ġrip": 3594,
      "spired": 3595,
      "Ġteam": 3596,
      "Ġteacher": 3597,
      "Ġdesire": 3598,
      "bute": 3599,
      "Ġresults": 3600,
      "leasant": 3601,
      "Ġcrimes": 3602,
      "Ġholes": 3603,
      "Ġchees": 3604,
      "Ġkevin": 3605,
      "reek": 3606,
      "Ġgiant": 3607,
      "Ġfarce": 3608,
      "Ġrecogn": 3609,
      "avis": 3610,
      "Ġglass": 3611,
      "Ġturned": 3612,
      "Ġindust": 3613,
      "Ġpleasures": 3614,
      "Ġthinks": 3615,
      "Ġsheer": 3616,
      "Ġphys": 3617,
      "Ġmembers": 3618,
      "Ġschm": 3619,
      "stein": 3620,
      "ample": 3621,
      "Ġhappen": 3622,
      "Ġmindless": 3623,
      "Ġ199": 3624,
      "Ġvisuals": 3625,
      "Ġsave": 3626,
      "Ġsecret": 3627,
      "Ġcaptiv": 3628,
      "Ġexpected": 3629,
      "standing": 3630,
      "Ġreading": 3631,
      "Ġvalues": 3632,
      "ropri": 3633,
      "Ġanti": 3634,
      "Ġquietly": 3635,
      "Ġuniversal": 3636,
      "Ġstunts": 3637,
      "Ġstriking": 3638,
      "Ġfrequently": 3639,
      "wrought": 3640,
      "whel": 3641,
      "Ġendearing": 3642,
      "Ġinept": 3643,
      "Ġattraction": 3644,
      "Ġrelease": 3645,
      "Ġprecious": 3646,
      "Ġcomplicated": 3647,
      "eyed": 3648,
      "Ġbullock": 3649,
      "Ġrevolution": 3650,
      "Ġconstructed": 3651,
      "Ġexploration": 3652,
      "Ġdisguise": 3653,
      "Ġlazy": 3654,
      "Ġsociety": 3655,
      "Ġoutrageous": 3656,
      "Ġextraordinary": 3657,
      "Ġaccessible": 3658,
      "Ġstomach": 3659,
      "Ġcinematography": 3660,
      "Ġprofessional": 3661,
      "Ġirritating": 3662,
      "Ġsimplistic": 3663,
      "Ġperspective": 3664,
      "ultimately": 3665,
      "Ġemphas": 3666,
      "Ġbehavior": 3667,
      "aud": 3668,
      "ailed": 3669,
      "bol": 3670,
      "brid": 3671,
      "cies": 3672,
      "eath": 3673,
      "fman": 3674,
      "gor": 3675,
      "girl": 3676,
      "hu": 3677,
      "mi": 3678,
      "mar": 3679,
      "mas": 3680,
      "night": 3681,
      "pret": 3682,
      "run": 3683,
      "su": 3684,
      "top": 3685,
      "talk": 3686,
      "yes": 3687,
      "Ġ7": 3688,
      "Ġic": 3689,
      "Ġten": 3690,
      "Ġtack": 3691,
      "Ġaust": 3692,
      "Ġauth": 3693,
      "Ġsed": 3694,
      "Ġsides": 3695,
      "rem": 3696,
      "rest": 3697,
      "erable": 3698,
      "itional": 3699,
      "Ġfle": 3700,
      "Ġms": 3701,
      "Ġmiche": 3702,
      "atisf": 3703,
      "Ġbod": 3704,
      "Ġbore": 3705,
      "Ġbits": 3706,
      "Ġcro": 3707,
      "Ġcaut": 3708,
      "oric": 3709,
      "Ġpus": 3710,
      "aning": 3711,
      "Ġdyn": 3712,
      "Ġdazz": 3713,
      "alan": 3714,
      "Ġhur": 3715,
      "Ġhus": 3716,
      "Ġhook": 3717,
      "lete": 3718,
      "Ġnick": 3719,
      "Ġitalian": 3720,
      "Ġger": 3721,
      "Ġgar": 3722,
      "Ġbears": 3723,
      "vern": 3724,
      "ulation": 3725,
      "chan": 3726,
      "Ġasp": 3727,
      "sec": 3728,
      "irming": 3729,
      "Ġcomment": 3730,
      "Ġchance": 3731,
      "Ġchuck": 3732,
      "Ġchines": 3733,
      "Ġmoviemaking": 3734,
      "ama": 3735,
      "Ġalle": 3736,
      "Ġalthough": 3737,
      "abl": 3738,
      "Ġexample": 3739,
      "Ġshake": 3740,
      "Ġdeb": 3741,
      "ivered": 3742,
      "Ġuncom": 3743,
      "Ġconscious": 3744,
      "asting": 3745,
      "Ġsoon": 3746,
      "ford": 3747,
      "Ġproceed": 3748,
      "Ġfears": 3749,
      "Ġpreach": 3750,
      "Ġvol": 3751,
      "Ġvulg": 3752,
      "Ġspin": 3753,
      "Ġspell": 3754,
      "Ġclim": 3755,
      "itters": 3756,
      "Ġloved": 3757,
      "Ġarn": 3758,
      "aufman": 3759,
      "Ġadult": 3760,
      "weight": 3761,
      "Ġpoke": 3762,
      "Ġroger": 3763,
      "Ġovercome": 3764,
      "Ġoverwhel": 3765,
      "Ġrand": 3766,
      "Ġvibr": 3767,
      "ressed": 3768,
      "Ġtext": 3769,
      "Ġdelivered": 3770,
      "Ġserves": 3771,
      "Ġcontrol": 3772,
      "Ġholid": 3773,
      "Ġshowc": 3774,
      "Ġinsult": 3775,
      "Ġgrim": 3776,
      "Ġtribute": 3777,
      "Ġgrad": 3778,
      "Ġenjoyed": 3779,
      "Ġplayful": 3780,
      "neyed": 3781,
      "Ġreflect": 3782,
      "Ġhorrif": 3783,
      "Ġfriends": 3784,
      "Ġproduced": 3785,
      "Ġimagery": 3786,
      "Ġmonty": 3787,
      "Ġ195": 3788,
      "hens": 3789,
      "Ġpresence": 3790,
      "prod": 3791,
      "Ġcommon": 3792,
      "Ġnowhere": 3793,
      "Ġdivers": 3794,
      "class": 3795,
      "Ġlevels": 3796,
      "Ġdamn": 3797,
      "Ġmarks": 3798,
      "Ġintrigue": 3799,
      "Ġcredit": 3800,
      "Ġbenef": 3801,
      "Ġembra": 3802,
      "Ġdouble": 3803,
      "Ġexploit": 3804,
      "Ġpoetic": 3805,
      "Ġfatal": 3806,
      "warming": 3807,
      "Ġachieves": 3808,
      "Ġdigital": 3809,
      "Ġunpleasant": 3810,
      "Ġsplend": 3811,
      "Ġpulls": 3812,
      "Ġfailure": 3813,
      "Ġfrustrating": 3814,
      "Ġessentially": 3815,
      "Ġsongs": 3816,
      "Ġintentions": 3817,
      "Ġdesigned": 3818,
      "Ġstruggle": 3819,
      "Ġannoying": 3820,
      "Ġnecessary": 3821,
      "Ġfolks": 3822,
      "Ġmachine": 3823,
      "Ġpredecessor": 3824,
      "Ġchallenging": 3825,
      "Ġpositive": 3826,
      "Ġconcerned": 3827,
      "Ġdiverting": 3828,
      "Ġhackneyed": 3829,
      "Ġstructure": 3830,
      "Ġmanipulative": 3831,
      "Ġnonsense": 3832,
      "Ġincredibly": 3833,
      "Ġglimpse": 3834,
      "Ġexhilarating": 3835,
      "Ġincreas": 3836,
      "Ġfurther": 3837,
      "Ġtrifle": 3838,
      "Ġbottom": 3839,
      "Ġdynam": 3840,
      "Ġchinese": 3841,
      "eur": 3842,
      "gy": 3843,
      "gan": 3844,
      "iation": 3845,
      "ivid": 3846,
      "kins": 3847,
      "lor": 3848,
      "mn": 3849,
      "mr": 3850,
      "mak": 3851,
      "nature": 3852,
      "pleas": 3853,
      "vard": 3854,
      "Ġ\\/": 3855,
      "Ġtor": 3856,
      "Ġtight": 3857,
      "Ġtort": 3858,
      "inated": 3859,
      "Ġsill": 3860,
      "Ġsappy": 3861,
      "rep": 3862,
      "reaking": 3863,
      "rets": 3864,
      "rehens": 3865,
      "erk": 3866,
      "Ġfu": 3867,
      "Ġfab": 3868,
      "Ġfish": 3869,
      "Ġmile": 3870,
      "Ġmale": 3871,
      "Ġmention": 3872,
      "Ġband": 3873,
      "Ġbudget": 3874,
      "Ġbunch": 3875,
      "Ġcell": 3876,
      "Ġcame": 3877,
      "Ġcause": 3878,
      "Ġwide": 3879,
      "orous": 3880,
      "ority": 3881,
      "once": 3882,
      "Ġpur": 3883,
      "Ġprison": 3884,
      "Ġdick": 3885,
      "Ġdance": 3886,
      "Ġdys": 3887,
      "Ġdaring": 3888,
      "Ġhay": 3889,
      "Ġhill": 3890,
      "iced": 3891,
      "ilities": 3892,
      "Ġnational": 3893,
      "sters": 3894,
      "Ġgro": 3895,
      "Ġgreek": 3896,
      "Ġstate": 3897,
      "Ġstale": 3898,
      "Ġreno": 3899,
      "ceived": 3900,
      "Ġanaly": 3901,
      "ribly": 3902,
      "oop": 3903,
      "Ġsuspect": 3904,
      "iring": 3905,
      "Ġchris": 3906,
      "americ": 3907,
      "Ġhear": 3908,
      "abs": 3909,
      "unt": 3910,
      "Ġjason": 3911,
      "Ġjunk": 3912,
      "uming": 3913,
      "Ġseat": 3914,
      "Ġseason": 3915,
      "Ġexquis": 3916,
      "Ġshakes": 3917,
      "quent": 3918,
      "Ġnotice": 3919,
      "Ġhair": 3920,
      "Ġdecept": 3921,
      "Ġunh": 3922,
      "Ġconsp": 3923,
      "Ġconvers": 3924,
      "aine": 3925,
      "Ġsober": 3926,
      "Ġrough": 3927,
      "udes": 3928,
      "indulgent": 3929,
      "Ġlee": 3930,
      "osition": 3931,
      "ffman": 3932,
      "Ġvs": 3933,
      "Ġvamp": 3934,
      "Ġstoryline": 3935,
      "plo": 3936,
      "endent": 3937,
      "Ġqual": 3938,
      "Ġnostal": 3939,
      "Ġflow": 3940,
      "Ġflair": 3941,
      "oyant": 3942,
      "Ġroles": 3943,
      "Ġoffensive": 3944,
      "Ġmechan": 3945,
      "Ġtwice": 3946,
      "Ġtalents": 3947,
      "Ġrealism": 3948,
      "ledge": 3949,
      "Ġdirectors": 3950,
      "Ġremem": 3951,
      "Ġremain": 3952,
      "shot": 3953,
      "Ġstrict": 3954,
      "igni": 3955,
      "Ġ11": 3956,
      "orsese": 3957,
      "Ġromp": 3958,
      "Ġcruel": 3959,
      "Ġviscer": 3960,
      "Ġemotion": 3961,
      "Ġterrit": 3962,
      "Ġcollect": 3963,
      "Ġenglish": 3964,
      "Ġgloss": 3965,
      "Ġexcuse": 3966,
      "Ġinco": 3967,
      "Ġindivid": 3968,
      "Ġcreating": 3969,
      "Ġbuy": 3970,
      "ological": 3971,
      "together": 3972,
      "Ġappear": 3973,
      "Ġhoffman": 3974,
      "Ġsolondz": 3975,
      "Ġeduc": 3976,
      "Ġdelivery": 3977,
      "Ġmira": 3978,
      "Ġwonderfully": 3979,
      "elessly": 3980,
      "Ġsafe": 3981,
      "Ġbarbers": 3982,
      "Ġreturn": 3983,
      "offers": 3984,
      "Ġsurely": 3985,
      "Ġdamage": 3986,
      "Ġmainstream": 3987,
      "Ġmarket": 3988,
      "Ġtrem": 3989,
      "Ġoddly": 3990,
      "Ġwait": 3991,
      "Ġwaiting": 3992,
      "Ġcomedic": 3993,
      "Ġcontriv": 3994,
      "Ġmotiv": 3995,
      "medi": 3996,
      "Ġregard": 3997,
      "Ġdevast": 3998,
      "Ġdeserve": 3999,
      "Ġmixed": 4000,
      "Ġgrows": 4001,
      "everything": 4002,
      "Ġlandsc": 4003,
      "Ġstandards": 4004,
      "whether": 4005,
      "Ġdesperate": 4006,
      "Ġinspiring": 4007,
      "Ġearth": 4008,
      "Ġfunniest": 4009,
      "film": 4010,
      "Ġsource": 4011,
      "Ġparker": 4012,
      "Ġdetermined": 4013,
      "Ġastonishing": 4014,
      "Ġmetaphor": 4015,
      "Ġbreatht": 4016,
      "Ġaccomplished": 4017,
      "Ġmoviegoers": 4018,
      "Ġclumsy": 4019,
      "Ġemerges": 4020,
      "Ġdreary": 4021,
      "Ġintellectual": 4022,
      "Ġintrod": 4023,
      "funct": 4024,
      "Ġadmirable": 4025,
      "Ġpaper": 4026,
      "Ġryan": 4027,
      "Ġadolescent": 4028,
      "Ġprotagonist": 4029,
      "Ġtype": 4030,
      "Ġfierce": 4031,
      "Ġchannel": 4032,
      "Ġindustry": 4033,
      "Ġcaution": 4034,
      "ittersweet": 4035,
      "Ġvibrant": 4036,
      "Ġholiday": 4037,
      "natured": 4038,
      "Ġnostalg": 4039,
      "aith": 4040,
      "aid": 4041,
      "bit": 4042,
      "bas": 4043,
      "book": 4044,
      "da": 4045,
      "del": 4046,
      "falls": 4047,
      "gest": 4048,
      "gment": 4049,
      "hard": 4050,
      "iveness": 4051,
      "lie": 4052,
      "oft": 4053,
      "rat": 4054,
      "say": 4055,
      "vil": 4056,
      "xx": 4057,
      "Ġven": 4058,
      "Ġsan": 4059,
      "Ġsix": 4060,
      "Ġsister": 4061,
      "rect": 4062,
      "ero": 4063,
      "itch": 4064,
      "Ġfal": 4065,
      "Ġfly": 4066,
      "Ġfable": 4067,
      "Ġfood": 4068,
      "ision": 4069,
      "Ġment": 4070,
      "Ġmac": 4071,
      "atter": 4072,
      "Ġbed": 4073,
      "Ġbother": 4074,
      "Ġbuff": 4075,
      "Ġbittersweet": 4076,
      "Ġcate": 4077,
      "Ġcard": 4078,
      "Ġwoo": 4079,
      "Ġwann": 4080,
      "esque": 4081,
      "orig": 4082,
      "orient": 4083,
      "Ġpile": 4084,
      "another": 4085,
      "Ġdread": 4086,
      "Ġhig": 4087,
      "icism": 4088,
      "Ġinh": 4089,
      "Ġlos": 4090,
      "Ġnarc": 4091,
      "Ġgrown": 4092,
      "Ġstays": 4093,
      "Ġstarring": 4094,
      "Ġrepe": 4095,
      "vert": 4096,
      "Ġanne": 4097,
      "Ġyu": 4098,
      "Ġaside": 4099,
      "aded": 4100,
      "Ġwhatever": 4101,
      "irm": 4102,
      "Ġcompl": 4103,
      "Ġcha": 4104,
      "Ġchick": 4105,
      "tha": 4106,
      "amalan": 4107,
      "Ġjones": 4108,
      "Ġsearch": 4109,
      "Ġseagal": 4110,
      "Ġintens": 4111,
      "Ġintegr": 4112,
      "Ġlies": 4113,
      "Ġnotion": 4114,
      "ante": 4115,
      "Ġdeg": 4116,
      "Ġunw": 4117,
      "Ġunfl": 4118,
      "peare": 4119,
      "ellow": 4120,
      "Ġkick": 4121,
      "Ġkore": 4122,
      "Ġsole": 4123,
      "udic": 4124,
      "Ġspend": 4125,
      "ongs": 4126,
      "pper": 4127,
      "Ġloving": 4128,
      "thern": 4129,
      "Ġwears": 4130,
      "Ġweek": 4131,
      "acity": 4132,
      "Ġdirecting": 4133,
      "Ġworked": 4134,
      "Ġoverwrought": 4135,
      "Ġempathy": 4136,
      "Ġdisaster": 4137,
      "ensions": 4138,
      "Ġsloppy": 4139,
      "lessness": 4140,
      "osterous": 4141,
      "Ġthematic": 4142,
      "Ġmayhem": 4143,
      "anski": 4144,
      "phic": 4145,
      "Ġserved": 4146,
      "Ġstrang": 4147,
      "Ġmatters": 4148,
      "Ġ15": 4149,
      "Ġplotting": 4150,
      "redict": 4151,
      "Ġbigger": 4152,
      "Ġminute": 4153,
      "uctive": 4154,
      "Ġshowing": 4155,
      "Ġgritty": 4156,
      "teen": 4157,
      "Ġscenario": 4158,
      "Ġlesson": 4159,
      "ggy": 4160,
      "Ġrelatively": 4161,
      "Ġrecyc": 4162,
      "Ġbackground": 4163,
      "Ġfinding": 4164,
      "Ġdepiction": 4165,
      "Ġdrawn": 4166,
      "Ġbecoming": 4167,
      "Ġexplos": 4168,
      "Ġfriday": 4169,
      "Ġcarries": 4170,
      "Ġcrack": 4171,
      "Ġexperiences": 4172,
      "Ġmorality": 4173,
      "Ġinvest": 4174,
      "Ġpersonality": 4175,
      "Ġsuperior": 4176,
      "Ġstands": 4177,
      "imental": 4178,
      "Ġ198": 4179,
      "covery": 4180,
      "Ġdemand": 4181,
      "Ġzone": 4182,
      "Ġpaint": 4183,
      "Ġsouth": 4184,
      "Ġsecrets": 4185,
      "Ġmaudlin": 4186,
      "Ġbarry": 4187,
      "Ġaddition": 4188,
      "Ġretread": 4189,
      "Ġconfusing": 4190,
      "Ġassured": 4191,
      "Ġambig": 4192,
      "Ġreasonably": 4193,
      "Ġaccount": 4194,
      "Ġlively": 4195,
      "Ġadmire": 4196,
      "Ġcomplexity": 4197,
      "Ġviolent": 4198,
      "Ġbeginning": 4199,
      "Ġpaul": 4200,
      "Ġcaper": 4201,
      "Ġdisappointing": 4202,
      "Ġnicely": 4203,
      "Ġgrowing": 4204,
      "Ġxxx": 4205,
      "Ġtechnical": 4206,
      "Ġescape": 4207,
      "Ġcondition": 4208,
      "Ġdrive": 4209,
      "Ġcurrent": 4210,
      "Ġchoices": 4211,
      "Ġexhaust": 4212,
      "Ġchristian": 4213,
      "Ġchristmas": 4214,
      "ovich": 4215,
      "Ġforeign": 4216,
      "Ġknock": 4217,
      "ophical": 4218,
      "Ġingen": 4219,
      "Ġforgotten": 4220,
      "looking": 4221,
      "Ġmistake": 4222,
      "Ġdangerous": 4223,
      "Ġtotal": 4224,
      "\\*\\*": 4225,
      "Ġmakers": 4226,
      "sometimes": 4227,
      "Ġphilosophical": 4228,
      "Ġincluding": 4229,
      "Ġrepresents": 4230,
      "Ġstreet": 4231,
      "Ġiranian": 4232,
      "Ġaspects": 4233,
      "rupt": 4234,
      "Ġconclusion": 4235,
      "Ġarnold": 4236,
      "Ġpokemon": 4237,
      "Ġincreasingly": 4238,
      "Ġterritory": 4239,
      "Ġindividual": 4240,
      "Ġbarbershop": 4241,
      "Ġcautionary": 4242,
      "aves": 4243,
      "bar": 4244,
      "bra": 4245,
      "bble": 4246,
      "dog": 4247,
      "eks": 4248,
      "fri": 4249,
      "from": 4250,
      "fest": 4251,
      "hip": 4252,
      "ients": 4253,
      "kn": 4254,
      "length": 4255,
      "nan": 4256,
      "nam": 4257,
      "oly": 4258,
      "pan": 4259,
      "rate": 4260,
      "rated": 4261,
      "tv": 4262,
      "two": 4263,
      "uity": 4264,
      "vag": 4265,
      "vate": 4266,
      "xious": 4267,
      "your": 4268,
      "yamalan": 4269,
      "Ġtux": 4270,
      "Ġsam": 4271,
      "Ġsade": 4272,
      "Ġfis": 4273,
      "Ġmass": 4274,
      "athetic": 4275,
      "Ġbou": 4276,
      "Ġbol": 4277,
      "Ġbag": 4278,
      "Ġbart": 4279,
      "Ġbree": 4280,
      "Ġbaff": 4281,
      "Ġburns": 4282,
      "Ġcatch": 4283,
      "Ġwis": 4284,
      "Ġwent": 4285,
      "Ġwack": 4286,
      "Ġwond": 4287,
      "inging": 4288,
      "oring": 4289,
      "Ġpity": 4290,
      "ano": 4291,
      "Ġdon": 4292,
      "Ġthous": 4293,
      "Ġthreat": 4294,
      "Ġhang": 4295,
      "icy": 4296,
      "iles": 4297,
      "Ġling": 4298,
      "Ġlil": 4299,
      "Ġluc": 4300,
      "Ġluck": 4301,
      "Ġnumb": 4302,
      "stated": 4303,
      "Ġeast": 4304,
      "Ġell": 4305,
      "Ġmoves": 4306,
      "Ġstuck": 4307,
      "imm": 4308,
      "Ġrend": 4309,
      "Ġrede": 4310,
      "raid": 4311,
      "chio": 4312,
      "Ġyes": 4313,
      "rian": 4314,
      "riage": 4315,
      "essions": 4316,
      "Ġyouth": 4317,
      "Ġsucc": 4318,
      "Ġchilling": 4319,
      "Ġjul": 4320,
      "ager": 4321,
      "agers": 4322,
      "ghter": 4323,
      "emy": 4324,
      "Ġlived": 4325,
      "Ġlikable": 4326,
      "aky": 4327,
      "istent": 4328,
      "Ġhaw": 4329,
      "Ġscorsese": 4330,
      "aint": 4331,
      "Ġkaufman": 4332,
      "igg": 4333,
      "anders": 4334,
      "Ġru": 4335,
      "Ġris": 4336,
      "Ġric": 4337,
      "Ġrises": 4338,
      "Ġacts": 4339,
      "Ġspring": 4340,
      "Ġcloying": 4341,
      "Ġmanage": 4342,
      "acqu": 4343,
      "Ġtook": 4344,
      "comedy": 4345,
      "Ġusing": 4346,
      "Ġblock": 4347,
      "Ġdish": 4348,
      "ensional": 4349,
      "Ġrace": 4350,
      "Ġbrought": 4351,
      "angle": 4352,
      "Ġstring": 4353,
      "Ġhearts": 4354,
      "Ġmyth": 4355,
      "Ġmyself": 4356,
      "Ġbiggest": 4357,
      "Ġminim": 4358,
      "Ġcrass": 4359,
      "Ġcrude": 4360,
      "Ġobsc": 4361,
      "Ġthrilling": 4362,
      "autiful": 4363,
      "beautiful": 4364,
      "Ġlaughter": 4365,
      "Ġhumorous": 4366,
      "rowing": 4367,
      "Ġcollection": 4368,
      "Ġolder": 4369,
      "Ġknowing": 4370,
      "Ġappropri": 4371,
      "Ġdepart": 4372,
      "Ġmessages": 4373,
      "Ġideal": 4374,
      "Ġelo": 4375,
      "Ġirres": 4376,
      "Ġcreativity": 4377,
      "Ġmartha": 4378,
      "Ġmarriage": 4379,
      "Ġdistract": 4380,
      "Ġdistingu": 4381,
      "Ġrefere": 4382,
      "Ġpolanski": 4383,
      "Ġevo": 4384,
      "Ġbitter": 4385,
      "Ġpersona": 4386,
      "Ġmike": 4387,
      "Ġsequels": 4388,
      "Ġleaving": 4389,
      "Ġdetails": 4390,
      "Ġdetailed": 4391,
      "Ġze": 4392,
      "Ġwitch": 4393,
      "Ġharvard": 4394,
      "ographed": 4395,
      "Ġelement": 4396,
      "Ġfamilies": 4397,
      "Ġbox": 4398,
      "Ġcommun": 4399,
      "Ġcapture": 4400,
      "Ġconviction": 4401,
      "Ġpotentially": 4402,
      "Ġopening": 4403,
      "works": 4404,
      "ointed": 4405,
      "Ġpatience": 4406,
      "ographic": 4407,
      "Ġcenter": 4408,
      "ificial": 4409,
      "apses": 4410,
      "going": 4411,
      "Ġfantas": 4412,
      "Ġfantastic": 4413,
      "Ġtrek": 4414,
      "Ġbeneath": 4415,
      "Ġbenigni": 4416,
      "Ġfairy": 4417,
      "Ġsuspenseful": 4418,
      "Ġsigns": 4419,
      "Ġrevealing": 4420,
      "Ġwinds": 4421,
      "Ġjew": 4422,
      "Ġjeal": 4423,
      "Ġspeaking": 4424,
      "Ġcapable": 4425,
      "Ġmadonna": 4426,
      "Ġsympathy": 4427,
      "board": 4428,
      "Ġfollowing": 4429,
      "Ġliterary": 4430,
      "Ġresonant": 4431,
      "Ġresonance": 4432,
      "filled": 4433,
      "Ġfaithful": 4434,
      "Ġhomage": 4435,
      "Ġkissinger": 4436,
      "uddled": 4437,
      "Ġunlikely": 4438,
      "Ġimpression": 4439,
      "Ġappreciate": 4440,
      "Ġrhythms": 4441,
      "Ġpreposterous": 4442,
      "Ġbrutal": 4443,
      "Ġcynical": 4444,
      "Ġrespons": 4445,
      "Ġvillain": 4446,
      "Ġlogic": 4447,
      "Ġfeaturing": 4448,
      "Ġinflu": 4449,
      "Ġspooky": 4450,
      "Ġconsistently": 4451,
      "Ġwasted": 4452,
      "Ġstirring": 4453,
      "Ġdespair": 4454,
      "Ġharmless": 4455,
      "Ġpinocchio": 4456,
      "Ġcheesy": 4457,
      "Ġcaptivating": 4458,
      "Ġdazzling": 4459,
      "Ġpreachy": 4460,
      "Ġvulgar": 4461,
      "Ġvisceral": 4462,
      "aithful": 4463,
      "Ġintensity": 4464,
      "udicrous": 4465,
      "ares": 4466,
      "band": 4467,
      "cal": 4468,
      "don": 4469,
      "dom": 4470,
      "dim": 4471,
      "eff": 4472,
      "fam": 4473,
      "gust": 4474,
      "gressive": 4475,
      "har": 4476,
      "ira": 4477,
      "ipe": 4478,
      "ja": 4479,
      "ka": 4480,
      "mill": 4481,
      "mitt": 4482,
      "mod": 4483,
      "near": 4484,
      "numbers": 4485,
      "ok": 4486,
      "uable": 4487,
      "yet": 4488,
      "Ġ$": 4489,
      "Ġtay": 4490,
      "Ġtong": 4491,
      "Ġtempt": 4492,
      "Ġtasty": 4493,
      "Ġav": 4494,
      "Ġath": 4495,
      "Ġade": 4496,
      "ince": 4497,
      "Ġsag": 4498,
      "Ġsant": 4499,
      "Ġsold": 4500,
      "Ġfate": 4501,
      "Ġfac": 4502,
      "Ġfool": 4503,
      "ene": 4504,
      "Ġmou": 4505,
      "Ġmount": 4506,
      "Ġboo": 4507,
      "Ġbab": 4508,
      "Ġbite": 4509,
      "Ġcu": 4510,
      "Ġcas": 4511,
      "Ġpair": 4512,
      "Ġhun": 4513,
      "icip": 4514,
      "Ġinherent": 4515,
      "edo": 4516,
      "iliar": 4517,
      "Ġlousy": 4518,
      "Ġludicrous": 4519,
      "Ġnasty": 4520,
      "style": 4521,
      "Ġeg": 4522,
      "Ġevid": 4523,
      "Ġeuro": 4524,
      "asher": 4525,
      "Ġstu": 4526,
      "Ġstat": 4527,
      "Ġstop": 4528,
      "ray": 4529,
      "Ġupl": 4530,
      "these": 4531,
      "Ġonto": 4532,
      "Ġanth": 4533,
      "Ġask": 4534,
      "Ġasks": 4535,
      "ads": 4536,
      "Ġwhom": 4537,
      "ooby": 4538,
      "idly": 4539,
      "ifying": 4540,
      "Ġchron": 4541,
      "thin": 4542,
      "than": 4543,
      "Ġheal": 4544,
      "abe": 4545,
      "ago": 4546,
      "Ġsees": 4547,
      "eman": 4548,
      "Ġens": 4549,
      "Ġenig": 4550,
      "antial": 4551,
      "Ġdealing": 4552,
      "Ġunfortunately": 4553,
      "Ġunimag": 4554,
      "Ġscatt": 4555,
      "ained": 4556,
      "full": 4557,
      "udge": 4558,
      "Ġpress": 4559,
      "Ġvague": 4560,
      "Ġspent": 4561,
      "Ġspider": 4562,
      "Ġimmedi": 4563,
      "Ġclo": 4564,
      "Ġclot": 4565,
      "Ġclarity": 4566,
      "ief": 4567,
      "ploy": 4568,
      "hington": 4569,
      "ppert": 4570,
      "Ġmanh": 4571,
      "Ġamused": 4572,
      "orton": 4573,
      "Ġflo": 4574,
      "Ġflu": 4575,
      "Ġfluff": 4576,
      "perfect": 4577,
      "Ġintoxic": 4578,
      "Ġadam": 4579,
      "Ġdirects": 4580,
      "odes": 4581,
      "Ġblow": 4582,
      "Ġblair": 4583,
      "Ġtimely": 4584,
      "Ġoffbeat": 4585,
      "Ġhumour": 4586,
      "Ġslack": 4587,
      "Ġslasher": 4588,
      "Ġmeandering": 4589,
      "neider": 4590,
      "spirit": 4591,
      "ocaust": 4592,
      "Ġtales": 4593,
      "Ġrealized": 4594,
      "Ġrealize": 4595,
      "Ġvide": 4596,
      "Ġwashington": 4597,
      "Ġteens": 4598,
      "Ġsmile": 4599,
      "Ġsmug": 4600,
      "versive": 4601,
      "Ġnews": 4602,
      "Ġcontent": 4603,
      "Ġhoward": 4604,
      "lier": 4605,
      "Ġ12": 4606,
      "Ġheartwarming": 4607,
      "Ġartists": 4608,
      "Ġartificial": 4609,
      "Ġresist": 4610,
      "Ġcheer": 4611,
      "Ġwars": 4612,
      "Ġkey": 4613,
      "Ġdownright": 4614,
      "conom": 4615,
      "conceived": 4616,
      "Ġafric": 4617,
      "Ġrelig": 4618,
      "Ġcharms": 4619,
      "Ġsatir": 4620,
      "Ġsatur": 4621,
      "Ġindian": 4622,
      "Ġfinale": 4623,
      "Ġbuilt": 4624,
      "nov": 4625,
      "Ġhorrible": 4626,
      "Ġmemories": 4627,
      "Ġevocative": 4628,
      "Ġbroom": 4629,
      "Ġbroken": 4630,
      "Ġhappened": 4631,
      "Ġanimal": 4632,
      "without": 4633,
      "Ġhandsome": 4634,
      "Ġdemands": 4635,
      "Ġportray": 4636,
      "Ġwitness": 4637,
      "Ġintermitt": 4638,
      "Ġsouthern": 4639,
      "Ġunfaithful": 4640,
      "Ġsensual": 4641,
      "Ġexpectations": 4642,
      "offensive": 4643,
      "Ġpopular": 4644,
      "Ġassass": 4645,
      "vised": 4646,
      "Ġteenage": 4647,
      "Ġinsights": 4648,
      "Ġpathetic": 4649,
      "Ġequal": 4650,
      "Ġslowly": 4651,
      "Ġaccur": 4652,
      "Ġcounter": 4653,
      "Ġwinner": 4654,
      "Ġmainly": 4655,
      "Ġhonesty": 4656,
      "Ġbooks": 4657,
      "Ġbasic": 4658,
      "Ġsupporting": 4659,
      "Ġjournal": 4660,
      "Ġpaid": 4661,
      "Ġunderstanding": 4662,
      "Ġlifeless": 4663,
      "Ġextravag": 4664,
      "Ġtwisted": 4665,
      "Ġliterally": 4666,
      "Ġroller": 4667,
      "Ġindep": 4668,
      "Ġissue": 4669,
      "Ġactresses": 4670,
      "Ġtheaters": 4671,
      "Ġtradition": 4672,
      "Ġtraditional": 4673,
      "Ġreminds": 4674,
      "Ġdesperately": 4675,
      "Ġpoignancy": 4676,
      "Ġhybrid": 4677,
      "Ġlyrical": 4678,
      "Ġinev": 4679,
      "Ġpathos": 4680,
      "Ġreleased": 4681,
      "Ġdeterm": 4682,
      "Ġingred": 4683,
      "Ġtears": 4684,
      "Ġpulp": 4685,
      "Ġpacked": 4686,
      "Ġfrontal": 4687,
      "Ġpuzz": 4688,
      "Ġtotally": 4689,
      "Ġcloser": 4690,
      "Ġlady": 4691,
      "Ġguns": 4692,
      "Ġrequired": 4693,
      "Ġcostumes": 4694,
      "Ġrhythm": 4695,
      "Ġsacrif": 4696,
      "Ġcandy": 4697,
      "Ġuninspired": 4698,
      "Ġscreenwriting": 4699,
      "Ġlawrence": 4700,
      "irthday": 4701,
      "Ġembarrassment": 4702,
      "Ġobservations": 4703,
      "Ġstereotypes": 4704,
      "craft": 4705,
      "Ġbanal": 4706,
      "Ġwilde": 4707,
      "drama": 4708,
      "Ġordinary": 4709,
      "Ġhusband": 4710,
      "Ġcommentary": 4711,
      "Ġuncomfort": 4712,
      "Ġsilliness": 4713,
      "Ġdickens": 4714,
      "Ġanalyze": 4715,
      "Ġvampire": 4716,
      "Ġnostalgia": 4717,
      "Ġfalse": 4718,
      "Ġrepeated": 4719,
      "Ġdegree": 4720,
      "Ġfisher": 4721,
      "Ġwacky": 4722,
      "Ġredeem": 4723,
      "dimensional": 4724,
      "Ġsanta": 4725,
      "bet": 4726,
      "bid": 4727,
      "bered": 4728,
      "eve": 4729,
      "fty": 4730,
      "feld": 4731,
      "ham": 4732,
      "hang": 4733,
      "hash": 4734,
      "house": 4735,
      "jointed": 4736,
      "lock": 4737,
      "mal": 4738,
      "met": 4739,
      "mare": 4740,
      "none": 4741,
      "oons": 4742,
      "part": 4743,
      "prise": 4744,
      "pathetic": 4745,
      "sl": 4746,
      "sol": 4747,
      "tri": 4748,
      "wit": 4749,
      "ya": 4750,
      "zog": 4751,
      "Ġtend": 4752,
      "Ġtuck": 4753,
      "inching": 4754,
      "Ġsly": 4755,
      "Ġsell": 4756,
      "Ġsend": 4757,
      "Ġoli": 4758,
      "ites": 4759,
      "Ġfanc": 4760,
      "Ġfield": 4761,
      "Ġmisf": 4762,
      "Ġmiller": 4763,
      "Ġbes": 4764,
      "Ġbour": 4765,
      "Ġbound": 4766,
      "Ġbang": 4767,
      "Ġbath": 4768,
      "Ġbase": 4769,
      "Ġwra": 4770,
      "oul": 4771,
      "anes": 4772,
      "Ġdv": 4773,
      "Ġdue": 4774,
      "Ġdub": 4775,
      "Ġdrown": 4776,
      "Ġdancing": 4777,
      "Ġdirty": 4778,
      "lyn": 4779,
      "Ġhong": 4780,
      "Ġhint": 4781,
      "Ġhost": 4782,
      "icing": 4783,
      "Ġincon": 4784,
      "Ġinane": 4785,
      "Ġincomp": 4786,
      "Ġinoffensive": 4787,
      "Ġlane": 4788,
      "sts": 4789,
      "still": 4790,
      "stopp": 4791,
      "Ġeight": 4792,
      "Ġeconom": 4793,
      "Ġgos": 4794,
      "Ġgore": 4795,
      "Ġgender": 4796,
      "Ġstiff": 4797,
      "video": 4798,
      "Ġrele": 4799,
      "Ġreaction": 4800,
      "rarely": 4801,
      "Ġonscreen": 4802,
      "ola": 4803,
      "olation": 4804,
      "sey": 4805,
      "Ġwhims": 4806,
      "Ġwhimsy": 4807,
      "ooper": 4808,
      "Ġali": 4809,
      "Ġalab": 4810,
      "Ġheld": 4811,
      "Ġheard": 4812,
      "abashed": 4813,
      "ume": 4814,
      "umm": 4815,
      "umin": 4816,
      "umps": 4817,
      "Ġseven": 4818,
      "ousing": 4819,
      "Ġenvi": 4820,
      "Ġenorm": 4821,
      "urs": 4822,
      "Ġintric": 4823,
      "Ġlie": 4824,
      "Ġexceed": 4825,
      "outs": 4826,
      "romising": 4827,
      "antino": 4828,
      "estic": 4829,
      "Ġunre": 4830,
      "Ġunless": 4831,
      "Ġuncomp": 4832,
      "Ġunabashed": 4833,
      "Ġneat": 4834,
      "Ġscott": 4835,
      "Ġconc": 4836,
      "Ġconve": 4837,
      "pered": 4838,
      "Ġkong": 4839,
      "usive": 4840,
      "Ġproper": 4841,
      "Ġrat": 4842,
      "Ġrush": 4843,
      "Ġthank": 4844,
      "Ġsomber": 4845,
      "inducing": 4846,
      "Ġleon": 4847,
      "Ġprefer": 4848,
      "ffic": 4849,
      "Ġvent": 4850,
      "Ġspan": 4851,
      "Ġspir": 4852,
      "Ġspare": 4853,
      "Ġspite": 4854,
      "Ġclock": 4855,
      "place": 4856,
      "ppings": 4857,
      "Ġoutside": 4858,
      "manages": 4859,
      "Ġtrite": 4860,
      "Ġlovers": 4861,
      "inee": 4862,
      "Ġnoir": 4863,
      "Ġupd": 4864,
      "ache": 4865,
      "Ġjustify": 4866,
      "Ġpoem": 4867,
      "Ġrow": 4868,
      "izations": 4869,
      "Ġdisplay": 4870,
      "Ġdisbelie": 4871,
      "rying": 4872,
      "who": 4873,
      "why": 4874,
      "Ġmeat": 4875,
      "Ġsubversive": 4876,
      "ocused": 4877,
      "oster": 4878,
      "Ġremote": 4879,
      "Ġmatinee": 4880,
      "Ġcontext": 4881,
      "Ġpecul": 4882,
      "Ġtrappings": 4883,
      "Ġ100": 4884,
      "urning": 4885,
      "Ġartif": 4886,
      "Ġcrim": 4887,
      "Ġobno": 4888,
      "Ġcharacterizations": 4889,
      "Ġhollow": 4890,
      "Ġholocaust": 4891,
      "Ġaware": 4892,
      "Ġgrasp": 4893,
      "Ġclean": 4894,
      "Ġafraid": 4895,
      "Ġrelies": 4896,
      "Ġpretension": 4897,
      "Ġamericans": 4898,
      "ibal": 4899,
      "Ġengage": 4900,
      "Ġbelongs": 4901,
      "Ġlaughing": 4902,
      "Ġturning": 4903,
      "Ġfinest": 4904,
      "Ġiron": 4905,
      "Ġformat": 4906,
      "apping": 4907,
      "meaning": 4908,
      "Ġdistance": 4909,
      "Ġpolished": 4910,
      "directed": 4911,
      "Ġproduc": 4912,
      "Ġcrap": 4913,
      "Ġmelanch": 4914,
      "Ġmixt": 4915,
      "Ġmonsters": 4916,
      "Ġsaying": 4917,
      "Ġtouches": 4918,
      "Ġ197": 4919,
      "Ġhands": 4920,
      "attan": 4921,
      "Ġharry": 4922,
      "Ġstartling": 4923,
      "Ġsaving": 4924,
      "incent": 4925,
      "Ġspirited": 4926,
      "Ġsmarter": 4927,
      "Ġparable": 4928,
      "Ġparody": 4929,
      "Ġcommitted": 4930,
      "Ġadds": 4931,
      "Ġconfron": 4932,
      "Ġmissed": 4933,
      "Ġinspire": 4934,
      "Ġmenace": 4935,
      "Ġcliched": 4936,
      "Ġambition": 4937,
      "Ġteenagers": 4938,
      "Ġhelps": 4939,
      "entioned": 4940,
      "Ġhonestly": 4941,
      "Ġlarger": 4942,
      "Ġcutting": 4943,
      "Ġterrifying": 4944,
      "Ġstylized": 4945,
      "Ġcalcul": 4946,
      "Ġimportance": 4947,
      "rida": 4948,
      "Ġhopeful": 4949,
      "Ġdisappointed": 4950,
      "Ġsubstit": 4951,
      "Ġunderstands": 4952,
      "Ġnightmare": 4953,
      "Ġhopkins": 4954,
      "Ġsymbol": 4955,
      "Ġbringing": 4956,
      "Ġtechnology": 4957,
      "Ġgrandeur": 4958,
      "Ġproviding": 4959,
      "Ġimprob": 4960,
      "Ġsubtlety": 4961,
      "Ġsophom": 4962,
      "Ġfigures": 4963,
      "Ġcourt": 4964,
      "Ġgodard": 4965,
      "gener": 4966,
      "Ġballistic": 4967,
      "Ġphotography": 4968,
      "Ġearlier": 4969,
      "Ġendeavor": 4970,
      "Ġrevelatory": 4971,
      "aughter": 4972,
      "Ġcontinues": 4973,
      "Ġ51": 4974,
      "Ġtiming": 4975,
      "Ġcuriosity": 4976,
      "Ġpredecessors": 4977,
      "Ġsuggests": 4978,
      "maybe": 4979,
      "Ġrewarding": 4980,
      "Ġshadow": 4981,
      "Ġconstantly": 4982,
      "Ġvictims": 4983,
      "Ġlocal": 4984,
      "Ġinexplic": 4985,
      "imagine": 4986,
      "human": 4987,
      "Ġticket": 4988,
      "Ġcrisp": 4989,
      "Ġdistinctive": 4990,
      "Ġencounter": 4991,
      "Ġrelentless": 4992,
      "Ġtranscends": 4993,
      "Ġdrugs": 4994,
      "Ġinnocence": 4995,
      "Ġpianist": 4996,
      "Ġelegant": 4997,
      "Ġunintentional": 4998,
      "Ġanswers": 4999,
      "Ġplanet": 5000,
      "Ġcompetent": 5001,
      "Ġsketch": 5002,
      "Ġundeniably": 5003,
      "Ġlanguage": 5004,
      "Ġheartbreaking": 5005,
      "Ġachievement": 5006,
      "Ġplodding": 5007,
      "Ġenterprise": 5008,
      "Ġsignificant": 5009,
      "culture": 5010,
      "Ġbleak": 5011,
      "talkers": 5012,
      "Ġaustin": 5013,
      "Ġconsciousness": 5014,
      "Ġproceedings": 5015,
      "Ġgradually": 5016,
      "Ġdiversion": 5017,
      "Ġdysfunct": 5018,
      "american": 5019,
      "Ġshakespeare": 5020,
      "Ġstrictly": 5021,
      "Ġincoherent": 5022,
      "Ġcontrivances": 5023,
      "Ġdevastating": 5024,
      "often": 5025,
      "Ġwannabe": 5026,
      "original": 5027,
      "oriented": 5028,
      "Ġinhab": 5029,
      "redictable": 5030,
      "Ġtuxedo": 5031,
      "Ġzeal": 5032,
      "Ġjealousy": 5033,
      "Ġmanhattan": 5034,
      "spirited": 5035,
      "Ġsaturday": 5036,
      "Ġingredients": 5037,
      "Ġwhimsical": 5038,
      "Ġalabama": 5039,
      "Ġdisbelief": 5040,
      "Ġmixture": 5041,
      "bal": 5042,
      "bur": 5043,
      "bell": 5044,
      "brow": 5045,
      "can": 5046,
      "cock": 5047,
      "dro": 5048,
      "dem": 5049,
      "effect": 5050,
      "fr": 5051,
      "far": 5052,
      "free": 5053,
      "gs": 5054,
      "his": 5055,
      "hor": 5056,
      "iant": 5057,
      "iently": 5058,
      "jud": 5059,
      "kill": 5060,
      "list": 5061,
      "lig": 5062,
      "loud": 5063,
      "makes": 5064,
      "nest": 5065,
      "och": 5066,
      "occ": 5067,
      "po": 5068,
      "pic": 5069,
      "paced": 5070,
      "sily": 5071,
      "ta": 5072,
      "town": 5073,
      "under": 5074,
      "urable": 5075,
      "van": 5076,
      "vity": 5077,
      "wis": 5078,
      "would": 5079,
      "Ġton": 5080,
      "Ġtem": 5081,
      "Ġtap": 5082,
      "Ġtaut": 5083,
      "Ġai": 5084,
      "Ġach": 5085,
      "ini": 5086,
      "inn": 5087,
      "iner": 5088,
      "hey": 5089,
      "hered": 5090,
      "herence": 5091,
      "Ġsar": 5092,
      "Ġsara": 5093,
      "rey": 5094,
      "Ġod": 5095,
      "Ġfund": 5096,
      "Ġfizz": 5097,
      "ener": 5098,
      "Ġbul": 5099,
      "Ġbuddy": 5100,
      "Ġcable": 5101,
      "Ġcath": 5102,
      "Ġciv": 5103,
      "Ġcorn": 5104,
      "Ġwow": 5105,
      "Ġwils": 5106,
      "orter": 5107,
      "Ġpy": 5108,
      "Ġpad": 5109,
      "Ġpse": 5110,
      "anz": 5111,
      "Ġdud": 5112,
      "Ġdies": 5113,
      "Ġdrop": 5114,
      "arante": 5115,
      "Ġthick": 5116,
      "lym": 5117,
      "Ġhart": 5118,
      "lets": 5119,
      "ication": 5120,
      "icago": 5121,
      "Ġinform": 5122,
      "Ġincons": 5123,
      "Ġinnov": 5124,
      "Ġlimp": 5125,
      "Ġlump": 5126,
      "omp": 5127,
      "Ġnom": 5128,
      "Ġnation": 5129,
      "stop": 5130,
      "step": 5131,
      "stract": 5132,
      "starts": 5133,
      "Ġgag": 5134,
      "Ġgory": 5135,
      "Ġgimm": 5136,
      "Ġisland": 5137,
      "asive": 5138,
      "Ġstaged": 5139,
      "Ġstops": 5140,
      "imer": 5141,
      "Ġreview": 5142,
      "cho": 5143,
      "etnam": 5144,
      "ridden": 5145,
      "Ġforces": 5146,
      "Ġsuit": 5147,
      "Ġsund": 5148,
      "irms": 5149,
      "iding": 5150,
      "ifty": 5151,
      "Ġchilly": 5152,
      "Ġhey": 5153,
      "Ġjon": 5154,
      "Ġjim": 5155,
      "Ġjag": 5156,
      "uments": 5157,
      "ummy": 5158,
      "Ġseve": 5159,
      "urance": 5160,
      "Ġexotic": 5161,
      "Ġshyamalan": 5162,
      "Ġabandon": 5163,
      "Ġabstract": 5164,
      "Ġunne": 5165,
      "Ġunner": 5166,
      "Ġunbear": 5167,
      "Ġscrew": 5168,
      "Ġconvey": 5169,
      "Ġconsequ": 5170,
      "pecc": 5171,
      "Ġkill": 5172,
      "Ġkung": 5173,
      "Ġkilled": 5174,
      "Ġsoci": 5175,
      "Ġsoggy": 5176,
      "apur": 5177,
      "forward": 5178,
      "Ġrit": 5179,
      "Ġrise": 5180,
      "opic": 5181,
      "Ġactual": 5182,
      "udo": 5183,
      "Ġprecise": 5184,
      "Ġvincent": 5185,
      "Ġpercept": 5186,
      "Ġperverse": 5187,
      "Ġorder": 5188,
      "acked": 5189,
      "Ġimage": 5190,
      "Ġclub": 5191,
      "Ġclaust": 5192,
      "manship": 5193,
      "Ġloves": 5194,
      "acc": 5195,
      "Ġanywhere": 5196,
      "Ġcomparis": 5197,
      "ilet": 5198,
      "Ġroots": 5199,
      "eping": 5200,
      "Ġoverlong": 5201,
      "Ġdismiss": 5202,
      "Ġdiscovery": 5203,
      "Ġdisgust": 5204,
      "Ġoffice": 5205,
      "Ġslip": 5206,
      "Ġfaces": 5207,
      "ensely": 5208,
      "Ġvietnam": 5209,
      "Ġgenres": 5210,
      "Ġendless": 5211,
      "Ġdramat": 5212,
      "Ġseemed": 5213,
      "Ġseemingly": 5214,
      "renching": 5215,
      "Ġherzog": 5216,
      "inking": 5217,
      "Ġunderstated": 5218,
      "Ġfamous": 5219,
      "Ġshowtime": 5220,
      "Ġaward": 5221,
      "Ġcover": 5222,
      "Ġcock": 5223,
      "Ġattitude": 5224,
      "Ġscenery": 5225,
      "athers": 5226,
      "gettable": 5227,
      "Ġterribly": 5228,
      "Ġgraphic": 5229,
      "gger": 5230,
      "ggio": 5231,
      "ibilities": 5232,
      "Ġbelly": 5233,
      "Ġknowledge": 5234,
      "Ġdepict": 5235,
      "Ġkiddie": 5236,
      "Ġcarefully": 5237,
      "Ġelabor": 5238,
      "Ġkeeping": 5239,
      "Ġshel": 5240,
      "Ġeffectively": 5241,
      "Ġirish": 5242,
      "ateral": 5243,
      "Ġacad": 5244,
      "Ġpolice": 5245,
      "aneke": 5246,
      "Ġfrida": 5247,
      "cessary": 5248,
      "Ġcarvey": 5249,
      "struction": 5250,
      "Ġbiting": 5251,
      "Ġschneider": 5252,
      "Ġcultures": 5253,
      "Ġcreation": 5254,
      "Ġsuperb": 5255,
      "Ġsilence": 5256,
      "Ġhappiness": 5257,
      "Ġchildhood": 5258,
      "Ġgenerate": 5259,
      "Ġwrote": 5260,
      "Ġwondering": 5261,
      "Ġportrayal": 5262,
      "quee": 5263,
      "Ġstarted": 5264,
      "Ġexpert": 5265,
      "Ġpredictably": 5266,
      "Ġinterview": 5267,
      "Ġborrow": 5268,
      "Ġborder": 5269,
      "Ġfeatures": 5270,
      "Ġparad": 5271,
      "Ġsadness": 5272,
      "Ġunfolds": 5273,
      "Ġunfocused": 5274,
      "Ġleaden": 5275,
      "Ġsensational": 5276,
      "Ġunsatisf": 5277,
      "Ġconvinc": 5278,
      "Ġconvolut": 5279,
      "Ġpotent": 5280,
      "Ġmisses": 5281,
      "Ġmasterful": 5282,
      "Ġredund": 5283,
      "Ġdahmer": 5284,
      "Ġsatisfy": 5285,
      "visually": 5286,
      "Ġadmit": 5287,
      "Ġdramatically": 5288,
      "Ġcredible": 5289,
      "Ġcredibility": 5290,
      "Ġsnap": 5291,
      "Ġbrief": 5292,
      "anyone": 5293,
      "Ġheroine": 5294,
      "Ġdrags": 5295,
      "Ġdifference": 5296,
      "ropol": 5297,
      "Ġdrum": 5298,
      "Ġcuts": 5299,
      "Ġmetropol": 5300,
      "Ġstylistic": 5301,
      "Ġreveal": 5302,
      "Ġbrilliantly": 5303,
      "Ġstunt": 5304,
      "Ġwriters": 5305,
      "umpkin": 5306,
      "alloween": 5307,
      "Ġwindow": 5308,
      "Ġstrike": 5309,
      "Ġjean": 5310,
      "Ġangel": 5311,
      "Ġrestra": 5312,
      "Ġexplores": 5313,
      "Ġexploitation": 5314,
      "Ġmadness": 5315,
      "Ġcorrect": 5316,
      "Ġinstall": 5317,
      "Ġinstinct": 5318,
      "Ġshocking": 5319,
      "Ġvirtues": 5320,
      "Ġconduct": 5321,
      "Ġpossess": 5322,
      "Ġbloody": 5323,
      "Ġimprove": 5324,
      "Ġtestament": 5325,
      "Ġtheatre": 5326,
      "Ġtheatrical": 5327,
      "Ġfighting": 5328,
      "Ġcontempl": 5329,
      "Ġcopy": 5330,
      "Ġdestination": 5331,
      "Ġexistence": 5332,
      "Ġexistential": 5333,
      "Ġinspirational": 5334,
      "Ġhyper": 5335,
      "Ġ40": 5336,
      "charine": 5337,
      "Ġshooting": 5338,
      "Ġcelebrates": 5339,
      "Ġvarious": 5340,
      "Ġdelivering": 5341,
      "Ġpalma": 5342,
      "Ġlimited": 5343,
      "Ġvividly": 5344,
      "Ġpitch": 5345,
      "Ġcharismatic": 5346,
      "Ġflashy": 5347,
      "Ġwoody": 5348,
      "Ġnerve": 5349,
      "Ġforgive": 5350,
      "Ġnecessarily": 5351,
      "Ġlegend": 5352,
      "Ġdraws": 5353,
      "Ġ50": 5354,
      "Ġgift": 5355,
      "Ġgifted": 5356,
      "Ġdanger": 5357,
      "Ġconstant": 5358,
      "Ġvictim": 5359,
      "Ġsaccharine": 5360,
      "Ġfrailty": 5361,
      "Ġescapism": 5362,
      "Ġestabl": 5363,
      "Ġnuanced": 5364,
      "Ġethnic": 5365,
      "Ġscratch": 5366,
      "Ġprivate": 5367,
      "Ġdomestic": 5368,
      "Ġrelentlessly": 5369,
      "Ġfrightening": 5370,
      "smart": 5371,
      "Ġfreaks": 5372,
      "Ġpiano": 5373,
      "Ġimplaus": 5374,
      "Ġsmooth": 5375,
      "Ġapparently": 5376,
      "Ġmagnific": 5377,
      "Ġunintentionally": 5378,
      "Ġobsession": 5379,
      "Ġpedest": 5380,
      "Ġnicholas": 5381,
      "Ġprogram": 5382,
      "Ġcontradict": 5383,
      "dowell": 5384,
      "Ġfleet": 5385,
      "Ġrandom": 5386,
      "Ġhorrifying": 5387,
      "Ġsplendid": 5388,
      "Ġremembered": 5389,
      "Ġlandscape": 5390,
      "Ġbreathtaking": 5391,
      "Ġchaotic": 5392,
      "Ġunflinching": 5393,
      "Ġingenious": 5394,
      "Ġbreezy": 5395,
      "Ġrendered": 5396,
      "beautifully": 5397,
      "Ġtongue": 5398,
      "Ġathlet": 5399,
      "Ġadequ": 5400,
      "Ġsaga": 5401,
      "Ġcasual": 5402,
      "Ġeurope": 5403,
      "Ġstuart": 5404,
      "Ġuplifting": 5405,
      "Ġunimaginative": 5406,
      "Ġintoxicating": 5407,
      "Ġindependent": 5408,
      "Ġenviron": 5409,
      "Ġuncompromising": 5410,
      "Ġobnoxious": 5411,
      "Ġdysfunctional": 5412,
      "Ġinhabit": 5413,
      "Ġfundament": 5414,
      "Ġwilson": 5415,
      "Ġpseudo": 5416,
      "Ġunnecessary": 5417,
      "Ġclaustro": 5418,
      "19": 5419,
      "aa": 5420,
      "aim": 5421,
      "agh": 5422,
      "aul": 5423,
      "aude": 5424,
      "aeff": 5425,
      "ben": 5426,
      "bes": 5427,
      "bro": 5428,
      "big": 5429,
      "bust": 5430,
      "born": 5431,
      "balls": 5432,
      "city": 5433,
      "dr": 5434,
      "dan": 5435,
      "ean": 5436,
      "fin": 5437,
      "fire": 5438,
      "fell": 5439,
      "fans": 5440,
      "first": 5441,
      "filling": 5442,
      "gl": 5443,
      "half": 5444,
      "ij": 5445,
      "iated": 5446,
      "ls": 5447,
      "lom": 5448,
      "lse": 5449,
      "lines": 5450,
      "luster": 5451,
      "mur": 5452,
      "matic": 5453,
      "nia": 5454,
      "natural": 5455,
      "tis": 5456,
      "ught": 5457,
      "uation": 5458,
      "uated": 5459,
      "uber": 5460,
      "vol": 5461,
      "vous": 5462,
      "wone": 5463,
      "Ġtro": 5464,
      "Ġtatt": 5465,
      "Ġaute": 5466,
      "Ġahead": 5467,
      "inist": 5468,
      "Ġsne": 5469,
      "Ġsays": 5470,
      "Ġsink": 5471,
      "Ġseld": 5472,
      "Ġode": 5473,
      "erv": 5474,
      "erge": 5475,
      "Ġfo": 5476,
      "Ġfing": 5477,
      "Ġfake": 5478,
      "Ġfellow": 5479,
      "isive": 5480,
      "Ġmam": 5481,
      "athing": 5482,
      "Ġbard": 5483,
      "Ġbomb": 5484,
      "Ġcgi": 5485,
      "Ġcaine": 5486,
      "Ġwick": 5487,
      "Ġwound": 5488,
      "Ġwins": 5489,
      "onel": 5490,
      "Ġpage": 5491,
      "Ġpatch": 5492,
      "Ġpays": 5493,
      "Ġphen": 5494,
      "anity": 5495,
      "Ġdut": 5496,
      "Ġdong": 5497,
      "Ġdying": 5498,
      "Ġdroll": 5499,
      "Ġdavis": 5500,
      "arian": 5501,
      "alle": 5502,
      "almost": 5503,
      "Ġhat": 5504,
      "Ġhann": 5505,
      "Ġhalloween": 5506,
      "ica": 5507,
      "Ġtodd": 5508,
      "Ġtoler": 5509,
      "Ġinfect": 5510,
      "ilted": 5511,
      "Ġlu": 5512,
      "Ġlun": 5513,
      "Ġlower": 5514,
      "omen": 5515,
      "omnia": 5516,
      "Ġnam": 5517,
      "Ġnap": 5518,
      "stem": 5519,
      "Ġet": 5520,
      "Ġelect": 5521,
      "Ġgy": 5522,
      "Ġgli": 5523,
      "uted": 5524,
      "entimental": 5525,
      "ask": 5526,
      "asons": 5527,
      "asured": 5528,
      "Ġstatic": 5529,
      "Ġbeast": 5530,
      "Ġreel": 5531,
      "Ġreign": 5532,
      "Ġreject": 5533,
      "raw": 5534,
      "rael": 5535,
      "thet": 5536,
      "thew": 5537,
      "rob": 5538,
      "rovers": 5539,
      "ules": 5540,
      "Ġfilling": 5541,
      "Ġanch": 5542,
      "etime": 5543,
      "ette": 5544,
      "olic": 5545,
      "sex": 5546,
      "seem": 5547,
      "Ġsudden": 5548,
      "idi": 5549,
      "idel": 5550,
      "idence": 5551,
      "ift": 5552,
      "Ġchab": 5553,
      "Ġchoose": 5554,
      "Ġchills": 5555,
      "Ġchina": 5556,
      "thought": 5557,
      "Ġheight": 5558,
      "abeth": 5559,
      "unky": 5560,
      "unchy": 5561,
      "Ġjan": 5562,
      "Ġjar": 5563,
      "Ġjun": 5564,
      "Ġjacqu": 5565,
      "umes": 5566,
      "Ġsepar": 5567,
      "Ġsemi": 5568,
      "urban": 5569,
      "Ġlips": 5570,
      "Ġexuber": 5571,
      "Ġsho": 5572,
      "Ġshr": 5573,
      "Ġship": 5574,
      "Ġabuse": 5575,
      "Ġunrel": 5576,
      "Ġunbelie": 5577,
      "Ġscale": 5578,
      "Ġconj": 5579,
      "Ġconco": 5580,
      "aining": 5581,
      "Ġknew": 5582,
      "usions": 5583,
      "formed": 5584,
      "Ġcharlie": 5585,
      "Ġround": 5586,
      "Ġrules": 5587,
      "inds": 5588,
      "Ġprev": 5589,
      "Ġvit": 5590,
      "Ġvast": 5591,
      "Ġvap": 5592,
      "Ġvint": 5593,
      "Ġvital": 5594,
      "Ġspont": 5595,
      "Ġperpet": 5596,
      "ption": 5597,
      "Ġimitation": 5598,
      "Ġimpecc": 5599,
      "Ġclin": 5600,
      "Ġclunk": 5601,
      "placed": 5602,
      "Ġmann": 5603,
      "Ġmanaged": 5604,
      "Ġamy": 5605,
      "Ġamuse": 5606,
      "Ġque": 5607,
      "Ġtrust": 5608,
      "Ġnoble": 5609,
      "Ġarrest": 5610,
      "ogy": 5611,
      "perhaps": 5612,
      "Ġadv": 5613,
      "Ġsomebody": 5614,
      "Ġanyway": 5615,
      "ntown": 5616,
      "oyan": 5617,
      "Ġentry": 5618,
      "Ġrose": 5619,
      "Ġrohmer": 5620,
      "izabeth": 5621,
      "Ġemploy": 5622,
      "Ġemerge": 5623,
      "Ġdisjointed": 5624,
      "intentioned": 5625,
      "Ġmeant": 5626,
      "Ġmeets": 5627,
      "Ġmeasure": 5628,
      "Ġsubpl": 5629,
      "Ġlooked": 5630,
      "ocity": 5631,
      "ostor": 5632,
      "Ġnevertheless": 5633,
      "resses": 5634,
      "phob": 5635,
      "Ġserial": 5636,
      "show": 5637,
      "Ġseeking": 5638,
      "Ġherself": 5639,
      "Ġmature": 5640,
      "Ġentertained": 5641,
      "Ġcontrovers": 5642,
      "Ġaggressive": 5643,
      "Ġtrapped": 5644,
      "Ġplotted": 5645,
      "athan": 5646,
      "Ġarts": 5647,
      "Ġcrud": 5648,
      "Ġcheese": 5649,
      "Ġthrillers": 5650,
      "mering": 5651,
      "Ġwarning": 5652,
      "aware": 5653,
      "Ġcoherent": 5654,
      "Ġlaug": 5655,
      "conf": 5656,
      "Ġgrab": 5657,
      "Ġcolors": 5658,
      "Ġappl": 5659,
      "Ġcares": 5660,
      "Ġguarante": 5661,
      "Ġlackluster": 5662,
      "avish": 5663,
      "Ġglo": 5664,
      "Ġglor": 5665,
      "Ġglory": 5666,
      "Ġelizabeth": 5667,
      "Ġextended": 5668,
      "Ġirony": 5669,
      "Ġbuoyant": 5670,
      "Ġrefuses": 5671,
      "aneously": 5672,
      "Ġhoot": 5673,
      "Ġproduce": 5674,
      "Ġexperiment": 5675,
      "Ġsolaris": 5676,
      "Ġyounger": 5677,
      "Ġdeliber": 5678,
      "Ġmonot": 5679,
      "Ġminds": 5680,
      "Ġtouched": 5681,
      "Ġdidactic": 5682,
      "Ġhandful": 5683,
      "Ġdarkly": 5684,
      "Ġharrowing": 5685,
      "Ġintern": 5686,
      "Ġstrain": 5687,
      "Ġbrand": 5688,
      "proof": 5689,
      "Ġboom": 5690,
      "Ġparade": 5691,
      "Ġparano": 5692,
      "Ġunsentimental": 5693,
      "Ġretro": 5694,
      "Ġreturns": 5695,
      "Ġengaged": 5696,
      "Ġsystem": 5697,
      "world": 5698,
      "Ġwilder": 5699,
      "Ġpatient": 5700,
      "Ġquirks": 5701,
      "Ġtransl": 5702,
      "Ġsteam": 5703,
      "Ġsimilar": 5704,
      "Ġsimplic": 5705,
      "Ġsubtly": 5706,
      "Ġdelightfully": 5707,
      "Ġbrid": 5708,
      "Ġodds": 5709,
      "Ġready": 5710,
      "Ġdeadly": 5711,
      "Ġdeadpan": 5712,
      "Ġillustr": 5713,
      "Ġmysteries": 5714,
      "Ġpsychology": 5715,
      "remely": 5716,
      "blown": 5717,
      "Ġhitch": 5718,
      "Ġrichly": 5719,
      "Ġfollows": 5720,
      "Ġsuffering": 5721,
      "urpris": 5722,
      "Ġdogs": 5723,
      "Ġspeaks": 5724,
      "Ġdenying": 5725,
      "Ġsubstantial": 5726,
      "Ġ80": 5727,
      "Ġhoping": 5728,
      "Ġlifetime": 5729,
      "Ġletting": 5730,
      "ienced": 5731,
      "Ġexecuted": 5732,
      "Ġtopic": 5733,
      "Ġnonetheless": 5734,
      "Ġmedium": 5735,
      "Ġverve": 5736,
      "Ġdelicious": 5737,
      "overall": 5738,
      "Ġbusy": 5739,
      "Ġjoyous": 5740,
      "Ġerr": 5741,
      "Ġphilip": 5742,
      "Ġfights": 5743,
      "Ġdesperation": 5744,
      "Ġlistless": 5745,
      "Ġpresented": 5746,
      "Ġinspiration": 5747,
      "Ġcritical": 5748,
      "Ġcritics": 5749,
      "Ġhaunted": 5750,
      "Ġamounts": 5751,
      "Ġenthr": 5752,
      "Ġbuilding": 5753,
      "Ġthrows": 5754,
      "Ġcomplications": 5755,
      "Ġopportun": 5756,
      "Ġavoids": 5757,
      "affirming": 5758,
      "Ġchallenges": 5759,
      "Ġconcern": 5760,
      "Ġclumsily": 5761,
      "Ġlocations": 5762,
      "Ġcostume": 5763,
      "Ġbrutally": 5764,
      "something": 5765,
      "Ġcrisis": 5766,
      "Ġphilosop": 5767,
      "Ġrental": 5768,
      "sequential": 5769,
      "Ġuncertain": 5770,
      "Ġsettles": 5771,
      "ersonal": 5772,
      "Ġtrashy": 5773,
      "Ġsurrounding": 5774,
      "Ġscreenwriters": 5775,
      "Ġguessing": 5776,
      "worthy": 5777,
      "Ġenthusiasm": 5778,
      "hollywood": 5779,
      "Ġchanging": 5780,
      "Ġundeniable": 5781,
      "Ġhallmark": 5782,
      "Ġarrives": 5783,
      "Ġconsidering": 5784,
      "Ġoptim": 5785,
      "Ġpraise": 5786,
      "Ġdivine": 5787,
      "Ġrussian": 5788,
      "suffers": 5789,
      "Ġresembles": 5790,
      "Ġscores": 5791,
      "Ġdispos": 5792,
      "Ġphysical": 5793,
      "Ġicon": 5794,
      "Ġnickleby": 5795,
      "Ġgerman": 5796,
      "Ġaspir": 5797,
      "Ġbenefit": 5798,
      "Ġexploitative": 5799,
      "rehensible": 5800,
      "Ġhaynes": 5801,
      "Ġsobering": 5802,
      "Ġglossy": 5803,
      "Ġtremend": 5804,
      "Ġsanct": 5805,
      "Ġsisterhood": 5806,
      "Ġcategory": 5807,
      "Ġintegrity": 5808,
      "Ġbaffling": 5809,
      "Ġricher": 5810,
      "Ġminimal": 5811,
      "Ġirresist": 5812,
      "Ġreferences": 5813,
      "Ġmouth": 5814,
      "Ġscattered": 5815,
      "Ġclooney": 5816,
      "Ġafrican": 5817,
      "Ġsatirical": 5818,
      "Ġinevitable": 5819,
      "Ġdetermination": 5820,
      "Ġfanciful": 5821,
      "Ġbourne": 5822,
      "Ġintricate": 5823,
      "Ġpeculiar": 5824,
      "Ġgimmick": 5825,
      "Ġunnerving": 5826,
      "Ġcomparison": 5827,
      "Ġelaborate": 5828,
      "Ġeuropean": 5829,
      "Ġenvironment": 5830,
      "Ġclaustrophob": 5831,
      "aeffer": 5832,
      "lsea": 5833,
      "Ġphenomen": 5834,
      "Ġnamed": 5835,
      "Ġvintage": 5836,
      "Ġspontane": 5837,
      "Ġimpeccable": 5838,
      "Ġsimplicity": 5839,
      "aver": 5840,
      "bum": 5841,
      "bound": 5842,
      "bted": 5843,
      "backs": 5844,
      "car": 5845,
      "cil": 5846,
      "could": 5847,
      "certain": 5848,
      "cute": 5849,
      "count": 5850,
      "ee": 5851,
      "egger": 5852,
      "fan": 5853,
      "fall": 5854,
      "faced": 5855,
      "gn": 5856,
      "gid": 5857,
      "gant": 5858,
      "god": 5859,
      "iro": 5860,
      "iers": 5861,
      "iable": 5862,
      "iating": 5863,
      "ket": 5864,
      "kind": 5865,
      "lan": 5866,
      "mor": 5867,
      "member": 5868,
      "nair": 5869,
      "oved": 5870,
      "pass": 5871,
      "power": 5872,
      "rity": 5873,
      "sa": 5874,
      "sad": 5875,
      "sweet": 5876,
      "tar": 5877,
      "tun": 5878,
      "take": 5879,
      "takes": 5880,
      "vincing": 5881,
      "wa": 5882,
      "zzy": 5883,
      "Ġ6": 5884,
      "Ġq": 5885,
      "Ġtout": 5886,
      "Ġtast": 5887,
      "Ġties": 5888,
      "Ġtang": 5889,
      "Ġtread": 5890,
      "Ġtask": 5891,
      "Ġaes": 5892,
      "Ġapt": 5893,
      "Ġawe": 5894,
      "Ġaims": 5895,
      "inis": 5896,
      "infeld": 5897,
      "heavy": 5898,
      "Ġske": 5899,
      "rec": 5900,
      "ref": 5901,
      "rend": 5902,
      "Ġoh": 5903,
      "erie": 5904,
      "itz": 5905,
      "Ġfence": 5906,
      "Ġfict": 5907,
      "Ġfred": 5908,
      "Ġfaster": 5909,
      "Ġfancy": 5910,
      "iso": 5911,
      "isse": 5912,
      "eningly": 5913,
      "Ġmcc": 5914,
      "atur": 5915,
      "atile": 5916,
      "Ġbon": 5917,
      "Ġbot": 5918,
      "Ġbone": 5919,
      "Ġbirthday": 5920,
      "Ġcy": 5921,
      "Ġcad": 5922,
      "Ġcere": 5923,
      "Ġcaught": 5924,
      "Ġwet": 5925,
      "Ġwid": 5926,
      "oned": 5927,
      "oubted": 5928,
      "Ġpor": 5929,
      "Ġporn": 5930,
      "Ġdad": 5931,
      "Ġdust": 5932,
      "Ġdare": 5933,
      "Ġdign": 5934,
      "Ġdoll": 5935,
      "arching": 5936,
      "Ġthorn": 5937,
      "Ġthrown": 5938,
      "Ġhust": 5939,
      "leck": 5940,
      "Ġinsec": 5941,
      "edies": 5942,
      "Ġlater": 5943,
      "Ġlamp": 5944,
      "Ġlonel": 5945,
      "stac": 5946,
      "Ġeager": 5947,
      "Ġgle": 5948,
      "Ġgoth": 5949,
      "Ġgigg": 5950,
      "Ġisrael": 5951,
      "elson": 5952,
      "Ġmoth": 5953,
      "Ġmold": 5954,
      "Ġmoved": 5955,
      "Ġmoody": 5956,
      "ashes": 5957,
      "asionally": 5958,
      "otion": 5959,
      "Ġstim": 5960,
      "Ġstro": 5961,
      "Ġstag": 5962,
      "Ġstore": 5963,
      "Ġstilted": 5964,
      "imony": 5965,
      "Ġbeach": 5966,
      "vial": 5967,
      "Ġreli": 5968,
      "Ġreasons": 5969,
      "rah": 5970,
      "raging": 5971,
      "Ġasian": 5972,
      "rium": 5973,
      "olly": 5974,
      "Ġforth": 5975,
      "Ġbutter": 5976,
      "Ġwhale": 5977,
      "Ġwholes": 5978,
      "oochy": 5979,
      "Ġsuited": 5980,
      "irot": 5981,
      "idt": 5982,
      "Ġchore": 5983,
      "Ġchiller": 5984,
      "Ġchoppy": 5985,
      "Ġchases": 5986,
      "ami": 5987,
      "Ġheat": 5988,
      "unlike": 5989,
      "Ġjane": 5990,
      "agand": 5991,
      "Ġsept": 5992,
      "emic": 5993,
      "emark": 5994,
      "Ġenh": 5995,
      "urous": 5996,
      "Ġexagger": 5997,
      "aki": 5998,
      "Ġshim": 5999,
      "Ġshines": 6000,
      "quiet": 6001,
      "Ġnote": 6002,
      "Ġdope": 6003,
      "Ġdoses": 6004,
      "anter": 6005,
      "Ġunful": 6006,
      "Ġunoriginal": 6007,
      "Ġneigh": 6008,
      "Ġscooby": 6009,
      "Ġconven": 6010,
      "Ġkos": 6011,
      "Ġkah": 6012,
      "Ġkenn": 6013,
      "ushing": 6014,
      "Ġcharmer": 6015,
      "Ġprovo": 6016,
      "Ġrings": 6017,
      "Ġrote": 6018,
      "Ġrousing": 6019,
      "opath": 6020,
      "Ġlegged": 6021,
      "Ġvel": 6022,
      "Ġorgan": 6023,
      "pton": 6024,
      "Ġoutstanding": 6025,
      "Ġamid": 6026,
      "Ġquart": 6027,
      "Ġtricks": 6028,
      "Ġloyal": 6029,
      "Ġweep": 6030,
      "Ġweeks": 6031,
      "acino": 6032,
      "Ġfles": 6033,
      "Ġadams": 6034,
      "Ġadvant": 6035,
      "Ġgoodfell": 6036,
      "odic": 6037,
      "Ġcomprom": 6038,
      "Ġcannes": 6039,
      "Ġpool": 6040,
      "Ġblast": 6041,
      "Ġblind": 6042,
      "Ġblues": 6043,
      "Ġblank": 6044,
      "epid": 6045,
      "ultaneously": 6046,
      "Ġdiscer": 6047,
      "Ġdiscover": 6048,
      "ounding": 6049,
      "Ġslog": 6050,
      "ishment": 6051,
      "ipes": 6052,
      "Ġracial": 6053,
      "Ġraunchy": 6054,
      "Ġmeet": 6055,
      "Ġripe": 6056,
      "atically": 6057,
      "Ġendlessly": 6058,
      "ression": 6059,
      "Ġbruce": 6060,
      "Ġtech": 6061,
      "Ġsmoochy": 6062,
      "Ġserve": 6063,
      "Ġcontains": 6064,
      "Ġpeek": 6065,
      "eresting": 6066,
      "Ġundercut": 6067,
      "Ġlonging": 6068,
      "Ġpartly": 6069,
      "Ġparticip": 6070,
      "Ġyearning": 6071,
      "Ġarticul": 6072,
      "Ġjoe": 6073,
      "Ġresolutely": 6074,
      "Ġcharacterization": 6075,
      "Ġchew": 6076,
      "Ġchelsea": 6077,
      "Ġinsane": 6078,
      "Ġvisit": 6079,
      "Ġgrat": 6080,
      "Ġgib": 6081,
      "tech": 6082,
      "Ġcletis": 6083,
      "Ġtried": 6084,
      "Ġtriangle": 6085,
      "construct": 6086,
      "Ġhumorless": 6087,
      "gets": 6088,
      "umbles": 6089,
      "ission": 6090,
      "Ġlesser": 6091,
      "gging": 6092,
      "Ġdocumentaries": 6093,
      "Ġplayers": 6094,
      "Ġbelow": 6095,
      "Ġlaughable": 6096,
      "Ġapply": 6097,
      "Ġappet": 6098,
      "Ġmessy": 6099,
      "Ġprinc": 6100,
      "Ġcareful": 6101,
      "Ġindulgent": 6102,
      "Ġultra": 6103,
      "Ġpleasing": 6104,
      "Ġdrab": 6105,
      "Ġskip": 6106,
      "Ġironic": 6107,
      "Ġreput": 6108,
      "Ġmarginal": 6109,
      "Ġexplore": 6110,
      "Ġdecided": 6111,
      "Ġeasier": 6112,
      "Ġ21": 6113,
      "Ġcarry": 6114,
      "Ġrunner": 6115,
      "Ġeddie": 6116,
      "Ġschwar": 6117,
      "Ġsuperbly": 6118,
      "Ġsupernatural": 6119,
      "Ġsilver": 6120,
      "Ġbros": 6121,
      "Ġhappening": 6122,
      "Ġhalfway": 6123,
      "Ġswallow": 6124,
      "Ġdemographic": 6125,
      "Ġportrays": 6126,
      "Ġsweetness": 6127,
      "Ġzhang": 6128,
      "Ġharsh": 6129,
      "Ġharris": 6130,
      "Ġelev": 6131,
      "Ġinterpret": 6132,
      "Ġcleverness": 6133,
      "Ġlightweight": 6134,
      "Ġdefe": 6135,
      "Ġsmartly": 6136,
      "Ġbob": 6137,
      "Ġbarrel": 6138,
      "Ġundis": 6139,
      "Ġleading": 6140,
      "Ġconvict": 6141,
      "Ġpotter": 6142,
      "arently": 6143,
      "Ġdaytime": 6144,
      "Ġmasterfully": 6145,
      "Ġredempt": 6146,
      "Ġheads": 6147,
      "Ġbehold": 6148,
      "Ġtragedies": 6149,
      "Ġfactor": 6150,
      "opping": 6151,
      "Ġtransform": 6152,
      "Ġaccent": 6153,
      "Ġstead": 6154,
      "urid": 6155,
      "Ġsubtit": 6156,
      "Ġmiserable": 6157,
      "Ġproblematic": 6158,
      "Ġtreats": 6159,
      "Ġbasically": 6160,
      "Ġbride": 6161,
      "Ġheroes": 6162,
      "Ġadventures": 6163,
      "Ġdragons": 6164,
      "Ġwave": 6165,
      "Ġantwone": 6166,
      "Ġcomedian": 6167,
      "Ġmysterious": 6168,
      "blood": 6169,
      "Ġclosely": 6170,
      "hetto": 6171,
      "Ġsouls": 6172,
      "Ġwindtalkers": 6173,
      "Ġstrikes": 6174,
      "ettes": 6175,
      "Ġjackie": 6176,
      "Ġurgen": 6177,
      "Ġspears": 6178,
      "Ġexceptional": 6179,
      "Ġexceptionally": 6180,
      "Ġfourth": 6181,
      "Ġstraightforward": 6182,
      "Ġcorny": 6183,
      "Ġcorner": 6184,
      "Ġcartoons": 6185,
      "Ġpayoff": 6186,
      "Ġderrida": 6187,
      "Ġinstantly": 6188,
      "Ġnights": 6189,
      "grade": 6190,
      "Ġhoped": 6191,
      "Ġsympathetic": 6192,
      "Ġauto": 6193,
      "Ġhugh": 6194,
      "Ġhuppert": 6195,
      "Ġmomentum": 6196,
      "Ġtechnique": 6197,
      "Ġtarantino": 6198,
      "Ġcondesc": 6199,
      "Ġfocused": 6200,
      "Ġdelicately": 6201,
      "Ġbritney": 6202,
      "Ġweirdly": 6203,
      "Ġdepths": 6204,
      "Ġtrademark": 6205,
      "given": 6206,
      "Ġerotic": 6207,
      "Ġunpredictable": 6208,
      "Ġreminder": 6209,
      "Ġcollabor": 6210,
      "Ġtelegra": 6211,
      "Ġdestr": 6212,
      "Ġdestined": 6213,
      "Ġlisten": 6214,
      "Ġintimacy": 6215,
      "Ġpropagand": 6216,
      "Ġphotographed": 6217,
      "Ġpresentation": 6218,
      "charact": 6219,
      "Ġrespectable": 6220,
      "Ġattractive": 6221,
      "Ġcelebration": 6222,
      "Ġ300": 6223,
      "Ġessence": 6224,
      "Ġmerit": 6225,
      "Ġheavi": 6226,
      "Ġknown": 6227,
      "Ġvoices": 6228,
      "Ġvariety": 6229,
      "Ġwooden": 6230,
      "Ġemptiness": 6231,
      "Ġtimeless": 6232,
      "Ġmartial": 6233,
      "Ġcurious": 6234,
      "Ġrewards": 6235,
      "Ġmoviegoing": 6236,
      "Ġsavvy": 6237,
      "Ġshadows": 6238,
      "Ġbiopic": 6239,
      "Ġyawn": 6240,
      "zenegger": 6241,
      "Ġcynicism": 6242,
      "Ġgrey": 6243,
      "Ġcomfortable": 6244,
      "Ġwatched": 6245,
      "Ġtraveler": 6246,
      "Ġmarvelous": 6247,
      "Ġdemonstrates": 6248,
      "Ġtranscend": 6249,
      "Ġhypnot": 6250,
      "ulsive": 6251,
      "Ġchanges": 6252,
      "through": 6253,
      "thriller": 6254,
      "Ġobservation": 6255,
      "Ġscreaming": 6256,
      "Ġponderous": 6257,
      "Ġheartbreak": 6258,
      "Ġmaintains": 6259,
      "Ġmultip": 6260,
      "escap": 6261,
      "Ġnicholson": 6262,
      "Ġshapeless": 6263,
      "Ġunconvincing": 6264,
      "Ġdescribe": 6265,
      "Ġpractically": 6266,
      "Ġliberal": 6267,
      "Ġscope": 6268,
      "Ġargent": 6269,
      "Ġrecognize": 6270,
      "Ġschmalt": 6271,
      "Ġschmidt": 6272,
      "marine": 6273,
      "Ġauthor": 6274,
      "Ġmichel": 6275,
      "Ġpushes": 6276,
      "Ġshowcase": 6277,
      "Ġshowcases": 6278,
      "Ġpositively": 6279,
      "Ġtortured": 6280,
      "absor": 6281,
      "Ġexquisite": 6282,
      "Ġconversations": 6283,
      "ploitation": 6284,
      "based": 6285,
      "deli": 6286,
      "ville": 6287,
      "Ġbuffs": 6288,
      "Ġdreadful": 6289,
      "Ġkorean": 6290,
      "Ġsolemn": 6291,
      "Ġdemanding": 6292,
      "known": 6293,
      "Ġbartleby": 6294,
      "Ġeastwood": 6295,
      "Ġdishon": 6296,
      "Ġappropriate": 6297,
      "Ġsoldiers": 6298,
      "Ġanthony": 6299,
      "Ġreligious": 6300,
      "Ġbroomfield": 6301,
      "Ġintermittently": 6302,
      "Ġassassin": 6303,
      "crafted": 6304,
      "Ġwrapped": 6305,
      "Ġdvd": 6306,
      "Ġinconsequential": 6307,
      "stoppers": 6308,
      "Ġunabashedly": 6309,
      "Ġconcert": 6310,
      "Ġspirits": 6311,
      "Ġartifice": 6312,
      "Ġmelancholy": 6313,
      "Ġconfront": 6314,
      "Ġimprobable": 6315,
      "Ġsophomoric": 6316,
      "occasionally": 6317,
      "Ġdiesel": 6318,
      "Ġritchie": 6319,
      "Ġshelf": 6320,
      "Ġacademy": 6321,
      "Ġconvoluted": 6322,
      "Ġmetropolis": 6323,
      "Ġinstallment": 6324,
      "Ġimplausible": 6325,
      "Ġmagnificent": 6326,
      "Ġpedestrian": 6327,
      "murder": 6328,
      "Ġchabrol": 6329,
      "Ġvitality": 6330,
      "Ġvapid": 6331,
      "Ġhitchcock": 6332,
      "Ġenthralling": 6333,
      "Ġdisposable": 6334,
      "Ġclaustrophobic": 6335,
      "Ġdignity": 6336,
      "Ġneighbor": 6337,
      "Ġgoodfellas": 6338,
      "Ġschwarzenegger": 6339,
      "Ġurgency": 6340,
      "Ġpropaganda": 6341,
      "average": 6342,
      "bb": 6343,
      "bu": 6344,
      "bang": 6345,
      "cast": 6346,
      "cue": 6347,
      "ds": 6348,
      "ded": 6349,
      "dra": 6350,
      "dest": 6351,
      "dry": 6352,
      "dish": 6353,
      "davis": 6354,
      "daughter": 6355,
      "eer": 6356,
      "each": 6357,
      "fly": 6358,
      "fact": 6359,
      "face": 6360,
      "gal": 6361,
      "gent": 6362,
      "great": 6363,
      "hill": 6364,
      "hilar": 6365,
      "iqu": 6366,
      "ius": 6367,
      "ios": 6368,
      "iac": 6369,
      "jam": 6370,
      "jack": 6371,
      "jinsky": 6372,
      "jerk": 6373,
      "kum": 6374,
      "kids": 6375,
      "lers": 6376,
      "little": 6377,
      "lingly": 6378,
      "mm": 6379,
      "mat": 6380,
      "nch": 6381,
      "ox": 6382,
      "oz": 6383,
      "pr": 6384,
      "pion": 6385,
      "pher": 6386,
      "pole": 6387,
      "packed": 6388,
      "rating": 6389,
      "rang": 6390,
      "ruc": 6391,
      "rates": 6392,
      "sis": 6393,
      "spl": 6394,
      "simp": 6395,
      "sized": 6396,
      "ti": 6397,
      "tick": 6398,
      "tale": 6399,
      "uge": 6400,
      "wan": 6401,
      "wall": 6402,
      "wild": 6403,
      "wrenching": 6404,
      "zed": 6405,
      "zel": 6406,
      "Ġeric": 6407,
      "Ġ\\*\\*": 6408,
      "Ġtable": 6409,
      "Ġtends": 6410,
      "Ġtug": 6411,
      "Ġtax": 6412,
      "Ġtamb": 6413,
      "Ġtiny": 6414,
      "Ġtepid": 6415,
      "inable": 6416,
      "hest": 6417,
      "heimer": 6418,
      "Ġsab": 6419,
      "Ġsard": 6420,
      "Ġsie": 6421,
      "Ġsinks": 6422,
      "Ġsquee": 6423,
      "reg": 6424,
      "reck": 6425,
      "Ġow": 6426,
      "Ġops": 6427,
      "Ġought": 6428,
      "ita": 6429,
      "itial": 6430,
      "itect": 6431,
      "Ġfi": 6432,
      "Ġfet": 6433,
      "Ġfame": 6434,
      "Ġfits": 6435,
      "Ġfuri": 6436,
      "Ġfoul": 6437,
      "enstein": 6438,
      "encies": 6439,
      "Ġmud": 6440,
      "Ġmary": 6441,
      "Ġmuddled": 6442,
      "ators": 6443,
      "atives": 6444,
      "Ġber": 6445,
      "Ġbanter": 6446,
      "Ġcher": 6447,
      "Ġcage": 6448,
      "Ġcutes": 6449,
      "Ġcarn": 6450,
      "Ġww": 6451,
      "Ġwither": 6452,
      "Ġwalls": 6453,
      "Ġwishing": 6454,
      "esis": 6455,
      "esse": 6456,
      "ndane": 6457,
      "onous": 6458,
      "Ġpau": 6459,
      "Ġpale": 6460,
      "Ġpush": 6461,
      "Ġplym": 6462,
      "angh": 6463,
      "Ġded": 6464,
      "Ġdum": 6465,
      "Ġanderson": 6466,
      "Ġhing": 6467,
      "Ġhan": 6468,
      "Ġhitting": 6469,
      "Ġhaneke": 6470,
      "icit": 6471,
      "icient": 6472,
      "Ġtown": 6473,
      "Ġtosc": 6474,
      "Ġtoilet": 6475,
      "Ġinject": 6476,
      "ilot": 6477,
      "Ġlion": 6478,
      "Ġlends": 6479,
      "Ġlush": 6480,
      "Ġlavish": 6481,
      "Ġlurid": 6482,
      "omy": 6483,
      "Ġnic": 6484,
      "Ġnut": 6485,
      "sting": 6486,
      "stage": 6487,
      "Ġeat": 6488,
      "Ġeve": 6489,
      "Ġego": 6490,
      "Ġecks": 6491,
      "Ġgid": 6492,
      "Ġgall": 6493,
      "Ġgaz": 6494,
      "Ġgently": 6495,
      "Ġghetto": 6496,
      "Ġmoon": 6497,
      "enter": 6498,
      "entertain": 6499,
      "aser": 6500,
      "asing": 6501,
      "aside": 6502,
      "Ġsto": 6503,
      "Ġster": 6504,
      "Ġstone": 6505,
      "Ġsticks": 6506,
      "imon": 6507,
      "imming": 6508,
      "Ġbegu": 6509,
      "vigor": 6510,
      "Ġrece": 6511,
      "Ġreun": 6512,
      "Ġreplaced": 6513,
      "ulate": 6514,
      "ularly": 6515,
      "ulner": 6516,
      "child": 6517,
      "Ġanime": 6518,
      "Ġangu": 6519,
      "Ġanger": 6520,
      "ety": 6521,
      "olf": 6522,
      "adpole": 6523,
      "Ġford": 6524,
      "Ġformer": 6525,
      "essed": 6526,
      "Ġwholly": 6527,
      "oos": 6528,
      "Ġsup": 6529,
      "Ġsus": 6530,
      "irts": 6531,
      "idden": 6532,
      "ifer": 6533,
      "iform": 6534,
      "Ġchou": 6535,
      "Ġchate": 6536,
      "Ġchap": 6537,
      "Ġchos": 6538,
      "Ġchamp": 6539,
      "Ġchances": 6540,
      "Ġchicago": 6541,
      "think": 6542,
      "thanks": 6543,
      "Ġalbum": 6544,
      "Ġhen": 6545,
      "Ġjump": 6546,
      "Ġjumble": 6547,
      "ummer": 6548,
      "Ġseinfeld": 6549,
      "Ġenlight": 6550,
      "urt": 6551,
      "urity": 6552,
      "isted": 6553,
      "isters": 6554,
      "istoc": 6555,
      "Ġshape": 6556,
      "quite": 6557,
      "Ġabb": 6558,
      "Ġabund": 6559,
      "Ġnotes": 6560,
      "Ġnotorious": 6561,
      "Ġhast": 6562,
      "Ġhawn": 6563,
      "Ġhaph": 6564,
      "Ġdoor": 6565,
      "Ġdeals": 6566,
      "Ġdeeds": 6567,
      "ester": 6568,
      "estyle": 6569,
      "Ġunable": 6570,
      "Ġuniform": 6571,
      "Ġscor": 6572,
      "Ġconcent": 6573,
      "pez": 6574,
      "ella": 6575,
      "eller": 6576,
      "Ġka": 6577,
      "Ġkath": 6578,
      "Ġkline": 6579,
      "Ġkapur": 6580,
      "igo": 6581,
      "usal": 6582,
      "appe": 6583,
      "forms": 6584,
      "Ġprospect": 6585,
      "Ġrum": 6586,
      "Ġrice": 6587,
      "Ġrug": 6588,
      "Ġranks": 6589,
      "opers": 6590,
      "Ġplight": 6591,
      "Ġfeet": 6592,
      "Ġfeathers": 6593,
      "venile": 6594,
      "Ġlean": 6595,
      "Ġlear": 6596,
      "Ġlect": 6597,
      "osyn": 6598,
      "Ġvic": 6599,
      "Ġvoy": 6600,
      "Ġspr": 6601,
      "Ġspots": 6602,
      "Ġspaces": 6603,
      "arded": 6604,
      "ardot": 6605,
      "Ġimplic": 6606,
      "Ġclue": 6607,
      "Ġclause": 6608,
      "Ġclunky": 6609,
      "ples": 6610,
      "pless": 6611,
      "Ġouting": 6612,
      "resents": 6613,
      "mann": 6614,
      "Ġlopez": 6615,
      "icking": 6616,
      "dead": 6617,
      "Ġard": 6618,
      "Ġaristoc": 6619,
      "Ġweb": 6620,
      "Ġwear": 6621,
      "Ġflor": 6622,
      "Ġflour": 6623,
      "Ġflimsy": 6624,
      "Ġadvice": 6625,
      "oding": 6626,
      "Ġanybody": 6627,
      "Ġmundane": 6628,
      "Ġcompens": 6629,
      "Ġcomposed": 6630,
      "Ġoverst": 6631,
      "Ġoverblown": 6632,
      "Ġoffend": 6633,
      "earnest": 6634,
      "ensical": 6635,
      "white": 6636,
      "whatever": 6637,
      "Ġfeelings": 6638,
      "Ġrain": 6639,
      "Ġraises": 6640,
      "Ġmeasured": 6641,
      "nesses": 6642,
      "Ġfailed": 6643,
      "Ġsubl": 6644,
      "Ġsubculture": 6645,
      "Ġsubmarine": 6646,
      "neither": 6647,
      "spoon": 6648,
      "ocation": 6649,
      "Ġeveryday": 6650,
      "Ġgenial": 6651,
      "Ġendure": 6652,
      "Ġdramas": 6653,
      "Ġbruck": 6654,
      "Ġteeth": 6655,
      "Ġseeming": 6656,
      "Ġreminis": 6657,
      "berry": 6658,
      "Ġserving": 6659,
      "shad": 6660,
      "Ġnewcom": 6661,
      "renal": 6662,
      "Ġmatthew": 6663,
      "likable": 6664,
      "Ġaging": 6665,
      "Ġtrav": 6666,
      "Ġtrain": 6667,
      "Ġtrack": 6668,
      "Ġtrailer": 6669,
      "Ġ13": 6670,
      "gins": 6671,
      "Ġaudacious": 6672,
      "Ġundermin": 6673,
      "Ġundercover": 6674,
      "Ġunderlying": 6675,
      "Ġartfully": 6676,
      "Ġmyst": 6677,
      "Ġjoan": 6678,
      "Ġresour": 6679,
      "Ġshoulders": 6680,
      "Ġcruc": 6681,
      "Ġgreater": 6682,
      "Ġoblig": 6683,
      "Ġcastro": 6684,
      "import": 6685,
      "Ġchest": 6686,
      "away": 6687,
      "Ġgrind": 6688,
      "Ġgrating": 6689,
      "Ġcovers": 6690,
      "Ġcohes": 6691,
      "Ġharder": 6692,
      "Ġdowner": 6693,
      "Ġdownbeat": 6694,
      "umbo": 6695,
      "Ġterm": 6696,
      "Ġgrade": 6697,
      "Ġcolumb": 6698,
      "Ġaflo": 6699,
      "Ġkinda": 6700,
      "ocking": 6701,
      "Ġfrance": 6702,
      "Ġfrantic": 6703,
      "atures": 6704,
      "owerment": 6705,
      "Ġreco": 6706,
      "Ġrecreat": 6707,
      "Ġpretends": 6708,
      "Ġpretensions": 6709,
      "Ġguilt": 6710,
      "ibrium": 6711,
      "iffle": 6712,
      "iffere": 6713,
      "Ġbelt": 6714,
      "notch": 6715,
      "Ġwanting": 6716,
      "Ġpointed": 6717,
      "azard": 6718,
      "Ġglorious": 6719,
      "Ġexcruc": 6720,
      "Ġdepend": 6721,
      "Ġdepends": 6722,
      "Ġincisive": 6723,
      "Ġprime": 6724,
      "Ġproud": 6725,
      "Ġindic": 6726,
      "Ġindulg": 6727,
      "Ġpleasurable": 6728,
      "Ġskate": 6729,
      "tsai": 6730,
      "Ġcreature": 6731,
      "Ġreplete": 6732,
      "Ġswept": 6733,
      "Ġburied": 6734,
      "Ġaccomp": 6735,
      "Ġdistaste": 6736,
      "ologically": 6737,
      "Ġrefuge": 6738,
      "Ġdecide": 6739,
      "Ġdecade": 6740,
      "Ġesther": 6741,
      "Ġspecif": 6742,
      "Ġspecific": 6743,
      "Ġhole": 6744,
      "Ġhokum": 6745,
      "Ġconsum": 6746,
      "Ġconserv": 6747,
      "Ġevans": 6748,
      "Ġmorning": 6749,
      "Ġedited": 6750,
      "Ġedges": 6751,
      "Ġschaeffer": 6752,
      "Ġourselves": 6753,
      "Ġcrew": 6754,
      "xton": 6755,
      "Ġsilent": 6756,
      "Ġstudent": 6757,
      "Ġ1970": 6758,
      "Ġ1960": 6759,
      "cool": 6760,
      "Ġdemons": 6761,
      "Ġdemented": 6762,
      "Ġdarker": 6763,
      "Ġwitless": 6764,
      "Ġexpense": 6765,
      "Ġexposition": 6766,
      "Ġeffortlessly": 6767,
      "ographer": 6768,
      "Ġmedia": 6769,
      "Ġcleverly": 6770,
      "Ġsaved": 6771,
      "Ġmax": 6772,
      "bral": 6773,
      "Ġhonor": 6774,
      "Ġsadly": 6775,
      "Ġundoubted": 6776,
      "Ġsenses": 6777,
      "Ġsensibility": 6778,
      "Ġcapturing": 6779,
      "Ġexpectation": 6780,
      "Ġconfused": 6781,
      "Ġconfident": 6782,
      "Ġassoc": 6783,
      "owski": 6784,
      "irds": 6785,
      "ographical": 6786,
      "ification": 6787,
      "opped": 6788,
      "oppola": 6789,
      "Ġaccents": 6790,
      "Ġpromises": 6791,
      "Ġpastiche": 6792,
      "Ġrobin": 6793,
      "uries": 6794,
      "Ġadmission": 6795,
      "Ġdelights": 6796,
      "Ġsolidly": 6797,
      "Ġsinging": 6798,
      "Ġsingles": 6799,
      "Ġsnappy": 6800,
      "Ġfinely": 6801,
      "Ġbasis": 6802,
      "Ġvaluable": 6803,
      "grath": 6804,
      "moving": 6805,
      "serious": 6806,
      "uggish": 6807,
      "Ġillumin": 6808,
      "Ġdrink": 6809,
      "Ġcontribut": 6810,
      "Ġvein": 6811,
      "Ġsupport": 6812,
      "century": 6813,
      "Ġprojects": 6814,
      "veloped": 6815,
      "Ġbrilliance": 6816,
      "Ġsoulful": 6817,
      "Ġsoulless": 6818,
      "Ġhilarity": 6819,
      "Ġlatter": 6820,
      "Ġpassionate": 6821,
      "Ġregret": 6822,
      "Ġinfuri": 6823,
      "Ġurge": 6824,
      "Ġangry": 6825,
      "Ġangels": 6826,
      "Ġspeak": 6827,
      "Ġcapacity": 6828,
      "Ġoccasional": 6829,
      "ridan": 6830,
      "Ġdisappointment": 6831,
      "grand": 6832,
      "Ġoppressive": 6833,
      "Ġlifestyle": 6834,
      "Ġcombat": 6835,
      "Ġcombined": 6836,
      "Ġshocks": 6837,
      "Ġletter": 6838,
      "ungry": 6839,
      "Ġdevelops": 6840,
      "Ġdeveloped": 6841,
      "warm": 6842,
      "Ġsustains": 6843,
      "Ġearnestness": 6844,
      "Ġliterate": 6845,
      "Ġbreaks": 6846,
      "Ġchoice": 6847,
      "Ġstupidity": 6848,
      "Ġforceful": 6849,
      "sembled": 6850,
      "Ġnijinsky": 6851,
      "Ġgangs": 6852,
      "Ġobservant": 6853,
      "rewd": 6854,
      "Ġepisodes": 6855,
      "Ġhype": 6856,
      "Ġlabored": 6857,
      "Ġ101": 6858,
      "guez": 6859,
      "Ġtypes": 6860,
      "Ġhotel": 6861,
      "Ġabsurdist": 6862,
      "Ġabsurdity": 6863,
      "Ġcelebrity": 6864,
      "Ġ30": 6865,
      "Ġstevenson": 6866,
      "Ġbuilds": 6867,
      "Ġmeaningful": 6868,
      "Ġmeaningless": 6869,
      "Ġmediocrity": 6870,
      "Ġnaturalistic": 6871,
      "Ġconnections": 6872,
      "Ġrevelation": 6873,
      "aggy": 6874,
      "Ġstruggling": 6875,
      "Ġpulse": 6876,
      "coli": 6877,
      "Ġfolk": 6878,
      "Ġcuriously": 6879,
      "Ġjuvenile": 6880,
      "Ġminority": 6881,
      "Ġsorry": 6882,
      "Ġunusually": 6883,
      "Ġprimarily": 6884,
      "Ġidiosyn": 6885,
      "Ġstructured": 6886,
      "inoche": 6887,
      "Ġfavorite": 6888,
      "Ġaimed": 6889,
      "Ġnuance": 6890,
      "Ġwaters": 6891,
      "Ġdemonstrate": 6892,
      "Ġinnocent": 6893,
      "cratic": 6894,
      "Ġbogus": 6895,
      "Ġwestern": 6896,
      "Ġwallace": 6897,
      "Ġdiscuss": 6898,
      "rapy": 6899,
      "Ġanswer": 6900,
      "Ġobjective": 6901,
      "Ġsketchy": 6902,
      "joke": 6903,
      "Ġuneasy": 6904,
      "Ġunforced": 6905,
      "Ġunforgettable": 6906,
      "Ġserviceable": 6907,
      "Ġacceptable": 6908,
      "Ġconsidered": 6909,
      "Ġstretched": 6910,
      "Ġneglect": 6911,
      "Ġarchitect": 6912,
      "driguez": 6913,
      "Ġjerry": 6914,
      "Ġempire": 6915,
      "Ġempowerment": 6916,
      "Ġemphasizes": 6917,
      "girls": 6918,
      "Ġauthority": 6919,
      "Ġgarb": 6920,
      "Ġchuckles": 6921,
      "Ġallegory": 6922,
      "Ġvolatile": 6923,
      "Ġinsulting": 6924,
      "produced": 6925,
      "Ġdynamic": 6926,
      "makers": 6927,
      "Ġfuzzy": 6928,
      "Ġfabric": 6929,
      "Ġexquisitely": 6930,
      "Ġdeceptively": 6931,
      "Ġconspira": 6932,
      "Ġqualities": 6933,
      "Ġmechanical": 6934,
      "Ġeducational": 6935,
      "Ġmiracle": 6936,
      "Ġhigher": 6937,
      "Ġrecycled": 6938,
      "Ġambiguity": 6939,
      "Ġexhausting": 6940,
      "bbled": 6941,
      "friend": 6942,
      "Ġthousands": 6943,
      "Ġeloquent": 6944,
      "Ġfantasies": 6945,
      "Ġjewish": 6946,
      "Ġresponsible": 6947,
      "Ġtaylor": 6948,
      "Ġcube": 6949,
      "Ġhunter": 6950,
      "Ġegoyan": 6951,
      "Ġevidence": 6952,
      "Ġstatus": 6953,
      "Ġclothes": 6954,
      "Ġaccurate": 6955,
      "Ġextravaganz": 6956,
      "Ġrollerball": 6957,
      "Ġuncomfortably": 6958,
      "trip": 6959,
      "Ġgosling": 6960,
      "Ġaliens": 6961,
      "Ġenormous": 6962,
      "Ġexceedingly": 6963,
      "Ġclockstoppers": 6964,
      "Ġremotely": 6965,
      "Ġproducers": 6966,
      "Ġsarandon": 6967,
      "Ġbullets": 6968,
      "Ġhartley": 6969,
      "Ġnomination": 6970,
      "Ġjaglom": 6971,
      "Ġconsequences": 6972,
      "Ġprecisely": 6973,
      "Ġexpertly": 6974,
      "Ġparadiso": 6975,
      "Ġunsatisfying": 6976,
      "Ġconvinced": 6977,
      "Ġredundant": 6978,
      "Ġtroopers": 6979,
      "Ġmamet": 6980,
      "Ġwickedly": 6981,
      "Ġhannibal": 6982,
      "Ġinfectious": 6983,
      "Ġglib": 6984,
      "idelity": 6985,
      "Ġclunker": 6986,
      "Ġaggressively": 6987,
      "Ġlaughed": 6988,
      "Ġmonotonous": 6989,
      "Ġphilosophy": 6990,
      "Ġaspirations": 6991,
      "Ġtremendous": 6992,
      "Ġirresistible": 6993,
      "Ġtasteless": 6994,
      "Ġaesthet": 6995,
      "Ġcerebral": 6996,
      "Ġlampoon": 6997,
      "Ġloneliness": 6998,
      "stacles": 6999,
      "Ġmothman": 7000,
      "Ġconvenient": 7001,
      "Ġkahlo": 7002,
      "Ġadvantage": 7003,
      "Ġtechno": 7004,
      "Ġprincip": 7005,
      "Ġredemption": 7006,
      "Ġheavily": 7007,
      "Ġplympton": 7008,
      "anghai": 7009,
      "Ġtosca": 7010,
      "Ġbeguiling": 7011,
      "Ġchosen": 7012,
      "Ġhaphazard": 7013,
      "Ġuniformly": 7014,
      "Ġafloat": 7015,
      "Ġconservative": 7016,
      "ault": 7017,
      "affect": 7018,
      "aque": 7019,
      "bul": 7020,
      "best": 7021,
      "bert": 7022,
      "bog": 7023,
      "brit": 7024,
      "buck": 7025,
      "baked": 7026,
      "broom": 7027,
      "ca": 7028,
      "cre": 7029,
      "cur": 7030,
      "call": 7031,
      "card": 7032,
      "cong": 7033,
      "cross": 7034,
      "camp": 7035,
      "coll": 7036,
      "cient": 7037,
      "dist": 7038,
      "done": 7039,
      "dark": 7040,
      "dition": 7041,
      "efully": 7042,
      "fs": 7043,
      "fast": 7044,
      "fig": 7045,
      "fred": 7046,
      "fails": 7047,
      "fisted": 7048,
      "gain": 7049,
      "green": 7050,
      "gian": 7051,
      "hat": 7052,
      "han": 7053,
      "hart": 7054,
      "ii": 7055,
      "iat": 7056,
      "iantly": 7057,
      "je": 7058,
      "jones": 7059,
      "kh": 7060,
      "know": 7061,
      "lar": 7062,
      "lich": 7063,
      "luc": 7064,
      "lacks": 7065,
      "lasting": 7066,
      "master": 7067,
      "nings": 7068,
      "numb": 7069,
      "oe": 7070,
      "oh": 7071,
      "oes": 7072,
      "oid": 7073,
      "prom": 7074,
      "pie": 7075,
      "parts": 7076,
      "ration": 7077,
      "rich": 7078,
      "rote": 7079,
      "sim": 7080,
      "soph": 7081,
      "such": 7082,
      "sided": 7083,
      "satisf": 7084,
      "tw": 7085,
      "tical": 7086,
      "turn": 7087,
      "tany": 7088,
      "uv": 7089,
      "ule": 7090,
      "ueless": 7091,
      "ufact": 7092,
      "vino": 7093,
      "ware": 7094,
      "water": 7095,
      "willi": 7096,
      "witty": 7097,
      "witted": 7098,
      "xual": 7099,
      "yac": 7100,
      "yaz": 7101,
      "zes": 7102,
      "Ġut": 7103,
      "Ġtab": 7104,
      "Ġtum": 7105,
      "Ġtart": 7106,
      "Ġtiss": 7107,
      "Ġtail": 7108,
      "Ġtones": 7109,
      "Ġack": 7110,
      "Ġaug": 7111,
      "inent": 7112,
      "inous": 7113,
      "inian": 7114,
      "inner": 7115,
      "inarily": 7116,
      "hecies": 7117,
      "Ġsake": 7118,
      "Ġsits": 7119,
      "Ġsane": 7120,
      "Ġsord": 7121,
      "Ġsizz": 7122,
      "Ġsisters": 7123,
      "reign": 7124,
      "rection": 7125,
      "Ġok": 7126,
      "eral": 7127,
      "ercial": 7128,
      "ito": 7129,
      "itor": 7130,
      "itative": 7131,
      "itivity": 7132,
      "Ġtherapy": 7133,
      "Ġfro": 7134,
      "Ġfond": 7135,
      "Ġfix": 7136,
      "Ġfirm": 7137,
      "isi": 7138,
      "isk": 7139,
      "enough": 7140,
      "Ġmour": 7141,
      "Ġmish": 7142,
      "Ġmull": 7143,
      "Ġmars": 7144,
      "Ġmired": 7145,
      "Ġmalk": 7146,
      "Ġmtv": 7147,
      "Ġmuted": 7148,
      "Ġba": 7149,
      "Ġbare": 7150,
      "Ġbread": 7151,
      "Ġbio": 7152,
      "Ġbank": 7153,
      "Ġbump": 7154,
      "Ġcul": 7155,
      "Ġcook": 7156,
      "Ġwake": 7157,
      "Ġwend": 7158,
      "Ġwoll": 7159,
      "Ġwreck": 7160,
      "esome": 7161,
      "ouge": 7162,
      "oufl": 7163,
      "Ġpill": 7164,
      "anth": 7165,
      "anny": 7166,
      "Ġdot": 7167,
      "Ġdro": 7168,
      "Ġdow": 7169,
      "Ġdass": 7170,
      "Ġdaw": 7171,
      "arat": 7172,
      "arse": 7173,
      "arious": 7174,
      "around": 7175,
      "alia": 7176,
      "Ġthom": 7177,
      "Ġthumbs": 7178,
      "Ġhal": 7179,
      "Ġhund": 7180,
      "Ġhosp": 7181,
      "Ġhanks": 7182,
      "Ġhipp": 7183,
      "Ġhidden": 7184,
      "leigh": 7185,
      "icion": 7186,
      "Ġtool": 7187,
      "Ġtooth": 7188,
      "Ġtoback": 7189,
      "Ġinert": 7190,
      "edom": 7191,
      "edek": 7192,
      "ilarly": 7193,
      "ilibrium": 7194,
      "Ġlou": 7195,
      "Ġlust": 7196,
      "Ġlark": 7197,
      "Ġlull": 7198,
      "Ġlapses": 7199,
      "omercial": 7200,
      "Ġnet": 7201,
      "Ġnum": 7202,
      "Ġnine": 7203,
      "Ġnail": 7204,
      "Ġnelson": 7205,
      "stars": 7206,
      "steven": 7207,
      "Ġeffic": 7208,
      "Ġga": 7209,
      "Ġgel": 7210,
      "Ġgrew": 7211,
      "Ġgasp": 7212,
      "Ġisolation": 7213,
      "ution": 7214,
      "eling": 7215,
      "elled": 7216,
      "Ġmob": 7217,
      "Ġmol": 7218,
      "enth": 7219,
      "Ġsting": 7220,
      "Ġstif": 7221,
      "Ġstation": 7222,
      "Ġstink": 7223,
      "Ġstream": 7224,
      "Ġstalk": 7225,
      "iments": 7226,
      "Ġbear": 7227,
      "Ġren": 7228,
      "Ġrein": 7229,
      "Ġreact": 7230,
      "Ġrecon": 7231,
      "Ġrehash": 7232,
      "rably": 7233,
      "their": 7234,
      "roads": 7235,
      "ulating": 7236,
      "ulated": 7237,
      "uloid": 7238,
      "chang": 7239,
      "chool": 7240,
      "Ġanom": 7241,
      "Ġanach": 7242,
      "Ġanarch": 7243,
      "Ġassem": 7244,
      "Ġassembled": 7245,
      "olent": 7246,
      "owing": 7247,
      "owed": 7248,
      "ada": 7249,
      "ading": 7250,
      "advent": 7251,
      "essend": 7252,
      "essica": 7253,
      "Ġbutt": 7254,
      "idedly": 7255,
      "ifest": 7256,
      "Ġchur": 7257,
      "Ġchord": 7258,
      "Ġchai": 7259,
      "Ġchief": 7260,
      "amber": 7261,
      "amiliar": 7262,
      "Ġaltogether": 7263,
      "Ġhew": 7264,
      "Ġjudd": 7265,
      "Ġjagger": 7266,
      "Ġjessica": 7267,
      "aging": 7268,
      "umst": 7269,
      "Ġseats": 7270,
      "ckay": 7271,
      "ouses": 7272,
      "ousness": 7273,
      "emesis": 7274,
      "Ġenchant": 7275,
      "urrection": 7276,
      "Ġintact": 7277,
      "Ġliz": 7278,
      "akable": 7279,
      "isto": 7280,
      "isterous": 7281,
      "Ġshout": 7282,
      "Ġshine": 7283,
      "Ġshrewd": 7284,
      "Ġshaggy": 7285,
      "quer": 7286,
      "Ġdose": 7287,
      "Ġdear": 7288,
      "esty": 7289,
      "Ġunm": 7290,
      "Ġuncomm": 7291,
      "Ġunlikable": 7292,
      "Ġneo": 7293,
      "Ġneil": 7294,
      "Ġscre": 7295,
      "Ġscares": 7296,
      "Ġconstruction": 7297,
      "Ġworn": 7298,
      "Ġkin": 7299,
      "Ġkne": 7300,
      "Ġkicks": 7301,
      "igree": 7302,
      "ushed": 7303,
      "aping": 7304,
      "Ġcharged": 7305,
      "Ġrating": 7306,
      "Ġrank": 7307,
      "Ġrude": 7308,
      "Ġrising": 7309,
      "Ġplat": 7310,
      "Ġfeast": 7311,
      "tering": 7312,
      "Ġleigh": 7313,
      "Ġvac": 7314,
      "Ġvulner": 7315,
      "Ġsport": 7316,
      "Ġspice": 7317,
      "Ġspread": 7318,
      "ptuous": 7319,
      "Ġclown": 7320,
      "ppy": 7321,
      "Ġouts": 7322,
      "Ġouter": 7323,
      "Ġoutcome": 7324,
      "endes": 7325,
      "many": 7326,
      "Ġfuneral": 7327,
      "Ġmanners": 7328,
      "Ġmanufact": 7329,
      "Ġmanifest": 7330,
      "Ġamiable": 7331,
      "ortions": 7332,
      "Ġlock": 7333,
      "deep": 7334,
      "ictment": 7335,
      "Ġnobody": 7336,
      "Ġups": 7337,
      "Ġarc": 7338,
      "Ġarth": 7339,
      "Ġargue": 7340,
      "Ġweigh": 7341,
      "Ġwearing": 7342,
      "Ġflamb": 7343,
      "Ġflavor": 7344,
      "peror": 7345,
      "Ġwillis": 7346,
      "Ġaddict": 7347,
      "Ġadrenal": 7348,
      "odge": 7349,
      "comings": 7350,
      "Ġmuse": 7351,
      "Ġcompan": 7352,
      "Ġentr": 7353,
      "Ġblat": 7354,
      "Ġblur": 7355,
      "Ġblown": 7356,
      "Ġblame": 7357,
      "eped": 7358,
      "Ġovert": 7359,
      "Ġperformed": 7360,
      "Ġemperor": 7361,
      "Ġdisar": 7362,
      "Ġdisint": 7363,
      "Ġdisquiet": 7364,
      "ndering": 7365,
      "arker": 7366,
      "Ġbettany": 7367,
      "ints": 7368,
      "Ġslo": 7369,
      "atchable": 7370,
      "Ġwells": 7371,
      "Ġrac": 7372,
      "Ġray": 7373,
      "Ġraise": 7374,
      "Ġmeal": 7375,
      "Ġmexic": 7376,
      "Ġfault": 7377,
      "Ġrival": 7378,
      "spielberg": 7379,
      "Ġgoal": 7380,
      "Ġimpul": 7381,
      "Ġtalky": 7382,
      "Ġgenius": 7383,
      "Ġbrisk": 7384,
      "Ġsmacks": 7385,
      "Ġsmiles": 7386,
      "soon": 7387,
      "should": 7388,
      "shall": 7389,
      "shine": 7390,
      "renched": 7391,
      "Ġcontest": 7392,
      "Ġpeace": 7393,
      "Ġagent": 7394,
      "acht": 7395,
      "ignant": 7396,
      "Ġ18": 7397,
      "Ġpartners": 7398,
      "Ġroman": 7399,
      "Ġartful": 7400,
      "Ġartsy": 7401,
      "Ġrescue": 7402,
      "inematic": 7403,
      "ismo": 7404,
      "ashy": 7405,
      "scale": 7406,
      "Ġcrane": 7407,
      "Ġcharacteristic": 7408,
      "iane": 7409,
      "Ġholm": 7410,
      "imps": 7411,
      "Ġshower": 7412,
      "Ġawfully": 7413,
      "Ġwarri": 7414,
      "Ġinsuff": 7415,
      "Ġinsanity": 7416,
      "awk": 7417,
      "Ġkeen": 7418,
      "Ġkept": 7419,
      "Ġcoff": 7420,
      "Ġcode": 7421,
      "Ġcobbled": 7422,
      "Ġattal": 7423,
      "tei": 7424,
      "ription": 7425,
      "Ġfarc": 7426,
      "Ġfarrel": 7427,
      "Ġgrac": 7428,
      "Ġgravity": 7429,
      "Ġlessons": 7430,
      "Ġrelate": 7431,
      "Ġrelax": 7432,
      "Ġenjoys": 7433,
      "Ġenjoyably": 7434,
      "mostly": 7435,
      "Ġeverlasting": 7436,
      "ibles": 7437,
      "Ġplayer": 7438,
      "note": 7439,
      "vides": 7440,
      "Ġcharmless": 7441,
      "Ġappalling": 7442,
      "Ġglum": 7443,
      "Ġfewer": 7444,
      "Ġkidman": 7445,
      "uffy": 7446,
      "Ġincess": 7447,
      "Ġincarn": 7448,
      "Ġincident": 7449,
      "Ġindiffere": 7450,
      "Ġindictment": 7451,
      "Ġelusive": 7452,
      "Ġhighlight": 7453,
      "Ġphone": 7454,
      "Ġsweeping": 7455,
      "Ġbucks": 7456,
      "arned": 7457,
      "Ġsincer": 7458,
      "Ġsinister": 7459,
      "Ġmarquis": 7460,
      "flick": 7461,
      "noon": 7462,
      "Ġacqu": 7463,
      "Ġexplan": 7464,
      "Ġreflection": 7465,
      "Ġrefusal": 7466,
      "Ġdecidedly": 7467,
      "Ġsurprised": 7468,
      "anek": 7469,
      "Ġafternoon": 7470,
      "Ġhokey": 7471,
      "Ġease": 7472,
      "Ġcarl": 7473,
      "Ġcarp": 7474,
      "Ġcaring": 7475,
      "Ġcarried": 7476,
      "Ġcarmen": 7477,
      "Ġevol": 7478,
      "Ġexperienced": 7479,
      "Ġmorally": 7480,
      "Ġmorvern": 7481,
      "Ġedgy": 7482,
      "stealing": 7483,
      "Ġpassing": 7484,
      "Ġpasses": 7485,
      "Ġmonument": 7486,
      "Ġmonsoon": 7487,
      "Ġclassics": 7488,
      "Ġbrooding": 7489,
      "Ġhappily": 7490,
      "Ġdetached": 7491,
      "Ġgenerous": 7492,
      "Ġ193": 7493,
      "Ġhandle": 7494,
      "Ġhandled": 7495,
      "playing": 7496,
      "Ġtitles": 7497,
      "Ġdemoc": 7498,
      "Ġbelieving": 7499,
      "Ġsweetly": 7500,
      "Ġabsolute": 7501,
      "Ġzero": 7502,
      "Ġpaints": 7503,
      "Ġexpos": 7504,
      "Ġexpressive": 7505,
      "Ġpredictability": 7506,
      "Ġfamilial": 7507,
      "Ġdefies": 7508,
      "Ġdefines": 7509,
      "incible": 7510,
      "Ġeyre": 7511,
      "Ġstrains": 7512,
      "Ġstrained": 7513,
      "Ġperfection": 7514,
      "Ġboat": 7515,
      "Ġboasts": 7516,
      "Ġundone": 7517,
      "Ġundert": 7518,
      "Ġunfold": 7519,
      "Ġunfamiliar": 7520,
      "Ġcaptured": 7521,
      "Ġshortcomings": 7522,
      "Ġconvince": 7523,
      "Ġmidnight": 7524,
      "Ġconfirms": 7525,
      "Ġconfidence": 7526,
      "Ġprofile": 7527,
      "Ġreduces": 7528,
      "Ġstrongly": 7529,
      "Ġopaque": 7530,
      "Ġheady": 7531,
      "working": 7532,
      "Ġversus": 7533,
      "Ġversions": 7534,
      "Ġmagical": 7535,
      "Ġdares": 7536,
      "Ġambitions": 7537,
      "Ġsatisfies": 7538,
      "Ġpolitically": 7539,
      "Ġdamaged": 7540,
      "Ġfamiliarity": 7541,
      "Ġsteals": 7542,
      "Ġstealing": 7543,
      "Ġsteeped": 7544,
      "Ġsimultaneously": 7545,
      "Ġsimilarly": 7546,
      "Ġfreshness": 7547,
      "Ġmurky": 7548,
      "Ġpunct": 7549,
      "Ġmisery": 7550,
      "Ġnorm": 7551,
      "ailing": 7552,
      "ronistic": 7553,
      "Ġbenjam": 7554,
      "Ġbrian": 7555,
      "Ġcamoufl": 7556,
      "Ġadventurous": 7557,
      "Ġanton": 7558,
      "Ġantid": 7559,
      "Ġantics": 7560,
      "Ġpsychologically": 7561,
      "Ġveers": 7562,
      "Ġveter": 7563,
      "undlich": 7564,
      "Ġmeth": 7565,
      "Ġinvolve": 7566,
      "blue": 7567,
      "Ġmotions": 7568,
      "Ġpaxton": 7569,
      "Ġinfant": 7570,
      "Ġinfomercial": 7571,
      "Ġdevices": 7572,
      "Ġseconds": 7573,
      "Ġhelped": 7574,
      "however": 7575,
      "Ġexception": 7576,
      "Ġfreeman": 7577,
      "Ġfreedom": 7578,
      "ahl": 7579,
      "Ġaffleck": 7580,
      "Ġexamines": 7581,
      "Ġdisappointingly": 7582,
      "Ġpersonalities": 7583,
      "Ġpaying": 7584,
      "Ġoppos": 7585,
      "Ġhopes": 7586,
      "porate": 7587,
      "Ġsleeve": 7588,
      "Ġbalanced": 7589,
      "Ġpossibility": 7590,
      "Ġdrivel": 7591,
      "Ġfollowed": 7592,
      "Ġverbal": 7593,
      "Ġcurves": 7594,
      "Ġlandmark": 7595,
      "Ġunexpl": 7596,
      "Ġrolling": 7597,
      "atsi": 7598,
      "Ġbreakthrough": 7599,
      "Ġjoyless": 7600,
      "Ġpurely": 7601,
      "Ġgorgeously": 7602,
      "Ġchristop": 7603,
      "Ġreminded": 7604,
      "Ġcollision": 7605,
      "Ġcollateral": 7606,
      "Ġroberto": 7607,
      "Ġburger": 7608,
      "Ġbursts": 7609,
      "Ġinvention": 7610,
      "Ġballot": 7611,
      "Ġprophecies": 7612,
      "Ġresonate": 7613,
      "Ġdepressed": 7614,
      "Ġphoto": 7615,
      "Ġcartoonish": 7616,
      "cheek": 7617,
      "markable": 7618,
      "Ġsquare": 7619,
      "Ġsquarely": 7620,
      "Ġpulling": 7621,
      "ovan": 7622,
      "Ġlyric": 7623,
      "Ġcritic": 7624,
      "Ġgraceful": 7625,
      "Ġfrustration": 7626,
      "Ġinclude": 7627,
      "Ġcrafts": 7628,
      "Ġweaknesses": 7629,
      "Ġskills": 7630,
      "Ġconflicted": 7631,
      "Ġthrowing": 7632,
      "Ġhomes": 7633,
      "Ġgreene": 7634,
      "Ġconnection": 7635,
      "Ġkissing": 7636,
      "Ġvariation": 7637,
      "Ġlimit": 7638,
      "Ġrevelations": 7639,
      "Ġamazingly": 7640,
      "Ġmetaphors": 7641,
      "Ġunexpectedly": 7642,
      "Ġrambling": 7643,
      "Ġpitfalls": 7644,
      "Ġsparkling": 7645,
      "Ġfrankly": 7646,
      "Ġdisturb": 7647,
      "Ġpulled": 7648,
      "Ġlegal": 7649,
      "Ġfalling": 7650,
      "Ġdaniel": 7651,
      "Ġmovements": 7652,
      "Ġimmensely": 7653,
      "Ġimpressed": 7654,
      "Ġprotect": 7655,
      "Ġhugely": 7656,
      "true": 7657,
      "Ġsorrow": 7658,
      "Ġsorority": 7659,
      "Ġbreaking": 7660,
      "Ġstephen": 7661,
      "Ġrewarded": 7662,
      "Ġatmospher": 7663,
      "Ġdiverse": 7664,
      "Ġwalked": 7665,
      "Ġrequire": 7666,
      "Ġturkey": 7667,
      "Ġcandid": 7668,
      "Ġdreck": 7669,
      "Ġescapist": 7670,
      "consider": 7671,
      "Ġrecording": 7672,
      "Ġincludes": 7673,
      "Ġcircuit": 7674,
      "Ġcircumst": 7675,
      "Ġghosts": 7676,
      "puted": 7677,
      "Ġdomin": 7678,
      "Ġnonsensical": 7679,
      "Ġencouraging": 7680,
      "Ġuncanny": 7681,
      "Ġincredible": 7682,
      "smith": 7683,
      "Ġhypoc": 7684,
      "ulsion": 7685,
      "ulsively": 7686,
      "Ġimplies": 7687,
      "Ġsurvive": 7688,
      "Ġproductions": 7689,
      "Ġenthusiastic": 7690,
      "Ġtransporter": 7691,
      "oleon": 7692,
      "Ġignore": 7693,
      "Ġcrystal": 7694,
      "Ġpenet": 7695,
      "Ġduke": 7696,
      "Ġfills": 7697,
      "Ġallowed": 7698,
      "Ġrooting": 7699,
      "Ġstereotypical": 7700,
      "john": 7701,
      "Ġmcgrath": 7702,
      "Ġpedigree": 7703,
      "Ġalienation": 7704,
      "Ġarrive": 7705,
      "Ġterrorist": 7706,
      "Ġmaintain": 7707,
      "Ġdragonfly": 7708,
      "petek": 7709,
      "Ġmask": 7710,
      "Ġmillion": 7711,
      "Ġmulti": 7712,
      "Ġlayers": 7713,
      "Ġstretches": 7714,
      "Ġalternative": 7715,
      "Ġalternately": 7716,
      "Ġunconvent": 7717,
      "Ġconceit": 7718,
      "Ġvanity": 7719,
      "Ġswimfan": 7720,
      "Ġdescribed": 7721,
      "downtown": 7722,
      "highly": 7723,
      "Ġtossed": 7724,
      "Ġshamelessly": 7725,
      "deprec": 7726,
      "Ġarguments": 7727,
      "Ġsecretary": 7728,
      "Ġtackles": 7729,
      "Ġseductive": 7730,
      "Ġbodies": 7731,
      "Ġchuckle": 7732,
      "Ġalleged": 7733,
      "Ġclimactic": 7734,
      "Ġoverwhelming": 7735,
      "Ġ1950": 7736,
      "Ġembraces": 7737,
      "maker": 7738,
      "pleaser": 7739,
      "Ġcelluloid": 7740,
      "Ġqualify": 7741,
      "Ġmechanics": 7742,
      "Ġeducation": 7743,
      "Ġmotivations": 7744,
      "Ġastonishingly": 7745,
      "Ġmentally": 7746,
      "attering": 7747,
      "Ġhighest": 7748,
      "Ġlosing": 7749,
      "Ġstrangers": 7750,
      "Ġexplosions": 7751,
      "Ġambiguous": 7752,
      "Ġindividuals": 7753,
      "Ġboun": 7754,
      "Ġbollywood": 7755,
      "Ġwisdom": 7756,
      "Ġthousand": 7757,
      "Ġlingering": 7758,
      "Ġyouthful": 7759,
      "Ġsuccumbs": 7760,
      "Ġobscure": 7761,
      "Ġdeparture": 7762,
      "Ġevoke": 7763,
      "Ġinfluence": 7764,
      "familiar": 7765,
      "Ġavary": 7766,
      "Ġchronicle": 7767,
      "Ġhealth": 7768,
      "Ġenigma": 7769,
      "Ġenigmatic": 7770,
      "udgeon": 7771,
      "Ġfluid": 7772,
      "Ġvideos": 7773,
      "Ġrepeatedly": 7774,
      "Ġredeeming": 7775,
      "Ġoliver": 7776,
      "Ġmisfire": 7777,
      "Ġbaseball": 7778,
      "Ġdubious": 7779,
      "Ġconveying": 7780,
      "Ġproperly": 7781,
      "Ġthankfully": 7782,
      "Ġironically": 7783,
      "Ġcalculated": 7784,
      "Ġsubstitute": 7785,
      "Ġinexplicable": 7786,
      "effects": 7787,
      "Ġachingly": 7788,
      "Ġcivil": 7789,
      "Ġinconsistent": 7790,
      "Ġsundance": 7791,
      "Ġsnapshot": 7792,
      "Ġrestrained": 7793,
      "Ġinstincts": 7794,
      "Ġlegendary": 7795,
      "Ġfleeting": 7796,
      "Ġathletes": 7797,
      "Ġadequate": 7798,
      "drunk": 7799,
      "danovich": 7800,
      "Ġfoibles": 7801,
      "Ġnapoleon": 7802,
      "Ġunrelent": 7803,
      "Ġunbelievable": 7804,
      "Ġqueens": 7805,
      "Ġsubplots": 7806,
      "Ġcontroversy": 7807,
      "Ġinternational": 7808,
      "Ġparanoia": 7809,
      "Ġtranslation": 7810,
      "Ġbridge": 7811,
      "Ġopportunities": 7812,
      "Ġminimalist": 7813,
      "Ġspontaneity": 7814,
      "Ġfictional": 7815,
      "Ġthornberry": 7816,
      "Ġwholesome": 7817,
      "Ġexaggerated": 7818,
      "Ġvelocity": 7819,
      "Ġquarter": 7820,
      "constructed": 7821,
      "Ġreputation": 7822,
      "Ġundisputed": 7823,
      "Ġtransformation": 7824,
      "Ġsubtitles": 7825,
      "Ġtelegraphed": 7826,
      "character": 7827,
      "Ġhypnotic": 7828,
      "Ġsardonic": 7829,
      "Ġsqueeze": 7830,
      "Ġcutesy": 7831,
      "Ġwitherspoon": 7832,
      "Ġdumas": 7833,
      "Ġreunion": 7834,
      "Ġsusan": 7835,
      "Ġchateau": 7836,
      "Ġhastily": 7837,
      "ardotcom": 7838,
      "Ġflorid": 7839,
      "Ġflourishes": 7840,
      "Ġsublime": 7841,
      "Ġbruckheimer": 7842,
      "Ġreminiscent": 7843,
      "Ġcrucial": 7844,
      "Ġaccompan": 7845,
      "Ġdistasteful": 7846,
      "Ġrefugees": 7847,
      "Ġspecifically": 7848,
      "Ġundoubtedly": 7849,
      "Ġidiosyncratic": 7850,
      "Ġgarbage": 7851,
      "broomfield": 7852,
      "large": 7853,
      "yazaki": 7854,
      "Ġtumult": 7855,
      "Ġsordid": 7856,
      "Ġfirmly": 7857,
      "Ġmalkovich": 7858,
      "Ġwollter": 7859,
      "Ġthomas": 7860,
      "edekerk": 7861,
      "Ġnumerous": 7862,
      "Ġanachronistic": 7863,
      "essenden": 7864,
      "Ġmanufactured": 7865,
      "Ġfarrelly": 7866,
      "Ġsincerity": 7867,
      "Ġbenjamins": 7868,
      "deprecating": 7869,
      "--": 7870,
      "13": 7871,
      "40": 7872,
      "aving": 7873,
      "ba": 7874,
      "bag": 7875,
      "bind": 7876,
      "bour": 7877,
      "bull": 7878,
      "buster": 7879,
      "bbit": 7880,
      "cus": 7881,
      "cence": 7882,
      "core": 7883,
      "cred": 7884,
      "cause": 7885,
      "capt": 7886,
      "dings": 7887,
      "dled": 7888,
      "dash": 7889,
      "drop": 7890,
      "dazz": 7891,
      "drum": 7892,
      "eight": 7893,
      "eky": 7894,
      "evo": 7895,
      "fing": 7896,
      "fem": 7897,
      "fare": 7898,
      "fiction": 7899,
      "ga": 7900,
      "gel": 7901,
      "gam": 7902,
      "gile": 7903,
      "gang": 7904,
      "gasm": 7905,
      "glor": 7906,
      "ho": 7907,
      "hot": 7908,
      "ik": 7909,
      "iver": 7910,
      "iber": 7911,
      "lot": 7912,
      "lim": 7913,
      "lad": 7914,
      "lings": 7915,
      "love": 7916,
      "langu": 7917,
      "lowski": 7918,
      "mad": 7919,
      "mous": 7920,
      "mart": 7921,
      "mus": 7922,
      "mingly": 7923,
      "nick": 7924,
      "noy": 7925,
      "ois": 7926,
      "ping": 7927,
      "ped": 7928,
      "pol": 7929,
      "pow": 7930,
      "pable": 7931,
      "post": 7932,
      "press": 7933,
      "poss": 7934,
      "puff": 7935,
      "point": 7936,
      "pumpkin": 7937,
      "parker": 7938,
      "rary": 7939,
      "rors": 7940,
      "rather": 7941,
      "rics": 7942,
      "rase": 7943,
      "rats": 7944,
      "rara": 7945,
      "sor": 7946,
      "sam": 7947,
      "sand": 7948,
      "sens": 7949,
      "surpris": 7950,
      "tes": 7951,
      "tle": 7952,
      "try": 7953,
      "tably": 7954,
      "ued": 7955,
      "uve": 7956,
      "uend": 7957,
      "uously": 7958,
      "uasive": 7959,
      "vating": 7960,
      "voc": 7961,
      "vability": 7962,
      "wer": 7963,
      "wed": 7964,
      "wart": 7965,
      "wind": 7966,
      "yer": 7967,
      "zill": 7968,
      "Ġig": 7969,
      "Ġ60": 7970,
      "Ġtu": 7971,
      "Ġtact": 7972,
      "Ġtense": 7973,
      "Ġtaw": 7974,
      "Ġtub": 7975,
      "Ġtorn": 7976,
      "Ġtaps": 7977,
      "Ġtrop": 7978,
      "Ġtony": 7979,
      "Ġay": 7980,
      "Ġaus": 7981,
      "Ġapl": 7982,
      "Ġastr": 7983,
      "Ġaustr": 7984,
      "Ġakin": 7985,
      "Ġalex": 7986,
      "inion": 7987,
      "inning": 7988,
      "inspired": 7989,
      "heart": 7990,
      "rek": 7991,
      "rehe": 7992,
      "reggio": 7993,
      "Ġol": 7994,
      "Ġole": 7995,
      "erved": 7996,
      "iter": 7997,
      "itary": 7998,
      "itched": 7999,
      "itudes": 8000,
      "Ġtheory": 8001,
      "Ġthesis": 8002,
      "Ġfif": 8003,
      "Ġfacing": 8004,
      "enet": 8005,
      "enge": 8006,
      "enced": 8007,
      "enha": 8008,
      "Ġming": 8009,
      "Ġmap": 8010,
      "Ġmendes": 8011,
      "atable": 8012,
      "atfalls": 8013,
      "Ġbm": 8014,
      "Ġbess": 8015,
      "Ġbill": 8016,
      "Ġbast": 8017,
      "Ġbust": 8018,
      "Ġbib": 8019,
      "Ġbord": 8020,
      "Ġbones": 8021,
      "Ġbirot": 8022,
      "Ġbinoche": 8023,
      "Ġcri": 8024,
      "Ġcram": 8025,
      "Ġcip": 8026,
      "Ġcia": 8027,
      "Ġcalls": 8028,
      "Ġcoppola": 8029,
      "Ġwist": 8030,
      "Ġwaking": 8031,
      "Ġwret": 8032,
      "Ġwallow": 8033,
      "Ġwalt": 8034,
      "ndan": 8035,
      "ndry": 8036,
      "orad": 8037,
      "orial": 8038,
      "orably": 8039,
      "Ġpg": 8040,
      "Ġpin": 8041,
      "Ġpess": 8042,
      "Ġpink": 8043,
      "Ġpandering": 8044,
      "Ġpants": 8045,
      "Ġpomp": 8046,
      "Ġpumpkin": 8047,
      "Ġpacino": 8048,
      "Ġpiffle": 8049,
      "anella": 8050,
      "Ġdil": 8051,
      "Ġdise": 8052,
      "Ġdressed": 8053,
      "Ġdinner": 8054,
      "ali": 8055,
      "alas": 8056,
      "alism": 8057,
      "altern": 8058,
      "aluable": 8059,
      "algam": 8060,
      "Ġthirst": 8061,
      "Ġthread": 8062,
      "Ġhub": 8063,
      "icide": 8064,
      "icense": 8065,
      "icles": 8066,
      "iciently": 8067,
      "Ġinstruct": 8068,
      "Ġinquis": 8069,
      "Ġinescap": 8070,
      "Ġinitial": 8071,
      "ilo": 8072,
      "Ġlur": 8073,
      "Ġlap": 8074,
      "Ġlord": 8075,
      "Ġlamb": 8076,
      "Ġloop": 8077,
      "Ġlanes": 8078,
      "Ġlicense": 8079,
      "Ġnin": 8080,
      "Ġnames": 8081,
      "Ġnails": 8082,
      "Ġniche": 8083,
      "Ġnaught": 8084,
      "Ġnaked": 8085,
      "Ġnatur": 8086,
      "Ġnemesis": 8087,
      "story": 8088,
      "Ġeis": 8089,
      "Ġears": 8090,
      "Ġeerie": 8091,
      "Ġgal": 8092,
      "Ġgul": 8093,
      "Ġgam": 8094,
      "Ġgong": 8095,
      "Ġgoose": 8096,
      "Ġgave": 8097,
      "uto": 8098,
      "utions": 8099,
      "elle": 8100,
      "elow": 8101,
      "eline": 8102,
      "elbe": 8103,
      "entin": 8104,
      "asper": 8105,
      "asily": 8106,
      "otes": 8107,
      "otting": 8108,
      "otland": 8109,
      "otesque": 8110,
      "Ġstark": 8111,
      "Ġstates": 8112,
      "Ġstumble": 8113,
      "Ġstitch": 8114,
      "imated": 8115,
      "Ġbeck": 8116,
      "Ġbeings": 8117,
      "Ġbewild": 8118,
      "Ġreass": 8119,
      "Ġrelying": 8120,
      "Ġreaches": 8121,
      "Ġrebell": 8122,
      "Ġreggio": 8123,
      "racy": 8124,
      "rayal": 8125,
      "Ġupper": 8126,
      "thed": 8127,
      "then": 8128,
      "theon": 8129,
      "verty": 8130,
      "verted": 8131,
      "roc": 8132,
      "roit": 8133,
      "roat": 8134,
      "road": 8135,
      "rogen": 8136,
      "ulence": 8137,
      "ulates": 8138,
      "cely": 8139,
      "ceful": 8140,
      "Ġancient": 8141,
      "eter": 8142,
      "etent": 8143,
      "Ġyid": 8144,
      "Ġyard": 8145,
      "Ġyester": 8146,
      "rived": 8147,
      "oli": 8148,
      "olate": 8149,
      "aybur": 8150,
      "ader": 8151,
      "adent": 8152,
      "adam": 8153,
      "ados": 8154,
      "advert": 8155,
      "Ġforward": 8156,
      "Ġfortun": 8157,
      "section": 8158,
      "essive": 8159,
      "essentially": 8160,
      "Ġwhiny": 8161,
      "ooled": 8162,
      "oops": 8163,
      "ooses": 8164,
      "irk": 8165,
      "Ġcomics": 8166,
      "iders": 8167,
      "Ġchill": 8168,
      "Ġchops": 8169,
      "Ġchamber": 8170,
      "Ġchooses": 8171,
      "amo": 8172,
      "amy": 8173,
      "Ġalert": 8174,
      "Ġalice": 8175,
      "Ġalbe": 8176,
      "Ġalike": 8177,
      "Ġhedon": 8178,
      "abre": 8179,
      "unless": 8180,
      "Ġjay": 8181,
      "Ġjud": 8182,
      "Ġjose": 8183,
      "Ġjenn": 8184,
      "Ġjarring": 8185,
      "Ġjumps": 8186,
      "Ġseas": 8187,
      "Ġsearing": 8188,
      "Ġselection": 8189,
      "Ġsearching": 8190,
      "emorable": 8191,
      "Ġenemy": 8192,
      "Ġencount": 8193,
      "Ġintol": 8194,
      "Ġlik": 8195,
      "Ġlip": 8196,
      "Ġliar": 8197,
      "Ġexists": 8198,
      "Ġexasper": 8199,
      "akingly": 8200,
      "Ġshod": 8201,
      "Ġshining": 8202,
      "Ġshtick": 8203,
      "qui": 8204,
      "quet": 8205,
      "Ġably": 8206,
      "Ġnotable": 8207,
      "Ġnotting": 8208,
      "Ġdod": 8209,
      "Ġdeuces": 8210,
      "Ġdeja": 8211,
      "Ġunem": 8212,
      "Ġunass": 8213,
      "Ġunbl": 8214,
      "Ġunfortun": 8215,
      "Ġuncle": 8216,
      "Ġneur": 8217,
      "Ġscand": 8218,
      "Ġscare": 8219,
      "Ġscored": 8220,
      "Ġscient": 8221,
      "Ġscathing": 8222,
      "Ġconsc": 8223,
      "ainberg": 8224,
      "Ġworry": 8225,
      "Ġworship": 8226,
      "Ġkil": 8227,
      "Ġkur": 8228,
      "Ġkaf": 8229,
      "Ġsocc": 8230,
      "usc": 8231,
      "uso": 8232,
      "ustic": 8233,
      "apes": 8234,
      "Ġarea": 8235,
      "Ġcharles": 8236,
      "Ġprose": 8237,
      "Ġprobe": 8238,
      "Ġron": 8239,
      "Ġrange": 8240,
      "Ġrub": 8241,
      "Ġruth": 8242,
      "Ġrarity": 8243,
      "Ġrouge": 8244,
      "Ġmores": 8245,
      "Ġpluck": 8246,
      "Ġactions": 8247,
      "Ġactiv": 8248,
      "Ġfeardotcom": 8249,
      "erell": 8250,
      "herfig": 8251,
      "Ġleth": 8252,
      "Ġpred": 8253,
      "Ġprevent": 8254,
      "ffith": 8255,
      "Ġvu": 8256,
      "Ġvain": 8257,
      "Ġspends": 8258,
      "Ġspike": 8259,
      "Ġspraw": 8260,
      "Ġsporad": 8261,
      "Ġperme": 8262,
      "Ġperdition": 8263,
      "Ġorange": 8264,
      "Ġclash": 8265,
      "Ġcliff": 8266,
      "Ġclashing": 8267,
      "Ġclueless": 8268,
      "ittingly": 8269,
      "ittedly": 8270,
      "ieu": 8271,
      "Ġoutland": 8272,
      "Ġamar": 8273,
      "Ġamalgam": 8274,
      "Ġquentin": 8275,
      "Ġlob": 8276,
      "Ġload": 8277,
      "Ġlose": 8278,
      "Ġlofty": 8279,
      "icken": 8280,
      "ieslowski": 8281,
      "Ġnoise": 8282,
      "ertime": 8283,
      "arer": 8284,
      "Ġarmen": 8285,
      "Ġweaves": 8286,
      "Ġiv": 8287,
      "Ġflashes": 8288,
      "augh": 8289,
      "ours": 8290,
      "Ġthrust": 8291,
      "Ġadvert": 8292,
      "comb": 8293,
      "wey": 8294,
      "week": 8295,
      "Ġcomprehens": 8296,
      "Ġcann": 8297,
      "Ġcanon": 8298,
      "Ġcanned": 8299,
      "Ġpokes": 8300,
      "Ġpoverty": 8301,
      "mention": 8302,
      "Ġuseless": 8303,
      "Ġblunt": 8304,
      "Ġwhenever": 8305,
      "Ġoverlook": 8306,
      "Ġovercomes": 8307,
      "Ġoverkill": 8308,
      "Ġovershad": 8309,
      "izamo": 8310,
      "Ġdiss": 8311,
      "Ġdisplays": 8312,
      "earth": 8313,
      "Ġbetty": 8314,
      "Ġbetrayal": 8315,
      "Ġevening": 8316,
      "Ġslipp": 8317,
      "Ġsluggish": 8318,
      "ipid": 8319,
      "ipaul": 8320,
      "Ġrage": 8321,
      "Ġrapt": 8322,
      "Ġravis": 8323,
      "Ġraised": 8324,
      "Ġsubte": 8325,
      "Ġsuburban": 8326,
      "Ġriff": 8327,
      "Ġrigor": 8328,
      "ccino": 8329,
      "Ġtwink": 8330,
      "osexual": 8331,
      "Ġgoals": 8332,
      "Ġgovern": 8333,
      "ocy": 8334,
      "Ġimpart": 8335,
      "Ġimpostor": 8336,
      "Ġimpenet": 8337,
      "Ġvia": 8338,
      "Ġended": 8339,
      "ressing": 8340,
      "llenha": 8341,
      "Ġteach": 8342,
      "Ġsmell": 8343,
      "Ġsmack": 8344,
      "Ġsermon": 8345,
      "soaked": 8346,
      "Ġscreening": 8347,
      "Ġseek": 8348,
      "Ġseeks": 8349,
      "Ġnewf": 8350,
      "Ġherm": 8351,
      "Ġentertainingly": 8352,
      "Ġcontend": 8353,
      "Ġcontempt": 8354,
      "Ġpee": 8355,
      "Ġpeak": 8356,
      "Ġtraffic": 8357,
      "Ġaudacity": 8358,
      "Ġunderdog": 8359,
      "Ġlongest": 8360,
      "Ġmyers": 8361,
      "Ġjoel": 8362,
      "Ġresorting": 8363,
      "isms": 8364,
      "ashbuck": 8365,
      "Ġcrash": 8366,
      "Ġgreatness": 8367,
      "uctant": 8368,
      "Ġobstacles": 8369,
      "Ġcasts": 8370,
      "ivable": 8371,
      "Ġcheat": 8372,
      "Ġchekh": 8373,
      "Ġawards": 8374,
      "Ġinsurance": 8375,
      "Ġinsomnia": 8376,
      "Ġinsipid": 8377,
      "Ġvisible": 8378,
      "nowled": 8379,
      "Ġgrotesque": 8380,
      "been": 8381,
      "because": 8382,
      "Ġcoinc": 8383,
      "Ġattack": 8384,
      "Ġtrial": 8385,
      "Ġtrivial": 8386,
      "umbling": 8387,
      "Ġgrave": 8388,
      "Ġafford": 8389,
      "Ġaficion": 8390,
      "Ġrelief": 8391,
      "Ġreluctant": 8392,
      "Ġenjoying": 8393,
      "Ġfrat": 8394,
      "Ġfranc": 8395,
      "woody": 8396,
      "Ġrecipe": 8397,
      "sym": 8398,
      "Ġguard": 8399,
      "Ġbeloved": 8400,
      "Ġbackdrop": 8401,
      "azzy": 8402,
      "Ġglam": 8403,
      "Ġexcels": 8404,
      "Ġbecame": 8405,
      "Ġneedlessly": 8406,
      "ucin": 8407,
      "ucer": 8408,
      "uffed": 8409,
      "Ġmushy": 8410,
      "Ġpratfalls": 8411,
      "exc": 8412,
      "exp": 8413,
      "expect": 8414,
      "Ġextent": 8415,
      "Ġextrem": 8416,
      "Ġphony": 8417,
      "Ġphones": 8418,
      "Ġirwin": 8419,
      "Ġrepellent": 8420,
      "Ġrepressed": 8421,
      "Ġsweat": 8422,
      "Ġbub": 8423,
      "Ġbug": 8424,
      "Ġpowerpuff": 8425,
      "apped": 8426,
      "appily": 8427,
      "apparently": 8428,
      "gues": 8429,
      "guided": 8430,
      "guizamo": 8431,
      "yssey": 8432,
      "Ġmarching": 8433,
      "Ġmargar": 8434,
      "Ġmarried": 8435,
      "Ġache": 8436,
      "Ġacid": 8437,
      "Ġdistant": 8438,
      "Ġexplored": 8439,
      "Ġdecency": 8440,
      "Ġdecadent": 8441,
      "Ġhorribly": 8442,
      "Ġimagined": 8443,
      "Ġimaginable": 8444,
      "Ġcraw": 8445,
      "strict": 8446,
      "strange": 8447,
      "Ġsolutions": 8448,
      "Ġschlock": 8449,
      "Ġinviting": 8450,
      "Ġinvincible": 8451,
      "Ġinvaluable": 8452,
      "Ġpassable": 8453,
      "Ġpassions": 8454,
      "Ġthoughts": 8455,
      "minally": 8456,
      "Ġmindset": 8457,
      "Ġanimals": 8458,
      "withstanding": 8459,
      "Ġfascination": 8460,
      "Ġtitled": 8461,
      "Ġtitular": 8462,
      "Ġswings": 8463,
      "Ġsword": 8464,
      "Ġswinging": 8465,
      "Ġswashbuck": 8466,
      "Ġdarkness": 8467,
      "Ġsweetest": 8468,
      "Ġzipp": 8469,
      "Ġstarting": 8470,
      "Ġputting": 8471,
      "Ġinteraction": 8472,
      "Ġsaves": 8473,
      "Ġlights": 8474,
      "Ġlighting": 8475,
      "Ġlightness": 8476,
      "Ġmaid": 8477,
      "Ġbrav": 8478,
      "Ġbrave": 8479,
      "Ġbrains": 8480,
      "Ġbracing": 8481,
      "Ġsentence": 8482,
      "Ġsentiments": 8483,
      "proves": 8484,
      "provides": 8485,
      "Ġboard": 8486,
      "Ġparalle": 8487,
      "Ġlowbrow": 8488,
      "Ġsuspend": 8489,
      "Ġsensibilities": 8490,
      "Ġsensitivity": 8491,
      "Ġexpects": 8492,
      "Ġadded": 8493,
      "Ġseriousness": 8494,
      "Ġsumm": 8495,
      "Ġsumptuous": 8496,
      "Ġpsycho": 8497,
      "Ġprofund": 8498,
      "Ġsyn": 8499,
      "Ġstronger": 8500,
      "Ġopinion": 8501,
      "Ġinspires": 8502,
      "Ġdaily": 8503,
      "Ġbehan": 8504,
      "Ġdamon": 8505,
      "Ġaccum": 8506,
      "Ġaccident": 8507,
      "Ġstein": 8508,
      "Ġsteal": 8509,
      "Ġsteve": 8510,
      "Ġsimone": 8511,
      "Ġadmittedly": 8512,
      "Ġmisanth": 8513,
      "Ġcredited": 8514,
      "Ġsuccessfully": 8515,
      "Ġwarmed": 8516,
      "Ġelsewhere": 8517,
      "Ġsnoo": 8518,
      "Ġsnake": 8519,
      "Ġsnipes": 8520,
      "Ġbasket": 8521,
      "Ġcamer": 8522,
      "Ġfacet": 8523,
      "Ġ95": 8524,
      "Ġdifferences": 8525,
      "Ġmusty": 8526,
      "Ġdumbed": 8527,
      "Ġdrunk": 8528,
      "Ġsupply": 8529,
      "Ġcountless": 8530,
      "Ġmotown": 8531,
      "maj": 8532,
      "Ġrichard": 8533,
      "Ġlatin": 8534,
      "Ġsuffer": 8535,
      "Ġsuffered": 8536,
      "ettelbe": 8537,
      "Ġjackass": 8538,
      "obi": 8539,
      "Ġinfuses": 8540,
      "Ġangle": 8541,
      "Ġdevice": 8542,
      "Ġrocky": 8543,
      "Ġcapital": 8544,
      "Ġdeserved": 8545,
      "Ġmixes": 8546,
      "Ġfreundlich": 8547,
      "Ġgotten": 8548,
      "Ġtruths": 8549,
      "Ġtruthful": 8550,
      "Ġhopefully": 8551,
      "Ġaffl": 8552,
      "Ġsandra": 8553,
      "ontaine": 8554,
      "Ġdenis": 8555,
      "Ġdenial": 8556,
      "Ġdeniro": 8557,
      "Ġexamine": 8558,
      "Ġconception": 8559,
      "Ġlift": 8560,
      "Ġlifts": 8561,
      "Ġcombines": 8562,
      "Ġshocked": 8563,
      "Ġshockingly": 8564,
      "Ġsympath": 8565,
      "iency": 8566,
      "Ġautom": 8567,
      "Ġsleek": 8568,
      "Ġcostner": 8569,
      "Ġtopical": 8570,
      "Ġtechnically": 8571,
      "Ġvirtu": 8572,
      "Ġfemin": 8573,
      "Ġnonstop": 8574,
      "Ġadapted": 8575,
      "Ġadaptations": 8576,
      "Ġliteral": 8577,
      "Ġtasteful": 8578,
      "Ġcurm": 8579,
      "Ġdigs": 8580,
      "Ġimproved": 8581,
      "Ġimprovised": 8582,
      "Ġdefinition": 8583,
      "Ġdefinitive": 8584,
      "Ġbreakdown": 8585,
      "Ġweirdness": 8586,
      "Ġblandness": 8587,
      "Ġbreathe": 8588,
      "Ġeventual": 8589,
      "Ġthinly": 8590,
      "Ġfavour": 8591,
      "Ġfavors": 8592,
      "Ġobserved": 8593,
      "Ġcollapses": 8594,
      "Ġopenness": 8595,
      "kinnear": 8596,
      "Ġcallar": 8597,
      "Ġsplash": 8598,
      "Ġcamps": 8599,
      "Ġcampy": 8600,
      "Ġexisted": 8601,
      "Ġproportions": 8602,
      "Ġpostcard": 8603,
      "Ġdepression": 8604,
      "Ġepisodic": 8605,
      "Ġsquanders": 8606,
      "Ġlabor": 8607,
      "Ġlabute": 8608,
      "Ġrecommended": 8609,
      "Ġroutines": 8610,
      "Ġsexuality": 8611,
      "Ġmajority": 8612,
      "Ġ45": 8613,
      "Ġlynch": 8614,
      "charged": 8615,
      "Ġfailing": 8616,
      "Ġsurfing": 8617,
      "Ġessential": 8618,
      "Ġcrossroads": 8619,
      "Ġpathology": 8620,
      "Ġchallenge": 8621,
      "formula": 8622,
      "loving": 8623,
      "Ġsources": 8624,
      "Ġforever": 8625,
      "Ġmerchant": 8626,
      "Ġweddings": 8627,
      "Ġthrowback": 8628,
      "Ġthrowaway": 8629,
      "Ġhomosexual": 8630,
      "Ġknack": 8631,
      "Ġastounding": 8632,
      "Ġpalpable": 8633,
      "Ġlimits": 8634,
      "Ġmetaphorical": 8635,
      "Ġramsay": 8636,
      "Ġpitiful": 8637,
      "Ġinnuend": 8638,
      "Ġflashbacks": 8639,
      "Ġnervy": 8640,
      "Ġnervous": 8641,
      "Ġmothers": 8642,
      "Ġannoy": 8643,
      "Ġlegacy": 8644,
      "Ġdrawing": 8645,
      "writers": 8646,
      "Ġmachismo": 8647,
      "Ġdana": 8648,
      "Ġdanny": 8649,
      "Ġgifts": 8650,
      "Ġmovement": 8651,
      "Ġjuicy": 8652,
      "Ġuninteresting": 8653,
      "Ġgroups": 8654,
      "Ġappreciation": 8655,
      "Ġappreciated": 8656,
      "looks": 8657,
      "Ġsalv": 8658,
      "Ġsalute": 8659,
      "Ġsalton": 8660,
      "Ġbrendan": 8661,
      "Ġpupp": 8662,
      "Ġlaid": 8663,
      "Ġsucks": 8664,
      "Ġsucker": 8665,
      "Ġclosing": 8666,
      "Ġremembering": 8667,
      "Ġprimary": 8668,
      "Ġprimitive": 8669,
      "Ġrepetition": 8670,
      "Ġidiots": 8671,
      "Ġidiocy": 8672,
      "Ġsavage": 8673,
      "Ġcatches": 8674,
      "Ġhampered": 8675,
      "Ġladies": 8676,
      "Ġrequires": 8677,
      "Ġemerging": 8678,
      "Ġawkwardly": 8679,
      "Ġexploring": 8680,
      "Ġfitfully": 8681,
      "Ġfragment": 8682,
      "Ġfragile": 8683,
      "Ġmilitary": 8684,
      "Ġmilieu": 8685,
      "Ġmaker": 8686,
      "Ġbiography": 8687,
      "Ġwalking": 8688,
      "Ġwallet": 8689,
      "Ġtowards": 8690,
      "Ġdisguised": 8691,
      "Ġestrogen": 8692,
      "Ġaimless": 8693,
      "Ġnuances": 8694,
      "Ġscratching": 8695,
      "putting": 8696,
      "Ġfathers": 8697,
      "aggeringly": 8698,
      "Ġintensely": 8699,
      "Ġchecklist": 8700,
      "Ġrepresent": 8701,
      "Ġexpression": 8702,
      "Ġprofoundly": 8703,
      "Ġextraordinarily": 8704,
      "Ġstrengths": 8705,
      "bearing": 8706,
      "Ġfreaky": 8707,
      "Ġbogs": 8708,
      "Ġbogged": 8709,
      "Ġboldly": 8710,
      "Ġwallop": 8711,
      "Ġpanor": 8712,
      "Ġpanache": 8713,
      "Ġpantheon": 8714,
      "Ġstaying": 8715,
      "Ġexcesses": 8716,
      "Ġelegantly": 8717,
      "boys": 8718,
      "disney": 8719,
      "uitous": 8720,
      "Ġignored": 8721,
      "Ġtenderness": 8722,
      "Ġreaching": 8723,
      "Ġallowing": 8724,
      "Ġadmirably": 8725,
      "Ġauthenticity": 8726,
      "crack": 8727,
      "Ġbowling": 8728,
      "Ġhallucin": 8729,
      "Ġnaive": 8730,
      "Ġstreets": 8731,
      "Ġjolie": 8732,
      "Ġlearned": 8733,
      "Ġconsistent": 8734,
      "Ġwilco": 8735,
      "Ġpiccoli": 8736,
      "Ġdiva": 8737,
      "Ġguts": 8738,
      "Ġsticking": 8739,
      "Ġrussell": 8740,
      "Ġspotlight": 8741,
      "Ġarchival": 8742,
      "Ġradar": 8743,
      "Ġradical": 8744,
      "extremely": 8745,
      "Ġirrele": 8746,
      "cultural": 8747,
      "driven": 8748,
      "sheridan": 8749,
      "winning": 8750,
      "Ġtosses": 8751,
      "Ġresembling": 8752,
      "Ġshameless": 8753,
      "Ġemphasis": 8754,
      "Ġmichell": 8755,
      "Ġcroc": 8756,
      "Ġhurt": 8757,
      "Ġhurley": 8758,
      "secret": 8759,
      "Ġdebate": 8760,
      "Ġspinning": 8761,
      "Ġclimax": 8762,
      "Ġtextbook": 8763,
      "Ġreflective": 8764,
      "producer": 8765,
      "Ġembrace": 8766,
      "Ġdynamics": 8767,
      "Ġfabul": 8768,
      "Ġgroan": 8769,
      "ooping": 8770,
      "Ġhearst": 8771,
      "Ġconspic": 8772,
      "Ġconversation": 8773,
      "Ġflowers": 8774,
      "Ġcollective": 8775,
      "Ġmotivated": 8776,
      "Ġregarding": 8777,
      "Ġregardless": 8778,
      "Ġlandscapes": 8779,
      "Ġbreathtakingly": 8780,
      "Ġintroduction": 8781,
      "Ġintroduces": 8782,
      "Ġfiercely": 8783,
      "hardly": 8784,
      "vili": 8785,
      "Ġsixth": 8786,
      "Ġmental": 8787,
      "Ġmacabre": 8788,
      "Ġnarciss": 8789,
      "Ġunwatchable": 8790,
      "Ġkicking": 8791,
      "Ġkorea": 8792,
      "Ġthematically": 8793,
      "Ġexplosion": 8794,
      "Ġinvestig": 8795,
      "Ġpauline": 8796,
      "Ġwonders": 8797,
      "Ġdonovan": 8798,
      "Ġlilo": 8799,
      "Ġlucas": 8800,
      "Ġlucky": 8801,
      "Ġelling": 8802,
      "Ġsuccumb": 8803,
      "Ġhawk": 8804,
      "Ġruins": 8805,
      "Ġrisk": 8806,
      "Ġdepartment": 8807,
      "Ġdistinguished": 8808,
      "Ġcommunic": 8809,
      "Ġjews": 8810,
      "calcul": 8811,
      "family": 8812,
      "modern": 8813,
      "Ġtempting": 8814,
      "Ġfacile": 8815,
      "eneuve": 8816,
      "Ġbaby": 8817,
      "Ġvaguely": 8818,
      "Ġimmediate": 8819,
      "Ġfloor": 8820,
      "Ġaccurately": 8821,
      "Ġpuzzle": 8822,
      "Ġpuzzling": 8823,
      "Ġsacrifice": 8824,
      "Ġuncomfortable": 8825,
      "better": 8826,
      "between": 8827,
      "solondz": 8828,
      "Ġbesides": 8829,
      "Ġboundaries": 8830,
      "Ġincomprehensible": 8831,
      "Ġincompetent": 8832,
      "Ġeconomical": 8833,
      "Ġrelevant": 8834,
      "Ġscottish": 8835,
      "Ġconveys": 8836,
      "Ġventure": 8837,
      "Ġspanish": 8838,
      "Ġrowdy": 8839,
      "Ġcriminal": 8840,
      "Ġsymbolic": 8841,
      "Ġcourtroom": 8842,
      "generated": 8843,
      "Ġlocales": 8844,
      "Ġinexplicably": 8845,
      "drops": 8846,
      "poignant": 8847,
      "Ġodyssey": 8848,
      "Ġjonah": 8849,
      "Ġsevere": 8850,
      "Ġunbearable": 8851,
      "Ġunbearably": 8852,
      "Ġperceptive": 8853,
      "accid": 8854,
      "Ġdismissed": 8855,
      "Ġdisgusting": 8856,
      "Ġvietnamese": 8857,
      "Ġinterviews": 8858,
      "Ġcontemplative": 8859,
      "Ġestablishes": 8860,
      "Ġcontradictory": 8861,
      "Ġfundamentals": 8862,
      "aghan": 8863,
      "busters": 8864,
      "finitely": 8865,
      "volving": 8866,
      "Ġseldahl": 8867,
      "Ġfingered": 8868,
      "Ġlunacy": 8869,
      "Ġetc": 8870,
      "Ġgyllenha": 8871,
      "Ġrejected": 8872,
      "Ġjanice": 8873,
      "Ġjacquot": 8874,
      "Ġseparate": 8875,
      "Ġshrill": 8876,
      "Ġconcoction": 8877,
      "Ġprevents": 8878,
      "Ġclinical": 8879,
      "Ġarresting": 8880,
      "Ġadvance": 8881,
      "Ġemploys": 8882,
      "showtime": 8883,
      "Ġcrudup": 8884,
      "Ġapplaud": 8885,
      "Ġguaranteed": 8886,
      "Ġillustrates": 8887,
      "Ġoptimism": 8888,
      "Ġphenomenal": 8889,
      "certainly": 8890,
      "sadly": 8891,
      "Ġtreads": 8892,
      "Ġfreddy": 8893,
      "Ġwidow": 8894,
      "Ġinsecure": 8895,
      "Ġgothic": 8896,
      "Ġstroke": 8897,
      "Ġdopey": 8898,
      "Ġkennedy": 8899,
      "Ġloyalty": 8900,
      "Ġflesh": 8901,
      "Ġdiscern": 8902,
      "Ġarticulate": 8903,
      "Ġinsanely": 8904,
      "Ġgratuitous": 8905,
      "Ġgibson": 8906,
      "Ġappetite": 8907,
      "Ġinterpretation": 8908,
      "Ġconvictions": 8909,
      "Ġsteady": 8910,
      "Ġcondescending": 8911,
      "Ġdestruction": 8912,
      "Ġ3000": 8913,
      "Ġargentine": 8914,
      "Ġschmaltzy": 8915,
      "Ġneighborhood": 8916,
      "simply": 8917,
      "Ġ\\*\\*\\*": 8918,
      "Ġtambor": 8919,
      "Ġsabot": 8920,
      "Ġmuddle": 8921,
      "Ġdedication": 8922,
      "Ġgiddy": 8923,
      "Ġmoonlight": 8924,
      "vigorating": 8925,
      "Ġanguish": 8926,
      "Ġhenry": 8927,
      "Ġenlightening": 8928,
      "Ġcompensate": 8929,
      "Ġundermines": 8930,
      "Ġobligatory": 8931,
      "important": 8932,
      "Ġcohesive": 8933,
      "Ġexcruciating": 8934,
      "Ġskateboard": 8935,
      "Ġinfuriating": 8936,
      "Ġdiscussion": 8937,
      "Ġconspiracy": 8938,
      "friendly": 8939,
      "Ġextravaganza": 8940,
      "congrat": 8941,
      "numbingly": 8942,
      "rotechn": 8943,
      "twenty": 8944,
      "williams": 8945,
      "Ġacknowled": 8946,
      "Ġsizzle": 8947,
      "Ġmourn": 8948,
      "Ġwendigo": 8949,
      "Ġdawson": 8950,
      "Ġhundred": 8951,
      "Ġhospital": 8952,
      "Ġanomie": 8953,
      "adventure": 8954,
      "Ġchurch": 8955,
      "Ġhewitt": 8956,
      "Ġuncommonly": 8957,
      "Ġscreens": 8958,
      "Ġflamboyant": 8959,
      "Ġcompanion": 8960,
      "Ġblatant": 8961,
      "Ġdisintegr": 8962,
      "achtwey": 8963,
      "Ġcoffee": 8964,
      "Ġfarcical": 8965,
      "Ġincessant": 8966,
      "Ġcarpenter": 8967,
      "Ġpunctuated": 8968,
      "Ġantidote": 8969,
      "Ġveteran": 8970,
      "Ġmethod": 8971,
      "Ġinfantile": 8972,
      "Ġchristopher": 8973,
      "Ġlyricism": 8974,
      "Ġpenetrating": 8975,
      "Ġunconventional": 8976,
      "Ġthornberrys": 8977,
      "evokes": 8978,
      "lotte": 8979,
      "language": 8980,
      "noyce": 8981,
      "surprisingly": 8982,
      "Ġtawdry": 8983,
      "Ġbesson": 8984,
      "Ġborders": 8985,
      "Ġcipher": 8986,
      "Ġwretched": 8987,
      "Ġpessim": 8988,
      "Ġdisease": 8989,
      "Ġlambs": 8990,
      "Ġnaturally": 8991,
      "Ġyiddish": 8992,
      "Ġyesterday": 8993,
      "ayburgh": 8994,
      "Ġfortune": 8995,
      "Ġalbeit": 8996,
      "Ġjennifer": 8997,
      "Ġshoddy": 8998,
      "Ġunassuming": 8999,
      "Ġunfortunate": 9000,
      "Ġkafka": 9001,
      "Ġsoccer": 9002,
      "Ġoutlandish": 9003,
      "Ġravishing": 9004,
      "Ġimpenetrable": 9005,
      "Ġchekhov": 9006,
      "Ġaficionados": 9007,
      "Ġmisanthrop": 9008,
      "Ġbasketball": 9009,
      "ettelbeck": 9010,
      "Ġgyllenhaal": 9011,
      "11": 9012,
      "50": 9013,
      "aan": 9014,
      "awn": 9015,
      "aign": 9016,
      "aims": 9017,
      "bare": 9018,
      "bod": 9019,
      "burn": 9020,
      "break": 9021,
      "bows": 9022,
      "baf": 9023,
      "barely": 9024,
      "breaking": 9025,
      "birthday": 9026,
      "cu": 9027,
      "cor": 9028,
      "cam": 9029,
      "cop": 9030,
      "cook": 9031,
      "cated": 9032,
      "cold": 9033,
      "cond": 9034,
      "chen": 9035,
      "cener": 9036,
      "cinematic": 9037,
      "did": 9038,
      "dam": 9039,
      "dun": 9040,
      "dull": 9041,
      "dense": 9042,
      "dling": 9043,
      "dles": 9044,
      "dsy": 9045,
      "dream": 9046,
      "drenched": 9047,
      "eo": 9048,
      "ez": 9049,
      "ech": 9050,
      "eem": 9051,
      "fight": 9052,
      "folds": 9053,
      "gun": 9054,
      "gone": 9055,
      "gie": 9056,
[...]
