#version: 0.2
ന ്
ക ്
ത ്
ക് ക
ല ്
ന് ന
ത് ത
് ട
പ ്
ു ന്ന
ു ക
ര ്
ി ക്ക
ാ യ
ള ്
സ ്
ി യ
ി ല്
് യ
ങ ്
ട ്ട
ച ്
ര ു
ത ി
ു ം
വ ി
ണ ്ട
പ് പ
ള് ള
ന ി
ാ ര
ി ല
മ ാ
ച് ച
ണ ്
മ ു
ുന്ന ു
ര ാ
റ ്
റ െ
ന് റെ
ര ി
പ് ര
ങ് ങ
വ ാ
ത ു
ട െ
ക ാ
മ ായ
ഒ രു
മ ്
ക ു
ത്ത ി
ന ം
ല് ല
ക് ഷ
ങ് ക
ര ം
ു ള്ള
ദ ്
റ് റ
ച െ
വ സ്
ഞ ്
ി ക
ിക്ക ുക
ിക്ക ുന്ന
ു ടെ
പ ു
ി ച്ച
ക ൊ
ി ര
ത ാ
ട ു
സ ം
ണ ം
െ ങ്ക
ന ാ
ല ി
ത് ര
പ ാ
വ ്യ
ക് ക്
ഭ ാ
ട ി
അ വ
് ര
യ ്യ
ണ്ട ്
യ ്
ില് ല
യ ം
വ േ
ാ ത്ത
ന ു
പ്പ െ
വ ര്
ഞ് ഞ
ക്ക ുക
പ ോ
യ ാ
ിക്ക ുന്നു
സ് ഥ
ന് ന്
ഗ ം
ായ ി
വസ് തു
ചെ യ്യ
സ ാ
ില െ
മ് മ
ണ ി
പ ി
ത്ത ില്
വ ര
വ ്
ദ് ധ
ണ് ണ
അ ല്ല
ക ൂ
ണ്ട ാ
ത് ത്
ന് ത
സ ി
ന് ധ
അല്ല െങ്ക
ങ്ങ ള
വസ് ഥ
മ ൂ
ില ും
ന െ
യ ോ
ക് തി
വ െ
അല്ലെങ്ക ില്
ട്ട ്
ദ േ
പ ൂ
ശ ്
ക്ക ുന്ന
മു ള്ള
വ ീ
ഗ ്
ച ി
ത ല
ത്തി ന്റെ
മ ി
വ ം
റ ി
ട്ട ി
ല ം
ഷ ്ട
ര ോ
ജ ോ
ത ിയ
വ്യ ക്തി
ക ം
ക ുന്നു
ക ി
ഉ പ
അ വസ്ഥ
ക ര
ത്ത െ
ന ായ
െങ്ക ിലും
യ ുടെ
ത് രം
ങ്ങ ള്
ഴ ു
ാ ന്
ച് ച്
ജ ീ
ജ ്
ദ ി
ാ ന
യ ി
ന ട
ിച്ച ു
ക ള
മ് പ
ാര ം
ര് യ
വ ള
ഉ ണ്ടാ
റ ു
മായ ി
ദ ്യ
ത െ
ല ാ
ക ോ
ത ീ
വര് ത്ത
റ ിയ
സ ു
ര ിയ
ഷ ്
ബ ന്ധ
ക്ക ി
വ ുക
ട ്
ര ീ
യ ും
ന്ന ു
ജോ ലി
ത ം
യ ില്
യ ു
ന ീ
പ്പെ ട്ട
ന േ
പ െ
ാര ന്
പ്ര വര്ത്ത
ള ി
എ ന്ന
ഏ ത
മ േ
രാ ജ
തി ര
ശ ാ
ു ്
ശ ി
പ റ
ബ ്
ാ ര്
യോ ഗ
ടു ത്ത
ാ നം
അവ ന്
ഴ ി
ച ു
ര െ
കൊ ണ്ട്
പ്രവര്ത്ത നം
വ ല
ഏത െങ്കിലും
പ രി
വ ും
ിര ിക്കുന്നു
ക േ
ബ ാ
ക ൃ
നി റ
ക്ക ു
ദേ ശ
ഹ ി
ണ്ട ി
സ മ
പ ൊ
ന് ദ
ന ോ
ക ട
ില്ല ാത്ത
വ ൃ
ര് മ്മ
ാ ം
ര് ത്ത
വ ന്
ന ിയ
പ് പ്
ില ുള്ള
ഞ് ച
ഹ ം
ി ൽ
നി ന്ന്
ിര ുന്നു
ഗ ്ര
ദ് ര
സ് ത്ര
ചെയ്യ ുക
മ ഹ
ട ിയ
ത് യ
അ തി
ന ായി
ത ോ
ാര ി
ഗ ു
പ്പെ ട
മ ര
ഷ ്യ
കു റ
ദ ം
സ ൂ
ജീ വി
മു തല
ാ ണ്
സ് വ
ശ ്ര
പ്പ ോ
ത്ത ിലെ
പ്പ ിക്കുക
ിക ള്
ഭ ൂ
ത്ത ിയ
കൊ ണ്ട
മുതല ായ
ാ വ
ധ ിക
ക ന്
ക ള്
കാ ണ
ര ൂ
ട്ട ു
ക ാര
ജ് ഞ
മാ ണ്
ദ ു
ം ഗ
കാ ല
ത്തി ൽ
ഭാ ഗം
പ േ
പ ണി
സാ ധ
പ ര
മ ോ
ിയ ുടെ
ക ൈ
ച്ച ു
ക ുന്ന
ത് രി
ക്ക ാ
ിയ ായ
ജ ാ
ശ ്യ
ത് ഥ
ക്ഷ ി
ക ഴ
വെ ള്ള
ഭ ി
വള രെ
റ് റ്
ശ ം
ധ ി
ൊ ണ്ട
ുക ള
ിക ള
ല െ
മുതലായ വ
ശ ു
ഞ്ഞ ു
ക്ക ുന്നു
ന ഗ
രു ടെ
സം ബന്ധ
ര് യം
സ്ഥ ാനം
ഉ ള്ള
റ്റ ി
ല ോ
ഴ ്
സ ഹ
അ നു
ച േ
ഭ ര
രൂ പ
ുക ള്
ആ കുന്നു
ല്ല ാ
രാ ണ
വ്യ ാ
ചെയ്യ ുന്ന
സ്ത്ര ീ
രാ മ
പു റ
ത ൊ
സ് ത
ിക്ക ും
ത ും
വാ ന്
ജ ന
ഭ ക്ഷ
വ ർ
യ ുള്ള
ത മായ
ഷ ം
ക്ക ാരന്
മ റ്റ
ള ം
ഉപ യോഗ
ക െ
ാ മ
ക് ര
ജ ില്ല
ത്ത ുക
യ് ക്ക്
ജ ി
വ ായ
യ െ
ല്ല ാത്ത
ഗ ോ
മൂ ല
എന്ന ി
വല ിയ
ഭാ ഷ
വി ന്റെ
പ ട്ട
പ ല
മ നു
ത ന്റെ
ട്ട ിയ
ിക്ക ു
മാ ര്
കാ ര്യ
ിര ിക്കുന്ന
ഇ ട
ത രം
തി നായി
ഭാ വം
നി ര്മ്മ
ന് യ
ശ ബ്
ഇ രു
്യ ം
ക ീ
റ്റ ം
മാ ന
ന് ത്ര
വ ൈ
സ ന്
വേ ണ്ടി
ത്ത ാ
ന ല്ല
ട്ട ുക
ധ ം
ച ാ
രി ച്ച
ക ര്
എന്നി വ
ഖ ്യ
മ ം
ങ്ങള ുടെ
ക് രിയ
ആ ള്
ആ ണ്
ശ േ
നാ ല്
മനു ഷ്യ
മ ന
ട ം
ത്ത ു
അ ധിക
മ ില്ലാത്ത
ബ ു
ഭ ാര
സ ര്
ക്ക ിയ
ണ് ഡ
ട ുക
ങ്ങ ി
ില ാ
പൂ ര്
ച ീ
ഹ ്
ക ുക
സ േ
രാ ഗം
ന ല്
ട ാ
ശ രീ
ക്ക ം
ചെ റിയ
പു രാണ
യ ുക
മ് പ്
നഗ രം
എ ഴു
ന് ദ്
ഉണ്ടാ വുക
വ യ
സ് വാ
പ ദ
ഭാ ഗ
പ്പ ി
മ െ
ിക്ക ാ
ഡ ്
പ് രാ
വര ുന്ന
ന ൂ
ആ ള
അ ത്
കൊ ടു
എ ന്റെ
ക യ
ഒ രി
വ സ
പ്ര തി
ായ ം
യ് ക്കുക
ക്ക ാര
ച ില
ായ ്
മ ൃ
മ ധ
പ തി
ത്ത ിലുള്ള
ചെ യ്
മൂല കം
അ ട
ക്ക ല്
വാ സ
കാ ര്യം
ത ര
ന ുള്ള
സ്ഥ ലം
ഭര ണ
ര േ
കു ട
ഒരി നം
വേ ദ
ച് ഛ
ിയ ില്
വി ള
ട്ട ം
ത്തി ന്
ന്ന ും
പ്പ ിക്കുന്ന
ല ു
യ ിലെ
ണ്ട ു
രോ ഗ
ബ ോ
ര ിക്ക
ഷ ി
ല ഭ
കു തിര
കു ട്ട
റ ാ
ക് ത
പ്പ ാ
നി ല
മ ീ
ശ ീ
ങ്ങ ൾ
തു ട
ത ില്
ള ു
ല് ല്
പ്പെ ടുത്ത
എ ല്ലാ
ഭ വ
പ ഴ
വി ദ്യ
ാ പ
ര ക്ഷ
മഹ ാ
വ ു
പോ യി
ങ്ങള ില്
ഗ ാ
വ ന
ആ യ
ണ ു
ന് ദ്ര
വി ല
ക മായ
പ്പ ു
ക്ഷ ം
പി ട
പ ം
രോ ഗം
ദ ാ
ച ൂ
ത് സ
അ ല
ല ും
ുക ൊണ്ട
രു ം
െ ടു
മു ഖ
നട ത്ത
ചെ ടി
ള ുടെ
ബ ി
ാ ല്
അ ഭി
ഉ ത്ത
തി നു
അ മ്മ
മ ന്
സ് സ
പ ക്ഷി
വ ന്ന
ോ ദ
അ ന
ത്ത ില
പ ഠ
അവ ന്റെ
കര ണം
ിക്ക പ്പെട്ട
താ ണ്
സ്ഥ ാന
േ യും
വി ഷ
താ മ
ഹ ര
ത്ത ോ
വി ടെ
ക്ക ും
പ്ര ദേശ
ത േ
ഗ്ര ഹ
വര െ
അ പ
സം ഖ്യ
ത ട
സി ദ്ധ
ക ഴി
മ രം
ിര ിക്കും
ശരീ ര
ിക്ക ല്
ഉ റ
ിക്ക ാത്ത
ട്ട ുന്ന
ക ല
യോഗ ്യ
ശബ് ദം
മ ണ
പാ ത്രം
മറ്റ ൊ
മ് പോ
പോ ലെ
ന്ന െ
ജീ വ
വ ില്
യി ൽ
പെ ട്ട
ത് വം
ഗ് ഗ
സമ യ
ശ ോ
ധ ന
രി ക
സ ാര
ജ ന്
ന ില്
ന്ന ി
വി വാ
ങ്ങ ിയ
ദ്യ ം
മ നോ
ഹ ാ
പ ഞ്ച
ക്ക ള്
ങ് ങ്
തു ണി
ഉ ണ്ട്
ല േ
ഷ ന്
പു ത്ര
ഇ ര
മ ത
തി ന്
യ ന്
ആ യു
റ ോ
രാജ ്യ
മാ വ്
ഷ് ഠ
ഡ ി
ദ ീ
ഴ ുക
കേ ന്ദ്
വ ട
മ് പി
വി ശ്
നിര്മ്മ ി
കഴ ിയ
പ ക്ഷ
പ ത്തിയ
അവ ൻ
പോ ല
യാ ണ്
ത ുക
ാര് ത്ഥ
ിയ െ
തല സ്ഥാനം
ക ല്
ഉ യ
ര ന്
ാമ ത്തെ
ക ൾ
യ ുന്ന
യ ില
ഭാര ത
ര ുക
ത ന്
വ ശ്യ
സ ീ
പു രു
ക ർ
വെള്ള ം
ക് തിയ
നി ര്
ു ര
കേന്ദ് രം
ത ായ
സ ര
ആ ന
ാര ാ
സ് യ
ജ ല
യ ായ
മാ ല
മ ുന്ന
അ ള
ഉ ത്
യ ൂ
ണ ിയ
ന ും
ട്ട ുള്ള
ത ൂ
ടുത്ത ു
പട്ട ണം
യാ ള്
അ ടി
സ ോ
താ ങ്ക
ത്ത ം
നി ര
ബു ദ്ധ
കൊണ്ട ു
ഗ ി
വാ ദ
ല ക്ഷ
മു ള
ത ന്നെ
ണ്ട ായ
മാ നം
മ ുകള
ത് മ
യ് ക്ക
സമ യം
പ്പോ ഴ
ഗ് രാമ
വി ര
ര് ത്ഥ
കു ഴ
ാന ുള്ള
ദ ൂ
സ ൈ
ര് ന്ന
ങ്ങ ുക
ങ്ങള െ
ധ ാന്
മു റി
അതി ന്റെ
ക ണ്
പ്പെട ുന്ന
എ ണ്ണ
ള െ
വ ഴി
നി ർ
ക ും
സംബന്ധ ിക്കുന്ന
ദേശ ം
പ ട
ണ് ണം
ക ണ്ണ
ഗ ീ
നി ശ്
കാര ണം
ാവ ുന്ന
പ ര്
പ്ര ത്യ
എ ടു
റ ുക
വ ത
മ ില്ല
പ്പ ം
പ്ര ക്രിയ
മാ ങ്ങ
വര് ണ്ണ
യു ദ്ധ
മാ സ
ച ാര
യ് ക്കുന്ന
നി ക്ക്
കാ ശ
ചെ റു
ര ണ്ട്
ര് ഥ
ന്ത ം
ഷ് ണ
ത ൃ
ഹ ാരം
ധ ാന
സ മ്
അ റിയ
ന് തി
ാ വ്
അ ടു
ത് വ
ക്ക െ
മാ റ്റ
ിച്ച ി
നിര്മ്മി തം
ഷ ണം
വൃ ക്ഷം
ൂ ടെ
മ ണ്
ദ്ധ ്യ
ഇ ന്ന്
ശാ ല
ജ് ജ
ക്ക ാര്
യാ ത്ര
ോ ഷ
ഇ ഷ്ട
ഭ ീ
ീ ന
പു സ്ത
ീ സ്
സ്ഥ ല
പ്പോ ള്
ഭ ്യ
മ ല്ലാത്ത
ഹ ു
ിയ ാ
സ്ഥ ി
അ യ
ഞ് ച്
താ കുന്നു
തിനായി ട്ട്
അ ധ
നി ന്നു
നിറ മുള്ള
കൊണ്ട ിരിക്കുന്നു
ട്ട ും
വ്യാ പ
മ ാര
പ്പെട ുക
ഭ ം
മ ൊ
ന ക്ഷ
പ ത്തി
ബ ല
സ് റ്റ
യ ായി
വർ ണ്ണ
സ മു
സാധ നം
ഗ ന്ധ
ത്ത േ
കൊ ള്ള
ദു ഃ
ോ ഗ
ിയ ുള്ള
പ്പ ിച്ചു
ായ് മ
ശാ സ്ത്ര
ഏ റ്റ
ദ ൃ
പ ീ
ത് യം
പാ ട്
താമ സ
ക്ക ന്
ഉ ണ
വ ്ര
രി ച്ച്
എ നിക്ക്
പാ ട
ജോ ല
ിക്ക ാരന്
പൂര് ണ്ണ
എ ല്ല
പ്ര ദ
ഞ ാന്
സാധ ന
മധ ുര
ആയു ധം
ഒരു തരം
കി ട
അ മ്പ
ചി ത
ിക്കുന്ന ത്
പാ ല
തിയ ില്
ശേ ഷം
ക ണ
പൂ ജ
ചു മ
ക്ര മ
വ ള്ള
ൊ ണ്ട്
മു ഴു
ത്തി നു
പദ ാര്ത്ഥ
ച ന
പുരു ഷന്
മ റ
വര ുന്നു
പൂ ർ
ചു റ്റ
നിറ ം
ത്ത ും
ഭക്ഷ ണം
പ്പോഴ ും
ിയ ന്
രേ ഖ
നി ഷ
ശബ് ദ
പ ണ
ഇ ല്ലാത്ത
ാ ൻ
ഒ ന്ന
പ ൌ
പര മായ
ത ല്
ാ തെ
കു ട്ടി
ല് യ
സ മൂ
സ് ത്രം
പ്ര ധാന
കൂ ടിയ
കള ി
രീ ക്ഷ
സഹ ോദ
ബ ്ര
നി ന്നും
മാ റ്റം
ഷ്ട ്ര
മ്പോ ള്
വസ് ത്രം
ഞ്ഞ ി
നിയ മ
വ ഴ
ര് ത്തി
ക്ഷ േ
ക ാരം
ട്ടു ണ്ട്
ആള ുകള്
ച ോ
ര് ച്ച
ദുഃ ഖ
ല ില്
ചെയ്യ ുന്നു
ം ഗ്
ന ദി
പ്രത്യ േ
ട്ട ില്
സംബന്ധ മായ
ഏറ്റ വും
വ ൻ
രാജ ്യം
വ രു
ില േ
ക ൻ
ക റു
യ െങ്കിലും
വ ന്നു
മു റ
ഞ് ചി
സ ങ്ക
ും ബ
പു തിയ
വെ ളു
ചി ത്ര
ച്ച ി
ഞ് ഞ്
വ ണ
ആ യി
ച ിക
സ ൌ
ര ായ
ീ യ
തി ന്ന
ദു ര്
മ ല
സ മ്മ
വി നെ
ികള ുടെ
പ ൈ
പ ത്
ശീ ല
പദാര്ത്ഥ ം
രി ച്ചു
കാ ള
അ തില്
ഏ ക
നാ ണ്
സ്ഥ ാപ
ദി വ
ത്ത ുള്ള
ഭാ ര്യ
ഇ ല
നാ ണ
ഉ രു
പ റ്റ
മ ൈ
തി നുള്ള
ുന്ന ത്
നാ ട
വൃ ത്തി
ഭൂ മി
ആ വശ്യ
പെ രു
ഭക്ഷ ്യ
സി ം
ആ ല
കാണ ാം
ദിവ സം
ച ന്ദ്ര
ഹ ോ
ാ ല
വ്യാ ധി
കു രു
ിര ിക്കുക
ങ്ങള ിൽ
ദേ വ
മൃ ഗ
അ റി
ഘ ട
േ ണ്ട
ര് ക്ക
ഭാ വ
കൂ ലി
ഭൂ മ
പ്പ ിച്ച
നിറ ഞ്ഞ
മ ഴ
പി ന്ന
ധ ാ
മാ ക്കുക
പ്പെട ുന്നു
സൂ ക്ഷ
സ ന്ത
സ ഞ്ച
ക ള്ള
പ്ര േ
വാസ ികള്
ിക്ക ൊണ്ട
പ്ര സിദ്ധ
സാ മ
ഉപയോഗ ിക്കുന്ന
അ ര
ആ രം
പോ വുക
ശ്ര മ
അ രി
ഡ ോ
കാ ല്
പെ ണ്
പറ യുക
ട ിക്കുക
ഉപ നിഷ
തീ യ
ക്ക ൂ
ിക്ക ാര
ഉണ്ടാ ക്കുന്ന
ഒരു പാട്
കു റ്റ
കൃ തി
പു ല്ല്
തു മായ
കൂ ടി
ിക്കാ ൻ
ക ഴു
മു ന്
സം സാര
പി ടി
ബാ ധ
ഉ ണ്ടായ
വ രാ
റ്റ ു
സഹ ായ
ചീ ത്ത
ഭ ു
വ ണ്ടി
പാ ദ
ച ര
ശ രിയ
ശ് വര
ഗു ണ
വി ധ
ിക ൾ
ങ്ങള ും
കള ുടെ
ഗു രു
സന് യാ
ത യ്യ
ഭ ഗ
പാ ല്
ിക്കു വാന്
ഉപനിഷ ത്
ഒ രാ
ള ിയ
ഴ ം
ഷ ണ
രു ന്ന്
വി ട
മൂ ന്ന്
അ ം
എ ന്ന്
ജ നി
ഇ ത്
പ ണം
ഹ രി
ക ഥ
ഫ ്
ച്ച ില്
രാ ക്ഷ
വസ്തു വിന്റെ
അ ംഗ
വേദ ന
നടത്ത ുന്ന
പ്രത്യേ ക
മ ട
സ് വീ
അ ക
ത ടി
ധ ്
പ ടി
ശ ത്
സ മാ
താ ഴ
അവ സാ
വാ സം
കൂ ടു
ചി ന്ത
മോ ഹ
സ് പ
താ വ്
ആ ഗ്രഹ
മാ കുന്നു
കൂ ട്ട
ഗ് ഗം
ശത് രു
എ ന്ത
ഔ ഷ
ജ യ
ഥ ി
ീ ല
രാ ഷ്ട്ര
യോഗ്യ മായ
ഇ റ
ദ ൈ
റി ച്ച്
ചെയ് ത
ക വി
മ ഞ്ഞ
ണ്ട ും
മു പ്പ
വാ ദം
ിച്ച ുള്ള
ഴ് ച
ബുദ്ധ ി
പ ച്ച
ില ി
ലി ന്റെ
സി രാ
ക റ
ശ ക്തി
പ്പ ിക്കുന്നു
ഞ്ഞ ാ
ാവ ു്
്ട ്ട
വാ ഹ
ദ് വീ
സമയ ത്ത്
ആ ദ
യ ില്ല
തു റ
ഭര ണം
മന സ്സ
പുരാണ പുരുഷന്
സ്ഥി തി
സിരാ കേന്ദ്രം
അ ന്
ശു ദ്ധ
പ ശു
പ്രദേശ ിലെ
വർണ്ണ ന
ക ലാ
ര ിക്കുന്ന
സ മ്പ
ഹ ൃ
കാ ലം
കാല ത്ത്
ികള െ
ചേ ര്
ക രി
വ രിക
ശേ ഷ
മറ്റൊ രു
അ ര്
ദ യ
ാര ണ
ല്ല ി
കൃ ഷ്ണ
മര ണ
ചെയ് തു
ുകൊണ്ട ിരിക്കുന്നു
മന് ത്രി
ന ന്ന
ർ ത്ഥ
മ് മാ
ഉണ്ടാ കുന്ന
പറ യുന്ന
കുറ ഞ്ഞ
മനോ ഹര
ഉപയോഗ ിക്കുന്നു
മധ ്യ
സം ഭവ
റി ന്റെ
കി ഴ
ന ന്
ഫ ല
ര ണ്ടു
ര് ശ
ങ്ങ ുന്ന
ധ ു
മ തി
വ ശ
വ നി
മാ രുടെ
ഗ്ര ന്
ിക്ക ാന്
പ്ര ായ
ഫ ്ര
റ ും
ക്ക ള
ത്ത ുന്ന
മാ ന്
കൂ ട
ഭരണ സിരാകേന്ദ്രം
ധാന് യം
ത നായ
ബ ീ
സ ർ
ല് പ
പഴ ം
രാ ഗ
കു ള
പരി ശോ
സൂ ര്യ
കൊണ്ട ുള്ള
പ്പെടുത്ത ുക
അ ന്യ
പ രീക്ഷ
മ ണി
ത്തോ ടെ
തി രിച്ച
സു ഖ
ക ണ്ടു
ഠ ി
തി ള
കാ ര്
വ്യ ക്തിയ
പോ യ
കി ട്ടുന്ന
കര ണ
തൊ ഴ
ഗ ര്
മാ ം
കു തി
ശ്യ ാം
എ പ്പോഴും
നി വാസികള്
ഇ വിടെ
വ ിയ
സ് താ
ആരം ഭ
ഉ ട
ഏ കാ
റ േ
സ് യം
വ്യ വസ്ഥ
നെ യ്
വീ ട്
നട ത്തി
കുട്ട ികള്
മ് പു
കള െ
കഴി ഞ്ഞ
പുത്ര ന്
ള ാ
ാ ട
രീ തി
വൈ ദ്യ
അല ങ്ക
സാ ഹി
ജാ തി
ച തു
വ യ്ക്കുക
ുക ൾ
സം ഭ
പറ ഞ്ഞു
കര് ഷ
അ പേ
മു ത്ത
ശ്ര ദ്ധ
ൊ രു
ല്ല ു്
ദി വസ
തെ റ്റ
ആല പ
കു ല
ഭാ വി
പോ കുന്ന
കൃ തിയ
അ മ
മ ണ്ണ
തി രി
തിര ിക്കുക
ലോ ക
കെ ട്ടി
ത് ന
ആ ദ്യ
ഞ ങ്ങള്
ിയ ാണ്
വര ുക
ശാ സ്ത്രം
അ ദ്
വ ാര
വേ ശ
അ റു
ട ുന്ന
ര ണ്ടാ
നല് കുന്ന
ഗീ ത
ചിക ി
ഭക്ഷ്യ വസ്തു
ഉ ന്ന
ത ുന്ന
സ രിച്ച്
ാ നി
ക്ക േ
വര് ഗ്ഗ
കാര്യ ങ്ങള്
നൂ ല്
ഇ ള
വ ച്ച
പു ര
പു ഷ്
ശ്ര ീ
ത്തിയ ാ
വർണ്ണന കൾ
അ മേ
ക രു
ന ന
ന്ധ ി
വാ ദി
കാ ശം
വ ലി
ക്ക ോ
ിര ുന്ന
മേ ല്
ത്താ ല്
പ ാര
ഭ യ
വേ ഗ
ശി ക്ഷ
ന ഷ്ട
പ രു
വ ു്
ഇ ന്ന
യ ിലുള്ള
സു ര
ഗ്ര ഹം
അ നാ
ഥ ം
ദ ാനം
കുറ ച്ച്
അ ക്ഷ
ഈ ടാ
മാ ത്ര
ധിക ം
രൂപ ം
ക ണ്ട
ിയ ിൽ
മാ വുക
അധിക ാര
സന്യാ സി
പ ത
ഭ ്
സ ില്
ീ ക
ോ ട്
ിക മായ
കൂ ടെ
അന ുക
വിവാ ഹം
ക ര്മ്മ
ക ര്ത്ത
എ ന്
ഓ രോ
ഹ ാര
പ്ര വൃത്തി
സം സ്
സ് നേ
നിയ ന്ത്ര
ജ്ഞ ാനം
ച യ
ന മ്
വാ ങ്ങി
യന് ത്രം
മുകള ില്
അമേ രിക്ക
ഭ േ
വൃ ക്ഷ
വു മായി
അ ന്ത
ബ ഹു
യ ില്ലാത്ത
നട ത്തുക
വായ ു
ച ൊ
ഭ ോ
ാ ൽ
സ് സ്
എന്ത െങ്കിലും
യ ജ്ഞ
വ ല്
വ രി
വാ ദ്യം
ന്ദ ു
വെളു ത്ത
നാണ യം
ബ േ
ഉപ േ
പുസ്ത കം
അ ഗ്
ക ഷ്ട
പ ുക
പ ത്രം
സി ന്റെ
തയ്യ ാ
ത് യാ
ര ുന്ന
ല ാന്
വ ോ
ക്ക ൽ
കൂ ട്ടുക
നീ ര്
സേ ന
പ റ്റം
ിയ ും
അ ച്ഛ
കൊടു ക്കുന്ന
ഖ ്
ത ന്ത്ര
പ തു
സ ത്യ
ക്ക ാന്
കോ ട
ബ് രാ
മുതലായവ യുടെ
പൂർ ണ്ണ
ച ാരം
ത ണു
ന ര
ാ ള
ിക്ക ൂ
മാ ർ
രാജ ാ
അധിക ം
മറ്റൊ രാ
നിർ മ്മ
അദ് ദേ
ആ കാശ
ഈ ശ്വര
ഒ ന്ന്
ിച്ച േ
ഷ്ട ി
കേ ള്
തോ ന്ന
മണ് ണ്
പൈ സ
അ യാള്
ഗ ണ
ണ ു്
ഫ ോ
പ് ത
മു ണ്ട്
പ്ര വേശ
തു ല്യ
ധി പ
മറ്റ ുള്ള
ആയ ിരുന്നു
ക രം
ബ െ
സംബന്ധ ിച്ച
തര ത്തിലുള്ള
ഉപേ ക്ഷ
ധ ര്മ്മ
െ ന്ന്
അപേ ക്ഷ
ഈടാ ക്കുക
ഒ ട്ട
ക ച്ച
ജ ്യ
ട േയും
ദ ഗ്
ത് രാ
വീ ണ്ടും
ക്ഷി ണ
വിദ്യ ാ
ല് യം
മൂ ന്ന
ജനി ച്ച
അ ഹ
ക ൌ
ക പ്പ
വി റ
ജ ം
ധ ്യ
കു റിച്ച്
ഉപ കരണം
പൊ ടി
ഇ ല്ലാ
ദ ശി
ര ക്ത
സ് തു
ഞ്ഞ െടു
ബന്ധ ം
രാജ ാവ്
രാക്ഷ സന്
ധ നം
മ ത്തെ
വ്യ ം
ണ്ണ ൂ
വം ശ
ന ശി
മു ണ്ടാ
പ്പെട ാത്ത
പല ഹാരം
യുദ്ധ ം
ച ക്ര
ജ ലം
പ ന
സ ൃ
ർ ത്ത
തിയ ിൽ
പൊ ട്ടി
കുറ ിച്ചുള്ള
ഭക്ഷ ണ
ലേ ഖ
ദ ക്ഷിണ
ര ിക്കുക
യോ ഗം
ആള ുകള
പഠ ി
ചികി ത്സ
ന ാര
കീ ടം
ആ ശ
ഇ ല്ല
ച ട
ന വ
ഫ ലം
യ മായ
വാ സി
ലാ സ്
കഴ ുക
ശരീ രം
പുസ്ത ക
ആ ത്മ
മ ംഗ
ര സ
സ െ
മു ടെ
കൊ ല്ല
തോ ട്ട
അ നേ
ര ഹ
നി ന്ന
സാ ഹ
മഹ ാരാ
ണ്ഡ ി
വിശ് വസ
പൂര്ണ്ണ മായ
കറു ത്ത
ധ് വനി
ക ടി
ത ായി
മ ന്ത്ര
ത്തി നായി
ന യ
മ ണ്ഡ
കുട ുംബ
നക്ഷ ത്ര
ിക്കൊണ്ട ിരിക്കുന്നു
നമ് മുടെ
ച ല
ത ള
ോ ഷം
പ്പ ൂ
പ്പെട്ട ു
പുറ ത്ത്
താങ്ക ള്
അ ന്ന
ഇ ന്
ഒ റ്റ
ാ ന്ത
ക്ക ുള്ള
കൊ ടുത്തു
വേ ര്
സ്വ ഭാവം
വിവാ ഹ
കർ ഷ
കി ട്ടിയ
തൊ ണ്ണൂ
ധാന് യ
ക മ്പ
പ ത്ത്
ര ണ
സ സ്യ
ശി വ
ഭ്യ ാ
ഇ പ്പോള്
വ യ്
പൂ വ്
സു ന്ദ
ഇരു പത്തിയ
തുട ങ്ങി
ഘട ന
പ ിച്ച
ക്കുന്ന ത്
ഷ്യ ന്
ശ്ര േ
സമൂ ഹ
ധാ തു
ക ാരന്
ഗ ൌ
വീ ണ
സ്ഥാന ത്ത്
ക്ക ളുടെ
രാ ഗി
പറ യ
പറ ഞ്ഞ
നടത്ത ുന്നു
എല്ല ാവ
ട ോ
ത ന
ശ ൈ
പ്ര സ
വസ് ത്ര
നാ ഥ
മൃ ഗം
ബ്രാ ഹ്
ക നായ
ര മായ
പ്പ ുക
പ്പ ിക്ക
സം രക്ഷ
വസ്തു ക്കള്
തീ രു
സൂ ചി
നക്ഷ ത്രം
ഭ ്ര
മ രുന്ന്
വാ ക്ക്
തു ണ
ത്തി നെ
അവ ര്
സു ഗന്ധ
ജീവി ത
ഉത്ത ര
ആ ഫ്ര
ത യുള്ള
മു ട്ട
കര മായ
മുഖ ം
വ രുടെ
വ രും
ന് ത്
പ് തി
ത മ്മ
ള് ള്
ദ് രാ
ിക്കുന്ന വന്
സാധ ാരണ
വളരെ യ
പുറ ത്താ
സ്വാ ഭാവി
എ ത്തി
ദ ായം
ന ൃ
മാ റ
മാ സം
റ്റ ുക
നാ ലു
അനു ഭവ
ന്യ ായ
സര് ക്കാര്
ദൃ ഢ
എ ണ്
വ ുള്ള
മാ റ്റി
ക്കു വാന്
വിഷ യ
പടി ഞ്ഞാ
ിയ ു
ണ്ടാ ക്കിയ
സമൂ ഹം
തയ്യാ റാ
ഗ ായ
ജ ു
ാ കുന്നു
ീ കര
ൂ ല
തി ക
വി ഭാഗം
രാ ശി
കള ില്
വരുന്ന ത്
ആ ശ്ര
ട ്ര
ത ാര
മ ല്ല
വ ഹ
വ ച്ച്
വി ന്
വി ദഗ്
റ്റ ര്
ചി തമായ
ഉയ ര്ന്ന
സാധന ങ്ങള്
അഗ് നി
ന ക
തീ ര്
ക്കാ ൻ
ലോ ഹം
മുഴു വന്
ഏക ദേശം
പ ങ്ക
മ ൌ
ശ ര
ീ ണ
ക്ക ൾ
വര് ഷ
നീ ള
പറ ച്ചില്
ടിയ ുടെ
മര ത്തിന്റെ
പഴ യ
പോല ത്തെ
അ ല്
അ ഞ്ച്
ധ ാര
ബ ര്
മ യ
വ തം
ക് രോ
ടി ന്റെ
ദ്ര വ
ക്കാര ൻ
ആന ന്ദ
മാസ ത്തിലെ
ഭ് രാ
രാക്ഷസന് മാര്
അ തു
ഷ ാ
ക്ക പ്പെട്ട
സ് വര
വാ ര്ത്ത
പ്പെ ടു
നൂ റ്
പൌ രാണ
ഒ രേ
ണ ോ
ബ ംഗ
വി ക
മു ഴ
സം ഘ
വര് ഷം
മായി ട്ട്
ടുക ൂ
പോല ീസ്
അ ച്ച
ഉ ച്ച
എ ത്ര
ക ട്ട
മ ത്സ
ര ഹി
ശ ാര
പ്പ ുള്ള
ില ോ
പാ ത്ര
ലോ ഹ
യൂ റോ
ആഫ്ര ിക്ക
ഗ ഢ
ത ള്ള
തി രു
മു ടി
ചെ ട
ചെയ്യ പ്പെട്ട
നീ ല
മര ുന്ന
രാമ ന്
എന്നിവ യുടെ
നന്ന ായി
വളരെയ ധികം
ഉ ദ്യ
ഒ ന്നും
ച ോദ
സ് റ്റ്
ലി പി
വര് ത്തി
സേ വ
ച രി
മ ത്
ു വാന്
മു തല്
വാ ര്
റ്റ ില്
കാര ണ
ന്ദ് രിയ
മ്പി ന്റെ
പതു ക്കെ
രാഗി ണി
ഉ ര
ത്ത ിലും
ില ൂടെ
പു രാ
അവ യ
പി താ
ഉണ്ടാ ക്കിയ
ഗു ണം
പ്പോ യി
ശേ ഖ
സമു ദ്ര
പൌരാണ ിക
അ വിടെ
അ ദ്ധ്യ
ആ ത്
പ ുള്ള
സ ഭ
ക്ക ാരി
പു ണ
തീ ര
കൃ ഷി
മനുഷ്യ ന്
ടാ തെ
നിശ് ചിത
ബ്ര ഹ്
സന്ത ോഷ
ഒ ഴി
ശ ൂ
വി ത
വി ശ
ക്കി ട
കൊടു ക്കുക
ലഭ ിക്കുന്ന
അ ശ്
എ തി
ഓ ട
ഘ ോഷ
ഹ ീന
ായ ിരുന്നു
നി ഷ്
വാ ക്
ിച്ച െ
ചി ഹ്
നട ക്കുന്ന
നഗ ര
വ്ര തം
മനസ്സ ിലാ
ആ രെ
ആ രുടെ
ച ക്
വ ച്ചു
ഷ ീല
ജ്ഞ ന്
ജ്ഞ ാന
താഴ െ
ക ല്ല്
ന് യം
ിക്ക ണം
തി ന്റെ
സ്വ യം
സീ ത
ദ്വീ പ്
അ ടുത്ത
ആ രോ
ച ൈ
ന ൈ
വ തി
സ ന്ധ
ർ ന്ന
ിയ ായി
മില്ല ായ്മ
ക രാ
ങ്ക ി
ിക ൊണ്ട
പു രം
ലി ൽ
പാ ത
ഷ്ട മായ
പേ ര്
ശം സ
സന് തു
അള വ്
ഔഷ ധ
ന ദ
തി ല
തി നാല്
മു ഴുക
നാ ലാ
മേ ഘ
ക്കാ ല
ലോ കം
ചക് രം
ഉ ണ്ട
ച ുക
പ ർ
പ്ര തീ
തു ള
പു ര്
രീ തിയില്
കൃ ഷ
മന സ്
ഭാര തീയ
ക ത്തി
ട േ
യ് ക്കല്
ദേ വി
നേ രെ
കേ ന്ദ്ര
ഹി ന്ദു
ഭി ക്ഷ
പരിശോ ധ
ബ്രാഹ് മണ
ക ഠി
ത ര്
പ രാ
ഫ ി
ള ര്
വ ണ്ട
ശ യ
ശ ക്തിയ
സ നം
രാ ത്രി
പ്ര യ
പ്പെടുത്ത ിയ
ത വി
സ ിക
വാ ങ്ങ
ക്ഷ ണ
റ്റ ിയ
തെ ളി
സു ്
ഗ്ര ീ
വർ ത്ത
പട്ട ണ
ചാ ണ
താങ്ക ളുടെ
സിം ഹ
അറി വ്
ആ രോഗ
ത മാ
യ ര്
ക്ക ളെ
വി വര
പ്ര ിയ
പ്ര ശ്
തു ്
കു റു
സം ഗീത
അവ രുടെ
കീ ഴ
പുരാണ സ്ത്രീ
സമു ദായം
അ ഞ്ച
പ ത്ത
വ ില്ല
ീ ഷ
വി സ്ത
കു ത്തി
താ മര
ണ്ണ ാ
കി ട്ട
വൃ ത്തം
പിട ിച്ച
നിശ് ചയ
അനേ കം
ര ക്
വ യ്ക്കുന്ന
ടു ്
നട ന്നു
ചു വ
ചീ ന
മാറ്റ ുക
സ ാരം
ി പ്പിക്കുക
ദ് ദേശ
താ ഴ്
ചി ത്രം
പരി ശീല
ര്ത്ത ു
സ്ഥല ത്ത്
അ ഭ്യ
ഒ രിക്ക
ന ന്ദ
ഴ ുന്ന
സ ല്
രു ദ്ധ
താ ത്
വര് ണ്ണം
സാ ല
പി ന്
ജന് തു
അ പ്
ഉ ദ
ക ിയ
ത മായി
ധ ാരാ
ര മേ
ത് നം
രു ത്
പ്ര കാശ
വാ ള്
സാ ങ്ക
ബാ ദ്
താമസ ിക്കുന്ന
സ്വീ കര
ശാര ീ
ഉ ഴു
ക ത്ത
പ നി
ർ മ്മ
ിക്ക ാനുള്ള
മാ നി
നാ മ
ായി ട്ട്
ശാ ന്ത
പൊ ട്ട
ടിയ ില്
ശ്യ ാ
അ ണിയ
ട ും
ൊ ന്ന
മാ ത്രം
മു മ്പ
ളി ൽ
എന്ന ും
തിര ഞ്ഞെടു
നോ ട്
അട യാ
ഭഗ വാന്
ച നം
ക്ക ാത്ത
വി ത്ത്
പ്ര കാരം
താ റ
വ്യ ക്ത
വേ ട്ട
ശരിയ ായ
വിദ്യാ ഭ്യാ
എ വിടെ
ക ന്റെ
ന ശ
ന ത്തില്
പ ല്ല
ല യ
ല യം
ന് ദി
ക്ക ൊ
മു റു
വാ ക്കുക
വര് ഗ്ഗം
ഉണ്ടാ കും
തെ ളിയ
നീ തി
സ്വ ന്തം
മണ്ണ ു
ക ണ്ട്
ജ നം
ഞ ങ്ങളുടെ
ഞ ാൻ
ത ട്ട
ദ ര്
ഹ ്യ
സ് തി
കാ ഴ്ച
ങ്ക ാരം
കോ ശ
വൃ ത്തിയാ
സ്വ ഭാവ
ത്സ വം
ുകൊണ്ട ിരുന്നു
കണ ക്കാ
ഉണ്ടായ ിരിക്കും
താറ ാവു്
ം ബ
ഓ ടി
ദ ാന
ബ ൈ
യ ന്ത്ര
വി ച്ച
തു ള്ള
ചെ രു
ങ്ങള് ക്ക്
ക്കി ന്റെ
തോ ല്
രൂപ ത്തില്
ഭാരത ത്തിലെ
അ റ
ഉ ന്
വ ധ
ക് ട
വി വേ
വേ ല
ഉണ്ടാ ക്കുക
നേ താ
കട ം
കട ല
മുതലായവ യില്
നല് കുക
അ ഥ
ക ല്ല
ക മ്പി
ഖ ി
ദ ഹ
ി ട
നി ൽ
കള ും
നീ ണ്ട
നല് കി
ത്തില േ
കഠി ന
അ ണി
ത പ
ത റ
ദ ികള്
ന മ്മ
മ കള്
ഹ ൈ
ി ച്ച്
ക് തമായ
കു ര
രം ഗ
വെ റു
എന്ന ത്
ധിക ാരി
വന ും
കണ് ഠ
യജ്ഞ ം
എ ളു
ത ങ്ങളുടെ
പ ശ്
മു ട
രാ ം
കാ ലാ
അല്ലെങ്ക ിൽ
ബന്ധ പ്പെട്ട
ഗാ ന്ധി
അടി സ്ഥാന
മില്ല ാതെ
വള്ള ി
ദുഃഖ ം
ഏകാ ദശി
അപ് സര
ക വ
ല ത
പ്ര ശംസ
കാ മ
പു ത
പോ കുക
ശു ഭ
ജില്ല യുടെ
ഗോ ത
പിട ിച്ചു
നില് ക്കുന്ന
മോഹ ന്
അന് വേ
കൃതിയ ിലുള്ള
ചിഹ് നം
ര ുന്നു
വ ടി
െ ടുത്ത
ൊ ന്ന്
പ്പ മുള്ള
ില ു
ില ാണ്
കു മ
പു രി
നാ ഗ
ന്ത ര
ചു രു
ചേ ർ
സങ്ക ര
ഔഷ ധം
ര സം
ല ീ
ല ുള്ള
ാ ന്തം
ൂ ര്
രാ വി
ഗം ഗ
കോ ശം
അവസാ നം
പ കരണം
ഴ ിയ
കു ടു
വേ റെ
പോ കുന്നു
കൂ ടാതെ
വീ ട്ടില്
കാണ ുന്ന
രാമ ന്റെ
ത്താ ൽ
ിലേ യ്ക്ക്
കൂടു തല്
വൈദ്യ ു
ഉദ്യ ോഗ
ജ ൈ
ത മ
ത ൈ
ര ചന
റ േയും
ത്ത ു്
ിയ ിലെ
കു ട്ടിയ
കൊ ട്ട
ബന്ധ ു
ജാ ത
ഉള്ള ത്
ചെയ്യുന്ന ത്
പട്ട ിക
ഒ ഴുക
പ ത്ര
സ ഞ്ചി
ന് റ്
ങ് ക്
വാ ദ്യ
ജ്ഞ ാ
ികള ായ
ചേ ര്ന്ന
പര് വത
അനുക ൂല
ഇ ടി
ച ന്ത
യ ല്
ര ണ്ട
ത്ത ിലാ
ിക്ക േണ്ട
നി മ
കുറ ച്ചു
പുരാണ ങ്ങളിൽ
എഴു തിയ
മുന്ന ില്
ആരെ യെങ്കിലും
ഒരിക്ക ലും
ക ായ
ഗ ൃ
പ ട്ട്
വ ന്റെ
വി രി
മാ മ്പ
രാ ധ
റ് റെ
പ്ര കൃതി
ിക്കുന്ന തിനായി
അവ ള്
വേ ണ്ട
വല ു
അധിക ാരം
കഴി ഞ്ഞു
അധ ്യ
യൂറോ പ്പ
ഉ ള്
ബ ഹ
റ ില്
വ രം
ക്ക ട
വി ശേഷ
പ്പ ൊ
പാ പ
വെ ട്ടി
വീ ട്ട
കി ണ
മ്പ ത്
രാജ ാവു്
ശാ ഖ
ാര് ഥ
സംഭ വം
അദ്ദേ ഹം
അ യാ
പ ണ്ഡി
മ ത്ത
യ ഥ
ര ത്ന
ള ള
വി രുദ്ധ
മു ഖ്യ
പ്ര കാശം
ങ്ക ര
താ ള
സാ മൂ
തീ റ്റ
ഗു ജ
ജാ ല
കെ ട്ടിയ
തുക ൊണ്ട്
ഗ്രന് ഥ
ക ായ്
ഘ ാ
ത മി
വ ായി
സ് വര്ണ്ണ
വി ചാര
മാ ന്യ
വാ ട
ിക്കുക യും
കേ ട്ട
ഹി ത
കട ലാസ്
കൈ യ്യ
നിര്മ്മ ിച്ച
വയ ലില്
കഴിയ ും
കല് യാ
പര് വതം
ബാധ ിക്കുന്ന
രഹ സ്യ
സ്വാഭാവി കമായ
നൃ ത്തം
ആരുടെ യെങ്കിലും
ആ ശ്
ആ ക്രമ
സ ുക
ിയ ോ
ങ് കാ
നി ന്ദ
മു ദ്ര
പ്ര ായം
ങ്ങ ാ
കാ ത്ത
നട ന്ന
വള ം
ബന്ധ പെട്ട
ബ് രി
ര്ത്ത ുക
ജീവി തം
ഭി ന്ന
പ്രാ ചീന
ിലേ ക്ക്
കച്ച വട
ആ ര
ധ ൈ
പ യ
ഭ ാരം
ഭ ക്ത
ുക ൊണ്ട്
രാ സ
പ്ര കടി
ദ് വ
ിക്കുന്ന തിനു
കൊ ല
കൂ ട്ടം
യോ ടെ
മി നു
എന്ന െ
ാമ ം
തര ായ
ചന്ദ്ര ന്
വാഹ നം
മനോഹര മായ
കര്ഷ കന്
ആലപ ിക്കുന്നു
എല്ലാവ രും
ഒ ന്നി
പ തും
മ ദ്യം
മ സാല
നാ ം
ദേ വന്
പ്പോ ൾ
ലഭ ിച്ച
ാപ കന്
ച ന്ദ
ത ൽ
ത വണ
ല താ
േ ള
ക്ക ര
വി ഭ
മാ ക്കി
സ്ഥ ിര
ബാ ല
ികള ില്
ിരിക്കുന്ന ത്
എടു ക്കുക
മ്പു ്
വിദഗ് ദ്ധ
അ മ്
ക ത
ട ുള്ള
ണ ാ
ദ ായ
ി ട്ടുണ്ട്
ിക്ക ാര്
പ്പ ു്
പ്ര ചാര
കു റ്റി
വര് ദ്ധ
ഷ്ട ്
രീ തിയിൽ
പിട ിക്കുക
ത്തേ ക്ക്
മാം സ
ടുകൂ ടി
ആ സ
ആ ര്
ത ല്ല
ധ രിച്ച
ന ത്തിന്റെ
ര ിക്കുന്നു
രു ച
ത്തി നുള്ള
പാ ര്
അവ നെ
ആശ്ര യ
അ ർ
ആ ഭരണം
മ ര്
ണ് ണി
മു റിയ
ിക്കുന്ന തിനായിട്ട്
നാ വുക
തീ ർ
കുറ വ്
കണ് ണി
ബന്ധപെട്ട ിരിക്കുന്നു
ഓ ട്ട
ക ടു
ഞ െ
ള ീ
വ ക
വ ട്ട
സ പ്ത
ക് രി
ര് ന്നു
നി ലം
മാ തൃ
ദ് ദ
രോ ധ
നട ക്കുന്നു
കെ ട്ട
ആള ുകൾ
അത് യാ
ക്കാര ന്റെ
വേദ വുമായി
ച്ഛ ന്
സൈ നി
കവി ത
തൊഴ ിലാ
ശാരീ രിക
പ ഴു
വ ട്ടം
ക്ക ീ
വി നോ
വി ജയ
കൂ ട്ടി
മി ന്റെ
കൃ ത
വായ ്
മീ ന്
പച്ച ക്ക
ഓ ര്മ്മ
പ ായ
പ നം
ഷ ിക
ാ ലും
രാ ത്ര
യ് ക്കുന്നു
തിയ ുടെ
സു രന്
ക്കി ന്
പരി ശ്രമ
ുകള ില്
പുറ ം
പ്പു റ
സമ്മ േള
സാഹി ത്യ
താത് പ
അ രു
അ നി
പ ഞ്ഞി
ബ ൂ
ക്ക ു്
നി രാ
വാ ത
കു ഴി
പു ല
പൂ ര്ത്ത
നോ ക്കുക
ികള ും
മാന സി
പ്പാ ട്
സഹോദ രി
ു ണ്ട്
ന് മാര്
നാ ൽ
നാ ശം
ദേ വത
രിയ ുടെ
നിയ ായ
നിര്മ്മ ിക്കുന്ന
െടു ക്കുക
രാജ്യ ത്തിന്റെ
സമ് പ്രദ
ഗ ർ
ഹ ൂ
താ ളം
നിറ ത്തിലുള്ള
സൂ ചന
വെള്ള ത്തില്
ശം ഖ്
ഴ് ച്ച
സര് പ്പം
സിദ്ധ ാന്തം
ജന് മ
തന് ത്രി
കൂടു തല
ഹൃ ദയ
കർഷ കൻ
ഒ ഴു
ധ ാര്
ക്ക ില്
്യ ാ
വാ ൻ
കാ വസ്ഥ
വ് വ
പൂ ശ
കോ ടി
ക്കു റ
അതി ന്
നഗ ര്
ഭാഷ ണം
ന്യ ൂ
ഭാരത ത്തില്
ശാസ്ത്ര ജ്ഞന്
മുപ്പ ത്തിയ
ഗഢ ്
അ ഷ്ട
അ ഴു
ച ിര
പ ക
ാ നു
്ട ്ര
ിക്ക ൽ
ിക്ക ാവുന്ന
മാ കുക
ടിയ ുള്ള
ഭൂ ഷണം
ക്കാ ർ
പുറ ത്തു
കെ ട്ട്
ഉത്ത രം
കല പ്പ
തുക ല്
വ്യാപ ാരം
മധുര പലഹാരം
സാഹി ത്യം
ലതാ ദികള്
അ ന്ധ
അ മി
പ ദ്ധ
ഭ ംഗ
വി ൽ
വി ഭാഗ
മാ താ
പൂ ച്ച
മുള്ള വന്
കോ ണ്
പഞ്ച സാര
വിശ് വാസ
ത്മ കമായ
ഉണ ങ്ങിയ
മാമ്പ ഴം
ഇ ന്ദ്ര
ഒ ഴ
ക ഠ
ധ ൂ
പ താ
ഭ ൌ
വ നം
ഹ ര്
െ ട്ട്
ായ ു
സ് വര്ണ്ണം
പ്പ ും
ത്തി നും
സം ഘടന
പാ ഠ
യ് ക്കു
കൂ ല
ണ്ടാ കുന്ന
പൂ രി
നോ ക്കി
ണ്ഡ ം
വിദ്യ ാല
െടു ക്കുന്ന
ശരീര ത്തിലെ
മ്പോ ൾ
സ്നേ ഹം
മുഴുക ിയ
ആ ദ്യം
ഉ ല
എ ട്ട്
ഏ ര്
ശ ിര
ുക ാ
ര് ഘ
വി ഷ്
വി ളി
പ്പ ണം
ങ്ങ നെ
ദ് രോ
പു ളി
ലി ന്
യാ കുന്നു
മൂ ലം
വീ ര
ജ് ജി
വള ഞ്ഞ
മന് ത്രം
ചോ ദ്യ
ഉരു ള
രാവി ലെ
ക ിര
ക റി
ച ം
ത ട്ടി
പ ിക്കുക
മ രു
ശ വ
ശ ില്
ി ന്റെ
അവ ത
നെ യ്യ
ട്ടി ൽ
ജന ങ്ങള്
ബോ ധ
ത്തില ൂടെ
കുഴ ല്
അവസാ ന
മുത്ത ശ്
ഭേ ദ
ചട ങ്ങ്
തമ്മ ില്
ധാരാ ളം
മാനസി കാവസ്ഥ
അ ര്ഥ
ഇ ഴ
ഇ തു
ള ില്
മു ന
വാ ന
കു ടം
ചി റ
പേ ര
ുകള ുടെ
തൊ ലി
തുട ങ്ങിയ
ഭവ നം
നില് ക്കുക
ഭാരത ത്തിന്റെ
മാര െ
പെരു മാറ്റം
കുറു ക്കന്
ഇ രി
ഉ ത്സവം
ഗ തി
ച ായ
ധ ീ
പ ന്ത
പ റ്റി
േ ഴ്
ിക്ക റ്റ്
ിക്കുന്ന തിന്
നാ ല
കൃ ത്യ
കട ല്
മഹ േ
അതി നെ
കൊണ്ട ിരുന്നു
ഇരു മ്പ്
പതി ന
ശരീര ത്തില്
ഇന്ന ത്തെ
വൃക്ഷ ലതാദികള്
കോട തി
ജ്യ ോ
നീള മുള്ള
ഏ ഷ്യ
പ ന്ന
പ്പ ന
പ്പ ില്
പ്പ ഴം
മാ കുന്ന
പ്ര യാ
നട ക്കുക
ഭൂ ത
സ്വാ തന്
വിഷ യം
മനോ ഭാവം
കഴിയ ുന്ന
ിക്കാര ൻ
സംഭവ ിക്കുക
മറ്റൊരാ ളെ
തോന്ന ുക
ഖ ല
ല ഹരി
ള ിച്ച
വ ധു
ാ ളി
ൂ രി
േ ണ്ടി
ന്ന ല്
ങ്ങ ല
കു ഞ്ഞി
പു ല്ലു്
െങ്ക ില്
പോ ലും
ങ്ങള ിലും
വീ ടിന്റെ
തീ വ്ര
എന്ന ാല്
ശി ഖ
സമ ര്
നിയ മം
ലക്ഷ ണ
പ്പെടു ത്തി
ഇ ംഗ്
എ ടുത്തു
ദ ോ
മ മായ
ള ും
ഹ േ
ിക്ക ോ
മാ റി
കാ ന്
സമ ീ
കാല ത്തെ
ചാ ടി
മുഴു വനും
പറ്റ ാത്ത
ആദ ര
നെയ് തു
ആ റ്
ട ല്
പ ണിയ
മ കന്
റ ന്
ാ ധികാരി
ർ ണ്ണ
തി രിയ
പ്പ ടി
മാ നു
വേ ള
വെ ടി
കി ട്ടും
ഉണ്ടാ ക്കി
ഴി ഞ്ഞ
ക്ര മം
വയ ല്
ഉത്ത ര്
താമ ത്തെ
പുരു ഷ
സഹോദ ര
തിന്ന ുന്നു
കര്മ്മ ം
തമി ഴ്
ഉ ചിതമായ
എ ന്നു
ഏ ഴ
ന മു
പ ശ
പ ന്ത്ര
റ ാമത്തെ
ള േ
ക്ക ാരം
വി ദേശ
വി കാര
നു സരിച്ച്
ന്ത ോ
ശ് മീ
അനു ഭ
സ്ത്രീ കള്
പൂര് വ്
കയ ര്
വിള ിക്കുക
തിരിച്ച റിയ
പൂർണ്ണ മായ
ബ്രി ട്ട
നെയ്തു ണ്ടാക്കിയ
ആ ജ്ഞ
ആ ഹാരം
ഒ ര
പ രാജ
പ ക്ഷം
ല ൈ
ാ ധിപ
ൊ ടു
ർ ത്തി
പ് രാണ
്യ ൂ
ങ് കു
ട്ട ു്
പ്ര വർത്ത
വാ നുള്ള
കാ ട്ട്
ിര ത്തി
ഭാ വന
യാ ല്
വീ ണു
പൊ തു
എഴു പത്തിയ
ഭാഗ ത്ത്
അലങ്ക ാരം
പാര മ്പ
ലേഖ നം
സന്തു ഷ്ട
ഗ മ
ദ ോഷ
ബ ിയ
മ റു
ര ്ട്ട
വ നായ
വ ാരി
ശ കു
പ്പ ിക്കല്
പു ത്രി
ലി ശ
സ്ഥ ാ
കി ള
ജീ വന്
പരി പ്പ്
ക്കാ ള്
ചാ ര്യ
മെ ന്ന്
അഭി പ്രായം
യോഗ്യ ത
എടു ത്ത്
എല്ല ാം
വള്ള ം
ര്ശ നം
ാന്ത മായ
ആ ഘോഷ
എ ത്ത
ദ രി
ന ടു
പ വി
മ ിക
റ ീ
ർ ച്ച
തി ൽ
നി ത്യ
നി കുതി
മാ ണ
പ്ര മേ
കു ത്ത
പു ന
നാ കുന്നു
പി ത്ത
നിയ ന്
സൂ യ
ിക്കു മ്പോള്
കഴിയ ാത്ത
ത്തേ യ്ക്ക്
ദൃ ശ്യ
വരു ത്തുക
സമ്പ ത്തും
മത് സ്യം
പ്രശ് ന
ഡ ്ര
ഫ ീ
ഫ ു
ബ ലി
ഭ ര്ത്ത
മ തം
മ രിച്ച
മ ുംബ
വ ില്ലാത്ത
ി ട്ട്
േ യ
ിക്ക പ്പെടാത്ത
ള് ല
വി ശ്രമ
നി ന്റെ
രാ മു
കാ ലി
പു ള
പാ ർ
പാ ട്ട്
വെ റ്റ
ഗ് രി
കുട്ട ികളെ
പ്പെടുത്ത ുന്ന
ധന വും
ലക്ഷ ്യ
പരിശോ ധന
രണ്ടാ മത്തെ
രാജാ വിന്റെ
ഇല്ലാ താ
ആരോഗ ്യ
അടയാ ളം
അണി ഞ്ഞ
ട ൊ
യ ിലാ
വ റ
വ കു
ർ ത്താ
നി ര്ത്ത
വാ ങ്ങുക
കാ ക്ക
ിച്ച ുകൊണ്ടിരിക്കുന്നു
ദേ ഷ്യ
പൂ ക്കള്
കി ട്ടി
ദി ശ
യു ക്ത
ചു വന്ന
സ്വ രം
മോ ശ
വെള്ള ി
വ്യാ ഖ്യ
പ്പു ര
ത്തില ാണ്
ദീ ര്ഘ
മുന്ന ോ
സൈ നീ
ഉരു ണ്ട
ഭൂമ ിയുടെ
കൂട ിച്ചേ
അല് പം
അ ടിയ
ക ട്ടിയ
പ കുതി
റ ാത്ത
ഷ േ
ക്ക ാനുള്ള
ുക ു
രു ്
ാന് തി
ഉണ്ടാ ക്കുന്നു
നേ താവ്
അതി ര്ത്തി
ജ്ഞ ാനി
ഞ്ഞു പോവുക
അധിക ാരി
ഭാര തം
നില വില
പോല ുള്ള
സ്റ്റ േ
സഹോദ രന്
അറു പത്തിയ
അച്ഛ ന്
അദ്ദേ ഹ
പുള്ള ി
ദ്വ ാരം
ച ക
ച ൌ
ദ യം
ന ിക്ക
മ ദ
ര ച
ള മായ
സ ാരി
സ ുകള്
നി ക്ഷേ
നി വാസി
ാര ോ
മാ ക്കുന്ന
പ്ര വര്ത്തി
വാ ല
വാ തില്
ിച്ച ത്
ിച്ച ിരുന്നു
പോ ള
ഗ് രാ
ചി ത്ത
കി ട്ടുക
നീ യ
വൃ ദ്ധ
ജാ തിയ
ഗ്രാമ ീണ
സമ് പാദ
കൂട്ട ിച്ചേ
രാഗ ത്തിന്റെ
അലങ്ക ാര
ദിവസ വും
ആ ട്
ഏ ഴ്
ത ിക്കുക
ന ൽ
മ ദ്ധ്യ
വ റു
സ ന്ദ
ാ ക്കുക
രാ വണ
വാ ണ്
മായ ിരുന്നു
ല്ല ാം
ഇട യില്
ഇരു പത്തി
പുരാണ ത്തിൽ
പ്പി ച്ച്
കുട്ട ികൾ
പ്രദേശ ം
വട ക്കേ
വാദ ിയായ
ധു നി
സുഖ ം
ഗര് ഭ
രഹി തമായ
സാങ്ക േ
കുട്ടിയ െ
വിദഗ്ദ്ധ ന്
വെറ്റ ില
അ ര്ത്ഥ
എ ടുത്ത
ഏ തു
ക ഷണം
ഖ നി
ഗ ണം
ജ ിയുടെ
ര ത്തില്
ി ത
മാ ലി
നാ ര്
വ്യ വസ
സാ ക്ഷ
കൂ ട്ടിയ
സി നെ
വീ ഴ്
പരി ധി
പൊ ട
നിയ ുടെ
അനു സരിച്ച്
മറ്റ ു
സ്വാ ര്ത്ഥ
ഭരണ ാധികാരി
കുതിര യുടെ
ഉത്ത ർ
ആയു ധ
പത് നി
ആരംഭ ിക്കുക
നാഥ ്
രക് തം
സ്വാതന് ത്
ഗ ണി
വ ഴു
വ യ്ക്ക
ശ യം
ണ്ട ം
പ്ര യോഗ
അവ നു
യോ ജ
യോ ജി
ദി ന
തീ ര്ഥ
നേ ര്ത്ത
മഹ ത്വ
സ്വ തന്ത്ര
കാണ പ്പെടുന്ന
പൂര് ത്തി
ബോ ധം
ജീവ ിക്കുന്ന
പുത്ര ൻ
സൈ ന്യം
മധുര മുള്ള
ഒരാ ള്
മാം സം
വര്ഗ്ഗ ത്തില്
അവയ വം
അയാ ളുടെ
പദ്ധ തി
അ സ്ത്രം
ആ ഗ്രഹം
ഒ ട
ക ന്ന
ക ലം
ക ിലോ
ഡ ു
ധ ൃ
ല ിയ
വ ിക്കുക
വ ശം
ു മ്പോള്
ട്ട ോ
പ്പ ണി
മു ണ്ട
കാ ശ്മീ
താ ന
സം ബോ
പാ ക
യ് ക്കും
ചെയ്യ ിക്കുക
ചി രി
തിയ ായ
വള ര്ത്ത
പൊ ങ്ങ
നിയ െ
കാണ ിക്കുക
ജന ങ്ങളുടെ
ചീ ട്ട്
എഴു ത
ചൂ ട്
പോല ീ
നിര് മ്മാ
ലക്ഷ ണം
ഭൂമ ിയില്
്ട്ട ി
തുറ ന്ന
നന് മ
മൂന്ന ാമത്തെ
തീരു മാനം
ഭ്രാ ന്ത
ിച്ചെ ടി
പ്രകടി പ്പിക്കുക
ം ഗം
ഋ ഷി
ഠ ്
ബ ലം
ഭ ക്തി
റ ൊ
ഹ രിയ
ർ ശ
ര് വ
പ്പ ട
മു ര
കൊ റിയ
പാ കം
വ്യ ായ
സാ മ്പ
വെ ച്ച
തിര ിക്കുന്ന
കീ ട
ിക്കാ തെ
ലഭ ്യ
മുഖ മുള്ള
സോ ഹ
ീന ത
സ്ഥാപ നം
പുഷ് പ
സ്നേ ഹ
നശി പ്പിക്കുക
ചുക ന്ന
പ്രതീ ക്ഷ
പ്രയ ത്ന
ജ്യോ തി
അ മ്മാ
ആ ട്ടി
ഇ ന്നു
ഘ ു
ച ര്ച്ച
ത ത്വ
പ ണ്ട്
ര ണം
ള ോ
സ ത്
ക് രീ
പ് രി
സ് തം
ട്ട ാമത്തെ
വി ധി
ക്ഷ ന്
കൊ മ്പ
വേ ഗം
പി റ
സി ൽ
ശ് രി
മി ച്ച്
നീ യമായ
നേ ര
ശ്യ ാമ
മധ ു
നില നില്
മണ ിക്കൂ
പോലെ യുള്ള
തായ ത്
ഇഷ്ട മാണ്
സഞ്ച ാര
ഡോ ളര്
ദ്വീ പ
വേഗ ത്തില്
ക്ട ര്
സാമൂ ഹ
വിഷ് ണു
ഇ ന്ദ്രിയ
ച ാരി
പ ിര
പ രീ
ഫ ീസ്
മ ന്ദ
ള ിക
ക് രാ
ക് യം
ട്ട ില്ല
ട്ട ിലെ
പ്പ ീ
കൊ ണ്ടാ
യാ ന
ണി ന്റെ
ലാ ഭം
ബാ ഹ്യ
പേ പ്പ
കഴ ിക്കുന്ന
വർ ഗ്ഗ
നല് ക
വു മായ
രാജ്യ ങ്ങള്
യായ ിരുന്നു
മുന്ന േ
ണ്ടായ ിരുന്നു
രാഷ്ട്ര ീയ
ദൈ ത്യ
പരു ത്തി
നാര ങ്ങ
സംഘ ം
കൃഷ ിക്കാരന്
രമേ ശ്
വിരുദ്ധ മായ
സംബോ ധന
അ ലി
ഉ പാ
ഖ ം
ഞ ായ
യ മ
െ ന്ന
പ്ര വാ
റ്റ ാ
കൊ യ്
സാ ം
ങ്ങള ുള്ള
വെ ട്ട
യു ണ്ട്
നേ ത്ര
പരി ഷ്
കാര ാന്തമായ
വർ ദ്ധ
കുട്ട ികളുടെ
വിഷ മ
ഹര ണം
പഞ്ച ാ
ഭഗ വാ
പ്രായ പൂര്ത്തി
ആളുകള ുടെ
എതി ര്
അ ത്ര
ആ ല്
എ ഴുന്ന
പ ലിശ
മ ലി
വ ള്
വ ഞ്ച
ക് രൂ
ത്ത ീ
സ് സു്
മു ൻ
ങ്ങ ല്
പാ ടി
മി ത്ര
റി ന്
നീ ളം
മേ ഖല
ബ് ബ
ഹി ം
കാര ിയായ
മറ്റ ും
ന്യ മായ
ക്കാര നായ
ഭരണ കേന്ദ്രം
രോഗ ി
ദൂ ര
സൌ ക
ഒരാ ളുടെ
അം ശം
കൃഷ്ണ ന്റെ
കിഴ ങ്ങ്
കാര് യാ
ഉട മ
ഇന്ന ലെ
മണ്ഡ ല
ബ്രഹ് മ
നാലാ മത്തെ
എ രു
ച വി
ത ന്നു
മ ക
വ കം
ൊ ന്
വി മാന
വി തര
പ്ര സ്താ
ിച്ച ും
സ്ഥ ന്
ചെയ്യ ും
ലം ഘ
കൃ ഷ്ട
ദു ഷ്
ജാ തിയില്
കെ ട്ടുന്ന
പ്രതി നി
വിള ക്ക്
ശീ ലം
തട സ്സ
ഇര ിക്കുന്ന
ലക്ഷ ്
കണ് ണ്
അടു ത്ത്
അയ ഞ്ഞുപോവുക
ക്ഷേ ത്ര
സൂക്ഷ ്
നിയന്ത്ര ണ
ആഫ്രിക്ക ന്
അവയ വ
വിനോ ദ
അ ണ
ആ ലോ
ഇ ച്ഛ
ഈ ന്ത
ക ഷണ
ഗ ൂ
ജ ലാ
ട ുന്നു
വ ടം
ശ ത
ത്ത ല്
പ്ര ണ
തു ര
ങ്ക ം
ങ്ക ാര
ചെ മ്പ്
ചെ ടിയുടെ
ലി ംഗ
പാ ദി
അവ സര
വീ ശ
തല ം
നട ത്തിയ
രീ തിയ
കന് യ
കാണ ാന്
സഹ ായം
മാര് ഗ്ഗം
മാന ിക്കുക
മന സ
വ്യാപ ാര
സിം ഹം
ചേര് ത്ത്
വിവര ണം
ആ കൃതി
ആ ഭൂഷണം
ക മ്മ
ച ര്യ
മ ദ്യ
ത് മാ
ക്ക ായി
ണ് ണ്
ങ്ങ ുന്നു
കു ടി
പു ല്ല
നാ ശ
മി ഠ
ഉണ്ടാ കുന്നു
റിയ ുക
ഹി മാല
കയ റി
ത്തോ ട്
എടു ക്കുന്ന
കൊള്ള യ
തീയ തി
ഗ്രന് ഥം
വ്യക്തിയ ാണ്
പറയ ുന്നു
ആനന്ദ ം
പുരാ ണം
തമിഴ് നാ
അ തായത്
ഉ ദ്ദേശ
ട ിക
ദ ോഷം
പ കര്
മ ഹി
ി ട്ടുള്ള
തി നെ
തി രിച്ചു
വി സ്
വാ നായ
ക്ഷ ീ
വേ ശ്യ
മി ഥ
ഉപ യോഗം
മായി ട്ടുള്ള
കട ന്നു
ദു ഷ്ട
മോ ദ
ക്കാ തെ
ഭക്ഷ ിക്കുന്ന
ആയ ിരിക്കും
അമ്മ യുടെ
പഠ ിക്കുന്നു
ശോ ഭ
ഗീ തം
ിച്ചി ട്ടുണ്ട്
പ്രദ മായ
തിന്ന ാവുന്ന
രണ്ടാ ം
അക്ഷ രം
ഭേ ദം
അച്ഛ ന്റെ
ഉത്തര് പ്രദേശിലെ
ആ ദി
ഇ ടു
ഏ ഷ്യന്
ക നം
ക രിച്ച
ക മ്പ്
ച ലി
ച ില്ല
ധ രിക്കുന്ന
ഭ യം
ര കം
ല വ
ല ക്ഷം
വ ണ്ണം
സ ന
േ റ്റ്
് ക്ക്
ന് യാ
ര് ണ്ണം
സ് പെ
രാ ശ
പ്ര ോ
കു ശ
ക്ഷ ീണ
ങ്ക ിലും
ചെയ്യ ിപ്പിക്കുക
പി തൃ
പി താവ്
ശ് വാസം
ഉണ്ടാ ക്ക
കോ ട്ട
ഏത ൊരു
പര സ്
ക്ഷി ച്ച്
മാര് ക്ക്
കര് ണ്ണ
എന്നിവ യില്
പ്പി ന്റെ
ഗാ ന്ധ
ഇര ട്ട
വിശ് വാസം
ഉത് പാദി
മുറി വ്
പീ ഠ
വേഗ ത
അക്ഷ ര
സ്തു തി
മംഗ ള
ബംഗ ാള
അച്ച ട
വിദ്യാഭ്യാ സം
മുംബ ൈ
ഇ സ്
ഇ ട്ടു
ഉ ഴ
എ തിര
ക ത്തിന്റെ
ക ാരി
ഗ വേ
ന ട്ട
പ ദം
യ ജ
വ സൂ
സ ിയ
ു ടേയും
ുക ാരന്
വി ശാല
ച്ച െ
കാ ം
ദ് രം
ക്കുക യും
മൂ ന്നു
ദി നം
പൊ ള്ള
സേ നാ
കയ റ
തര ുന്ന
ലഭ ിക്കുന്നു
അഭി പ്രായ
കർ മ്മ
താങ്ക ൾ
മുള ക്
അധ ീനത
അമ്പ ല
ബാധ ിച്ച
കര്ത്ത വ്യം
പ്രവേശ ന
ശ്രേ ഷ്ഠ
മാറ ുന്ന
ട്ര ോ
വെറു തെ
എളു പ്പ
സമ്പ്രദ ായം
ധാര് മ്മ
ആ ധുനി
ക യ്യ
ജ ിയ
ജ നാ
ഡ ിയ
ത ന്ന
ഷ ീ
സ രിച്ച
ാ ർ
ക് യ
വി ലാ
വി ട്ടു
വി ചാരം
ക്ഷ ുര
ചെ വി
സം സ്ഥാന
ില്ല ായ്മ
വേ ർ
വര ണം
കര ിക്കുക
കോ പ
ചു റു
ികള് ക്ക്
കൈ യില്
കഴ ിക്കുക
ഉള്ള ില്
ഇര ിക്കുന്നു
ആയി രം
ല്ലി ന്റെ
മഹാരാ ജാ
അഥ വാ
കല്യാ ണ
പൂര്ത്ത ിയാ
ഇരി പ്പി
ഈ ച്ച
ഒ ളി
ജ ര്
ത ത്
ല ജ്ജ
ശ ൃ
ോ ര
ുക ൂ
ര് ണ്ണ
വി ഷം
കാ ർ
കാ വല്
കു ളി
ുള്ള ത്
അവ ർ
പ്പെ ട്ടി
രിയ ാ
ളി ന്റെ
ാര് ഥം
തോ ട്ടം
സൂ ര്
പര സ്പ
ചേ ഷ്ട
വായ ന
കര് ണ
ഭാഗ ്യ
അന ന്ത
പെട്ട െന്ന്
മത പരമായ
വിര ല്
ദൂ രെ
തെറ്റ ായ
കെട്ടി ട
ഉന്ന ത
കുടുംബ ം
തൊണ്ണൂ റ്റി
സൂചി പ്പിക്കുന്ന
ക്രോ ധം
ികൊണ്ട ിരുന്നു
തമാ ശ
ൊന്ന ാമത്തെ
ആ രാ
ഇ ട്ട
ഉ ദാ
ഒ ന്നു
ക ഞ്ച
ട ിച്ചു
ത നം
ന ൌ
ര ഥ
ഹ െ
െ ടുത്തു
ന് സ്
ന് താ
ാര ൻ
ില ായ
രി ന്നു
പ്ര കട
കാ ട്ടു
പു തു
ിച്ച ിരിക്കുന്ന
ചെയ്യ ാത്ത
ണ്ടാ ക്കുന്ന
പരി പാല
പരി ചയ
ബാ ബ
ബാ ഹു
ജാ മ
എഴു തുന്ന
മെ ഴുക
ചെയ് ത്
രിക്ക പ്പെട്ട
പെട്ട ന്ന്
വിര ല
ദൂ രം
ജ്ജ നം
ഭീ രു
വ്യാപ ാരി
ഭം ഗം
ചുറ്റ ിക
നാട കം
മുന് പ
ഭു ജ
ഹൃ ദയം
മധ്യ പ്രദേശിലെ
ആദ്യ ത്തെ
മറ്റുള്ള വരെ
നമു ക്ക്
ഉത്തർ പ്രദേശിലെ
റൊ ട്ടി
ക ണ്ടി
ഖ ാ
ണ ീ
ഭ ർത്താ
മ ിക്ക
ഷ ണി
സ യന്
ു ന
ത്ത രം
്യ മായ
തി ന്നു
വി ദ്
വി രാമ
മു ട്ട്
കു ളം
രോ മം
നായ ിക
തെ റ്റി
കോ പം
വുക ള്
വല ിച്ച
ക്കാ രുടെ
സഹ ിക്കുക
പട്ട ാള
ബു ള്
മൃ ദു
റാ ണി
ഹര ിക്കുക
ഡി ന്റെ
ഉത് പന്ന
ണിയ ുന്ന
ഗി രി
കും ഭ
ശാല യില്
കറു പ്പ്
പ്രേ മ
മട ങ്ങ്
ഗ്രന് ഥി
സൂര്യ ന്
പരു ന്ത്
കൌ ശ
സൃ ഷ്ട
ആളുകള െ
കീഴ ട
ഗുജ റാത്ത
താത്പ ര്യം
സാങ്കേ തിക
അ ക്ക
ആ ണ
ആ കാര
ഇ ന്നും
ഇ പ്പോൾ
ജ ഗ
ഞ ര
ഡ െ
മ ിച്ച
യ േ
സ ന്ധി
ക്ക ണം
സ് ക
ട്ട ാണ്
മു ക്തി
പ്ര യോ
ദ് വാര
കൊ ടുത്ത
പി ഴ
വീ ക്കം
ഉപ കരണ
ജ് വരം
വൃ ത്തിയ
മര ണം
ഭൂ തി
കാണ പ്പെടുന്നു
ുകള ുള്ള
പ്രാ വശ്യ
വിള വ്
തുട ര്ച്ച
വിദ്യ ാര്ത്ഥ
വരെ യുള്ള
അടു ക്കള
ിയാ കുന്നു
മുപ്പ ത്തി
സുര ക്ഷി
ന്യായ ാധിപ
എണ് പത്തിയ
ഗായ കന്
ആത് മാ
പർ വ്
വിഭ ജ
ആസ ്ട്ര
തൊഴിലാ ളി
പവി ത്ര
സയന് സ്
അ ഞ്
ക ട്ടി
ച ട്ടി
ത ർ
ഴ ല്
വ ദ
സ ത്യം
ാ ർത്ഥ
േ ക്ക്
ക്ക മുള്ള
ത്ത ാണ്
ര് ക്കുക
ിയ ില്ലാത്ത
വി ടുക
വി പരീ
മാ ണു്
മു തൽ
പ്ര വി
ഒരു മിച്ച്
ന്ത ുക
വെ ടിയ
രോ ഹി
കോ ലാ
പെ ട്ടി
തോ ട്
ല്ലാ തെ
പുറ ത്തെ
ഉപയോഗ ിച്ച്
മാര് ഗ്ഗ
നാല് പത്തിയ
കൊടു ക്കുന്നു
പ്രതി മ
ക്കാര െ
പിട ിക്കുന്ന
ദാ സ്
യോഗ്യ മല്ലാത്ത
യൂ ട്ട
മുറി വേ
കിട ക്കുന്ന
ദുര് ഗ്ഗ
പിന്ന ീ
കഴു ത
യില്ല ായ്മ
തൊഴ ില്
നെയ് ത്തുക
തുള സി
ധൈ ര്യം
വിദ്യാല യ
പൂര്വ് വം
പാരമ്പ ര്യ
ര്ട്ട ്
ഒട ീഷ
അ സൂയ
ഇ ത്ര
ക ല്ലു്
ച യം
ഛ ന്ദ
ത ായ്
പ കര
റ ിലെ
േ ട്ട
ോ ടി
ിയ ി
ണ്ട ില്
നി സ്
ണ് ഠ
വാ ത്ത
മായ ിരിക്കും
ദ് രു
വസ്തു വിനെ
വസ്തു ക്കളുടെ
മൂ ത്ര
ദേ ഹ
ജോ ര്
കര യുക
നായ ിരുന്നു
ശാ ലി
ബാ ങ്ക
കൃ ത്രി
വൃ ത്ത
എന്നിവ യെ
അട ിച്ചു
രക്ഷ ാ
ബി രു
അപ രാ
വില് പ്പന
കല് ക്ക
സമു ദ്രം
പാട ുന്ന
അമ്പ ത്തിയ
കണ ക്ക്
പ്രസിദ്ധ ി
പിടി ച്ച്
വരാ ത്ത
കൃഷ്ണ ന്
അന്യ ായം
ീക രിച്ച
തോട്ട ത്തില്
എത്തി ച്ച
പശ് ചി
എരു മ
അ ധി
അ റ്റം
ഉ ടു
ച ര്മ്മ
ഞ ാ
ട ാത്ത
ത ര്ക്ക
ദ ശ
ന വര
പ ത്രി
പ ന്നി
യ ജു
ര ത
സ ന്നി
നി രൂപ
നി ഷ്ഠ
നി പുണ
മാ ക്കിയ
മാ റുക
പ്ര ശ
കു റ്റം
സം ഗ
അവ ളുടെ
പി രി
ഷ്ട ം
തിയ െ
വള രുന്ന
റു ്
നീ ക്കം
അതി ല
പര ന്ന
ശു ക്
ചേ രുക
വായ ിക്കുന്നു
എഴു തി
പദ വി
പ്രതി ജ്ഞ
ഉറ ക്കം
വട ക്കു
സീ മ
എണ്ണ ത്തില്
ഭീ മ
ചുറ്റ ിക്ക
വഴ ക്ക്
ആയി ട്ട്
സൌ ന്ദ
സമ്മ തി
പ്രസിദ്ധ മായ
നശി പ്പിക്കുന്ന
അപ്സര സ്
വാട ക
പച്ചക്ക റി
കട്ടിയ ുള്ള
പൊങ്ങ ച്ച
തമിഴ്നാ ട്ടിലെ
പ്രവി ശ്യ
ആ ര്യ
ആ സാമ
ഞ ങ്ങൾ
ത ത്ത
ഥ ്
ദ യാ
ദ ണ്ഡ
ബ ം
ത്ത ുന്നു
രു ള്ള
വി മാനം
മാ രും
ക്ഷ ണം
ചെ മ്മ
പാ വ
അവ ധി
വര് ക്കും
സി ന്ധ
മൂ ത്ത
നെ ല്ല
മി നി
ാന ും
റിയ ി
നേ രി
കേ ര
കേ ട്ട്
ഹി ന്ദി
ഗു ല്
ുകള ും
മുതലായവ യെ
റ്റി ന്റെ
രൂപ ത്തിലുള്ള
കാര്യ ങ്ങൾ
ഇരു ന്ന്
നാല് പത്തി
മന സ്സ്
എഴു തുക
പദ ാര്ഥം
ശീ ത
ഉത്ത മ
മന് ത്രാ
താമ സം
ഗ്രാമ ം
ഇല കള്
ക്കൂ ര
വച്ച ിരിക്കുന്ന
മാത്ര മേ
വാക് യം
അപ്സര സുകള്
മനസ ിലാ
യജ മാന
പശ്ചി മ
ഉ ളി
ക ബ
ദ ൌ
ധ നു
പ താമത്തെ
ഭ ദ്ര
മ സ്
യ ുന്നു
ല ിക
വ ക്കീ
സ ദ്
സ സ്യം
ുക ി
വി ച്ചു
നി രീക്ഷ
മു ഗ
രാ മായ
പ്ര ഭാ
കാ റ്റ്
സം ശയ
യാ വുക
ചെയ്യ ാൻ
തല യില്
മി ന്നല്
മ്പ ര
പെ ന്
സ്വ പ്
പര സ്യ
മോ ഹി
വ്യാ കരണ
എഴു ത്ത്
ബോ ര്
ലഭ ിച്ചു
ചൂ ള
ഉത് പാദ
ഗ്രാമ ത്തില്
പ്രത്യ ക്ഷ
ോഗ ിക
ജോല ിക്കാരന്
കഴു ത്തില്
വ്യക്തിയ െ
മുത്ത ച്ഛന്
കപ്പ ല്
നക ത്ത്
അന്വേ ഷ
വൈദ്യു തി
യൂറോപ്പ ിയന്
അണിഞ്ഞ ിരിക്കുന്നു
അ ഭ
ആ വുക
ഉ ദ്
ക പട
ച ാന്
ഛ ത്ത
ജ പ
ഢ ി
േ യ്ക്ക്
രു ടേയും
പ്പ ായ
വാ തം
കു ലു
കൊ ത്തി
സ്ഥ ാനി
പി ണ
വെ ട്ടുക
ാന ായി
തീ ര്ത്ഥ
നീ യം
ചു റ്റി
നോ ക്ക
തോ ണി
കുറ യുക
സ്വ ർ
ധിക ാര
മോ ചനം
ഭി ത്തി
മീ റ്റര്
ുകൊണ്ട ു
അപ കട
ശരീര ത്തിന്റെ
ജന് മം
ദീ പ
രുക േട്ട
അടി മ
തൃ പ്തി
താമസ ിക്കുന്നു
ീയ മായ
ശീല മുള്ള
സന്ത ോഷം
ദൈ വം
കലാ കാരന്
ാട ന
കണ്ട െ
കര്ത്ത ാവ്
ആശ ാരി
മഹാരാ ഷ്ട്
വിശ്വസ ിക്കുന്നു
പരിശീല നം
സ്വഭാവ മുള്ള
ഗൃ ഹം
വാന രന്
വകു പ്പ്
നിലവില ിരിക്കുന്ന
ഹിമാല യ
കമ്പ് യൂട്ട
ആധുനി ക
ആ രും
ഇ റ്റ
ഇ ട്ട്
ഖ ണ്ഡ
ഡ ീ
ത ടാ
ധ ര
മ ഷി
ര ില്
സ രം
ൂ പ
ൊ മ്പത്
സ് കൂ
്യ ത
തി നും
പ്പ ണ
കു ഞ്ഞ്
ദ് വാദ
പു രോഗ
കൊ ത്തു
പാ കി
പാ ണ്ഡ
യോ ട്
മി ന്
രോ മ
ര്യ ിലെ
റു ണ്ട്
നേ പ്പാ
കട ലാ
കട ക്കാരന്
കാല ില്
ഭാഷ യിലുള്ള
ഇട ുക
നിര്മ്മ ിക്കുക
സേ ര
സ്വാ ദ
മെ ഴു
കുട ിക്കുന്ന
എല്ലാ വര
ഉറ ക്ക
വിവാ ഹിത
ഹാ നി
മ്പി നെ
അറിയ ുന്ന
മാറ്റ ുന്ന
പൂജ ാരി
മുറ ിക്കുക
മഴ ക്കാല
പെണ് കുട്ടി
അവസാ നി
സമ്പ ത്ത്
വ്യക്തിയ ുടെ
ചൊ ല്ല
മറ്റുള്ള വരുടെ
തീരു മാന
ചെട ികള്
അദ്ധ്യ ാപകന്
വാക്കുക ള്
ഭര്ത്ത ാ
പരസ്പ രം
ഒടീഷ യിലെ
മഹാരാഷ്ട് ര്യിലെ
ഇ ളം
ഘ ട്ട
ച ട്ട
ജ േ
ഡ ല്
ന മായ
പ ര്യ
പ ല്ല്
മ ടി
മ യില്
ര ത്നം
ൂ റ്
േ ദ
ോ ഗം
ോ ഷി
ക്ക ര്
സ് രാ
്യ മുള്ള
വാ ങ്ങുന്ന
കൊ ക്ക്
താ ന്
താ ക്കുക
ടു ക്കുക
വ്യ ത്യാ
അവ ൾ
സാ ക്ഷി
കൂ മ്പ
തെ ര
ക്കു മ്പോള്
ക്കു റിച്ച്
കുറ ിച്ചു
കെ ട്ടുക
കാര്യ ത്തില്
ഇട ുന്ന
മനുഷ്യ ന്റെ
അത് ഭു
കയ റ്
ചൂ ടുള്ള
വട ക്ക്
കഴിയ ില്ല
ആന യുടെ
ജല പക്ഷി
കൊണ്ടു ണ്ടാക്കിയ
വര്ണ്ണ ന
അടു പ്പമുള്ള
പ്രധാന മന്ത്രി
ിരിക്കുക യാണ്
തയ്യ ല്
ആഗ്രഹ ിക്കുന്നു
സമ്പ ന്ന
സ്താ നി
ആരോഗ ്യം
വിദ്യാഭ്യാ സ
ഗോത മ്പ്
ഗൃ ഹ
അത്യാ വശ്യ
പരാജ യ
മിഠ ായി
ഗുജറാത്ത ിലെ
അ ജ
ആ ന്ധ
ഇ റാ
ധ ർമ്മ
ന ഖം
പ ള്ള
ര വ
ല ൌ
ശ ങ്ക
ശ സ്ത്ര
സ ിലെ
ഹ ട
ഹ ാര്
ുക െ
ട്ട ാ
വി ട്ട്
വാ ള
വാ ർ
ത്തി രി
ദ് ദേശം
പാ തം
പാ നീയം
ചെയ്യ ാന്
സാ ഗ
ഉപ രി
കള ിക്കുന്നു
തെ ക്ക്
തെ റ്റ്
നേ രം
പറ ക്കുന്ന
പേ രുകേട്ട
മനു സരിച്ച്
സേ ഠ്
പതി നെ
വാസ ിയായ
റോ ഡ്
ഉത് സാഹ
ദൂ രീ
സമ് മാനം
ിച്ചി ട്ട്
ഭീ ഷണി
ജോല ിയില്
കിട ക്കുന്നു
ദേവ ത്വം
സഞ്ച രിക്കുന്ന
സാമ ഗ്രി
ക്കള ും
സർ ക്കാർ
മറ്റൊരാ ളുടെ
ഇന് ത്യ
പ്രസ ന്ന
എളു പ്പം
ആക്രമ ണം
അമ് മായി
സാമ്പ ത്തി
പ്രാവശ്യ ം
കോലാ ഹ
ആസാമ ിലെ
ആ ഴ
ഉ സ്
ഉ പ്പ്
ഖ ു
ച ങ്ങല
ജ യം
ഡ യ
ത െങ്കിലും
ന ങ്ങള്
ന ല്ലാത്ത
പ യോഗ
ബ ർ
ര ല്
ശ ാന്തി
സ ത്ത്
സ വാരി
ോ ടെ
ന്ന ാ
ിക്ക ില്ല
വി രിയ
പ്പ േ
നി ങ്ങളുടെ
ില ായി
മാ ധ
മു സ്
മു ക്കു
മു ട്ടുക
കു ടിയ
പോ കും
ന്ത രം
വെ യില
വീ തി
വീ ഴുക
മി ശ്രി
കര ിക്കുന്ന
തെ ക്കു
കോ ള
ക്കി ഴ
വല ിക്കുക
ബാ ധി
നിറ ച്ച
പൊ ടിക്കുക
തോ ക്ക്
ജാ തിയിൽ
ുകള െ
തൊ ല
കീ ഴ്
സര് ക്കാരി
മന് ദി
ഹാ ജ
ലേ പനം
യില ൂടെ
നിര പ്പാ
സൈ ന്യ
കണ്ണ ീ
മില്ല ാ
ിച്ചി ട്ടുള്ള
ഒന്ന ാം
കള്ള ം
പ്രസിദ്ധ നായ
അരി പ്പ
അംഗ ീകര
പരീക്ഷ ണ
ചട ങ്ങ
വയ് ക്കുന്നു
മത്സ രം
അദ്ധ്യ ാപ
പുണ ്യ
ഉണ്ട ായി
ദഹ ന
സങ്കര രാഗം
വികാര ങ്ങള്
അര്ത്ഥ ം
ധൃ ത
കര്ണ ാട
ഏ താ
ക ണം
ച തി
ണ ക്കിന്
ധ ന്
മ ഞ്ഞ്
ല ര്
ശ ര്
ഷ ിയുടെ
ീ കരണം
ക് സ്
സ് മ
വി ഡ്
ണ്ട ുക
രി പ്പിക്കുക
കാ ൻ
കാ ന്തി
ിക ൊണ്ട്
ങ്ങള ാണ്
മൂ ല്യം
ക്കുന്ന തിനു
വീ ട്ടു
റി പ്പ
ട്ടി ന്റെ
യു ഗ
യു ഗം
പൊ ട്ടിയ
നിയ ാ
തോ ട്ടി
കാണ ുന്നു
അനു സര
ചെയ്യുന്ന വന്
പല ക
കീ ര്ത്തി
നല് കിയ
മഹാ ഭാരത
ത്തില ു
ിക്കപ്പെട്ട ു
പ്രദേശ ത്ത്
തട ിച്ച
നിര് ണ്ണ
അള വില്
കള്ള ന്
ആരം ഭം
ശരിയ ായി
സ്പ ഷ്ട
പറയുന്ന ത്
ഭയ ങ്കര
നിയന്ത്ര ണം
കമ്പ നി
ചരി ത്ര
ചൈ ന
തവി ട്ട്
ദരി ദ്ര
മുന്നോ ട്ട്
ഞായ ര്
ബംഗാള ിലെ
അ ഴ
അ വി
അ ല്പ
ആ ട്ട
ഓ ഫീ
ഗ ത
ച ാര്
ജ ൂ
ത ത്വം
ഫ ിലി
ബ ര
മ ണ്ട
മ ണം
മ കര
മ രിച്ചു
ഹ നു
േ ന
ന് ലാന്
ക് റ്റ
ിക്ക പ്പെടുക
മാ വിന്റെ
വാ ഡ
തു ല
തു ര്
ത്തി ന
ിച്ച ില്
കൂ ട്ടുന്ന
സി നിമ
ശ് വാസ
ക്കുന്ന തിനായി
കോ ണ
വര്ത്ത നം
മേ ൽ
വല ിക്കുന്ന
നിയ ില്
ഞ്ച ാമത്തെ
മര ുന്നു
കുറ ച്ച
സൂ ച
കാണ ിച്ചു
ദു രാ
കഴ ിക്കുന്നു
ഭാഷ യെ
സ്വാ മി
കയ റുക
വസ ിക്കുന്ന
ചെയ് തിര
ബോ ം
അല ക്കുക
സിദ്ധ ാന്ത
പാല കന്
പ്രേ രണ
സന്യാ സ
സൃ ഷ്ടി
ചാണ കം
കിട്ട ാത്ത
ഴിയ ുക
ദേഷ്യ ം
ആ ഹാര
ഇ പ്പോഴും
എ ൺ
ഏ ഴു
ഒ ള
ക സേര
പ ക്കല്
ഭ രി
മ ല്
യ ിലും
ര ജ
റ ാം
ല ൂ
വ നാ
ശ ന്
സ മുള്ള
േ റ്റ
ർ ദ്
ുക ളിൽ
ിക്ക ട
സ് നാ
ിയ ിലുള്ള
നി ശബ്ദ
ാര ണം
മാ ദ്ധ്യ
മു നി
മു ള്ള്
കൊ ഴു
കൊ ട്ടു
താ വസ്ഥ
താ ല്പ
നു ണ
വര് ക്ക്
ക്കുക ള്
വസ്തു ക്കളെ
പി ശു
കൂ ട്
സി ന്ദ
വെ ണ്ണ
ഉപ ദേശം
ഉപ ദ്രവ
കര ായ
സു ഷ
യു ക്തി
പെ ടുത്ത
ശി ശു
കട യില്
കാണ ുക
വെള്ള ത്തിന്റെ
ജന നം
ഉപയോഗ ിക്കുക
ത്തുക ൂ
പുരാണ ങ്ങളില്
നൂ ല
ആള െ
കയ ിലെ
ക്കാര ായ
കുട്ട ിയുടെ
പ്പാ ട
എല്ലാ വര്ക്കും
െടു ക്കുന്നു
പഞ്ച ായ
ലക്ഷ ്യം
കണ്ണ ു
ക്കെ ട്ട്
കളി പ്പാ
ക്ഷേ ത്രം
സൂക്ഷ ിക്കുന്ന
സന്ത ോഷി
ാട നം
ധര്മ്മ ം
പടിഞ്ഞാ റന്
ശര ിക്കും
ആഫ്രിക്ക യിലെ
പരിശോധ ിക്കുക
തുള്ള ി
കൊല പാത
ഷ്ട് രം
പ്രമേ ഹം
കൊണ്ടാ ണ്
പ്രയോ ജന
എത്തിച്ച േ
ചുറ്റിക്ക റ
ഛത്ത ീസ്
അ സ്ഥി
ആ കുന്ന
ആ ഭരണ
എ ണ്ണം
എ ന്തി
ക യ്
ക ബീ
ഘ ്
ഥ ര്
പ ാരി
ബ സ്
ബ ില്
ഭ ൈ
മ ഞ്ച
മ ഞ്ഞു
വ ന്ന്
വ നെ
സ ൊ
ന് മാരുടെ
ക് യാ
ക്ക ാം
ിക്ക പ്പെടുന്ന
രു ചി
വി രോ
പ്പ റ
നി മി
മു മ്പ്
പ്ര ഭാവം
ങ്ങ ും
മ് പാ
ചെ ണ്ട
ിച്ച ിരിക്കുന്നു
താ ണ
വ്യ ത്യ
അവ കാശ
വേ ഷം
പോ കു
അല്ല ാത്ത
ങ്ങള ിലെ
മൂ ടി
വീ ട്ടുക
വീ രന്
ജീ രകം
വര്ത്ത മാനം
പറ യാ
ഹി ത്യം
സമ ര്ഥ
വന് യ
മഹ ത്വം
ശ്ര ൂ
ശ്ര മം
പ്പോ യ
യുള്ള ു
പൂര് വം
വയ റ്
വസ ന്ത
ത്തോ ടു
തേ ജ
ഇര ുന്ന
കണ്ണ ാ
ശബ്ദ ിക്കുക
തിന്ന ുന്ന
പറ്റ ിയ
മൈ ന
ര്ക്ക ര
അറു പത്തി
ഭോ ജനം
കൂട്ടുക ാര
ശൈ ലി
ഉത്തര വാദി
ദ്രാ വകം
ദൃഢ മായ
ധാര ിയായ
പ്രയ ത്നം
ത്തിലേ യ്ക്ക്
നമ്മ ള്
ചന്ദ നം
പന്ത്ര ണ്ട്
ടൊ പ്പം
സാമൂഹ ിക
ക്രാ ന്ത
ധാര്മ്മ ിക
ചെമ്മ രിയാ
ദ്വാദ ശി
മന്ദി രം
ആ ന്ത
ആ കര്ഷ
ആ കാശം
ഉ ഷ്ണ
ഒ ന്
ച ില്
ഡ ാ
ണ മായ
ദ ര്ശ
ബ ൌ
ബ ിയന്
ഭ ൃ
മ ടിയ
യ വം
ല ീല
വ ുന്ന
വ ലം
ാ ണ
ു ത്
ു മായി
ക് ലാ
ത് ര്
ക്ക യ
പ് ളാ
ുക ം
സ് കോ
സ് പര്
വി നിമ
രാ ഷ്ട്രം
പ്ര ഖ്യ
ങ്ങ ോ
ചെ റുക
താ പ
പാ മ്പ്
യോ ദ്ധ
റി ൽ
കര സ്ഥ
കള ങ്ക
യു ണ്ടാ
യു വാന്
നേ രിയ
നോ ട്ടം
അതി ൽ
സ്വ ന്ത
കള് ക്ക്
ഇരു മ്പിന്റെ
കയ റ്റം
ക്കാര നെ
ക്ത നായ
അല ഞ്ഞു
രാജ്യ ത്തെ
യില ാണ്
തന് ത്രം
സമ് പൂർണ്ണ
ഇഷ്ട ം
പൂർ ത്തിയാ
ാല ങ്കാരം
മനസ്സ ില്
നന ഞ്ഞ
സുന്ദ ര
സുന്ദ രമായ
സമൂഹ ത്തില്
പുറത്താ ക്കുക
ചോദ ിച്ചു
തെളി ഞ്ഞ
അടയാ ള
ധരിച്ച ിരിക്കുന്നു
അവത ാരം
സമീ പം
അദ്ദേഹ ത്തിന്റെ
കണ്ടി ട്ട്
കൃത്രി മ
മന്ത്രാ ലയം
എൺ പത്തി
വിനിമ യം
അ ഭാവം
അ ർത്ഥ
ഉ മ്മ
ഊ ര്
ഏ ല്
ക ഫ
ട ീ
ഫ ാ
മ ൺ
ല ഘു
സ ിക്കുക
േ ന്ദ്രിയ
ിക്ക ിട
സ് ഫ
തി കമായ
വി പ്
ണ്ട ു്
പ്പ ിക്കും
പ്പ ിലാ
രാ ള
കാ റ്റ
ദ് വി
കൊ ളു
പാ ദം
പാ ഴ്
ചെയ്യ ുവാന്
സി ന്
മൂ ക്ക്
വെ ച്ചു
ഗ് ന
ട്ടി ട്ട്
കി ളി
ഉപ ദേശ
നായ ്
ഉണ്ടാ കുക
കോ ല്
വര്ത്ത മാന
എന്ന ീ
ഹി തമായ
വൃ ത്താ
ദ്ര വം
മര ിക്കുക
ഭൂ ലോകം
കാണ ുവാന്
പേ ന
വെള്ള പ്പൊ
പുറ പ്പെടു
ഭാഷ ാ
ഭാഗ വും
അട യ്ക്ക
ലഭ ിക്കാത്ത
ഗ്രഹ ണം
ഇര ിക്കുക
അറിയ ുക
ഉണ ക്ക
ചുമ തല
നാട ക
മുന് പ്
കിഴ ക്കന്
ക്കോ ല്
അമേരിക്ക യിലെ
ബഹു മാനം
തുല്യ മായ
ജനിച്ച ത്
ചക്ര വര്ത്തി
നിന്ന ുള്ള
ഗായ കൻ
പുരാ തന
ികൊണ്ട ിരിക്കുന്നു
തില ൂടെ
വിസ്ത ാരം
കാലാ വസ്ഥ
കവ ചം
ഉദ്യോഗ സ്ഥ
യൂറോപ്പ ിലെ
ഘാ തം
പയ റ്
എഴുന്ന േ
പൊങ്ങച്ച ം
സ്വപ് നം
അ ക്
അ യോഗ്യ
അ ശോ
ഇ തില്
ഉ ല്
ഉ റു
എ റിയ
ഐ സ്
ക ഷ
ഗ ജ
ഗ ാനം
ഘ ോഷം
ട ന്
ഡ ര്
ധ ാനം
മ ഠ
ശ ര്ക്കര
സ ദ
സ ില
ോ പകരണം
സ് സം
പ്പ ില്ലാത്ത
കാ വ്യം
കു പ്പ
പാ റ്റ
ദ്ധ ം
സി നി
ദേ ശി
വീ ട
തിയ ുള്ള
കള യുക
ക്കി ള്
നേ ട്ടം
മേ ള
ചു ട്ട
ബാ ക്കി
നോ ട്ട
ഗു ഹ
പ്പോ ലെ
കഴ ിച്ച
തൊ ഴു
ക്ര ിക്കറ്റ്
ഗോ ത്ര
സര് വ
എഴു പത്തി
കൊടു ത്തി
ഹര ണ
പക്ഷ ിയുടെ
മൊ ത്തം
സ്റ്റ ര്
ഗന്ധ ം
സാധന ങ്ങൾ
ആളുകള് ക്ക്
സൂക്ഷ ിക്കുക
ിക്കൊണ്ട ിരുന്നു
സ്പ ഷ്ടമായ
ശുദ്ധ മായ
കഴിഞ്ഞ ില്ല
പുസ്തക ത്തിന്റെ
താങ്കള് ക്ക്
നാലാ ം
താഴ് ന്ന
കണക്കാ ക്കുന്നു
കമ്പി ളി
കുമ ാരന്
ജൈ ന
ഷേ കം
ഗണി ത
വ്യായ ാമം
ദൈത്യ ൻ
ആന്ധ ്ര
അ ഴി
അ മര
ആ ര്ത്ത
ആ ശു
ഈ യി
എ റി
എ ങ്ങനെ
ഒ മ്പത്
ഗ ൊ
ച ത
ച മ
ച ഞ്ച
ദ ാര്
ബ ാര്
ര ണ്ടും
റ ില്ല
ഷ െ
ഹ രിക്ക
ിക്ക േണ്ടി
സ് ഫോ
രു ത്ത
വി രൂപ
വി കാരം
പ്ര സാ
പ്ര യോഗം
വാ ഗ്
വാ ങ്ങിയ
കു പ്രസിദ്ധി
ങ്ക ോ
താ പം
വേ ണം
വേ ദി
പി റു
കൂ ട്ട്
സി ംഗ
മൂ ല്യ
പൂ ന്തോ
വീ ട്ടിൽ
മി ണ്ടാ
കള ഞ്ഞു
ലാ ഭ
ശാ സ്ത്രീ
പറ ഞ്ഞ്
പരി ഹാരം
കേ ടു
ബാ ർ
നിറ യെ
നിയ മാനു
സൂ ത്ര
പ്പോ വുക
ദു ർ
പര മ
പര േ
സംബന്ധ ിച്ചുള്ള
തൊ പ്പി
ഗോ ര
ഗോ ളം
നല്ല താണ്
വയ സ്
ിക്കാ തിരിക്കുക
ചില വ്
ലഭ ിക്കുക
തട സ്സം
മുന്ന ിൽ
ന്തി രി
പാട ില്ല
മുറ ിച്ചു
മൃഗ ത്തിന്റെ
സംസാര ിക്കുക
ഉണ്ടായ ിരുന്നു
അം ബ
മഞ്ഞ ള്
കരി മ്പ്
ഇള യ
പാര ്ട്ടി
തണു പ്പ്
മന്ത്ര ിയുടെ
തൊണ്ണൂ റ്റിയ
സുഗന്ധ ം
സാധാരണ യായി
വാക് യ
രക് താ
ശ്യാ മിന്റെ
അണിയ ുന്ന
തൈ ര്
ചന്ത യില്
പണ്ഡി റ്റ്
അമി ത
പതാ ക
ഭഗവാ ന്റെ
ഇടു ങ്ങിയ
സരിച്ച ുള്ള
യജു ർ
വക്കീ ല്
ശസ്ത്ര ക്രിയ
കര്ണാട കയിലെ
ആ ര്ക്ക
ആ ശ്രമ
ആ ഴം
ഋ തു
ക സ്ത
ഗ രു
ജ ൌ
ത രു
ത ണ്ട്
ത നിയെ
ബ നാ
ബ ംഗ്
മ റാ
ല ളി
ഹ മ്മ
െ ന്നു
ത്ത ക്ക
ര് ക്ക്
ിക്ക ാം
വി ഴു
നി ങ്ങള്
മാ ള
പ്ര മുഖ
ചെ മ്പ
കൊ ടി
താ ത്ത
സം സ്ഥാനം
പാ റ
വേ ഷ
വസ്തു ക്കൾ
നെ ല്ല്
വം ശം
കോ മ
നേ ടുക
മേ ശ
ശി നി
പരി ണ
ബാ ങ്ക്
ദ്ര വ്യം
കൈ പ്പട
ത്രി ക
ജന സംഖ്യ
നാല് പ്പ
പ്രതി ഷ്ഠ
ചെയ് തി
അട ിച്ച
മഹാ ത്മാ
അഭി നയ
തേ ങ്ങ
വില് ക്കുന്ന
പണ ിക്കാരന്
ഇല്ലാത്ത ത്
സ്ഥാപ ന
പെരു മ്പ
ഹോ ളി
ഡോ ക്ടര്
സംസാര ിക്കുന്ന
ബുദ്ധി മുട്ട
ക്കള ില്
പുക യില
സത്യ സന്ധ
തണു ത്ത
ഈശ്വര ന്
മുണ്ടാ ക്കുന്ന
നാര ായ
മഹാരാ ഷ്ട്ര
താര തമ
സേവ നം
ത്തിലേ ക്ക്
കണ്ഠ ാ
കന്യ ക
അപരാ ധം
രാമായ ണ
മാദ്ധ്യ മം
സ്ഫോ ട
അ ജീ
ആ ണി
ക മായി
ക ട്ടില്
ച പ്പ
ജ ലി
ത രി
ത യ്
ദ ാരി
മ കന്റെ
ര മുള്ള
റ ൂ
ല ിലെ
ള ുക
സ ൻ
ു റ
ക് സ
ര് യാ
ായ നം
സ് വേ
തി നാൽ
വി കാ
വി കലാ
പ്പ ിക്കപ്പെട്ട
നി കൃഷ്ട
രാ വ
കാ ശി
ല്ല ു
ിര ട്ടി
താ വുക
ടു ക്ക
ലി ംഗം
വ്യ സനം
വര ിയ
യോ ടുകൂടി
വെ റും
ശ് വര്
തല യി
മി ശ്ര
മ്പ ുക
തീ രം
പെ യ്യ
പ്രവര്ത്ത ന
മഹ ര്
തോ റും
കാണ ിക്കുന്ന
ദു ഷ
പേ ടി
ക്കാ ളും
അനു മതി
പല തരത്തിലുള്ള
ഭാര മുള്ള
സേ വന
പദ ാര്ഥ
ക്കല് ല്
ചൂ ടാ
സിദ്ധ ി
ങ്ങ് ക്
സര സ്വ
അടി ച്ച്
ഗ്രാമ ത്തിലെ
സംബന്ധിക്കുന്ന ത്
കണ്ണ ില്
നിശ് ചയം
കണ ക്ക
ചോ ദ്യം
പിന്ന ോ
ിക്കാര നായ
ശരിയ ാ
പ്രായ ോഗിക
തിള ക്കം
തുന്ന ല്
വച്ച ിരിക്കുന്നു
സംസ് ക്കാര
തുല്യ മാണ്
അഹ ങ്കാരം
ക്കിട യില്
വിസ്ത ൃ
തപ സ്
പശ് ച
വേണ്ട ിയുള്ള
മത്ത ന്
സമ്മേള നം
കുഞ്ഞി നെ
ഗൂ ഢ
ആകാര മില്ലാത്ത
കേര ള
കൂമ്പ ാരം
കണ്ണീ ര്
വികലാ ംഗ
അ തീ
അ വിട
ആ ളി
ഉ ദ്ധ
ക മ
ജ ാം
ഞ ാവ
ദ ിക്ക
ന യം
പ കരം
മ റ്റ്
യ ൽ
റ ായ
വ ല്ല
വ ണ്ട്
വ ഞ്ചി
സ ഥര്
േ ഴ
ത് സാ
ക്ക ണ്ണ
ുക ാര്
തി രിച്ച്
വി ട്ട
വി ക്ര
ില ില്
മാ ല്
രാ ന്
കാ ലിന്റെ
മായ ത്
പു ഴു
കൊ മ്പ്
താ മ്
സം ഭാഷണം
ലി നെ
പാ ൽ
പോ ഷ
പോ രു്
യാ ച
ചെയ്യ ാനുള്ള
ന്ത ല്
ശ് വ
വീ ഴ
ചി മ്മ
ദി നാര്
നട പ്പിലാ
തെ ലു
തീ വണ്ടി
എന്ന ാണ്
പൊ ക്കം
ക്ര മണ
തിനായി രം
മാന സ
മന ഃ
ബു ദം
പ്രാ ധാന്യം
കൊടു ക്കല്
പതി നാ
ണു ക്കള്
അഭി വൃദ്ധ
ഉറ ച്ച
ന്നി ന്റെ
ഉയ രുക
മൊ ത്ത
വ്ര ത
ചോ റ്
അരി ക്
അം ഗം
ദൈ വ
കരി ം
വിയ റ്റ്
വൃക്ഷ ത്തിന്റെ
ബഹു മാന
ഭോ ജ
കഷ്ട ം
കോട തിയില്
മൂന്ന ാം
ഇല്ലാ തെ
കഴുക ന്
ശ്രേ ഷ്ട
പടിഞ്ഞാ റ്
ബ്രാഹ്മണ ന്
ദര് ഭ
വിവേ ക
അഥ ര്വ
അന്വേ ഷണം
വൈദ്യു ത
ഉദ്യോഗ സഥര്
ഗുജ റാ
കേട്ട തും
ധൈ ര്യ
ഭക്ത ന്
രാത്ര ിയില്
ജ്ജി മ
അനുഭ വം
വ്യാഖ്യ ാനം
സ്വാതന്ത് ര്യം
നിലനില് പ്പ്
ച്ചെ ടി
ആസ്ട്ര േ
ഇത്ര യും
ഏതാ ണ്ട്
കളിപ്പാ ട്ടം
പ്രഖ്യ ാപ
ഈയി ടെ
ഇ തിന്റെ
ഉ മി
എ ന
എ ട്ട
ഒ ട്ടി
ക ൽ
ക ത്ത്
ക രിച്ചു
ത കര്
പ ക്കൽ
ര മ
റ ുടെ
ല ഹരിയ
വ ധി
സ ായ
ി പ്പിക്കുന്ന
ർ ഘ
ക് സി
ക് റ്റര്
ത് യു
ക്ക ാവുന്ന
ിക്ക െ
ിക്ക ൊ
ിക്ക ാരി
സ് യാ
നി വാസ
മു ല
കാ ന
കാ ൽ
കാ പട
ക്ഷ ്
ിക മായി
കൊ യ്യ
താ വളം
സം ഗീതം
ലി ക്ക്
പാ ട്ട
നു റു
ചെയ്യ ു
പി ഴു
മൂ ര്ച്ച
വെ ളിച്ച
വീ ടു
വീ തം
വീ ഴുന്ന
ഗ് വേ
കര ീ
കര മാണ്
നട പ്പാ
കള ിൽ
മ്പ ല്
ലാ വ
കോ രി
തീ ര്ത്ത
മേ ല
രാജ ഭവനം
ശാ പം
പറ ിക്കുക
പരി ധ
സമ ര്ത്ഥ
ദ്ര വ്യ
മഹ ർ
സംബന്ധ ിയായ
അനു ഷ്ഠ
ചേ രുന്ന
സ്ത്രീ യുടെ
കര് ണ്ണാ
കൊടു ങ്കാ
കയ റ്റി
കയ റ്റുക
അട ങ്ങിയ
പ്പാ ത്തി
പ്പെടുത്ത ുന്നു
ആയ ിരത്തി
ഉത്ത േ
കഴിയ ുക
നിര് ബന്ധ
താങ്ക ളെ
ഭീ കര
ഒന്ന ാണ്
വഴ ിയില്
കാള വണ്ടി
പിടി പ്പിക്കുക
ചീത്ത യാ
സമാ ധി
ആഗ്രഹ ിക്കുക
ചതു ര്
മുത്ത ച്ഛ
അമ ര്ത്തുക
കെട്ടി ടം
രാജാ ക്കന്
അഹ ങ്കാര
വിശ ദീ
ഘോഷ യാത്ര
സന്ധ ്യ
നദ ിയുടെ
ചുക പ്പ്
അറ ബി
ചേർ ത്ത്
ളീ ഷ്
മാതൃ ക
പ്പുറ ത്ത്
താത്പ ര്യ
മാതാ പിതാ
ആദര വ്
നിര്മ്മാ ണം
ബാഹ്യ ാവ
വിതര ണം
നട്ട െ
സദ് ഗുണം
തെര ഞ്ഞെടു
റിപ്പ ബ്
സ്നാ നം
ഗരു ഡ
അ ഗ
അ ത്ത
അ പരി
ആ ൺ
ക രുടെ
ഗ േ
ഗ ല്
ച കം
ച പ്പാത്തി
ജ െ
ജ ന്യ
ട ാന്
ഡ ിയോ
ത ഴ
ദ ർ
ധ രിക്ക
പ ത്തും
പ ന്ത്
ഭ ക്തിയ
മ താ
ല മായ
വ ണ്ണ
വ യുടെ
സ ഭാ
ഹ ിര
ക്ക ൊണ്ട്
ുക ൊ
ിക്ക പ്പെട
വി സര്
പ്പ ിൽ
ാര െ
ച്ച ാ
മു ല്ല
രാ ജ്
രാ ഹിത്യം
രി കമായ
പ്ര ഥ
പ്ര ഭ
പ്ര ഭു
വാ ര്യ
കാ ര്ത്തി
റ്റ ല്
ടു ക്കുന്ന
നാ വാത്ത
പി ടുത്ത
മൂ ടിയ
ശ് ശ
കള ായി
ഷ് ണം
യു വാ
നീ സ്
ദേശ ീയ
കുറ േ
പേ ട
ലോ ചന
സ്ത ന
ജന ിക്കുന്ന
ജന കമായ
വർ ത്തി
വായ ില്
നിര്മ്മ ിക്കുന്നു
പ്പി ന്
നൂ ൽ
അട യ്ക്കുക
കുട ല്
കഴി ഞ്ഞ്
ജീവ ിക്കുന്നു
നിര് ത്തി
ഉത് ഭ
സ്ഥല ത്തു
രേഖ പ്പെടുത്തിയ
നിഷ േ
വെളു പ്പ്
പറ്റ ിയുള്ള
പിന്ന ില്
കുറ്റ ാരോ
കഥ കള്
ഇറ ച്ചി
വാഹ ന
യില്ല ാതെ
ചതു രംഗ
വര്ഗ്ഗ ത്തിലെ
ധ്യ ാ
ചികിത്സ കന്
പൂര്ണ്ണമായ ും
ചല നം
ജീവിത ത്തില്
മേഘ ം
നശ ിച്ചു
വൃത്തിയാ ക്കുക
ചെരു പ്പ്
വീട്ട ിലെ
കല്യാ ണം
നിയായ ിലെ
പ്രവാ ഹം
കാര്യാ ലയം
ഇരിപ്പി ടം
വെടിയ ു
സിന്ധ ു
വ്യത്യ സ്ത
പശ്ച ാത്ത
ബാഹ്യാവ യവം
അ ബ്
അ ത്യ
അ ഫ്
ആ ന്
ഇ തി
എ രി
എ തെങ്കിലും
ഖ േ
ച ര്
ത യാ
ത വള
ത ല്ലാത്ത
ദ ാവ
പ രോ
പ തിനായിരം
ബ ല്
ഭ ോഗ
യ ൌ
യ ക്ഷ
ല ൊ
വ ച്ചി
ശ ർ
ാ വസ്ഥ
ായ ിരത്തി
രു വ
തി ബ
തി രം
വി കൃത
ണ്ട ായി
നി വേദ
മാ ല്യം
മു ങ്ങി
വാ റും
കാ വ്യ
കു ലം
കു ര്ത്ത
കു ന്തം
ക്ഷ മ
ിക്കുന്ന ില്ല
സം സാരം
ലി ഞ്ഞ
പാ ലം
വ്യ വ
ചി ട്ട
നീ ച
മേ റിയ
തിര സ്
കൃ ത്യം
നിറ യ്ക്കുക
ക്കു ട്ടി
ത്യ ജ
സൂ ക്ഷി
ദു ര
കഴ ിച്ചു
ശു ശ്രൂ
വായ ിക്കുന്ന
ഭാഷ ണ
വൈ ഷ്ണ
ങ്ങി നെ
സ്വാ ദ്
മെ ലിഞ്ഞ
വിള ിച്ചു
മീ ന
രക്ഷ പ്പെടുന്ന
പഠ ന
ത്തോ ടുകൂടി
കല ഹ
പഞ്ച മി
തൂ ക്കം
മുകള ിലെ
വത ാരം
ദൃ ഷ്ടി
കിട ന്ന
ചുറ്റ ു
സങ്ക ല്പ
കാള യെ
ഹോ മ
കുറ്റ ിച്ചെടി
ഗുണ മുള്ള
ഹരി ത
അക ത്ത്
കുട്ടികള് ക്ക്
അപേ ക്ഷിച്ച്
അധികാര മുള്ളവന്
അന്ത രീക്ഷ
ഭ്രാ ന്ത്
നിൽ ക്കുന്ന
ബഹ ളം
യഥ ാര്ത്ഥ
കച്ചവട ക്കാരന്
അനി വാര്യ
കിര ണം
ബോധ മുള്ള
മുത്തശ് ശി
വധു വിന്റെ
ശകു നം
ഉപാ സ
സൌക ര്യം
പ്രസ്താ വന
ആലോ ച
ശൃ ംഗ
കഞ്ച ാവ്
ഭർത്താ വ്
ഛന്ദ സ്
അതില ൂടെ
എല്ലാവര േയും
സാമ്പത്തി ക
ധൃത രാഷ്ട്ര
സ്പര് ശ
ആര്ക്ക െങ്കിലും
നികൃഷ്ട ത
അ ഞ്ഞ
അ തേ
ആ കൃതിയ
ആ കൃതിയിലുള്ള
ഇ വിട
ഈ ര്
ഏ ത്
ഒ മ്പ
ഒ ളിച്ച
ക നെ
ക ത്തുക
ഖ ര
ഗ ാം
ഘ ോ
ജ യന്
ത ൊണ്ട
ത യില്ലാത്ത
ഥ ങ്കര
പ ട്ടി
പ ട്ടു
മ ഥ
മ ർ
മ ലം
ര നായ
റ ല്
വ നായി
ശ ബ
ശ രി
സ ായി
ാ ണു
ി ട്ട
പ് ള
തി ഥി
പ്പ ട്ട
പ്പ ുകള്
നി രോ
നി സ്സ
മു സല്
കാ തെ
താ നം
പാ മ്പിനെ
അവ ഗണ
പോ ക്കി
ചെയ്യ ാ
മൂ ര്ത്തി
മി ത
ഴു തിയ
ജീ വന
കള ായ
റു മാ
തെ ന്ന്
യു മായി
പെ ൺ
പെ റു
പെ ട്രോ
ശി ഷ്ട
ഴി ൽ
പൊ തി
ാം ശം
ഗു സ്ത
മര ത്തില്
കൊണ്ട ു്
പേ ടിക്കുക
സാധ ിക്കും
മോ തിരം
അനു യായി
ചേ ര്ത്ത
ജന ന
ജി ഹ്
പല വട്ടം
മാന സിക
പദ ാർത്ഥ
ിക്കാ രുടെ
മൃ ത
പതി നേ
കുതിര യെ
തുട ങ്ങുക
ബി ന്ദു
പഠ നം
കഴി വ്
ജീവ ിയാണ്
നില് ക്കുന്നു
വിശ് വ
വാദ ികള്
കണ് മഷി
നിർ ദ്ദേശം
മാസ ത്തില്
മണ് കലം
സ്റ്റ ോ
പീ ഢ
അമ്പ ത്തി
രേഖ കള്
സങ്ക ോ
ാല ത്ത്
ഘട ിക
പിന്ന ാ
സാമ ര്ത്ഥ
ചര ണം
ബീ ഹാ
ആലപ ിക്കുന്ന
ഉന്ന തി
അനാ ഥ
സംസ് കൃത
ബെ ല്
ജ്യ േ
തോട്ട ക്കാരന്
മണ്ഡ പം
ഗൌ ഡ
പ്പിക്ക ൽ
പുറത്താ ക്കപ്പെട്ട
വിഷയ ത്തെ
തീര് ക്കുക
പട്ടണ മാണ്
വ്യക്ത മാക്കുക
കാഴ്ച പ്പാട്
വധ ിച്ചു
കുര ങ്ങ്
ഘാ ത
മുറിയ ില്
ക്രി സ്തു
തൊഴിലാ ള
മുഴുകിയ ിരിക്കുന്നു
പുന ര്
ഹിം സ
ചില്ല റ
പരസ് പ്പ
പീഠ ം
പ്രശ സ്ത
അത്ഭു ത
ക്കിഴ ങ്ങ്
സരസ്വ തി
ശുശ്രൂ ഷ
അ സ്
അ സ്ഥ
ആ രാധ
ഇ പ്പോഴ
ഈ ജി
ഋ ഷ
എ ല
ഓ ര്
ക ക്ക
ട ൈ
ത ളി
ധ ാരി
ധ ീന
ന വാ
പ ക്ക
പ ിച്ചു
പ ടം
പ ത്തു
പ ായ്
ഫ ൈ
യ ിക്കുക
ര വി
ര ായി
ല ന്
ള വ്
ശ ക്തമായ
സ ഫല
ാ ലി
ാ രുടെ
ി ടുക
ര് ശി
ിക്ക ി
ിക്ക ുള്ള
സ് ര
ിയ ുക
ട്ട ന്
വി വിധ
നി ലെ
മു ള്
പ്ര ീ
വാ സ്തു
ഒരു മ
ങ്ക രന്
കൊ റ്റി
ിര ിക്കണം
ടു ത്ത്
സം യുക്ത
പാ താള
വ്യ ക്തമായ
അവ യുടെ
വേ ദം
നെ ല്ലി
യോ ടു
ക്കുന്ന തിനുള്ള
ചി ന്താ
ഷ്ട ാവ്
തിയ ും
കള ിക്കാരന്
തെ റി
കോ ര്
നീ ലം
ചു ര
ദേശ ത്തിന്റെ
സാധ ിക്കാത്ത
പര മാ
കെ ട്ടു
ഗോ പുരം
ഇട യ്
ഇരു മ്പു
വൈ ത
സന് താന
ചാ ട്ട
കയ റ്റ
പതി ച്ച
ഭവ ിക്കുക
പഴ കിയ
ുകൊണ്ട ുള്ള
വിഷ മുള്ള
മ്പോ ഴ
ദീ ർഘ
വര്ണ്ണ ിക്കുന്ന
അധ ഃ
വ്യാപ ിക്കുക
കൊള്ള ുക
ശാസ്ത്ര പരമായ
കിട ക്ക
പൂജ ിക്കുന്നു
സഹോദ രിയുടെ
നിയമ നം
സമ്മ തിക്കുക
ക്കൂ ട്ടം
ഒരാ ളെ
വേദന ിക്കുക
അക ലം
ശത്രു ത
ദൈ ന്യം
തുറ ക്കുക
സൂര്യ ന്റെ
വൈദ്യ ന്
അമ ര്
എന് തു
ഫോ ണ്
ഉപേക്ഷ ിച്ച
സമൂഹ ത്തിന്റെ
പ്രസ വ
അനുഭവ പ്പെടുക
ഗഢ ിലെ
അടിസ്ഥാന ത്തില്
അധ്യ ാപ
കടലാസ് സു്
ചന്ദ ന
സൈനി കന്
അഴു ക്ക്
കഠ ോര
മഹേ ഷ്
സ്വാതന്ത് ര്യ
കാശ്മീ രി
കൊള്ളയ ട
ലവ ണം
ഗവേ ഷണ
പർവ് വത
തീര്ത്ഥ ാടന
കോലാഹ ലം
സ്ഫ ടിക
തലയി ണ
ശർ ക്കര
അ മാ
ആ കുക
ആ കർഷ
എ ം
ട യില്
ത യുടെ
ദ ന്ത
ധ ിര
പ ന്
മ ില്
വ ന്ധ
വ സു
വ ാരാ
സ മാന
ഹ ാരി
ു വ
ോ പ
ക് ളാ
ക്ക േണ്ട
ിക്ക രുത്
ിയ ല്ലാത്ത
വി ഗ്രഹം
മു തു
വാ ഴ
വാ നും
കാ ടു്
ചെ ക്ക്
നാ ദം
നാ ളെ
യാ ഥ
യാ ള
ഗം ഗാ
വെ ളി
ദേ വാ
ദേ ശ്
പൂ വിന്റെ
ക്കുന്ന തിനായിട്ട്
മി നെ
വ്യക്തി ക്ക്
നായ കന്
നട ത്തു
തെ രു
ലാ ം
രിയ ുക
ക്കി ൽ
യു വ
നേ ടി
ഴി ഞ്ഞു
കേ ൾ
തൊ ട്ട
വർ ഷ
വർ ഷം
ിക്കു ന്ന്
കാര്യ വും
ഇട ിച്ചു
എന്നിവ യ്ക്ക്
പൂര് വ
നല് കുന്നു
ശരീ രാ
പുരാണ ത്തില്
കൊടു ത്ത്
പ്രതി വാദം
വില യി
സ്സ ില്
പഠ ിക്കുന്ന
ജീവ നാശം
ഹാ സ
ഷ്ഠ ി
തായ ിരിക്കും
ഗി നി
മുറി ഞ്ഞ
യുദ്ധ ത്തില്
ഇഷ്ട പ്പെടുന്നു
അയ ല്
മാര ായ
രേഖ ാ
പൈ ജാമ
നാട ന്
ആവശ്യ ം
കള്ള നെ
സഹായ ിക്കുന്ന
സമാ ധാനം
കൂടു തൽ
അര് ദ്ധ
മനോഹര ന്
സംഭ വിച്ച
ത്യാ ഗം
നിർമ്മ ിച്ച
വിറ ക്
തമ്മ ിലുള്ള
തയ്യാറാ ക്കുക
വഹ ിക്കുന്ന
വാര്ത്ത ാ
ബംഗ ാളി
അധ്യ ാപകന്
ആര െങ്കിലും
ഒഴു ക്ക്
ശിര ോ
ഏഴ ാമത്തെ
വീഴ് ത്തുക
ലഭ്യ മാണ്
പേപ്പ ര്
രീതിയ ിലുള്ള
അമ്പല ത്തില്
മിക്ക വാറും
ഫിലി പ്പീ
ഊര് ജ്ജ
കസ്ത ൂരി
പെരുമ്പ റ
ഥങ്കര ൻ
പോക്കി രി
അ സാ
അ ണ്ഡ
അ ഭ്യാ
അ ശുഭ
ആ സ്
ആ സ്വ
ആ ംഗ
ആ വരണം
ഇ രിക്ക
ഉ ചിത
എ ത്തിയ
എ ങ്കിലും
ക ന
ക ലി
ക ത്തുന്ന
ച ണ
ത ബല
ദ ര
ദ ശാ
ധ രിക്കുന്നു
ന ദീ
പ ഥ
ബ ട
ബ ദ
മ ുകള്
ള ിക്കുക
വ സി
സ ത
സ ും
ാ റ്
ി ട്ടു
ൂ ര
ക്ക ില്ല
ര് ന്ന്
ിക്ക ള
വി മ
പ്പ ന്
നി റു
മാ കും
വാ ണി
കു ഞ്ഞു
കു പ്പി
പാ തി
പാ ലി
പാ ണ്ഡി
പോ ളി
ചെയ്യ േണ്ട
വര വ്
ങ്ങള ോ
ങ്ങള ായി
ങ്ങള ാല്
മൂ ത്രം
മൂ ക്കു
മൂ ടുന്ന
യോ ധ
പൂ ജാ
മി ള
ഷ്ട മി
കി ത
അവസ്ഥ യില്
യി ന്
കള ുള്ള
സു രക്ഷാ
ഷ് മ
ബന്ധ നം
ചു ണ്ണാ
ബാ ദ
നിറ വും
ഹി മ
നോ ക്കിയ
നിയ ോഗ
കാണ ാ
അനു ഷ്ട
ചെയ്യുന്ന തിനായി
ഉപയോഗ ിച്ച
പല പ്പോഴും
കാര്യ ത്തിന്റെ
ഇരു പതും
ചീ ഞ്ഞ
പുരാണ സ്ഥലം
സ്വാ ധീ
കയ റിയ
തര ത്തില്
കുട ില്
മീ ൻ
വിദ്യ ുത്
ത്സ വ
ത്തില ോ
പഠ ിച്ച
അപ ഹരിക്കുക
തട യുന്ന
തിന് മയ
റോ ട്ടി
പക്ഷ ത്തിലെ
മുന്ന റിയി
അള വുകള്
ഉത് സാ
യൂ ണി
യ്ക്ക ുള്ള
യ്ക്ക ായി
വിര ുന്ന
മുറി ച്ച്
അറിയ ാം
അറിയ ിക്കല്
ജ്ജ ുന
ഇഷ്ട ിക
പ്രദ ര്ശനം
ദുഃഖ ിത
വരു ത്തുന്ന
പറ്റ ുന്ന
ക്കൂ ലി
ചര ണ
മട ക്കി
ആദ രണ
ശുദ്ധ ീകര
ചേര് ക്കുക
പരീക്ഷ ണം
ആരംഭ ിച്ചു
ഞങ്ങള് ക്ക്
ക്കേ ട്
പഠി പ്പിക്കുക
മംഗ ോ
രഹ സ്യം
നക്ഷത്ര ത്തില്
വേര് തിരിക്കുക
ഇരുപത്തിയ േഴ്
പിച്ച ള
സംരക്ഷ ിക്കുക
ഭ്ര മം
നൃ ത്ത
അച്ച ടി
മത്സ രത്തില്
സമുദ്ര ത്തില്
ഹീന മായ
തെളി വ്
എവിടെ യെങ്കിലും
ഇടി മിന്നല്
കൈയ്യ ിൽ
നിര്മ്മിച്ച ിരിക്കുന്ന
കടു ക്
പരിശ്രമ ിക്കുക
ഭംഗ ി
വിദ്യാല യം
ശില് പ
നെയ്യ ്
പ്രയാ സ
മോശ മായ
പ്രതിനി ധി
ക്ഷീണ ിക്കുക
തെറ്റി ദ്ധ
കൌശ ല
ദൌ ർ
മഴക്കാല ത്ത്
വ്യത്യാ സം
ഉപരി തല
പരേ ഖ
അജീ ര്ണ്ണം
ജ്യേ ഷ്ഠ
മുന്നറിയി പ്പ്
അ റ്റ
അ യോ
അ സ്തി
ആ ൾ
ഉ ല്ലാ
ഉ പ്പു
ക സ
ഛ ായ
മ യം
മ ലേ
മ കളുടെ
ര ണ്ടി
റ ായി
റ ുകള്
ല ക്
വ ജ
വ ചനം
വ ല്ലാതെ
ക്ക ല്ലു്
ല് പ്പ
ര് ലാന്
ിക്ക ണ
സ് മാര
ട്ട ല്
തി ട്ട
വി ടു
വി രിച്ച
വി ശേഷം
വി രോധ
മു ട്ടി
മു ന്തിരി
ങ്ങ ൽ
വാ നി
കാ ന്ത
ത്തി ര
ിക ന്
പു ണ്ണ്
കൊ ന്നു
ിര ുന്നത്
വ്യ ഭി
ില്ല ാതെ
വേ തനം
വര ണ
വ് വാ
അല്ല ാതെ
മൂ ർച്ച
പൂ ര
ശ് രാ
ശ് ശീല
റി നെ
ജ് വല
നട പടി
റിയ ന്
ഷ് ക
ട് രി
ശി വന്
കേ ട്ടിട്ട്
ഭൂ രി
കാര മായ
കാല ിക
കാല ത്തുള്ള
പര ത്തുക
തൊ ള്ള
തൊ ട്ടി
നല് കു
ഒരി ട
അട ിക്കുക
ത്തിന് റേയും
കുട്ട ികള
അഭി ഷേകം
വന്ന ാല്
അന ൈ
താമ സി
തട യുക
വില് പന
റോ സാ
കഴിയ ു
സര ണം
വാദ പ്രതിവാദം
പര് യാ
എടു ക്കുന്നു
ജോല ിക്കാര
അമ്പ ലം
സങ്ക ട
തിന്ന ുക
മൈ താന
സഞ്ച രിക്കുക
അര ക്കെ
സംസാര ിക്കുന്നു
മോഹ ൻ
യോഗ്യമായ ത്
കിഴ ക്ക്
സ്താ ന്
ചതു ര
ശ്രദ്ധ യോടെ
മേല് ക്കൂര
എന് ജി
ചൊ റ
മാർ ഗ്ഗ
ഒട്ട കം
മുണ്ടാ വുക
പഠി പ്പിക്കുന്ന
ഹീന നായ
ശക്തിയ ുള്ള
ഉന് മാ
നേതാ ക്കന്
ബന്ധപ്പെട്ട ത്
രത്ന ക്കല്ലു്
വാത കം
സമ്പ്രദ ായ
പാഠ ം
ുകാ ലി
വ്യവസ ായം
നേത്ര രോഗം
സൌക ര്യ
ചവി ട്ടി
ലക്ഷ് മി
വിദ്യാര്ത്ഥ ി
പകര മായി
നിരൂപ ണം
ദണ്ഡ ്
പതിനെ ട്ട്
നാരായ ണ
അതീ വ
ഉത്സാ ഹം
അ രിക
അ സുര
ആ രു
ആ ഭ്യ
ഇ നം
ഇ ഞ്ചി
ത കർ
ദ ശര
ന ട്ടു
പ കു
ബ ദ്ധ
ര ജി
ല ഡ്
വ റ്റ
വ ന്ദ
സ രി
സ മി
സ ഭ്യ
സ ്ട്ര
ാ ലു
ി തമായ
ീ ഷ്
െ ട്ടാമത്തെ
ർ ന്നു
ന് റേയും
ക് ലാസ്
പ് യ
ര് ഹ
ര് പ്പ്
വാ ക്കുന്ന
വാ ടം
കാ മോദ
കു റി
റ്റ ിലെ
റ്റ ിയെ
ിര ണം
താ ല
താ ണു്
നാ ഭ
പാ ടു
ഭാ നു
വേ റി
യാ ണ
വസ്തു വില്
ചെയ്യ ണം
ങ്ങള ുടേയും
മൂ ന്നും
വെ ച്ച്
വെ ല്ലു
ശ് രു
കര െ
കര യുന്ന
നേ ർത്ത
രാജ സ്ഥാനി
ചു ഴ
വല യില്
വല ിച്ചി
കേ ട്ടു
നിറ മാണ്
ക്കു രു
ക്കു റ്റി
ഗു ൽ
കാല ഘട്ട
അനു വദ
മറ്റ േ
പല തരം
പല ഹാര
കാര്യ മാണ്
ഇട യിലുള്ള
ട്ടുക ാരന്
വയ സ്സ
സ്വാ ദി
കുട ിക്കുന്നു
രക്ഷ പ്പെടുക
ുകൊണ്ട ിരിക്കുന്ന
െടു ത്ത്
തേ യ്ക്കുക
ജന് മി
ഹാ സ്യ
അടി ത്ത
മുകള ിലേക്ക്
യാത്ര യാവുക
മാര ില്
ബല മായി
സ്റ്റ ാ
കൊള്ള ാത്ത
കിട ക്കുക
വള്ള ിച്ചെടി
ചുറ്റ ുന്ന
ചുറ്റ ും
പ്രധാന പ്പെട്ട
ബ്ര ഹ
സ്ഥാപ നത്തിന്റെ
ാല യ
മൃഗ ങ്ങളെ
സാമ ര്ഥ
കുറ്റ വാള
സംസാര ിച്ചു
പിടി പ്പിച്ച
മട ക്ക
ചേര് ക്കുന്ന
പോകുന്ന ത്
ചികി ത്സാ
ഉന്ന ം
നഷ്ട പ്പെടുക
അന്ത ര്
കേള് വി
പ്രവേശ നം
ഉപേക്ഷ ിക്കുക
കഴുക ുക
ശിവ ന്റെ
ദ്രാ വക
എണ് പത്തി
ടുകൂ ടിയ
പിതാ വിന്റെ
ശൂ ന്യ
താഴെ യുള്ള
അടുത്ത ുള്ള
പ്രശ് നം
വേട്ട ക്കാരന്
പുത പ്പ്
കുമ ാരി
വിശേഷ പ്പെട്ട
ാനു ഭൂതി
പതാ ം
അര്ഥ ം
പ്രമേ ഹ
മോശ മായി
വസൂ ലാ
ചുറു ചുറു
മഹാരാജാ വ്
മുന്പ ില്
തുടര്ച്ച യായി
ന്യായാധിപ ന്
അഞ് ചു
മുഗ ള്
ബോം ബ്
ങ്ങോ ട്ടും
വെള്ളപ്പൊ ക്കം
ശാസ്ത്രീ യ
കോമ ള
ജയന് തി
പരസ്പ്പ രം
തൊള്ള ായിരത്തി
ം ദ
അ സ്ത
ആ റു
ആ കര്
ആ ഴ്ച
എ വിട
ക പ
ഖ ത്ത
ച ുള്ള
ഡ ില്
ത പാല്
ത ണ്ണി
ബ ായി
മ ടിയുള്ള
വ ത്
വ യാണ്
ഹ ണം
ീ ല്
ൂ ണ്
ക്ക ായ
ക്ക ിലെ
ുക ൊടു
ായ ിരിക്കും
തി ര്
വി ധം
വി ചിത്ര
വി ഭിന്ന
ില ൊന്ന്
മാ ത
മു ഹമ്മ
പ്ര കൃതിയ
വാ സ്ത
താ ള്
സം ഭാഷണ
നാ ള്
നാ ക്കുക
നാ കുക
നാ ലും
പാ നം
വ്യ ഞ്
പ്പെ ട്ട്
പോ ര്ട്ട്
യാ ദ
വര ന്റെ
മൂ ടുക
ശ് മ
നായ ാ
നായ ു്
വള ഞ്ഞു
വള രുക
കോ ട്ട്
നേ ടിയ
മേ ട
കേ തു
പൊ ക്ക
നോ പകരണം
ര്ത്ത ുന്ന
അതി ലെ
അതി ഥി
മുതല ാളി
രൂ പരേഖ
മോ ഷ്ട
പുറ ത്തേക്ക്
ത്തുക ാരന്
ജി ജ്ഞാ
ിക്കു നു
ഇട തു
വൈ കല്
ചാ ടുക
ഭാഗ ്യം
മെ ത്ത
ിക്കാ തിര
പ്രാ ദേശ
ബോ സ്
തുട ക്കം
പ്പെടുത്ത ല്
മഹാ ത്മ
ബി ള്
ഉറ ക്കെ
മണ ല്
കല് പന
തൂ ക്കിയ
നിര പരാ
കുഴ പ്പം
നിർ മ്മാ
കണ്ണ ുകള്
അറിയ ാത്ത
ീന മായ
ത്തേ ക്കു
കൊള്ള ുന്ന
താമസ ക്കാരന്
പൌ ണ്ട്
മൈ ദ
സഹായ ത്താല്
ഗുണ ന
സമാ ധാന
സർ വ
റേ ഡിയോ
കര്ത്ത വ്യ
സംസ് ക്കാരം
ചൊ റി
തോന്ന ുന്നു
ഒട്ട ക
ലേഖ കന്
കടി ഞ്ഞ
സസ്യ ഭാഗം
മത് സ്യ
മനസ് സിനെ
വണ്ട ിയുടെ
വില്ല ായ്മ
തട്ട ാന്
ഒഴുക ുന്ന
ഒഴുക ുക
വാദ്യ ോപകരണം
ആശ് ചര്യ
ഒന്നി നെ
മാംസ ള
കഠ ാര
ദ്രോ ഹം
ഇതു വരെ
നിര്മ്മാ ണ
സൂക്ഷ് മ
ജലാ ശയം
ക്ഷീ ണം
നവര ത്ന
ശര് വരി
ഹനു മാന്
ഉത്തരവാദി ത്വം
ബംഗ് ലാ
എന ിക്കു
ശൃംഗ ാര
പിന്നാ ലെ
ഈജി പ്
ആസ്വ ദ
സ്വാധീ നം
ദശര ഥ
അ ഗാ
അ പ്പോള്
അ സാധാരണ
ആ യോധ
ഉ രുക
എ ത്തുക
ഒ ടി
ക റ്റ
ക ത്തില്
ജ ാവ
ഡ ം
ണ ിയായ
ത ണ
ന ര്ത്ത
പ ക്
ബ ന്ദ
മ ാരി
ര ായ്
ല ുകള്
വ ഷ
ഷ ോ
ഹ സ്ത
ത് വാ
ക്ക റ്റ
ന്ന ം
ുക യ
ിക്ക പ്പെടുന്നു
സ് ത്രി
്യ ു
പ്പ ല്
നി ഘ
ാര ന്റെ
ില ൊ
ില ധികം
മാ ൻ
മാ തള
ച്ച ിൽ
രാ ണ്
പ്ര താ
ങ്ങ ു
ക്ഷ മത
ചെ ല
ചെ വ
ിക ൂ
താ ഴുക
നാ കുന്ന
ലി പ
വ്യ ര്ത്ഥ
അവ രെ
അവ തര
ചെയ്യ ല്
മൂ ഢ
ശ് വേ
ഗ് ഗ്
കി ട്
ഉപ ഭോ
കള ിയില്
യു ടേയും
നോ ക്കുന്ന
ഹം സ
മഹ ാന
മഹ ാമ
തോ റ്റു
ഗു ണ്ട
ംഗ ോ
പേ രു
പേ ക്ഷ
പേ രെ
പേ രും
മോ ചി
മോ ചിത
ജാ ഗ്ര
റ്റി ക്
ചെയ്യുന്ന തിനു
സ്ത്രീ കളുടെ
ഭാഷ യുടെ
തരം ഗ
വൈ ദീ
ചാ ക്ക്
നൂ ലു
ചില പ്പോള്
മീ ശ
വിദ്യ ാര്ഥ
അഭി നന്ദ
വന്ന ത്
ത്തോ ളം
ഉയ ര്ന്നു
തായ ിരുന്നു
തൂ മ്പ
ത്മ ക
ഗ്രാമ ങ്ങളില്
വിര ിക്കുക
ചാര ായം
മൊ ന്ത
മൊ ഴി
പീ ര
വ്ര ണം
ചുറ്റ ളവ്
ീയ നായ
സമ്മ തം
ഏക ത
അറി വുള്ള
പ്രസിദ്ധ മാണ്
ജയ ിച്ച
ചേര് ന്ന്
ചേര് ന്നു
അര് മേ
വശ ത്ത്
സംസ് കാര
കഷ്ട ത
ധിപ ത്യ
അപേക്ഷ ിക്കുക
വിറ യ്ക്കുക
പൊട്ടി പ്പോയി
ആശ യ
ഇല്ല ായ്മ
ത്തിനായി ട്ട്
വയ് ക്കല്
സ്വാഭാവി ക
ആശ്ര യം
ആത് മഹ
ഒഴി വാ
ശൂ ന്യമായ
അശ് വ
സംഗീത ത്തിലെ
അഞ്ച ാം
ഉദ ാര
സാങ്ക ല്പ
മുട ന്ത
വിരി പ്പ്
പ്പൊ ടി
കിണ റ്റില്
യഥ ാ
മിനു സമുള്ള
കൂടുതല ായി
ക്കുറ വ്
ഭംഗ ിയുള്ള
ഭൌ തിക
ഭൌ തികമായ
ദ്രോ ഹ
ഏഷ്യ യിലെ
വേള യില്
ചാര്യ ന്
സൈനീ ക
തീര്ഥ ങ്കരന്
വിതര ണ
ചാന് ദ്ര
സര്ക്കാരി ന്റെ
മഹര് ഷി
കേരള ത്തിലെ
ഉത്തേ ജി
ചതുര് ദശി
ഘടിക ാരം
ആയോധ നോപകരണം
അ ടിയില്
അ സ്ഥിര
ആ മ
ആ ടിന്റെ
ഇ വ
എ ള്ള്
ഗ ാര
ഗ മന
ച ക്ക
ജ ട
ജ ന്യമായ
ട ്യൂ
ത ട്ട്
ത കര
ത ടം
ദ ന്
ദ ാന്
ദ ല്ലാ
ദ ര്ശനം
ധ ിക്കുക
പ കല്
ബ ത്ത്
മ ്യ
മ രി
റ ണ്
റ ഷ്യ
ശ മ്പ
സ ദാ
ൂ ല്
ൃ തം
ൊ ക്കെ
ർ ത്തിയ
ക് താ
പ് ര്
ിക്ക ര
ങ് കുമ
ട്ട ില്ലാത്ത
ണ്ട ോ
നി രോധ
ില ത്തെ
മാ ന്തുക
വാ ടി
വാ നായി
തു ണിയ
കു ള്ള
ക്ഷ ോ
ചെ ന്ന
കൊ ട്ടി
താ ം
താ ടി
സം ശ
െങ്ക ിലു
നാ വിക
പാ ചകം
അവ കാശം
അവ താര
ഞ്ഞ ിരിക്കുന്ന
യാ ക്കി
ചെയ്യ ുമ്പോള്
ലം ബ
ദി ന്റെ
കള ിയാ
കള ിക്കോ
ബന്ധ മില്ലാത്ത
നിറ ച്ച്
ഹി ന്ദ
പൊ ട്ടുന്ന
പ്പോ കുക
ഭൂ കമ്പ
ചെയ്യുന്ന തിനുള്ള
പുറ മേ
ഗോ ളാ
ഇരു പത്
കീ ക
ത്താ ൻ
സ്വാ ധീന
മെ ന്ന
ിക്കാ നാവാത്ത
കുട ിക്കുക
ദാ ഹം
വന്ന ാൽ
അപ ഹ
അപ രാധ
ഇര ുന്നു
പ്പെടുന്ന ത്
വഴി തെറ്റ
നിർ ദ്ദേശ
മാസ വും
മണ് ണി
മണ് ണിന്റെ
ബല മുള്ള
പാട ും
പ്രധാന മായ
മാറ്റം വരുത്തുക
ഞ്ഞി ട്ടുണ്ട്
ചന്ദ്ര ന്റെ
സഹായ ിക്കുന്നു
ചര ക്ക്
കഥ ാ
മരണ ാന
ദിവസ ത്തെ
തെറ്റ ു്
ലോക ത്തിലെ
ഇള കി
വലി പ്പം
വേഗ ത്തിൽ
ഭ് രം
കേള് ക്കുക
കൌ ര
ശൈ ത്യ
പ്പിക്ക ാനുള്ള
ഷാ ള്
സംഘ ടി
ക്കിട യ്ക്ക്
തര് ജ്ജിമ
ശക്തിയ ായി
ചാണ ക
കീഴ ില്
ചുവ പ്പ്
പിന് തുട
ഗോത മ്പിന്റെ
രണ്ട ോ
ക്കട ല
സാമൂ ഹ്യ
സുക ാരന്
ഞെ ട്ടി
ദ്ദ വ
അര്ഥ ാലങ്കാരം
ബ്രിട്ട ീഷ്
ദൃശ്യ ം
യിലാ ക്കുക
സ്റ്റേ ഷ
നിക്ഷേ പം
ജാതിയ ിലുള്ള
സ്തം ഭം
പരസ് പര
ഭീരു ത്വം
ഡെ ന്മാര്
ബിരു ദം
ബാധി ത
വിഡ് ഢി
വൃത്താ ന്തം
സ്വേ ച്ഛ
പോഷ ക
ആസ്ട്രേ ലിയ
ഉമി നീര്
കര്ണ്ണാ ഭരണം
തയാ റാ
നിസ്സ ാര
മുസല് മാന്
അ ണു
അ ജ്ഞാ
ആ ം
ആ ഡ
ആ ർ
ആ ചാര
ആ റാമത്തെ
ആ ധ്യാ
ഇ നിയ
ഇ പ്രകാരം
ഉ ഷ
എ പ്പോള്
ക ടുത്ത
ഗ ധ
ച ിരിക്കുക
ജ ര്മ്മ
ധ രി
ധ ്ര
ന നുസരിച്ച്
ബ ാര
ള ന്
വ ത്സ
ശ നി
സ ച്ചി
ു ധം
ൊ ന്നും
ർ ത്തുക
ക് തം
ത്ത ൊ
ത്ത ായി
രു ചിക
തി മി
തി നോ
വി വരം
നി ധി
പ്ര മാ
പ്ര ഭാഷണം
പ്ര വൃത്തിയ
ങ്ങ ാത്ത
വാ ൾ
തു വര
തു ളു
കു ങ്കുമ
ചെ പ്പടി
ഞ് ജ
ിക െ
പു രോഹി
കൊ ഴ
നാ ഡി
വേ വിച്ച
പോ ര്
ായി രം
കൂ ട്ടു
തിയ ായി
യി ട്ട്
വള ര്ച്ച
കോ ളേ
ബന്ധ ന
നീ ര
നേ യും
പെ രും
വല ിച്ചു
പരി പാടി
ബാ ണം
ബാ റ്റ്
കൃ തമായ
ഹി തനായ
പൊ യ്
കട ിക്കുക
മഹ ാന്
നായി ട്ട്
സ്വ ത്ത്
സ്വ ച്ഛ
സ്വ ർണ്ണ
ഭൂ ട്ട
സാധ ്യത
കൈ ത
വെള്ള രി
ഞ്ഞു പോയി
ചേ ച്ചി
ക്ര േ
മൂല ധനം
ഭാഷ യിലെ
പട്ട ം
ഇട യ
ഇട ത്
ഇട പെ
ഇട യന്
കീ ടാ
മില്ലാത്ത തു്
ബു ക്ക്
പ്രാ ഥ
കയ റ്റു
നില യം
ങ്ങൾ ക്ക്
മുഖ േന
കഴി വുള്ള
ജീവ ിക്കുക
രാജ്യ ത്ത്
ഷ്ഠ ം
തൂ ക്കി
തൃ തീയ
ഗന്ധ ര്
കൊള്ള ാവുന്ന
പ്രദ ര്ശ
പെരു മാറ്റ
പെണ് ണ്
രാക്ഷ സി
നന്ന ാ
നന് ദി
കൂട ാരം
കുള മ്പ്
തിള ങ്ങുന്ന
കണ്ട തും
ഹാര ിയായ
ഗണ േ
കൊല്ല ുക
ചല ിക്കുന്ന
ഗൌ തമ
മല്ല ിക
സഭ യില്
ഒഴി ഞ്ഞ
ശൂ ലം
നഗര ത്തില്
ആരോ പ
അഭ്യ ര്ഥ
മുമ്പ ായി
വേട്ട യാ
നശ ിച്ച
ഉന് മത്ത
കഠിന മായ
വിചാര ണ
പൂശ ല്
തുടങ്ങിയ വ
കന്ന ുകാലി
പകര് ച്ച
ന്യാ സം
കയറ ുന്ന
ഒന്നു ്
വിരാമ ം
പ്രഭാ ത
തടാ കം
ഭര്ത്താ വിന്റെ
സാഗ രം
ത്തുകൂ ടി
കണ്ണാ ടി
േഴ ാമത്തെ
റിപ്പബ് ലിക്ക്
പ്രഥ മ
പരോ പ
സ്ഫടിക ം
വലിച്ചി ഴ
അ യ്യ
അ ന്ന്
അ രിയ
അ ന്തി
അ ഭാവ
ആ പത്ത്
ഉ ഴുക
ഊ തി
എ സ്
ഒ ത്തു
ഓ ടുക
ഗ ര
ച ണം
ജ നായ
ണ ്യ
ത ുന്നു
ത ട്ടിയ
ത യോടെ
ന ൊ
ന സ്
മ ഷ
മ ിക്കുക
മ യുള്ള
റ ുന്ന
വ ശീ
വ നാണ
ശ വം
സ ത്യാ
ു ല
ൂ പം
ർ ക്കുക
ക്ക റ്റ്
ിക്ക ൊടു
സ് ലൊ
ിയ ്
വി ജ്ഞാന
വി ജയം
പ്പ ാന്
നി ന
ടെ ങ്കിലും
കാ ട്ടില്
കാ ബൂ
കു ണ്ട
കു വൈ
കു ണ്ഠ
ക്ഷ ാ
ചെ ലു
ിക ത
ിച്ച ില്ല
നാ ളം
ലി ഖി
പാ ടുക
പാ ചക
ഞ്ഞ െടുത്ത
യാ ദൃ
മുള്ള ത്
തല മുറ
ത്തിന്റെ യും
ജോ ഡി
വ്യക്തി കള്
യി പ്പിക്കുക
കള ിക്കുന്ന
തെ ക്കേ
ലാ ണ്
തീ ര്ച്ച
തീ ക്ഷ്
നേ ക്കാള്
സമ ര
പൊ ട്ടുക
അതി ര്
അതി ര്ത്ത
ശ്ര യ
ഭൂ ഖ
ത്തിയ ുടെ
കാര ൻ
ദു രി
ക്കാ ലി
ചേ ര്ത്തു
ഭര ണി
രാമ ൻ
പുറ ത്തുള്ള
ജന ങ്ങളെ
കീ റി
വയ റു
വയ സ്സ്
പ്പി ട
പ്പി ള്
പ്രതി രോധ
മൃ ഗാ
വേദ നി
നില ക്കടല
ശീ ലി
ആയ ിര
ചൂ ട
ബി ംബ
വന്ന ിരിക്കുന്നു
സ്ഥാന ത്തു
അപ മാനിക്കുക
ഉറ പ്പിക്കുക
വിശ് വാ
യില ണിയുന്ന
നിര് ദ്
തൂ ക്ക
പട ക്കം
തൃ പ്
ശാല ിയായ
യാത്ര ക്കാരന്
പൌ ര്ണ്ണ
സങ്ക ീ
ദുര് ബല
നാണ യ
കുരു ക്ക്
കഴു ത്ത്
ആഗ്രഹ ിക്കുന്ന
ഇറ ക്കു
ആദ രിക്ക
ബീ ജ
കാര് ബ
ഏകാ ഗ്ര
ദിവസ ങ്ങളില്
അമ ര്ത്തി
തിരി ഞ്ഞു
അനാ വശ്യ
കഷ്ട പ്പാട്
ിക്കൂ ട്ടം
നിർമ്മ ിതമായ
ധര്മ്മ മില്ലാത്തതു്
നവ മി
അനേ ക
നിന്ന ാണ്
കിട്ടിയ ില്ല
ശ്രേ ണി
സുഗന്ധ മുള്ള
വിഷയ ത്തില്
രഹി ത
ശേഖ രം
തീര ത്ത്
മനസ് സിന്റെ
ഭിക്ഷ ക്കാരന്
നിശ്ചയ ിക്കുക
ഉഴു ത
കടല മാവ്
ഹൈ ഡ്ര
കൊട്ട ാര
അനുകൂല മായ
ഉള് ല
മനോഹരമായ ിരിക്കുന്നു
പ്രചാര ത്തില
പഴു ത്ത
ഹൂ ര്ത്ത
സമര് പ്പണം
തിരിയ ുന്ന
ബ്രിട്ട ീഷ
നിയന് ത്രി
വ്യവസ ായ
എഴുത പ്പെട്ട
കൊയ് ത്ത്
മലി ന
ആലോ ചന
ഈന്ത പ്പഴം
ജലാ ശയ
വിശാല മായ
തത് പര
ശുക് ല
നേരി ട്ട്
ബോര് ഡ്
ചടങ്ങ ുകള്
താല്പ ര്യ
കബീ ര്
വിരോ ധം
കഫ ം
എറിയ ുന്ന
തെലു ങ്ക്
ഗുജറാ ത്തി
നട്ടെ ല്ല
നിവേദ നം
അ ണ്ട
അ വിവേക
ആ ക്കുക
ആ ടിയ
ആ ക്രമണ
എ ട്ടാമത്തെ
ഏ ർ
ഒ തു
ച തിയ
ച ക്കി
ച ുംബ
ട ൂ
ത സ്
ദ ർശ
ധ നാ
ന ര്
പ ദ്
ബ ൊ
ബ രി
ബ ാന
ള മായി
ള ിയന്
ള ീല
ഹ ീ
ി രുന്ന്
ൃ ദ്ധ
ത്ത ടി
ത്ത ന്നെ
ുന്ന തിനായിട്ട്
തി ലെ
വി ശേ
നി ദ്ര
നി ര്ത്തുക
മാ റിയ
മാ താവ്
മാ കാത്ത
ച്ച ക്ക
മു തുക
മു ഹൂര്ത്ത
രി ന്റെ
പ്ര ള
പ്ര ധാ
പ്ര വർത്തി
വാ തി
വാ നം
വാ ശി
കാ ണ്
കാ ളി
കാ നുള്ള
കു ത്തുക
കു ങ്കു
ക്ഷ ത്ര
ദ് ദം
ിച്ച ുകൊണ്ടിരുന്നു
കൊ ളം
ടു പ്പ്
നാ വി
നാ ട്ടു
ഭാ ദ്ര
സ്ഥ ാന്
ചെയ്യ പ്പെടാത്ത
പി ൻ
പി ത്തം
കൂ ടം
സി ത
വീ ര്
വീ ടി
തല സ്ഥാന
മി ന്ന
ദി ക്ക്
യി ടുക
കോ ല
കോ പ്പ
കോ ണ്ട്
ക്കി ളി
യു ടേ
പെ ണ്ണ
എന്ന ാൽ
മേ നി
തിര െ
യോഗ ി
ദേശ ത്തുള്ള
സമ മായ
സമ ൃദ്ധ
പൊ ടിയ
ാം ഗ
മഹ ോ
ജീവി കളുടെ
ശ്ര ീല
പര മ്പര
കൈ കൊണ്ട്
ശം ഖ
സഹ ായി
വ്യാ കരണം
വ്യാ കുല
ജന ല്
ിക്കു വാൻ
ിക്കു വാനുള്ള
കാര്യ ങ്ങളില്
ിലാ കുന്നു
എഴു തു
ഭാഗ വത
ിക്കാ ർ
നൂ റ്റാ
പ്രതി കാരം
അട ച്ചു
കുട ീ
വിള ിക്കുന്നു
രോഗ മാണ്
നില വാര
മീ ര
പ്പെടുത്ത പ്പെട്ട
പഴ ങ്ങള്
ചൂ ടു
ചൂ ര്ണ്ണം
പഠ ിച്ചു
പ്രദേശ ത്തുള്ള
തേ ന്
ഉറ ങ്ങുന്ന
കല ര്ന്ന
വിവാ ദ
ഹാ സം
മത ത്തെ
കേന്ദ് രീ
പക്ഷ ത്തുള്ള
ഉയ ർന്ന
കൾ ക്ക്
ാരാ ഷ്ട്ര
ഉത് ഭവ
അടി സ്ഥാനം
യ്ക്ക ൽ
കണ്ണ ുള്ള
സ്ഥി തിയ
അധ ോ
ോഗ ്യമായ
താമസ ിക്കുക
ചുമ ത്ത
മുഴു വൻ
കളി തമാശ
ിലേ ക്കു
മല ബാ
ആവശ്യ മാണ്
അറി ഞ്ഞ
ഭൂമ ിയിൽ
നിറഞ്ഞ ിരിക്കുന്നു
പ്രേ തം
വിധ ത്തില്
ഒരാ ള
മട ങ്ങി
ബുദ്ധി മു
ിലി രുന്ന്
കുള ിച്ച
ഉട മ്പ
മാത്ര മെ
സന്യാസി മാര്
കൂട്ടുക ാരന്
സേന യുടെ
മറ്റൊരാ ള്
അഹ ന്ത
ധ്യ ാന
വംശ ത്തിലെ
വിശ്വസ ിക്കുന്ന
മണ്ഡ ലം
അന്ന ം
സംരക്ഷ ിക്കുന്ന
പാത്ര ത്തില്
തള്ള ുക
മരുന്ന ായി
സേവ കന്
അശ് ളീല
തര് ക്കം
അഞ്ച ാമത്തെ
അഭ്യ സ
ശാന്ത മായ
പൊട്ട ിക്കുക
തിരഞ്ഞെടു പ്പ്
മുറു ക്കാന്
തട്ട ാ
കല്ല ു
കാലാ വധി
വാദ്യ ക്കാരന്
ത്തിലാ കുക
കിണ റു്
കണ്ണി ൽ
ക്രി സ്
സമ്മേള നത്തില്
കൂടുതല ാണ്
കൂല ിയായി
ഏര് പ്പാ
ശില് പി
അവത രി
ഇംഗ് ലീ
തിരിയ ുക
ഒര സുരന്
മിക ച്ച
കന്ന ട
ജ്യോതി ര്
അമ്മാ വന്
പിറ ന്ന
പഞ്ചാ ബ
പഞ്ചാ ബി
മലി നീ
ഉത്പാദി പ്പിക്കുന്ന
എളുപ്പ ത്തില്
മുറിവേ റ്റ
നിപുണ നായ
പയോഗ ിക്കുന്ന
ന്നാ ള്
സുഷ ിര
സിനി മാ
കണ്ഠാ ഭരണം
ദാരി ദ്
വിശദീ കരണം
ഉത്ഭ വിച്ച
കുറ്റാരോ പണം
അമര് ഷം
ചുണ്ണാ മ്പ്
ആഭ്യ ന്തര
അഗാ ധ
നിഘ ണ്ടു
ആത്മഹ ത്യ
യാദൃ ച്ഛ
കുങ്കു മം
ശ്രീല ങ്ക
അ ച്ചു
അ ക്രമ
അ ഭയ
ആ ട്ടിയ
എ ട്ടു
ക ത്വം
ക ന്നി
ഘ നം
ച ന്ദ്
ച ായം
ഛ ി
ജ യില്
ട ിക്കുന്ന
ഠ ാ
ഡ േ
ത നി
ത നു
ദ ത്ത
ധ ര്
ന ില്ലാത്ത
പ യര്
ബ ്യ
ബ ര്മ്മ
ബ ാരി
മ ല്ലാ
മ ുകളിൽ
യ ഹൂ
ര സ്
ര ന്റെ
റ ുള്ള
ല ക
വ ൽ
വ ാരം
സ ന്ന
സ ിര
ാ ക്കി
ക്ക ൻ
ക്ക ണക്കിന്
ത്ത ാന്
സ് വി
സ് തിരി
ട്ട ുന്നു
തി ങ്ക
വി നു
വി ത്തു
വി ഗ്രഹ
ച്ച ുകൊണ്ടിരിക്കുന്നു
ണ് ന
മു ക്ത
മു ഷ്ടി
മു മ്പു്
പ്ര കൃ
പ്ര ലോ
വാ തില
കു റെ
കു ഞ്ച
കു മ്പി
ങ്ക ില്
ചെ ള്ള്
ിക്കുന്ന തിനുള്ള
സം ഗം
നാ ള
നാ മം
നാ ഡീ
പാ പം
വ്യ ൂ
ില്ല ാ
വര വു്
കൂ ജ
വെ ള
കര ച്ചില്
ജീ രിയ
കള ിക്കുക
മ്പ തി
ാരം ഭ
തീ ര്ക്ക
സു ഹൃ
യു നാ
യു ക്തമായ
നേ ര്
നേ ന്ദ്രിയ
പെ ട്ടു
മേ സ്തിരി
തിര ക്ക്
ബ് ളി
വല ത്
പരി ഹ
ബാ ം
ബാ ഷ്
ദേശ ത്തിലെ
ന്ദ ം
കട ത്ത്
ടിയ ിൽ
പ്പെട ും
കുറ വാണ്
സൂ ത്രം
സ്വ കാര്യ
കന് യാ
മോ ക്ഷം
മോ ഷണം
ചെയ്യുന്ന തിന്
സ്ത്രീ കളെ
ാമ ൃതം
മാര് ദ്ദവ
ഇട ത്തരം
ങ്ങളുടെ യും
ആണ് കുട്ടി
മനുഷ്യ നെ
ചീ യുക
വയ ലിൽ
ഭാഗ ങ്ങള്
വിള മ്പ
ലു വ
രോഗ ിയുടെ
ശീ ര്
ദാ സിന്റെ
മുഖ ി
സ്സ ുള്ള
അന ന്തര
ത്തില ായ
പഠ ിക്കുക
പ്രദേശ ത്തെ
മണ മുള്ള
വില് ക്കുക
ശോ ധിക്കുക
ദീ പാ
വിശ് വസ്
സോ മ
മുകള ിലേയ്ക്ക്
അടു പ്പ
ജ്ജ ു
ഇഷ്ട പ്പെടുന്ന
ഹു ക്ക
ത്തേ ത്
ഉണ രുക
എല്ല ു്
മധുര മായ
പാല ിക്കുന്ന
പണ ിയായ
ബ്ര സീ
വഴ ിയ
ചോ ര
സൌ ര
സമ്മ ത
നാട ോടി
കുരു വി
അറി വു
ഘട ക
ഗുരു ജി
സ്വീ കാര്യ
കവി ള്
സർ വ്വ
ഉട നെ
നെയ് ത്തു
രണ്ടാ മ
നന യ്ക്കുക
സ്നേ ഹി
അന്ത ാരാഷ്ട്ര
പൂർണ്ണ മായി
നിർമ്മ ിക്കുക
ഈശ്വര ന്റെ
സെ ന്റ്
സുന്ദ രി
പറയ ല്
എല്ലാവ രുടേയും
തയ്യാറാ ക്കിയ
തിരു ത്തുക
ചരി ത്രം
ആത് മാവ്
എതി രാള
ജ്ഞാന ിയായ
ഗ്രീ ന്ലാന്
നിശ്ചയ ിക്കപ്പെട്ട
ശ്യാ മിന്
പല്ല ു
ഉന് മൂല
ചേര്ന്ന ാല്
ിക്കേണ്ട തായ
വലു താ
ഭിന്ന മായ
ക്കര ണം
ദായ ക
തല്ല ുക
സൈനി കര്
പ്പുറ ം
പൂശ ുക
ാനു സരണം
തട്ടി പ്പറ
ഇംഗ് ല
ഹേ മ
ഡ്ര ൈ
വ്യാഖ്യ ാന
രാവണ ന്റെ
വര്ഗ്ഗത്തില് പ്പെട്ട
പ്രി ശോധിക്കുക
സ്തം ഭ
വർഗ്ഗ ത്തിൽ
പ്രവാ ച
അത്ര യും
ലക്ഷ് മണ
വീശ ുന്ന
ഉദ്ദേശ ്യം
പ്രോ ത്
എതിര ായി
ശ്രേഷ്ഠ ത
മെഴുക ു
സ്വർ ഗ്ഗം
കൊത്തു പണി
ഉസ് ബെ
മുസ് ലീ
പിശു ക്കന്
പ്പാട ില്
യോദ്ധ ാ
തൊഴു ത്ത്
ആശു പത്ര
മറാ ഠി
ദുഷ ിച്ച
വികൃത മാക്കുക
ബദ ാം
ലക് സം
ചുറുചുറു ക്കുള്ള
പ്രതാ പ്
ഇംഗ്ലീ ഷ്
അ സ്ത്ര
അ ങ്ങാ
അ ശുദ്ധമായ
ആ ഴ്ച്ച
ആ ഘാതം
ഇ ങ്ങനെ
ഉ ച്ഛ
ഉ പ്പൂ
ഉ ത്സവ
ഊ ർ
എ ട
എ ട്ടും
ഒ പ്പം
ഓ ടിക്കുക
ക നാണ്
ഗ ട
ജ രി
ഝ ായി
ഡ ിലെ
ധ നി
ധ രിക്കുക
ന വീ
ന വരാ
മ യില
യ ശ
യ പ്പെട്ട
ല ായി
ല ങ്കാരം
വ നാകുന്നു
ശ ാരി
സ നാ
ാ ത്മകമായ
ി ട്ടില്ല
ീ ന്
ൂ ണ
ൊ ട്ട
ക് ള
ക്ക ിക്കൊണ്ടിരിക്കുന്നു
ുന്ന തിനുള്ള
്യ മില്ലാത്ത
രു ക്
തി ന
വി ൻ
വി നി
വി ളം
വി ദൂ
നി ശാ
മാ രു
മാ ഹാ
മു ക്കുക
രാ വുക
രി ൽ
പ്ര ഹ
വാ ളി
വാ നര
കാ ത്തു
കാ പ്പി
കാ റ്റില്
മായ ിരിക്കുന്ന
ത്തി നകത്ത്
ക്ഷ ു
ചെ രി
പു ലി
പു ച്ഛ
സം വിധ
സം ഭാവന
നാ ട്
വ്യ മായ
യാ ത്രാ
ങ്ങള ാകുന്നു
ശ് വസ
ചി ന്തി
തല യിലണിയുന്ന
കി ണ്ടി
ഉപ ദേ
ഉപ വാസം
നട ന്ന്
വള ർത്ത
ദ്യ മായ
കോ ഴ
തീ ക്ഷണ
ട് രാ
ജോലി ക്ക്
നീ ച്ച
രാജ ന്
രാജ ാവ
തിര ശ്ശീല
ബാ ദാ
കൃ പ
നിറ ഞ്ഞു
നിറ യുക
ക്കു ഴല്
സമ ന്
പൊ ങ്ങി
നോ ര്
നോ ട്ട്
അതി നു
കുറ ഞ്ഞു
സൂ ചക
കാര കം
ംഗ ി
സാധ ു
ുകള യുക
അനു മാനം
ജന നേന്ദ്രിയ
വായ ിച്ചു
ഗോ ള
കാര്യ ത്തെ
കാര്യ ങ്ങളെ
ഇട പഴ
മാന സീ
മാന ഭംഗം
ചാ റ്
മനുഷ്യ ൻ
ടാ ലി
പ്പി ടിക്കുക
പ്രാ പ്
പ്രാ ണി
പ്രാ വ്
നൂ റ്റിയ
ആള ുടെ
ക്കാര നാണ്
ചില യ്ക്കുക
പതി നാല്
രോഗ ങ്ങള്
ലഭ ിക്കും
ഗാ നി
വന ന്
ദാ രു
ചൂ ഷണം
നടത്ത ുന്നത്
വന്ന ിരുന്നു
വന്ന ിട്ടുണ്ട്
തട വുക
തട ഞ്ഞു
ഉറ ച്ചു
പോലെ യാണ്
ജീവ നാ
പെട്ട ന്നു
ദീ പ്തി
തുക ൽ
ഉയ ര്ച്ച
യില േക്ക്
കർ പ്പൂ
ഗ്രാമ ത്തിൽ
ര്ത്ഥ ന
കുഴ പ്പ
ദൂ തന്
നിർ ണ്ണ
അറിയ ില്ല
ത്വ മുള്ള
അയ ച്ച
അയ ര്ലാന്
അധ ്
സാധന ങ്ങളുടെ
അമ്പ ത്
ക്രമ പ്പെടുത്തപ്പെട്ട
പണ ിക്കാര്
പണ ിക്കാരൻ
ചിത്ര കല
ചിത്ര പ്പണി
കാള യുടെ
പെരു മാറ
ശ്വര ന്
വിധ വ
പ്രത്യേക ിച്ചും
ചിന്ത േ
ഇറ ങ്ങി
ിലി ന്റെ
കറ ങ്ങി
തുറ ന്ന്
കിഴ ക്കു
വശ വും
തിരിച്ച റി
ഏകാ ന്ത
അറു പത്
പുര സ്
പുര ട്ടുക
പുഷ് പ്പ
നിയന്ത്ര ിക്കുക
വരി ൽ
നര സിംഹ
ആകാശ ത്തില്
തോന്ന ുന്ന
ഗണ ന
ധിപ ത്യം
കച്ച വടം
അന്ന ദാനം
ഇന് സ്പെ
തുണ ിയുടെ
ഉത്തര വ്
മാറ്റി വയ്ക്കുക
തയ്യാറാ ക്കുന്ന
രാശി ചക്രം
വര്ഷ വും
അതു പോലെ
ിച്ചെ ടുത്ത
ചൈ ത്ര
കരാ ര്
കരാ റ്
സന്തു ലി
വാങ്ങ ല്
ചുവ പ്പു
നന്ദ ന്
ശാന്ത ത
മുറു ക്കുക
വള്ളി ചെടി
ത്തിലാ കുന്നു
പണ്ഡി തന്
കൈയ്യ ില്
ഒന്നി ന്റെ
ഹേ തു
സന്ദ ര്
സോഹ ന്
അമ്മാ വന്റെ
കൊമ്പ ുള്ള
ഉടമ സ്ഥ
പൊള്ള യായ
കയ്യ ില്
വിദ് വാന്
അക്ക ൌ
വാടക യ്ക്ക്
സിന്ദ ൂരി
പഞ്ചായ ത്ത്
ഉമ്മ റ
മേള യില്
പൂന്തോ ട്ട
ഗോര ഖ്
വിസ്തൃ തമായ
താമ് ര
വെളിച്ച ം
അഞ്ഞ ൂറ്
ആകർഷ ിക്കുന്ന
സമി തി
വൈദീ ക
പീര ങ്കി
ആഡ ംബ
ചെപ്പടി വിദ്യ
പൌര്ണ്ണ മി
അവിവേക ിയായ
അശ്ളീല മായ
ഝായി മായി
ആ ഭ
ആ ജീവനാ
ഇ ണ
ഉ ഗ്ര
ഊ ഞ്ഞ
ക സാ
ക ശു
ഛ േദ
ഞ ൊ
ഞ ങ്ങളെ
ത ൻ
ദ ഹി
ദ മ്പതി
ന ുകം
ന ഗ്ന
പ ിയ
പ കർ
പ ല്ലു്
ബ ില
ബ ലാ
യ ർ
യ ിരിക്കും
ല ജ്
ല റ്റ്
വ ക്ര
വ ിയന്
ശ മന
സ ഫ
സ ുള്ള
സ ദ്യ
ഹ സ്
ാ റാമത്തെ
േ ര
ക്ക ൊണ്ട
ല് വ
ത്ത േയും
സ് ത്യ
സ് ലോ
ട്ട ര്
നി രക്ഷ
രാ ഹു
പ്ര കാര
പ്ര ദേശ്
വാ കുന്നു
വാ ഹി
കാ ത്
കാ ട്ട
കാ വി
കാ വ്യാ
മായ ാ
കു ബേ
ല്ല െ
ക്ഷ യ
റ്റ ു്
ഞ് ചു
ിച്ച ാ
നാ ഗാ
പാ ണി
പാ താളം
നു സരിച്ചുള്ള
സാ ംബ
പി ഴിയുക
ദ്ധ ്യം
ങ്ങള ില്ലാത്ത
ഗ് രാം
മി നിക്ക
ട്ടി മാല
ദി പ്പിക്കുക
നട ക്കുന്നത്
കള ിലും
വള രുന്നു
ഉണ്ടാ ക്കാന്
ലാ ത്വ
കോ വയ്ക്ക
സു ഡ
സു രക്ഷ
രിയ ായ
ബന്ധ മുള്ള
മേ ദ
മേ ഷ
ശി ഷ്യ
ബ് ബാ
ദേശ ത്തെ
ഹി തം
ണ്ടി ന്റെ
ന്ദ ര്
കട ന്ന
വൃ തം
മഹ ല്
അതി നാല്
ഷ്യ ം
ത്തിയ ില്
കാണ ിക്കുന്നു
പര വ
പര മായി
ക്കാ ലം
ജാ തീയ
സംബന്ധ ിച്ച്
ഉള്ള ി
ഴ് ത്തി
തൊ ഴിൽ
വർ ക്ക്
വായ ിക്കുവാന്
ട്ടിയ ില്
ിക്കു മ്പോൾ
ഇരു ട്ടു്
കീ ര്ത്ത
വൈ കി
നല്ല വണ്ണം
അധിക മായി
സര് ക്ക
ിലാ വുക
ചീ ര
പദ വിയ
മെ ന്നു
മൃ ത്യു
വാസ ന
രോഗ ിയെ
കുട്ട ിക്കാ
ളു ക്ക്
രക്ഷ പ്പെട്ടു
വന ത്തില്
പ്പു ലി
െടു ക്കല്
ിക്കപ്പെട്ട ത്
നില് ക്കു
മത ത്തിന്റെ
റോ സ്
ഡി ഗ്രി
നിര്മ്മി തി
പക്ഷ ിയെ
പക്ഷ ികളുടെ
ഉയ രം
സര ളമായ
യൂ ക്രേ
അടി ഭാഗം
യ്ക്ക ാന്
യ്ക്ക പ്പെട്ട
കുഴ മ്പ്
കുഴ ിച്ചി
കണ്ണ ു്
അടു പ്പ്
ോഗ ്യ
ക്ഷേ പ
മുറ ിക്കുന്ന
പൈ തൃ
സിം ഹാ
ഉണ്ടാക്കുന്ന ത്
വരാ ന്
രാക്ഷ സൻ
താഴ േയ്ക്ക്
ചിന്ത നം
ആദ ര്ശ
തുറ ന്നു
പശു വിന്റെ
കരി മ്പി
അന്യ ായ
തൊഴ ിക്കുക
റേ ഷന്
നെയ് ത്ത്
ചതു രാ
സംഭ ോഗ
ആദ്യ മായി
ആദ്യ മേ
കരു തി
എന് താ
ലാന് റി
ഫോ ം
ഉപേക്ഷ ിക്കപ്പെട്ട
സെ ന്
തോട്ട ത്തിൽ
ധാതു ക്കള്
ശൈ ല
പ്പുക ാരന്
തുണ ികള്
ഉച്ച രിക്കുന്ന
വാര് ഷിക
കാരണ ത്താല്
ഉര യ്ക്കുക
സീത യുടെ
ഭിക്ഷ ാടനം
ഫി ന്ലാന്
അഞ്ച ും
സ്വീകര ിക്കുക
ശാരീ രികമായ
മുമ്പ ുള്ള
മുമ്പ ായിട്ട്
വിവേ കം
ഉദ്യോഗ സ്ഥന്
രാസ വസ്തു
ഒന്നി ച്ച്
അർ ജ്ജുന
പച്ചക്ക റ
നിരാ ശ
ഗർ ഭ
ലക്ഷണ മുള്ള
വറ ളി
ജാതിയ ിലെ
സമ്പാദ ിക്കുക
കൂട്ടിച്ചേ ര്ക്കുക
സന്ദ ര്ശ
ഗര്ഭ ത്തില്
ഗണി തം
മുണ്ട ായി
നേര ത്തെ
രോഗി ക്ക്
മക നെ
ൊന് പതാമത്തെ
ഈന്ത പ്പന
വസൂ രി
ഷീ റ്റ്
ക്ഷുര കൻ
ഉദാ സീ
വിപരീ ത
സൌന്ദ ര്യ
തത്ത മ്മ
ഉത്തമ നായ
മോഹി പ്പിക്കുന്ന
അവസാനി പ്പിക്കുക
വര്ണ്ണന കള്
ഡയ റ
പ്പേ രു
കോള നി
അനുസര ിക്കുക
നിര്ണ്ണ യം
തുര് ക്കി
വീട്ടുക ാര്
ബൌ ദ്ധ
സിംഗ പ്പൂ
മിണ്ടാ തെ
നിയമാനു സൃ
വരിയ ിലും
ഞാവ ല്
ഈയിടെ യായി
അഹങ്കാര ിയായ
കാര്ത്തി ക
പ്രാദേശ ിക
മഹാമ നസ്
ഇറക്കു മതി
ഏര്പ്പാ ടാ
ഉന്മൂല നം
അ രം
അ ണ്ടി
അ ഴുക
അ നിശ്
അ ചഞ്ച
ആ ഗ
ആ ഫീ
ഉ ഷ്ണം
എ ലി
എ ഡി
ഒ ല
ഓ ഫീസ്
ക വാടം
ഗ ില്
ഘ ട്ടം
ഝ ാ
ട പ്പ
ട ിക്കറ്റ്
ത രാ
ധ ിക്കാര
ന മ്പ
പ ായി
പ ന്തി
ഭ സ്
ഭ യാ
മ നി
മ സ്ത
മ കളെ
ര ിലെ
ര മായി
ര ഥം
റ വാ
റ ായ്
ള ിയുടെ
ശ ിലാ
ഹ ാന്
ാ തിരിക്കുക
െ യ്
ൈ ഡ്
ോ ഹ
ർ ത്തു
ത്ത ീക
ുന്ന തിനായി
ര് വേദ
വി ക്രാന്ത
ണ്ട ന്
പ്പ ിക്കുവാന്
ള്ള ി
ള്ള ു
മാ ണി
മാ പി
മാ ക്കുന്നു
മാ ധു
രാ ടം
പ്ര ചരി
വാ നു
വാ ക്കി
കാ റ്റു
മായ ിയ
മ് പൂ
താ ല്
ടു ക്കം
സം യമ
പാ ശ്
വേ ശം
വര് ധ
ങ്ങള ോട്
നെ സംബന്ധിക്കുന്ന
മുള്ള ുകളുള്ള
തല ക്കെട്ട്
ഉപ കാര
യുടെ യും
ജ് വലി
ദി നാ
ാന ോ
ലാ ല്
നീ ർ
നീ ന്ത
പരി സ്ഥിതി
പരി ശീലി
കേ ണ്ട
കേ സര
ബാ ല്
കൃ മി
നിറ യ്ക്കുന്ന
സമ ില്ലാത്ത
പൊ രിച്ച
പൊ ങ്ങുക
ടിയ െ
അതി ർത്തി
കാണ ാൻ
ജ്ഞ ത
കൈ യക്ഷ
ചേ ട്ട
ചേ തന
ചേ രുന്നു
രൂപ യുടെ
ചെയ്യുന്ന യാള്
കാര്യ ങ്ങളും
ഇട ം
ഇരു പത്ത
വൈ കുന്ന
ടാ ൻ
പ്രാ ർത്ഥ
കയ ർ
പ്രതി കൂല
പ്പിക്കുന്ന തിനു
തുട ക്ക
വില കൂടിയ
ഗ്രഹ മായ
വരെ യും
കഴി ഞ്ഞി
ഉറ പ്പുള്ള
പഞ്ച ാമൃതം
ഇര ട്ടി
ഇര ിക്കും
ആന യെ
മുകള ിലുള്ള
തൃ ണ
കൊള്ള ക്കാര്
ഏറ്റ ു
പ്രദ ര്ശി
സാധന ങ്ങളെ
കണ ക്കു
ചുറ്റ പ്പെട്ട
ശബ്ദ ത്തിന്റെ
പണ യം
കൂടിയ ാല്
കറു പ്പും
സഞ്ച രിക്കുന്നു
പ്രേ മം
കാല് പനി
ഭു ക്ക്
ഒരാ ൾ
സ്പ ന്ദ
കറ വ
മണി ക്ക്
ഗര് ഭി
വൈദ്യ ൻ
പാര ായ
വേഗ തയുള്ള
നഷ്ട മാവുക
മാത്ര മാണ്
കര്മ്മ ങ്ങള്
എന് ത്
ചൊ ല്ലി
അയാള് ക്ക്
മുണ്ടാ കുക
നക്ഷത്ര ത്തെ
വസ്ത്ര മില്ലാത്ത
സംരക്ഷ ണ
പുറത്താ ക്കി
രഹി തനായ
ചോദ ിക്കുക
തീര ദേശ
ഹീന ത
ആരോ ടെങ്കിലും
സന്ധ ്യാ
നേരെ യുള്ള
പ്രിയ ം
വിസ്ത ാര
കിട്ട ുന്നു
മുമ്പ ില്
കണക്കാ ക്കുന്ന
ദഹ നം
ഹൈ ന്ദ
കുര ങ്ങ
കാമ ദേവന്
മാന്യ മായ
നിന്ദ ിക്കുക
ആശ്രയ ിക്കുന്ന
അർ ദ്ധ
മര് യാദ
മുറിയ ിൽ
അരു ണാ
ന്യൂ ന
അമി തമായി
പൂരി തമായ
ർണ്ണ മി
പാരമ്പ ര്യം
പുള ിയുള്ള
കൊറിയ ന്
സാമ്പ ത്തീക
മണിക്കൂ ര്
സാമൂഹ ികമായ
എതിര് പ്പ്
ബ്ബ ല്യം
ൊന് പത്
ക്ഷീ ണി
കാം ക്ഷ
ഉപകരണ ത്തിന്റെ
ബാങ്ക ില്
വില്പ്പന ക്കാരന്
സന്നി ഹി
സന്നി പാത
യജമാന ന്
പിണ ക്ക
ദൂരീ കരിക്കുക
കാന്തി ക
മേൽ ക്കൂര
ഒള ിച്ചു
നൂല ു്
വിപ് ലവ
കൊളു ത്ത്
എഴുന്നേ ല്
അയോഗ്യ നായ
സില ാന്
കാന ഡ
പിടുത്ത ം
നിരോ ധനം
പീഢ ിപ്പിക്കുക
ദശാ വതാരം
ദൌർ ബ്ബല്യം
വജ ്ര
ലഡ് ഡു
കേള്വി പ്പെട്ട
പ്രമാ ണം
ജ്യോതിര് ലിംഗം
ആഭ ിരണം
വിക്രാന്ത ന്
പാശ് ചാ
അ ട്ട
അ നിയ
അ റേ
അ ണ്ണാ
അ സുരന്
ആ ട
ആ ധി
ആ റ്റം
ആ വണ
ആ ഷാ
ആ ഫീസ്
ഇ ന്ധ
ഊ ഹ
എ ത്തുന്ന
എ നിക്ക
ഐ ക്യ
ഒ ച്ച
ഓ ഫ്
ക ത്തിയ
ക നാല്
ഗ ്യ
ഗ ാന
ഗ രന്
ഘ ാന
ജ ഡ
ജ ാര
ജ ാന്
ജ പ്പാ
ജ യില
ട യന്
ത ാരം
ത സിക
പ ങ്കാ
ഭ ജന
റ ൽ
ഴ ിക്കുക
ഴ ത്തിന്റെ
വ യം
ശ ൌ
ശ കാര
സ സ്തന
ാ ഹ്
ാ ണോ
ൊ മ്പ
ർ ബുദം
ന് ദേ
ക് ടോ
ക്ക യര്
ള് ച്ച
സ് പാ
സ് രോ
തി ർ
തി ത്തിരി
വി റ്റ
വി പ്പിക്കുക
ണ്ട ുകള്
പ്പ ിക്കാത്ത
നി ഗ്രഹ
റെ യില്
രി ക്ക്
വാ ടുക
തു ഴ
തു മ്മ
തു പോലെ
ടെ ലി
കാ രു
കാ ട്ടുക
മായ ും
കു ത്തിയ
കു മാര
ല്ല ം
രം ഗം
റ്റ ിൽ
ചെ ങ്ക
ചെ വിയ
പു ല്
ിച്ച ാല്
കൊ ങ്ക
കൊ ഞ്ച
താ ജ്
താ ര്യ
താ റാ
െങ്ക ിൽ
നാ ഡ
നാ ടു
നാ ണം
നാ ഴി
വ്യ ോ
ഭാ ര്യാ
പോ രാ
പോ സ്റ്റ്
പോ ര്ത്തു
പോ കാന്
യാ മ
യാ ണു്
യാ ണോ
സ്ഥ നായ
സാ ന
സാ നു
പി ണ്ഡം
വര യ്ക്കുന്ന
വ് വത
കൂ ര്
ന്ത ള
ന്ധ ്
മൂ ക്കില്
നെ റ്റ്
പൂ രം
ചി രിച്ച
രോ ടെ
തിയ ോ
ഉപ മ
യി ട
കള ാണ്
കള പ്പുര
കോ പി
സു വര്ണ്ണ
സു ഗ്രീ
നീ ണ്ടു
എന്ന ോട്
ഏത ൊന്ന
ഴി വ്
ബാ ബ്
മര ക്ക
ജീവി ച്ച
കൊണ്ട ിരിക്കുന്ന
ാവ ട
പേ രുള്ള
കൈ മാറ്റ
വെള്ള ത്തിൽ
ശു ഭാ
അനു സ
പുറ പ്പെടുന്ന
പുറ പ്പെടുക
ജി ക്ക്
ഗോ ട്ട
കാര്യ ത്തിനായി
ഇട ുന്നു
നല്ല ത്
വയ ര്
ഭാഗ ിക്കുക
ഭാഗ ത്തുള്ള
പ്രാ ര്ഥ
പ്രാ പിക്കുക
നൂ റ്റി
രേ യും
ആയ ിരിക്കുന്ന
ചൂ ണ്ട
ചൂ താ
സാര ാംശം
ദീ ക്ഷ
നിര് വഹ
ബുദ്ധ ിയുള്ള
കൊണ്ടു വരിക
മാസ ിക
ചെറു തും
സമ് പൂര്ണ്ണ
സ്ഥല ങ്ങളില്
സ്ഥല ത്തേക്ക്
അയ ച്ചു
ശാസ്ത്ര ത്തിന്റെ
ശാസ്ത്ര ജ്ഞ
രേഖ പ്പെടുത്തുക
ശബ്ദ ത്തോടെ
ഒന്ന ാമ
വരു ത്തി
ദുര് ജ്ജനം
ആല സ്യം
മൃഗ രാജാവു്
നിറഞ്ഞ ത്
പ്രേ ത
ഡോ ള
പിടി പ്പിക്കുന്നു
വരാ ണ്
അംഗ വൈകല്
കറ ങ്ങുന്ന
്ട്ട ്
ദ്വീ പി
കരി ങ്ങാ
മനോഹര മായി
ഫ്ര െ
മണി പ്പൂ
വലി ച്ച്
ഓരോ രുത്ത
ബഹു മാന്യ
ഗണ പതി
സംബന്ധിച്ച ത്
ലേഖ ന
പഠി പ്പിക്കുന്നു
ആശ ങ്ക
നവ താ
നവ ദുര്ഗ്ഗ
കൊല്ല ന്
പ്പൂ വ്
ഇന് റ
വിക സന
കട്ട ിലില്
ഉര ച്ച്
മനസ്സിലാ ക്കുക
ചൈ നീസ്
തില കം
തവി ട്ടു
വാങ്ങ ിച്ചു
പ്രിയ നായ
പ്രിയ പ്പെട്ട
പത്ത ാം
വാള് പയ
തട്ട ു്
ഗാന്ധി ജിയുടെ
കാമ ുക
ജൈ നന്
തൈ ലം
ത്തിലാ ക്കുക
ബഹ ള
മിനു സം
അമ് മായിയ
ദായ കമായ
ആര് ക്കും
അരു ണ
ക്കുറ ിച്ചു
ഏര് പ്പെട്ട
പേര ില്
കുഞ്ഞി ന്
വെടി മരുന്ന്
ഏഴ ും
പന്ത്ര ണ്ടു
യിലാ വുക
സ്റ്റേ ഷന്
യോജ ിച്ച
ക്രീ ം
മധു രം
വിഷ്ണു വിന്റെ
ഞായ റാ
െന്ന ുള്ള
ദുഷ് കര്മ്മം
കഷണ ങ്ങള്
ഏതൊരു വനാണ
അധീനത യിലുള്ള
ഇട്ട ിരിക്കുന്നു
ദ്രു ത
കല്ക്ക രി
നവര ത്നം
നെല്ല ിക്ക
ജപ മാല
നേപ്പാ ളി
ആഴ മേറിയ
മിശ്രി ത
മില്ലാ ത
ർദ് ദം
കൊഴു പ്പ്
കരസ്ഥ മാക്കുക
ിക്കിട ക്കുന്ന
പുറപ്പെടു വിക്കുക
വികാ സം
ഭോജ ിയായ
അഫ് ഗാനി
അസ് വസ്ഥ
ഉചിത മല്ലാത്ത
മൂർച്ച യുള്ള
തണ്ണി മത്തന്
കടിഞ്ഞ ാണ്
ഉമിനീര് ഗരന്
ഉഷ സ്സു്
പുരോഹി തന്
ഉടമ്പ ടി
ദാരിദ് ര്യം
ഊഞ്ഞ ാല്
ഉദാസീ ന
റവാ ണ്ട
പിണക്ക ത്തിലാകുക
പാശ്ചാ ത്യ
പങ്കാ ളി
കരിങ്ങാ ലി
അ ഖ
അ ഗ്ര
അ സര്
അ യോഗ്യമായ
അ യുക്ത
ആ കെ
ആ റും
ആ പ്പീ
ആ ധികാര
ആ പ്പിള്
ഇ മ
ഇ ന്തോ
ഇ തിനെ
എ പ്പോഴ
എ പ്രകാരം
ഏ ജന്
ഓ ട്
ഓ ടുന്ന
ഖ ജനാ
ഗ ദ
ഗ തം
ച ളി
ജ ക
ജ ൊ
ട ര്
ട ്യു
ഡ ൈ
ണ ിയുടെ
ത മോ
ത ട്ടുക
ത ന്നി
ദ ളി
ധ ാമ
ന ടി
പ ും
പ ചാര
ഫ ര്
ബ ൃ
ബ റി
ബ ിലി
മ നം
മ റിയ
മ റിയുക
യ ൊ
യ ത്തില്
ര തി
ല ായ
ല ത്തെ
ല മെ
ൂ രം
ോ ത്സവം
ന് തു
ന് തുള്ള
ത് യോ
ത് മീ
ത് മാവ്
ത്ത ര
പ് യൂ
ുക ഴിഞ്ഞ
ിക്ക യ
ിക്ക ന്
ിക്ക ഷണം
ായ ന
സ് കാന്
ിയ ്ക്ക്
ട്ട ക്കാരന്
വി ത്ത
പ്പ ടം
മാ ധ്യ
മു ങ്ങ
പ്ര മാണ
തു രു
കാ രുടെ
കാ തില്
കാ ലിൽ
കു ്
കു സു
കു മിള
ചെ ടിയില്
ിക ി
ിക ളിൽ
ിക്കുന്ന വൻ
കൊ തി
കൊ തു
കൊ തിയ
കൊ ത്തിയ
താ വായ
സം ശയം
നാ വ്
നാ ഗ്
നാ ക്കു്
നാ ശിനി
ത്ര ന്
പാ ന
വ്യ ജ്ഞ
ഭാ സം
അവ സരം
യ് ക്കാ
വേ ലി
വേ രു്
നു മായി
യാ ന്
വസ്തു വിന്
സാ ന്ദ്ര
മ്മ ി
പി ശാ
പി ണ്ടം
വര ായ
കൂ ന
കൂ ടുക
ന്ത ർ
സി ന്ധി
ങ്ങള േ
മൂ ട്ട
വെ ട്ടുന്ന
പൂ ക്കൾ
ക്കുന്ന തിന്
റി ക്ഷ
രോ ഹ
വ്യക്തി കളുടെ
കം ബോ
കി ച്ച്
ദി നി
ദി ത്യ
നട ക്കും
കള ിക്കാര
മ്പ ുള്ള
വള യം
പ്രവര്ത്ത ിക്കുന്ന
ശാ പ
പറ ിച്ചു
പരി വര്ത്തനം
കേ ട
കേ ണ്ടി
ക്കു ടം
പൊ ക്കിള്
നിയ ായി
തോ ടെ
ഗു ളിക
കുറ വു്
സൂ ചിക
ശ്ര ോ
ഭൂ തം
കള് ള്
രൂ പാ
കാല ികളുടെ
സാധ രണ
മോ ണ
ത്രി ഫല
ത്രി പുര
ക്കാ ൾ
ിയായ ിലെ
ജാ ഗ
രുടെ യും
ഉള്ള ിൽ
ഉള്ള തു്
പുറ വും
പുറ ത്തേയ്ക്ക്
തൊ ടുക
വായ ിക്കുക
ട്ടിയ ിൽ
ിക്കു ന
ിക്കു ന്
കാര്യ ത്തിന്
തരം ഗം
സന് ദേശം
എന്നിവ ട
ഖ്യ ാ
സര് വേ
ിലാ ക്കുക
സേ ഷ
എഴു പതും
പ്രാ പ്തി
ചില വഴ
നില നില്ക്കുന്ന
ഗാ ഢ
ഗാ ൺ
ദാ ഹ
ചൂ ത്
അഭി മാന
അമ്മ ൂ
വിഷ ാ
തേ യ്
തേ യില
തേ നീച്ച
അപ വാദം
ജീവ നുള്ള
പഞ്ച േന്ദ്രിയ
തുക ാരണം
യായ ും
തൂ ണു്
സോ ഫ
വാദ കന്
കും ഭം
കണ്ണ ട
ത്വ മുള്ളവന്
ിയാ ക്കുക
അയ ൽ
മൊ ട്ട
നക്ഷ മത
താമസ ിക്കുന്നവന്
ഉണ ക്കിയ
ജോല ിയിൽ
പൂര്ണ്ണ മായി
അമ്പ തും
ക്രമ ത്തില്
മുഴു വനായ
മറ ന്നു
ഒന്ന ില്
ഒന്ന ിലധികം
ക്ഷേ പണം
ചോ ളം
ദുര് ഗ
ആവശ്യ പ്പെട്ടു
ഭൂമ ിയിലെ
സാമ ർത്ഥ
ളിയ ം
അം കം
ഫ് രാ
കൂട്ട ായ്മ
രാഷ്ട്ര പതി
ബുദ്ധി മാന്
ഉണ്ടാകുന്ന ത്
ബീ രിയ
സർ പ്പ
ഗര് ഭം
സ്താ ന്റെ
മണ്ണ ില്
രണ്ടാ നമ്മ
ഇള ക്കുക
ഇള വ്
പുഷ് പ്പം
നഷ്ട മായി
എന് താണ്
അമേരിക്ക ന്
അന്ത ർ
ത്യാ നി
കൂട്ടുക ാരി
രാജാ വിനെ
ധിപ ന്
ബെ ലര്
ഒട്ട ിക്കുക
വിശ്വസ ിക്കുക
ഇരുപത്തിയ ഞ്ച്
ബ്രാഹ് മി
പ്പുക ു
അനുഭവ ിക്കുക
വിദഗ് ധ
തീര് ന്നു
മൌ ല
മത്സ ര
ലോഹ ത്തിന്റെ
ചെട ികളുടെ
പിതാ വിനെ
മുഴുക ുക
ഹിന്ദു ക്കളുടെ
പ്രകാശ മില്ലാത
മാനി ച്ചു
ഗാന്ധി ജി
ിലു ണ്ടാകുന്ന
കുടു ങ്ങി
പ്രകൃതി ദത്ത
അയാ ളെ
യഥ ാർത്ഥ
മാന്യ ത
അഴു ക്ക
പൂച്ച െ
ഇന്ദ്ര ന്റെ
കിര ണ
ഇഴ ജന്തു
മുന യുള്ള
ശിഖ ര
ശിഖ രം
ഇംഗ് ളീഷ്
സഹോദര ന്റെ
ആജ്ഞ ാപ
ലൈ ംഗ
ഗമ ിക്കുക
പിത്ത ള
ഭര്ത്ത ാവ്
നിര്ത്ത ുന്ന
രച ിച്ച
നിക്ഷേ പ
സാക്ഷ ്യ
മുന്നേ റുക
ഉദ്ദേശ ്യ
കുശ വന്
കർമ്മ ം
ജനാ ധിപത്യ
മഹാരാജാ വിന്റെ
പ്രകട നം
പട്ടാള ക്കാരന്
മിച്ച ം
സുരക്ഷി ത
പിന്നീ ടു
ജോര് ജിയ
സൌന്ദ ര്യം
ലൌ കീക
അദ്ധ്യാപ ിക
കാൻ ഹട
കുറച്ച ാള
താല്പ ര്യം
പാരി തോ
ചില് ല്
അശോ ക
കഷ ായം
പ്രസാ ദ
ബനാ റ
സത്യസന്ധ ത
മഹാരാഷ്ട്ര യിലെ
താരതമ ്യ
താരതമ ്യം
ആളി ന്
മഹർ ഷി
വൈഷ്ണ വ
ഇവിട ത്തെ
അവഗണ ിക്കുക
ശരീരാ ന്തർ
ബ്രഹ മ
കപ ില
നൂലു ണ്ട
കളിക്കോ പ്പുകള്
ധ്ര ൂ
കീടാ ണു
ഗന്ധര് വനന്
പ്രദര്ശ ന
അന്തി മ
നിര്ദ് ദയ
കോണ്ട് രാ
ഭാഗവത ത്തിൽ
ക്രിസ് ത്യാനി
ഉപദേ ഷ്ടാവ്
പരവ താ
ഏര്പ്പാടാ ക്കല്
സംയമ നം
തസിക ി
അസര് ബൈ
ഇന്തോ നേ
അ ത്തി
അ സി
അ കാല
അ ക്ര
അ ടുത്തു
അ തുകൊണ്ട്
അ ദൃശ്യ
അ സ്പഷ്ടമായ
ആ റ്റ
ആ ഗ്
ആ ടുക
ഇ നി
ഊ ഷ്
ഋ ണ
എ റിയുക
എ ങ്ങിനെ
ഏ ല
ഏ ങ്ങല
ഒ ൻ
ഒ ട്ടു
ക ില്
ക ില്ല
ക ദം
ക മ്പോ
ക ിയാ
ക ത്രിക
ഖ ്യം
ഗ ന്
ഛ ർദ്
ജ ിയന്
ഡ ിൽ
ഡ ബ്ബ
ത നായി
ദ ൻ
ധ ്യം
ധ ാരണ
ന ാരി
ന ശീ
പ ദ്യ
പ ിച്ചി
പ ല്ലി
പ ങ്കു
ബ ധിര
മ ിക്കുന്ന
മ റി
മ യായ
മ സ്തി
യ നം
യ ക്ഷി
യ ക്ഷന്
റ ാണ്
വ യാകുന്നു
ശ ക്ത
ശ ല്യ
സ ൽ
സ ന്റെ
സ റി
സ രോ
ീ കരണ
െ ഴു
ോ ള്
ോ ടും
ർ ഷ
ർ ത്ത്
ൾ ല
ന് ത്രം
ിക്ക േ
സ് കെ
സ് മൃ
വി വര്ത്ത
വി ലെ
വി ജ്ഞാനം
ള്ള ുക
നി ഷ്ട
നി രീ
നി ഷി
ാര നായ
മാ ഘ
മാ ക്ക
മാ ളിക
മു ട്ടുന്ന
മു ങ്ങിയ
റെ ക്കോ
പ്ര ജ
പ്ര ഭാവ
ങ്ങ ു്
ങ്ങ ുന്നത്
വാ സ്
വാ ലു
വാ ലുള്ള
കാ ഴ്ച്ച
കു നി
ക്ഷ ര
ക്ഷ രം
റ്റ ിയില്
ചെ ം
ചെ മ്പിന്റെ
ിക േ
കൊ ടും
താ കുന്ന
നാ മി
ലി നു
പാ ള
പാ ന്
ഭാ ംഗ്
ടി ച്ച്
അവ യെ
ഞ്ഞ ത്
യാ ജ്ഞ
വസ്തു വും
പി ന്നെ
വര ില്
ങ്ങള േയും
ങ്ങള ുണ്ട്
മൂ ര്ത്ത
നെ ഞ്ച
ശ് ചിക
രോ മാ
കി ടാ
ഉപ ായം
ഉപ കാരം
ത്തെ ടുത്ത
നായ ുള്ള
ജീ വാ
ദി ര്
കള ിച്ചു
കള യുന്ന
തെ റ്റു
കോ രുന്ന
നേ ടുന്ന
പെ യ്
ശി വലി
പറ ന്നു
പരി ഭ്ര
കേ ണ
കേ ശ
കേ ട്ടുക
ബാ ഗ്
ക്കു ര
ക്കു ഴി
സമ ർ
പൊ ഴിയ
നോ ക്കുന്നു
കട ും
ാം ശ
ടിയ ാണ്
തോ ന്നി
ദം ശ
ജീവി കളെ
കാല ത്തു
പേ ശി
മോ തിര
ക്കാ തിരിക്കുക
രൂപ മില്ലാത്ത
വ്യാ ജ
സ്ത നം
ജന ത
ജന ിക്കാത്ത
ിക്കു ട
മാര് ക്ക
കാര്യ ത്തിൽ
കാര്യ സേഷ
വൈ ക്കോല്
നല്ല രീതിയിൽ
മന സില്
എഴു പത്
വയ റി
നൂ റു
ചില വാ
പ്പിക്കുന്ന തിനായി
നില ത്ത്
നില നിന്ന
മീ റ്റ
രക്ഷ കന്
പ്പു ല്ല്
പിട ിക്കുന്നു
സ്സ ും
അന ൌ
സംഖ്യ കള്
പോലെ യിരിക്കും
ജീവ ജാല
വട ക്കന്
മ്പി ൽ
നിര്മ്മി തമായ
കർ ണ്ണ
നിര പ്പ്
മുള ള
വിര ഹ
ഗീ ര്
സമ് പാ
അടു ക്കും
ത്വ ക്ക്
മല്ലാത്ത ത്
മാര ിൽ
യായി ട്ട്
ഗന്ധ ർ
ശാസ്ത്ര ത്തില്
പാട ുന്നു
പാട ില്ലാത്ത
ജോല ിയും
ജോല ിക്കാര്
ജോല ിക്കാരി
ചിത റി
ക്രമ ണം
മുഴു വനായി
വരുന്നു ണ്ട്
ചുറ്റ ുക
പൌ ർണ്ണമി
കൂടിയ ത്
ബ്ര ോ
ക്ഷേ മം
പ്രത്യേ കിച്ച്
കറു പ്പു
നാട ്യ
മൃഗ ങ്ങള്
സൂക്ഷ ിക്കുന്നു
പ്രസിദ്ധ ീകര
ക്കൂ ട്
കുറ്റ വാളി
കഴു ത്തില
ശരിയ ാക്കുക
ഫ് രാന്
സ്വീ കരിച്ചു
നന്ന ാക്കുക
കണ്ടു വരുന്ന
ഗര് ജ്ജ
റേ ഷ
തെറ്റ ുക
നല്കുന്ന ത്
തുന്ന ി
ക്കേ ണ്ടി
പുഷ് പം
ത്തിയാ റ്
സുര നെ
പത നം
അനുക രണം
സംസ് കാരം
ഭോ ജ്
ഭോ ജന
തയ്യാ റെ
നിർമ്മ ിക്കുന്നു
ഉപേക്ഷ ിച്ചു
വിദ്യാ ർത്ഥ
അഹ ങ്ക
വംശ ജര്
മുണ്ടാ ക്കുക
ചക്ര മുള്ള
പുസ്തക ത്തില്
പുസ്തക ങ്ങള്
മണ്ഡ പ
ധാന്യ ങ്ങള്
ഗൌ രി
വസ്ത്ര ത്തിന്റെ
ഭ്ര ഷ്ട
പടിഞ്ഞാ റു
തയ്യാറാ ക്കുന്നു
വിദഗ് ധന്
പങ്ക െടു
മൌ റീ
സ്വര ൂപ
വിക സ
വിക സി
വാര് ദ്ധ
ഉണ്ടാക്കിയ ിരിക്കുന്ന
മനസ്സിലാ ക്കി
തര് പ്പണം
പരാ തി
വണ്ട ിക്കാരന്
ശക്തിയ ായ
പട്ടണ ത്തില്
പരിശീല ന
ഉഴു ന്ന്
ഉഴു വുക
നശ ിക്കുക
ഓടി പ്പോയ
ദാന വന്
കഠിന മായി
അനുകൂല ത
വിരി പ്പു
ഗ്രന്ഥ ങ്ങളില്
കടു പ്പമുള്ള
പച്ചക്ക റിയ
പായ ല്
അഷ്ട മി
ുകാ രുടെ
ചിറ ക്
കഴിയുന്ന ില്ല
കുഞ്ഞി ന്റെ
തീവ്ര വാദ
സ്ഥാ നാ
എത്ത ിക്കുക
മാണ ുള്ളത്
ഇല്ലാതാ വുക
വറു ക്കുക
ഭ്രാന്ത ായ
ആട്ടി ന്
ആട്ടി ടയന്
ചാരി ണി
അലി ഞ്ഞു
ത്തീ റ്റ
പ്രസ്താ വിക്കുക
ലംഘ നം
മിഥ ുന
വിലാ സം
ലജ്ജ ിക്കുക
പ്പെട്ടി ട്ടുള്ള
ഉദാ ഹരണ
നൌ ക
ഭീരു ത്വമുള്ളവന്
ഉത്പന്ന ങ്ങള്
ന്യായാധിപ ൻ
പവിത്ര മായ
ബിരു ദ
കബ ളി
അഭ ിലാ
സ്രാ വം
പള്ള ി
ഭീഷണി പ്പെടുത്തുക
ഹാജ രാ
അംഗീകര ിക്കുക
എത്തിച്ചേ രുക
ചെമ്മരിയാ ടു്
എഴുന്നേ റ്റു
അക് ബ
വിരൂപ നായ
രക്താ ണുക്കള്
സ്ഫോട നം
അഭിവൃദ്ധ ി
ശ്രേഷ്ട നായ
സമര്ത്ഥ നായ
കഴിയുക യില്ല
അത്ത ർ
മതാ നു
വ്യവ ഹാരം
പാണ്ഡി ത്യം
യൂണി റ്റ്
ഛായ ാ
ട്രി നി
താമസി ച്ച്
മാംസള ത
പക് വത
സാങ്കല്പ ിക
മരണാന ന്തരം
സ്വേച്ഛ ാധിപ
ഇനിയ ും
ഉപ്പൂ റ്റി
മാഹാ ത്മ
കർപ്പൂ ര
ലജ് ജാ
മഹാമനസ് കത
മാപി നി
ഗര്ഭി ണി
അരുണാ ച
അറേ ബ്യ
ആവണ ക്ക്
ശരീരാന്തർ ഭാഗം
സ്കെ യില്
കാര്യസേഷ ിയുള്ള
അ പ്ര
അ നീതി
ആ ചമ
ഇ തേ
ഊ റി
ഊ ഞ്ഞാ
എ ത്യോ
ഏ ഷണ
ക ശ്യ
ക ഞ്ഞി
ക ല്ലി
ഗ യാന
ച വണ
ജ യി
ഝ ു
ട ക
ട ക്കുക
ഡ ൊ
ത യായ
ദ ന
ന ല
ന മീ
പ ൃ
പ തിയ
പ ണ്ടി
മ ുക
മ റ്റെ
യ മുന
റ ിലുള്ള
റ ങ്ങി
റ പ്പിച്ച
ല കം
ല നായ
ള വാക്കുന്ന
ഴ ാ
വ ിക്കുന്ന
വ ധം
വ കാശം
വ തിയായ
സ തി
സ ദൃ
ഹ ഠ
ഹ ്ര
ാ വുക
േ റ്റം
ോ ള
ോ ൽ
ർ വ
ന് മാരെ
ക് യൂ
ക്ക ട്ടി
ത്ത ല
ത്ത ായ
പ് റ്റ
ിക്ക ായി
ായ ുടെ
സ് മരണ
തി നി
വി ജ്ഞ
വി ശാഖ
വി ശിഷ്ട
നി ങ്ങൾ
മാ നേ
മാ ണു
മാ ന്തി
മാ നിയായ
മു റ്റ
മു ക്കി
റെ ഡ്
രി തമായ
പ്ര ൌ
പ്ര സ്
വാ ച്ച്
തു ണ്ട്
തു മ്പ
തു പ്പുക
കാ ത്തി
കാ ർത്തി
മായ ുള്ള
ക്ഷ ത
ിക്കുന്ന യാള്
പു ്
പു ഷ്ട
പു ല്ലിന്റെ
കൊ മ്പു
ിര സം
താ ലി
നാ ദ
നാ സി
നാ ളിക
പാ ം
പാ ക്കി
പാ വാട
ടി നെ
വേ ശ്യാ
യാ ജു
ചെയ്യ രുത്
ണി ച്ച്
ങ്ങള ായ
നെ റ്റി
വെ ട്ടിയ
ക്കുന്ന വൻ
വീ ക
ചി ത്രാ
ഉപ ദ്രവം
ദ്യ ു
കോ ഷ്ഠ
ഏത െങ്കിലു
ശാ വകം
പറ ിക്കുന്നു
ചു രണ്ട
പരി ഹാര
കേ യ
കൃ തിയില്
നിറ ച്ചു
നോ ല്
വൃ ശ്ചിക
ഗ്ര സ്
മഹ ത്ത്
അതി ശ
അതി ക്രമ
ഗു ലാ
ഗു ലു
ഗു സ്തി
പ്പെട ല്
കാണ േണ്ട
ംഗ ന
പേ ശ
പേ ടിച്ചു
സാധ ്യ
പര ന്നു
മോ സ്കോ
കൈ പത്തി
ക്കാ ക്ക
ക്കാ ളി
ിയായ ിരുന്നു
വെള്ള വും
ധി പതി
ികള ിലും
മുതലായവ യ്ക്ക്
സംബന്ധ ം
ഉള്ള ം
റ്റി ന്
തൊ രു
തൊ ട്ടുക
ജി ത്
ഇരു മ്പ
കീ റുക
കീ യമായ
ന്ത്ര ീക
വൈ ദഗ്
മനുഷ്യ ര്
മില്ലാത്ത വന്
പുരാണ ങ്ങ്
വയ ൽ
വയ റ്റില്
സ്വാ ര്ഥ
ഭാഗ ത്തും
മെ ത
മെ ല്ലെ
പ്രാ പിച്ച
പ്രതി ഭ
പ്രതി പാദ
പ്രതി ഫല
തര ത്തിലും
കുട ിക്കുവാന്
പ്പിക്കുന്ന ത്
തുട ങ്ങുന്ന
രക്ഷ പ്പെട
ഗാ വ്
വില ുള്ള
വില യ്ക്കു
ദാ ബാദ്
മുഖ ാന്തി
മുഖ സ്തുതി
നടത്ത ും
നടത്ത ിക്കൊണ്ടിരിക്കുന്നു
ബി ന്റെ
അഭി നയം
പ്രദേശ ത്തിന്റെ
ഗ്രഹ ണ
തട സം
ഉറ ങ്ങ
യോഗ്യ തയുള്ള
പെട്ട െന്നു
വിശ് വാസി
കഴിയ ാതെ
പക്ഷ പാതം
സീ താ
അള വു
തൂ ക്കുക
തൂ ങ്ങി
കൊണ്ടു വന്നു
മുള ച്ചു
മുള യ്ക്കുക
തന്നെ യാണ്
ണ്ടായ ിരുന്ന
മുകള ിലോ
വിര ക്തി
എണ്ണ പലഹാരം
പര് ണ്ണ
പര് വ്വത
സമ് മാന
അറിയ ാവുന്ന
അടു പ്പില്
ക്കാര് ക്ക്
സ്ഥല ത്തും
സ്ഥി തിയില്
അയ ഞ്ഞ
ഉണ ങ്ങി
പാട ുകള്
സാധന ത്തിന്റെ
കിട ന്ന്
ചിത നായ
പൂജ യ്ക്ക്
ചുമ ടെ
ഒന്ന ോ
ഒന്ന ിച്ചു
കുട്ടി ക്ക്
കൂടിയ തും
നിയമ പരമായ
സങ്ക ല്
മല യ
ഇല ക്
സിം ബ്ബാ
ചന്ദ്ര നെ
ഹോ ട്ട
ിരിക്കുക യായിരുന്നു
മൃഗ ങ്ങളുടെ
മൃഗ ശാവകം
അറി വില്ലാത്ത
അറി വില്ലായ്മ
ഭൂമ ിയ
പിടി പ്പിച്ചു
സഹായ ിക്കുക
ചീത്ത യായ
വിധ േയ
അംഗ ീകരിച്ച
എന്ത ോ
മുപ്പ ത്
കലാ ശാല
മരണ ാ
കുറഞ്ഞ ത്
സംഭവ ങ്ങള്
വശ ത്താ
വശ ത്തും
പരീക്ഷ യില്
തിള ക്കമുള്ള
വിയ ർ
റേ തായ
കഴിഞ്ഞ ിരിക്കുന്നു
ാട ക
അദ് വൈത
അറു പതും
വലി പ്പ
ക്കോ ട്ട്
പത ിക്കുക
കര്ത്ത ാ
വെളുത്ത തും
സേന ൻ
സേന യിലെ
കൊടുക്കുന്ന ത്
ിക്കൂ ട്
ഗണ ങ്ങള്
പ്ത ത
കപ്പ ൽ
പൊട്ടി പോയി
കൊല്ല ം
സാഹ ചര്യ
വിശ്വസ ിക്കാവുന്ന
നയ തന്ത്ര
തള ിക
പറയ പ്പെടുന്നു
പറഞ്ഞ ിരിക്കുന്ന
ശൈ വ
വസ്ത്ര ങ്ങള്
നാഥ ന്
പുറത്താ വുക
എത്തി ച്ചു
നാലു പാടും
പടിഞ്ഞാ റെ
ിയു ണ്ട്
ശര ണം
പാത്ര ങ്ങള്
തള്ള ി
ചെട ികളെ
മരുന്ന ാണ്
കാരണ മായ
വിശ പ്പ
നിഷ് കളങ്ക
സിംഹ ള
സംഗീത ജ്ഞ
സംഗീത ജ്ഞന്
സാരം ഗ
രമേ ശി
മാനി ച്ച
വ്യക്ത മല്ലാത്ത
അടിസ്ഥാന മില്ലാത്ത
ിക്കേണ്ട താണ്
വീട്ട ിലേയ്ക്ക്
മാംസ ളമായ
തീർ ഥങ്കരൻ
കെട്ട ുന്നു
ഉല യുക
കിര ീ
ധീ രനായ
പതിന ഞ്ച്
പതിന ൊന്ന്
മറു പടി
പുള ിരസം
ഇല്ലാതാ ക്കുക
കൂട്ടിയ ോ
കൂട്ടിയ ാല്
യോജി പ്പ്
ഹരിയ ാന
പിര മ്പു്
വർഗ്ഗ ത്തിലെ
ജാതിയില് പ്പെട്ട
ക്ഷേത്ര ത്തില്
സൂക്ഷ് മമായ
ശത മാനം
കമ്മ ല്
ദൂരെ യുള്ള
വിരല ുകള്
ഭർത്താ വിന്റെ
ഉത്പന്ന ം
പർവ് വതം
ജോര് ദാന്
ചര്മ്മ രോഗം
ശുക് ള
കട്ടിയുള്ള വിരിപ്പു
കമ്പ്യൂട്ട ര്
സ്കൂ ള്
സ്കൂ ളില്
പാണ്ഡ വര്
പരാജയ പ്പെടുക
വിരിയ ുന്ന
മുക്കു വന്
പുണ്യ സ്ഥലം
ണ്ടുക ീ
അനുസര ണ
ആട്ട കൊണ്ടുണ്ടാക്കിയ
ചെയ്തിര ുന്നു
പെടുത്ത ുക
വിപ് ല
പൊങ്ങച്ചം പറയുക
രാമായണ ത്തിൽ
കമ ഴ്
പിഴു തെ
മഹർ ഷിയുടെ
ടാന് സാ
പ്രീ തി
അമാ വാസി
അയോ ധ്യ
എന്ജി ന്
ശ്രു തി
തകര ുക
പൊയ് ക
തിങ്ക ളാ
യുനാ നി
ദീപാ വലി
പണിയായ ുധം
മയില ിന്റെ
ബാദാ മി
പൈതൃ ക
ന്ധ് രം
ഞായറാ ഴ്ച
ഉമിനീര്ഗരന് ഥി
ജാഗ രൂ
ഉള്ളതു് ദൃഢമായ
സാമർത്ഥ ്യമുള്ള
പിന്നീടു ണ്ടാകുന്ന
പരവതാ നി
ആഗ് നേ
നിരീ ശ്വര
യാജു ഷി
പുരാണങ്ങ് ലിൽ
മുഖാന്തി രം
സിംബ്ബാ വെ
അ ള്
അ ങ്ക
അ റ്റ്
അ മൃ
അ ഷ്ഠ
ആ വി
ആ ലാ
ആ ന്ത്ര
ആ ഭീ
ഐ ശ്വര്
ഒ രുക
ഓ ട്ടം
ഓ ടു്
ഓ ക്സി
ക ച
ക സ്
ക ത്ര
ക പ്പ്
ക ിലു
ക ല്ലിന്റെ
ച ര്യം
ജ പം
ജ മൈ
ട ർ
ഡ ഗാ
ണ ില്
ത യെ
ത ല്ലി
ധ ോ
പ മ
പ ദി
പ രാമ
ഫ യല്
ബ ട്ട
ഭ ണ്ഡ
മ ൽ
മ ങ്ങിയ
മ ഡഗാ
യ മുള്ള
യ നായ
ര ൽ
ര സി
ര ശ്
ര ഘു
ല ു്
ള ിലെ
വ നാണ്
ശ ുക
സ ലി
സ ജ്
സ ബ്ര
ഹ ത്യ
ഹ വനം
ാ ണു്
േ ല്
േ രം
ക് ലേ
ക്ക ലം
ക്ക ളി
ക്ക ളു
ത്ത ന്
പ് ലാ
ിക്ക ത്തക്ക
ിയ ിരിക്കുന്നു
തി ന്നി
വി വശ
വി ണ്ടുകീ
പ്പ ായി
പ്പ ഴത്തിന്റെ
നി ങ്ങള്ക്ക്
ാര നെ
മാ ജ
മാ ക്കപ്പെട്ട
മാ ദിത്യ
ച്ച വട
ണ് ഠി
മു ത്ത്
മു ടിയ
മു ദ്രാ
രാ ത്ത
വാ ക
വാ ലി
വാ മന
വാ ക്കിയ
വാ ത്സ
കു മ്പോള്
ത്തി നോട്
ചെ യുന്ന
ിക ൊ
പു സ്
ിച്ച ാൽ
നാ ഗം
ലി ൻ
ലി ബിയ
പാ സ്
പാ വ്
അവ ലോക
പോ ളീഷ്
യാ ൽ
യാ ളി
ചെയ്യ ാതെ
പി ടിയ
വര ന്
കൂ ര്ത്ത
ണ്ടാ ണ്
ന്ത ിയ
മൂ ല്
മൂ ര്
യോ ധന
വെ യ്ക്കുന്ന
വെ ച്ചി
പൂ ങ്കാ
ക്കുന്ന വന്
മുള്ള ുകള്
ഗ് ളാ
ചി താവസ്ഥ
കി ര്
ഉപ ന്യാസം
കര ണ്ടി
ങ്ങള് ക്കു
ജീ ൻ
കള ിക്കാരൻ
വള യുക
വള ർന്ന
ലാ മ
ലാ ത്തി
ലാ ടം
കോ ഴി
കോ ണാ
തീ ക
തീ ണ്ട
സു ല്
ബന്ധ ി
പെ ട്ട്
ശാ ഠ
ശി ഷ്യന്
പറ ഞ്ഞാ
ബ് ള
ചു ളി
ചു മര
വല യിലാക്കുക
പരി പാ
പരി ജ്ഞാനം
പരി വർത്ത
കേ വലം
ബാ ലി
ക്കു തിര
ക്കു വാനുള്ള
സമ രം
സമ ത്വ
പൊ തിയ
പൊ ക്കമുള്ള
പൊ ളിക്കുക
അതി ലും
ഗു രുക
കുറ ിക്കുന്ന
സൂ രി
ജീവി കള്
ധിക മോ
സാധ ിക്കില്ല
കൈ പ്പ
കൈ മാറ്റം
കൈ വശ
കുന്ന ത്
ഭി ത്തിയില്
ികള ുള്ള
ലോ മ
അനു വാദം
ചേ തം
ചേ ര്ക്ക
ചേ ർന്ന
ചെയ്യുന്ന തില്
സ്ത്രീ യെ
പുറ ത്തി
തൊ ട്ടില്
ജന ങ്ങള്ക്ക്
വർ ഗ്ഗം
കെ ടുത്ത
ക്ര മീ
ഗോ സ്
എന്നി വര്
പല ായനം
ഇട ിക്കുക
വൈ ക്കോ
സന് ദേഹ
സന് താനം
ചാ ല്
ഭാഗ ത്തെ
ഭാഗ ത്തു
പ്രാ സം
കൊടു ക്ക
ായ് വ്
പതി പ്പിക്കുക
അട യ്ക്കുന്ന
വിള ിക്കുന്ന
ലു വായ
പ്പെടുത്ത ാത്ത
ഗാ ണ്ട
ന്ദ്ര ന്
അല മാര
മുഖ ത്ത്
വന്ന ില്ല
തേ ടി
തട വു്
ശരീര ത്തിന്
കല ിയു
വില് ക്കുന്നു
പുത്ര നായ
ദീ പം
ഉയ ര്ത്തി
യില ോ
തൂ ണ്
തൂ ങ്ങ
വാദ കൻ
വിര ിക്കുന്ന
കുഴ ിച്ച
എണ്ണ ത്തിൽ
പ്രത്യ യം
എടു ത്തി
മാസ ത്തിലുള്ള
ര്ഥ ി
അറിയ ി
അടു പ്പം
ഇഷ്ട പ്പെടുക
ഭീ ഷ്മ
അധ ര
മൊ ബൈ
മധുര ക്കിഴങ്ങ്
പൂജ ്യ
ചുമ ത്തുക
ഒന്ന ാകുന്നു
ബ്ര ഷ്
ക്ഷേ മ
ദുഃഖ ിക്കുക
ദുഃഖ കരമായ
ദുഃഖ ാവസ്ഥ
പുതിയ തായി
വെളു ത്തുള്ള
ചിത്ര ങ്ങള്
ദുര് ഗ്രഹമായ
ദുര് യോധന
മല മ്
സ്ഥാപ ിക്കുക
സ്ഥാപ കന്
മൈ ലാ
ആവശ്യ മുണ്ട്
പെരു മാറുന്ന
സിം ഹ്
ഘട കം
പ്രേ ക്ഷ
ിക്കൊണ്ട ു
ഡോ ക്ട
മുന് പേ
ബാധ ിക്കുന്നു
ികൾ ക്ക്
ളിയ ും
താഴ േക്ക്
ചിന്ത ിക്കുക
ചിന്ത കള്
മോഹ ന
ശത്രു തയുള്ള
ചെയ്ത ത്
ഞ്ഞാ ണം
സ്ഥിതി ചെയ്യുന്ന
വർണ്ണന ക്കൾ
കലാ പ
കരി മ്പിന്റെ
ശേഷ വും
ഫല മായി
കൂട ിക്കാ
രാഗ മാണ്
കണ്ടു പിട
മാം സാ
ആരംഭ ിച്ച
ചതു ർ
അമ ര്ച്ച
തിരി ഞ്ഞ
തിരി കെ
ലോക ത്ത്
നൂല് ക്കുന്ന
ഇള കിയാ
പാര ്ട്ട
ലാന് റ്
ആകാശ ത്തുകൂടി
ഒട്ട കത്തിന്റെ
വംശ ത്തിന്റെ
പൊട്ടി ത്തെ
ആശ യം
നവ ജാത
രസ തന്ത്ര
തൊണ്ണൂ റും
പിച്ച കം
സമൂഹ ത്തിലെ
ഭ്ര ൂണ
ിയു ടേയും
പങ്ക െടുത്തു
മൌ ന
നീള വും
അല് ബാന
ക്രോ ഏഷ്യ
ഷാ ജ
മുഴ ക്കം
മത്സ രാ
പാത്ര ത്തിൽ
പിതാ മഹ
ശേഖ രിക്കുക
ഒഴി ഞ്ഞു
വിത യ്ക്കുക
വിത റുക
വിശ ദ
നിഷ് പക്ഷ
ആരോ പണം
പ്രതീ ക്ഷി
പരാ ഗ്വേ
വണ്ട ിയില്
പ്രകാശ നം
സ്വീകര ിക്കാതിരിക്കുക
തിരഞ്ഞെടു ക്കപ്പെട്ട
ലയ ത്തില്
മുറു ക്കം
നീതി ന്യായ
ദര് ശി
വിവേ ചനം
നിൽ ക്കുക
തപ സ്സ്
കുടു മ
കൊട്ട ുന്നു
സുക ാര്
ദേവന് മാരുടെ
രുച ിയുള്ള
ത്തിനുള്ള ില്
ഗർ ഭം
ഹൂ തി
ഒഴു ക്കി
അഷ്ട ധാതുക്കള്
വിഭാഗ ത്തിന്റെ
ഇന്ദ്ര ജാല
പൂരി ത
ഉല കം
പണിയ ും
പരാജ യം
പ്രാണ ന്
മറു ക്
സ്ഥാ ന്റെ
നിത്യ ഹരിത
ഇരുപത്തി നാല്
എടുത്ത ുകളയുക
മാലി ന്യം
സ്വാര്ത്ഥ ത
മുണ്ട ു്
പോലീ സിന്റെ
അലി വു്
വഞ്ച ന
കൊള്ളയ ടിക്കുക
ഗാന്ധ ാര
സേനാ നി
സംസ്ഥാന ത്തിന്റെ
ചേഷ്ട കള്
കെട്ടിട ത്തിന്റെ
വിദ് വേഷം
സ്ക ന്ദ
ആത്മാ ഭി
പുറത്തെ ടുക്കുക
മുറിവേ ല്
നശിപ്പിക്കുന്ന വന്
ഉത്പാദ ന
സ്വർ ണ്ണം
അപകട ത്തില്
ഡല് ഹ
ഡല് ഹി
സ്രാ വ്
വ്യത്യാ സ
മിശ്രി തം
നിരപ്പാ ക്കുക
കൊലപാത ക
യോദ്ധ ാവ്
േന്ദ്രിയ ം
ഉറു ഗ്വേ
പൂന്തോ ട്ടം
ബുദ്ധിമുട്ട ാണ്
വിക്ര മാദിത്യ
വെടിയു ണ്ട
മഥ ുര
റുമാ നിയ
പെട്രോ ളിയം
പതിനേ ഴ
സങ്കോ ചം
മൂക്കു ത്തി
ശുദ്ധീകര ിക്കാത്ത
ഉപരിതല ത്തില്
ഉല്ലാ സ
രാജസ്ഥാനി ലെ
വാസ്ത വ
ജിജ്ഞാ സു
അസാധാരണ മായ
ഗോളാ കൃതിയിലുള്ള
ആധ്യാ ത്മ
പ്രാഥ മിക
നിന ക്ക്
തീക്ഷ് ണ
അതിര്ത്ത ിയില്
മുഹൂര്ത്ത ം
കുടീ രം
യഹൂ ദ
പ്രലോ ഭ
ഉസ്ബെ ക്കി
സനാ തന
ചെപ്പടിവിദ്യ ക്കാരന്
വാഹി നി
ലാന്റി ക്
അനിശ് ചിതാവസ്ഥ
പാരായ ണം
സ്പാ നിഷ്
വ്യോ മ
ഫ്രെ ഞ്ച്
മുഴുവനായ ും
ട്രിനി ഡാ
മാഹാത്മ ്യം
വിജ്ഞ ാപ
ജമൈ ക്ക
അവലോക നം
ം ശം
അ ശുദ്ധ
അ നിശ്ചിത
അ പ്പുറത്ത്
അ പ്രതീക്ഷി
ആ മാ
ആ വര്ത്ത
ആ വര്ത്തി
ആ വരണ
ഇ ക്ഷുര
ഉ ഗാണ്ട
ഔ ദ്യ
ക ശ
ക റിയ
ഘ ാട
ഘ ാടനം
ച വ
ച ലം
ജ ില്
ജ പ്തി
ഞ ാണ്
ത യ്ക്കുക
ത ല്ല്
ദ ാര
ദ രം
ധ ിയായ
ധ മനി
ന ുക
ന രി
ന ട്ട്
ന കുല
പ ഞ്ഞ
പ ഞ്ജ
ബ ഹി
ഭ ക്
റ ം
ല ഖ്
ല ൂര്
ള ജി
വ നു
വ ലാ
ശ കാരം
ഷ ർ
ഷ ട്
ഷ ഷ്ഠി
സ ല
സ മായ
സ വല്ല
ാ കുക
ി ടുന്ന
ൊ ഴുക
ോ ട
ോ ടു
ർ ക്ക
ർ ക്ക്
ർ ക്കും
ക്ക ിക്കുക
ക്ക മില്ലാത്ത
ുന്ന തിനു
ുക ാല
ര് ത്ത്
ിക്ക പെട്ട
ിക്ക െട്ട്
ിക്ക ഴിഞ്ഞ
സ് വര്ഗ്ഗം
സ് പ്രി
ിയ ക്കാരന്
ട്ട ിയുടെ
രു ത
തി ടുക്കം
നി ന്
നി തം
നി ഴല്
മാ ന്ധ
ച്ച ോ
മു ടിയുള്ള
മു നിയുടെ
രാ മേ
പ്ര ചാരം
പ്ര സംഗം
കാ ഠി
കാ ണിച്ച്
കു ഞ്ഞ
കു മ്പ
ദ് വൈത
റ്റ ുന്നു
റ്റ ിയുടെ
ചെ റ്റ
പു ഞ്ച
കൊ ക്ക
കൊ ട്ടുന്ന
കൊ മ്പു്
ടു ക്കുന്നു
സം ജാ
ലി സ്റ്റ്
പാ ളി
പാ ലു
പാ ട്ടുകാരന്
അവ ശ്യ
വേ ര
വേ ണി
വേ രോടെ
പോ സോ
യാ ക്കുക
ഗം ഭീ
വസ്തു ക്കളും
ചെയ്യ പ്പെടുന്ന
സാ ര്
സാ നം
പി രിച്ചു
ങ്ങള ു
മൂ ക്ക
വെ ന്ത
വെ പ്പാ
ദേ ഹം
പൂ ണ
പൂ ട്ടിയ
പൂ ഴ്ത്തി
ശ് വരി
ഗ് വോ
ചി ങ്ങ
റി നു
വ്യക്തി കളെ
കി രി
കി ണ്ണം
കര ന്
കര ിക്കാത്ത
ദി വാ
നട ്
മ്പ രം
ഉണ്ടാ ക്കും
ലാ വോ
തീ യില്
രിയ ായി
ന്നു ്
നീ ണ്ട്
നീ ട്ടി
നീ ന്തി
പെ ടുക
മേ ധ
രാജ കുമാരന്
തിര യുക
ബ് ധ
ചു ങ്കം
വല ിക്കുന്നു
വല യിൽ
കേ സ്
കൃ ഷണ
നിറ മില്ലാത്ത
ക്കു ല
ക്കു മ്പോൾ
കട ാ
ഞ്ച ാം
കുറ വായ
കുറ യ്ക്കുന്ന
സൂ ഹ
മുതലായ വര്
കാല ു
കാല ുകള്
കാല ങ്ങളില്
പര മ്പ
പര ശു
മോ ക്ഷ
ക്കാ ണോ
ികള ാണ്
ശു ഷ്ക
ഉള്ള തും
റ്റി ംഗ്
അനു മാന
അനു ഗ്രഹ
അനു യായ
അനു ചിതമായ
പുറ കെ
ഉപയോഗ മുള്ള
ഉപയോഗ ിച്ചു
ക്ര ിക്ക
ഗോ ള്
ിക്കു ഴ
ിക്കു രു
മാര് ച്ച്
ഇരു തല
കീ യ
ന്ത്ര ീ
നല്ല തായി
ചാ ട
ചാ ഴി
ശേ ഷി
അധിക വും
ബു ല
മെ യില്
പ്രാ പ്ത
പ്രാ ധാന്യ
മൃ ദം
പതി മൂന്ന്
തര ായി
രേ ാമം
കുതിര വണ്ടി
പ്പാ വ്
നില വിളി
ഗാ മി
വന ത്തിൽ
അല ിയ
ുകൊണ്ട ിരിക്കും
െടു പ്പ്
ബി സാ
അഭി നീതി
അന ന്ദ
അന ര്ത്ഥ
അപ മാന
അപ കടം
തട വിലാ
ജീവ നം
വിവാ ഹി
ഹാ പുസ്
പുത്ര നാണ്
മത ത്തില്
ഡി നേ
അള ക്കുന്ന
ബുദ്ധ ന്
കൊണ്ടു വരുക
യ്ക്ക ാത്ത
വിര ലും
മുറി വില്
കണ് പോള
ചെറു പയറ്
ഇഷ്ട പ്പെട്ട
ഭീ മാ
ീന നായ
വ്യാപ കമായ
യായി ട്ടും
കൊള്ള ക്കാരന്
പീ ലി
കിട ന്നു
പൌ ര
ചോ ള
വരു ത്തിയ
വരു മ്പോള്
തിന്ന ുകൊണ്ടിരിക്കുന്നു
പൈ പ്പ്
ഭാര്യ യുടെ
പറ്റ ിക്കുക
മൈ ഥ
മൈ ല്
മൈ താനം
ഹോ ത്ര
ഹോ മം
ദേവ ിയുടെ
പിന്ന േയും
സൂക്ഷ ിച്ചു
കള്ള ി
പ്രേ രി
അര ിക്കുക
പെണ് കുതിര
ഉണ്ടായ ിരിക്കുക
പാദ ഭൂഷണം
ഭഗ വാൻ
ഫ് ള
അക ത്തുള്ള
ധ് രുവ
സ്പ ർ
കൂട്ട ല്
തുറ മുഖം
പശു വിനെ
അര് ഹ
ദയ വായി
പറയുന്ന തു
ഫല മായ
ക്കള ുള്ള
കുള ിക്കുക
തിള ങ്ങുക
കാര് ഷിക
കിട്ടുന്ന ത്
ആരംഭ ത്തില്
ആലപ ിക്കുനു
ശ്രീ രാമന്
ശ്രീ കൃഷ്ണന്
കരു തുന്നു
ക്കോ ഴി
ശിക്ഷ ണം
അനാ ദര
മാത്ര കള്
പത ിക്കുന്ന
നിയന്ത്ര ിക്കുന്ന
അമേരിക്ക യില്
വല് ക്കരണം
നീര് ക്കാക്ക
നക്ഷത്ര ങ്ങളിൽ
ഇന് ഡ
തൊണ്ണൂ റ്റ
ശിവ നെ
ആശ്ര മം
അഗ്നി ശമന
ബംഗ ാ
വിശ പ്പ്
ഓട ിച്ചു
ഹീന ന്
ചിഹ് ന
നൈ ജീരിയ
സന്തു ല
ഹിന്ദു ക്കള്
പത്ത ൊമ്പത്
വില്ല ുന്ന
സാരം ഗി
പിന് തുണ
ധാരാ ളമായി
പ്രകാശ ിക്കുന്ന
സ്വീകര ിക്കാത്ത
പൊട്ട ല്
ശ്യാ മു
വ്യക്ത മാക്കുന്ന
തെളിയ ിക്കുന്ന
ഹ്യ മായ
ഓടി പ്പോയി
ചെരു പ്പു്
നേതാ വു്
മുട ക്കം
അന്വേ ഷണ
ഒഴുക ി
ബഹ റിന്
നടന്ന ത്
കച്ചവട ക്കാരൻ
കണ്ണി ന്റെ
വക ഭേദം
സൈനി ക
ഷിക ം
അഷ്ട ാംഗ
പാഠ ്യ
മരു ഭൂമി
മരു മകള്
മുത്തശ് ച്ഛന്
പുരുഷ ന്റെ
തിരിച്ചറിയ ുക
സ്ഥാ പി
ആഘോഷ ിക്കുന്ന
പുന ഃ
വാങ്ങുക യും
കൂടിച്ചേ ര്ന്ന
അടിയ ും
അദ്ദേഹ ത്തെ
വ്യവസ ായി
കൂട്ടിയ ി
മഹത്വ മുള്ളവന്
കാശ്മീ ര്
വളര്ത്ത ുന്ന
മണിക്കൂ ർ
വർദ്ധ ിപ്പിക്കുന്ന
പ്രണ യ
അവസര ത്തില്
മായിട്ടുള്ള ത്
ആദി മ
ആദി വാസി
കോട്ട യുടെ
ഇരിപ്പി റ്റം
ശൃ ം
ുകൂ ടാത്ത
ആരാ ധന
ഉദാ ഹരണം
ചുറ്റിക റ
ഞര മ്പ്
വിപരീ തമായ
പിന്നീ ട്
മനസിലാ ക്കുക
ഉത്പാദ നം
മെഴു ക്
അത്യാവശ്യ മാണ്
മാധ വി
മുസ് ളീ
കുടിയ േറ്റ
മഹാഭാരത ത്തിൽ
സ്പഷ്ട മായി
നിശബ്ദ മായ
ചുറ്റിക്കറ ങ്ങുക
നിമി ഷം
ദര്ശ ന
ആശു പത്രി
പിറു പിറു
ബാർ ലി
ലളി ത
വികാ സ
ചൂടാ ക്കുക
പതിനാ റ്
എട്ട ാം
മുല ക്കണ്ണ
ിക്കപ്പെട േണ്ട
നിഷേ ധാ
നീച ന്
ഗുസ്ത ിക്കാരന്
സങ്കോ ച
ബെല് ജിയ
ഇപ്പോഴ ുള്ള
ശത്രുത യു
ഇടിച്ചു പറയല്
മംഗോ ളിയ
ചൊറ ിച്ചില്
പകു തിയ
സ്വാദി ഷ്ടമായ
ശൂന്യ ത
വിചിത്ര മായ
നിരപരാ ധി
അര്മേ നിയ
ദല്ലാ ള്
ഗണേ ശ
ഉന്മത്ത നായ
വിശ്വാ മിത്ര
നിയന്ത്രി തമായ
രണ്ടാമ തും
ഊർ ജ്ജ
ആജീവനാ ന്തം
ഭയാ നക
പ്രാർത്ഥ ന
കാല്പനി കമായ
നവതാ ഭക്തി
സ്കാന് ഡിനേ
ഉദ്ദേശ്യ ത്തോടെ
ഏങ്ങല ടിക്കുക
ഛർദ് ദി
സ്മൃ തി
ക്യൂ ബ
അറ്റ് ലാന്റിക്
ആധ്യാത്മ ിക
വിജ്ഞാപ നം
ഇക്ഷുര സവല്ല
പഞ്ജ രം
അ നം
അ ണ്ണ
അ തിര
അ ത്രി
അ ക്കം
അ പ്രധാന
അ ങ്ങനെ
അ ങ്ങോട്ടും
ആ ഗ്ര
ആ രാണ
ആ ടുന്ന
ആ ചാര്യ
ആ ഘോഷം
ആ ക്ഷേപ
ആ രേയും
ഇ ത
ഇ ന്ദ
ഇ ങ്ങോട്ടും
ഉ ര്
ഉ റ്റ
ഉ ന്ത
ഉ ദയ
ഉ ള്ള്
ഓ ഹരി
ക ഹ
ക ക്കൂ
ഖ നിയില്
ഗ ാമ
ഘ ൃ
ഘ ോര
ച ള
ച ക്കാല
ച ങ്ങാ
ച ർച്ച
ഛ ത്ര
ഡ ന്
ഡ ിയന്
ത ക
ത ങ്ങ
ത ദ്ദേശ
ദ ില്ല
ദ ന്തി
ന മ
ന ള
ന മസ്
പ തിയുടെ
പ ണ്ടുക
ഫ ൂ
ഫ ിയ
ബ ജ
ബ നേ
ബ ഡ്
ഭ ട
ഭ ർ
ഭ ിക
ഭ യാന
ഭ സ്മ
മ ലാ
മ ടിക്കുക
മ യമായ
യ ട
യ ണ്
റ യില്
റ ഷ്യന്
വ ട്ടി
വ ചന
ശ താ
ശ മി
ശ ിയുടെ
ശ നിയാ
സ മേ
സ ഖ്യ
സ വാര
ഹ യ
ി നെ
ു ട
ൂ ം
ൊ രാ
ൊ ലി
ൌ ര
ൌ സ്
ന് മേല്
ന് മാർ
ക് ളോ
ത്ത ാര്
ിക്ക ട്ട
ിക്ക മ്പ്
ിക്ക ാനും
ിയ ില
ിയ ിലാണ്
്യ ന്
തി ന്ന്
വി ടം
വി ശുദ്ധ
പ്പ തി
നി നെ
ില ിൽ
മാ ന്റെ
മു തി
മു ണ്ടി
രി ട
പ്ര വേ
പ്ര ാരംഭ
വാ ല്
വാ ലാ
വാ നിയ
കാ ക
കു വാന്
കു ത്തുന്ന
കു ഷ്ഠം
ക്ഷ ാര
ക്ഷ ാരം
റ്റ ഡ്
ിക ിട
ിച്ച ിരുന്ന
കൊ റ്റു
ിര ോ
താ കുക
സം ബി
സം ഹിത
നാ ക്കി
നാ റ്റം
വ്യ ്
വ്യ യം
അവ ജ്ഞ
വേ ല്
ഞ്ഞ ുകയ
പോ ക്കറ്റ
സാ വ
സാ ദ്ധ്യ
പി റ്റ
പി ടിയുള്ള
ത്തില് പ്പെട്ട
സി നഗ
സി ത്താര്
മൂ ക്കുക
മൂ ടല്
മൂ ശാരി
നെ ഹ്
യോ ജ്യ
പൂ ട്ടി
പൂ ജി
മുള്ള ുള്ള
മുള്ള ങ്കി
വീ സ്
വീ ണ്
ഗ് ഗാ
തല യിലെ
മി ടുക്ക
കം സന്
ജ് വാല
ദി വ്യ
യി ഡ്
നട ന്
നട ീല്
കള വ്
വള വ്
ലാ ള
ലാ ംഗ്
കോ ലി
കോ ണി
കോ ച്ചി
തീ യിൽ
റിയ ാല്
സു ക്ഷ
നീ ന്തല്
പെ സൊ
എന്ന തില്
ഏത ോ
തിര ിക്കല്
ശാ സ
ശി ഷ്ടം
ചു ർ
പരി ശ്രമം
കേ സരം
കൃ ഷ്ടമായ
ദേശ ത്ത്
ഹി മാ
പൊ ങ്ക
പൊ രുത്ത
കട മില്ലാത്ത
നിയ ിലെ
നിയ ിൽ
ടിയ ും
നായി ട്ടുള്ള
തോ റ്റ
തോ പകരണം
തോ ടുള്ള
കുറ വു
ശ്ര വണ
പേ റ്റ
കൈ പ്പി
കൈ കളില്
കഴ ിക്കുവാന്
കഴ ിക്കാന്
ധി ഷ്ഠ
ൊണ്ട ിരിക്കുന്നു
ഉള്ള തുമായ
വ്യാ പി
രാമ നെ
ഉപയോഗ ിക്കുന്നത്
ക്ര ട്ട
ഭാഷ യില്
ഇട വേള
ഇട ക്കിടയ്ക്ക്
വൈ രാഗ
വൈ ശാഖ
സന് ദേശ
ത്താ കുന്നു
ത്താ വളം
നല്ല തല്ല
ചാ ട്ടം
അധിക മായ
ബു ന്ദേ
പൂര് ണ്ണം
ചീ പ്പ്
മെ ക്സ
പതി ഞ്ഞ
കുട ിച്ചു
ച്ഛ ്
വിള ങ്ങുന്നു
രോഗ ിയായ
രോഗ ാണു
പ്പാ ക്കുക
തുട ർച്ച
എല്ലാ ദിവസവും
എല്ലാ വരെയും
മഹാ സമുദ്രം
വില യ്ക്ക്
പിട ിക്കപ്പെട്ടു
ദാ നി
തിനു വേണ്ടി
തിനു ശേഷം
വന്ന തും
പ്രദേശ ങ്ങളില്
ഗ്രഹ മുള്ള
ശരീര ത്തിൽ
മണ ികള്
മറ്റൊ ന്ന്
സാര സ്വ
മനോ ഹര്
മത ഗ്രന്ഥം
ആയു ര്വേദ
റോ ളര്
രാജ്യ ങ്ങളില്
ഡി ഷ്
കല് പം
ഉയ രമുള്ള
ഉയ ർത്തുക
അള വറ്റ
സോ പ്പ്
ബുദ്ധ ന്റെ
മുകള ിലും
മുകള ിലത്തെ
വിര ലിന്റെ
കണ്ണ ിലെ
മാസ ത്തിൽ
ചാര ിയായ
മാറ്റ ിയ
മണ് കുടം
ജ്ജ മ
ഇഷ്ട മല്ല
സ്ഥല ത്തെ
മൊ രു
ബല ത്തില്
സ്റ്റ ാന്
പീ ഡ
പ്രദ ാനം
ക്രമ മായി
പൂർ വം
ഒന്ന ിൽ
ഞ്ഞി ട്ട്
വഴ ക്കു
ഞ്ചി ന്റെ
ചിത്ര കാരന്
സൌ ജന്യ
മല ദ്വാരം
സമ്മ ർദ്ദം
വിധ ത്തിലുള്ള
ഗുരു വിന്റെ
സന്യാ സം
വിട ുന്ന
അം ശ
ഹരി തമായ
അംഗ ീ
സ്വീ കരിച്ച
സമാ സം
മോഹ ന്റെ
സ്പ ർശ
കൂട്ട ുന്നു
മുപ്പ തും
ഹൃ ദ്
ചേര് ക്കുന്നു
അര് ജന്
പ്രായ മുള്ള
പരീക്ഷ യ്ക്ക്
പോയ ിരുന്നു
കുതി ച്ചു
കര്ഷ കര്
ശ്രദ്ധ ിക്കുക
ആലപ ിച്ചു
അമ ര്ത്ത
തുന്ന ുക
നൂല് കൊണ്ടുള്ള
ഇള കുക
ശ്രീ കൃഷ്ണന്റെ
കരു തല
കരു തുന്ന
നഷ്ട ം
സുര ൻ
പത ക്കം
മൂന്ന ാമ
സ്തു ത
ദക്ഷിണ ാ
കഴുക ല്
രസ മുള്ള
മന്ത്ര വാദം
ശ്രേ ഷ്ടമായ
എല്ലാവ രുടെയും
ശൈ ത്യം
സംരക്ഷ ണം
തമ്മ ിൽ
ദൃഢ മായി
എണ് പതും
തീര് ക്കുന്ന
തീര് ക്കല്
പങ്ക െടുക്കുന്ന
സ്വര ത്തില്
ഉച്ച രിക്ക
പ്പുള്ള തും
ഉദ്യ ാന
ചരി ത
ഉണ്ടാക്കിയ ിട്ടുള്ള
പുള്ള ികള്
ബ്രഹ് മം
ബ്രഹ് മാവിന്റെ
ശൂ ര്
വിത യ്ക്കുന്ന
നഗര ത്തിലെ
ഷീല യുടെ
ഔഷധ മാണ്
മുഴുക ി
ക്കാല ത്ത്
കൃഷ ിക്കാര്
മനസ് സു
കത്തി ച്ച്
നിശ്ചയ ിച്ച
താഴ് ത്തുക
ഒരിക്ക ല്
സ്വീകര ിക്കുന്ന
കത്ത ിക്കുക
പല്ല ക്ക്
ക്കൊ ടി
വൃത്തിയാ ക്കി
യന്ത്ര ത്തിന്റെ
യന്ത്ര ഭാഗം
ചെരു പ്പിന്റെ
ചെരു പ്പുകു
നാഗ രിക
പത്ര ത്തില്
മാമ്പ ഴ
വലു താണ്
വെട്ടി മാറ്റുക
യഥ ാര്ഥ
രഹസ്യ മായി
ആശ് വാസം
പ്രാചീന കാലത്ത്
സ്ഥിര മായി
വര്ദ്ധ ന
വര്ദ്ധ ി
ആര് ദ്ര
തീർ ച്ച
സപ്ത മി
കവിത യുടെ
രാത്ര ിയുടെ
അനി ഷ്ട
പുളി പ്പ്
കൃത്യ മായി
പതിന ൊന്നാമത്തെ
ഭൂത ഗണങ്ങള്
തീവ്ര വാദം
സമീ പ
പണിയ െടു
നിത്യ ഹരിതമായ
മാണ െന്ന്
പാർ ട്ടി
ആരോഗ്യ ത്തിന്
സൈനീ കര്
കൂടിച്ചേ ർന്ന
അറുപത്തിയ ഞ്ച്
രാഗത്തിന്റെ യും
നൽ കുക
വീഴ് ത്തി
കിലോ മീറ്റര്
ട്ടോ ര്
വളര്ത്ത ല്
മുര ളുക
നല്ക പ്പെട്ട
ഭഗവാ നെ
പലിശ യ്ക്ക്
ക്രൂ ര
മേഖല യില്
വിനോദ സഞ്ചാര
മഹി ള
അച്ചട ക്കം
ഉഴ ുന്നു
തന്ന ത്താന്
വായന ക്കാരന്
ജാമ ്യ
ബുള് ബുള്
യേ ശു
കട്ടി ള
രോഹി ണി
ഞാ ത്ത്
അതില ധികമോ
യജമാന ന്റെ
കുലു ക്കം
രോമ മുള്ള
സ്വാദ ുള്ള
സ്വാദ ില്ലാത്ത
പര്യ ായം
ഇന്ത്യ ന്
മുക്കു വന്റെ
മഞ്ച ല്
നിമി ഷ
പറയാ ൻ
ആന്ത രിക
ക്കയ ർ
ഏല് പ്പിക്കുക
ഫാ ക്ട
പാഴ് സി
വിഴു ങ്ങുക
ങ്ങ്ക് ല്
കരീ ബിയന്
കൊടുങ്കാ റ്റു്
തെരഞ്ഞെടു ക്കുക
അഗ സ്ത്യ
ഒമ്പ തും
പക്ക ാവട
യാഥ ാ
ഫിലിപ്പീ ന്
അഭ്യാ സം
കന ത്ത
സ്മാര കം
ചൊറ ിച്ച
റ്റിയെ ട്ട്
സാമര്ഥ ്യ
ഖത്ത ര്
മുഹമ്മ ദ്
ഉദാര മ
ശമ്പ ള
ചെന്ന ായ
രുചിക രമായ
തുളു മ്പ
വലിച്ചിഴ യ്ക്കുക
നട്ടെല്ല ുള്ള
മല്ലാ ർ
മാര്ദ്ദവ മില്ലാത്ത
ആശുപത്ര ിയില്
യശ ോദ
പുച്ഛ ം
മാനസീ ക
സന്തുലി തമായ
അക്കൌ ണ്ട്
കസാ ക്കി
കശു വണ്ടി
തിർ ഥങ്കരൻ
അമ്മൂ മ്മ
ബെലര് സി
ഇന്തോനേ ഷ്യ
നിഷി ദ്ധ
അഭിലാ ഷം
ആചമ നം
സബ്ര ദായം
മത്സരാ ര്ത്ഥ
ജിജ്ഞാസു വായ
ഇക്ഷുരസവല്ല രി
അ ശ
അ ച്ച്
അ തെ
അ സൂ
അ മ്പ്
അ ശ്രദ്ധ
അ സത്യം
ആ വാസം
ആ ധാര
ആ ലിംഗ
ആ വര്ത്തനം
ഇ ക്
ഇ തള
ഇ ക്കൊ
എ യര്
ഏ ൽ
ഒ ത്ത
ഒ പ്പ
ഓ ർമ്മ
ഔ പചാര
ക ണ്ടാ
ക ങ്ങള്
ക പ്പി
ക ബാബ്
ഖ ോ
ഖ ണ്ട
ഗ തിയില്
ച ട്ടം
ച ക്കിന്റെ
ജ ല്
ജ യാ
ട ംഗ
ണ െന്ന്
ഥ ന്
ദ നം
ദ ാമ
ധ രിച്ച്
ന ഖ
ന ക്കി
ന ത്തിൽ
ഫ െ
ഫ േ
ബ ള്
ബ രം
ഭ ിലാ
മ ക്
മ ല്ലി
യ വ
യ ീ
യ മന്
ര ൈ
ര ത്
ര സീ
റ ൻ
റ ങ്ങിയ
റ ീന
റ ബ്ബ
ല ിയന്
ല വണ
വ ൊ
വ ുന്നു
വ യും
വ രിച്ച
വ ാരണ
ശ ില
ഷ ഹ
സ ിക്ക
ഹ ന
ാ ണി
ാ ധികാര
ാ ധിപതി
ി ട്ടും
ീ ർ
ൂ പ്പ്
ൂ ട്ടുന്ന
ൊ ഴു
ോ ല്
ൌ ണ്
ൌ രിയ
ൻ ഡ
ൻ സ
ന് ഡി
ക് ളി
ക് യന്
ക്ക ാണ്
ത്ത യ്യ
ത്ത ായിട്ട്
ുക ിട
രു ത്തി
രു താത്ത
വി റ്റു
വി നയ
പ്പ ാവ
നി ന്നെ
നി ന്നി
മാ സി
മാ ക്കാൻ
മാ മൂല്
ച്ച ുള്ള
മു രി
മു ട്ടു
മു ക്കിയ
മു ഷി
രാ കുന്നു
പ്ര വീണ
പ്ര ദേശി
പ്ര ത്യു
വാ ൽ
വാ തിൽ
കാ ക്കി
ഒരു ക്കം
മ് മായ
ത്തി നക
ല്ല െങ്കില്
റ്റ വും
റ്റ ീന
ചെ രിയ
ിക യ
പു രോ
താ ലു
ടു ത്തി
ടു ക്ക്
സം ഗ്രഹം
ഭാ ണ്ഡം
യ് ക്കുവാന്
യാ നം
ഗം ഗോ
സാ വി
സാ നി
സാ മ്
ണി ത
വര ണ്ട
വര ില്ല
വര ഹിതമായ
കൂ വളം
മൂ ട
നെ റ്റിയില്
വെ യില്
തല യിൽ
മി ത്രം
കി ഴിവ്
കര ള്
കര യില്
കര ിക്കപ്പെട്ട
നായ ോഗ്യമായ
യി താവ്
നട ക്കില്ല
കള ിലെ
മ്പ ൊ
തെ ന്ന
കോ ൺ
കോ മൊ
സു മുഖമുള്ള
ക്കി ള
ക്കി നു
രീ ക്ഷം
യു റ
യു റ്റെ
യു ളള
നേ തൃ
മേ ന്
മേ ധാ
പറ യും
പറ യുവാന്
ഴി ന്റെ
ചു ങ്ക
പരി ഭാഷ
ക്കു വാൻ
കട ത്തി
കട ിച്ച
കട ലി
ാം ഗം
ര്ത്ത ാവ്
ഞ്ച ന്ത
തോ ൽ
തോ ണ്ടി
ഗു ന
മര ങ്ങളുടെ
ജീവി പ്പിക്കുക
കാണ ുന്നത്
ംഗ ള
കാല ുള്ള
കാല ീന
കാല ികളെ
കാല ികമായ
കാല ുറ
സാധ ിക്കുന്ന
പര ത്തുന്ന
മോ ര്
മോ ഹം
കൈ യില്ലാത്ത
കൈ ക്കൂലി
ക്കാ രും
ക്ഷി പ്ര
കഴ ിക്കാൻ
കഴ ിക്കണ
വെള്ള രിക്ക
ലെ ബനാ
ഉള്ള താണ്
സഹ വാസം
സഹ കരണ
അനു പ
അനു രാഗ
ഭര ത
രാമ നും
പുറ പ്പെട്ടു
തൊ ടാത്ത
ജന താ
ഉപയോഗ ിച്ചിരുന്നു
കെ നിയ
വായ ിരുന്നു
ഗോ ഡ
ഗോ ദാവ
എന്നി ട്ടും
കാര്യ ങ്ങളുടെ
കാര്യ ത്തിനു
ഇരു പ
കീ റിയ
മാന ിക്കുന്ന
നല്ല രീതിയില്
ചാ മ്പ
കര് ക്ക
എന്നിവ രുടെ
നാല് ക്ക
ബു ല്
ചീ ക
എഴു ത്തുക
വയ റന്
സ്വാ സിലാന്
ഭാഗ ങ്ങളില്
മെ ഹ
മെ തി
മെ തിക്കുക
ിക്കാ ണ
ിക്കാ റില്ല
പ്രാ സ
പ്രാ പിച്ചു
അട ിക്കുന്ന
ഭരണ ഘടന
വേദ ിയില്
ച്ഛ ാ
ത്തിന് മേല്
നില വാരം
വിദ്യ ാര്
മഹാ ത്മാവ്
ഗാ ബ
വില യം
വില യുള്ള
ബി ഹാ
അഭി മാനം
ഉത്ത രാ
ത്തില ിരുന്ന്
വിഷ ുവ
ത്തോ ടൊപ്പം
തേ ള്
ശരീര ത്തെ
ഉറ പ്പിച്ച
മറ്റൊ രിട
മ്പോ ല്
സമയ ത്തെ
സമയ ത്തു
ശോ ക
ശോ ഷ
ധന തത്വ
രാജ്യ ങ്ങൾ
വിശ് വം
കഴിയ ുന്നു
ഭാരത ത്തിൽ
നിര് ദ്ദേശം
ഉത് കണ്ഠാ
ണിയ ാണ്
സോ വിയറ്റ്
നിര ത്തി
ഗ്രാമ ങ്ങള്
അറിയ പ്പെടുന്ന
ശാല ക
ശാല യിൽ
ഭീ ഷ്
സ്ഥല മാണ്
വ്യാപ ിച്ച
കൊള്ള ി
കൊള്ള ുന്നു
ജോല ികള്
കിട ങ്ങ്
ചുമ ട്ട്
മറ വി
മുറ ിക്കുന്നു
സങ്ക േ
വെളു പ്പും
ചിത്ര ത്തയ്യ
സൌ രാഷ്ട്ര
മൈ താ
പെരു മ്പാ
ഹോ ളിയുടെ
കുരു ങ്ങി
കുരു ക്കള്
ദേവ ന്റെ
സാമ ന്ത
കാല് നട
കഴു ത്തു്
ഉണ്ടായ ിരുന്ന
വരാ ഹ
സഹായ ത്തോടെ
പാദ ന
ചര ട്
വിധ േ
ജനി പ്പിക്കുന്ന
നടത്തുന്ന വന്
അക ലെ
സമാ ജ
ശത്രു വില്ലാത്ത
ഇറ ച്ച
ഇറ ങ്ങുക
ഇറ ങ്ങുന്ന
കറ ക്കുന്ന
ആദ രിക്കുന്ന
തുറ മുഖ
കരി ഞ്ചന്ത
ശേഷ മുള്ള
അര് ജെ
അര് ജ്ജു
നന്ന ായ
ക്കള ാണ്
സർ വ്
രാഗ വും
വിയ ര്
ആരംഭ ിക്കുന്ന
കഴിഞ്ഞ ാല്
ഉന്ന താ
പുര ട്ടിയ
ശ്രീ മതി
നന യ്ക്കുന്ന
നഷ്ട പരിഹാരം
കണ്ട പ്പോള്
കര്മ്മ ി
എന് താണ
സംസ് കൃ
ചൊ വ്വാ
യജ്ഞ ത്തിന്റെ
പുക വലി
നര ക
നര നാരായണ
അഹ ല്യ
ഇല്ലാ തായ
പഠി പ്പിച്ചു
നവ നീ
കഴുക ി
സെ ക്രട്ട
കൊല്ല ുന്ന
ധാന്യ ത്തിന്റെ
സസ്യ ങ്ങള്
സസ്യ ങ്ങളുടെ
ഇരുപത്തിയ െട്ട്
പറയ പ്പെട്ട
പ്രസ വിച്ച
പ്പുക ാര്
എത്തി ചേരുക
തയ്യാറാ ക്കി
ഗായ ിക
മുഴ ങ്ങുക
കട്ട ിലിന്റെ
ചെട ികളും
മരുന്ന ായിട്ട്
കാരണ ത്താൽ
ഉര ല്
ഉര കല്ല്
ശേഖ ര
കരാ ർ
ികൊണ്ട ു
മേഘ ാലയ
ഭിക്ഷ ാ
തര് ജ്ജമ
ഗ്രീ ന്
വിസ്ത രിച്ച്
കത്ത ിക്കുന്നു
കത്ത ിക്കാനുള്ള
ശ്യാ മിനെ
അണിയ ുന്നു
ൊന്ന ാം
കോശ ങ്ങള്
അറ സ്റ്റ്
വിവേ കാ
വേല ക്കാരി
നേതാ ജി
നിൽ ക്കുന്നു
പുത പ്പു്
ചുരു ങ്ങുക
ചേർ ന്ന്
വിശേഷ ിച്ചും
വിരുദ്ധ മായി
കെട്ടിയ ിരിക്കുന്ന
വിചാര മില്ലാതെ
ആശ് വാസ
നടന്ന ുകൊണ്ടിരിക്കുന്നു
ആര ്ട്ടി
വിഭ ക്തി
തീർ ക്കുക
അത്യാ ഗ്രഹമുള്ള
പഴു പ്പ്
വിജയ ിച്ച
പഞ്ഞി നൂല്കൊണ്ടുള്ള
പൂച്ച യുടെ
കഠ ോ
ധൂ പ
പന്ത യം
മഹേ ഷി
സഹോദര ൻ
ഏഴ ാം
ബ്രിട്ട ന്
ലൈ ബീരിയ
പ്രവർത്ത ിക്കുക
ഗമ നം
എത്ത ിക്കുന്ന
നടു ക്ക്
പ്രവര്ത്തി കള്
ചിത്ത നായ
നൽ കുന്നു
പൊട ിക്കല്
വഴു വഴു
യോജ ിക്കുക
സോഹ ന്റെ
പ്രതീക്ഷ ിക്കുക
പ്രയത്ന ിക്കുക
ദ്വീപ ിലെ
എഴുന്ന േറ്റ്
ഹിം സാ
അവയവ ങ്ങള്
മഹി മ
മോദ കം
ചലി പ്പിക്കുക
ഉണ്ടാക്ക ിക്കൊണ്ടിരിക്കുന്നു
ഇസ് രായ
ഗവേ ഷണം
സൂര് യോ
വായന ശാല
പരിപാല നം
സൃഷ്ട ിക
യേ റിയ
പിന്നീ ടു്
ഞാ റ്
പത്രി ക
പാവ പ്പെട്ട
മസ് ജി
പ്രഭാ തം
ഉദ് ഘാടനം
ഹിമാലയ ത്തിലെ
വിവാഹിത യായ
സമ്പന്ന മായ
സ്താനി ലെ
ുകെ ട്ടുക
ഉപരി തലം
തൊല ികള
യുഗ ത്തില്
ദുരാ ചാരം
ഭൈ രവി
പൂർത്തിയാ ക്കുക
കാറ്റ ു്
ചുട്ട െടുത്ത
അഴി മതി
ഹരിക്ക ാവുന്ന
രക്താ ർബുദം
പണ്ഡിറ്റ് ജി
ചെയ്തി ട്ടുണ്ട്
പ്രഖ്യാപ ിച്ചു
കൊയ്യ ുന്ന
മൂര്ച്ച യുള്ള
ചീത്തയാ ക്കുക
അത്യ ധികം
യൌ വന
രക്ഷപ്പെടുന്ന തിനു
അനിവാര്യ മാണ്
ഈര് ഷ്യ
ജിഹ് വാ
പതിനേ ഴ്
മൂടുന്ന വസ്തു
വിരുന്ന ുകാരന്
അസ്തി ത്വ
ഭൂരി പക്ഷം
പരത്തുക ക
ഒരിട ത്ത്
റോസാ പ്പൂ
വെല്ലു വിളി
സാമര്ഥ ്യം
ആകര് ഷണ
മാത ളം
മഹാത്മ ജി
വ്യര്ത്ഥ മായ
ശ്വേ ത
പേക്ഷ ിക്കുക
ജാഗ്ര ത
ചാന്ദ്ര മാസം
സംശ യാ
ഭൂകമ്പ ം
തിമി രം
കോളേ ജ്
ഭൂട്ട ാനി
ഇടയ സ്ത്രീ
കാബൂ ളി
തീര്ച്ച യായും
പ്രള യം
പ്രധാ നാ
സ്ഥിതിയ ിലും
മറ്റൊരാള് ക്ക്
യാദൃച്ഛ ികമായി
സ്വി റ്റ്
പ്രവാച കന്
പ്രോത് സാഹി
ലക്സം ബര്
സിംഹാ സനം
കരിമ്പി ൻ
ചതുരാ കൃതിയിലുള്ള
നമ്പ ര്
സ്രോ ത
ജൈനന് മാരുടെ
അമ്മായിയ മ്മ
ഏതൊരുവനാണ ോ
കൊതു ക്
നശീ കരണം
യക്ഷി ണി
യാജ്ഞ വല്
ദിര് ഹം
കറുപ്പു നിറം
മൌറീ ഷ്യ
ചിത്രാ ംഗ
മരണാ സന്ന
ആഗ്നേ യ
ശാഠ ്യം
കലിയു ഗ
അറിയി പ്പ്
അപ്രതീക്ഷി തമായി
പരമ്പ രാഗ
ശൃം ഖല
മുസ്ളീ ം
മുലക്കണ്ണ ു
ആരാണ ോ
ഇത ള്
ഭർ തൃ
ഹയ ഗ്രീ
ഭിലാ ഷ
മേധാ വി
അര്ജെ റ്റീന
ം ച
അ ൾ
അ ഹം
അ ബോ
അ കല്
അ സ്വാഭാവികമായ
ആ പ
ആ സാ
ആ സി
ആ കും
ആ ചാരം
ആ കൃഷ്ട
ആ ശീര്
ഇ ൻ
ഇ ക്ഷാ
ഈ ർ
ഈ യം
ഉ ൾ
ഉ പ്പ
ഉ ജ്ജ
ഋ ണം
എ ച്ച
എ ങ്കില്
എ ള്ളു
ഒ രോ
ഒ അരു
ക പ്പെട്ട
ക ല്ലാ
ക ഷ്ണ
ഗ താ
ച ന്
ഛ ീ
ജ പ്പാന്
ഝ ാം
ട ില്
ഡ ൂ
ണ ിക
ത ടിയുടെ
ത നുസരിച്ച്
ത കിട്
ഥ ാ
ദ ണ്ഡം
ധ ാരം
ധ രിച്ചു
പ ഹ
പ കരണ
പ പ്പായ
പ പ്പടം
ഫ ൌ
ഫ ിക്കറ്റ്
ബ ാന്
ബ റു
ബ ക്കി
ഭ ര്
ഭ വം
ഭ ഗീ
മ രിയ
മ ങ്ങുക
മ ച്ചി
മ ദ്രാ
മ ഗധ
യ ജ്ജ
ല ഗ്
ല സിക
ല ഡു
ല ഹരിക്ക
വ യ്യ
വ യെ
വ ല്യ
ഷ ീക
സ ികള്
ഹ ാം
ഹ ര്ത്ത
ാ ത്
ീ യം
ു ണ്ടാ
െ ല്ലാം
ോ ലി
ോ ളം
ൌ രി
് ക്കുക
ക് ല
ക്ക രുത്
ക്ക ികൊണ്ടിരിക്കുന്നു
പ് യം
ര് ജ
ിക്ക ല്ല്
ായ മ
ട്ട ിരിക്കുന്ന
രു ള
വി ത്തില്
വി നാല്
വി ഭവ
വി നാശ
നി ലാ
മാ നായ
മാ വില്
മാ തിരി
ച്ച ന്
ച്ച ീക
ച്ച ുകൊണ്ടിരുന്നു
മു ഷ
മു ഷ്ട
മു ങ്ങല്
രാ ളി
പ്ര ച
പ്ര ദി
പ്ര ബന്ധം
ങ്ങ ില്
വാ റ
വാ ടിയ
കാ ട്ടി
കാ റ്റി
കാ മം
കാ ട്ടിൽ
മ് റ്റ
ല്ല ാരി
ക്ഷ ന്റെ
ദ് രി
ചെ ളി
ിക രമായ
പു ഷ്ടി
കൊ ഞ്ഞ
താ ര്
താ ക്കോല്
സം ജ്ഞ
നാ നാ
നാ ളില്
ലി ം
പാ ശു
പാ ടം
ഭാ ര്
ടി പ്പ്
അവ ശേഷ
വേ റ
വേ രി
വേ ഷണ
പോ കാ
പോ റ്റുക
യാ ളം
യാ ര്ത്ഥ
സ്ഥ ം
സ്ഥ ാൻ
വസ്തു വാണ്
ചെയ്യ ാം
കൂ ണ്
കൂ ട്ടില്
സി വില്
സി ഖ്
ങ്ങള ിലൂടെ
മൂ ക്കിന്റെ
മുള്ള ു
വീ ട്ട്
വീ ഴ്ച
വീ ഴല്
ചി ന്ന
തല ച്ചോ
റി പ്പോ
തിയ ിലെ
കി ം
കി ടുക
ഉപ മേ
ഉപ നയ
കര കൌശല
നട ുന്ന
നട ക്കാൻ
കള പറ
കള ോട്
കള ാകുന്നു
തെ ക്കന്
കോ രിക
കോ രുക
കോ ടാലി
തീ രുക
സു ബേ
ക്കി നെ
യു വതി
നീ രു
നേ ട
ളി ന്
മേ ഷം
രാജ ക്കന്
തിര ായി
തിര ുകി
ശാ നം
ശാ ഹി
ശാ സനം
ശി പായി
ചു ണ
പരി ച
പരി ഹര
പരി സ്ഥിതിയിലും
കേ ട്
നിറ യ്ക്കുന്നു
നിറ മായിരിക്കും
ക്കു റി
സമ തല
പൊ ഴ
പൊ റ്റ
പൊ ന്തി
നോ വല്
കട ച്ചില്
വൃ ണം
വൃ ന്ദ
ദ്ര ൌ
മഹ ുവ
അതി ഥ
അതി ശക്തിയായി
ഗു ണ്ട്
മര ത്തടി
സ്വ ത്തു
ശ്ര യം
ഭൂ മധ്യ
കൊണ്ട ും
കൊണ്ട ിരുന്ന
ാവ ല്
കാണ ിക്കുന്നത്
രൂ ക്ഷ
കാര നായ
ദു ശ്
സാധ ിക്കുക
സാധ ിക്കുന്നു
സാധ കം
മോ ല്
കൈ മണി
കൈ വശം
ത്രി വര്ണ്ണ
ത്രി വേണി
ക്കാ ട്
ക്ഷി ണം
വെള്ള ിയുടെ
ശം ഖി
ൊണ്ട ിരുന്നു
ികള ോട്
നഗ രി
ഉള്ള ു
ഴ് സറി
അനു യോജ്യ
ചേ ര്ച്ച
സ്ത്രീ ധന
പുറ ത്തേ
തൊ ട്ട്
ഭക്ഷ ിക്കുക
വായ ൂ
ഗോ പ
ഗോ വി
ഗോ ത്രം
കാര്യ ക്ഷമത
ഇട യ്ക്ക്
ഇട യിൽ
ന്യ ായം
ത്താ ണി
നല്ല തു
ചാ രു
എന്നിവ യിൽ
മന സിനെ
സര് പ്പ
സര് വ്
സര് വീസ്
സേ ഷന്
സേ ഠി
നല് കല്
വയ ായ
വയ വം
സ്വാ ഗതം
ഭാഗ ത്തായി
പ്രാ പ
കൊടു ക്കും
കയ റിയി
പ്രതി ജ്ഞാ
ചില യാള
പതി വ്രത
അട വ്
നുള്ള ി
ഭരണ കര്ത്താവ്
വേദ ാന്തം
വേദ മന്ത്രം
ച്ഛ േദ
പ്പിക്കുന്ന തിനായിട്ട്
രിക്ക ല്
ലഭ ിച്ചിട്ടുള്ള
കുതിര യ്ക്ക്
റാ ണ
നില കൊള്ളുന്ന
മീ സ്
എല്ലാ തരത്തിലും
അല റുക
ത്തോ ല
ത്തോ ട്ട്
പ്രദേശ ങ്ങളിൽ
തേ ച്ച്
തേ യ്ക്കുന്നു
യോഗ്യ നായ
മണ ീ
പഞ്ച ഗ
ക്കള് ക്ക്
രാജ്യ ങ്ങളുടെ
മ്പി ള്
പക്ഷ ിയാണ്
പക്ഷ പാത
കർ ത്താ
ജല ത്തില്
ജല ത്തിന്റെ
ജല യാന
അള ക്കുക
ഉത് കണ്ഠ
യൂ ണിയ
യൂ ഗോസ്
സോ ഡ
വിര ക്ത
വിര ലില്
കുഴ ൽ
ര്ന്ന ിരിക്കുന്നു
നിർ വഹ
റുക ാരന്
വര്ണ്ണ ങ്ങള്
ചെറു പ്പ
ചെറു താണ്
മാറ്റ ുന്നു
യാത്ര ക്കാരെ
ഭീ തി
ീന ര്
സ്ഥല ത്തേയ്ക്ക്
വ്യാപ ിച്ചു
ബല മായ
ഗന്ധ മുള്ള
ശാസ്ത്ര ത്തെ
ഉണ ര്ന്ന
എല്ല ായി
അമ്പ ാരി
പാല ില്
പാല ിക്കുക
പാല ിക്കണം
ചുമ യ്ക്കുക
പൂർ വ്വ
ശബ്ദ ത്തില്
ശബ്ദ ങ്ങള്
ഇല്ലാത്ത വന്
ഒന്ന േ
പൌ രന്
പൌ ത്രന്
സഹോദ രിയ
നിയമ പാല
പ്രത്യേ കം
മുറ ിച്ച
തിന്ന ാന്
ദുര് ഗന്ധം
ഏക ദേശ
സ്ഥാപ ിക്കല്
പെരു ക്കല്
ഭക്ഷ്യ യോഗ്യമല്ലാത്ത
ആല ൂ
ഹോ ക്കി
ഹോ സ്റ്റ
ഭൂമ ിയെ
ധാ വസ്ഥ
ിക്കൊണ്ട ിരിക്കുന്ന
വരാ ന്ത
ഗുരു വും
തയ്യ ൽ
വേദന ിക്കുന്നു
മട ക്കുക
ശുദ്ധ ീകരണം
വരിക യും
ശേഷ ിയുള്ള
അര് ജു
മരണ പ്പെട്ട
ർത്ഥ മുള്ള
കുറഞ്ഞ തും
മനോഹര ൻ
കിഴ ക്കേ
സർ ക്കാരി
കുള ത്തിലെ
സൂര്യ ൻ
കണ്ടു പിടിക്കുന്ന
കാര് ഡ്
കാര് മേഘ
ഉട ല്
കര്ഷ ക
കുല ശേഖരം
പോകുന്ന തിന്
ഉന്ന തനായ
കരു തിയ
പരു ത്ത
സന്യാസി മാരുടെ
ഹാര കം
കഷ്ട പ്പെടുന്നു
പുക ഴ്
വോ ട്ട്
സത്യ മായ
ആകാശ ത്തിലെ
കേള് ക്കുവാന്
തോന്ന ിയ
ഫോ ട്ടോ
ധര്മ്മ ി
ത്രാ സ്
ഇല്ലാ തിരിക്കുന്ന
വംശ ജനായ
മുണ്ടാ കാത്ത
ലാസ് റ്റിക്
പുസ്തക ത്തിൽ
മംഗ ളം
രസ ിക
രഹ സ്യാ
മന്ത്ര വാദി
കുടുംബ ത്തിലെ
നക്ഷത്ര ങ്ങള്
വിവാഹ ത്തിന്
വയ് ക്കും
ടോ ളര്
തീരു മാനിക്കുക
തുണ ിക്കട
മാറ ുന്നു
അനുഭവ പ്പെടുന്നു
ദൃഢ നിശ്ചയം
ട്ര ക്ക്
പങ്ക ജം
ബര് മൂ
ഭ്രാ ന്തി
ഭ്രാ ന്തുള്ള
ഉച്ച ാരണ
കട്ട ിയായ
മത്സ രിക്കുന്ന
യൂറോ പ്പ്
ആത് മാര്
തീര ത്തുള്ള
ഒഴി ച്ച്
ശൂ ദ്ര
ക്കിട ക്ക്
നദ ിയില്
പർ വത
തുള യ്ക്കുന്ന
ഭിക്ഷ ു
വണ്ട ിയിൽ
അഭ്യ സ്ത
അഭ്യ ര്ത്ഥന
ഉദ യം
തെളിയ ിക്കപ്പെടാത്ത
തുള്ള ിച്ചാ
തോല് വി
അറ ബ്
കല്ല ില്
അടിസ്ഥാന പരമായ
കുടു ക്ക
ജൈ വ
കൊട്ട ാരം
വലു തായ
ക്കട ല്
വിശേഷ ത
ആശ് രി
പയ റു
ഭക്ത ര്
കത ച്ചക്ക
രുച ിയില്ലാത്ത
പാര് സി
മര് ദ്ദ
വട്ട ത്തിലുള്ള
വായ് പ
പുറം തള്ള
സമ്മേള നത്തിന്റെ
ഒഴു ക്കുക
മുപ്പത്തിയ ഞ്ച്
അഴു ക്കാ
ഇന്ദ്ര ന്
ഒഴ ിക്കുക
മുഴുകിയ ിരിക്കുന്ന
ഉല ാത്ത
ശിര സ്
അവത രിപ്പിക്കുക
ഭേദ ിക്കുന്ന
പന്ത ല്
വധു വിനെ
സഹോദര നെ
വിദേശ ത്ത്
ശകു ന
ചാര്യ ര്
ആഘോഷ ിക്കുന്നു
ഗ്രാ ഹ്യമായ
ചിത്ത ന്
വറു ത്ത
സന്ദ ർശ
മാലി ന്യ
തീര്ഥ ാടന
സോഹ ൻ
പിര ിയുക
മുൻ പ്
പ്രതിനി ധ
പ്രതിനി ധിക
സൂക്ഷ് മത
അവസര വാദിയായ
വീശ ുക
നാശ ിയായ
ക്ഷീണ ിച്ച
സൂര് യാ
പരിപാല ിക്കുക
വലിച്ച െടുക്കുക
അക്ക രെ
സ്ക ന്ധ
സുരക്ഷി തമായ
പുറത്തെ ടുത്തു
ദുര്ഗ്ഗ യുടെ
ബാങ്ക ിലെ
കല്ക്ക ണ്ടം
പിരി ഞ്ഞു
സമ്മതി ച്ചു
ശീത കാല
നിരീക്ഷ ണം
മുഗ ള
അഭ ില
കണ്ടെ ത്തി
തടാ കത്തില്
ഇറാ നി
പള്ള ിക്കൂ
ശങ്ക രാ
ദൂരീ കര
പ്രസന്ന ത
ദഹന വ്യവസ്ഥ
തുര് ക്
സന്യാസ ിയുടെ
കൊട്ടു വടി
സന്തോഷി പ്പിക്കുക
കൊലപാത കം
ഭൈ രവ
അല്ലാത്ത ത്
ലഘു ഭക്ഷണം
ഭാഷാ ലിപി
ഐസ് ക്രീം
മഠ ം
ആന്ധ്ര പ്രദേശിലെ
ആര്ത്ത വ
എറി ട്ര
വയസ് സു
അംബ ു്
തൊണ്ണൂറ്റിയ ൊന്നാമത്തെ
ഋതു മതി
ലളി തമായ
അടിച്ച മ
പെയ്യ ുന്ന
പിന്നോ ക്ക
ശ്വ ശു
മേല ങ്കി
ധൃതരാഷ്ട്ര രുടെ
ആകൃതിയ ുള്ള
പെട്രോ ള്
പദാർത്ഥ ം
തൊഴിലാള ികള്
ചുര യ്ക്ക
ചന്ദന ത്തിരി
ക്ളാ സ്
തെരു വ്
പാണ്ഡി ത്യ
ആദരണ ീയനായ
മലേ ഷ്യ
അനൈ ച്ചീക
ഉന്മാ ദ
കുറി പ്പ്
വേറി ട്ട
എവിട േയും
ചുള്ള ി
ശ്മ ശാനം
നിർമ്മാ ണ
രായ് ഗഢ്
മാതള നാരങ്ങ
ചെല വ്
ഉപഭോ ഗം
പേരെ ടുത്ത
ഉഴുക ല്
ഭൂഖ ണ്ഡം
ബിംബ ം
ഉത്ഭവ ിക്കുന്ന
വ്യൂ ഹം
സ്വീകാര്യ മായ
അന്താരാഷ്ട്ര ീയ
ഇംഗ്ല ീഷ
നവരാ ത്രി
വാനര ൻ
സംവിധ ാനം
അധ് വാനം
ചിന്തേ ര്
ഉമ്മറ പ്പടി
ദമ്പതി കള്
കാവ്യാ ലങ്കാരം
കുബേ രന്റെ
സാംബ ിയ
ഭസ് മം
വൈകുന്ന േര
ൊമ്പ താമത്തെ
തുമ്മ ല്
അംഗവൈകല് യമുള്ള
പും സ
അക്ര മി
രോമാ ഞ്ച
ജീവാ ണു
കേയ ന്റെ
ടാന്സാ നിയ
ഐശ്വര് യ
മുദ്രാ വാക്യം
കിര് ഗി
വെളുത്തുള്ള ി
കൂടിക്കാ ഴ്ച
ഇളകിയാ ടുക
ഔദ്യ ോഗിക
ഹൃദ് രോഗം
കോമൊ രോ
കഴിക്കണ മെന്നു
ഗോദാവ രി
നവനീ തം
ഇസ്രായ േ
അബോ ധാവസ്ഥ
ഇക്ഷാ കു
കിടുക ി
അ ൻ
അ സം
അ ജ്
അ ബല
അ മാനു
അ മൃത
അ ജ്ഞത
ആ ൽ
ആ വേശ
ആ സുര
ആ വർത്ത
ആ ജ്ഞാ
ആ ളിന്റെ
ഇ ല്
ഉ ജ്
ഊ ന്ന്
ഊ ഴം
എ ക്സ്
ഏ റ്റെ
ഒ മാനി
ഓ ം
ക ിക
ക ണി
ക റ്റുക
ക മാനി
ക ഷ്ണം
ഖ ൂ
ഗ ാര്
ഗ ദം
ച ്യ
ച രു
ച ും
ച പ്പു
ച തിക്കുക
ജ ിലേ
ജ പുര്
ട ലി
ട ങ്ങ്
ട ത്തും
ഠ േ
ഡ ച്ച്
ഡ ാര്
ണ ൈ
ത യില്
ത ണ്ടു
ദ രാ
ധ ാമം
ന ബ
ന ന്റെ
പ ല്
പ ിരിക്കുക
പ മ്പര
ബ ത്ത
ബ ിക
ഭ ടന്
മ രീ
മ തില്
മ യൂ
മ റുക
യ ണ
യ ത്തിന്റെ
ര ക
ര ുന്നത്
റ ദ്
റ ിക്കോ
റ ഹീ
ള ായ
ശ പ
ശ മാക്കുക
സ ള്
സ ബ്
സ ായം
സ ിക്കപ്പെട്ട
സ ജീവ
ഹ ലുവ
ാ ലോചന
ി ന്
ൂ റ്റി
േ റിയ
ോ ട്ട
ൌ ലി
ർ ഥ
ർ ഷി
ർ ത്തുന്ന
ക് ളേ
ക്ക ല്ല
ന്ന ത
പ് യന്
ര് ജി
ര് ദ്ദ
ിക്ക ാരം
ിക്ക ലും
സ് തീ
ങ് കുഴല്
ട്ട ാം
രു പ
രു ഗ്
രു ടേ
രു തു്
വി ച്ച്
വി നീ
വി പുല
വി നാശം
വി സമ്മതം
പ്പ ർ
പ്പ ീസ്
പ്പ ലക
ാര ീ
ില േയും
മാ ലാ
ച്ച ായ
ച്ച ില്ല
ച്ച ിരിക്കുന്നു
രാ ലയം
രി ഞ്ഞ
പ്ര സ്ഥാനം
പ്ര വഹ
പ്ര വചനം
വാ റ്
വാ ഴി
വാ നമ്
തു പ്പ
തു ലാ
കാ റ്
കാ മോ
കാ ഷ്ഠ
ഒരു മിച്ച
ത്തി നോ
ല്ല ൂര്
ദ് വാ
റ്റ ും
പു ല്ലാ
പു ത്ര്
ിച്ച ുകൊണ്ട
ിച്ച തിനു
കൊ ത്ത
കൊ ണ്ടി
കൊ ലു
കൊ ങ്കി
സം യോജ
നാ ളി
ത്ര ിയുടെ
പാ നി
പാ പി
പാ ട്ടം
പാ റ്റുക
ടി ന്
അവ ധ
വേ ണ
വര് ണ
വര് മ്മ
വര് ണ്ണി
വര് ണ്ന
ഞ്ഞ ുള്ള
ഞ്ഞ ുകൊണ്ടിരുന്നു
ഞ്ഞ െടുത്തു
യാ സം
യാ ണി
യാ കുക
യാ ലും
സാ ന്
സാ മു
പി സ്റ്റ
വര യ്ക്കുക
വര ോട്
വ് വേറെ
ദ്ധ ്
ണ്ടാ കുക
സി റ്റി
ന്ധ ്യ
മൂ ക
യോ ക്തി
വെ ട്ടും
വെ വ്വേറെ
ദേ ശാ
പൂ രാടം
ശ് രാവണ
വീ ര്യ
വീ തിയും
തല വേദന
തല മുട
മി സ്
മി ടുക
ജോ ടി
കര ഞ്ഞു
കര യുവാന്
ത്തെ യും
ത്തെ ക്കുറിച്ച്
ാന് സി
ദി ഗ്ഗ
ാന ിയന്
യി ച്ച്
നട ക്കുമ്പോള്
വള യല്
തെ ടുത്ത
ലാ ലാ
കോ ണം
കോ പ്പി
സു ബാഹു
സു താര്യ
സു ഹോത്ര
ബന്ധ ിക്കുക
ബന്ധ ിച്ച
നീ രാവി
നേ ക്കാളും
പെ ട്ടിയില്
എന്ന ുള്ള
മേ ഹം
തിര ുന്ന
യോഗ ാ
ഴി ച്ച്
ചു ണ്ട്
ചു ട്ടി
വല രെ
പരി ഹരിക്കുക
ബാ ള്
ബാ സ്
ബാ ലാ
ക്കു ന്ന്
ക്കു ളം
പൊ ക്കി
പൊ ളി
കട ക്കുക
കട ിച്ചു
കട ലില്
വൃ ഷ്ടി
നിയ ാണ്
ഗ്ര െ
ഗ്ര ൂപ്പ്
മഹ ായു
ടിയ ായി
അതി ർത്തിയ
ഗു ര്
മര ക്കീ
കുറ വില്ല
ഭൂ ഭാഗം
കൊണ്ട ോ
ാവ ു
കാല ീനമായ
കാല ഘട്ടം
പര ത്ത
മോ ട്ടോര്
കൈ കള്
കൈ യിലെ
ത്രി ശ
ക്കാ ല്
ജാ തനായ
കഴ ിക്കാത്ത
വെള്ള പൊക്ക
ുകള ിലും
ഉള്ള താകുന്നു
റ്റി ൻ
ലോ യി
ഴ് സ്
സഹ ാനുഭൂതി
അനു ജന്
അനു പാതം
ചേ ട്ടന്
രൂപ യാണ്
ജന ക
ജന ക്കൂട്ടം
മറ്റ ന്നാള്
ഉപയോഗ ിക്കാത്ത
ക്ര യ
ജി ന്റെ
ജി താ
ജി ഹാ
ഗോ ഖ
ഗോ ൽ
ഗോ ണ്ട
പട്ട മഹി
ിക്കു മെന്ന്
ിക്കു വാനും
മാര് ബിള്
ഇട തൂ
കീ റ
കീ ഴിൽ
മാന സം
വൈ ശ്യ
വൈ ഡൂ
ചാ തു
കര് ക്കിട
അധിക മുള്ള
ക്കിയ ിലുള്ള
എഴു ത്തു
ന്ദ് രീ
വയ ല
വയ ിലെ
വയ ലിലെ
വയ സുള്ള
സ്വാ ന
പ്പി നെ
പ്രാ കൃ
നൂ റും
നൂ റാമത്തെ
കൊടു ക്കൽ
വസ ിക്കുന്നവന്
പ്രതി മാസ
പ്രതി ഭാസം
ക്കാര ില്
ചില വാക്കുക
പതി പ്പിച്ച
ചെയ് താ
അട ക്കം
വാസ സ്ഥലം
കുട ിക്കാന്
രോഗ മുള്ള
രോഗ ത്തിന്റെ
ബോ ള്
ബോ ട്ട്
ബോ ളി
ഷി ച്ച്
പ്പെടുത്ത ൽ
മഹാ സമുദ്ര
വു ലി
വില യേറിയ
െടു ക്കാം
മുഖ ാ
മുഖ ത്തിന്റെ
ബി സ്
അഭി രുചി
അമ്മ യെ
അന ര്ഥ
സ്ഥാന ത്തിന്റെ
ത്തോ ടുകൂടിയ
തേ ച്ചു
ഗ്രഹ ങ്ങളുടെ
അപ കീര്ത്തി
സംഖ്യ യെ
തട വു
തട യപ്പെട്ട
ഉറ ങ്ങുക
ജീവ ിയുടെ
സമയ മുള്ള
സമയ ത്തിനു
ധന ത്തിന്റെ
ധന സഹായം
വിവാ ദം
മനോ ഭാവ
പഞ്ച വായു
പഞ്ച കന്യ
ലേ സ്
ലേ ലം
രാജ്യ ത്തിലെ
രാജ്യ മാണ്
ദീ യ
നിര്മ്മി ത
കഴിയ ുന്നത്
പക്ഷ ികളെ
സര ്ട്ടി
ാരാ ധന
മാല തി
സോ ം
സോ ഥ
സോ ന
നിര ക്ക്
കൊണ്ടു വരുന്ന
ഗ്രാമ ത്തിന്റെ
ഗ്രാമ വാസികള്
വിര ൽ
എണ്ണ ല്
പട ച്ച
ാവുന്ന ത്
പര് ണ്ണി
വര്ണ്ണ ിക്കുക
ചാര ുക
മാറ്റ ല്
സമു ദായ
ഗന്ധ ി
കൊള്ള രുതാത്ത
ഉണ ര്
പ്രദ ക്ഷിണം
അമ്പ ര
അമ്പ തു
പൂജ ്യം
ചുമ ര്
ചുമ ക്കുന്ന
ചുമ ട്ടുകാരന്
പദാര്ത്ഥ ങ്ങള്
ചുറ്റ ല്
ശബ്ദ മുണ്ടാക്കുന്ന
പണ ത്തിന്റെ
നിയമ ിക്കപ്പെട്ട
വഴ ക്കാളി
ദുഃഖ ി
ഞ്ചി ന്
സങ്ക ടം
സൌ മ്യ
രായ ിരുന്നു
മല ബന്ധം
ഏക കം
സ്ഥാപ ിക്കപ്പെട്ട
ഉരു ള്
മൈ സൂര്
വൃത്തി കെട്ട
ഭൂമി ശാസ്ത്രപരമായ
ആവശ്യ പ്പെട്ട
ആവശ്യ കത
ഹോ ം
ഭാവ ിയില്
മഴ യുടെ
മഴ യില്
സന്ത തി
ശ്രമ ിക്കുന്നു
ക്കൂ ട്ട
കുറ്റ ിക്കാ
കഴു ത്തിലെ
കഴു ത്തിൽ
കഴു ത്തും
സഹായ ധനം
ചീത്ത യായി
ഗുണ വാനായ
അം ബു
ജനി ച്ചു
ഹരി ശ്
ഫ് റ്റ്
നടത്തുന്ന തിനായി
താഴ േ
താഴ ോ
ആഗ്രഹ മില്ലാത്ത
ശത്രു വിനെ
ഥി ക്
രാഷ്ട്ര ത്തിന്റെ
ഇറ ക്കി
ഇറ ക്കം
ദൈ നം
പച്ച യായ
ിലി ട്ട്
കറ ങ്ങ
കറ ക്കുക
ർത്ഥ ി
സംഭവ ിക്കുന്ന
അന്യ രുടെ
തിരിച്ച ുകൊടു
പോയ ിരിക്കുകയാണ്
തൊഴ ില
ഗര് ജ്ജനം
വ്യവസ്ഥ യെ
മ്പു ര്
രീതി കള്
ജാതി കളുടെ
പറഞ്ഞു റപ്പിച്ച
ശ്രദ്ധ ാലു
തെറ്റ ിയ
തെറ്റ ാലി
ആലപ ിക്കുക
തിരി വ്
ഇള കുന്ന
കരു ണ
മേല് നോട്ട
അക്ഷ ാംശ
അനുക രിക്കുക
എന് തിന്
അന്ത രീക്ഷം
ബേ ദ
വോ ളം
തണു പ്പുക
തണു പ്പുള്ള
മാർ ക്ക്
നിർമ്മ ിച്ചു
കേള് ക്കുന്നു
പ്രവേശ ിക്കുക
മറ്റുള്ള വര്
ബെ ല
കൌ മാര
കപ്പ ലിന്റെ
നശി പ്പിച്ചു
നശി പ്പിക്കും
ആളുകള ും
ചികിത്സ ിക്കുന്ന
നിന്ന െങ്കിലും
സാഹ സ
ഒറ്റ യ്ക്ക്
ധാന്യ കൂമ്പാരം
സസ്യ ഭു
സുന്ദ രിയായ
ഗൌ രവ
കനായ ിരുന്നു
പ്പിക്ക ണം
സംരക്ഷ കന്
ിയു മായ
വഹ മായ
ശര ത്
അതു പോലത്തെ
എത്ര യോ
മരുന്ന ാകുന്നു
പുണ ്യം
വിത യ്ക്കല്
ലഭിക്കുന്ന തിനു
കത്തി ച്ചു
കേന്ദ്ര ത്തില്
ശക്തിയ ോടെ
ക്ഷണ ിക്കപ്പെട്ട
താമര പ്പൂവ്
വയ്ക്കുന്ന ത്
ജന്തു ക്കളുടെ
അണിയ ാൻ
തിരഞ്ഞെടു പ്പില്
കണക്കാ ക്ക
വധ ിക്കപ്പെട്ട
കല്ല ും
നമ്മ ളെ
വെറു ക്കുക
ഗംഗ യുടെ
കുടു ക്കുക
പര്വത ാരോ
കേട്ട പ്പോള്
രഹസ്യ മായ
ആക്രമ ിച്ചു
കച്ചവട ക്കാരി
പയ ർ
സ്ഥിര താമസ
പ്രചാര മുള്ള
ആശ്രയ ിക്കുക
കണ്ണി ന്
കടു ക്ക
സപ്ത ധാമം
ഓര്മ്മ ിക്കുക
രാത്ര ിയിൽ
പുറം ചട്ട
വാത രോഗം
തന്ത്രി കള്
ഹൃദയ ത്തില്
പക ൽ
അമി താ
കൂല ിക്കാര
ഏര് പ്പാട്
ദ്രോ ണാ
ജ്ജി തമായ
ചോദ്യ ങ്ങള്ക്ക്
മുന യില്ലായ്മ
ചിറ കുള്ള
ഇരി പ്പ
പ്രയാ സമുള്ള
തിരിച്ചറിയ ാന്
എഴുപത്തിയ ഞ്ച്
ശകു ന്തള
കിള യ്ക്കല്
പുന ർ
പ്രശ്ന ങ്ങള്
വിശ്രമ ിക്കുന്നു
രാമു വിന്റെ
പാർ വതി
നിക്ഷേ പിച്ച
പോള ൻ
സമ്പാദ ിക്കുന്നു
രാവണ ന്
യോജി പ്പിക്കുന്ന
ഒരാള് ക്ക്
പദ്ധതി കള്
എഴുത ുന്നു
കീട നാശിനി
ക്രീ യ
പിറ ന്നാള്
മന്ദ ിര
ക്രാ ന്തി
പരിഷ് കരണം
വഞ്ച ിക്കുക
വഞ്ച കനായ
ചവി ട്ടിയ
ഇച്ഛ ിച്ച
ഇച്ഛ ാനുസരണം
കഷണ ങ്ങള
തുര ങ്കം
കമ്മ ീ
മിഥ ്യാ
ദുഷ്ട നായ
ശോഭ ിക്കുന്നു
സ്പെ യി
രാശ ിയിൽ
കര്ണ്ണ ന്
ഗവേ ഷ
ശ്രേഷ്ഠ മായ
ജനാ ഭി
കാർ ബ
കാവല് ക്കാരന്
ആരാ ണ്
ഇട്ട ിരിക്കുന്ന
മൃദു വായ
സുരക്ഷി തമായി
വിദ്യാലയ ത്തില്
വിദ്യാലയ ത്തിലെ
പാരമ്പര്യ മായി
നിസ് സഹായ
വൃത്ത ത്തിന്റെ
എരുമ യുടെ
ഉടു പ്പ്
പെന് സില്
വ്യാകരണ ത്തില്
വ്യാകരണ ത്തിലെ
കപട മായ
പിണ ങ്ങുക
ഇറ്റ ല
പ്പണ ിക്കാരന്
രോമ ങ്ങള്
കടലാ സില്
അത്ഭു തം
അജ യ്യ
സാഗ ര
പേരുകേട്ട താകുന്നു
ദൂരീ കരിക്കുന്ന
കോലാഹ ല
പ്പേ ര്
വെയില ിൽ
വിഡ് ഢ
നിര്ണ്ണ യ
അവി ചാരി
ക്റ്റ ർ
ശ്വാസ ോ
സൂച കമായ
ചെയ്തിര ിക്കുന്നു
കൊഴു ത്ത
കൊലപാത കി
കബീ റിന്റെ
ക്യാ പ്റ്റ
ചെമ്മരിയാ ട്
ആന്ത രികമായ
മടിയ നായ
ക്കയ റ്റം
അലഞ്ഞു തിരിഞ്ഞു
അലഞ്ഞു തിരിയുന്ന
വൃത്താ കൃതിയിലുള്ള
വെള്ളപ്പൊ ക്ക
കഷ ണ്ടി
വീട ുകള്
എറി ഞ്ഞു
പ്രസാ ദം
പരിണ ാമ
പരിണ ാമം
പദാര്ഥ ങ്ങള്
അവിട േയും
ഞാവ ൽ
ചിമ്മ ി
ധൈര്യ ശാലി
കാപട ്യം
നുറു ക്കിയ
മേല ധികാരി
മുത്തച്ഛ ൻ
മുത്തച്ഛ ന്റെ
രാജാക്കന് മാരുടെ
വിസര് ജ്ജ
ശ്ശ െ
കുറേ ശ്ശെ
പശ്ചാത്ത ലം
ഇതി കര്ത്തവ്യ
എരി വുള്ള
ചിട്ട യും
കലഹ ിക്കുക
അനിവാര്യ മായ
ഗാം ബിയ
ശബ ളമായ
ിട്ട ിരിക്കുന്ന
ചെയ്യാ തിരിക്കുക
ജിഹ് വ
സാമര്ത്ഥ ്യം
ആരാധ നാ
പായ് മരം
ഇടയ് ക്കിടയ്ക്ക്
മ്പോഴ ും
ദീർഘ ായു
കൊള്ളയട ിക്കല്
വാഴ പ്പഴം
നടത്തു വാന്
ഊര്ജ്ജ ം
ആംഗ ്യം
പോളി ഷ്
മംഗോ ളിയന്
അറ്റ ത്ത്
യാണ െങ്കില്
അടിത്ത ട്ട്
ഈജിപ് ഷ്യന്
നര്ത്ത കി
സദാ ചാര
സ്വച്ഛ മല്ലാത്ത
കയറ്റു മതി
കുവൈ റ്റ്
ലിഖി ത
ലിഖി തം
ദുരി തം
സങ്കീ ർണ്ണ
ക്ഷത്ര ീയ
നാവി കന്
മരുന്നായി ട്ടും
തട്ടാ ന്റെ
പ്രകൃ ത്യാ
പരിഹ സ
ജനനേന്ദ്രിയ ം
പൂന്തോട്ട ത്തില്
നഗ്ന ത
ആധി ക്യം
നിഗ്രഹ ിച്ചു
താജ് മഹല്
ചിരിച്ച മുഖം
ഏതൊന്ന ാണോ
ദ്വീപി ന്റെ
ബഹുമാന്യ നായ
മാധ്യ മ
പിശാ ച്
ശ്രോ താ
മൌല വി
പാരിതോ ഷികം
ശിവലി ംഗം
വയറി ള
ഗന്ധർ വൻ
കഴുത്തില ണിയുന്ന
ഗര്ജ്ജ ിക്കുക
സ്വരൂപ മായ
സ്വേച്ഛാധിപ തിയായ
ഊഞ്ഞാ ലാ
എത്യോ പ്യ
കശ്യ പ
ഡൊ മിനിക്ക
നമീ ബിയ
പണ്ടി റ്റ്
സദൃ ശമാക്കുക
ഏതെങ്കിലു മൊരു
ഇലക് ട്രോ
വിശപ്പ ില്ലായ്മ
കൂട്ടിയോ ജി
അമൃ ത്
ച്ചവട ക്കാരന്
പൂങ്കാ വു്
മൈലാ ഞ്ചി
ഇന്ദ്രജാല ക്കാരന്
ഷർ ട്ട്
ശുഷ്ക ിച്ച
ഗോള് ഫ്
നിരപരാധി ത്വം
പണ്ടുക ാലത്ത്
ഭയാന കമായ
പ്രവേ ശി
കോണി പ്പടി
അര്ജന് റീന
കൂടിച്ചേർന്ന ാൽ
യാഥാ സ്ഥിതി
റബ്ബ ർ
ൊഴു ക്ക്
സാവി ത്രി
വിദ്യാര് ഥി
സങ്കേ തം
നരനാരായണ മാര്
ആര്ട്ടി ക്
അകല് ച്ച
ആശീര് വാദം
ഭഗീ രഥ
സിഖ് കാരുടെ
ചിന്ന ിച്ചി
ചിലയാള ുകള്
എല്ലായി ടത്തും
ഏകദേശ മായ
അഴുക്കാ കുക
അനൈച്ചീക പ്രവര്ത്തനം
ജിലേ ബി
പുല്ലാ ങ്കുഴല്
മരക്കീ റു്
പഞ്ചവായു ക്കളില്
പഞ്ചകന്യ കള്
ഇതികര്ത്തവ്യ താ
ം ഡ്
അ ബ
അ ള്ള
അ ധിപ
അ രിയുടെ
അ സുഖം
അ പ്രത്യക്ഷ
അ ചേതന
ആ ക്
ആ മ്
ആ ലി
ആ നു
ആ ഹ്
ആ കാരം
ആ റാം
ആ ചാര്യന്
ആ ധിപത്യം
ഉ ത
ഋ ഗ്
എ ല്
ഐ ക്യം
ഒ പ്പി
ഒ ട്ടും
ഒ ത്തുകൂ
ക ട്
ക ായം
ക വിള
ക സ്റ്റ
ക വണ
ക മല
ഖ ന
ഖ ൈ
ഖ ർ
ഗ ന
ഗ യ
ഗ മം
ഗ ്യാ
ച ത്ത
ച ിക്ക
ച ായ്വ്
ജ ൻ
ജ രാ
ജ ിയെ
ജ ല്പ
ഝ ൂ
ഞ ാനി
ട ന
ട മ
ട വ്
ട ികള്
ഡ ലി
ഢ ്
ത ഹ
ത കി
ത ാരാ
ത മല്ലാത്ത
ത കരാ
ദ ളം
ന ക്കുക
ന ത്തെ
ന ങ്ങൾ
പ ത്തുക
പ തിയായ
പ മ്പരം
ഫ ക്കീ
ബ ിര
ബ ില്ല
ബ സ്ത
ബ ളം
ബ ിലാ
ബ ഹ്
മ ിയ
മ ും
മ തിയ
മ ര്മ്മ
യ ശോ
ല ങ്ക
ല ാന
വ ക്കുക
വ ഗ്
ശ ക്
ശ ന്ത
ശ ല്യം
ശ ങ്കര
ശ ണ്ഠ
സ റ
സ പ്
സ ത്രം
സ ിലുള്ള
സ ബര്
സ ഖി
സ പത്നി
സ സ്യാ
ഹ ല്
ാ തിര
ീ കമായ
ോ ല
ർ ശി
ന് മാ
ത് സ്
ത് ര്യം
ത് സ്വാന
ക്ക ലുള്ള
ത്ത ട
ത്ത ൽ
്ട ി
്ട ോ
ര് തം
ിക്ക ൊണ്ട്
ിക്ക ാനായി
ിക്ക ണക്കിന്
ള് ഡ്
സ് വല
സ് റ്റി
സ് രവ
ില് ജി
രു ദ്ര
രു ട്ടാ
തി ലും
തി ടുക്ക
വി ന
വി രാ
വി ത്തി
വി ഘട
വി നോട്
വി നാൽ
വി ഘ്
പ്പ റ്റി
പ്പ ണിയ
പ്പ ിക്കാൻ
പ്പ റേഷന്
ള്ള ല്
നി ഴ
നി ഗ്രഹം
നി ദ്രാ
മാ വസ്ഥ
മാ ക്കുന്നത്
മാ തുല
മു രു
മു ത്തിയ
മു ക്കാലി
രാ ഘ
രാ മാനു
പ്ര ൈ
പ്ര ബന്ധ
പ്ര സൂ
പ്ര ഹരിക്കുക
പ്ര ക്ഷേപണം
വാ ന്റെ
വാ റ്റിയ
വാ ളിന്റെ
തു മാകുന്നു
ടെ ന്ന
കാ ട്
കാ മ്പ്
മായ ിരിക്കുന്നു
ഒരു പോലെ
കു ണ്ട്
കു ബ്
കു ശവ
ത്തി രിക്കുന്ന
നം ചെയ്യുക
ങ്ക ിൽ
വസ് തി
പു ഴ
കൊ ച്ച
കൊ ട്ടുക
കൊ തുക
കൊ ഴിയ
കൊ ഴിഞ്ഞ
ിര ന്
താ ങ്ങുക
നാ ട്ടില്
ലി ബിയന്
ലി ത്വാ
പാ പ്പ
പാ ലും
പാ ട്ടും
പാ ന്റ്
വ്യ ാവ
വ്യ ംഗ
വ്യ ര്ഥ
ഭാ ശയ
ടി ം
വേ നല്
വേ ദ്യം
നു ഴ
പോ സ്
പോ ഷണം
പോ കാനുള്ള
യാ മം
യാ ണു
ചെയ്യ േണ്ടി
സാ ഗര്
പി രിച്ച
പി ണ്ഡ
വര ല്
വര കള്
വര ള്ച്ച
ണ്ടാ വുക
ന്ത െങ്കിലും
സി ംഗ്
മൂ രി
നെ ടു
വെ ണ്ട
വെ ട്ടു
വെ യ്ക്കുക
വെ നിസ്
ദേ വ്
പൂ ക്കളുടെ
ശ് ലേ
വീ ജിയന്
ഗ് ദ്ധ
ചി റ്റ
ചി ച്ച്
മി പ്പിക്കുക
വ്യക്തി പരമായ
കി ട്ടു
ഉപ ഭാഷ
അവസ്ഥ യിൽ
അവസ്ഥ യില
നായ ിരിക്കുന്ന
ജീ വനും
ദി തമായ
ാന ില്
ഉണ്ടാ കാ
തെ റ
തെ ല്ലാം
കോ വര്
കോ ലം
കോ മ്പ
കോ ളര്
റിയ ാത്ത
സു മംഗ
സു മിത്ര
സു ദാമ
രിയ ില്
ക്കി ടെ
യു ണൈ
നേ ട്ട
നേ യോ
നേ ര്മ്മ
നേ രേ
മേ ര്
മേ യ്
മേ ച്ചില്
മേ ദിനി
ശാ ഹ
പറ ക്കുക
പറ ത്തുന്ന
ബ് രു
ചു ളു
വല ോ
വല ിക്കല്
പരി ഷ
പരി ശ്ര
പരി പാട
കേ ട്ടി
ബാ ജ
ബാ നി
ബാ ക്കിയ
ബാ ദ്ധ്യ
ബാ ല്യ
ദേശ ക്കാര്
പൊ ള
നോ പ
കട ന്ന്
കട ക്കാര
ര്ത്ത ുന്നു
നിയ ോഗം
ഞ്ച ല്
അതി രാവിലെ
അതി നകത്ത്
തോ ണ്ട
തോ ന്ന്
തോ ന്നും
മര ക്കൊ
ഷ്യ ലിസ്റ്റ്
കുറ യ്ക്കല്
മുതല േ
സ്വ യ
ധിക ൃ
ധിക ാരം
ജ്ഞ ി
കാല ത്തും
പേ രാ
പര ക്കുക
ക്കാ ൽ
ജാ തം
വെള്ള പാത്രം
വെള്ള ിയാ
ികള േ
ശു ചി
ഉള്ള തിനാല്
സഹ ന
വ്യാ പരി
വ്യാ പ്തി
സ്ത്രീ കൾ
രാമ ചരിത
പുറ ത്തേക്കു
സ്ത ബ്ധ
ജന ങ്ങൾ
യുള്ള വന്
ഉപയോഗ ിക്കാം
ഉപയോഗ ശൂന്യമായ
ഗോ ശാല
ഗോ പുര
ഗോ ട്ടിമാല
എന്നി വിട
ഭാഷ ാന്ത
നിര്മ്മ ലം
നിര്മ്മ ിക്കുന്നത്
കീ ർത്തി
ചാ ഞ്ച
ചാ പം
നാല് പത്
സര് ക്കാ
ക്കിയ ത്
ിലാ ക്കി
പൂര് ണമായ
സേ നന്
എഴു താ
ന്ദ് രം
ഭാഗ ങ്ങള
ഭാഗ ീക
നൂ റുക
കൊടു ക്കണം
പ്രതി ഫലം
പ്രതി പക്ഷത്തുള്ള
ക്കാര ിയായ
ചില ര്
ചില പ്പോഴ
ചില പ്പോൾ
മൃ ഗീ
അട ിക്കുന്നു
അട ക്കി
തര ുന്നത്
ഭരണ കാലം
കുട ില
പ്പിക്കുന്ന വന്
ബോ ധി
ബോ ത്സ്വാന
കുതിര പ്പുറത്ത്
റാ ന്തല്
പ്പാ ടി
നില യില്
നില യിലാവുക
മീ ര്
തുട യ്ക്കുന്ന
വു രി
വില പിക്കുക
പിട ിക്കല്
അല റി
വന്ന ിട്ട്
ോദ രി
അന ല
അന ധികൃ
വിഷ മം
തേ ൾ
അപ മാനം
അപ ഹരണം
കഴി ച്ച്
കല ത്തില്
കല ർന്ന
മറ്റൊ ന്നി
ങ്ങിയ താക്കുക
ലേ സര്
ദീ ന
പക്ഷ ികൾ
തുക ൊ
യില ായ
ഭാരത വും
തന് തു
നിര് ജ്
ജല സേ
ജല നിരപ്പ്
മാല യിലെ
അള ക്കാനുള്ള
ട്ടുള്ള ത്
തൂ ണ
അടി പിടി
ലക്ഷ ക്കണക്കിന്
മുള ങ്ക
മുള യുടെ
നിശ് വാസം
നിശ് ചല
ചെറു പയര്
ഭീ മന്
ിയാ ക്കി
മൊ ന്നും
ബല ിയ
സ്റ്റ ൂ
സ്റ്റ ർ
ദൃ ഡ
പീ ള
വ്ര ണ
പാട ത്ത്
ജോല ിയുടെ
എല്ല ായ്
പ്രദ മാണ്
സാധന ങ്ങളും
മറ യ്ക്കുക
പൂർ ണ
പൂർ വ്
വഴ ക്കി
വഴ ിയാണ്
ക്ഷേ പം
ചോ ക്ക്
വരു വാന്
ദുര് ജ്ജ
പത് നീ
കാള യ്ക്ക്
കാള കളെ
കാള രാത്രി
സ്ഥാപ ിച്ചു
ഭാര്യ യെ
നാണ ു്
പറ്റ ുക
ആവശ്യ മില്ല
സിം ഘാട
ാല യം
മൃഗ ത്തെ
മൃഗ മാണ്
സഞ്ച ിയില്
പുല്ല് വെട്ടി
കഴു ത്തിന്റെ
മുന് കോപ
ബാധ ്യത
വരാ ം
ഭു ജം
ചര ക്കുകള്
ഗുണ ദോഷ
അക ന്ന്
ധ് വ
പടി ഞ്ഞ
സമാ പ
ശത്രു ക്കളെ
മഞ്ഞ ുക
മഞ്ഞ യായ
കറ ങ്ങുക
മനസ്സ ിലുണ്ടാകുന്ന
അന് വ
ശുദ്ധ ി
കരി നാഗം
നന്ന ല്ല
ഫല ങ്ങള്
രണ്ടു പേരും
വശ മുള്ള
വശ ത്തെ
ഫ്ര ഞ്ച്
കുള ത്തില്
കുള ക്കോഴി
പരിശോ ധി
സൂര്യ നെ
തിള പ്പിച്ച്
തിള ങ്ങുന്നു
റേ യോ
കഴിഞ്ഞ ത്
കഴിഞ്ഞ തും
അലങ്ക രിച്ച
അലങ്ക രിക്കുക
ചതു ര്ഥി
സംഭ ോഗം
മുത്ത ുകള്
ശ്രദ്ധ യില്ലായ്മ
വാര ണം
ത്തിയാ റാമത്തെ
കരു തല്
നന യ്ക്കുന്നു
വലി പ്പമുള്ള
ക്കോ ടി
നഷ്ട പ്പെട്ടു
സുര ന്റെ
അനാ മ
അധികാര മുള്ള
അമേരിക്ക യുടെ
അന്ത ഃ
അച്ഛ നമ്മ
സത്യ ത്തിനെ
കോട ിക്കണക്കിന്
നര ഭോജിയായ
ആകാശ ത്ത്
കേള് ക്കുന്ന
അപേക്ഷ ിച്ചു
അപേക്ഷ കന്
ഒട്ട ിക്കല്
പഠി പ്പിച്ച
ആശ ാര
മംഗ ളാ
അനേ കാ
നിന്ന ോ
സാഹ സിക
ഇന് ഷ
കർഷ കർ
ഇരുപത്തിയ ൊന്ന്
പിച്ച ും
ശ്രേ യ
എല്ലാവ ർക്കും
തുണ ിയില്
തുണ ിക്കഷണം
സുഗന്ധ ദ്രവ്യം
സുഗന്ധ ദ്രവ്യ
മുട്ട നാട്
ഗായ ത്രി
പങ്ക െടുക്കുന്നു
വര്ഷ ത്തിലെ
ഷാ പ്പ്
ഉച്ച ത്തില്
രഹി തരായ
മരുന്ന ിന്റെ
ചോദ ിച്ച
വാര് ഷീക
ശേഖ രിച്ച്
പുള്ള ിയുള്ള
സന്തോഷ മുള്ള
അശ് വനി
അശ് വാര
അശ് ലീല
ഓട ക്കുഴല്
നഗര മാണ്
മനസ്സിലാ ക്ക
നൈ ല്
കരാ റുക
നദ ിയിലെ
ഉണ്ട ു്
പർ വ്വ
പ്രതീ കം
മനസ് സി
പരിശോധ ിച്ചു
ചാണ ക്കല്ല്
വയ്ക്കുന്ന തിനായി
പരിശീല ിക്കുക
സല് വാ
താത് കാലിക
ക്കൊ ള്ള
തെളിയ ിക്കുക
ദര് ശിനി
കണക്കാ ക്കുന്നത്
ംബ രം
വേല ക്കാരന്
വേല മരം
തപ സ്സും
പ്രശംസ ിക്കുക
കാമ ുകി
വടി വാൾ
ജാത ിക്കാര്
ഒഴുക ുന്നു
ത്തിലാ ക്കി
ിക്കേണ്ട ത്
പാപ മാണു്
കെട്ടിയ ിരിക്കുന്നു
കായ് ക്കുന്ന
തമി ഴ
സ്വര്ണ്ണ ത്തിന്റെ
ആശ് വസി
ിയോ ടെ
ദ്വ ന്ദ
പ്രചാര ണം
ധരിച്ച ിരുന്നു
രുച ിയ
മാതൃ സഹോദരിയുടെ
കെട്ട ല്
അത്യാ ധുനി
വിജയ ിക്കുക
വിജയ ിച്ചു
സാഹിത്യ ത്തില്
നിരാ ശാ
പുല മ്പുക
ന്മാര് ഗ്ഗ
ദേവത യുടെ
ഗർ ഭി
ഹൃദയ നായ
ഒഴു ക്ക
ധാര് മീ
പൂശ ിയ
ക്കുറ ിച്ചുള്ള
അന്ധ നായ
വിഭാഗ ത്തിലെ
ഒഴ ിച്ച
മുഴുകിയ ിരിക്കുക
ശില് പ്പി
അവസാന ിക്കുക
മുത്തശ് ശിയുടെ
ഭേദ നം
പന്ത െ
സമര് പ്പിക്കുക
ഇംഗ് ള
പറ്റാത്ത ത്
പൂര്വ് വി
ഒര റ്റം
പ്രവർത്ത ിക്കുന്ന
സന്തുഷ്ട നായി
ഡ്ര ില്
ലക്ഷ്യ സ്ഥാനം
യിലാ കുന്നു
വാങ്ങുക യോ
ഗ്രാമീണ ര്
കൂട്ടിച്ചേ ര്ത്ത
നൽ കുന്ന
മദ്ധ്യ സ്ഥന്
കുട്ടികൾ ക്ക്
ദിന ചര്യ
മഹത്വ പൂര്ണ്ണമായ
വ്യായ ാമ
സ്നേഹ മുള്ള
ഇന്നു വരെ
ഇന്ദ്രിയ ങ്ങള്
മന്ദ ീ
നല്ക ണം
മുന്നേ റ്റം
ദൈത്യ ന്
വെട്ട ാതെ
കാര്യാ ലയ
ഉടമ സ്ഥന്
ചവി ട്ട
നിയന്ത്രണ മില്ലാത്ത
അണ യ്ക്കുക
പ്രണ യം
നടത്തിയ ിരുന്നു
മിഠ ായ
പ്രോ ട്ടോ
ഗാന്ധ ിയുടെ
അക്ഷര ങ്ങള്
അച്ചട ക്ക
എളുപ്പ മല്ല
അനന്ത രാവ
ഉന്നത നിലയിലാവുക
മൃദു ലമായ
കീഴട ക്കല്
ഞര ക്കം
മുപ്പത്തി രണ്ട്
ആത്മാ വിനെ
നെയ്ത്തുക ോൽ
തായ് ലാന്
കല്ക്ക ത്ത
പെന് ഷന്
അറിയുന്ന വന്
തയ്യല് ക്കാരന്
സാമഗ്രി കള്
സാമ്പത്തി കമായ
സൈന്യ ത്തിലെ
ഓഫീ സു്
അലക്കുക ാരി
പിശു ക്ക
സിന്ദ ൂര
സുഷ ു
കയ് പു്
പോകു വാന്
വന്യ ജീവി
യുണ്ടാ വുക
മൺ കലം
കുപ്പ ായം
പാറ്റ ലും
ഷെ യര്
ശരിയാ ക്കുന്ന
വിക്ര യം
ചിമ്മ ുക
ഒട്ടി പ്പിട
കാപട ്യ
അനുഷ്ഠ ാന
രാജാക്കന് മാര്
തെരഞ്ഞെടു പ്പ്
അപരി ചിത
സൂക്ഷി പ്പ്
അന്തരീക്ഷ ത്തില്
ധൃതരാഷ്ട്ര ര്
അതേ പോലെ
ഈര് പ്പം
ഗൌഡ രെ
ഇപ്പോഴ ത്തെ
മുള് ചെടി
ഇടയ് ക്കിടക്ക്
കയറ്റ ുന്ന
വിലയി രു
അസാ വരി
സും ഭ
നിറു ത്തുക
വാണി ജ്യ
ആദരണ ീയ
കസ വുള്ള
നേതാക്കന് മാര്
സ്വാദി ഷ്ട
മടക്ക ിക്കൊടു
പ്രകൃതിയ ുടെ
ഉരുക ുക
മോചി പ്പിക്കുക
വിദ്യാര്ഥ ികള്
യഥാ സ്ഥാനത്ത്
ഉത്തേജി പ്പിക്കുന്ന
ശമ്പ ളം
ഭ്രം ശം
പരസ്പര മുള്ള
നിസ്സാര മായ
വത്സ ലനായ
വേവിച്ച െടുത്ത
ബന്ധന സ്ഥ
ആരോപ ിക്കല്
കന്നുകാലി ത്തീറ്റ
പകര്ച്ച വ്യാധി
ദുരി ത
സങ്കീ ര്ണ്ണ
അനാവശ്യ മായ
ബ്രിട്ടീഷ ുകാര്
ചതിയ നായ
വിശേ ഷണം
മഹോ ബ
നിലവാര മുള്ള
മലിനീ കരണം
അഗാധ ത
അച്ചു തണ്ട്
തനി ച്ചായ
ധര് മ
സുഹൃ ത്തു
സ്ത്രീകളെ പ്പോലെ
അനന്തര ഫലം
അടുപ്പ ത്ത്
ഇഷ്ടപ്പെടുന്ന ില്ല
വഴിയ ിലൂടെ
വിളം ബരം
വിദൂ ഷ
വളർത്ത മ്മ
നോര് വീജിയന്
നൂറ്റിയ മ്പത്
ആഡംബ ര
സ്ലോ വേ
ലാത്വ ിയായി
മാണി ക്യം
മാധു ര്യം
സ്പന്ദ ിക്കുക
ഹൈന്ദ വ
സന്നിഹി താവസ്ഥ
ആഷാ ഡ
ാഹ് നം
കാരു ണ്യ
താറാ വ്
നാടു വാഴി
മണിപ്പൂ രി
വാള്പയ റ്റ്
എപ്പോഴ െങ്കിലും
ബൃ ഹ
ലമെ ന്റ്
കുസു മ
തസികി സ്താനി
ഊഷ് മാവ്
നോല് ക്കും
മെത ിക്കല്
സംഗീതജ്ഞ ൻ
തിങ്കളാ ഴ്ച
അങ്ക ഗണിതം
ഓക്സി ജന്
പറഞ്ഞാ ലും
ചുളി വ്
ഗുരുക ുല
കെടുത്ത ുക
പതിനേഴ ാം
ട്രിനിഡാ ഡ്
പൂണ ൂല്
ന്ത്രീ കന്
അനര്ത്ഥ ം
സ്പർ ശം
അനാദര വ്
അണ്ണ ാന്
ഛത്ര പതി
പോക്കറ്റ ട
കൈപ്പി ടി
ദക്ഷിണാ ഫ്ര
ഉദാരമ തിയായി
പ്രവീണ നായ
മൈതാ നത്തില്
സ്വിറ്റ് സര്
യാജ്ഞവല് ക്യന്
മരണാസന്ന നായ
ആസി ഡ്
ബറു ണ്ട
ലഹരിക്ക ടി
മോല് ദോ
പള്ളിക്കൂ ട
തുര്ക് മേനി
ഉജ് ജ്വല
കൊങ്കി ണി
തലമുട ിക്കൂട്ടം
ദിഗ്ഗ ജം
ഗോഖ രു
വൈഡൂ ര്യം
അവിചാരി തമായ
ശ്വാസോ ച്ഛ്
ചിമ്മി നി
ചിന്നിച്ചി ത
ആലി പ്പഴം
വഗ് ദാനം
ശന്ത നു
മുത്തിയ മ്മ
ഭാഗീക മായി
അ പൂര്ണ്ണമായ
അ പ്രകാരം
അ ഖണ്ഡ
അ വ്യക്തമായ
അ നായാ
അ പ്രധാനമായ
അ പ്പുറം
ആ ട്ടു
ആ ടാ
ആ ലിന്
ആ സ്വാദ
ആ ല്ലെങ്കില്
ഇ തിൽ
ഇ വിടു
ഉ ർ
ഉ ഴുന്ന
ഋ ഷിയുടെ
എ ച്
എ ല്ലാത്ത
എ ഡ്
എ ഡിൽ
ഏ പ്ര
ഏ വിടെ
ഒ ലി
ഓ മന
ക ക്ഷ
ക വര്
ക രിച്ച്
ക ജലി
ക തിര്
ഖ ാന്
ഗ ണ്
ഗ ര്ത്ത
ഗ ൈഡ്
ഘ ണ്ട
ഘ ാനി
ച മ്മ
ച രന്
ജ ിൽ
ജ ിലി
ഝ ി
ഝ ാന്സി
ട ുന്നത്
ഡ ൻ
ഡ ൽ
ഢ ാ
ണ സ്
ത ത്ത്
ത യും
ത യ്ക്കുന്ന
ത ടിയില്
ന കള്
ന ത്തിലുള്ള
ന ങ്ങളില്
ന ത്തിനു
ന സ്വഭാവമുള്ള
ന ക്സ
ന പുംസ
പ തം
പ ടാ
പ ദ്യം
പ ബ്ളി
ഫ ല്
ബ റ
ബ ഹാ
ബ ീസ്
മ യുടെ
മ ഴു
മ ക്കളെ
യ മന
യ േയും
ര ൌ
ര ിക്കും
ര ത്തം
റ ക്കി
ല യി
ല ജ്ജി
ല ൂരി
ള ാല്
ള ോട്
വ ണം
വ െങ്ക
വ മുള്ള
വ ല്ലി
വ റ്റിയ
ഷ ഷ്ഠ
സ ുന്ന
സ സ്
സ ത്വ
സ ികളുടെ
ഹ ാന
ഹ സ്തി
ി പ്പിച്ചു
ീ ര
േ ം
േ ള്
ോ ജ
ർ ദ്ദ
ൾ ട്ട
ക് താവ്
ക് രുദ്ധ
ത് റ്റില്
ക്ക ർ
ക്ക പ്പെട്ടു
ക്ക ാനും
ല് പീ
ന്ന രായ
ുക ോ
ിക്ക ൻ
സ് വസ്ഥ
സ് സു
സ് ക്രൂ
ിയ യുടെ
ിയ യിലെ
ിയ ോട്
ട്ട ൽ
രു ത്ത്
രു മ്പോള്
വി രിച്ചു
പ്പ നി
പ്പ ിക്കാന്
പ്പ ിച്ചിട്ടുണ്ട്
നി ങ്ങളെ
നി ടയില്
നി കൃഷ്ടമായ
നി വാരണം
ാര േ
മാ സ്
മാ കല്
ച്ച ാര്
മു യ
മു ത്തു
രി ന്
രി ടല്
പ്ര ത്തേ
പ്ര ചര
പ്ര കമ്പ
പ്ര താപ
ങ്ങ യുടെ
ങ്ങ ഴി
വാ മ
വാ ശ
വാ സു
വാ ക്കു
വാ ളു
വാ ക്കിന്റെ
വാ ചക
തു വാല
തു പ്പല്
തു ണ്ടുകള്
കാ ട
കാ ണ്ടാ
കാ റ്റിന്റെ
ഒരു ഉപനിഷത്
മ് ദരി
കു ന
കു ര്
കു ഷ്ഠ
കു ണ്ടും
കു ർത്ത
ക്ഷ യം
ദ് വാര്
ഞ് ജനം
ിക ം
ിക ൊടു
പു ട
ിച്ച ാണ്
ിച്ച ാലും
കൊ ക്കി
കൊ ച്ചു
താ വള
താ ലൂ
ടു ന്
സം വേദന
സം തൃപ്തി
നാ ന്
നാ സ്
നാ ട്ട
നാ കം
നാ ഭി
നാ സിക
പാ മ്പി
ഭാ ട
ടി ഗു
അവ ന
അവ ്
അവ ളെ
അവ ീന്
ില്ല ോ
വേ ണ്ടു
വേ പ്പിന്
നു മായ
വര് ജ്ജ
യാ ൻ
യാ ൾ
യാ ഗം
യാ കുന്ന
യാ ത്രി
സ്ഥ മായ
സാ ന്മാര്ഗ്ഗ
പി ള
പി ത്താ
പി ണ്ണാ
വര ച്ച
വര ിയില്
വര േയും
കൂ ർത്ത
ണ്ടാ കും
സി സ്
സി റിയ
സി ത്താ
സി റിയന്
സി ഗര
ന്ധ ത
ങ്ങള ാൽ
ങ്ങള ിലൊ
മൂ ങ്ങ
മൂ ന്നി
വെ ള്
പൂ ക്കാത്ത
വീ ത
ഗ് ധ
ഗ് നി
ചി പ്പി
തല േ
തല യുടെ
തല യോട്
മി ര്
മി ടു
മി ശി
മി ഞ്ചി
രോ ധം
കി ൽ
കി റു
കര ായി
കര ല്ലാത്ത
കര ിയില
നായ യെ
ജീ ര്ണ്ണ
ജ് വാലാ
ാന ുക
കള വു
കള ാല്
മ്പ ാരം
മ്പ ന്നരായ
വള ക്കൂ
വള ര്ത്തു
ഉണ്ടാ കില്ല
മായി ട്ടും
ലാ ണോ
കോ ര
കോ ൽ
റിയ ില്ല
റിയ ാം
സു ല
സു പ്രതിഷ്ഠ
രിയ ന്
രിയ ല്
യു യു
യു ധിഷ്ഠ
നീ ക്കുക
പെ ടുന്നു
രാജ സൂയ
തിര ശീല
തിര ഞ്ഞെടുത്ത
ശാ ശ്
ശി ബി
ശി ഖി
ബ് ലാ
കേ ദാര
ക്കു ഴ
ഹി ംഗോ
സമ തി
സമ ർത്ഥ
നോ ടൊപ്പം
കട യുക
കട യിൽ
കട ന്നല്
മഹ ു
ടിയ ന്
ത്യ ായ
തോ ട
തോ ക്കിന്
ഗു ല
ഗു ഡ്
മര പ്പാവ
കുറ ിച്ചും
സൂ പ്പ്
സ്വ ല്പ
ഭൂ ഗര്ഭ
ഭൂ ഖണ്ഡ
കൊണ്ട ിരിക്കുകയാണ്
ാവ ൂ
ാവ ായ
ാവ ലി
ാവ ിയായ
ധിക മായി
കാണ ല്
കാണ ിച്ച
കാര ികളായ
ജ്ഞ നായ
ംഗ ലം
കാല ടി
കാല ിലെ
ത്തിൽ പ്പെട്ട
പേ ന്
കൈ ത്ത
കൈ യുടെ
ിയായ ിലുള്ള
ഭി ഷേകം
ഭി പ്രായമുള്ള
ശം ഭു
ികള ു
ഉള്ള ിലുള്ള
അനു സരിച്ച
ചേ ർത്ത
പുറ ന്ത
പുറ മെ
ജന പ്രതിനിധി
കെ ടുക
ാമ ിയായ
ജില്ല ാ
ജില്ല യിലെ
ഗോ ല്
ഗോ ര്
ഗോ മ്ദരി
ിക്കു ഞ്ഞ്
കാര്യ ശേഷിയുള്ള
ഇട വിട്ട്
ഇരു ത്തുക
ഇരു നൂറ്
വൈ മാനി
വൈ ജയന്തി
വൈ ലറ്റ്
സന് ത്
നല്ല ൊരു
നാല് ക്കാല
സര് ബിയ
ങ്ങി ന്റെ
ചീ റ്റ
എഴു താന്
എഴു താത്ത
ഉണ്ടാവുക യില്ല
പദ ങ്ങൾ
പദ ാർ
ഭാഗ ത്താണ്
ഡ് ജ്
പ്രാ ത
പ്രാ സംഗ
ആള ാണ്
അത് യു
വസ മ്പന്നരായ
പ്രതി ധ്വനി
ക്കാര ിയെ
വിള വെ
കുട്ട ികളില്
പ്പാ ൻ
മീ റിലെ
ശീ തോ
ശീ തള
ശീ ഘ്
തുട ിക്കുക
എല്ലാ വര്ഷവും
പഴ വര്ഗ്ഗം
മഹാ ബാഹു
മഹാ റാണി
മഹാ മേദ
വില കുറഞ്ഞ
ദാ മ്പ
ചൂ ടുക
ചൂ രല്
ചൂ ലു്
ത്സ ുക
അല ൌ
മുഖ ന്
മുഖ ക്കുരു
ബി ന്
അഭി ഷി
അഭി നേതാ
ോദ രം
അന ന്യ
സംഖ്യ കളെ
കഴി പ്പിക്കുക
കല ര്
കല നം
മറ്റൊ ന്ന
മറ്റൊ ന്നിന്റെ
ജീവ ിക്കാനുള്ള
വില് ല്
ധന വിഭ
ജന് മാ
വിവാ ഹിതനായ
മനോ ജ്
പഞ്ച ഗൌഡരെ
ങ്ങ് ല്
പുത്ര നെ
മത മനുസരിച്ച്
റോ ഡ
ഡി റ്റ
ഡി നെ
വട ോ
വട ക്കെ
പക്ഷ െ
കല് പ
ഉയ ര
ഉയ ര്ത്തുക
സീ ല്
നിര് ദ്ധ
നിര് ധാര
തായ ു
അള ിയന്
നിര ത്തുക
നിര ന്തര
നിര ായു
കൊണ്ടു പോകുക
യ്ക്ക ാവുന്ന
ദൂ ഷണം
സൈ റണ്
കണ് പീലി
എണ്ണ ക്കുരു
പട ികള്
പട ര്ന്നു
ഗീ സ്
മാങ്ങ യുടെ
യുദ്ധ ത്തിൽ
ചെറു വള്ളം
തൃ പ്ത
അറിയ ാന്
അറിയ ാതെ
ദ്ധ്യ ാപകന്
ദ്ധ്യ ക്ഷന്
ഇഷ്ട മുള്ള
ഭീ ഷണ
ിയാ ണി
അയ ല്പ
അയ മോദകം
അധ രം
അധ ോഗ
വർണ്ണ ിക്കുന്ന
ഗന്ധ കം
ത്തേ ഴ്
പീ ലു
പീ ഢി
പ്രദ ർശി
കിട ത്തി
കണ ക്കുക
മറ ച്ച
മറ യുക
ഒന്ന ര
ഒന്ന ായ
വഴ ിയാ
ആയി ട്ടുള്ള
സൌ ഹൃ
സൌ ഭാഗ്യ
ദുര് ഗ്ഗ്
മല വിസര്
സ്ഥാപ നത്തില്
ഭാര്യ യും
ആവശ്യ പ്പെടുക
ചന്ദ്ര കാന്ത
കുരു മുളക്
ിരിക്കുക യും
പ്പിച്ച ിരിക്കുന്നു
നിറഞ്ഞ താണ്
പിന്ന ിലായ
സഞ്ച ാരം
സഞ്ച രിച്ച
പ്രേ രിപ്പിക്കുക
ഉണ്ടാക്കുന്ന തിനു
പിടി ത്തം
വരാ കുന്നു
ഫ് ലാ
അംഗ ോള
മട ക്കുള്ള
സ്വീ ഡിഷ്
തടി ക്ക്
കൂട്ട ികെ
ശത്രു ക്കളുടെ
ജയ ിക്കുക
ജയ ിച്ചു
കവി ഞ്ഞ
ബുദ്ധി മുട്ട്
വാഹ നത്തില്
ശേഷ ിക്കുന്ന
മ്മാ തെ
പറയുന്ന യാള്
സംഭവ ിക്കാത്ത
വശ ത്തുള്ള
പ്രായ മായ
കൂട ുന്ന
കൂട ും
ബീ ജാ
ബീ ജം
രാഗ വിസ്താരം
സൂര്യ ദേവന്
സുഖ കരമായ
സുഖ ാനുഭൂതി
വ്യക്തിയ ായിരുന്നു
പോയ ിരിക്കുന്നു
കിട്ടുന്ന തിനായി
ആരംഭ ിച്ചത്
ഉട ക്കുക
റേ റ്റ്
പുത്രന് മാര്
ാട കന്
ചതു രംഗം
സംഭ വിച്ചു
മുത്ത ു്
കുല ത്തില്
ലോക ത്തിന്റെ
ലോക ങ്ങള്
ഉന്ന തമായ
അമേ രിക്ക്
അനാ മി
അക്ഷ യ
മാത്ര മുള്ള
പത ിക്കുന്നു
ഭേ ദ്യമായ
അന്ത സ്
ബഹു മാനിക്കുക
വരി ഞ്ഞ
ത്യാ ഗ
വോ ട്ട
ഈശ്വര ൻ
തോന്ന ല്
ഗണ വും
പ്ത കാലം
പ്രവേശ ിച്ചു
തുല്യ മായി
മറ്റുള്ള വര്ക്ക്
കച്ച റ
പൊടി ച്ച്
ഇല്ലാ തിരിക്കുക
വംശ പ്പേരു
തോട്ട ത്തിലെ
നക്ഷത്ര ങ്ങളുള്ള
കിട്ടിയ തും
പറഞ്ഞ ത്
ടോ മി
പ്രസ വം
പ്പിക്ക ാവുന്ന
ഭ്ര മണ
അവര് ക്ക്
അവര് ണ്ണ
സ്വാഭാവി കമായി
ദൃഢ മാക്കുക
ിയു ടേ
മൌ റി
നീള ന്
ആനന്ദ പ്രദമായ
അതു മായി
സംഘ ര്
പ്പുള്ള വന്
തിരു മല്
ചെട ികളില്
നീല ഗിരി
ചോദ ിക്കുന്ന
ചോദ ിക്കുന്നു
വാര് ധ
പുരാ തനം
ശേഖ രിക്കുന്ന
അവിടെ യും
ഒഴി വാക്കുക
അശ് വതി
എതി ർ
എതി രാളി
ഓട ുന്നു
നിഷ് ഫലമായ
ിച്ചെ ടുത്തു
ആരോ ഹ
ആരോ പണ
തില ക
മനസ് സിനി
ടേ പ്പ്
കേന്ദ്ര മാണ്
പരിശോധ ിക്കുന്നു
ബ്രാഹ്മണ ൻ
സിംഹ ത്തിന്റെ
തമാ കുന്ന
കുത്തി വയ്
വയ്ക്കുന്ന തിനുള്ള
നടന്നു വരിക
ചുവ യുള്ള
അഭ്യ ു
ഉദ ാത്ത
സാങ്ക ല്പീ
മാനി ന്റെ
മുമ്പ േ
തിരഞ്ഞെടു ക്കുക
വ്യക്ത മായി
പല്ല ുള്ള
ന്ദി ന്റെ
ക്കൊ തിയ
മുറു ക്കി
വൃത്തിയാ ക്കുന്നു
ഓടി പ്പോവുക
ദാന ശീല
ചെരു വം
ഉന് തു
കല്ല ുകള്
തപ സ
ഗോത മ്പു
ഗോത മ്പു്
പട്ടിക യില്
ജ്ഞാ താവ്
അനുകൂല മാവുക
എഴുതിയ ിട്ടുണ്ട്
വലു തും
വീട്ട ിലേക്ക്
മത്ത േയും
രത്ന മാല
കൈയ്യ ുള്ള
നിന്ദ ിക്കപ്പെട്ട
ആര തി
കൊല യാളി
തവണ യും
അമ് ല
കുറ്റി ചെടി
വര്ദ്ധ ിപ്പിക്കുന്ന
ആര് ക്കാണോ
തീർ ന്നു
കണ്ണി നെ
വായ് പുണ്ണ്
ഓര്മ്മ ക്കേട്
പുറം തോടുള്ള
സാഹിത്യ ത്തിലെ
പൂര്ത്ത ീകര
ചിര ങ്ങ്
ിക്കാവുന്ന ത്
കലപ്പ കാല്
വിൽ ക്കാൻ
വിഭാഗ ത്തില്
വിഭാഗ ങ്ങള്
ഉണങ്ങിയ പഴവര്ഗ്ഗം
ധൂ മ
ദ്രോ ഹി
പുളി പ്പുള്ള
മരു മകന്
ചിറ കു്
പേര യ്ക്ക
നാല ിരട്ടി
മഹേ ശ്
സ്വാതന് ത്രം
ദോ ശ
ദോ ഹ
മാറി പ്പോകുക
അനുഭ വസ്ഥ
തിരിച്ചറിയ ല്
പ്രവർത്ത നം
പവി ഴ
കുത്ത ിക്കയ
േയ റ്റം
പാർ ശ്വ
ആരോഗ്യ മുള്ള
ദിശ യിൽ
നിലവില ില്ല
സ്റ്റേ റ്റ്
രച ിക്കുക
നീയ രായ
നൽ കി
സാക്ഷ രത
വീഴ് ത്തിയ
പൊട ിക്കുന്ന
പൊട ിക്കുന്നു
വഴു തങ്ങ
പാക പ്പെടുത്തുക
ര്വ ത്
പുഷ്പ മാല
ളോ റി
നേര ത്ത്
ദ്വീപ ില്
പേപ്പ ർ
നല്ക പ്പെടുന്ന
െന്ന ാല്
പഞ്ചാ ബ്
പലിശ ക്കാരന്
മേഖല യോട്
തടസ്സ മുണ്ടാക്കുന്ന
ക്ഷേത്ര ത്തിൽ
പകര് പ്പ്
മിഥ ിലാ
ന്യാ സ
ഉണ്ടാക്ക ാം
ഗാന്ധ ാരം
മംഗള കരമായ
ഇസ് രേ
അധീനത യില്
ധാര്മ്മ ികമായ
പ്പെട്ടി ട്ടുണ്ട്
ഹെ ഡ്
കാട്ടു രുള
പുതു തായി
കൌശ ലം
കീഴട ക്കുക
പ്രയോ ജനം
തർ ജ്ജിമ
തായ് വാന്
ിയി റ
ബാങ്ക ിൽ
യജു ര്
മിനി റ്റ്
നിരീക്ഷ കന്
രാമായ ണം
ജപ ിക്കാത്ത
ദീപ ിക
കണ്ടെ ത്തുക
ഹാനി കരം
കുടിയ േറ്റം
മിശ്രി തമായ
ത്തിലു ളള
ദരിദ്ര ന്
ചാര് ധാമ
സൂച ിയുടെ
ഭരി തമായ
രജ പുത്ര
സിന്ദ ൂരം
എന്തി നെ
എന്തി നാണ്
നിമി ത്തം
സമര്ഥ നായ
ഒന് പതു
ഭൃ ത്യ
കളങ്ക മില്ലാത്ത
ചുമതല പ്പെടുത്തുക
അശോ കന്
വീട ുകളില്
ചുട്ട െടുക്കുന്ന
ചഞ്ച ല
ശാസ്ത്രീ യമായ
കേടു വന്ന
ദുർ ഗന്ധം
ഗോര ഖ
ശസ്ത്രക്രിയ ാ
മാള വ
മാള ്ട
ചപ്പ ുകൾ
തയ് പ്പിക്കുക
മിശ്ര ണം
പ്രായോഗിക ജ്ഞാനം
നടപ്പിലാ ക്കുക
നുറു ക്ക്
ലാവ ൊ
പരിധ ിയായ
കൊടുങ്കാ റ്റ്
ഭീകര വാദ
മാതാപിതാ ക്കള്
ഗരുഡ ന്
പ്രഭു വിന്റെ
നിഷേ ധം
വ്യത്യസ്ത മാണ്
പശ്ചാത്ത പ
അഫ് ഘാനി
വച്ചി ട്ട്
വ്യവ ഹാര
സൂക്ഷി പ്പുകാരന്
ഇവിട േയും
പട്ടി ണി
പ്പട്ട ിക
സാമര്ത്ഥ ്യമില്ലാത്ത
പരമാ ണു
പർവ്വത നിര
സമാന ത
ക്ളാ സില്
പൈജാമ യുടെ
ഫിലിപ്പീ നി
കാണാ തായ
തെറ്റിദ്ധ ാരണ
ദൌർ ഭാഗ്യ
അസ്തി ത്വം
വ്യഭി ചാരം
ശ്രാ ദ്ധ
ശ്രാ ദ്ധം
ജോലിക്കാര െ
മൈതാന ത്ത്
രജി സ്ട്ര
മറ്റേ തെങ്കിലും
അടിത്ത റ
എണ്പത്തി നാല്
ിക്കാതിര ുന്ന
ഗുണന പട്ടിക
നവരത്ന ങ്ങളിലൊ
ആസ്വദ ിക്കുക
അവതര ണം
മുടന്ത നായ
ട്യൂ ബ്
നിരോധ ിക്കപ്പെട്ട
അപഹ രിച്ച
ഇളകി പോവുക
അജ്ഞാ ത
സച്ചി ന്
ബാറ്റ് സ്
സാധ്യത യുണ്ട്
പരോപ കാര
ജനായ ത്ത
മഷ ിയെ
വശീ കരണ
മൃഗാ ദ
ആയിര ക്കണക്കിന്
കാര്ബ ണ്
ടൂ വൈ
ദർശ നം
മിന്ന ുന്ന
തീര്ക്ക ൽ
നെയ്ത്തു പകരണം
തട്ടിപ്പറ ിക്കുക
അങ്ങാ ടിയില്
രാജാവ ായിരുന്നു
സൂചക മായി
പ്രാപ് യമായ
തിരിച്ചറി വ്
സന്ദര് ഭം
വിദ്വാന് മാര്
നിരക്ഷ ര
സര്ക്ക സ്
അർജ്ജുന ന്റെ
നിയമാനുസൃ തമായ
ബാല് കണി
കാനഡ യുടെ
ഇന്ധ നം
ശകാര ിക്കുക
അനുസ രിക്ക
ഇന്റ ര്
ലായ നി
പ്യൂ ണ്
സാന്ദ്ര മായ
പഞ്ചേന്ദ്രിയ ങ്ങളില്
ലൈംഗ ീക
ധ്രൂ വ
കിടാ വ്
പെയ് ത
കേണ പേക്ഷിക്കുക
ദംശ നം
സമ്പാ ദ്യം
വാര്ദ്ധ ക്യം
അക്ബ റിന്റെ
മതാനു യായി
അതിക്രമ ിച്ചു
കിരീ ടം
കത്ര ിക്കുക
സജ് ജീ
ക്ലേ ശ
സന്ദേഹ മില്ലാതെ
പൊട്ടിത്തെ റ
ഷാജ ഹാന്
ഗ്വോ ട്ടിമാല
ഭീമാ കാരമായ
സന്തുല നം
പിറുപിറു ക്കുക
ശത്രുതയു ളവാക്കുന്ന
ചങ്ങാ ടം
ശമി പ്പിക്കുന്ന
നെഹ് രു
ഉച്ചരിക്ക പ്പെടുന്ന
ആര്ദ്ര ത
അസൂ യാ
ഒത്ത ൊരു
ക്ളി പ്തകാലം
മാസി ഡോ
പെരുമ്പാ മ്പിന്റെ
കഠോ രമായ
ഭിലാഷ ിയായ
വേറ ൊരു
ശംഖി ന്റെ
നുള്ളി പറിക്കുക
ത്തോല ിക്ക
പഞ്ചഗ വ്യം
ഒന്നേ കാല്
അഭില ഷ
പാണ്ഡിത്യ മുള്ള
അജ് മീറിലെ
ചരു വം
റദ് ദാ
റഹീ ം
ക്രയ വിക്രയം
ഇടതൂ ര്ന്ന
ക്യാപ്റ്റ ന്
നൂറുക ണക്കിന്
മൃഗീ യ
എല്ലായ് പ്പോഴും
ദുര്ജ്ജ തനം
ശ്രേയ സ്
അത്യാധുനി കമായ
സ്വിറ്റ്സര് ലാന്
ശ്വാസോച്ഛ് വാസം
ഏപ്ര ില്
വേണ്ടു വോളം
സ്വല്പ തരു
ശീഘ് രം
ധനവിഭ വസമ്പന്നരായ
സാങ്കല്പീ ക
ം സ
ം സേഷന്
അ ൽ
അ സഹ
അ മീ
അ മരം
അ സത്യ
അ പ്പൂ
അ ബ്രാഹ്മണ
അ ഭയം
അ സമര്ഥ
അ ഹിംസ
അ പ്രാപ്യമായ
ആ ഢ
ആ ണ്ട്
ആ ക്കി
ആ പ്പ്
ആ ട്ടുന്ന
ആ വിഷ്
ആ വേശം
ഇ ക്ക
ഇ ത്തി
ഇ ട്ടുക
ഈ ശോ
ഉ ം
ഉ ള
ഉ ടെ
ഉ ണ്ടു
ഉ ന്തല്
ഉ ളുക്ക്
ഊ ഷ
ഊ തുക
ഊ തുന്ന
ഏ കീ
ഒ സ്യ
ഒ ളിയ
ഓ ടിയ
ഓ ര്ക്ക
ക നു
ക തിര
ക ക്ഷി
ക ക്രിയ
ക വാട
ക മ്പൂ
ഗ ദ്
ഗ ിര
ഗ ഡ്
ഗ ഡി
ഗ ജം
ഘ ും
ഘ ടി
ച ണ്ടാ
ച പട
ച ര്ക്ക
ജ മ
ജ റ്റ്
ജ വഹ
ജ നാല
ജ നോപ
ട ശ
ട ൽ
ഡ ർ
ഡ റി
ഡ ്യൂ
ഡ ുകാരന്
ണ ന്
ത ത
ത ണ്ട
ത യ്ക്ക്
ത ന്യ
ത പ്പി
ദ ത്തെ
ധ ൻ
ന ങ്ക
ന ഗ്
ന വം
ന ദു
ന യോഗ്യമായ
ന ർമ്മ
പ ത്മ
പ ീസ്
പ സന്ത
പ കര്ത്ത
പ നാമ
ഫ ാം
ബ ത്
ബ ടോ
ബ ഖാ
ബ ട്ടന്
മ ിയുടെ
മ തമായ
മ മത
മ ികമായ
മ ്യൂ
യ ൻ
യ രി
യ ടിക്കുക
ര ക്ക്
ര മണ
ര ിക്കുന്നത്
റ സ്
ല ുക
ല ുകാരന്
ള ല്
ള ാണ്
വ ൾ
വ ക്ക്
വ ിക്കുന്നു
വ യില്
ശ ാന
ശ രണ
ശ രാശ
ഷ ര്ട്ട്
സ ൗ
സ കല
സ ബർ
സ ഖ്യം
ഹ ർ
ഹ മായ
ഹ ദര്
ി തി
ു ണ്ട
ു മുള്ള
ൂ ർ
ൂ ട്ട
െ ബ
െ ൽ
െ ണ്ണ
േ ാ
ൈ ക്യം
ൌ ട്ടി
ക് വി
ക്ക ച്ച
ക്ക രി
ക്ക െങ്കിലും
ന്ന ത്
ന്ന ിരിക്കുന്ന
പ് ലാസ്റ്റിക്
ുക ാര
ിക്ക യര്
ിക്ക ഴിഞ്ഞു
സ് വന്
സ് വര്ഗ്ഗ
ിയ ാല്
ില് ലി
ങ് കാല്
രു ണ്ട
രു ദ്രാ
തി രാ
തി ണ്ണ
വി ഭാ
വി ജന
വി ക്ഷേ
വി ച്ചി
വി ഭാവ
വി ദേശി
വി സമ്മതിച്ചു
പ്പ ില
പ്പ ത്രം
പ്പ ായം
പ്പ നീസ്
നി ബി
നി സാം
ില ൊരു
മാ ൺ
ച്ച ല്
ച്ച ില
ച്ച െടുത്ത
മു ട്ടിയ
മു സൽ
രാ ക്കി
രാ വതി
രി ണി
പ്ര ിയന്
പ്ര വാഹ
പ്ര വൃത്ത
പ്ര സംഗ
പ്ര വഹിക്കുന്ന
ങ്ങ ുവാന്
വാ ബന്ധ
വാ നോ
വാ ർത്ത
വാ റ്റുക
കാ ത
കാ ച്ച
കാ തിരിക്കുക
കാ ജാല
മ് മു
മ് രം
മ് നാ
കു നു
കു ശീ
കു പ്പായ
ല്ല ാവ
ങ്ക േ
ദ് ദി
ദ് രാക്ഷ
റ്റ ൈ
ിക്കുന്ന തു
പു ണ്ട
ിച്ച െടുക്കുന്ന
കൊ ക്കു്
താ ന്ത്രീക
സം ഗമ
സം ക്രാന്തി
ലി പേ
ലി നുള്ള
ത്ര യോ
പാ ണ്ട
പാ റ്റി
പാ കമായ
പാ നീയ
പാ മ്പാ
പാ മർ
വ്യ ുത്
ഭാ ം
ഭാ ംഗ
ടി പ്പിക്കുക
അവ യ്ക്ക്
വേ റിയ
വേ പ്പില
നു ഷ്ഠ
ക്കുക ാരന്
പോ ക്ക്
പോ കല്
പോ കണം
പോ കേണ്ടി
യാ ര്
സാ ല്
സാ ര്ത്ഥ
സാ മാന്യ
സാ ഗർ
സാ ന്ദര്
ണി ന്
പി ള്ള
പി സ്ത
വര ട്ടി
ദ്ധ ി
കൂ പ
സി ച്ച്
സി ങ്ക്
വസ്ഥ യില്
മൂ ടു
നെ റ
നെ റ്റിയ
വെ ണ്
വെ ക്കുന്ന
പൂ യം
പൂ മാല
വീ ട്ടി
വീ ര്യം
വീ കമായ
വീ തിയുള്ള
ഗ് ലി
ഗ് ലാ
ഗ് വാരാ
ചി പ്പ
ചി ന്നം
ചി വുലി
തല വന്
തല യ്ക്ക്
തല മുടി
തല നാരി
മി ട്ട
മി നാ
മി ടിക്കുക
മി നിയാ
ട്ടി ഴ
ലം ബം
ഷ്ട ്യം
രോ ലി
ജോ ക്കര്
കം ജ
കി നി
കി ന്സ്
ഉപ ജീവനം
നായ ിര
നായ കന്റെ
ദി വ്യാ
ാന ായിട്ട്
യി ട്ടു
നട ന
കള ോ
കള ിയുടെ
കള ിയിൽ
കള ങ്കം
മ്പ ക്കം
ാരം ഭം
വള യ
വള കള്
വള യുന്ന
തെ ണ്ടി
ലാ ക്കുക
ലാ ഹി
ലാ വണ
ലാ വിയ
കോ സ
കോ ംഗോ
തീ ര്ന്ന
തീ ഷ്ണ
തീ ര്ത്തു
തീ ജ്വാല
സു പരി
സു ലഭ
സു ഗ്രാഹ്യമായ
ക്കി ംഗ്
വുക ളും
നീ രുക
നേ രുക
നേ രായ
പെ ടുന്ന
എന്ന ാകുന്നു
മേ യുന്ന
രാജ ി
രാജ പുരി
രാജ കീയമായ
തിര ിക്കുന്നത്
തിര ൂപ
പറ ക്കുവാന്
പറ ഞ്ഞിട്ടുണ്ട്
ബ് ളോ
പരി ത
പരി ഹാസം
കേ ക്ക്
കൃ താ
സമ കാലീന
സമ ശീതോ
പൊ ക്കിയ
പൊ ന്തുക
ന്ദ രിയ
കട വ്
കട മായി
കട ത്തുക
കട യല്
കട ത്തല്
ഞ്ച ുക
ഗ്ര ീസ്
ഗ്ര സിക്കപ്പെട്ട
മഹ ാര
ടിയ ുക
അതി വേഗത്തില്
തോ ഗദം
മര ങ്ങള്
മര കുട്ട
മര തവി
കുറ ുക
സൂ ഫി
സ്വ ഭാവി
സ്വ ോഹ
കാണ ിക്ക
കാണ ും
കാണ ാത്ത
കാണ ാതെ
കാര ന്റെ
കാര ിക
കാല ു്
കാല ുകൾ
കാല താമസം
പര കാഷ്ഠ
മോ ൾ
കൈ ക്ക
കൈ രി
കൈ ലാ
കൈ ക്കു
കൈ പിടിയുള്ള
ത്രി കോണാ
ക്കാ ള
ജാ ക്വി
ജാ പ്പനീസ്
വെള്ള കൂ
ുകള ഞ്ഞു
ുകള ുണ്ട്
ികള ുണ്ട്
മുതലായവ രുടെ
ശു ണ്ഠി
ഉള്ള ിലെ
ഉള്ള വന്
ലോ പ
സഹ രോലി
അനു ചരന്
ചേ രി
ചേ രല്
ചേ രൽ
ുകള് ക്ക്
ചെയ്യുന്ന തിൽ
പുറ ക
ജന വാസ
യുള്ള ത്
ഉപയോഗ ിക്കാന്
കെ ണ്ട്
ഗോ പാല
ഗോ വാബന്ധ
വലിയ ങ്ങാ
ഭാഷ കന്
ഭാഷ കള്
മനു സരിച്ചുള്ള
ിക്കു മായിരുന്നു
മാര് ക്കിട
കാര്യ ത്തിലും
ഇട വി
ഇരു ട്ട
ഇരു ത്തി
കീ ലകം
വൈ ണ്ടായി
ത്താ വള
ചാ ടും
എന്നിവ യാണ്
ആള് പാര്
മനുഷ്യ രുടെ
ബു ൽ
ണ്ഡ ്
ിലാ ണോ
പൂര് വ്വ
പൂര് ണ്ന
സേ സിൽ
ചെറിയ തും
വയ വ
വയ റ്റിലെ
ഭാഗ മായി
ിക്കാ രും
കൊടു ക്കാ
കൊടു ക്കാന്
പ്രതി ഷ്ട
ചില മ്പ്
പതി ന്റെ
അട ക്കുക
തര ണം
നുള്ള ുക
കുട ോ
കുട ിച്ച
വിള കളെ
വിള ക്കിന്റെ
വിള മ്പുക
രോഗ പ്രതിരോധ
ബോ ഹര
ഷി ത
റാ ക്കുക
പ്പാ ത്രം
പ്പാ വിൽ
നില വിളിക്കുക
നില നിര്ത്ത
ശീ തീ
ഭവ ന
പഴ ത്തിന്റെ
രക്ഷ ിച്ചു
മഹാ നായ
വു മുള്ള
വു മാണ്
വു ഡ്
വു മില്ല
വന രാജ
ആയ ിരുന്ന
വില ക്ക്
ദാ ദാവ
ചൂ ര്
ത്സ ലായി
അല സ
അല സത
മുഖ നായ
ബി ം
ബി ഹി
അഭി ചാരം
അഭി രുച
ഉത്ത മമായ
മന് യു
സ്സ ിലെ
സ്സ െൽ
അന സൂയ
ത്തില ായിരുന്നു
പഠ ാന്
പഠ ിച്ചി
പഠ ിച്ചുകൊണ്ടിരിക്കുന്നു
സ്ഥാന മാറ്റം
വിഷ മില്ലാത്ത
ഹര ിക്കുന്ന
ത്തോ ട്ടം
തേ നി
അപ ര്യാ
സംഖ്യ കളുടെ
തട വ്
തട ിച്ചു
ശരീര ത്തിനു
കല വ്യ
കല ര്ത്ത
മണ ിയുടെ
ജീവ നെ
ജീവ ത്യാഗം
പെട്ട െന്നുള്ള
ധന പരമായ
സാര ഥി
മനോ രമ
ലേ റ്റ
ഇര വിൻ
തിന് മ
ആയു ർ
ഡി സം
പക്ഷ ാ
പത്തിയ ഞ്ച്
കല് ചട്ടി
യില േ
യില േയ്ക്ക്
തന് യം
സീ യ
സീ ഷെ
ക്തിയ ുള്ള
ജല ധാര
മുന്ന ിലെ
അള വില്ലാത്ത
സോ ര
നിര ത്തിയ
വാദ ികളായ
മുള യ്ക്കല്
ത്മ കമായി
ര്ത്ഥ ി
സൈ ക്കി
സൈ ക്കിള്
സൈ ഗാൺ
എണ്ണ യില്
പട ിക
പട പട
കണ്ണ ുകളില്
എടു ക്കുന്നത്
എടു ക്കുവാന്
മാസ ങ്ങളില്
ചെറു പ്പം
അടു ക്കല്
അടു ക്കൽ
മാറ്റ ൽ
ിച്ചി ട്ടു
ിച്ചി ട്ടില്ല
യാത്ര ക്കാര്
സ്ഥല ത്തിന്റെ
അയ ക്കുന്ന
അയ യ്ക്കുക
നിറമുള്ള തായ
വ്യാപ ൃ
മൊ ഴ
ബല പ്രയോഗം
ബല ൂണ്
ശാസ്ത്ര ത്തിലെ
പീ ഡി
ഉണ ക്കി
പാട ുള്ള
അമ്പ െയ്
ചിത ല്
ചിത റുക
ക്രമ ിക
ത്തിനു മുമ്പുള്ള
മറ ന്ന്
മറ യുന്ന
ശബ്ദ മുള്ള
പണ ിക്കാര
ഒന്ന ായി
ഒന്ന ാമത്തെ
പൌ ര്
വരു ന്ന്
ിലേ ക്കുള്ള
ിലേ യ്ക്കും
മുറ ം
മുറ ിക്കുമ്പോള്
ച്ചി ട്ടുണ്ട്
പറ്റ ുന്നത്
നാട കത്തിന്റെ
ആവശ്യ മുള്ള
ആവശ്യ മായി
ആവശ്യ മില്ലാത്ത
പെരു മാറുക
ഹോ ള്
േണ്ട ത്
പ്പിച്ച ുകൊണ്ടിരുന്നു
കള്ള ൻ
കള്ള നായ
ക്കൂ ല
ക്കൂ മ്പാരം
തുമായ ത്
കൂടി ചേരുക
സംസാര ിക്കും
പിടി ത്ത
വരാ തിര
ഭു ജാ
ഗുണ മേന്
വിധ േന
ഭഗ ല്
വിട ര്ന്ന
ജനി പ്പിക്കുക
കഥ യുടെ
ഫ് ളോറി
നടത്തുന്ന യാള്
പ്രത്യേക ത
പ്രത്യേക മായി
അക ത്തു
ആഗ്രഹ മുള്ള
ആഗ്രഹ ിക്കാത്ത
ആഗ്രഹ ിക്കുന്നവന്
ശത്രു ഘ
ജയ േ
ചെയ്ത വനായ
ിലി ട്ട
ആദ ിയായ
മനസ്സ ുള്ള
ശുദ്ധ ീകരിച്ച
സമ്പ ര്ക്ക
കരി മ്പ
അര് ധ
കൃഷ്ണ നെ
മനോഹര മാണ്
വശ ത്തേക്ക്
വനി ത
ഫ്ര ീ
അന്യ ര്
അന്യ ന്റെ
അന്യ രായ
വ്യക്തിയ ാകുന്നു
പോയ ത്
കിട്ടുന്ന തിനായിട്ട്
ആരംഭ ിക്കും
റേ ഡിയ
പുത്രന് മാരിൽ
അലങ്ക രിക്കപ്പെട്ട
തിരി ഞ്ഞ്
ലോക സഭ
കാര്യങ്ങള് ക്ക്
കരു ത
നന ച്ചു
കണ്ട ില്ല
സ്നേ ഹിത
അന്ത രം
ചൊ വ്
ബേ ല്
അഗ് രം
കഷ്ട പ്പാടില്
ലാന് ഡ്
തണു പ്പില്
ിക്കൂ ടി
നിർമ്മ ിക്കുന്നത്
ആകാശ ഗംഗ
പ്രവേശ നക
ഉപേക്ഷ ിക്കുന്ന
ഉപേക്ഷ ിക്കല്
ധര്മ്മ സ്ഥലം
മൂന്ന ര
അഹ മ്മ
കപ്പ ൂ
ധ്യ ാനം
ധ്യ ക്ഷന്
രക്ത സാക്ഷി
വംശ നാശിയായ
പൊട്ടി പ്പോയ
പഠി ത്ത
ചികിത്സ കൻ
ആത്മ കഥ
സെ ംസേഷന്
കൊല്ല പ്പെട്ടു
സാഹ സം
സാഹ െബ
കടി ച്ച്
കടി ഞ്ഞാ
നയ ിക്കുന്നു
ചല ന
വേര് തിരിക്കുന്ന
തൊണ്ണൂ റ്
കമ്പ നിയുടെ
സുന്ദ രത
പറഞ്ഞ യ
നാഥ ന്റെ
തുണ ികൊണ്ട്
ജീവിത ത്തിന്റെ
ജീവിത ത്തിലെ
മുട്ട ല്
മുട്ട യുടെ
മുട്ട ു്
എത്തി ചേ
മാറ ല്
നാലു പുറവും
ന്യായ ത്തിലെ
വിഷയ മാണ്
ജു ബിലി
ീകര ിക്കുക
വഹ നം
മൌ രി
മൌ ലി
ശര ബത്
ക്കൾ ക്ക്
വര്ഷ ത്തില്
അല് ബേ
ധാര ികളായ
ഷാ ൾ
ബംഗ ള
ബംഗ ലൂരി
മുഴ ക്കുന്ന
അച്ച ാര്
പാത്ര ത്തിന്റെ
ലോഹ ങ്ങള്
ആഫ്രിക്ക യില്
തിരു വന
തിരു വോ
മരുന്ന ി
സേവ ിക്കുക
ഉണ്ടാക്കിയ ത്
ശേഖ രിക്കപ്പെട്ട
ബ്രഹ് മാ
സന്തോഷ ിക്കുന്ന
സന്തോഷ ത്തോടെ
ഒഴി വ്
ഒഴി പ്പിക്കുക
കൊടുക്കുക യോ
നിഷ് ക്രിയ
നഗര ത്തിന്റെ
ജ്ഞാന മുള്ള
സീത യെ
ചൈ തന്യ
ചൈ തന്യം
നദ ിക്കര
കൃഷ ിയ
പരിശോധ ിച്ച
രാത്രി മുല്ല
തവി ടു
ഗ്രീ ക്ക്
ചാണ കവ
പ്രിയ തമ
വില്ല ാതെ
വില്ല ാളി
അഭ്യ സനം
നന്ദ ിയുള്ള
സല് ക്കാരം
പ്രകാശ പൂരിത
സാങ്ക ല്പ്പ
ഉഴു തു
പനി നീര്
മാനി തരായ
വേട്ട ക്കാരൻ
ലയ നം
ലയ ിക്കുക
ലയ ിക്കാത്ത
വാക്കുക ളുടെ
തെളിയ ുക
സ്വഭാവ ിയായ
ദാന മായി
ബൈ ജാ
ബൈ ംഗന
അറ ക്ക
വധ ാനം
വിവേ ചന
ദഹ ിക്കുന്ന
അണി മ
അണി ഞ്ഞിട്ടുണ്ട്
തറ ഞ്ഞു
നമ്മ ൾ
ഹൈ ഡൻ
കാലാ ള്
ചേർ ക്കുക
കൂടാതെ യുള്ള
പട്ടിക യിലുള്ള
പത്ര ത്തിൽ
ചേര്ന്ന ത്
പര്വത ത്തിന്റെ
ഇടി ങ്ങിയതാക്കുക
എഴുതിയ ത്
രാധ യുടെ
അധ്യ ക്ഷ
ഉള് പ്പെടുന്നു
പണ്ഡി തനായ
മുഖ്യ മന്ത്രി
തീറ്റ യും
മാന്യ മല്ലാത്ത
ആക്രമ ിക്കുക
കച്ചവട ക്കാരന്റെ
രാസ ലീല
തവണ കളായി
വര്ദ്ധ ിച്ചു
മാംസ ഭുക്ക്
ആസ ക്തിയ
ആശ്രയ ിച്ചു
ആശ്രയ മില്ലാത്ത
അർ മേ
കടു പ്പ
ഞെ രു
ഞെ രിഞ്ഞ
വട്ട ത്തില്
കവിത യില്
പുല ര്ത്തുന്ന
സഹോദരി ഭർത്താവ്
നിയായ ിലുള്ള
പൂശ ുന്നു
മുപ്പത്തിയ െട്ട്
ചിര ട്ട
അമി തമായ
മാതാ വിന്റെ
മാതാ വു്
കോണ് ഗ്രസ്
ഒഴ ിച്ചു
ധൂ ര്ത്ത
ഭൌ തീ
ചോദ്യ ങ്ങള്
ഉരുള കിഴ
ഉരുള കിഴങ്ങ്
നെയ്യ ുന്നു
ഇഴ യുക
പേര ക്കു
കൃത്യ മായ
നീളമുള്ള തും
പ്രയാ സം
തീവ്ര വാദി
തീവ്ര വാദികള്
സമര് പ്പിക്കുന്ന
പുരുഷ നെ
തിരിച്ചറിയ ുന്ന
പൊതു ജന
നടു ത്ത്
നിത്യ വും
കുത്ത ല്
കുത്ത ാന്
കുത്ത ുകള്
പ്രശ്ന ത്തിന്
ഫു ല്
ഫു ട്ട്
ദീര്ഘ കാലം
ദീര്ഘ ായു
കൂടിച്ചേ രുന്ന
നിലവില ുള്ള
ചൌ ബെ
ചൌ ംസ
മദ ന
ചിത്ത ത
വറു ത്തെടുത്ത
രാവണ ൻ
ആയുധ ങ്ങള്
പ്രയോഗ ിക്കുന്ന
തീര്ഥ യാത്ര
കന്ന ുകാല
ചിരി പ്പിക്കുക
പോലീ സുക
കീട ങ്ങള്
ജ്യോതി ഷ
അമ്മാ വി
കൊയ് ത്തുക
സാം ക്രമിക
വെട്ട ുന്നു
വർദ്ധ ിപ്പിക്കുക
ക്രൂ രത
മണ്ഡല ത്തിലെ
ഈന്ത പ്പഴത്തിന്റെ
പ്രണ യിക്കുക
നടത്തിയ ത്
വ്യാപാര ത്തില്
മദ്യ പിക്കുക
ഹിമാല യം
വിസ് മയ
വിസ് ഹൈഡൻ
ക്ഷീ ര
രാശ ികളില്
കര്ണ്ണ ാടക
ഗാന്ധ ാരി
ഇസ് ലാ
ഡിയ ാന
വേർ ഡ്
വേർ പെടുത്തുക
മൃദു ല
കൌശ ികി
ജഗ ത്
ഡെ ല്
മുപ്പത്തി മൂന്ന്
കട്ടി കുറഞ്ഞ
തർ ക്കം
തുളസി ദാസ്
നിസ് സംശ
നിപുണ നാണ്
പിരി മുറുക്കം
സമ്മതി ദായ
പരസ്യ പ്പെടുത്തുക
മോഹി നി
അഭ യാര്ത്ഥ
കുലു ക്കുക
വെട്ടുക ാരന്
നോക്ക ികൊണ്ടിരുന്നു
ഹിമാലയ ത്തിന്റെ
കമ്പ്യൂട്ട ര്വത്
പുരോഗ തി
പാകി സ്ഥാനി
എല്ലാവര ോടും
ചട്ട ക്കൂട്
ഗൃഹ സ്ഥാ
അത്യാവശ്യ മായ
ഉത്സാഹ മുള്ള
ഉസ് ബക്കി
വെയില ില്
വീട്ടു പകരണ
ത്തിലു ണ്ടാകുന്ന
ചരിത്ര പരമായ
ഓഫീ സ
ഫിലി ം
തുല നം
സിദ്ധാന്ത ത്തിന്റെ
എന്തി ന്റെ
പാരി ജാതം
ബില് യണ്
മഞ്ച ം
പറയാ ന്
ചെറുക ു
സ്വന്ത മാക്കുക
ഉപദേശ ിച്ചു
നായ് മ്പ്
പുറപ്പെടു വിക്കുന്ന
ഉല് ക്ക
തൊഴു ത്തു്
അഴി മത
ദാര് ശനി
നിയമാനു സര
പരമ ഹം
അംബ ിക
ചെമ്പ കപ്പൂ
മേശ യുടെ
നാല്പ്പ ത്
സ്ഥാപന ത്തിലെ
സ്ഫോട ക
ങ്ങ്ക് ലില്
വിസ്തൃ തി
ഗൂഢ ാലോചന
അവിട വിടെ
ജാം ബ
ദിക്ക ില്
താമ് രിക
വീഴ ാത്ത
മാനസ ികമായ
ദര്ഭ പുല്ല്
ആസ്ട്രേ ലിയന്
തകര് ന്നു
ലഹരിയ ില്
നിവാസ ികൾ
പിഴു തു
നിര്ബന്ധ ി
തഴ യ്ക്കുക
പ്രഭു ത്വം
ആന് ഡ്
ഇതി ഹാസ
ത്യജ ിക്കുക
ദുര ന്ത
ഉപാസ നാ
ഉപാസ കന്
പട്ടു നൂല്
ശരി ക്ക്
മൂര്ത്തി കള്
പെറു ക്കിയ
പൊതി ഞ്ഞ
ശുശ്രൂഷ ിക്കുന്ന
ഋഷ ഭ
സ്ര ഷ്ടാവ്
ചിന്താ ഗതി
വാരാ ണ
യാഥ ാര്ത്ഥ
ദേവാ ചാര്യന്
ആസ് സാ
നദീ തീരം
നദീ തടം
വിമ ര്ശനം
നിറു ത്തി
കുപ്പി വള
ബാദ ില്
ഹിമ സാഗർ
മലേ റിയ
ത്തിര ിക്കും
കഴിയു മോ
ജോലിക്കാര നെ
അരിക ില്
ആരു ടേ
സഭ്യ മായ
സഭ്യ തയുടെ
അനുവദ ിക്കുക
വസൂലാ ക്കുക
കോമള ത്വം
ആകര് ഷണം
ചുള്ള ിക്കമ്പ്
മുഹമ്മ ദീയ
വ്യഞ് ജന
വ്യഞ് ജനം
നായാ ട്ട്
നിർമ്മാ ണം
ഒടി ഞ്ഞു
ികൂ ടിയ
തോറ്റു പോയി
മുടന്ത ന്
മ്യ ാന്
സ്റ്റേഷ നില്
ആധ്യാ ത്മീ
തുവര ച്ചെടി
ികെ ട്ട
കൊഴ ിക്കലും
പെരും ജീരകം
ഭൂട്ട ാന്
ആരോപ ിക്കപ്പെട്ട
പരോപ കാരിയായ
നൊ പ്പം
സ്ലൊ വാക്കിയ
കുണ്ട ലം
ചെലു ത്തുന്ന
തൃപ് തിയ
ഹൈഡ്ര ജന്
ശുക്ല പക്ഷ
നട്ടെല്ല ില്ലാത്ത
ചതിയ ന്
പ്രള യ
പ്രധാ നി
ഭാദ്ര പത
വീടി ന്
വ്യാകുല ത
നൂറ്റാ ണ്ടില്
ചുമത്ത പ്പെട്ട
അറിഞ്ഞ ുകൂടാത്ത
അഗാധ മായ
ഠാ ക്കൂ
ഡേ വിസ്ഹൈഡൻ
കുമ്പി ള്
വ്യൂ ഹ
സുഹൃ ത്ത്
പ്രോത് സാഹ
മെഴുകു തിരി
മുസ്ലീ ം
എട കിന്സ്
ക്ള ീനര്
രുക് മ
നിശാ ഗന്ധി
സംവിധ ായ
കൃപ യാല്
സന്ദര് ഭ
ഹസ് തോപകരണം
ക്ഷയ ിച്ച
കുട്ടിക്കാ ലം
ഫിന്ലാന് ഡി
ഒല ിക്കുക
കൈയക്ഷ ര
കുരങ്ങ ന്
ന്യൂന പക്ഷ
കാംക്ഷ ിയായ
അനിയ ന്റെ
ചെവിയ ിലെ
കൊങ്ക ണി
യാമ ത്തിൽ
ശുഭാ പ്തി
ചൂതാ ട്ടക്കാരന്
ഇമ വെട്ടാതെ
തന്നി ഷ്ട
കൊതിയ ന്
കംബോ ഡിയാന
പ്രകൃതിദത്ത മായ
നിര്ദ്ദയ ത്വം
അത്തി പ്പഴം
കദം ബം
കമ്പോ ടിയ
മസ്തി ഷ്
ികേ ട്
കേട്ടുക േള്
വിരഹ വേദന
ഭ്രഷ്ട ാ
പച്ചക്കറിയ ായി
ഊറി വരുന്ന
വിശാഖ ം
മാനേ ജര്
കോഷ്ഠ ക
ഗുലാ ബഖാ
മുകളിലോ ട്ട്
രമേശി ന്റെ
വിപ്ല വം
ദീപാവലി ക്ക്
അഷ്ഠ സിദ്ധി
ആഭീ ര്
ിക്കത്തക്ക തായ
ചുമര ില്
മലമ് പ്രദേശത്ത്
ഒഴിഞ്ഞു മാറല്
വ്യത്യാസ ത്തില്
പ്രലോഭ ിക്കപ്പെടുക
മൂക്ക ിലൂടെ
അപമാന ിക്കപ്പെട്ട
കൂടിച്ചേര്ന്ന ത്
കക്കൂ സ്
ബനേ ശന്
ബഡ് ജറ്റ്
റയില് വേ
സാവ ധാന
സാദ്ധ്യ ത
ബുന്ദേ ല്
ചെരുപ്പുകു ത്തി
പണിയെടു ക്കാതെ
ക്രൂര തയുള്ള
ഫാക്ട റി
ഇക്കൊ ല്ലം
ബള് ബ്
രസീ ത്
പ്രദേശി ന്റെ
പുരോ ടശ
കടലി ടുക്ക്
കര്ക്ക ശ
നാല്ക്ക വല
ചിത്രത്തയ്യ ല്
അര്ജ്ജു നന്
സംസ്കൃ തം
വിവേകാ നന്ദന്
ഗതാ ഗത
ഹര്ത്ത ാല്
ഉപനയ നം
കയറിയി റങ്ങി
സൂര്യാ സ്ത
മറുക ര
രുടേ തായ
കൊലു സ്
സാമു ദായ
പിസ്റ്റ ൺ
ജിതാ ഷ്ടമി
അള്ള ാ
ആനു പാ
തഹ സില്
തിടുക്ക ത്തില്
വിഘട നം
വിഘ് നം
മാതുല ഗൃഹം
ടെന്ന ീസ്
കോവര് കഴുത
തോന്ന് യാസം
വെള്ളിയാ ഴ്ച്ച
ജലസേ ചനം
ഇംഗ്ള ീഷ
സ്ലോവേ നിയായിലെ
ഇവിടു ത്തെ
എഡ് വേർഡ്
ഘണ്ട ന
ഝി ം
പബ്ളി ക്
പിണ്ണാ ക്ക്
സിഗര റ്റ്
മിശി ഹ
ജീര്ണ്ണ ിച്ച
യുധിഷ്ഠ ിരന്
അവര്ണ്ണ നീയമായ
ചാര്ധാമ ുകള്
നവരത്നങ്ങളിലൊ ന്നു്
ടൂവൈ ല്
ഒത്തൊരു മ
അമീ ബ
ചപട ായി
നദു ത്സലായി
നർമ്മ ബോധമുള്ള
ഫാം സ്സെൽ
ശരാശ രി
ഹദര് സാഹെബ
കാജാല ഡു
ലിപേ ൻസ
ഗ്വാരാ നി
തലനാരി ഴ
സ്വോഹ ിലി
ജാക്വി ലിൻ
ഗോവാബന്ധ ർ
വൈണ്ടായി ക്
ദാദാവ ായ
ഫ്ളോറി ഗാൺ
ശരബത് ഗഡി
ചാണകവ റ
ബൈംഗന പള്ളി
നിസ്സംശ യമായ
ഗുലാബഖാ സ്
അ രോ
അ കം
അ യി
അ രാജ
അ രിച്ച
അ പൂര്ണ്ണ
അ സുഖ
അ തുല്യ
അ പ്പുറ
അ റ്റാ
അ വിവാഹി
ആ ടി
ആ പത്
ആ സനം
ആ ഘാത
ഈ റ്റ
ഉ പ്
ഉ ടിയ
ഊ രി
ഊ ന്നു
ഊ ന്നല്
എ തിരി
എ ണീ
എ സ്റ്റോ
ഏ തിന്റെ
ഏ മ്പക്കം
ഏ കലവ്യ
ഐ തി
ഒ ത്ത്
ഒ പ്പ്
ഓ ർ
ഓ ന്ത്
ക ട്ട്
ക ശാ
ക ച്ഛ
ക നും
ക വിയ
ഖ േദ
ഖ ജരി
ഖ ജാന്
ഖ ില്ജി
ഗ രി
ഗ ദ്യം
ച ല്
ച ണ്ട
ച ാന
ച കോ
ച ാമ
ച പല
ച ിരിക്കുന്ന
ച ത്തു
ച തിയില്
ച ർമ്മ
ഛ ാ
ഛ ു
ഛ േ
ഛ ര്ദ്ദ
ട നെ
ഠ ൌ
ണ ൂ
ത ക്ഷ
ത റി
ത ന്ദ
ത ട്ടു
ത ഡ്
ത യിലെ
ത സ്തി
ദ ല്
ദ ില
ദ ിക്കുക
ദ ണ്ഡി
ധ ഡ്
ന ൻ
ന ങ്ങളുടെ
ന ബി
ന ഴ്സറി
പ ണ്ട
പ ശി
പ ീന
പ ങ്ക്
പ ട്ടിന്റെ
ഫ ണ
ഫ രേ
ബ ന്
ബ ഹര
ബ റേ
ബ ന്ദി
മ ള്
മ ട്ട
മ ന്റെ
മ ിര
മ കൻ
മ ടിയില്
യ മ്പ
യ വനി
ര ൊ
ര മാ
ര ഖ്
ല ഗ
ല ഹ
ല ഖി
വ മായ
വ ജ്
വ ിയുടെ
വ ടിയുടെ
വ തിയുടെ
വ ിക്കറ്റ്
വ ൊന്
വ മിക്കുന്ന
ശ ൻ
ശ ലഭ
ഷ ഗ്
ഷ ഡ്
സ ഖ
സ നി
സ റ്
സ താര
സ കുടുംബം
ഹ ൌ
ാ ലം
ാ റുണ്ട്
ി രി
ീ ച്ച
ീ വ്
ു പ്
ൂ പി
ൂ ടാത്ത
െ ന്നും
േ യ്ക്കും
ൊ തു
് രാ
് ക്കല്
ർ ണ
ർ ക്കൽ
ന് റ
ന് ന്നു
ക് വ
ക് സാ
ക് തരായ
ത് നി
ത് സു
ക്ക ഥ
ക്ക ല
ക്ക ത്ത്
ക്ക പ്പ്
ക്ക പ്പെടാത്ത
ക്ക മ്മി
ത്ത രമായ
ത്ത ൂര്
പ് തമായ
ുന്ന തിന്
ര് ദ
ര് ണ്ട്
ിക്ക റി
ായ ക
ായ ത്ത
ായ ിലുള്ള
സ് ലെ
സ് മരണം
സ് പടിക
ിയ ിലും
രു ഹം
തി നായുള്ള
വി ഷ്ട
വി ശി
വി പണ
വി കൃതി
വി സില്
വി ശ്രമം
വി ക്ടോ
വി ജയാ
വി നിയോഗം
പ്പ ാണ്
പ്പ ല്ല്
നി ട
നി കുംഭ
ില െങ്കിലും
ില ായിരുന്നു
മാ ണോ
മു ജ
മു ക്തനായ
മു ക്താ
രാ ത്
രാ ഗ്
രാ കേ
രാ കുക
രാ പ്പാടി
റെ സ്റ്റ്
പ്ര വ
പ്ര ൊ
പ്ര ദ്
പ്ര പഞ്ച
പ്ര ത്യാ
വാ ച
വാ രു
വാ ട്ട്
വാ കുന്ന
വാ ഹ്
വാ ച്ചി
വാ ഡിയ
തു മാണ്
തു ലാം
കാ ശ്
കാ റ്റാ
മായ ാവിയായ
കു ഭ
കു ന്ദ
കു ത്തു
കു ണ്ടം
കു സുംഭ
ദ് വഹനം
ചെ പ്പി
ചെ ടിയാണ്
ചെ കുത്താന്
ഞ് ജലി
ിക ല്ല്
ിക െട്ട്
പു ആ
പു നര
പു ത്തന്
കൊ ച്ചി
താ ങ്ങ
താ ക്കി
താ ളി
താ ണു
സം സര്
സം ഭരണ
സം സാരി
സം യുക്തമായ
നാ വിന്റെ
ലി ത
ലി പ്
ത്ര േ
ത്ര മായ
പാ റ്റ്
പാ ട്ടുക
പാ വയ്ക്ക
പാ സന
പാ പ്പാന്
ഭാ സ
ഭാ വസ
ടി ൻ
അവ യില്
അവ നോട്
അവ രോഹ
അവ ശിഷ്ടം
്ര ോള്
യ്യ ാ
യ് ക്കാതെ
ില്ല െങ്കില്
നു ണ്ട
നു സൃ
പോ ത
പോ ഷി
യാ വസ്ഥ
യാ ചന
സ്ഥ ൂല
വസ്തു ക്കള
ചെയ്യ പ്പെടുന്നു
സാ മാജ
പി ളര്
പി ഴിഞ്ഞ
വര ച്ചു
വര യന്
കൂ വള
കൂ ന്താ
ണ്ടാ കുന്നു
ങ്ങള ുമായി
മൂ വര്
മൂ ളുക
മൂ ക്കിൽ
നെ ഞ്ച്
യോ ചിതമായ
യോ പമ
വെ ല്
വെ ക്കുക
വെ ളിയ
വെ ള്ല
പൂ രന്
പൂ ക്കുല
പൂ മ്പൊ
ശ് വന്
മുള്ള ന്
മുള്ള താകുന്നു
വീ ക്ഷണം
ഗ് വാല
ചി രിച്ചു
തല യും
തല യന്
മി ന
ഷ്ട ്യ
തിയ ടി
വ്യക്തി കള്ക്ക്
കം ബ്ളി
കം സന്റെ
കി വി
ഉപ ദ്വീപ്
കര ില്
ത്തെ ട്ട്
ങ്ങള് ക്കും
ഴു ത്ത്
ഴു ത്തുകാരന്
ജീ നി
ജീ വ്
ജ് ജ്
ദി ച്ച്
യി ട്ട
യി ടുന്ന
യി ന്റ്
നട നം
നട ക്കാന്
കള േ
കള ില്ലാത്ത
കള ികളില്
കള ുടേയും
ര്യ മുള്ള
വള രേ
വള വുള്ള
വള ർത്തു
കോ ർ
കോ ളി
കോ യമ്പ
തീ രെ
റിയ ില്
റിയ ുടെ
സു ഷി
യു റേ
യു ണ്ടാക്കുന്ന
യു ണ്ടോ
നീ ക
നീ മ
നീ ക്കി
നീ ങ്ങുക
പെ റ്റ
പ്രവര്ത്ത ിക്കുന്നു
എന്ന താണ്
എന്ന തിന്റെ
മേ രു
മേ ഞ്ഞ
മേ യുക
മേ യ്ക്കുന്ന
മേ നക
രാജ കുമാര
തിര ക്കു
തിര ഞ്ഞെടുത്തു
ശാ ണ്ടില്
ശി വാ
പറ ങ്കി
ബ് ര്
ാര് മ്മ
ഴി ഞ്ഞ്
ചു വര്
ചു ഴി
ചു രിക
ചു ണ്ടുകള്
പരി വര്ത്ത
പരി ചയം
പരി മിത
കേ ടുകൂ
ബാ ഗ
നിറ ങ്ങള്
ഹി റ്റ്
ണ്ടി ൽ
സമ യാ
സമ കാലിക
സമ യോചിതമായ
പൊ രു
പൊ ട്ട്
പൊ ങ്ങിയ
പൊ യ്ക്ക
കട മായ
കട ഞ്ഞ
കട ഞ്ഞെടു
വൃ ഷ
വൃ തമായ
ഹം സം
ഗ്ര ന്ധ
ദ്ര വിച്ചു
ചെയ്യുക യും
അതി മനോഹരമായ
അതി ശൈത്യ
തോ ള
ഗു പ്
ഗു ല്ലാ
മര ിക്കുന്ന
മര ത്തിൽ
മര ങ്ങൾ
മര ങ്ങളും
കുറ ിക്കുക
സ്വ ത്തിന്റെ
സ്വ ായത്ത
ത്തിലെ ത്തി
പ്പിക്കുക യും
ഭൂ ഗർഭ
ാവ ന
ാവ ില്
ാവ തി
കാണ ു
കാണ ാവുന്ന
കാണ ുമ്പോള്
കാര റ്റ്
ംഗ ല്
കാല യ
കാല ത്തു്
പേ ക്ഷി
സാധ കന്
സാധ ിക്കുന്നില്ല
സാധ ിച്ചില്ല
പര ക്കുന്ന
പര ലോക
പര ത്തുന്നു
പര ദൂഷണം
മോ ണിയ
മോ ചന
കൈ തൂമ്പ
ത്രി മാന
ഭി ഷഗ്
മുതലായവ യിൽ
ശു ക്ര
നഗ രസ
അനു ജ
അനു ഭൂതി
ചേ ത
ചേ ക്കേ
രൂപ മായ
രൂപ മുള്ള
രൂപ ത്തിൽ
രൂപ ിയായ
രൂപ മാറ്റം
രൂപ പ്പെടുത്തുക
വ്യാ ഴാ
തൊ ടീ
സ്ത നി
ജന ിക്കുക
ഭക്ഷ ിക്കുന്നു
വർ ത്തിയ
ജി ം
വായ ിക്കും
വായ ിക്കാന്
വായ ിലൂടെ
യെ ല്ലാം
വലിയ തും
പല യിട
ഇട പാട്
ഇട ങ്കോ
നിര്മ്മ ിക്കുന്നതിനായി
ഇരു ചക്ര
കീ ബോര്ഡ്
വൈ സ്
വൈ വാഹ
വൈ ശിഷ്ട
നല്ല തായ
ചാ വുക
ചാ ടുന്ന
ചാ റ്റല്
കര് ഷണ
എന്നിവ യിലെ
എന്നിവ യാല്
ക്രിയ ാ
ആള് ക്ക്
ആള് ക്കാര്
നാല് ക്കാലി
മനുഷ്യ നു
ത്തു ണി
ബു ഗി
ബു ക്കില്
ിലാ കുക
ചീ നി
ഹ് തില്
ചെറിയ മ്മ
വയ റ്റി
സ്വാ തി
സ്വാ ഗത
ഭാഗ ത്തിന്
ഭാഗ ത്തായിട്ട്
പ്പി നു
പ്പി ത്തം
മെ റ്റല്
മെ തിയടി
ിക്കാ തിരിക്കുന്ന
ിക്കാ റുണ്ട്
പ്രാ വു്
കൊടു ക്കാത്ത
കൊടു ക്കേണ്ട
കയ റാ
വസ ിക്കുന്നു
ചില ക്കുക
ചില ന്തി
പതി മൂന്നാമത്തെ
ചെയ് താല്
അട യ്ക്കാ
വാസ ികളായ
തര ുന്നു
ഭരണ മുള്ള
ഭരണ ാധികാര
രേ വതി
കുട ിക്കാൻ
വേദ ങ്ങളില്
വിള മ്പി
പ്പിക്കുന്ന തിന്
രോഗ ത്തിനുള്ള
ബോ ട
ബോ ധ്യ
ലഭ ിക്കുന്നത്
കുതിര ുക
റാ വ്
പ്പാ മ്പ്
നില നിർ
മീ തെ
തുട രെ
പ്പെടുത്ത ാൻ
വിദ്യ ു
വിദ്യ കള്
രക്ഷ ിക്കുന്ന
മഹാ വീരന്
മഹാ സമുദ്രത്തില്
മഹാ നാഭ
മഹാ ത്രിഫല
വില ക്കയറ്റം
പിട ിക്കപ്പെട്ട
പിട ികൂ
ചൂ ർ
അല സി
അല മാരി
നടത്ത ിക്കുക
അമ്മ യില്ലാത്ത
അന വ
പഠ ാനി
ഹര ൻ
ത്തോ ടും
അപ ഥ
അപ ക്
അപ ന്ഡി
അപ ഹരിക്കാവുന്ന
ഉറ ക്കി
ഉറ ങ്ങി
ഉറ പ്പിച്ചു
ഉറ വിടം
കല ണ്ട
കല വറ
മണ ൽ
മണ ലുള്ള
ജീവ ചരിത്രം
സമയ മാപിനി
ലേ റ്റര്
ആയു സ്സു്
റോ ഡില്
പക്ഷ ികള്
ാര്ത്ഥ ി
ഉയ ര്
ഉയ രത്തില്
യില ിരുന്ന്
സീ തല്
കർ ത്ത
നിര് ദ്ദേശ
നിര് ഭാഗ്യ
ജല രാശി
അള ക്കുവാന്
ഉത് രാടം
ണിയ ാ
തൂ ക്കുന്ന
തൂ ത്തു
സോ ട
സോ ള്
സോ മാല
നിര യായി
നിര പ്പായ
വാദ ത്തെ
മുള യ്ക്കുന്ന
ത്മ കത
യ്ക്ക ാനുള്ള
കുഴ ഞ്ഞ
കുഴ ിയുമായ
ദൂ തൻ
നിർ ബന്ധ
പട ർന്നു
പട പടാ
ഗീ താ
നിശ് ചേഷ്ട
മാങ്ങ ങ
യുദ്ധ തന്ത്ര
ചെറു തായിരിക്കും
യാത്ര യ്ക്ക്
ഇഷ്ട മാവുക
അധ ിര
അധ ാര്മ്മ
മാര ിലെ
സ്റ്റ ീ
ത്തേ ക്കാള്
താമസ ിക്കുന്നത്
ക്കന് മാര്
ഉണ ങ്ങുക
പാട ല
പാട ത്തിൽ
ജോല ിക്കു
മധുര നാരങ്ങ
ചിത റിയ
പാല ന
കണ ക്കെ
കണ ക്കിന്റെ
പൂജ ിക്കുന്ന
പൂജ കള്
ചുമ ക്കുക
ചുമ ട്
ക്രമ മായ
ക്രമ ഭംഗം
വള്ള ക്കുറ്റി
മറ വ
മറ ിക്കുക
മറ യ്ക്കപ്പെട്ട
രേഖ പ്പെടുത്തുന്ന
പണ ികള്
പണ ത്തുക
ഒന്ന ാ
സഹോദ രീ
ബ്ര ൂ
നിയമ ങ്ങള്
ലില് ലി
വരു ത്തല്
ചിത്ര ത്തിന്റെ
മല ര്
മല യി
പത് രാ
ശീല മില്ലാത്ത
ഇല യും
ഇല പാത്രം
ഇല പൊഴ
ഉരു ക്കു
ഉരു വിടുക
പറ്റ ില്ല
മൈ ന്
ഭൂമി ഹാര്
ആവശ്യ മായ
ചന്ദ്ര കിരണം
കുരു ക്ക
അറി വിന്റെ
ഘട നാ
ഭൂമ ിയില്ലാത്ത
സൂക്ഷ ിക്കണം
സാമ ്യമുള്ള
അര ഞ്ഞാണം
അരി വാള്
ഡോ ര്
കാല് മുട്ട്
കാല് പാദം
ിക്കാര നെ
കുറ്റ ിയ
പിടി പ്പിക്കുന്ന
വരാ തിരിക്കുക
സഹായ ിയായ
സഹായ ത്താൽ
ചര ല്
വിധ ത്തിലും
ഭഗ വതി
രാക്ഷ സ
അംഗ ിര
അംഗ ങ്ങള്
സ്വീ കരണ
ചിന്ത യിൽ
മോഹ നമായ
ആഗ്രഹ ിച്ച
ശത്രു വിന്റെ
ദൈ ര്ഘ
ദൈ വീകമായ
ചെയ്ത ുകൊണ്ടിരിക്കുന്നു
കവി കള്
മഞ്ഞ പ്പിത്തം
ബുദ്ധി പരമായ
ഞ്ഞാ ൽ
ഞ്ഞാ ന്ന്
മനസ്സ ിലെ
അന് ത്യം
ഹൃ ദ്യമായ
അര് ജ്ജുന
ദയ നീയ
കൃഷ്ണ പക്ഷ
മരണ ത്തിന്റെ
പറയുന്ന വന്
പറയുന്ന വൻ
മനോഹര മാക്കി
മധ്യ വയസ്
സംഭവ ിക്കുന്നു
വനി ൽ
രാഗ മാകുന്നു
കുള ത്തിന്റെ
അന്യ ഗ്രഹ
അന്യ ജാതിയിലുള്ള
കണ്ടു പിടിച്ച
കണ്ടു പിടിക്കുക
കണ്ടു മുട്ടുക
കണ്ടു പിടുത്തം
ഇവിടെ യും
വിയ ര്പ്പ്
ആരംഭ ിക്കുന്നു
ഏകാ ധിപത്യം
നെയ് ത
സാഹി ബ്
ജാതി കള്
ആലപ ിക്കുന്നത്
ഭാവി കാല
അമ ര്ത്തു
ലോക ത്തെ
ഇള ക്കി
ഇള കാതെ
പുഷ് കര
ശ്രീ രാമ
ഭയ പ്പെടുത്തുന്ന
ശിക്ഷ ണ
നഷ്ട പ്പെട്ട
പരു പരുത്ത
അധികാര ത്തില്
സന്യാസി നി
സില് ക്ക്
അനുക മ്പ
അനുക രിക്കുന്ന
എന് തിനു
ഓരോ രോ
പ്രവൃത്തി കള്
അമേരിക്ക യെ
ഭേ രി
വുമായി ട്ട്
നടത്തുക യും
വായു വില്
ബേ ല
ഉപേ ക്ഷിച്ച്
പുക ച്ചില്
പുക വലിക്കുക
കൂട്ടുക ുട
കോട ീ
നര ച്ച
രാജാ വിന്
അഹ മ
കൌ മ
കപ്പ ല
കപ്പ ിയും
വിറ യ്ക്കാന്
മുണ്ടാ ക്കി
ചക്ര ത്തില്
പൊട്ടി ച്ച്
ഭക്ഷണ ത്തിന്റെ
ഭക്ഷണ ത്തിന്
ഭക്ഷണ ശാല
ആളുകള ില്
നാര കം
കഴുക ന്റെ
രസ കരമായ
രസ ായനം
സെ റ്റ്
കൊല്ല ൻ
കൊല്ല ന്റെ
മഹാരാ ജ്
മണ്ഡ ോദരി
ചല ിക്കുക
ചല ിക്കാതിരുന്ന
തള രുക
വിവാഹ വേളയില്
കർഷ കന്
കിട്ടിയ ത്
ഇരുപത്തിയ ൊന്നാമത്തെ
പിച്ച ാ
പറഞ്ഞ ുകൊണ്ടിരിക്കുന്നു
നാഥ ൻ
പ്പുക ാരി
തീരു മാനിച്ച
ത്തിനെ തിരെ
നാലു വശവും
ീകര ിക്കപ്പെട്ട
മല്ല ാര്
അഗ്നി പർവ്വത
തീര് ക്കുന്നു
മൌ നിയായ
വര്ഷ ത്തെ
മയ മുള്ള
മയ ക്കു
ദ്രവ മായ
ദ്രവ പദാര്ഥം
ആനന്ദ ോത്സവം
മുഴ ങ്ങിയ
അച്ച ടിക്കുക
തള്ള ിക്കള
തള്ള ികയ
തിരു ത്തല്
ചെയ്യപ്പെട്ട ത്
മരുന്ന ുകള്
ഉദ്യ ാനം
സ്റ്റ് രോ
കാരണ മായി
പുരാ വസ്തു
ഉണ്ടാക്കിയ താണ്
സമുദ്ര ത്തിന്റെ
പുള്ള ികളുള്ള
അശ് രു
അശ് വിനി
ഓട ിക്കുന്നു
നിഷ് കാ
നിഷ് കാമ
നിഷ് പ്രയോജന
മനസ്സിലാ കാത്ത
നൈ വേദ്യം
ങ്കി ന്റെ
മനസ് സിൽ
ഭാരതീയ ര്
ഭിക്ഷ ക്കാരന്റെ
തര് ജ്ജി
ശയ ന
സിംഹ കേസര
തമാ ക്കിയ
പത്ത ാമത്തെ
പത്ത ായിരം
താമര യുടെ
പിടിച്ച ിരിക്കുന്ന
താഴ് ന്ന്
ഉദ ര
പ്രകാശ മുള്ള
ഉഴു വല്
നാമ കരണം
തിരഞ്ഞെടു ക്കല്
നശ ിക്കാത്ത
തെളിയ ിക്കപ്പെട്ട
ഉന് മേഷ
വധ ത്തിന
വേല ക്കാരിയെ
വേല ിയിറ
നീണ്ട തും
കഠിന കരമായ
തറ ഞ്ഞിരിക്കുന്ന
ഏകാദശി ക്ക്
കവ ച
ന്തര ണം
ചുരു ട്ടി
ചേർ ത്തു
സങ്കര ജാതി
ലീ ന്
കാണുന്ന തിനായി
പര്വത ത്തില്
ഇടി വ്
ചന്ത യിൽ
രണ്ട ര
വെട്ടി ച്ച്
പണ്ഡി ത്
സുക േ
രാസ പ്രവര്ത്തനം
ിക്കുന്നതിനു വേണ്ടി
ലഭിച്ച ത്
ലഭിച്ച ില്ല
പ്രചാര കന്
പ്രചാര ത്തിലുള്ള
അർ ബുദം
വട്ട ക്കയര്
സപ്ത വർണ്ണ
പായ സം
ബൂ ന്ദി
വാത ാരി
പുല മ്പ
പൂര്ത്ത ിയായ
മുപ്പത്തിയ േഴ
അഷ്ട ാംഗം
പക ലും
പുറത്തു വരുക
സംഘടന കളുടെ
കൂല ിക്കാരന്
ഏര് പ്പെടുത്തിയ
വീര ത
വീര നായ
ഉരുള ക്കിഴങ്ങ്
ശവ കുടീരം
അവസാന ിക്കുന്ന
വാന പ്ര
ചിറ ക
നാല മത്തെ
വധു വിന്
ശിഖ ാ
വേള യിൽ
വെടി വയ്
വയല് ച്ചുള്ള
പന്ത്ര ണ്ടാ
പരാജ ി
എഴുപത്തിയ േഴ്
ഗമ ്യ
റീ ൽ
പുള ഞ്ഞു
പാർ ട്ടിയിൽ
പാർ ലമെന്റ്
ടൊ ബൈ
വ്യാഖ്യ ാനി
അടിയ ിൽ
അടിയ ന്തി
ുകു ട്ട
ചൌ ധരി
പൊട ിച്ച
ഉത്തർ പ്രദേശ്
വഴു ക്കലുള്ള
വയ്ക്ക ാത്ത
യോജി പ്പ
സ്വതന്ത്ര മായ
സ്വതന്ത്ര നായ
പാക മാകാത്ത
ചിരി പ്പിക്കുന്ന
വളര്ത്ത ുന്നു
ഭ്രാന്ത ന്
ഭ്രാന്ത നായ
മുര ള്ച്ച
വ്യായ മ
പുഷ്പ ഭാഗം
ജ്യോതി ഷ്
ചര്ച്ച ാ
സത് സ്വഭാവമുള്ള
കൊമ്പ ുകള്
ശ്യാമ ും
നിലനില് ക്കുന്നു
ഇന്ദ്രിയ മായ
പിര മി
കൊണ്ടാ ടുന്നു
മുന്നേ റുന്ന
പരുത്തി ച്ചെടി
വെട്ട ല്
വഞ്ച കന്
ബ്രഹ്മ ചാരിണി
തടസ്സ പ്പെടുത്തുക
നിയന്ത്രണ മുള്ള
കമ്മ ി
കുടി പ്പിച്ചു
പുല്ല ുകൊണ്ടുള്ള
ിട്ടുള്ള ത്
വിസ് തീര്
ചലി തമായ
ചലി പ്പിക്കുന്ന
കര്ണ്ണ ൻ
ഇസ് ലാം
അമ്പല ത്തിന്റെ
വിലാ സ
സംസ്ഥാന ത്തെ
കോപ ത്താൽ
ഉന്നത കുല
ിലായ ിരിക്കും
പരിചയ മുള്ള
വിരല ിലെ
ഉത്പന്ന മായ
കീഴട ക്കി
ആണ െന്ന്
ആണ ുള്ളത്
ഞര ടുക
വിഭജ ിച്ച
അഞ് ജലി
വിപരീ തം
വിപരീ തമായി
നെയ്ത്തുക ാരന്
നെയ്ത്തുക ാരൻ
തായ് തടി
അമ്പത്തിയ േഴാമത്തെ
അന്യായം സഹിക്കുക
എരുമ യെ
സമ്മതി പ്പിക്കുക
ഗുല് ചീ
മനസിലാ ക്കി
സംശയ മുള്ള
പരസ്യ മായ
ചൂള യില്
നോക്ക ിക്കൊണ്ടിരിക്കുന്നു
സ്വർ ഗ്ഗ
ദീപ മാല
ഇറ്റ ലി
പാകി സ്താന്
പാണ്ഡ ു
ഉറക്ക ത്തിലായ
ഹാനി കരമാണ്
ജേ ഷ്ട
സാക്ഷി പത്രം
ഗൃഹ ത്തില്
അത്യാവശ്യ മായി
വാർ ഷിക
വിരിയ ും
മില്ലാ തിരിക്കുന്ന
ചടങ്ങ ില്
ത്തിലു ണ്ടായ
ചൈന യില്
അഴ ിക്കുക
ഓഫീ സര്
ത്തിന ൊ
അലക്കുക ാരന്
പെടുത്ത ിയ
ഭൈ യ
തേജ സ്സുള്ള
പറ്റിയ ില്ല
ആന്ത രാ
സ്വന്ത മായി
സുന്ദര ദൃശ്യം
ടീ ം
അടയ്ക്ക ാത്ത
സദ സില്
ഗണിത ശാസ്ത്രം
ആര്ത്ത വം
ഹമ്മ ീർ
മഹാത്മാ ജി
ബുദ്ധിമുട്ട ുന്നു
കണക്ക െടുപ്പ്
പിന്നോ ക്കം
പിന്നോ ട്ടിഴ
അവിട ത്തെ
ആളി നെ
ക്കണ്ണ ട
പോഷ കാ
യാച ിക്കുന്ന
വീഴ ുന്നു
മനഃ ശാസ്ത്രപരമായ
സായ ിക
കൊയ്യ ുക
അടങ്ങിയ ിരിക്കുന്ന
ഗരുഡ ന്റെ
അത്ത ര്
ദർ ശി
ദർ പസന്ത
ധരിക്ക ാത്ത
ധരിക്ക ാന്
വണ്ണ മുള്ള
പ്രഭു ത്വ
ശ്ശ ിക
യുവാ വ്
കുറ്റാരോ പി
ചതുരംഗ പട
അബ് ജം
ആന് റി
ഖേ ദം
യൌ വനം
മുങ്ങി പ്പോയി
തിരസ് ക്ക
ഒളിച്ച ോ
ശബ രി
നിരോ ധന
ജീവന ക്കാരന്
ക്രിസ്തു വിന്
ഓര് മ
തളി രി
നവാ ബി
സഫല ത
മുള് പ്പട
വാസ്തു വിദ്യ
ഒരുമ ിച്ചു
ഇടയ് ക്കിടെ
അധ്യാപ ിക
വന്ധ ്യ
വന്ധ ീകരിച്ച
ോപ കരണ
യുവ ത്വം
രേഖാ ചിത്രം
സത ഭൈയ
വിമ ര്ശ
വിമ ർശ
ഉല്ലാ സം
കാന്ത ീക
വ്യഭി ചാരിയായ
പൂര ിലുള്ള
മാർഗ്ഗ ത്തിലുള്ള
അസുര ൻ
ര്ഹ മല്ലാത്ത
വെല്ലു വിളിക്കുക
ചുഴ ലി
ഗുൽ ഖൈ
വയസ്സ ായ
പിടിപ്പിച്ച ിരിക്കുന്ന
അസ്ത മ
എവിട േ
മഹാത്മ ജിയുടെ
സർവ കലാ
ബംഗ്ലാ ദേശ
ഉരുക ിയ
വഷ ള
വഷ ളന്
മോചിത നായ
ഒഴിവാ ക്കൽ
സാങ്കല്പ ികമായ
അസ്ഥിര മായ
റണ് സ്
ിക്കര യുക
തുണിയ ല
ക്ഷോ ഭം
വഴിതെറ്റ ിയ
പിന്തുട രുക
ഡെന്മാര് ക്കിലെ
തിമി ംഗലം
കൈത ച്ചക്ക
പ്രാഥ മികമായ
പെരുമാറ്റ മുള്ള
ഒത്തു തീര്
സത്യാ ഗ്രഹം
സ്ലൊ വാക്കി
വേദനി പ്പിക്കുക
വേദനി പ്പിക്കുന്ന
പ്രചാരത്തില ില്ലാത്ത
മുതുക ിൽ
കാളി ദാ
പെണ്ണ ു
സമൃദ്ധ ി
എഴുതു വാന്
കളിതമാശ കള്
ബുദ്ധിമു ട്ടുള്ള
ചന്ദ് രാ
ബര്മ്മ ീസ്
സന്ന ദ്ധ
കുമ്പി ൾ
വിശ്വസ് തനായ
ബ്രസീ ല്
ലക്ഷ്മണ ന്
പ്രഹ രം
പ്രഹ ളാ
സമന് വയ
അതിനു ശേഷം
ഇടപഴ കുക
പുരസ് ക്കാരം
താമ്ര മൂല
കീര്ത്ത നം
വൈകി ട്ട്
ഡയറ ക്റ്റര്
നിയമാനുസൃ തം
ആഫീ സില്
ജ്വലി പ്പിക്കുക
കൈയക്ഷ രം
സന്നിപാത ജ്വരം
എഴുന്നേല് ക്കുക
ടെലി വിഷ
ടെലി ഫോണ്
അനുസ രിച്ചു
പ്രേത ബാധ
ിക്കുന് ന്നു
ലൈംഗ ിക
കുറച്ചാള ുകൾ
ഏല യ്ക്ക
ഒൻ പത്
മസ്തി ഷ്ക
റെക്കോ ഡ്
ക്കുര ങ്ങ്
മാര്ക്ക റ്റില്
നിലനിന്ന ിരുന്ന
മീറ്റ ർ
അടുക്കും ചിട്ടയും
ഭോജന ശാല
തയ്യാറെ ടുപ്പ്
അഹങ്ക രിക്കുക
മുറ്റ ത്ത്
കാർത്തി കേയന്റെ
പുഷ്ട ികരമായ
അതിശ യോക്തി
ഉള്ളം കൈ
ചുമടെ ടുക്കുന്ന
വശത്താ ക്കുക
ജാഗരൂ കരാ
പരാമ ര്ശ
മഡഗാ സ്
രശ് മി
വാത്സ ല്യം
ഗ്ളാ സ്
പരിവർത്ത നം
വൈക്കോ ൽ
മൌന മാവുക
ഡല്ഹ ിയില്
ഉസ്ബെക്കി സ്താനി
കറിയ ും
ബഹി ഷ്
കാഠി ന്യ
വേര ുകള്
മൃദം ഗം
ഇന്ഡ ്യന്
പുനഃ പരിശോധന
സ്കാന്ഡിനേ വിയ
ചക്കാല ൻ
ഭിക മല്ലാത്ത
സമേ തം
ൊലി പ്പ്
ഞ്ഞുകയ റുക
പീഡ നം
സമീപ ത്തുള്ള
ആലിംഗ നം
മക് ദൂ
ഭിക്ഷാ പാത്രം
വഴുവഴു പ്പുള്ള
പരമ്പരാഗ തമായി
ഭര് തൃ
നിലാ വുള്ള
ദ്രൌ പതി
സേഠി ന്റെ
യൂണിയ ന്
വിരക്ത മാവുക
സർക്കാരി ന്റെ
ആത്മാര് പ്പണം
ഏറ്റെ ടുക്കുക
പട്ടമഹി ഷിയുടെ
തടവു പുള്ളി
സര്ട്ടി ഫിക്കറ്റ്
സോഥ ൊ
തിരിച്ചുകൊടു ക്കാന്
ഇതികര്ത്തവ്യതാ മൂഢ
ആമ് ര
ഝൂ മര്
പത്തുക ോടി
ബിര ിയാണി
ബഹ് മായ
വ്യാവ സായിക
വ്യര്ഥ മായി
ശുചി ത്വം
ലഹരിക്കടി മയായ
എല്ലാത്ത ിലും
വാളു റ
കച്ചറ ക്കൂമ്പാരം
അഭ്യു ദയ
കാട്ടുരുള ക്കിഴങ്ങ്
മഷിയെ ഴുതിയ
അഭിലഷ ിക്കുക
ഇത്തി ള്
ഊഷ ര
മ്യൂ സിയ
ശരണ ാ
സബർ ജല്
സ്വന് ത്രമായ
വിഭാ ജക
സാന്ദര് ഭികമല്ലാത്ത
നീരുക െ
സമശീതോ ഷ്ണ
ആള്പാര് പ്പില്ലാത്ത
പഠിച്ചി റങ്ങിയ
ഡെല് റ്റ
വീട്ടുപകരണ ങ്ങള്
പ്രോത്സാഹ നം
കേട്ടുകേള് വി
അറ്റാ ദായം
തസ്തി കയ
ദില ീ
വിക്ടോ റിയ
കൂന്താ ലി
പൂമ്പൊ ടി
കോളി ഫ്ള
കോയമ്പ ത്തൂര്
സുഷി രം
കേടുകൂ ടാതെ
ഗുല്ലാ ല്
നഗരസ ഭ
ഇടങ്കോ ലി
വൈവാഹ ിക
വൈശിഷ്ട ്യം
കൂട്ടുകുട ുംബ
നിഷ്പ്രയോജന മായ
വധത്തിന ര്ഹമല്ലാത്ത
വയല്ച്ചുള്ള ി
ഗുൽഖൈ രു
അടുക്കുംചിട്ടയും ഇല്ലാത്ത
ം ഘ
ം സി
അ ങ്ങ
അ സമയം
അ ഥി
അ ഭ്ര
അ യോഗ്യത
അ നിയന്
അ വിവാഹിത
അ ശാന്തി
അ ഘോ
അ കിട്
അ ളുക്ക്
അ തനുസരിച്ച്
അ ഭേദ്യമായ
ആ ട്ട്
ആ ശാ
ആ സൂ
ആ ട്ടം
ആ വൃത്തി
ആ ഥി
ആ ണു്
ആ ണോ
ആ വാഹനം
ആ വനാ
ആ വലാ
ആ ധാരം
ഇ ത്ത
ഇ റ്റി
ഇ തര
ഇ തിന്
ഇ മാം
ഇ തിലൂടെ
ഇ ത്തര
ഇ ക്കിള
ഈ റ
ഈ ത്ത
ഈ മ്പുക
ഉ പോ
ഉ ണ്ണ
ഉ ഭയ
ഉ ലുവ
ഊ മ
ഊ ന്ന
ഊ ട്ട്
എ ക
എ യ്
എ ട്ടുക
എ ളിയ
ഏ തി
ഏ ല്പ
ഏ ക്കര്
ഒ പ്പുക
ഓ റ
ഓ ടിന്റെ
ഓ സ്ട്ര
ക ായി
ക ശി
ക നായി
ക ത്തിലെ
ക ശേ
ക നല്ലാത്ത
ക കുഭ
ഖ മ്മാ
ഖ ജു
ഗ വ
ഗ രം
ഗ ദാ
ഗ വര്ണ്ണ
ഗ ഞ്ച്
ഗ സല്
ഘ ടം
ങ മാനം
ച ിയ
ച ക്ക്
ച ടി
ച ട്
ച കന്
ജ നു
ജ റി
ജ ാര്
ജ ാരി
ജ ഡ്
ജ മീ
ജ ഗതി
ഝ ാര്
ട ഭ
ട വര്
ട ിക്കുന്നു
ട ാന
ട യര്
ഡ ാമ
ണ ത്തിൽ
ണ മെന്ന
ത നെ
ത കം
ഥ ൂ
ദ ും
ദ ിലുള്ള
ദ ിയിലെ
ദ രിക്കപ്പെട്ട
ദ രിയായി
ധ ും
ധ രിപ്പിക്കുക
ന ഡ
ന ഹ
ന രേ
ന ത്തിന്
ന ർത്ത
പ ള
പ ങ്
പ ഥം
പ തിയെ
ബ ധ
ബ നട
ബ ന്ദ്
ബ റോ
ബ ഗല്
ബ സ്സില്
ഭ ട്
മ ക്ക
മ ില
മ ജി
മ ങ്ങി
മ ഞ്ഞി
മ റിച്ച്
മ ഡു
മ ശ്രൂ
യ ാത്ത
യ നുസരിച്ച്
യ നുസരിച്ചുള്ള
ര യ
ര വീ
ര ണ്ടായ
റ ാനുള്ള
റ ച്ചി
ല രി
ല ങ്കോ
ല ീനമായ
ഴ ില്
ഴ ിയുടെ
വ ണി
വ ുന്നത്
ശ ഫ
ഷ ികമായ
ഷ ില്ലോ
സ വി
സ മൂല
സ ിലാണ്
സ ഹിതമായ
സ ിക്കി
ഹ ല
ഹ ൊ
ഹ നി
ഹ വന
ാ സ്
ി ത്തില്
ി ശ്ര
ി രിന്നു
ീ ജം
ു ളള
ൂ ഢ
ൂ രിയ
േ ലി
േ യം
േ ച്ഛ
േ റ്റു
േ ന്ദ്രം
ൈ ല
ൊ ച്ച
ൊ റ്റ
ോ ഹി
ോ ശം
ോ മിക
ൌ ഷ
ൌ ട്ട
ൻ സ്
ർ ഭ
ർ ക്കം
ർ നെറ്റ്
ൾ ക്ക്
ക് ലി
ത് വരഹിതമായ
ത് പാദന
ക്ക ണ
ക്ക ഴു
ക്ക ിയായ
ക്ക രമായ
ക്ക തിര്
പ് ളേ
ുന്ന വന്
ര് ദ്ധ
ര് ക്കുന്നു
ര് ക്കും
ിക്ക ായ
ിക്ക ോട്
സ് മാ
സ് ളോ
സ് ക്രീ
സ് കാരിക
ട്ട െ
ട്ട ിക്കുക
രു പ്പ്
രു ധിര
രു ദ്രാക്ഷ
തി ഥ
തി കയ
തി കവി
വി വര്ത്തനം
വി നിയോഗ
വി ചിന്തനം
വി ക്ഷേപണം
വി ഭീഷണ
ണ്ട ാത്ത
നി ഃ
നി കു
നി സാ
നി ംഗ്
നി രുത്
നി വസിക്കുന്ന
ാര ോഗ
മാ ച്ച്
മാ തം
മാ നിയ
മാ ളം
മാ വു്
മാ വിൽ
മാ ന്ത്രീക
മു ല്
മു ളം
മു ണ്ഡ
മു ക്തമായ
മു ള്ല
മു ണ്ടായിരുന്നു
രാ സ്
രാ ക്കുക
രാ ഖി
രാ കൽ
റെ യാല്
രി ശ്
പ്ര ശം
പ്ര വണ
പ്ര ീയ
പ്ര ൊട്ട
പ്ര കോപി
വാ വ്
വാ ജ്
വാ ഴ്
വാ ചാ
വാ കുക
വാ ർത്താ
വാ പ്പട്ട
വാ ട്ടര്
വാ സമില്ലാത്ത
തു ച്ഛ
തു ര്ക്ക
കാ സര്
കാ ട്ടുന്ന
കാ ന്തം
കാ മറ
കാ റിന്റെ
കാ തില
കാ പുരി
കാ സുരന്
കാ ടപ്പ
മായ ാത്ത
മ് ലാ
കു ത്ത്
കു ന്ത
കു ശു
കു ന്തി
കു സൃ
കു ന്തള
ത്തി രുന്ന്
ത്തി രുന്നു
ല്ല ോ
രം ഭ
റ്റ ോ
ചെ തു
ചെ ല്ല
ചെ ല്ലി
ിക ട
ിക ാരന്
ിക്കുന്ന തില്
പു റ്റ
പു ഷ്യ
പു ആല്
കൊ ലാ
കൊ ഞ്ചി
കൊ ഴിയുക
കൊ ക്കുകള്
ടു ക്കുന്നത്
ടു പ്പമുള്ള
സം ക്ഷി
സം വേദ
സം വർത്ത
സം വരണ
സം ഗമിക്കുക
നാ വസ്ഥ
നാ ക്കുന്ന
നാ ദി
നാ ലില്
നാ ഥി
പാ ക്ക്
പാ ണ്ട്
പാ ലാ
പാ ശം
പാ ടാ
പാ ഠി
പാ മ്പിന്റെ
പാ ട്ടിന്റെ
വ്യ ഞ്ച
ഭാ ജ്യ
ടി വ്
അവ രോ
അവ നില്
അവ നവ
അവ കാശി
അവ ലംബ
വേ ഷ്ട
വേ പ്പ്
വേ പ്പി
വേ പ്പു
നു ര
നു മായിട്ട്
നു ഭൂതി
ഞ്ഞ തു
ഞ്ഞ ുകൂ
പോ കാൻ
പോ കൽ
യാ ർത്ഥമുള്ള
വസ്തു ക്കളില്
ചെയ്യ ാവുന്ന
സാ മാന്യമായ
ണി മ
ണി ക്
പി ന്ന്
പി ച്ച്
പി ന്തി
പി ടിയില്
പി ഞ്ഞാണം
പി ംഗള
കൂ ര
ത്ത് ല്
ന്ത ല
ന്ത രമായ
സി താ
സി മ്ലാ
മൂ ക്കുള്ള
മൂ ശാര
നെ തെ
നെ പ്പോ
യോ ടുകൂടിയ
വെ യിൽ
വെ ല്ലു്
പൂ ശി
പൂ ട്ടുക
പൂ ക്കളെ
പൂ ക്കളും
ശ് വം
ശ് ളേ
മുള്ള ാണി
വീ തിയ
വീ ഴി
വീ ഴ്ച്ച
ഗ് വാ
ചി തം
ചി ത്യ
ചി ത്തിര
ചി മ്മാതെ
മി ൽ
മി ഷന്
വം ഗ
റി ം
റി ംഗ്
രോ ഷം
കം ബളം
കി ന്ന
കി സ്
കി ണ്ണ
കി ശ്
ഉപ ായ
ഉപ നായിക
ഉപ ഭോഗ
കര ടി
കര ിക്കുന്നു
കര ട്
കര ്ട്ട
കര യുന്നു
കര യിലോ
ത്തെ ക്കാള്
നായ ിരിക്കും
ജീ രക
ജ് ജന
ദി നത്തില്
ാന ങ്ങള്
യി ടല്
നട ത്താൻ
കള ിലൂടെ
കള ിക്കാര്
കള ുണ്ട്
മ്പ ഴം
ഉണ്ടാ ക്കുവാന്
റു ക്കുക
തെ റാ
തെ മ്മാ
ലാ മാല
കോ രിയ
കോ ട്ടു
കോ ലും
കോ ളാ
കോ ടിയുടെ
കോ ര്ക്കുക
തീ വ്
തീ യുടെ
തീ തമായ
തീ യിടുക
വര്ത്ത ങമാനം
റിയ ാ
സു ഘ
സു ഭദ്ര
സു ദൃഢമായ
സു തനു
രീ ക
ജോലി ചെയ്യുന്ന
യു ഗാ
യു ള്ല
നീ ന്തുക
പ്പെട്ട ത്
പെ ടാത്ത
മേ ഖ
മേ യല്
രാജ വംശം
തിര ക്കുള്ള
ശാ ലാ
പറ ിച്ച
പറ യു
ബ് ബല
ബ് ര്ഹ
ടുത്ത ുള്ള
ചു വരിൽ
പരി ശാ
പരി പ്പു
പരി ചര
കേ സരി
ബാ ണ
ബാ ംഗ
ബാ ലേ
ബാ ല്യം
ബാ ക്കിയായ
കൃ ച്ഛ
നിറ ത്തില്
ക്കു ള
ക്കു ടി
സമ നില
പൊ രി
നോ ടുള്ള
നോ വിക്കുക
കട ത്തില്
കട വു്
കട കോല്
വൃ ക്ക
ര്മ്മ ം
വന് കുടല്
ഗ്ര േ
മഹ രാജാവ്
ടിയ ില്ലാത്ത
അതി നുള്ള
അതി സാരം
അതി നനുസരിച്ച്
അതി വിസ്തൃതമായ
തോ ടി
തോ ക്കു
തോ ളിൽ
തോ രണം
മര ത്ത
മര ുക
മര പാത്രം
കുറ ിച്ച
കുറ യ്ക്കുക
കുറ യുന്നു
ജീവി ച്ചു
ജീവി കളില്
സ്വ ജന
സ്വ ജ്ജനം
സ്വ ജാതീയ
സ്വ ജാതിയില്പ്പെട്ട
പ്പോ കുന്ന
ഭൂ ഷാ
ഭൂ പടം
ാവ സാനം
ധിക മായ
കാണ ികള്
കാണ ിക്കപ്പെട്ട
രൂ ഹ
കാര ാ
കാല ും
കാല ങ്കാരം
കാല ുകൊണ്ട്
പേ ജ
പേ ർ
പേ യും
പേ രിൽ
പണി ക്ക്
പണി പ്പുര
പര സ്യം
പര ലോകം
ത്രി തമായ
ത്രി ശക്തി
ത്രി ശൂലം
ത്രി മൂര്ത്തികള്
ക്കാ റ്റ്
ജാ തിയുടെ
കഴ ിക്കുന്നത്
വെള്ള ച്ചാ
റ്റ് സ്
ുകള ാണ്
ുകള ാല്
ികള േയും
മുതലായവ യിലെ
മുതലായവ യാല്
നഗ ണം
ഉള്ള വ
അനു സരിച്ചുള്ള
അനു ഗമിക്കുക
അനു നാസിക
രൂപ ങ്ങളില്
വ്യാ സം
ചെയ്യുന്ന തിനായിട്ട്
സ്ത്രീ കളും
പുറ ത്തും
സ്ത ൂപം
ജന ും
ഭക്ഷ ിച്ച
ഭക്ഷ ിക്കുന്നത്
വർ ണ്ണം
ാമ ല
ക്ര ൈ
ത്തുക ു
വായ ുള്ള
വായ ുടെ
ഗോ ട്ടി
ഗോ ന്ദ
ഗോ ംദ
വലിയ ൊരു
ഭാഷ ി
പട്ട യം
പട്ട ിയെ
പട്ട ാണ
പല തവണ
പല നിറത്തിലുള്ള
കാര്യ പരിപാടി
ഇട ിക്കട്ട
നിര്മ്മ ിക്കപ്പെട്ട
ഇരു ണ്ട
ഇരു ട്ട്
ഇരു പ്പു
കീ ശ്ശ
മാന വ
വൈ രം
വൈ മാത്ര
വൈ ജ്ഞാനി
വേണ്ടി വരുക
രിച്ച ില്
കര് ക്ക്
മനുഷ്യ രെ
മന സി
സര് പ്പി
സര് ബത്ത്
പൂര് ണ
ചീ ങ്ക
ചീ ഞ്ഞു
ചീ യൽ
നല് ല്
എഴു ത്താണി
ഉണ്ടാവുക യും
സ്വാ ഭ
സ്വാ സ
സ്വാ തന്ത്ര
പദ ങ്ങള്
പദ ാനം
പദ ങ്ങളാകുന്നു
ഭാഗ മായ
പ്പി റ
മെ ന
മെ ന്
മെ ച്ച
മെ ഗാ
മെ ന്റ്
ിക്കാ നു
ിക്കാ റായ
പ്രാ വിന്റെ
പ്രാ ര്ത്ഥന
നൂ ലാമാല
കൊടു ക്കാൻ
കൊടു മുടി
വസ ിക്കുക
പ്രതി ധ്
പ്രതി ദിനം
മധ ുക
പതി വായി
പതി നാലാമത്തെ
പതി നായിര
അട ഞ്ഞ
വേദ ത്തിന്റെ
വേദ ത്തിലുള്ള
വിള വിന്റെ
വിള ിക്കപ്പെട്ട
ലു ണ്ട്
രോഗ ികള്
ബോ ളീ
ബോ ണസ്
നില കൊള്ളുന്നു
ശീ ർ
പഴ ങ്ങളുടെ
പഴ ങ്ങൾ
വിദ്യ യില്
മഹാ ചെറ്റ
മഹാ റാണ
വില േ
വില പിടിച്ച
പ്പു ല്ല
പം ക്തി
ദാ സി
ദാ താവ്
ചൂ ണ്ടു
ുകൊണ്ട ിരുന്ന
െടു ക്കുന്നത്
നടത്ത ക്കാരിയായ
അഭി മന്യു
സ്സ ായ
സ്സ ില്ലാത്ത
വന്ന തു
ോദ യം
ത്തില ൊ
പഠ ിക്കാന്
സ്ഥാന മാണ്
വിഷ ു
വിഷ യമായ
വിടെ യെങ്കിലും
പ്രദേശ മാണ്
തേ യ്ക്കുന്ന
വരെ യാണ്
അപ ാര
അപ സിദ്ധാന്തം
സംഖ്യ യില്
തട യ
തട സ
തട യുവാന്
തട ിക്കഷണം
സിദ്ധ നായ
ഉറ ങ്ങിയ
ഉറ പ്പിച്ച്
ഉറ ങ്ങു
കല ക്കുക
മണ ിക
ജീവ ന്റെ
ജീവ ിയാകുന്നു
വില് ക്കുകയും
സമയ ത്തിന്
സമയ ത്തു്
ശോ ണ
ധന വിഭവ
മനോ വികാരം
ഹാ ജി
പഞ്ച മ
ലേ റ്റ്
ഇര മ്പല്
റോ മന്
ഡി സ്
ഡി ഗ്ര
ദീ ന്
ദീ ര്
ദീ പദാനം
ഴുക ുക
വിശ് വസ്ഥ
കഴിയ ുമ്പോള്
പക്ഷ ിക്കൂട്
തുക ലിന്റെ
കല് പണിക്കാരന്
ഉയ ർത്ത
ഭാരത ത്തെ
രുക ു
രുക ാരന്
നിര് ന്നി
നിര് വാഹ
നിര് ദ്ദ
സര ണ
ആന ന്ദ്
ജല യാനം
യായ ുള്ള
മുന്ന ൂറ്
മുന്ന ിലായി
അള ക്കല്
ഉത് കൃഷ്ട
തൂ ക്കല്
തൂ വല്
തൂ ലിക
അടി വസ്ത്രം
സോ മാ
സോ പ്പിന്
സോ ഷ്യലിസ്റ്റ്
നിര ിക്കുന്ന
നിര പ്പില്ലാത്ത
ബുദ്ധ ിയുടെ
കൊണ്ടു പോകുന്ന
ഗ്രാമ വാസ
വിര ട്ടിയ
കുഴ ിക്കുക
കുഴ ിക്കുന്ന
കുഴ ിച്ചു
കുഴ ലിന്റെ
മുറി വു
വഴി പോ
വഴി പിഴ
പട ോലി
എടു ക്കാന്
എടു ക്കാൻ
വര്ണ്ണ ാ
വര്ണ്ണ ിച്ചിരിക്കുന്ന
യുദ്ധ ത്തിന്
മാസ ത്തെ
സമ് പൂർണ
സമ് പൂര്ണ്ന
അറിയ ു
അറിയ ിക്കുക
അടു പ്പിൽ
മാറ്റ ുവാന്
ിച്ചി ടുക
ിച്ചി ട്ടും
ിച്ചി രുന്ന്
യാത്ര യുടെ
യാത്ര ക്കാരുടെ
സ്ഥല ത്തു്
ിയാ ൽ
ിയാ ണു്
അയ വിറ
നിന്നു ്
വ്യാപ ിയായ
ഭം ഗു
സ്റ്റ ന്
ത്തേ തും
കൊള്ള ുന്നത്
പീ പ്പി
ക്കന് മാരുടെ
ജോല ികളും
പൂര്ണ്ണ മാവുക
എല്ല ു
മധുര വും
അമ്പ താം
ചിത റ
ചുമ ട്ടുക
ചുമ ക്കൽ
മുഴു വനാ
നിഷ ത്
ശബ്ദ മുണ്ടാവുക
പണ ിക്കു
പൌ രു
പൌ ർണ
ല്യ മുള്ള
പ്രധാന പെട്ട
കളി സ്ഥലം
നിയമ ിച്ചു
നിയമ പാലകന്
വഴ ക്ക
വഴ ികള്
വഴ ിയെ
വഴ ിയിൽ
ചോ റും
വരു ത്ത
വരു മാന
വരു മാനം
വരു മെന്ന്
കറു വാപ്പട്ട
മുറ ിക്കാൻ
മുറ ിക്കുവാനുള്ള
ചിത്ര പ്പണ
സൌ ദി
സമ്മ ിശ്ര
ഇല കളും
ഉരു ക്ക്
ഉരു ണ്ട്
നാട ോട
ഭക്ഷ്യ യോഗ്യമായ
ചന്ദ്ര ൻ
കുരു ക്കൾ
ദേവ ദാന
മൃഗ ശാലയില്
േണ്ട തായ
പ്പിച്ച ത്
പ്പിച്ച ിരുന്നു
പ്പിച്ച ിരിക്കുന്ന
പ്പിച്ച ുകൊണ്ടിരിക്കുന്നു
പ്രേ ം
പ്രസിദ്ധ ീകരണ
അര ണി
ശ്രമ ിച്ചു
ഉണ്ടാക്കുന്ന തിനായി
ഉണ്ടാക്കുന്ന തിന്
കുറ്റ പ്പെടുത്തുക
സംസാര ിക്കാന്
സംസാര ിക്കുന്നവന്
ഉണ്ടായ ിക്കൊണ്ടിരിക്കുന്നു
ശരിയ ല്ല
ശരിയ ല്ലാത്ത
ഗുണ മില്ലാത്ത
വിധ മായ
ഷണ റി
മൂന്ന് ലോകങ്ങള്
അം ബേ
ഹരി ജന്
പ്രത്യേക തയുള്ള
മട ങ്ങും
അക ൌ
അക ര്മ്മ
ധ് വാനം
സമാ ജം
താഴ ിക
ചിന്ത ിക്കാതെ
മോഹ നെ
സ്പ ന്ദി
ജയ ന്ത
ഇറ ങ്ങിയ
മഞ്ഞ ൾ
മുപ്പ ത്തിയാറ്
പച്ച ക്കിളി
കറ ക്കം
സ്ഥിതി വിശേഷം
അന് ഡ്
അന് പത്
കലാ സൃഷ്ടി
ചേര് പ്പ്
കൃഷ്ണ ൻ
നന്ന ായിരുന്നു
കുറഞ്ഞ തുമായ
മനോഹര ന്റെ
സംഭവ ത്തെ
മതി ൽ
മാന് ദ്യം
മാന് ത്രിക
ബീ ഡി
സർ പ്പം
സർ ബത്ത്
കുള ിക്കുന്നു
സൂര്യ വംശത്തിലെ
അന്യ ഗോത്ര
മണി മാല
തിള ച്ചു
തിള യ്ക്കുക
കിട്ടുന്ന തിനു
തൊഴ ിച്ചു
കുതി രാലയം
സ്താ നിന്റെ
ഏകാ ഭി
റേ ത്
നടത്തി പ്പിക്കുക
സംഭ വ്യമായ
ശ്രദ്ധ യില്ലാത്ത
കുല ീനനായ
മണ്ണ ും
മണ്ണ െണ്ണ
ആദ്യ മായിട്ട്
വാര ിക്കോ
വര്ഗ്ഗ ീയ
വര്ഗ്ഗ ീകരണം
വര്ഗ്ഗ ിത്തില്
പുര ട്ടുന്ന
കരു ത്
കരു ത്ത
നന യ്ക്കല്
ഭയ ന്ന്
ഭയ ന്നു
ഭയ പ്പെടുത്തുക
ശിക്ഷ ിക്കുക
ശിക്ഷ ാര്
നഷ്ട പ്പെടുത്തുക
ഇന്ന ലത്തെ
സുര സ
അനാ ഗമ്യ
അനാ ദരിക്കപ്പെട്ട
ഈടാ ക്കുന്ന
മാത്ര യുള്ള
അധികാര മില്ലാതെ
കര്ത്ത ു
നമ് ര
വാങ്ങി പ്പിക്കുക
ബഹു വര്ഷ
ബേ ലി
പുക യുക
ലാന് റിന്റെ
വോ ടെ
കൂട്ടുക ാ
നീര് കാക്ക
അച്ഛ ൻ
കൊടുക്കുന്ന വന്
സത്യ വാന്
സത്യ നിഷ്ഠ
ആകാശ നീല
പ്രവേശ ിക്കുന്ന
തുല്യ മാകുന്നു
ഒട്ട ിച്ചേ
ഒട്ട കപ്പ
ത്രാ സിന്റെ
മൂന്ന ിലൊന്ന്
കപ്പ ലില്
കപ്പ ലിലെ
കപ്പ ിക്കയര്
പൊടി ഞ്ഞു
രക്ത സ്രാവം
രക്ത സമ്മർദ്ദം
മുണ്ടാ ക്കുന്നു
ചക്ര ത്തിന്റെ
പുസ്തക ങ്ങളുടെ
ആത്മ പ്രശംസ
നിന്ന ുകൊണ്ട്
സാഹ ോദ
മന്ത്ര ിയെ
കുടുംബ മില്ലാത്ത
ചല ിക്കാത്ത
തള ിക്കുന്നു
അന്ന ദോഷം
ഒറ്റ ക്കാല
വേര് തിര
വിവാഹ ത്തിന്റെ
ഇരുപത്തിയ ാറ്
ഇരുപത്തിയ ാറാമത്തെ
സമൂഹ ത്തിന്
സമൂഹ ത്തിനു
രാഗി ണിയാണ്
പറഞ്ഞ ിരിക്കുന്നു
സംരക്ഷ ിക്കുന്നു
സൂചി പ്പിച്ച
സൂചി പ്പിക്കുന്നു
ഭ്ര മ
ത്തിനെ തിരായി
ജീവിത കാലം
ഉത്തര മെഴു
അനുഭവ ിക്കാത്ത
അനുഭവ ിക്കേണ്ടി
ന്യായ ാലയ
വിഷയ ത്തിന്റെ
തയ്യാറാ വുക
ഗായ ക
നക ത്തുള്ള
മൌ ര്യ
ബര് ഗ്
വാര്ത്ത കള്
വിക സനം
മുഴ ക്കുക
ഉച്ച രിക്കുക
കട്ട െടുക്കുക
കട്ട ികൂടിയ
യൂറോ പ്യന്
ഗഢ ിന്റെ
ചെട ികൾ
ചരി ഞ്ഞ
വാര് ക്കുക
ശേഖ രിച്ചു
ശേഖ രിക്കുന്നു
അദ്ധ്യ യനം
ആത് മീ
പുണ ്യാ
തീര ത്താണ്
സന്തോഷ മില്ലാത്ത
സന്തോഷ പ്രദമായ
സന്തോഷ പൂര്വ്വം
ശൂ ര
വിത ച്ചു
വിശ പ്പുള്ളവന്
ക്കിട യിലെ
ക്കിട യിലുള്ള
ഓട ിക്കുന്ന
നഗര ങ്ങളില്
ആരെ യും
ജ്ഞാന േ
ജ്ഞാന മില്ലാത്ത
ആരോ ടും
ആരോ ഹണം
നൈ റ്റ്
നൈ ട്ര
നൈ ജര്
സന്തു ഷ്ടമായ
ഔഷധ മായി
മേഘ രാഗത്തിന്റെ
ചുക പ്പു
പർ ദ
പ്രതീ ക
കത്തി ച്ച
പരാ ശ്രയ
പ്രയ ത്നി
വാങ്ങ ണം
പട്ടണ വാസികള്
ചാണ ക്കാരൻ
സിംഹ ിക
കുറു വടി
അഞ്ച ിരട്ടി
ണ്ണാ ട്
കിട്ട ില്ല
നിശ്ചയ ിച്ചു
നിശ്ചയ ിക്കപ്പെടാത്ത
ചുവ ട്
താഴ് വാര
താഴ് ത്തല്
ഉദ ിക്കുന്ന
രമേ ഷ്
രമേ ശന്
ബാദ് ശാഹി
സ്വീകര ിക്കപ്പെട്ട
ശാന്ത മായി
പൊട്ട ിക്കുന്നു
പൊട്ട ിച്ചു
വ്യക്ത ിക്കു
എവിടെ യോ
ലയ ിച്ച
മുറു ക്കുന്നു
വാക്കുക ൾ
വര്ഗ്ഗം ല
തട്ട ിക്കൊണ്ടു
തട്ട ികൊണ്ടു
കണക്കാ ക്കുക
ദാന ന്തര
അറ ബ
വിവേ ച
നേതാ വിന്റെ
കല്ല ിൽ
ിട ല്
നമ്മ െ
ഹൈ ദ്രാ
ഹൈ ദരാ
വെറു പ്പ്
ഗാന്ധി വാദി
കവ ചിത
പ്രശംസ നീയമായ
പുത പ്പിക്കുക
ഗോത മ്പ
നാഗ ങ്ങള്
ചുരു ട്ടിയ
ഴിയ ുന്ന
കുടു ക്ക്
കുടു ങ്ങിയ
വേറെ യാ
തൈ രു
കുട്ടിയ ും
ജാത ിക്കാരി
പത്ര ത്തിന്റെ
ഇടി ച്ച്
രണ്ട ില്
എഴുതിയ ിരിക്കുന്നത്
വിരി ഞ്ഞു
ിക്കുന്നതിനായി ട്ടുള്ള
വലു തുമായ
ഉള് ക്കൊള്ള
വിശേഷ തയുള്ള
മത്ത ങ്ങ
ളള ത്
വിചാര പ്പെടുക
ആക്രമ ിക്കപ്പെട്ട
പ്രകടി പ്പിക്കുന്ന
പ്രകടി പ്പിക്കുന്നു
ദ്വ യാർത്ഥമുള്ള
ഒന്നി നു
വിദഗ്ദ്ധ നാണ്
അമ് ള
വര്ദ്ധ ിക്കുന്നു
ആസ ന
ആശ്രയ ിക്കപ്പെട്ട
മര് ദ്ദം
തീർ ഥ
കടു പ്പം
ഞെ ളി
ഞെ രിക്കുക
ളീ വുഡ്
ക്രി സ്റ്റ
ആളുകൾ ക്ക്
പഴു പ്പിക്കുക
പരിശ്രമ ിക്കല്
അരു ന്ധ
അനി ഴം
നിരാ ഹാരം
കുഴി ച്ച്
ന്മാര് ക്ക്
ജന്മ സ്ഥലം
കൂടുതല ായ
ഹൃദയ ഭേദ
ധാര് ഷ്ട്യം
ക്കുറ ിച്ചും
മുപ്പത്തിയ ൊന്പത്
പക ാരി
കലപ്പ യുടെ
അന്ധ മായ
പദ്ധ തിയ
കോണ് ഗ്ര
ഹര് ജി
ഉല ക്ക
വിളി ച്ച്
അവസാന മില്ലാത്ത
തുടങ്ങിയ വയുടെ
മഹേ ന്ദ്ര
ഏഷ്യ യില്
പ്രയാ ഗ്
ലഹരി ക്ക്
തീവ്ര മായ
സമീ പത്ത്
തിരിയ ല്
പശ പശ
സ്ത്രീകള് ക്ക്
ൊടു ക്കുക
പ്രാണ ാ
പൊതു വായ
സന്തുഷ്ട രായി
സ്ഥാ വര
ചാര്യ രുടെ
നടു വെല്ലു്
പ്രശ്ന ങ്ങൾ
ഫു ട്
രാമു വിന്
ലക്ഷ്യ മില്ലാതെ
അണിഞ്ഞ ൊരു
വകു പ്പ
നിര്ത്ത ല്
നിര്ത്ത ിയ
കൂടിച്ചേ രല്
അദ്ദേഹ ത്തിന്
നിക്ക രാഗ്
ാരോ പണം
വാല ില്ലാത്ത
ഗ്രാ ഫ്
നീയ മാണ്
സമ്പാദ ിച്ച
കൂട്ടിച്ചേ ർത്ത
അലങ്കാര ത്തിൽ
വറു ത്തെ
സാങ്കേ തികമായ
സാങ്കേ തികവി
ഖനി ജം
ആയുധ ത്തിന്റെ
പ്രയോഗ ിക്കുക
മഹത്വ മില്ലാത്ത
ധൃ തി
എഴുത ുന്നത്
എഴുത ിക്കൊണ്ടിരിക്കുന്നു
വ്യായ മം
പുഷ്പ ിക്കുന്ന
ക്രീ ഡ
ക്രീ യാ
മധു രി
നിലനില് പ്
രാഷ്ട്രീയ മായ
സാം ഭാര്
പരിഷ് കൃതമായ
വിഷമ കരമായ
വിഷമ ജ്വരം
ക്രൂ രനായ
ത്തീ ര്ന്നു
ദൂര ദര്ശ
മണ്ഡല ത്തില്
ക്ഷേത്ര ത്തിന്റെ
നിയന്ത്രണ മില്ലായ്മ
ങ്കാര ത്തിന്റെ
വീശ ിയ
കുടി ശ്ശിക
പുല്ല ു
ദുഷ്ട ന്
ചലി പ്പിക്ക
ന്യാ ധിപന്
കുശ വന്റെ
ഉത്പാദി പ്പിക്കുക
മുംബൈ യില്
കാം ക്ഷി
അഭിപ്രായ ൈക്യം
താങ്കൾ ക്ക്
അധീനത യിലാക്കുക
ബാധിച്ച ാല്
തന്ന ാലും
ക്യ ത്തില്
വിലാ പം
ക്ഷുര കന്
കല്യാണ ത്തിന്
ഇരിപ്പി ട
ുകൂ ടുക
കാർ ഷിക
പരസ്പ രാ
കെട്ടിട ങ്ങള്
ഹെ ലിക
ബാബ റിന്റെ
മെഴുക ല്
ഭുജ മുള്ള
പട്ടാള ക്കാര്
കുംഭ മാസത്തിലെ
കീഴട ക്കിയ
വൃത്തിയ ായി
എണ്പത്തിയ േഴ്
എണ്പത്തിയ ൊമ്പത്
വിഭജ ിക്കുക
പവിത്ര മായി
പാരമ്പര്യ മായിട്ടുള്ള
നിസ് കാര
ദ്രു പദ
ദേഹ ത്ത്
അടിച്ചു വാര
ബിരു ദാനന്തര
അപരാ ധി
അധി കാ
ഉടു മ്പ്
ചര്മ്മ ം
തര്ക്ക ിക്കുക
ദശ മി
സംഗ മം
ഥ് റ്റ
ബം ഹനി
നാല്പത്തി മൂന്ന്
ധനു ര്
പെന് ഷ
ബോര് ഡില്
അന്വേഷ ിക്കുക
അന്വേഷ ിക്കുന്നു
ചാന് ത്
കുലു ക്കു
തീര്ത്ഥ ാടകന്
തൃപ്തി പ്പെടുത്തുന്ന
ഇറ്റ ാല
ഖണ്ഡ നം
ഖണ്ഡ ിക
ഡീ സല്
പുരോഗ തിയുള്ള
നേപ്പാ ള്
കടലാ സിന്റെ
മെഴു ക്ക്
മെഴു തിയ
ഭര്ത്താ വിനെ
പര്യ ടന
ഇറാ ക്കി
ധർമ്മ ം
ധർമ്മ ശീലം
ുകെ ട്ട
ആഴ മില്ലാത്ത
ഖു രുച
ഡയ റി
പയോഗ ിച്ച്
മാധ വ
കുടിയ ന്
കോള റ
സര്ക്കാരി നാല്
പരീക്ഷണ ങ്ങള്
പരീക്ഷണ ശാല
മണ്ട ല
മണ്ട ൂ
ശ്വാസ കോശ
കോണ ുള്ള
മരുന്നു വ്യാപാരി
ഭരി തനായ
മല് മുല്
സ്നാ ന
നിശബ്ദ ത
ഉപദ്രവ ിക്കുക
യുക്തി ഹീനമായ
ശിശു വിന്റെ
ആഭരണ ങ്ങള്
കയ് പ്
ക്യാ പ്പ്
ക്യാ മറ
വിരോ ധാ
പോകു മ്പോള്
വസന്ത കാല
ഇരുന്ന ൂറ്
ഉത്തരവാദി ത്വ
ആകര്ഷ ിക്കപ്പെടുക
ഒന് പത്
ചില് ലി
ക്ലാ സ്സ്
ക്ലാ സ്സില്
പ്ളാ ശ
അടയാള പ്പെടുത്തുക
വര്ത്തമാന കാലത്തെ
കാലാവസ്ഥ ാ
ഉദ്യോഗസ്ഥ ൻ
സദ സ്
കൊടുത്തി ട്ടുണ്ട്
കൊടുത്തി രിക്കുന്ന
കമ്പിളി നൂല്
അമര ന്
ചത യം
അംബ രച
തൊണ്ണൂറ്റിയ േഴ്
വേഷ ഭൂഷാ
കോമ ളമായ
കൈപ്പട യുള്ള
ചെയ്തി ട്ടുള്ള
തേങ്ങ യുടെ
സ്ഫോട ന
ചപ്പ ാത്ത
പെയ്യ ുക
മഹര് ഷിയുടെ
പ്രായോഗിക ം
പ്രായോഗിക പരിജ്ഞാനം
വികലാംഗ ന്
വികലാംഗ നായ
പുഴു ങ്ങിയ
മാനസ പുത്രന്
അഭിവൃദ്ധ ിയു
കരിം ജീരകം
വിയറ്റ് നാ
ഒട്ടി പ്പിടിക്കുക
കാന നം
പാട്ട ുകള്
നിര്ബന്ധ ിത
സഭാ ംഗം
ഹിര ണ
ഹിര ണ്യ
രാജ് മാ
നിഷേ ധ
വെടിയു തി
പശ്ചാത്ത ാപ
അത്യ ന്തം
എരി വും
പരോ പകാരി
വച്ചി ട്ടുള്ള
വച്ചി ട്ടുണ്ട്
രക്ഷപ്പെടുന്ന തിനായി
കലഹ പ്രിയ
ചുറ്റു മുള്ള
ഗുണമുള്ള താണ്
ഒമ്പ താം
മഥ ന
മർ ദ്ദ
ജീവന ക്കാര്
അമ്പത്തി നാല്
ബീഹാ റിലെ
ഘാത കന്
പ്രശസ്ത നായ
അസ്ഥ ികള്
ഋഷ ികള്
എല ിക്കെ
നവാ ബ്
തെറി പ്പിക്കുക
പ്രസവ ിക്കാത്ത
എം ബി
എം ടിഗു
വെളി വാ
വെളി പ്പെടുത്തുക
ഹാസ ികമായ
അയല് ക്കാരന്
നാടന് പാട്ടുകള്
കസ്തൂരി മഞ്ഞള്
അണ്ഡ ാ
അണ്ഡ കോശം
വസി ഷ്ഠ
പൂജാ സാധനങ്ങള്
ബാദ ാമ
യൂണി ഫോം
ശുദ്ധീകര ിക്കുക
ജ്യേഷ്ഠ ന്
ജ്യേഷ്ഠ ന്റെ
ജ്യേഷ്ഠ ത്തി
അയോ ദ്ധ്യ
കസ വ്
മലേ ഷ്യന്
മുന്തിരി ങ്ങ
പര്യാ പ്
പര്യാ ലോചന
അരക്കെ ട്ടുള്ള
അരക്കെ ട്ടില്
ഉന്മാ ദം
നേതാക്കന് മാരുടെ
രജി സ്റ്റർ
നാഭ ന്
ഭാനു മതി
ഗുൽ മം
കാലഘട്ട ത്തില്
പലഹാര ങ്ങള്
സ്റ്റാ മ്പ്
മുഗള് ചക്രവര്ത്തി
ശ്മ ശാന
നിരപരാ ധിയായ
ബംഗ്ലാ വ്
ഈജിപ് ത്
തണ ല്
ഷോ ഡ
ലിപ ികാരന്
ഉപഭോ ക്താവ്
പേരെ ഴുതിയ
അര്മേ നിയന്
വിതരണ ക്കാരന്
കളിയാ ക്കുക
ഹിന്ദ ിയില്
ഹിന്ദ ിയിലെ
പുറമേ യുള്ള
വഴിതെറ്റ ുക
കൌര വര്
ശൈത്യ കാലം
സ്റ്റേഷ ന
മുസല്മാന് മാരുടെ
അജ്ഞാ തമായ
ജര്മ്മ ന്
പ്രവൃത്തിയ ില്
ഇടപെ ടുക
അഭ്യര്ഥ ന
പ്രഭാത ത്തില്
അഭാവ ത്തില്
പാചക ക്കാരന്
തലമുറ കളായി
അനാവശ്യ മായി
പ്രചാരത്തില ുണ്ട്
ഏർ പ്പാട്
ഒതു ക്കി
തസ് തിക
പദ് മം
പദ് മിനി
വാതി ലിന്റെ
വീര് ക്കല്
യുടേ യോ
സമൃദ്ധ മായ
ഒരാള ാണ്
ബുദ്ധിമു ട്ടു
അവതരി പ്പിച്ചു
പഞ്ചാബ ിലെ
ശ്രീലങ്ക യിലെ
ആട്ടിയ കറ്റുക
വെള ിച്ചെ
ബാഷ് പ
ബാഷ് പീ
കന്യാ കുമാരി
മാര്ദ്ദവ മുള്ള
ഡ്രൈ വര്
യോദ്ധാ ക്കള്
നവരാ ത്രിയുടെ
ചെരി പ്പ്
ഇടപഴ കുന്ന
ഉയര്ച്ച കള്
ഏകാന്ത മായ
ബലാ ത്
നാഗാ ലാന്റ്
സുഡ ാനി
ജാതീയ മായ
പദവിയ ിൽ
യൂക്രേ നി
കുഴിച്ചി ട്ട
ോഗ്യ മല്ലാത്ത
കരിമ്പി ന്
പച്ചക്കറ ികള്
പച്ചക്കറ ിക്കറി
ഡയറ ക്റ്റ
സിംഗപ്പൂ ര്
ഞാവല് പ്പഴം
അചഞ്ച ലമായ
എഡി റ്റിംഗ്
ധിക്കാര ിയായ
പ്രചരി പ്പിക്കുന്ന
നീന്ത ുന്ന
വൈകുന്ന േരം
പ്രദര്ശി പ്പിക്കുന്ന
സ്പന്ദ നം
വിസ്താര മുള്ള
ക്ഷീണി തനായ
ഒളിച്ചു വക്കുക
ഗ്യ ാരേ
ജീവിച്ച ിരുന്ന
ചൂണ്ട ിക്കാണ
റവാണ്ട ക്കാരന്
ആധികാര ികത
ഏജന് സി
ഖജനാ വ്
ജൊ ഗൌ
ദളി തന്
കേട ായി
എന്നിവട ങ്ങളില്
ചിലവഴ ിക്കുക
ഫ്രാ ന്സ്
പൂച്ചെ ടി
പൂച്ചെ ണ്ട്
നിക്ഷേപ ിക്കുന്ന
കദം ബ
ബധിര രായ
വിവര്ത്ത കന്
കാഴ്ച്ച പ്പാടില്
പൊഴിയ ല്
ഹാജരാ ക്കുക
പൃ ഷ്ഠ
ഹ്ര സ്വ
പ്രൌ ഢ
കോഷ്ഠ കം
മഹത്ത് വം
മുളച്ചു വരുക
വിധേയ ത്വം
കമഴ് ന്ന്
ആലാ പന
ആലാ പനം
ടർ ക്കിയിലുള്ള
മഡഗാ സ്ക
വെച്ചി ട്ടുള്ള
മൊബൈ ല്
വാസ്തവ ത്തില്
ചവ റ്റുക
ലഖ് നൌ
നിതം ബം
മാന്ധ നായ
കുമ്പ ള
സംജാ തമാകുന്ന
വെപ്പാ ട്ടിയ
അനുയായ ികള്
ക്രിക്ക റ്റില്
ചോള ക്കതിര്
ഉണ്ടായിരിക്കുക യില്ല
തൊണ്ണൂറ്റ ിയാ
ബംഗാ ള്
ശനിയാ ഴ്ച
മുണ്ടി നീര്
ിരോ മം
ഹിമാ ചല്
വൈരാഗ ്യ
തുടർച്ച യായി
സാരസ്വ ത
ചൊറിച്ച ിലും
കണ്ടാ ല്
ൌരിയ ിലുള്ള
പരിഭാഷ പ്പെടുത്തിയ
എന്താണ െന്ന്
മൌറീഷ്യ സ്
അഹം ഭാവം
ഉപ്പ ിലിട്ട
ഉജ്ജ യി
ലഗ് നം
മുഷ ിച്ചില്
മുഷ്ട ിയു
പ്രച രിച്ച
മ്റ്റ ൊരാ
കളപറ ിക്കല്
അനുയോജ്യ മായ
പക്ഷപാത പരമായ
യൂഗോസ് ലാവിയ
നിയമപാല നം
ശൂദ്ര ന്
ശകുന പ്പണം
അമാനു ഷിക
ആസുര സ്വഭാവം
ച്യ വന
ഡാര് ജിലി
വാനമ് പാടി
കൊണ്ടി രിന്നു
ബാസ് മതി
ചാതു ർ
പ്രാകൃ തീക
പടച്ച ട്ട
സൌമ്യ നായ
കുറ്റിക്കാ ട്
ദൈനം ദിന
ഇലക്ട്രോ ണിക്
ആഹ് ലാ
ഒത്തുകൂ ടുക
കവിള ില്
ഫക്കീ ര്
ബില്ല ൌരിയിലുള്ള
രുട്ടാ തി
നെടു നായ
തെറ ിച്ചു
മേദിനി പുരം
പരിഷ ത്ത്
മരക്കൊ മ്പു്
ചിലപ്പോഴ ൊക്കെ
അലറി വിളിക്കുക
അനധികൃ തമായ
പിച്ചും പേയും
പൂര്വ്വി കര്
മന്ദീ ഭവിക്കുക
ബന്ധനസ്ഥ നാക്കുക
സങ്കീര്ണ്ണ മായ
ചിന്നിച്ചിത റിയ
ഉർ ദു
ഗര്ത്ത ം
ചമ്മ ന്തി
ഷഷ്ഠ ാ
പ്രത്തേ ക
പ്രകമ്പ നം
കുണ്ടും കുഴിയുമായ
ശിബി രം
പുറന്ത ള്ള
വടോ ര്
എണ്ണക്കുരു ക്കള്
അയല്പ ക്ക
കവിഞ്ഞ ൊഴുക
കുത്തിവയ് പ്
ക്കൊതിയ നായ
അനുഭവസ്ഥ ന്
അസമര്ഥ രായ
ഡ്യൂ പ്
ത്രയോ ദശി
പൊക്കിയ െടുത്ത്
കൈക്കു മ്പിള്
വലിയങ്ങാ ടി
പ്രവേശനക വാടം
അല്ബേ നിയന്
ആസക്തിയ ില്ലാത്ത
ഞെരിഞ്ഞ മരുക
എന്തിന്റെ യെങ്കിലും
മസ്തിഷ് കം
സാമുദായ ിക
ഘണ്ടന സ്ഥാനം
ഐതി ഹാസികമായ
പീന സം
മള് ബറി
യവനി ക
ലഹ ള
വാരു ണി
നീമ ച്
ഹിറ്റ് ലര്
ചേക്കേ റാനുള്ള
ഇരുചക്ര വാഹനം
ചാറ്റല് മഴ
സ്വാഗത കര്ത്താവ്
അപന്ഡി ക്സ്
അര്ജ്ജുന ന്റെ
കൌമ ാരം
പിച്ചാ ത്തി
അടിയന്തി രം
വിരലിലെ ണ്ണ
വാർഷിക ോത്സവം
ആന്തരാ വയവം
പ്രഭുത്വ ഭരണമുള്ള
കോളിഫ്ള വർ
ഇടങ്കോലി ടുക
ഇത്തര ത്തിലുള്ള
ഓറ ഞ്ച്
കശി പു
മജി സ്ട്ര
മഡു വ
രവീ ന്ദ്ര
ലങ്കോ ട്ടി
സ്മാ ള്
സ്ളോ വേ
നിരുത് സാഹ
വാജ് പേ
സംവർത്ത ക
നെതെ ര്ലാന്
തെമ്മാ ടി
വെള്ളച്ചാ ട്ടം
പ്രതിധ് വന
സോപ്പിന് പത
ം ക
ം ല
അ നീ
അ പര
അ ശു
അ ലോ
അ ന്ദ്ര
അ ത്തം
അ ഗി
അ സംബന്ധമായ
അ ണ്ഡം
അ ക്രൂ
അ ങ്കം
അ തൃപ്തി
അ ഭൌതികമായ
അ വിശ്വസ്
അ താര്യ
അ കാരണമായ
അ ദ്ധ്
അ പരിഷ്കൃതമായ
ആ റ
ആ ഭൂ
ആ ദേശം
ആ വാഹ
ആ ർത്ത
ആ ശംസ
ആ സ്തി
ആ സാം
ആ പത്തു
ആ ടിനെ
ആ ൻഡ
ഇ ട്ടി
ഇ ന്ദ്രീ
ഈ ദ്
ഊ തല്
ഊ മയായ
എ ര്
എ ങ്ങ
എ രിയ
എ ല്ല്
എ ത്തും
എ ച്ചില്
എ വറ
എ ക്കിള്
എ റ്റവും
ഏ രിയ
ഏ ഷണി
ഐ രാ
ഐ റി
ഒ റിയ
ഒ ട്ടുന്ന
ഒ രായ
ഒ ക്ടോ
ഓ ജ
ഓ രം
ഓ ട്ടു
ഓ ഡര്
ഓ പ്പറേഷന്
ഔ രംഗ
ക തി
ക വാ
ക ങ്ക
ക യം
ക മാണ്
ക ിയുടെ
ക ത്തു
ക മാനം
ക ങ്കാ
ക മാകുന്ന
ക നൌ
ക ചര്
ക ലോയി
ക ത്തോലിക്ക
ഖ ൊ
ഖ നം
ഖ ണ്ടാ
ഖ നന
ഖ ണ്ടം
ഗ ഗ
ഗ ത്
ഗ ണ്ട
ഗ ില
ഗ തമായി
ഘ ന
ഘ ൻ
ഘ ര്
ച ള്ള
ച ങ്ക
ച ിലും
ച ണ്ടി
ച വയ്ക്കുക
ച കിത
ജ ിലുള്ള
ജ ഹാം
ട നം
ട ക്ക്
ട യ്ക്ക്
ട ൌണ്
ട യാളം
ഠ ം
ഡ യല്
ണ ല്
ണ ുക
ത ിക്ക
ത ങ്ങി
ത രിക
ത നിക്ക്
ത നാണ്
ഥ ു
ദ മ
ദ ായി
ദ തിയ
ദ ത്തം
ധ ൌ
ധ നേ
ധ രന്
ന ക്
ന ക്ക
ന മായി
ന പരമായ
പ രം
പ യ്യ
പ ലാ
പ ഴി
പ ണ്ടു
ഫ ലാ
ബ ും
ബ ണ്ടില്
ഭ ണ്ട
ഭ ായി
ഭ ്യം
മ ഗു
മ ദം
മ യിൽ
മ ുകൾ
യ ിക്കാൻ
യ ൊരു
ര തല
ര മാണ്
ര ഞ്ജനം
റ സി
റ ാന്
റ റ്റ്
ല ിച്ചു
ല ീസ്
ല ിലൂടെ
ള ിയില്
ഴ ച
വ ന്ത
വ തിയെ
ശ മ
ശ കല
ഷ ിയ
സ നെ
സ ലാ
സ ിയെ
സ രിച്ചു
സ കര്മ്മ
സ ങ്കു
ഹ ളം
ഹ വ്വ
ഹ ല്വ
ഹ മീര്
ാ റ
ാ ടി
ാ സുരന്
ി ള
ീ ം
ു നം
ു ന്ന്
ു റ്റെ
ൂ ൽ
ൂ സ്
ൂ ട്ട്
ൃ ഹം
െ ലി
െ ട്ടുക
െ ട്ടാം
േ റെ
േ ക്കാള്
േ ഴിന്റെ
ൈ ന
ൊ ള്ള
ൊ ന്നിന്റെ
ോ ടിക്കുക
ൌ ഞ്ച
ൌ ഞ്ചി
ർ ക്കി
ർ ഡ്
ന് സി
ക് ല്
ക് റ്റ്
ക് മെയില്
ക്ക രന്
ക്ക പ്പെടുക
ക്ക ത്തോടെ
ക്ക ണ്ണ്
ക്ക ണ്ടാത്ത
ല് പം
ന്ന ുള്ള
ത്ത ുകള്
ത്ത ടിക്കുക
പ് റ
പ് ത്തി
പ് ളീ
ര് ക്കം
ര് ഡ്
ിക്ക ളി
ായ ിരുന്ന
സ് ത്
സ് രം
സ് വെ
സ് പൂ
സ് പിന്ന
സ് ഫു
സ് റ്റിക്
്യ ്
രു ക്ക്
രു ക്കൽ
വി കൃ
വി ത്യ
വി ങ്ങി
വി രേ
വി ഹാ
വി വസ്ത്ര
വി റ്റാ
വി രുത
വി ള്ളല്
ണ്ട ൻ
പ്പ ര്
പ്പ കി
പ്പ ക്ഷി
പ്പ ന്നി
നി ക
നി വേ
നി ബ്
നി കത്ത
ാര ്ട്ട
ില ിരിക്കുന്ന
ില ൊന്ന
മാ നെ
മാ പ്പ്
മാ ജി
മാ റാ
മാ ത്രാ
മാ ന്തോ
മാ രുടേയും
മാ ന്ത്രീകന്
ച്ച ന്ന
ണ് ഗ
മു നിയ
മു ണ്ടു
മു റുക
മു ക്കോ
രാ ജ്ഞി
രാ ജീവ്
ന്റെ ഉടെ
പ്ര ബല
പ്ര സ്ഥാനത്തിന്റെ
പ്ര ച്ചന്ന
ങ്ങ ാന്
വാ തിര
വാ ണിയ
വാ പട
വാ ത്തു്
വാ വട്ട
വാ ക്കു്
തു വ
തു വര്
തു ല്യം
ടെ ക്
കാ ബ
കാ റ
കാ ണ്ട
കാ ണ്ഡം
കാ തിലെ
കാ ഹളം
ഒരു പാടു
മ് മ്
മ് ലേ
മ് ലാന
കു മാ
കു മി
കു ണ്ഡ
കു ണു
കു യില
ത്തി രിക്കുന്നു
ക്ഷ ിക്കുക
ക്ഷ രമുള്ള
ങ്ക ഥ
രം ഗീ
റ്റ ത്ത്
റ്റ ങ്ങള്
റ്റ ിയിൽ
റ്റ ക്കാരൻ
ചെ റി
ചെ ന്നു
ചെ പ്പ്
ചെ കിള
ചെ മ്പര
ചെ ല്ലം
പു രിയ
പു ളിയ
പു ലോമ
പു ളിയും
ിച്ച ുകൊണ്ടിരിക്കുന്ന
കൊ ട
കൊ ടിയ
കൊ ത്തുക
കൊ മ്പിൽ
ിര ിക്കുമ്പോള്
താ ശ
താ സ്
താ ഴു
താ റു
താ ക്കുന്നു
ടു മ
സം യു
സം വരണം
സം ഹാരിയായ
സം ക്രമണം
നാ ന
നാ വില്
നാ സാര
നാ റുക
നാ ത്മകമായ
നാ വുന്ന
ലി ക്
ലി തം
പാ ത്തി
പാ ഞ്ച
പാ ത്തും
പാ ര്ത്തി
പാ കിയ
ഭാ ർ
അവ ബോധം
അവ ഭൃ
വേ വ
വേ ഷി
വേ രുക
വേ ഷണം
വേ പ്പിന്റെ
നു ള്ള്
നു വാപട
വര് ഷി
പോ ര
പോ ട്ട്
പോ സ്റ്റ
പോ ര്ട്ട
പോ ക്സ്
പോ കേണ്ട
യാ ം
യാ ഡ്
യാ തൊരു
ിക്കുന്നു ണ്ട്
ചെയ്യ ി
ചെയ്യ പെട്ട
ചെയ്യ രുതു്
സാ ഫ
സാ ന്ദ
സാ ദൃശ്യ
സാ വധാനം
ണി നെ
പി ന്തിരി
വര ത
വര ൂ
വര യ്ക്കുന്നു
ദ്ധ ാ
കൂ ന്
കൂ കല്
കൂ വല്
ണ്ടാ തായ
സി ക്
സി നു
സി ഗ്
സി മന്
ങ്ങള ി
ങ്ങള ിലുള്ള
യോ നി
വെ യ്
ദേ ട
ദേ വൻ
ദേ വരിയ
പൂ രിയ
പൂ ക്കുഴി
ശ് വർ
വീ കരണം
വീ ര്ക്ക
വീ ക്ഷണ
വീ ടും
ഗ് മ
ഗ് ലാസ്
ചി വ
ചി ന്
ചി ക്ക്
ചി ത്യം
തല യോ
തല യ്ക്കല്
തല പ്പാവ്
മി ഴ
മി ട്ട്
മി ട്ടി
മി ഷണറി
ട്ടി ട
ട്ടി നെ
കം കണം
കി ണ്ട
കി ന്റെ
കി ഷ്
ഉപ മാന
ഉപ നായകന്
ഉപ ന്യാസ
നായ യുടെ
ഴു ത്ത
ജീ ർണ്ണ
ജ് വലിക്കുന്ന
ദി ശാ
ദി രിക
യി രം
യി ടീ
നട ുക
നട ുന്നു
നട പ്പ്
നട ഹ്
നട രാഗം
കള േയും
മ്പ ില്
വള ായ
വള ര്ന്നു
തെ ന്നി
തെ ന്നല്
ലാ ല
ലാ ൻ
ലാ ലു
ലാ റ്റിൻ
കോ ര്ത്തി
തീ ർത്ഥ
റിയ ുന്ന
സു ർ
സു രാ
സു രേ
സു ശീല
ബന്ധ ന്
ബന്ധ ത്തില്
ക്കി ട്ട
തം ബു
നീ കന്
നീ ട്ടുക
നേ ഗ
പെ ഷ്
പ്രവര്ത്ത കന്
പ്രവര്ത്ത നങ്ങള്
ളി ബാ
എന്ന ില്
മേ ലി
മേ ലെ
മേ ധം
മേ യുന്നു
രാജ സഭ
രാജ കുമാരി
ശാ സ്ത്രി
ശി ര്
പറ ത്തുക
പറ ക്കും
പറ ഞ്ഞി
പറ ച്ചിൽ
വല യം
വല ിക്കുന്നത്
പരി ചിതമായ
പരി പ്പും
പരി ഭ്രമം
കേ സ
കേ ടാ
ബാ സി
ബാ ദി
ബാ ധം
ബാ ണാ
ബാ ങ്കിന്റെ
ക്കു ട
ദേശ ിയ
ദേശ സ്നേഹി
ഹി ജ
ഹി മം
ണ്ടി നീര്
സമ ചതുരാകൃതിയിലുള്ള
പൊ ക്കുക
ന്ദ ന്
നോ വ
നോ ഹ
നോ റ്റ
നോ ടു
നോ ട്ടി
നോ ക്കാത്ത
നോ ക്കുമ്പോള്
കട മ
കട ൽ
കട ക്കുന്ന
ര്ത്ത ിയ
വന് വാത്തു്
ഞ്ച ൊ
ഞ്ച ും
ഗ്ര ോ
ഗ്ര ഹി
ഗ്ര ഹ്
ഗ്ര ന്ധി
മഹ ീനനായ
അതി ർത്ത
അതി സംബോധന
തോ ക്കിന്റെ
ഗു ള്
ഗു ല്ല
ഗു ലം
ഗു ഡി
ഗു ണിത
ഗു ടുമ
മര സം
മര മാണ്
മര തകം
കുറ വും
സ്വ ന
സ്വ ിയായ
പ്പോ ട്ട
രൂ പ്യം
ദു ല്
ദു രു
കാല ണ
കാല ന്
കാല ത്ത
കാല ത്തില്
കാല ിയായ
കാല ുകളില്
കാല ഹരണ
പേ രായ
പര ത്തി
പര ന്ന്
മോ ന
കൈ നീ
കൈ ത്തോ
കൈ യിൽ
കൈ ലേസ്
കൈ ക്കൂല
ത്രി വര്ഗ്ഗം
ക്കാ തിര
ജാ വാ
ജാ നു
ജാ തിര
ജാ മുന്
ജാ ബാദ്
ജാ ബാല
ശ്യ ം
കഴ മ്പ്
കഴ ിക്കുന്നതിനു
വെള്ള ോട്
ഭി മാനം
ൊണ്ട ു
ുകള ില്ലാത്ത
ികള ായി
മുതലായവ കൊണ്ട്
സംബന്ധ മായി
റ്റി ട്ട്
ലോ ത്ത
ലോ ഗ്
സഹ ൃ
സഹ മന്ത്രി
സഹ സ്ര
അനു ബന്ധം
അനു രഞ്ജനം
ചേ തോ
ചേ രാത്ത
രൂപ യ്ക്ക്
രൂപ യ്ക്കു
വ്യാ ധ
ചെയ്യുന്ന തിലൂടെ
സ്ത്രീ ക്ക്
സ്ത്രീ ക്കു
രാമ ലീല
തൊ ഴി
ജന കന്
ജന ങ്ങളും
ജന സമൂഹം
ഭക്ഷ ിക്കാത്ത
ഉപയോഗ ത്തില്
ഉപയോഗ ിക്കും
ഉപയോഗ പ്രദ
ഉപയോഗ ിച്ചുള്ള
കെ മൈന
ജി ന്
വായ വ്യ
ഗോ ട
ഗോ പീ
ഗോ കുല
മൂല ധന
എന്നി വരെ
വലിയ ാത്ത
ഭാഷ ിയായ
ഭാഷ യിൽ
പട്ട ിയുടെ
പട്ട ീച്ച
മനു വിന്റെ
ട്ടിയ െ
ിക്കു മ്പോഴ
മാര് ക്കി
മാര് വാടി
കാര്യ ാരംഭം
ഇട യിലെ
ഇട ത്തും
നിര്മ്മ ിച്ചിട്ടുള്ള
ഇരു നില
ഇരു പതാം
കീ രി
മാന വര്
മാന ദണ്ഡം
ചാ ർ
എന്നിവ കൊണ്ട്
ആള് ക്കൂട്ടം
ശേ ഖ്
മനുഷ്യ നിര്മ്മിതമായ
മനുഷ്യ ക്കുരങ്ങ്
മന ന
ടം ട
ത്തു ള
ബു ധനാ
ഭാര ിച്ച
ണ്ഡ ുറ
ചീ ട്ട
സേ ന്
സേ ക്ക്
നല് കും
എഴു പത്തൊമ്പത്
വയ ലിന്റെ
വയ റിന്റെ
ഭാഗ ിക്കാൻ
മെ ര
മെ ല
മെ നി
പ്രാ വീണ
വരുന്ന ില്ല
നൂ റ്റിയെട്ട്
കൊടു ക്കുവാന്
കയ റിന്റെ
ചില ങ്ക
അട ികല്ല്
തര ണി
തര ായിരുന്നു
നുള്ള ിയ
ഭരണ ത്തിന്റെ
ഭരണ ഭാഷ
ഭരണ പരമായ
ഭരണ കർത്താ
ഭരണ ഘടനാ
കുട ത്തിൽ
കുട ിക്കുന്നത്
ച്ഛ ൻ
വിള യുക
രോഗ ങ്ങൾ
ബോ ൾ
ബോ ണ്
ഷി ംല
കുതിര കൾ
കുട്ട ികളും
റാ കുന്നു
റാ ട്ടില്
റാ ഫ്
പ്പാ ട്ട്
നില യുറ
നില ത്തടിക്കുക
മീ നാ
മീ മാംസ
ശീ ർഷ
തുട ങ്ങും
പഴ ന്
പഴ ചൊല്ല
രക്ഷ പ്പെടുത്തുക
രക്ഷ പ്പെടു
മഹാ പാപ
വു മുതൽ
ഗാ ല
ആയ ത്
ആയ തിനാല്
വില പിടി
വില ക്കുറ
വില കയറ്റം
വില ക്കുറവ്
പ്പു വരുക
പിട ിക്കാന്
ദാ ർ
ദാ ദു
ദാ മിന്റെ
ദാ ഹരണം
ചൂ ടു്
അല റ
അല ര്ച്ച
ുകൊണ്ട ോ
ുകൊണ്ട ിരിക്കുക
ുകൊണ്ട ിരിക്കുകയായിരുന്നു
െടു ക്കൽ
നടത്ത ാത്ത
അമ്മ യ്ക്ക്
അമ്മ ിക്കുഴ
വന്ന ുകൊണ്ടിരിക്കുന്നു
അന പേക്ഷി
ത്തില ി
ത്തില ിട്ട്
പഠ ിക്കുവാന്
സ്ഥാന ില്
പ്രദേശ ില്
തേ ച്ച
തേ ടുക
തേ ങ്ങാ
അപ സ്മാര
അപ മര്യാദ
അപ കീർത്തി
തട വില്
തട വറ
സിദ്ധ ികളില്
കഴി വില്ലാത്ത
ഉറ ങ്ങുന്നു
കല ഹം
കല ശം
കല മാന്
മണ ന്
ജീവ ൻ
സമയ ത്തിന്റെ
സമയ വും
സമയ ത്തിനുള്ളില്
ധന ാരീ
ജന് യം
ന്നി ട്ട്
മനോ രോഗ
മനോ ദുഃഖം
ലേ ഹ
ലേ ാ
ഇര ിക്കാൻ
മത ഗ്രന്ഥങ്ങളില്
റോ ഡിന്റെ
രാജ്യ ങ്ങളും
ഡി പ്
വട ക്കും
വട വൃക്ഷം
ിയെ റിയുക
ഉയ ർത്തി
ഉയ ര്ത്തുന്ന
കൾ വുമുതൽ
രുക ി
വശ്യ മായ
നിര് ദേശം
നിര് ഭയ
നിര് ബാധം
ആന ന്ദി
ാരാ ഹിത്യം
ജല ജന്തു
ജല ദോഷം
ജല ഘടികാരം
അള ന്ന
ഉത് ഭവിക്കുക
യൂ റേ
തൂ ങ്ങുക
അടി പ്പിക്കുക
സോ മരസം
നിര ന്തരം
നിര നിരയായി
കൊണ്ടു വരാത്ത
ഗി നിയ
വാദ കനായ
ലക്ഷ ാധിപതി
മുകള ിലായി
യ്ക്ക ാണ്
വിര ഹി
വിര മിച്ച
കുഴ ിയില്
ദൂ രേ
ങ്ങളെ ക്കുറിച്ച്
എണ്ണ ിയ
എണ്ണ പ്പെട്ട
എണ്ണ ുമ്പോള്
എണ്ണ മയമുള്ള
വഴി തെറ്റി
കും കുമ
പട ലം
കണ്ണ െഴു
നിശ് ചിതമായ
പര് ഗന
എടു ക്കാത്ത
വര്ണ്ണ ശബളമായ
യുദ്ധ ത്തിനു
ചെറു തായ
സമ് പാതി
അറിയ ാൻ
അറിയ ുവാന്
അടു ക്കി
അടു പ്പു്
മണ് വെട്ടി
മണ് കലത്തില്
ഇഷ്ട മില്ലാത്ത
ഇഷ്ട ത്തോടെ
ഇഷ്ട മില്ലായ്മ
സ്ഥല ങ്ങള്
സ്ഥല മാറ്റം
ിയാ വുക
ിയാ കുക
അധ ിയ
നിന്നു പോവുക
നിന്നു ണ്ടാകുന്ന
നിറമുള്ള താകുന്നു
മൊ ണ്ടിനീര്
മൊ സേക്ക്
ബല രാമന്
ബല വര്ദ്ധ
യായി രിന്നു
ത്തേ ണ്ട
ദൃ ക്
പീ തമ
പീ ടിക
ഉണ ക്കുക
ഉണ ർത്തുന്ന
പാട വം
ജോല ിയോ
ജോല ിയിലുള്ള
എല്ല ും
പ്രദ ോഷം
സാധന വും
കിട ക്കും
അമ്പ യര്
പാല ിക
പാല ക്കാട്
കണ ിക
പൂജ ിച്ച
ക്രമ പ്പെടുത്തിയ
വള്ള ത്തില്
വള്ള ത്തിന്റെ
വള്ള ിക്കുട
പുരുഷന് മാരുടെ
മറ ിച്ച
മറ ച്ചു
മറ ശ്ശീല
പൂർ ത്തിയ
രേഖ പ്പെടുത്തി
ശബ്ദ കോശ
പണ ക്കാര
സമൂ ലം
പ്രധാന മന്ത്രിയുടെ
കൂടിയ ാണ്
ബ്ര ജ
ബ്ര ായ്
ബ്ര േല്
നിയമ ത്തിന്റെ
വഴ ിയുടെ
സംബന്ധമായ ത്
വന്നു ചേര്ന്ന
സങ്ക ല്പ്പ
വെളു മ്പി
വെളു ത്തിരിക്കും
ദുര് ഭാഗ്യം
മല യാള
പൈ ശാ
ശീല നായ
ഏക ചിത്ത
സ്ഥാപ ിക്കുന്ന
ഇല ന്ത
ഉരു ളി
ഉരു ണ്ടു
ഉരു വിട
നാട ൻ
നാട കീയ
ഭൂമി ശാസ്ത്രം
ആവശ്യ പ്പെടാത്ത
ആവശ്യ മില്ലാതെ
ഹോ ര്
ഹോ ണ്ടു
ഹോ ങ്കോ
ഹോ ണ്ഡുറ
ിരിക്കുക യാണു്
ദേവ രുടെ
ദേവ ിയെ
ദേവ ഗണം
ദേവ ദാരു
േണ്ട താണ്
േണ്ട താകുന്നു
നിറഞ്ഞ ിരുന്നു
മഴ വില്ല
പിന്ന ിലെ
പിന്ന യോ
സഞ്ച രിച്ചു
കള്ള ക്കട
പ്രേ താ
പ്രേ മാസ
സാമ വേദവുമായി
അര യും
പോവുക യും
ശ്രമ ിക്കുക
ഡോ ല
ഡോ ക്റ്റർ
പെണ് കുറുക്കന്
പറയുക യോ
ിക്കാര ിയായ
ഉണ്ടാക്കുന്ന താണ്
ഉണ്ടാക്കുന്ന തിനായിട്ട്
കുറ്റ ാന്
കുറ്റ ിയില്
കഴു ക്കോല്
സംസാര ിക്കാൻ
സംസാര ിക്കുവാന്
സഹായ ിച്ചു
ചീത്ത ലക്ഷണമുള്ള
പാദ സരം
ചര സ്
ചര ക്കു
ശ്വര മായ
വിധ ിയ
ഗുരു വായി
ഗുരു ജിയുടെ
ഗുരു ത്വാ
പാല് ക്കട്ടി
ളിയ ിൽ
വിട രും
വിട രുന്ന
അം ള
ഹരി ദ്വാര്
ഹരി ഹരൻ
ഫ് രി
അക ന്നു
അക പ്പെടുക
അക ത്തേ
അക സ്മ
സമാ ഹരണം
ചിന്ത കന്
മോഹ ത്തെ
ആഗ്രഹ ിക്കുന്നില്ല
കൂട്ട ത്തോടെ
ശത്രു ക്കള്
എന്ത ുകൊണ്ട്
ജയ ിക്കുന്ന
രാഷ്ട്ര തന്ത്ര
ഇറ ങ്ങ
ഇറ ക്കുക
ഇറ ക്കുന്ന
മഞ്ഞ നിറമുള്ള
മുപ്പ ത്തിയാറാമത്തെ
പച്ച പ്പ്
പച്ച കുത്തുക
ിലി ടുന്ന
കറ ക്കുന്നു
ദ്വീ പു
ആദ രിച്ചു
ആദ രിക്കുക
തുറ ിച്ചു
മനസ്സ ിലായ
സ്ഥിതി ചെയ്യുന്നു
അന് യാ
അന് ത്യ
ശുദ്ധ ം
ശുദ്ധ ത
പശു ക്കളെ
കലാ സ്നേഹി
സമ്പ ര്ക്കം
ഹൃ ദി
ചേര് ക്കു
അര് പ്പണം
അര് ധനാരീ
കൃഷ്ണ മണി
മരണ ശേഷം
മധ്യ മ
സംഭവ ത്തിന്റെ
കിഴ ങ്ങ
ഫല മുള്ള
രണ്ടു പേര്
ബീ ര്
ബീ ഗുള്
രാഗ ത്തെ
രാഗ ത്തിൽ
കുള ിക്കാൻ
സൂര്യ കാന്തി
മണി പ്പു
തിരിച്ച െ
തിരിച്ച ിടുക
സുഖ ാ
സുഖ വും
കണ്ടു വരുന്നു
കണ്ടു മുട്ടി
തിള ക്ക
തിള ച്ച
തിള പ്പിച്ച
ഗര് ഭഗ
വിയ ോഗം
ഏകാ ധി
ഏകാ ധിപത്യ
വ്യവസ്ഥ യില്
വ്യവസ്ഥ പ്പെടുത്തിയ
വ്യവസ്ഥ പ്പെടുത്താത്ത
പുത്രന് മാരില്
വൈദ്യ വൃത്തി
അലങ്ക രിക്കുന്ന
ചതു ർത്ഥി
കര്ഷ കൻ
മുത്ത ങ്ങ
തെറ്റ ായി
തെറ്റ ുകു
കുല ത്തിൽ
കുല ീനത
പോകുന്ന തിനായി
കൃതിയ ാണ്
അമ രി
അമ ർത്തി
മണ്ണ ു്
രണ്ടാ ന
ഗീത യുടെ
നൂല് നൂല്ക്കുന്ന
ഇള കിയ
ഇള കാത്ത
പുര ട്ടുന്നു
പുഷ് പാ
പുഷ് കല
പുഷ് കരന്
നന ഞ്ഞു
നന യ്ക്ക
ക്കോ ട
ിരുന്ന ില്ല
മേല് നോട്ടം
നഷ്ട മായ
പരു ക്കന്
അനാ ത്മ
ഈടാ ക്കുന്നു
അധികാര ിയുടെ
അധികാര മില്ലാത്ത
പത നത്തിനു
നിയന്ത്ര ിക്കപ്പെട്ട
ബഹു നില
ബഹു മൂല്യ
ത്യാ നു
രുന്ന തിനുള്ള
വോ ളിബാ
സേന യില്
സത്യ വതി
കോട തിയിൽ
തണു പ്പിക്കുക
നര വംശ
നിർമ്മ ിക്കാൻ
ഈശ്വര നെ
കേള് വ
കേള് പ്പിച്ചു
കേള് ക്കാന്
കേള് ക്കാം
ഫോ ൺ
ഫോ ര്
പ്ത രൂപമില്ലാത്ത
തുല്യ ത
ബെ ന്ദി
ഒട്ട ലുള്ള
കച്ച ികെട്ട്
ധ്യ ായനം
പൊടി പ്പിക്കുക
രക്ത ക്കുഴല്
നശി പ്പിക്കുന്നു
നശി പ്പിക്കാനുള്ള
പൊട്ടി പ്പുറ
ഭക്ഷണ ക്രമം
ഇല്ല െങ്കില്
ആത്മ ജ്ഞാനി
ആത്മ ജ്ഞാനിയായ
മംഗ ള്
രസ തന്ത്രം
സെ ക്കന്
സെ ക്റ്റര്
കൊല്ല ത്തില്
നക്ഷത്ര ത്തിൽ
ചല ിക്കാന്
തള ര്ന്ന
അന്ന പൂര്ണ്ണ
അന്ന നാളം
ഇന് ദി
ഇന് ഫ്രാ
ഒറ്റ ക്കണ്ണ
വേര് തിരിച്ച
തൊണ്ണൂ റ്റിയെട്ട്
ധാന്യ ത്തില്
ധാന്യ പ്പുര
രണ ീയമായ
സസ്യ ഭുക്ക്
ശിവ ജി
ഇപ്പോള് പഠിച്ചിറങ്ങിയ
വയ് ക്കാൻ
ഇരുപത്തിയ ഞ്ചാമത്തെ
ഇരുപത്തിയ െട്ടാമത്തെ
ഇരുപത്തിയ േഴാമത്തെ
ഇരുപത്തിയ ൊന്പതാമത്തെ
ഗൌ തം
പറഞ്ഞ ിരിക്കുന്നത്
വസ്ത്ര ങ്ങൾ
പ്പുക ാരൻ
തീരു മാനിച്ചു
ഭ്ര മര
തുണ ിക
ജീവിത വും
മുട്ട ൽ
സാധാരണ ക്കാരായ
വളരെയ േറെ
മാറ ുന്നത്
അനുഭവ ജ്ഞാനം
ദൃഢ ത
പടിഞ്ഞാ റേ
ിയു ള്ല
ജു ർ
ട്ര ക്കില്
വഹ ിക്കാൻ
പങ്ക െടുക്കുക
വര്ഷ ിക്കുക
വര്ഷ ിയായ
ബര് ഫി
മയ ക്കം
ഭ്രാ ന്താ
സ്വര ങ്ങള്
ഉച്ച ര
എത്ര ത്തോളം
എത്ര യുണ്ടോ
കട്ട ള
നീല നിറം
മരുന്ന ുകൾ
മരുന്ന ുകളുടെ
മത് സ്യാ
വാര് ഷീ
കാരണ മാകും
ഉര സി
ശേഖ ര്
ശേഖ രിച്ച
അദ്ധ്യ ായ
പുണ ര്തം
ബ്രഹ് മാവ്
വിശ റി
വിശ കലനം
ലഭിക്കുന്ന തിനായി
നിഷ് ത്
വാക് യാ
മനസ്സിലാ ക്കുന്ന
മനസ്സിലാ ക്കാൻ
ജ്ഞാന മില്ലാത്തവന്
നൈ നി
പാത കം
നദ ികളുടെ
തില ുള്ള
പർ ണ്ണ
പർ വതം
തുള സീ
മനസ് കനായ
പരിശോധ കന്
ബ്രാഹ്മണ ര്
പരാ ത
പരാ ദ
വാങ്ങ ുന്നു
വാങ്ങ ാന്
തെളി ഞ്ഞു
ഗ്രീ ഷ്മ
പട്ടണ ങ്ങളില്
ചാണ കല്ല്
വിവര ണ
പ്രശ് നത്തിന്റെ
സംഗീത ത്തില്
പത്ത നം
ണ്ണാ ടി
കിട്ട ല്
പിടിച്ച ട
ചുവ പ്പാക്കുക
താഴ് വര
പരിശീല ിച്ച
പിന് ഭാഗം
പിന് വലിയാത്ത
ഉദ ിച്ചു
കത്ത ിക്കുന്ന
മാനി ലെ
പൊട്ട ുന്നു
അണിയ ാത്ത
അണിയ ിച്ചു
തിരഞ്ഞെടു ക്കുവാന്
വേട്ട ക്കാരന്റെ
പല്ല വ
ക്കൊ മ്പുള്ള
കാഴ്ച യില്
വൃത്തിയാ ക്കുന്ന
വൃത്തിയാ ക്കിയ
യന്ത്ര ങ്ങള്
തോല് പ്പട്ട
ഉന് മേഷം
വധ ിച്ചത്
വേല ിയ
ത്തിലേ ക്കു
തറ യില്
മകള് സഹോദരി
പശ് ചാ
കവ ിയുടെ
പ്രശംസ ിക്കപ്പെട്ട
പുത ച്ചു
ശുഭ മായ
ിലു ളള
ചുരു ട്ടുക
ചുരു ങ്ങിയ
ചേർ ക്കാത്ത
ഗംഗ യില്
ഴിയ ല്
ജൈ വീക
ഒഴുക ാത്ത
പര്വത ങ്ങള്
അനുകൂല മാകുക
ഇടി ഞ്ഞു
രണ്ട ുക
അധ്യ ാ
ഉള് പ്പെടുന്ന
ഉള് ക്കടല്
ബഹ ദൂ
കിണ ര്
കിണ റ്റിലെ
സാമൂ ദിരിക
വിചാര ങ്ങള്
നിന്ദ ിക്കുന്ന
നിന്ദ ിക്കുവാന്
മുദ്ര ണം
നടന്ന ുകൊണ്ടിരിക്കുന്ന
ഭിന്ന ത
ഭിന്ന സംഖ്യ
പ്രാചീന മായ
പ്രാചീന കാലത്തെ
ആര െങ്കിലു
മിനു സ്സ
മസാല യായി
നാം ദേട
ദേവന് മാര്
വിഭ ജനം
ബാല ന്
ബാല നായ
ണാ ത്മക
ആര് ജ്ജ
രുച ിയാണ്
അർ ഘ
വക ാരി
അത്യാ ഗ്രഹം
വിജയ ിക്കാത്ത
വായ് പ്പ
അരു താത്ത
അനി ഷ്ടം
വാത ക
പൂര്ത്ത ീകരണം
നാൽ ക്കാല
ദേവത യെ
ഗർ ഭാശയ
സൂചന കള്
കൂടുതല ുള്ള
പൂശ ുന്ന
കോടി പതി
ന്യൂ സിലാന്
മുപ്പത്തിയ ൊന്ന്
മുപ്പത്തിയ േഴ്
മുപ്പത്തിയ െട്ടാമത്തെ
മുപ്പത്തിയ ൊന്പതാമത്തെ
മുപ്പത്തിയ ഞ്ചാം
അഴു ക്കു
പക ച്ചു
ാനു ഭൂ
ാനു സരണ
പുറത്തു വരിക
വിൽ ക്കുകയും
വിശ്വാസ മുള്ള
വിശ്വാസ ിയായ
ധൂ ളി
സംഘടന യുടെ
നോക്കി നടത്തുക
ശിര സ്സു്
പുളി ച്ച്
പുളി പ്പും
മരു ഭൂമിയിലെ
നെയ്യ ുന്ന
നെയ്യ ിൽ
ഭേദ ഗതി
നാല ിലൊന്ന്
കടല് പ്പന്നി
പതിന ൊന്നും
മാകുന്ന ത്
റന് സ്
പശ യുള്ള
അനുഭ വി
ഒര ൊറ്റ
ലൈ ല
പ്രാണ പ്രതിഷ്ഠ
എഴുപത്തിയ െട്ട്
കിള ിക്കുഞ്ഞ്
ആഘോഷ ിക്കുന്നത്
ആഘോഷ പൂര്വ്വം
എത്ത ിക്കുന്നു
നടു ഭാഗം
പവി ത്രം
കുത്ത ുന്നു
കുത്ത ിക്കൊ
ദൃശ്യ ങ്ങള്
ഫു ർ
ഫു ലെ
ബലി മൃഗം
രാമു വിനെ
കാലി ത്തീറ്റ
യുക്ത യായ
വെള്ളി ത്ത
ദീര്ഘ കാല
അടിയ േറ്റ
ഷേ ക
അറുപത്തിയ െട്ട്
പുള്ളി പ്പുലി
ചൌ ബീസ്
നിക്ക ർ
മദ്ധ്യ ാഹ്നം
ഇരുപത്തി മൂന്ന്
ഇരുപത്തി മൂന്നാമത്തെ
പരിധി ക്ക്
പൊട ിച്ചു
വഴു തന
വയ്ക്ക പ്പെട്ട
പ്രയോഗ ിച്ചു
യോജി പ്പില്ലാത്ത
നേര്ത്ത തും
മഹത്വ മില്ലായ്മ
സ്വതന്ത്ര മായി
മധുരമുള്ള താകുന്നു
വളര്ത്ത പ്പെട്ട
പോലീ സു്
പോലീ സിന്
ിക്കാതെ യുള്ള
സോഹ നെ
പുഷ്പ ക്
തത്വ ജ്ഞാനി
സത് സ്വഭാവം
സത് കര്മ്മം
കൊമ്പ ില്
ഇന്ദ്രിയ ം
ഇന്ദ്രിയ ങ്ങളെ
പിര ിയ
പരീ ക്ഷി
വർഗ്ഗ മായ
നല്ക പ്പെടാത്ത
മുന്നേ റ
ഖം ഡ
കൊയ് തു
സാം സ്കാരിക
അത്ര ിയുടെ
ആല് ക്ക
ദൂര ദര്ശിനി
ബ്രഹ്മ ചര്യം
മക യിരം
വിമാന ത്താവളം
വിമാന ത്താവള
തടസ്സ മുള്ള
ഇരിക്കുന്ന തിനുള്ള
നിയന്ത്രണ ത്തില്
വിനോദ ിക്കുക
ശത കം
ശത മാന
ശത നീകന്
തുര ത്തുക
അവസര വാദി
കൊള്ളയ ടിച്ചു
ഉദ്ദേശ ത്തോടെ
മിഥ ില
രാശ ിയില്
പ്രോ ഗ്രാം
പിതൃ സഹോദര
കര്ണ്ണ ന്റെ
ഉത്പാദി പ്പിക്കുന്നു
സ്തുതി ഘോഷം
മംഗള കാരിയായ
അച്ചട ിച്ച
എതിര െ
എതിര ായ
യജ ൂർ
വിശാല മാക്കുക
പൊള്ള ൽ
സേനാ പതി
ബാധിച്ച ാൽ
ശ്രേഷ്ഠ നായ
വേർ തിരിക്കുക
തത് സമയമുള്ള
സൂര് ദാസ്
തൊണ്ണൂറ്റി മൂന്ന്
ഹെ ല്
പ്രകട മാക്കുന്ന
കാട്ടു പൂച്ച
ജാമ ്യം
ണീ ഷ്യന്
ബുള് ഡോ
കുംഭ കർണ്ണ
പ്രേമ ിയായ
കീഴട ങ്ങല്
സാങ്കേതിക മായി
ആകാര മുള്ള
ദ്വാര മുള്ള
ദ്വാര ങ്ങള്
ദ്വാര കാപുരി
ഉപകരണ ങ്ങള്
വിദ്യാര്ത്ഥ ികള്
മുപ്പത്തി നാല്
എണ്പത്തിയ ൊന്ന്
എണ്പത്തിയ ഞ്ചാമത്തെ
പവിത്ര ത
അഞ് ചുമ
മാര്ഗ്ഗ ദര്ശി
മുറിവേ റ്റു
പകര ുന്ന
ിയി ടുന്ന
ദ്രു മം
കൃത്രി മമായ
അമ്പത്തിയ ഞ്ച്
ഉടു പ്പി
ദശ ഹരി
നിരൂപ ണ
നിരൂപ കന്
കുറ്റം പറയുക
ദയാ ലുവായ
നെല്ല ു
നേരി ട്ടു
നാല്പത്തി രണ്ട്
നിരീക്ഷ ിക്കുക
സംശയ ിക്കുക
ഉത്പാദ നക്ഷമത
പ്രത്യക്ഷ മായ
കപ്പല് യാത്രക്കാരന്
ജപ ിക്കുന്ന
നോക്ക ിക്കൊണ്ടിരുന്നു
അപകട കരമായ
പ്പണ ിക്കാരൻ
പുരോഗ മന
പാകി സ്ഥാന്
കടലാ സു
ചൊല്ല ുക
ചൊല്ല ിയ
സ്രാ വ
വാങ്ങുന്ന തിനായി
വിദ്യാഭ്യാസ ത്തിന്റെ
ഗൃഹ സ്ഥന്
ലൌ കിക
ുകെ ട്ടി
സേഠ് ജി
പതിനെ ട്ടാമത്തെ
ഭീഷണി പ്പെടുത്തി
മാധ വിക
വെയില ത്ത്
ബാധി തമായ
തൊല ിയില്
ഹാജ രുള്ള
സൈന്യ ഗണം
അംഗീകര ിക്കപ്പെട്ട
അംഗീകര ിക്കാൻ
വീട്ടു ടമ
യുഗ ത്തിലും
ആട്ട വും
ചാര് ത്തി
ജൂ ബിലി
മണ്ട രി
മകര ന്ദം
തുല യ്ക്കുക
ത്തിന നുസരിച്ച്
കൂട്ടുന്ന ത്
കുറച്ച ാല്
ബോം ബര്
സന്യാസ ികള്
ഏഴു മടങ്ങ്
ഭരി തരാ
ിക്കട ല
വെണ്ണ ക്കല്ല്
വെണ്ണ ക്കലം
ഉപദ്രവ ിക്കുന്ന
ഉപദ്രവ കാരി
സുഷ മ
ത്തുകൂ ലി
കളിപ്പാ ട്ട
സന്തോഷി പ്പിക്കല്
മഞ്ഞു മൂടിയ
അവകാശ പ്പെട്ട
വീട്ടുക ാരെ
സമര്ഥ ത
തേജ സ്
കൂട്ടുകാര നെ
കൂട്ടുകാര ില്ലാത്ത
കൂട്ടുകാര ാണ്
ആകര്ഷ ിക്കുക
ഒന് പ
മടിയ ന്
യുണ്ടാ ക്കി
അടയാള പ്പെടുത്തിയ
അർത്ഥ ാലങ്കാരം
ിക്കിട ക്കുന്നു
ദ്വി തീയ
ഉപദേശ ിക്കുക
വര്ത്തമാന പ്പത്രം
നാടക ത്തില്
ഉദ്യോഗസ്ഥ ന്റെ
അക് ബര്
ഉറു മ്പ്
പാറ്റ ന
എഴുപത്തി നാല്
എഴുപത്തി രണ്ട്
എഴുപത്തി മൂന്ന്
ഗണിത ത്തില്
ഗണിത ത്തിലെ
അമര ുക
എറി ഞ്ഞ
എങ്ങനെ യെങ്കിലും
ചത ഞ്ഞ
ബാര് ളി
ഷെ യ
തൊണ്ണൂറ്റിയ ഞ്ചാമത്തെ
ത്തക്ക തായ
പരിണ യിക്കാൻ
മഹാത്മാ ഗാന്ധി
അഭിനയ ിക്കുക
ശ്വര് യം
മിശ്ര ലോഹം
തപസ് വിനി
ഗൂഢ മായ
ഉദ്ധ രിക്കപ്പെട്ട
ദിക്ക ു്
വിട്ട യ
മനഃ ശാസ്ത്രജ്ഞന്
കരിം കൊറ്റി
വിയറ്റ് നാമ
ദര്ഭ പ്പു
ധൈര്യ പൂർവം
തകര് ന്ന
ിക്കൊ ടുത്തു
വീടു തോറും
തീര്ത്ത ും
ദ്രവ്യ ങ്ങള്
അടങ്ങിയ ിരിക്കുക
സമാധി സ്ഥനായ
തഴ ച്ചു
തഴ മ്പ്
സഭാ മണ്ഡപ
പ്രഥ മര
പേട കം
വെടിയു പ്പ്
ദുര ന്തം
വായിക്കുന്ന തില്
ഗുണമുള്ള താകുന്നു
അകത്ത് പോവുക
ആലോച ിക്കുക
തൊണ്ട യില്
പട്ടു നൂൽ
ിട്ട ില്ലാത്ത
അവഗണ ിച്ച
പൊതി കെട്ട്
പീഢ നം
സാമര്ത്ഥ ്യമുള്ള
എല ിയെ
കക്ക രിക്ക
ടൈ പ്പ്
തളി ര്
നവാ ബിന്റെ
ഫൈ റ്റ്
പരമാ ത്മാ
അധഃ പതനം
പന് ഥ
വസു ദേവരുടെ
ദേവാ സുര
വിലയി ടിവ്
സംഭവിച്ച ത്
ഫിലിപ്പീ ന്സ്
അണ്ഡ കോശ
അഭ്യാ സ
ിക്കള ഞ്ഞു
പാതി വൃ
ചെയ്യേണ്ട ത്
കിത യ്ക്കല്
ബാദ ിലെ
നിയോഗ ിച്ച
ഉപയോഗിച്ച ിരുന്ന
ആദരണ ീയമായ
കൌശല പ്പണി
ഉപ്പു രസം
ഉപ്പു ചുവയുള്ള
രണ്ടി ന്റെ
വ്യഭി ചാരിണി
ഭൂരി ഭാഗം
കുട്ടികള ോട്
അനൈ ശ്വര്യം
മേല്ക്കൂര യ്ക്ക്
എന്ജി നീയ
ആരു മില്ലാത്ത
വന്ദ നം
ചുഴ റ്റുക
കുറ്റവാള ികളുടെ
അന്തര് ധാര
എണ്പത്തി രണ്ട്
ആറു മടങ്ങ്
തണ്ണി മത്ത
ുകൊടു ക്കുക
മോഷ്ട ിക്കുക
ജിജ്ഞാ സ
ബോസ് നിയായി
മാംസള ഭാഗം
ദശരഥ ന്
ജാവ യിലെ
ചെവ ിയുള്ള
ലിപ ിയില്
അവതര ണ
മൂഢ ന്
ഉപഭോ ക്താ
മോചിത നാവുക
ചാന്ദ്ര മാസത്തിലെ
ചക്ക ിയുടെ
സദാ ചാരം
ിക്കര ച്ചില്
ചെന്ന ൈ
അപഹ രിച്ചു
വഴിതെറ്റ ിക്കുക
കഥാ പാത്രം
മരണാന ന്തര
മുസല്മാന് മാര്
ബാര വാനി
സച്ചി ൻ
നീര ട്ട
പ്രഭാത ത്തിൽ
അയ്യ ോ
തട്ടിയ െടുക്കുക
ിയ് ക്കുക
ചെലു ത്തുക
നാണയ ത്തിന്റെ
ആദരിക്ക ല്
ബ്രിട്ടീഷ ുകാരുടെ
തത്പര ന്
അണ്ട കോശം
ആടിയ ാടി
ചുംബ ിക്കുക
കാണ് പൂര്
കൊളം ബിയ
കോല രക്ക്
കോപ്പ ിയ
യുടേ തായ
പെണ്ണ െലി
പ്രദേശത്തുള്ള വര്
കേന്ദ്രീ കരിച്ച
ഉത്ഭവ ിക്കുന്നു
ചുമത്ത ാവുന്ന
തട്ടാ ത്തി
എട്ടു മടങ്ങ്
ഛി ം
വാതില ുള്ള
വെള ിയില്
സ്വീകാര്യ മല്ലാത്ത
എതിരാള ിയെ
ഗ്രീന്ലാന് ഡിന്റെ
വർഗ്ഗത്തിൽ പ്പെട്ട
മുസ്ലീ മുകള
അങ്ങാ ടിയിൽ
ഉച്ഛ ി
ഉച്ഛ ്
ഉച്ഛ ാരണം
ധനി കന്
ക്ഷു ദ്ര
ശ്വസ ിക്കുക
തീക്ഷണ മായ
ട്രാ വൈലറ്റ്
നോര് വെ
നിർണ്ണ യ
പുരസ് കാരം
ഇന്സ്പെ ക്ടര്
ബലാ ൽ
സഫ ാരി
ഹസ് പതി
സ്ലോ വാക്കിയ
നിരക്ഷ രത
കാവ്യാ ത്മകമായ
നാഗാ ലാൻ
പാണി നിയുടെ
കടന്ന ുകയ
രക്ഷപ്പെട്ടു പോയ
സെന് റീ
സിംഗപ്പൂ രിയന്
ആഗ ിരണം
ധിക്കാര മായി
ജ്വലി പ്പിക്കുന്ന
ദിനാ ജപുര്
പ്രതികൂല മായ
ആഷാ ഢ
റെയില് വേ
കാട്ടുക ോ
കാട്ടുക ൊന്ന
മരക്ക രി
പ്രാര്ഥ ന
ശാസ്ത്രജ്ഞ ര്
ദ്വീപി നെ
ഓരോരുത്ത രും
ഏര്പ്പെട്ട ിരിക്കുന്ന
അസ്വസ്ഥ ത
ആപ്പീ സുകാര്
ആധികാര ികമായ
ഏജന് റ്
ബൃ ഹസ്പതി
വിത്ത ുകള്
കൊതി പ്പിക്കുക
വ്യജ്ഞ നങ്ങള്
രൂപാ ന്തരണം
ചിലവഴ ിച്ചു
ഗാഢ ത
തേയ് മാനം
മത്സര ത്തിൽ
കിരണ ങ്ങള്
ശിഖര ങ്ങള്
ആജ്ഞാപ ിക്കുന്ന
സാക്ഷ്യ പ്പെടുത്തല്
കുറച്ചാള ുകള്
താരതമ്യ പ്പെടുത്ത
ഒൻ പതാമത്തെ
സരോ ദ്
നിഷ്ട നായ
പ്രജ കള്
നെഞ്ച ില്
വ്യാജ മായ
ചിലവാ കുക
നിലനിന്ന ിരുന്നു
റേഷ ൻ
തയ്യാറെ ടു
അലിഞ്ഞു ചേരൽ
മതാനു യായ
സാങ്കല്പിക ത്വം
ഏഷണ ിക്കാരനായ
സ്മരണ ീയമായ
പ്രൌ ഷ്ട
കാർത്തി ക
നാസി ക്
ചുരണ്ട ുക
മഹത്ത് വമുള്ള
ഇരുമ്പ ില്
വൈദഗ് ദ്ധ്യ
ഹോട്ട ലില്
നിഷ്കളങ്ക നായ
ഹരിയാന യിലെ
അള് ജീരിയ
ആന്ത്ര വീക്കം
ഭണ്ഡ ാര
ബ്ള ൌസ്
പരിപാ ടിയുടെ
സൂരി നാമ
ചേർന്ന താണ്
തൂങ്ങ ിക്കിടക്കുന്ന
അധര പാനം
ദുര്യോധന ന്റെ
അല്ബാന ിയന്
വിശദ മായി
വ്യോമ യാന
ആവര്ത്ത ിക്കുക
കാഠി ന്യം
പാലു ല്പ്പ
ഗംഭീ രമായി
വെപ്പാ ട്ടി
പൂട്ടിയ ുള്ള
അനുഗ്രഹ ിക്കുക
മൃദം ഗ
ബിസാ വു
മൈഥ ിലി
ചുറ്റികറ ക്കുക
അര്മേനിയ ക്കാര്
സ്കാന്ഡിനേ വിയന്
ഇന്ദ ുക
നമ ദേവാചാര്യന്
ശനിയാ ഴ്ച്ച
സവാര ിക്കാരന്
മുതി ര്ന്ന
ികിട ക്കുന്ന
പൊങ്ക ല്
വ്യാപി പ്പിക്കുക
ആയുര്വേദ ത്തിലെ
സൌജന്യ മായി
കരുതല ോടെ
നിമിഷ വും
മത്സരാര്ത്ഥ ികള്
ഫെ ബ്രു
രത് നാ
മുരി ങ്ങ
പ്രത്യു ത്പാദന
സാമ് രാജ്യം
കോൺ ഗ്രസ്
വയറന് മാരായ
പ്രാസ കവിത
ഭീഷ് മര്
സൌരാഷ്ട്ര രുടെ
ഇറച്ച ിക
തുറമുഖ മുണ്ട്
ചൊവ്വാ ഴ്ച
സെക്രട്ട റി
സെക്രട്ട റിയ
സൃഷ്ടിക ര്ത്താവ്
ആഗ്നേയ ഗ്രന്ഥി
കലിയുഗ ത്തില്
ഹയഗ്രീ വന്
അൾ ട്രാവൈലറ്റ്
ഈർ പ്പമുള്ള
മദ്രാ സി
പ്രദി പാദ
പാശു പത
ഉപമേ യ
സുബേ ദാരി
ചുണ യുള്ള
ഭൂമധ്യ രേഖ
ദുശ് ശകുനം
ജലയാന ങ്ങൾ
ഉത്കണ്ഠ യുള്ള
രഹസ്യാ ന്
അഭ്യസ്ത വിദ്യ
തുള്ളിച്ചാ ടുക
കതച്ചക്ക യുടെ
അടിച്ചമ ര്ത്ത
കിടുകി ടെ
ഗാര് ഡ്
പമ്പര വിഡ്ഢി
സംയോജ ക
സുഹോത്ര ൻ
ബാലാ പരാ
മഹായു ദ്ധം
അതിർത്തിയ ിൽ
പരത്ത ാവുന്ന
ത്രിശ ൂല
ചെയ്താ ലും
കൊണ്ടുവരുന്ന തിനുള്ള
അമ്പതു ലക്ഷം
തണുപ്പുക ാലത്ത്
സസ്യഭു ക്കായ
ഗൌരവ മായി
പര്വതാരോ ഹ
ഗവേഷ കന്
ലിഖിത ങ്ങള്
വയറിള ക്കാനുള്ള
ഡൊമിനിക്ക ന്
ഭഗീരഥ ന്
ആക് സോ
ജല്പ ായി
ന്മാ ദം
വിരാ ട
കുശവ ത്തി
ലിത്വാ നിയായിലെ
ടിം ചര്
പരിശ്ര മഹീനനായ
കടക്കാര നല്ലാത്ത
പ്രതിപക്ഷത്തുള്ള വന്
നിര്ജ് ജീവ
മുളങ്ക ൊട്ട
സ്റ്റൂ ള്
മഞ്ഞുക ാലത്ത്
ആശാര ിച്ചി
മംഗളാ ശംസ
അനേകാ ക്ഷരമുള്ള
സല്വാ ഡോ
ഒഴുക്ക ികള
അപരിചിത ത്വം
മടക്കിക്കൊടു ക്കണ്ടാത്ത
ദക്ഷിണാഫ്ര ിക്ക
നപുംസ കത്വം
പാമ്പി ൻ
ശാശ് വത
ബ്ലാ ക്മെയില്
തോക്കിന് കുഴല്
അത്യു ത്ത
ദാമ്പ ത്യം
അലൌ കീക
കലര് പ്പി
അധോഗ ാമിയായ
വഴിയാ ത്ര
സൌഹൃ ദം
അനാമി ഭാഷ
വരിഞ്ഞ ുകെട്ടുക
മൌറി ടാന
ആരോഹ ണ
ഇസ്രേ യല്
എന്തിനെ യെങ്കിലും
രജിസ്ട്ര ര്
മൃഗാദ ികളെ
ഈശോ മിശിഹ
ഒസ്യ ത്ത്
ഓര്ക്ക ത്തക്കതായ
ഗദ് ഗദ
തത ഹട
നഗ് നമായ
സൗ ര
ക്കച്ച വടം
സാര്ത്ഥ കമായ
ഗ്ലാ സ്സ്
സുപരി ചിതനായ
ത്രികോണാ കൃതിയിലുള്ള
അപര്യാ പ്തത
ശത്രുഘ നന്
തിരുവോ ണം
സാങ്കല്പ്പ ികമായ
ഉപാസനാ സ്ഥലം
സംവിധായ കന്
സാവധാന ത്തില്
ഉപ് യോഗ
ഛു ക്
ഛര്ദ്ദ ിക്കുക
പശി മയുള്ള
ബറേ ലി
വിശി ഷ്ടമായ
നികുംഭ ന്
പുനര ധി
സംസാരി ച്ച്
ത്രേ തായു
പറങ്കി പുണ്ണ്
കടഞ്ഞെടു ക്കുക
വ്യാഴാ ഴ്ച്ച
മുപ്പത്തിയേഴ ാം
മുള്പ്പട ര്പ്പ്
ടെലിവിഷ ന്
ലഹരിക്കടിമയായ വന്
ദിലീ പ്
അഥി തി
ആശാ വഹമായ
ആസൂ ത്രിതമായ
ആവനാ ഴി
ഇക്കിള ിയാക്കുക
എട്ടുക ാലി
ധും ധു
ശഫ ഗോൽ
ക്ലി പ്തരൂപമില്ലാത്ത
തുര്ക്ക മേനി
കാടപ്പ ക്ഷി
ചെതു മ്പല്
ചെല്ല ാന്
വ്യഞ്ച ന
മൂശാര ിയുടെ
നെപ്പോ ളിയന്
കിശ് മി
കരയിലോ ടുന്ന
കോളാ മ്പി
സുഘ രായി
ക്രൈ സ്ത
പട്ടാണ ിക്കടല
വൈമാത്ര േയ
സര്പ്പി ണി
വിലേ പം
അംബേ ദ്
താഴിക ക്കുടം
ഒട്ടകപ്പ ക്ഷി
പർദ യുള്ള
ക്രിസ്റ്റ ഫര്
പരസ്പരാ ശ്രയം
ഹെലിക ോ
കൈപ്പടയുള്ള യാൾ
വിയറ്റ്നാ മീസ്
ഹിരണ ്യാ
രാജ്മാ പയർ
പശ്ചാത്താപ ം
എംടിഗു അ
വെളിവാ ക്കല്
ഗ്യാരേ ജ്
കുമ്പള ങ്ങ
തൊണ്ണൂറ്റിയാ റ്
ഡാര്ജിലി ംഗ്
നെടുനായ കത്വം
വിരലിലെണ്ണ ാവുന്ന
സ്മാള് പോക്സ്
സംവർത്തക മരം
അന്ദ്ര വേദ
അതാര്യ ത
ഇന്ദ്രീ യ
ഐരാ വതം
ഐറി ഷ്
ഒരായ ുധം
കവാ ത്ത്
രതല ാമ
ഹമീര് പുര്
പ്ളീ ഹ
സ്വെ റ്റര്
വിരേ ചന
വിറ്റാ മിന്
ചെമ്പര ത്തി
താറു മാറ
സംയു ക്തം
നാസാര ന്ധ്രം
വേരുക ൾ
സിഗ് നല്
തംബു രു
കൈത്തോ ക്ക്
ബുധനാ ഴ്ച്ച
വിലപിടി പ്പുള്ള
അമ്മിക്കുഴ വി
യൂറേ ഷ്യ
കുംകുമ പ്പൂ
ഏകചിത്ത തയില്ലാത്ത
ഹോണ്ഡുറ ായി
അകസ്മ ികമായ
അര്ധനാരീ ശ്വര
തെറ്റുകു റ്റങ്ങള്
വോളിബാ ൾ
അ സ
അ പ്പ
അ ദി
അ ലാ
അ നോ
അ പ്പോ
അ ഡ്
അ പ്രതി
അ രോഗ
അ സ്സ
അ കല
അ സംസ്
അ പ്രിയ
അ ശാന്ത
അ ഗതി
അ തിയായ
അ പ്പീ
അ സംസ്കൃത
അ രിയുക
അ ഭ്രം
അ പ്രിയം
അ വികസി
അ നിയന്ത്രിതമായ
അ ഘോര
അ ശ്രേഷ്ടമായ
ആ ടു
ആ ന്ദ
ആ കർ
ആ ചര
ആ സൂത്ര
ആ കൃതിയില്
ആ ഹൂതി
ആ പ്പീസ്
ആ ഡിറ്റ
ഇ റുക
ഈ ടു
ഈ മ്പ
ഉ മരിയ
ഊ ട്ടി
എ നി
എ ടാ
എ ഞ്ചിന്
ഒ ഡ
ഒ ര്
ഒ ട്ടുക
ഒ പ്പു
ഒ ക്കെ
ഒ റീ
ഓ ടു
ഔ ത്സു
ക ിലും
ക ച്ച്
ക നേ
ക ന്ദ
ക ബന്ധം
ക ട്ടിൽ
ക ശ്മീ
ക ലിംഗ
ക വ്വാ
ക വര്ധ
ഖ മ്മ
ഖ ൂറ്
ഖ ജൂ
ഗ ള
ഗ ൈ
ഗ ണ്ഡ
ഗ ലിന്റെ
ഘ ം
ഘ ി
ഘ ്ര
ച ാരന്
ച മോ
ച ണ്ഡ
ച കരമായ
ച വറ
ച ക്കിൽ
ച ങ്ങാത്ത
ച മേലി
ഛ ത്രം
ജ ംഗ
ജ പിച്ച
ജ ഗണം
ജ ബല്
ജ മ്മു
ഝ ബ്
ഝ ാരാ
ഞ ാന
ട ച്ച
ട കം
ട ലില്
ട ീക
ഠ ക്
ഠ ാണ
ഡ ൌ
ഡ ിലുള്ള
ഡ ിക്കല്
ഡ മരു
ണ ്യം
ത ഥ
ത ന്ത
ത രിയ
ത ഞ്ച
ത ക്കം
ത യിൽ
ത ങ്ങുക
ത ട്ടില്
ത ങ്ങുന്ന
ഥ ാന
ദ മാ
ദ ന്റെ
ദ ക്ഷ
ദ നെ
ദ വാന്
ദ മോഹ
ദ ന്ദി
ദ സറ
ധ വള
ധ മത
ധ ര്ണ്ണ
ധ ിക്കാരം
ധ േം
ന യാ
ന നായ
ന മാണ്
ന വസ
ന ിക്കാര
പ നിയ
പ കല
പ ഞ്ച്
പ കിട
പ ുംബ
പ നീര്
പ നിഷത്
ഫ യ
ഫ ണം
ഫ തേ
ഫ ിരോ
ബ വേ
ബ ലഭ
ബ ാരാ
ബ കുല
ബ ബൂ
ബ ്യൂ
ബ സാഗര്
ഭ ട്ട
ഭ നി
ഭ വ്യ
ഭ ണി
ഭ ഗ്
ഭ രിച്ച
ഭ രുച
മ രാ
മ ജ്
മ ച്ചു
മ രുടെ
മ വു
മ ിയെ
മ ജ്ജ
മ ഗഢ്
മ െങ്കില്
മ ുകു
മ ഷീ
മ ഗ്ന
മ കുടോ
മ ഗഞ്ച്
യ മു
യ യാ
യ ീസ്
യ ിരിക്കുക
യ ടിക്കുന്ന
യ ഡറി
ര യ്
ര ണി
ര ത്ത്
ര ജനി
റ പ്പ
റ ക്കുക
റ ില്ലാത്ത
റ വന്
റ ിലായ
ല ില
ല ത്ത്
ല മ്പ
ല ിയുടെ
ല ഖേ
ല സോട
ള ിച്ചു
ഴ ും
വ ിക്ക
വ റി
വ യി
വ നേ
വ യിൽ
വ കാശ
വ ക്രോ
വ വ്വാ
ശ ക
ശ ഹ
ശ ംഗ
ശ ഹര്
ഷ ൂ
ഷ ുറ
സ ാത്ത
സ ക്തി
സ ിയില്
സ ിയാ
സ ിലു
സ ിയോ
സ ഗണം
ഹ ില്
ഹ ടി
ഹ സ്താ
ഹ ക്കീ
ഹ വാഡ
ാ ൺ
ാ ള്
ാ ര്യ
ാ ത്മ
ാ പൂർണ്ണമായ
ാ താവുക
ാ ഭിഷേകം
ീ മ
ീ ഷന്
ീ വനി
ീ മമായ
ു ഭ
ു ട്
ു ണ്ടായ
ൂ ട
ൂ ലി
െ വാഡ
േ ക
േ ശ
േ ഷ
േ കം
േ ക്കും
േ ഷന്
േ യന്
േ റല്
േ ശ്വരന്
ൈ ന്യാധിപന്
ൊ തിബ
ോ ചിതമായ
ോ ബവേ
ൌ ം
ൌ ന
ൌ ര്
ർ ജ
ന് വയം
ക് ര്
ക് രു
ക് ച്ച
ക് ക്കിഴ
ത് യ്
ത് സാഹ
ത് പന്ന
ക്ക റി
ക്ക ായിട്ട്
ക്ക നുസരിച്ച്
ല് നി
ന്ന ാളി
ത്ത ണം
ത്ത ടക്കുക
്ട ്
ുന്ന വൻ
ുക ാന്ത
ുക ാരെ
ര് ത
ര് ദ്ദം
ര് ക്കുറി
ിക്ക പ്പുറ
ിക്ക പ്പെട്ടിട്ടുള്ള
ായ ബ
ായ ിര
സ് വസ്
സ് സി
സ് പുര്
ിയ ര്
ിയ യില്
ിയ ിലേക്ക്
ില് ല്
്യ ്ക്ക്
ട്ട ിരിക്കുന്നു
രു രു
രു മായി
രു ഫിയ
തി ങ്ങി
തി കച്ച
തി നേക്കാള്
തി ഖൂറ്
വി ട്ടുക
വി ഷ്ണ
വി പത്ത
വി ഭ്രാന്ത
വി നയം
വി ദ്രോഹം
ണ്ട ിക്കല്
പ്പ ക
പ്പ ൻ
പ്പ ിക്കുന്ന്
നി ം
നി ധ
നി ശേ
നി ദാ
നി സാമ
നി ങ്ങൾക്ക്
നി പ്പിള്
നി വാരണ
നി രുപ
ാര ായ
ില ണിയുന്ന
മാ ഗ
മാ വ
മാ റും
മാ വിന്
മാ സ്റ്റര്
മാ ജിക്ക്
ച്ച ന്ത
ച്ച മുള്ള
ച്ച ങ്ങല
മു ക്ക
മു ത്തിന്റെ
മു റ്റം
മു ഴം
മു ടിയുടെ
മു ബൈ
മു ര്ശി
മു ണ്ടിന്റെ
മു ന്തിയ
മു ക്തരായ
രാ കി
രാ ത്രം
രാ മാന
രാ വില
രാ നുഭൂതി
ന്റെ കാഴ്ച്ചപ്പാടില്
രി ട്ട്
പ്ര സം
പ്ര സി
പ്ര ജാ
പ്ര വാസി
പ്ര ചോദ
പ്ര കാശി
പ്ര വർത്തിയ
വാ ംഗ
വാ ണ്ഡ
വാ ഷി
വാ തായ
വാ ദ്ധ്യം
വാ ത്മീ
തു വരെ
കാ പ്പ
കാ മാ
കാ മായ
കാ തല
കാ ബാ
കാ വട
കാ ഞ്ചി
കാ സ്പ
കാ ണ്ഡി
കാ ത്മകമായ
കാ ലിന്
കാ ഹിര
കാ സാനി
കാ നഗരി
കാ ന്ധ്യ
ഒരു ക്കുക
ഒരു തരത്തിലുള്ള
മ് പുറ
കു ന്
കു ള്
കു ന്ന്
കു ശാ
കു മാല്
ക്ഷ ാമ
ക്ഷ ാമം
ങ്ക രമായ
രം ഗാ
ചെ ന
ചെ മ
വസ് ത
ിക ൈ
ിക ഴിവ്
പു ഞ്ചി
പു ലംബ
ിച്ച ൊരു
കൊ ള
കൊ ന്ന
കൊ ത്ത്
കൊ കരാ
കൊ ക്കര
കൊ ക്കിന്
കൊ രുന്നതിനുള്ള
ിര ോഗം
താ ക്ഷ
താ ണ്ഡ
താ ഴ്ച
താ പൂര്ണ്ണമായ
താ ടിയുള്ള
ടു ക്കല്
സം ഗ്രഹ
സം വാദ
സം ഹാരം
സം ബല്
നാ ൾ
നാ ക്ക്
നാ സാ
നാ ക്കുന്നു
നാ ട്ടുക
നാ നൂറ്
നാ ക്കിന്റെ
ലി റ
ലി മി
ലി വോ
ലി ഫ്റ്റ്
ത്ര ത്തില്
ത്ര ിയില്
പാ ട്ടു
പാ ര്ശ
പാ ണീ
വ്യ തി
ഭാ ഷ്
ഭാ ണ്ടം
ടി ക്
അവ ര
യം ബാരി
വേ ടന്
വര് ണ്
പോ ലി
പോ ലു
പോ രാള
പോ യാലും
യാ ഗാ
സ്ഥ ായ
ായി ട്ടാണ്
വസ്തു വിൽ
ചെയ്യ ിക്കുന്ന
ചെയ്യ ിക്കുന്നു
ചെയ്യ പ്പെട്ടിട്ടുള്ള
സാ ർ
സാ വ്
സാ മാന
സാ ന്നി
സാ കല്
സാ വോ
സാ ദരം
ണി തമായ
പി ത
പി ക്ഷി
പി റ്റി
പി ഞ്ചു
വര ായി
വര ൂപ
വ് വ്
ദ്ധ ര്
അല്ല േ
കൂ ച
കൂ ർ
കൂ പ്പ
കൂ ടാ
കൂ നുള്ള
കൂ ജനം
സി ങ്ക
സി പുര്
സി ബസാഗര്
ങ്ങള ിലേയ്ക്ക്
ങ്ങള ിലൊന്ന്
മൂ ത്രാ
മൂ ന്നിന്റെ
വെ യ്ക്ക
വെ ല്ലൂര്
ദേ വാസ
ദേ ഹാ
പൂ ന
പൂ ഞ്ഞ്
പൂ ക്കള
പൂ വുള്ള
പൂ വിടുക
പൂ രില്
ശ് ശീലമുള്ള
ശ് ശൂര്
ശ് ചീക
മുള്ള ങ്ക
മുള്ള തും
മുള്ള ുകൾ
വീ പ്പ
വീ ശി
ഗ് ര്
ഗ് രം
ചി പക
ചി ത്ര്
തല പ്പ
തല ത്തില്
തല വൻ
മി ട
മി തി
മി ട്ടു
മി പുര്
മി ടീ
മി ടയില്
വം സ
റി ഞ്ഞ
റി നുള്ള
ലം ഗീര്
ഷ്ട ോ
ജോ രഹ
കി നീ
ഉപ വാസ
ഉപ വാസിയായ
ഉപ ജ്ഞാതാവ്
കര ിക്കല്
കര യിപ്പിക്കുക
നായ കൻ
നായ ിരിക്കുക
നായ വിമാനം
ഴു താത്ത
ദി ഗ്
ദി ഗധ
ദി വ്യമായ
ദി ണ്ടിക്കല്
യി ൻ
യി റ്റ്
നട ീ
നട ക്കുവാന്
നട ക്കാത്ത
കള യ
കള ാൽ
കള ിക്കാരും
വള ച്ച
വള ര്ന്ന
വള ര്ത്തുക
വള ർത്താ
വള ർന്നു
വള ർത്തിയ
ഉണ്ടാ ക്കു
റു മ
മായി ട്ട
തെ ക്കെ
ലാ ജ
ലാ ംഗ
ലാ വനി
ലാ ക്ഷണ
ലാ കാണ്ഡി
കോ രാ
കോ പാ
കോ ട്
കോ ടിയ
കോ കന്
കോ ച്ചല്
തീ ത
തീ പ്പെട്ട
തീ രും
തീ ര്ത്തി
തീ ർന്ന
തീ കത്ത
തീ കുമ്പ
റിയ ിൽ
സു വ
സു സ
സു ഗു
സു മാലി
സു രാമേ
സു റുമ
രിയ െ
രിയ ും
ഷ് കര്
ബന്ധ പ്പെടാത്ത
ക്കി ഡ്
ക്കി നുള്ള
ക്കി ണ്ണം
ക്കി പ്പണിയ
വുക ൾ
വുക ാരന്
വുക ളുടെ
ജോലി ചെയ്യുക
ജോലി ചെയ്യുന്നു
യു മി
യു ക്തിയ
യു ണ്ടായി
യു ടനെ
നീ സ്പ
പെ നി
പെ ശാ
പെ ട്ടിയിൽ
പെ പ്പർ
പെ യിന്റ്
ാരന് പുര്
എന്ന താകുന്നു
മേ ഡ്
രാജ ഗഢ്
തിര യുന്ന
തിര കല്ല്
തിര ിക്കല്ല്
ശാ ര്
ശാ കവ
പറ ിക്കുന്ന
പറ ക്കാത്ത
ചു ക്ക
ചു ക്ക്
ചു ട്ടു
ചു ടുക
ചു വന്നു
ചു ണ്ടും
ചു മ്മാ
വല ക്കൂ
പരി ത്യ
പരി സര
പരി സമാ
പരി ഗണന
പരി ഭ്രാന്തി
കേ ശി
കേ ന്ദു
കേ ശിനി
ബാ ഉ
ബാ ന്റെ
ബാ ലു
ബാ ഡി
ബാ ലംഗീര്
കൃ പാ
കൃ തരായ
നിറ വേ
നിറ ത്തോട്
നിറ യൊ
ക്കു വാനും
ഹി ത്യ
ഹി സ്ത
സമ ോ
സമ ില്ലായ്മ
പൊ ത്തുക
പൊ ങ്ങ്
പൊ ഴിക്കുക
ന്ദ വാഡ
കട ുക
കട ിക്കുന്ന
കട യു
കട കള്
കട പത്രം
കട ക്കാൻ
കട ക്കാരൻ
കട ിച്ചെടുത്ത
വൃ ഷണ
വൃ ന്ദം
വന് തി
നിയ ം
നിയ ുക
നിയ ക്കാരന്
നിയ ിലൂടെ
ഞ്ച ര
ഞ്ച ര്
ഹം ബടോ
ഗ്ര േറ്റ്
മഹ ബൂ
മഹ ുല
മഹ ത്തായ
ടിയ ിക്കുക
ടിയ ിലെ
ത്യ ന്
ത്യ ജുർ
അതി രു
തോ ല
തോ ത്
തോ ളം
തോ ലു
തോ ളില്
തോ ർത്ത്
ഗു പ്ത
പ്പെട ാനുള്ള
പ്പെട ാവുന്ന
പ്പെട ാതിരിക്കുക
മര ിക്കുന്നു
മര വിക്കുക
മര ന്ധ്രം
മര വുരി
കുറ യുന്ന
കുറ വുള്ള
കുറ ിച്ചെ
കുറ ുകെ
ജീവി ശാസ്ത്രം
മുതല ാ
സ്വ ല്പം
ഭൂ യി
ഭൂ നികുതി
ഭൂ പ്രദേശം
ഭൂ തലം
ഭൂ ഗോള
ാവ കാശം
കാണ ിക്കല്
കാണ ികളെ
ജ്ഞ ം
ദു ഷി
ംഗ ായി
കാല ത്തിനുമുമ്പുള്ള
പേ രി
പേ ട്ട്
പേ രിന്റെ
പണി മുട
മോ ഗൊ
കൈ കള
കൈ രേഖ
കൈ വരി
ച്ചു റ്റ്
ത്രി ഗുണ
ത്രി നിദാ
ത്രി ശ്ശൂര്
ക്കാ നാവാത്ത
ിയായ ുടെ
ജാ ട്ട്
ജാ ലം
ജാ മാതാവ്
കഴ ിക്കാനുള്ള
വെള്ള ത്തിന്
വെള്ള പൊക്കം
വെള്ള മൊഴി
വെള്ള പോക്ക്
ഭി ണ്ട
ഭി പ്പിക്കുക
വളരെ ക്കാലം
ുകള ിലെ
ികള ാല്
ികള ിലൂടെ
ികള ുടേയും
ലെ ബ
മുതലായവ കൊണ്ടു
ശു പാര്ശ
നഗ ഢ്
സംബന്ധ മല്ലാത്ത
ലോ ഭ
ലോ ക്
സഹ ിച്ചു
സഹ കരണം
സഹ ിക്കുവാന്
സഹ ാനുഭൂ
സഹ ാരന്പുര്
അനു ബന്ധ
അനു ഷം
അനു ഗമ
ചേ ന
ചേ ച്ച
ചേ റ്
ചേ മ്പ്
രൂപ വും
രൂപ യെ
ചെയ്യുന്ന തു
ചെയ്യുന്ന ില്ല
ചെയ്യുന്ന വന്റെ
സ്ത്രീ യാണ്
രാമ കൃഷ്ണ
രാമ നാഥ
പുറ ത്ത
തൊ ണ്ട്
തൊ ടുത്തു
സ്ത ക്
ജന ിക്കുന്നത്
ജന ജീവിതം
ജന സേവനം
ജന ൌര്
വർ ക്കുള്ള
മറ്റ േയറ്റം
മറ്റ ന്നാളി
ഉപയോഗ പ്പെടുക
ഉപയോഗ പ്പെടുത്തുക
ഉപയോഗ ിക്കണം
ക്ര ൌഞ്ച
ജില്ല യില്
ജി ംഗ്
ജി ബാഉ
വായ നായോഗ്യമായ
ഗോ ലി
ഗോ ഡ്
മൂല മുള്ള
മൂല മന്ത്രം
എന്നി വർ
ഭാഷ യാണ്
പട്ട യ
പല സ്ഥലത്തും
പല സ്തീ
ിക്കു വേണ്ടി
ിക്കു നന്
ിക്കു വാനു
കാര്യ മായി
കാര്യ മല്ല
കാര്യ സ്ഥന്
ഇട ല്
ഇട വം
ഇട ത്തെ
ഇട റിയ
ഇട വരാ
തിനായി ട്ടുള്ള
നിര്മ്മ ിച്ചു
ഇരു മ്പിനെ
ഇരു നൂറ്റിയമ്പത്
കീ ർ
കീ റുന്ന
മാന ബാദ്
വൈ ശാ
വൈ കിട്ടും
സന് താ
ത്താ മര
നല്ല തും
ചാ ലക
രിച്ച ുള്ള
നാല് ഗോണ്ട
മന ശക്തി
ബു വ
ഭാര ദ്വഹനം
സര് ബ
സര് വസ
ക്കിയ ാണ്
പൂര് വീ
ചീ റ്റുക
ഹ് ത്
ഹ് തെ
കുക ുഭ
എഴു ത്തും
വയ റുക
സ്വാ ഹ
സ്വാ ശ്രയ
പദ വ
ഭാഗ മാണ്
ഭാഗ ത്തേ
ഭാഗ ിക്കപ്പെടാത്ത
പ്പി ള്ള
പ്പി ന്ന്
മെ ഡിക്കല്
മെ ര്ക്കുറി
ിക്കാ ഗോ
പ്രാ ശം
പ്രാ വിന്
പ്രാ പ്യ
വരുന്ന തും
വരുന്ന വൻ
നൂ റിന്റെ
നൂ തന
നൂ റ്റിയെ
കയ റ്റിയ
വസ ന്തം
വസ ൈന്യാധിപന്
പ്രതി ഭാ
പ്രതി ബന്ധം
പ്രതി പക്ഷം
പ്രതി നായിക
പ്രതി സന്ധി
പ്രതി ബിംബ
പ്രതി ബിംബം
പ്രതി രോധം
ക്കാര നായി
ായ് ക്ക്
മൃ തമായ
അട ഞ്ഞു
വാസ മുള്ള
തര ുക
തര മായ
രേ ത
രേ സ
കുട ും
കുട ിക്കും
കുട ിക്കൽ
കുട മുല്ല
കുട വയര്
കുട വയറന്മാരായ
വേദ ങ്ങള്
വേദ ധ്യായനം
ച്ഛ ന്റെ
വിള കള്
വിള ിക്കുന്നത്
ത്തിന് റേതായ
ത്തിന് റേയോ
രോഗ ഗ്ര
രോഗ ത്തിന്
ബോ ഗി
ബോ ഡോ
ബോ ംബ
ബോ ഹൈഡ്ര
ബോ ംഗായി
രിക്ക ാത്ത
ഷി ന്
ഷി മോഗൊ
കുതിര കളെ
റാ ല
പ്പാ ത
പ്പാ ക്കി
പ്പാ ളി
നില ത്തു
നില നിര്ത്തുന്ന
തുട യ്ക്കൽ
രക്ഷ ിക്കുക
മഹാ ജ
മഹാ ലക്ഷ്മി
വു ണ്ട്
ഗാ ർ
ഗാ സിപുര്
വന വാസികള്
വന നശീകരണം
വന പിണ്ഡ
ആയ തി
വില േയ്ക്ക്
പ്പു ഴ
ദാ ൻ
ദാ ത്മകമായ
ചൂ ത
ചൂ ല്
അല യുക
അല ക്സാ
മുഖ മായ
മുഖ ത്തെ
മുഖ വും
മുഖ രിതമായ
നടത്ത ണം
നടത്ത പ്പെടുന്നു
ബി ഹാര്
ബി ദാര്
ബി ഹാരി
ബി ജനൌര്
അഭി മുഖ
അഭി ഷേക
അമ്മ യാണ്
അന വസ
അന ാരോഗ
പഠ ിക്കാൻ
ഹര ശങ്ക
പ്രദേശ ങ്ങള്
ഗ്രഹ ങ്ങള്
ഗ്രഹ നില
അപ ചയം
അപ ഹരിക്കുന്ന
തട ങ്ക
സിദ്ധ മായ
സിദ്ധ ാര്ഥ
സിദ്ധ ിച്ചാൽ
ശരീര വും
ശരീര ഭാഗം
ഉറ ച്ച്
ഉറ പ്പ്
ഉറ പ്പു
കല യുടെ
യോഗ്യ മാക്കി
മണ ിയ
ജീവ ിക്കുന്നത്
പെട്ട ിയുടെ
ശോ ണിത
ധന ധാന്യങ്ങള്
സാര ിയുടെ
നില് ക്കുന്നത്
ഹാ വേരി
പഞ്ച മം
പഞ്ച ഭൂത
ലേ ജ്
പുത്ര നും
മത ങ്ങളുള്ള
തിന് സുക
യന് റ്
റോ മാ
റോ മിന്റെ
റോ യിഡ്
രാജ്യ സഭ
രാജ്യ ദ്രോഹം
ഡി ബ്രൂ
ദീ പ്
പക്ഷ വാതം
തുക മായ
കല് പ്പിക്കുന്ന
ഉയ രുന്ന
ഉയ ര്ന്ന്
തന് മാര്
പുരു ലിയ
പുരു രുട്ടാതി
നിര് ഭര
സര സ
ആന പ്പാ
ആന ക്കൊ
ആന ത്തൊ
ആന യംബാരി
ജല മുള്ള
ജല പ്രവാഹം
ജല സ്രോത
മാല ദ
മാല ദ്വീപ
അള ക
അള ിയ
അള ക്കുന്നതിനുള്ള
ഉത് പത്തി
യൂ പാ
തൂ ള്
സോ ലാ
സോ ണിയ
നിര ര്ഥ
നിര ത്തുന്ന
ബുദ്ധ ിയായ
ബുദ്ധ ഭിക്ഷു
കൊണ്ടു പോയി
കൊണ്ടു വന്ന
വാദ വിവാദം
മുള ച്ച
യ്ക്ക ൊ
ഗ്രാമ ത്തല
വിര മ
കുഴ ച്ചു
കുഴ ിയുക
ദൂ ഷ്യം
വഴി പാട്
വഴി കാട്ടി
പട രുക
പട ർന്ന
പട ര്ന്ന്
കണ്ണ ുകൾ
കണ്ണ ൂര്
ഗീ തിരൂപ
പര് വം
റുക ാരുടെ
മാങ്ങ ാ
വര്ണ്ണ മായ
യുദ്ധ ഭൂമിയില്
യുദ്ധ ോ
ചെറു താ
ചെറു ളി
ചെറു ക്കന്
ചെറു സ്തനം
സമ് മാനിച്ചു
സമ് മാനിതരായ
മാറ്റ ാന്
മാറ്റ ുന്നത്
മണ് പാത്രം
മണ് ചട്ടി
ദ്ധ്യ കർ
യാത്ര ീ
യാത്ര ക്കാർ
ോഷ ിയായ
ഇഷ്ട ാനുസരണം
ഹു വിന്റെ
ിയാ ലും
അയ യ്ക്കുന്ന
നിറമുള്ള തും
മാര കമായ
മാര ാല്
ബല രാമ
ദുഃ സ്വഭാവിയായ
ദുഃ ശ്ശീലമുള്ള
ദൃ ഷ്ട
പീ നം
പീ യൂ
പീ ച്ചില്
താമസ ിക്കുവാന്
ഉണ ർന്ന
ഉണ ര്ത്തുക
പാട ാന്
ജോല ികൾ
ജോല ിക്കാരുടെ
പൂര്ണ്ണ ായു
പ്രദ ര്
പ്രദ ർശ
സാധന ത്തെ
അമ്പ താമത്തെ
പാല ിക്കുന്നു
പാല കരായ
പാല ായന
പാല ൂട്ടുന്ന
കണ ക്കിന്
കണ ക്കില്
കണ ക്കുകള്
കണ ങ്കാല്
പൂജ ിക്കപ്പെടുന്ന
ചുമ ന്ന്
ചുമ ലിൽ
ക്രമ മല്ലാത്ത
വള്ള ിയുടെ
മറ ഞ്ഞു
മറ യ്ക്കുന്ന
മറ യ്ക്കല്
ചുറ്റ ുന്നു
ഭക്ഷണം കഴിക്കുക
ശബ്ദ ത്തോടുകൂടി
ശബ്ദ ാവലി
പ്രധാന മല്ലാത്ത
കളി പ്പിക്കുക
ബ്ര ഡ്
നിയമ ിക്കുക
നിയമ ങ്ങൾ
നിയമ ങ്ങളെ
നിയമ ത്തിനു
ക്ഷേ പിക്കുക
ദുഃഖ വും
ദുഃഖ മില്ലാത്ത
ദുഃഖ പൂര്ണ്ണമായ
പ്രത്യേ കാ
പ്രത്യേ കമായ
വരു ത്തുന്നു
കറു വ
വന്നു ചേര്ന്ന്
ചിത്ര ീകരിക്കപ്പെട്ട
ചിക ൻ
സൌ ര്
സൌ ദാ
സൌ ദിയിലെ
ദുര് ഗന്ധ
ദുര് വിചാരം
ദുര് ബ്ബല
മല യാളം
സമ്മ തനായ
പത് നിയെ
കാള ക്കുട്ടി
സ്ഥാപ ിച്ച
ഭാര്യ യുടേയോ
ഇല കൾ
ഇല കളുള്ള
പറ്റ ിച്ചു
മൈ സൂ
മൈ ലേജ്
നാട ്യം
ആവശ്യ പ്പെടല്
പെരു മാറി
ആല ില
ആല പ്പുഴ
ചന്ദ്ര വംശ
ഹോ ട്ടല്
ദേവ ഗഢ്
ഭൂമ ിക
ഭൂമ ിയാണ്
മഴ ക്കാലം
സൂക്ഷ ിക്കാൻ
സൂക്ഷ ിച്ചിരിക്കുന്ന
സഞ്ച ാരി
സഞ്ച ീവനി
കള്ള ത്തരം
പ്രേ താത്
അര ങ്ങ
അര യ്ക്കുക
അര ബി
അര ങ്ങ്
അര മണിക്കൂര്
ഡോ ണ
കാല് ക്കീ
പെണ് തത്ത
പെണ് പിക്ഷി
പുല്ല് മാന്തി
മുന് പെ
മുന് കൂട്ടി
സംസാര ിക്കല്
സംസാര ിക്കാത്ത
ഉണ്ടായ ിരിക്കുന്നത്
വരാ ൻ
വരാ നിരിക്കുന്ന
റ്റു ത്തു
ഭു വനം
ചര ങ്ങ്
ഗുണ ിക്കുക
ഗുണ ങ്ങള്
വിധ ാനം
പാല് പ്പാട
ഒരാ ളാ
ളിയ ുക
വിട ല്
വിട ർന്ന
അം ശു
വേദന യും
നടത്തുന്ന തിനായിട്ട്
നടത്തുന്ന തിനുള്ള
മട ക്കിയ
സ്വീ ഡ
സ്വീ കരണം
സ്വീ ഡന്
അക രോ
അക റ്റി
അക ത്താ
സമാ ജ്
ചിന്ത ിക്കാത്ത
ആഗ്രഹ ങ്ങള്
കൂട്ട മായി
രാഷ്ട്ര റുടെ
രാഷ്ട്ര പതിയുടെ
ഇറ ാന്
ഇറ മ്പ്
ചെയ്ത ുകൊണ്ടിരുന്നു
മുപ്പ ത്ത
ബുദ്ധി ജീവി
ിലി പി
കറ ികള്
വാഹ ിയായ
വാഹ കനായ
ആദ ായ
തുറ സ്സായ
അന് വാ
പശു വിന്
കലാ കൌശലം
ശേഷ ിക്കുക
ശേഷ ിച്ച
ശേഷ മാണ്
കൃഷ്ണ ഗിരി
മരണ ത്തില്
മരണ ീയമായ
ചെയ്തു പോയ
ർത്ഥ മായ
മനോഹര വുമായ
മധ്യ കാല
മധ്യ ഭാഗം
മധ്യ കാലഘട്ട
സംഭവ ങ്ങൾ
സംഭവ ിക്കാവുന്ന
ഫല ങ്ങൾ
ഫല ഭൂയി
ര്ശ ന
ധു ബരി
ക്കള ായ
കൂട ുന്നു
കൂട ിക്കൊണ്ടിരിക്കുന്നു
ബീ ച്ച്
കുള ിക്കാത്ത
പരിശോ ധു
സൂര്യ ഗ്രഹണം
പരീക്ഷ ിക്കുക
മണി ബന്ധം
സുഖ മയം
തിള യ്ക്കുന്ന
വ്യക്തിയ ്ക്ക്
കുതി ച്ച്
സ്താ നില്
വ്യവസ്ഥ യോടുകൂടി
നടത്തി പ്പ്
കുട്ടികള് ക്കു
വൈദ്യ ന്റെ
ചതു രം
ശ്രദ്ധ യുള്ള
ശ്രദ്ധ യിൽ
ദിവസ ങ്ങള്
കുല ട
കൃതിയ ുള്ള
അമ രാവതി
ലോക പ്രശസ്ത
ഉന്ന ാവ
ഉന്ന തരായ
തുന്ന ുന്ന
ക്കേ ടു്
വച്ച ിരുന്ന
പുര ില്
ശ്രീ കാ
ശ്രീ രാമന്റെ
ശ്രീ നഗര്
കരു ക്കള്
കരു തുക
മേല് വസ്ത്രം
മേല് മുണ്ട്
മേല് ക്കുര
ഭയ പ്പെടുക
ശിക്ഷ ിക്കപ്പെട്ട
അക്ഷ രാ
അക്ഷ ീണ
മാത്ര മല്ല
കണ്ട ്രോള്
സന്യാസി മാരെ
ീക രിച്ചു
സംസ് ക്ക
നിയന്ത്ര ണാ
അമേരിക്ക യുടേതായ
അന്ത േ
ബഹു വിധമായ
ചൊ വ്വ
യജ്ഞ വേദി
ബേ ഹിസ്ത
കഷ്ട പ്പെട്ട
കഷ്ട പ്പാട
തയ്യാ റായി
കൂട്ടുക ാര്
കൂട്ടുക െട്ട്
സേന ന്റെ
സേന നെ
സേന യെ
തന്ത്ര ങ്ങള്
തന്ത്ര ജ്ഞ
തന്ത്ര ിയുള്ള
സത്യ ഭാ
ബ്രാ ഹ
നര കം
നര ഹത്യ
മാർ ഗ്ഗം
മറ്റൊരാ ളേ
നിർമ്മ ിക്കുന്ന
ആകാശ ത്തിന്റെ
ിച്ചേ ർക്കുക
തോന്ന ുന്നത്
പൈസ യുടെ
ഫോ യിഡ്
ബെ ഹ
ബെ നീ
ബെ ല്ലാരി
ഉപേക്ഷ ിച്ചിട്ട്
ഉപേക്ഷ ാപൂർണ്ണമായ
അപേക്ഷ കരുടെ
ജ്യ ൊതിബ
വിദ്യാ ഭാസ
മൂന്ന ിൽ
കൌ പീനം
വിറ കു്
ഇല്ലാ തായി
രക്ത ത്തില്
വംശ ത്തില്
ലേഖ നത്തിന്റെ
പഠി ത്തം
ചട ച്ച
ചട ങ്ങി
പുസ്തക ത്തിലെ
ആത്മ പരിശോധന
സെ ന്റെ
കുടുംബ ത്തില്
നക്ഷത്ര ങ്ങൾ
തള ര്
തള ിക്കുക
ധാന്യ ങ്ങൾ
കമ്പ ികള്
കമ്പ ിയുള്ള
വയ് ക്കുവാന്
സുന്ദ ര്
പിച്ച ുക
വീണ ുകിട
പറയ ൽ
പറയ ാത്ത
പറയ പ്പെടുന്ന
ടോ ല
ടോ ണ്
ടോ ഡി
പ്പിക്ക ാം
സംരക്ഷ ിക്കാൻ
സംരക്ഷ ിക്കപ്പെടാത്ത
സൂചി മുഖി
സൂചി ത്തുള
തുണ യുള്ള
ജീവിത ത്തിൽ
ജീവിത ഭാരം
ആഫ്ര ീ
പുറത്താ ക്കുന്ന
പുറത്താ കാത്ത
സ്വാഭാവി കത
മാറ ാത്ത
റ്റുക ാരന്
നാലു പാടു
അനുഭവ ിക്കുന്ന
എണ് ന
താര കാ
ഉയര്ന്ന തും
സാധനങ്ങള് ക്ക്
നക ത്തടക്കുക
പങ്ക െടുത്ത
പങ്ക ദിഗധ
മൌ ലിക
ബര് ദവാന്
ക്രോ മ
സ്വര ൂ
സ്വര ൂപം
ഒരേ യൊരു
മുഴ ക്കുന്നു
അച്ച ാ
ഉച്ച ാരണം
ലോഹ ക്കുടം
തള്ള ിയ
തിരു വള്ള
തിരു വാര
തിരു നെല്ല
തിരു വണ്ണ
മുടി പ്പിന്ന്
ചോദ ിച്ചിട്ട്
ചരി വ്
കാരണ മാകുന്ന
ഉര യ്ക്കല്
ശേഖ രണം
സമുദ്ര ത്തെ
അദ്ധ്യ ക്ഷത
പുള്ള ികൾ
സഭ യുടെ
സഭ യിലെ
സഭ യിൽ
തീര ുന്നു
കൃഷി ക്ക്
സന്തോഷ ിക്കുക
ഓട ിക്കൊണ്ടിരിക്കുന്ന
ഹീന രായ
മനസ്സിലാ ക്കാന്
മനസ്സിലാ ക്കുവാന്
ജ്ഞാന േന്ദ്രിയം
താഴെ യും
അടുത്ത േക്ക്
ചൈ നീസ്പ
ിയായി ട്ട്
പേര് ഷ്യ
ഔഷധ ശാല
നദ ികളില്
മേഘ ല
ഉണ്ട ോ
ഉണ്ട െങ്കില്
കൃഷ ിക്കാരുടെ
ഭിക്ഷ യാച
കഠി നം
കഠി നാ
ശക്തിയ ില്ലാത്ത
സിക ന്ദരിയ
ക്ഷണ ിക്കുന്ന
ക്ഷണ ഭംഗു
ഗ്രീ ൻ
ഗ്രീ സിന്റെ
പട്ടണ ത്തിൽ
പട്ടണ ക്കാരന്
സിംഹ രാശി
തമാ ക്കൽ
വിവര ിക്കുന്ന
വിവര ങ്ങള്
കുറു നാവ്
സംഗീത ത്തിന്റെ
കിട്ട ാനുള്ള
പിടിച്ച ിരിക്കുന്നു
പിടിച്ച ിരുന്നു
നന്ദ ൂര
നന്ദ ികെട്ട
പിന് ഗാമി
ജന്തു ക്കള്
ഉദ രാ
ഉദ ിക്കുക
ധാരാ ള
ധാരാ ളി
ഉഴു വാത്ത
കത്ത ക്ക
ർമ്മ ിക
നാമ പദം
ശാന്ത ിക്കായി
പൊട്ട ിച്ച
അണിയ ുക
തിരഞ്ഞെടു ക്കാനുള്ള
വ്യക്ത മാക്കി
നശ ിക്കുന്ന
പല്ല വി
പല്ല ുകള്
തെളിയ ിക്കേണ്ട
കോശ ങ്ങളെ
സ്വഭാവ ത്തില്
ദാന ിയായ
ബൈ തൂള്
തുള്ള ിയായി
ചെരു പ്പു
ചെരു പ്പടി
നേതാ ക്കള്
കടല ിലെ
കടല ൂര്
കല്ല െ
ദഹ ിക്കാത്ത
ദഹ നീയമായ
ിട ുന്നു
മകള് ക്ക്
ഹൈ ലാകാണ്ഡി
രംഗ പുരം
കണ്ഠ ത്തോടെ
കണ്ഠ ്യാ
രാം ദാസ്
പ്രശംസ ിച്ച
പ്രശംസ ിച്ചു
കാമ ിയായ
പുത ച്ച്
പുത യ്ക്കുന്ന
പോകുക യും
ശുഭ വേള
അന്വേ ഷിച്ച്
നാഗ പട്ടണം
ചേർ ച്ച
വൈദ്യു തിയുടെ
കുട്ടിയ ാണ്
ജാത കം
ജാത ിക്കാർ
ചേര്ന്ന തായ
അനുകൂല മായി
ചന്ത യിലെ
എഴുതിയ ിരിക്കുന്നു
പട്ട് നൂല്
പ്രകൃതി വിരുദ്ധമായ
വേണ്ട ാത്ത
കഴിഞ്ഞു പോയ
അധ്യ ായ
ബഹ ല്
പാപ മില്ലാത്ത
വെട്ടി മാറ്റി
കിണ ർ
പണ്ഡി തന്റെ
ജാല വിദ്യ
ജാല ൌന
ഗ്രന്ഥ ത്തിന്റെ
കായ് കൾ
ഘാ ട്ട
വായി ൽ
വിചാര ിക്കപ്പെട്ട
കൈയ്യ േറല്
നിര്മ്മിച്ച ത്
രഹസ്യ സ്വഭാവം
ആക്രമ ിക്കുന്ന
നടന്ന ിരുന്നു
ബ്രി ട്ടി
ആര ില്
രാസ പദാര്ഥം
മിനു സ
ദേവന് മാരെ
ചന്ദ ൌലി
ക്കര യില്
ബാല ൂ
ബാല ിക
കത ക്
പ്രചാര ത്തിൽ
തല്ല ും
ധരിച്ച ിരിക്കുന്ന
മുറിയ ുടെ
കണ്ണി മാങ്ങ
ഓട്ട ോ
വക ലു
വട്ട ക്കയർ
സപ്ത ശ
കെട്ട ാനുള്ള
സൈനി കരല്ലാത്ത
കവിത കൾ
ശാരീരിക വും
പഴു പ്പിച്ച
വിനോ ദം
വിജയ നഗരം
കൃത ജ്ഞ
രാത്ര ിയും
പരിശ്രമ ിച്ചു
അനി ഷ്ടമായ
നിരാ ശ്രയ
പുല ഹ
ദേവത യ്ക്ക്
ഹൂ ക്ക
ജന്മ നാ
കൂടുതല ോ
അഴു ക്കായ
ചിര കാലീനമായ
കലപ്പ യാണി
അന്ധ ാനുക
ഭംഗ ിയുണ്ട്
വിൽ ക്കുന്ന
പഞ്ചസാര യും
വിശ്വാസ പ്രകാരം
ഒഴ ികഴിവ്
ധൂ ലെ
പതാ സ്ത്രം
ഭൌ തീക
ഹര് ദോ
കൂല ിക്കാര്
വിളി പ്പിച്ചു
വളഞ്ഞ ിരിക്കുന്ന
കറി വേപ്പില
മരു ഭൂമിയില്
ശില് പ്പ
നെയ്യ ില്
ബോധ പൂര്വ്
മുത്തശ് ശന്
ഇഴ യുന്ന
മുന മ്പ്
ചിറ കും
തൊലി ക്ക്
ധീ ര
ധീ രത
കൃത്യ തയില്ലാത്ത
ഏഷ്യ യുടെ
പന്ന ിയുടെ
സമര് പ്പി
സമര് പ്പിച്ചു
ലക്ഷണ മൊത്ത
ദോ ശ്
ഹേ തുകമായ
ിക്കോ ല്
കാന് ഹട
ചാടി പ്പിക്കുക
ആദര പൂര്വ്വം
തിരിയ ുള്ള
മാനു ഷികമായ
സഹോദര നാണ്
നമു ചി
അനുഭ വിച്ച
അനുഭ വിപ്പിക്കുക
ഒര മ്മ
പ്രാണ ായ
്യൂ ണി
പ്രവർത്ത ന
പ്രവർത്ത ിക്കുന്നു
ഭാവന ഗ്ര്
എഴുപത്തിയ ൊന്ന്
എഴുപത്തിയ ാറ്
ബിയ യുടെ
ര്ട്ട ി
കിള ിക്കൂട്
എത്ത ിക്കുന്നതിനുള്ള
േയ ിരുന്നു
കാലി ട
കാലി ഞ്ചര്
പാർ ട്ട
ലക്ഷ്യ മാക്കുന്ന
ആരോഗ്യ ശാസ്ത്രം
ആരോഗ്യ പ്രദമായ
വറ ചട്ടി
ദേഷ്യ മുള്ള
ദീര്ഘ ്
മുന്നോ ട്ടു
സൈനീ കന്
സൈനീ കർ
സൈനീ കരുടെ
കൂടിച്ചേ രുക
ുകു ശു
ുകു ത്തുക
അറുപത്തിയ ൊന്ന്
അറുപത്തിയ ാറ്
രച യിതാവ്
നിക്ഷേ പിക്കുക
ാരോ ഹണം
വാതില് ക്ക
വാതില് ക്കല്
പോള ീഷ
ഗ്രാ ഹ
വൃദ്ധ രായ
ഗ്രാമീണ ർ
സമ്പാദ നം
ഇരുപത്തി രണ്ട്
ഇരുപത്തി നാലാമത്തെ
എടുത്ത ത്
സാക്ഷ ിയായ
ആയുധ ധാരികളായ
മഹത്വ ത്തിന്
സ്വതന്ത്ര മാക്കുക
മുണ്ട നം
കാശ്മീ രില്
പാക മാക്കുക
പാക മാവുക
കൊറിയ യുടെ
കൊറിയ ക്കാരന്
ലഭ്യ ത
പുഷ്പ ിക്കാത്ത
പ്രതീക്ഷ ിക്കുന്ന
പ്രതീക്ഷ ിച്ച
ജ്യോതി ശാസ്ത്രം
ജ്യോതി ഷീ
പ്രി ംസി
സ്തം ഭി
കൊമ്പ ില്ലാത്ത
വിഷ്ണു വിനെ
വിഷ്ണു ക്രാന്ത
മന്ദ ാര
മന്ദ സൌര്
കൊണ്ടാ ടുന്ന
ബാഹ്യ ദളം
രാഷ്ട്രീയ ക്കാരന്
ഉപാ സന
ഉപാ ധ്യക്ഷന്
പ്രവാ ളം
വർദ്ധ ിക്കുക
എതിര് പക്ഷം
മലി നമായ
വള് രെ
ക്രൂ രമായ
ത്തീ രുന്നു
റിന് റേയും
കാര്യാ ധികാരി
മണ്ഡല ത്തിന്റെ
മണ്ഡല ത്തെ
ലംഘ ിക്കുന്ന
കെട്ടുന്ന തിനായിട്ട്
ഇച്ഛ ാനുസരണ
കഷണ മാക്കുന്ന
തുര ക്കുക
വീശ ിയെറിയുക
മദ്യ പിച്ച
മദ്യ പാനം
മദ്യ പാന
പുല്ല ില്
മഹി മയുള്ള
വിസ് മരണീയമായ
ശോഭ ിക്കുന്ന
കുശ ുകുശു
ഉണ്ടാക്ക ിക്കുക
അക്ഷര ത്തിന്റെ
മംഗള ഗാനം
ഇസ് ള
എതിര േ
എതിര ഭിപ്രായമുള്ള
നട്ട ിരിക്കുന്നു
വിശാല തയുള്ള
കാം കേര
കയറ ുന്നു
പ്രവേശന മാര്ഗ്ഗം
മാറുന്ന തിനായി
ധാര്മ്മ ി
ആധുനി കമായ
ഡിയ ര്
ാർ ഥ
ചെവി വരെ
കോപ മില്ലാത്ത
ഒളി വില്
തത് സ്വരൂപമായ
ുകൂ ടി
കുളി സ്ഥലം
അവർ ക്ക്
പ്രകട മായ
പുതു ക്കിയ
പുതു ക്കിപ്പണിയ
ചെയ്യാത്ത വന്
പരിചയ പ്പെടുത്തുക
ബാബ റ്
ബാഹു വായ
വിരല ടയാളം
മുന്പ ും
ഭുജ ിക്കുന്ന
ണീ ഷ്യ
വലിച്ച െടുക്കുന്നു
ബുള് ബു
ഗിരി വര്ഗ്ഗ
ജഗ ന്നാ
സന്ധി വാതം
പിഴ യ്ക്കാത്ത
പ്രാവശ്യ ത്തെ
തുടര്ച്ച ാ
എണ്പത്തിയ െട്ട്
എണ്പത്തിയ ാറ്
ആത്മാ വുമായി
വിഭജ ിക്കാൻ
വിഭജ ിക്കാനാവാത്ത
ആസ്ട്ര ോബവേ
തർ ക്ക
നാല്പത്തിയ ഞ്ച്
കഴുത പ്പുലി
നെയ്ത്തുക ാരി
നെയ്ത്തുക ാരുടെ
ിയി ടുക
മൂത്ര മൊ
മൂത്ര ശങ്ക
രക്ഷാ ബന്ധന്
അമ്പത്തിയ ൊന്ന്
വരാത്ത ത്
അധി നി
അധി വസി
ഉടു ക്ക്
ചര്മ്മ മുള്ള
ഞാ ണ
നിഷ്ഠ ാ
നിഷ്ഠ യില്ലാത്ത
പ്രശ സ്തി
സൌന്ദ ര്യാ
ഞങ്ങൾ ക്ക്
ദയാ നാമ
ദയാ വധം
നേരി ടുക
ഗുല് അജ
ഗുല് ഗുലു
മന്ത്രാ ലയ
യജമാന ൻ
ദൌ ര്
ധനു ഷ്
ധനു മാസത്തില്
ഭദ്ര ക
സംശയ ിക്കപ്പെടാത്ത
ബോര് ഡര്
അന്വേഷ ിച്ചു
ഉദ് ഘോഷ
വെട്ടുക ത്തി
വെട്ടുക ാരി
ദീപ ക്
അടിമ ത്തം
ഹിമാലയ ത്തില്
ഇറ്റ ാവ
ധര ിക്കുന്നത്
പുരോഗ ത
പുരോഗ മിക്കുക
കൊത്തു ളി
കടലാ സുകള്
മാറ്റുന്ന തിനായി
തീരുമാന ിക്കാനുള്ള
ചട്ട മിടീ
ജേ താവായ
പര്യ ായ
പര്യ വേ
മയില് പീ
വാങ്ങുന്ന തിനായിട്ട്
താന് ത്രിക
തെര ഞ്ഞെടുത്ത
സമ്പന്ന ത
പരാജയ ങ്ങള്
ആന്ധ ്രാ
ഇറാ ക്കിലെ
ഉത്സാഹ മില്ലായ്മ
ഉസ് മാനബാദ്
ഖു ബാനി
ഖു ര്ദ
മുക്കു വ
വെയില ിന്റെ
നിരപ്പാ ക്കുന്നു
സൈന്യ ത്തിന്റെ
അദ്ധ്യാപ കന്റെ
കാന്തി പൂര്ണ്ണമായ
യുഗ ത്തിന്റെ
മഹാഭാരത യുദ്ധം
ശരിയായി ട്ടുള്ള
അഴ ക്
അഴ ിച്ചു
അവി ടു
അവി ദ്ധ്യകർ
ചാര് ജ്
ജൂ നഗഢ്
ബര ാരി
ബര ഗഢ്
മകര രാശി
മരുന്നു വില്പ്പനക്കാരന്
സ്വാമി ജിയുടെ
പ്രേരണ ാത്മകമായ
ഒള ിക്കുക
കസേര യില്
മല് കാനഗരി
ലൂ യി
നുണ യനായ
കാണുക യോ
പഞ്ചായ ത്തിന്റെ
കണ്ണു വേദന
കണ്ണു നീര്
സന്തോഷി പ്പിക്കുന്ന
മഞ്ച രി
ക്യാ ന്
താണ െന്ന്
പറയാ തെ
തേജ സ്സില്ലാത്ത
കണ്ണാ ടിയ
അറുപത്തി മൂന്ന്
ചെമ്മരിയാ ടിനെ
ദ്വാദശി ക്ക്
ഒന് പതും
ബൌ ഠ
ഭൃ ഗു
ഭൃ ംഗ
ാണ െന്ന്
സ്കോ പ്
താപ സന്
കരസ്ഥ മാക്കി
കരസ്ഥ മാക്കാൻ
യുണ്ടാ കും
സുന്ദര നായ
കൃത്രിമ മായി
കാറ്റ ിൽ
കൊളു ത്തി
പാഴ് സികളുടെ
പേന യുടെ
അടയ്ക്ക ാനുള്ള
നാടക ത്തിലെ
ഉറു ഞ്ചി
എറിയ പ്പെട്ട
നോട്ട ുകള്
കഴിച്ച ാല്
കൊടുത്തി രിക്കുന്നു
ഗൊ ജയി
ഗൊ രഖ്
മൂല്യ മുള്ള
ലാഭ ദായ
കേടു പാടു
ബാർ ളി
തൊണ്ണൂറ്റിയ ഞ്ച്
ആശ്രമ ത്തിലെ
ജൌ ന്
ജൌ കരായി
മറാ ഠ
ചെമ്പ കം
മഹാത്മാ വിന്റെ
പെരുമ്പ ല്ലൂര്
സത്യസന്ധ നായ
രാമായണ ത്തില്
ചപ്പ ല്
സേവന ത്തിനായി
കണക്ക പ്പിള്ള
തപസ് സിൽ
കൂമ്പാരം കൂട്ടുക
വികലാംഗ രുടെ
വികലാംഗ രായ
വീഴ ൽ
തെലു ങ്ക
തെലു ങ്കു
മനഃ ശബ്ദമുള്ള
പതിനാ റാം
മൊത്ത മായി
ദൈവ ത്തിന്റെ
വിയറ്റ് നാം
ശ്രേഷ്ട മാക്കുക
ദര്ഭ വിരിച്ച
എട്ട ണ
കാപട ്യമില്ലാത്ത
കരീ മഗഞ്ച്
അനുഷ്ഠ ിക്കുന്ന
കര്ണ്ണാ വരണം
ഭീകര വാദികള്
മാതാപിതാ ക്കളെ
അഗ ിയ
അപരി ചിതമായ
ഗേ ഡി
ജെ ല്ലി
വണ്ണ ാന്
ുകൊ ടുത്തു
ിക്കപ്പെട ാവുന്ന
ച്ചാ ക്ക്
പിടുത്ത ക്കാരന്
വാഹന ങ്ങളുടെ
ചതുരംഗ ക്കളി
ദാവ ണ്ഗ
തിബ ത്തി
നീച മായ
തിരസ് ക്കര
തിരസ് കൃതരായ
ത്യജ ിക്കുന്ന
സൂക്ഷി പ്പുക
കലഹ പ്രിയനായ
ചുറ്റു പാട
ചുറ്റു വട്ട
ആലോച ിക്കപ്പെട്ട
അഞ്ഞ ൂ
ഒമ്പ തു
ഒളിച്ച ും
ഖര മാസം
നിസ്സ ീമമായ
ചേര്ത്ത ാല്
പദാർത്ഥ ങ്ങൾ
അമ്പത്തി മൂന്ന്
ഘടിക ാര
ബെല് റ്റ്
തൊഴിലാള ികളെ
പുനര് ജന്മം
പുനര് നിയമനം
ശുശ്രൂഷ ിക്കപ്പെട്ട
ഓര് ക്കിഡ്
ടൈ ഫോയിഡ്
പത്തു മടങ്ങ്
പായ് വള്ളം
ഫൈ നല്
രവി ദാസ്
ലന് ഡ്
സഫല മായ
സംയുക്ത മായി
ചിന്താ കുല
കോര് ബ
കോര് ത്ത്
അധഃ പ്പതി
കിടക്ക യില്
അധ്യാപ കൻ
കൊള്ളയട ിക്കുന്ന
ശർക്കര പ്പാവ്
എം ബ്രോ
മില് ലി
സമാന മായ
ഗംഗാ ജലം
ഗംഗാ തീരത്തുള്ള
വർഷ ത്തെ
ശിരോ കവചം
അശുഭ മായ
ആസ് സാമ
ചണ ച്ചെടി
ദശാ ംശം
ബട ഹംസ
കുഞ്ഞു ങ്ങളെ
പൂജാ ദി
സുരക്ഷാ പരമായ
അനുഷ്ട ാനം
അനുഷ്ട ുപ്
തടയുന്ന തിനായിട്ട്
വിരുന്ന ുകാര്
പറ്റുന്ന ില്ല
മടക്കി ട്ടിരിക്കുന്ന
അച്ചടി ച്ച്
ശില്പ കല
തെറ്റിദ്ധ രിക്കുക
വിരിച്ച ിരിക്കുന്നു
വിരിച്ച ിടുക
വിരോധ മുള്ള
പൂര ിലെ
ശ്രാ വസ്തി
ട്രി ക്
വില്പന ക്കാരന്
പര്യാ പ്തത
മൈതാന ത്തിൽ
അരക്കെ ട്ടു്
സമ്പ്രദായ ത്തിന്
അരിക ത്തുള്ള
അസുര സ്ത്രീ
തകർ ക്കുക
തകർ ന്നു
ക്ലാസ് സിൽ
വേറി ട്ടു
യാണ ൊ
ചുഴ ികള്
പലഹാര കച്ചവടക്കാരി
വയസ്സ ുള്ള
ഹാസ്യ ജനകമായ
സ്റ്റാ റ്റി
സ്റ്റാ ലിന്
ദ്രാവക ത്തിന്റെ
അസ്ത മയ
അസ്ത മയം
ഖത്ത റിലെ
യാദ വരുടെ
വളഞ്ഞു പുളഞ്ഞു
ിക്കാതിര ിക്കല്
പ്രാദേശ ികമായ
ബോസ് നിയാ
കണ്ണുകള് ക്ക്
ഗുണന ഫലം
ഒട്ടക ക്കാരൻ
ദശരഥ ന്റെ
അപ്പോള് വരെ
ബന്ദ ര്
ശ്വേ താ
മഹാന ഗരം
തോറ്റു പോയ
മീശ ക്കാരന്
അഭിനന്ദ ന
സംസ്കാര ത്തിന്റെ
ഇല്ലായ്മ യുടെ
അശ്വ മേധ
ഉത്തേജി പ്പിക്കുക
അസ്ഥിര ത
എള്ള് ലഡ്ഡു
ചക്ക പ്പഴം
ദല്ലാ ളി
മരി നോ
റഷ്യ യില്
പ്ര് തി
ണ്ടോ റ
നാവിക സേന
കളിയാ ക്കി
മണ്ണി ൽ
മണ്ണി ട്ട്
ബലമുള്ള തും
തര്ജ്ജിമ ചെയ്യുക
പിന്തുട രല്
സാമൂഹ്യ വിരുദ്ധമായ
ഞെട്ടി പ്പോയി
ഡെന്മാര് ക്കി
ആം ഗുല
ബാര ഹ്
ബാര പേട്ട്
പുരോഹി തന്റെ
കൊഴ ിച്ചെടുക്കുന്ന
പോര് ബന്ദര്
കൂട്ടു മ്പോള്
കീടാ ണുക്കള്
കയറ്റു മത
അഭ്യര്ഥ ിച്ച
ഭര്ത്താവിന്റെ യോ
പ്രഥമ ഗണന
പരോപ കാരം
അയ്യ ായിരം
അരിയ ുണ്ട
തട്ടിയ െടുത്തു
നൊ വ
ിക്കൊടു ക്കുക
പ്പിട ിച്ച
മൃഗാ ദികള്
നാണയ ങ്ങള്
ബീജ ഗണിതം
പ്രചാരത്തില ിരിക്കുന്ന
തത്പര ത
താല്പര്യ മില്ല
ചുംബ നം
വാതി ലില്
നാട്ടു രാജ്യം
പിൻ ഭാഗം
വീടി നെ
നിലവാര ത്തിലുള്ള
മലബാ റിലുള്ള
അവതരി പ്പിക്കുന്ന
യാദൃച്ഛ ികമായ
ഛി ന്ദവാഡ
തിങ്ക ള്
വാതില ുകള്
വാതില ിലൂടെ
കുഞ്ച ട
വെള ളം
ബാം കുര
സ്വകാര്യ മായ
സമ്മത പത്രം
അറിവു നേടുക
ഗ്രീന്ലാന് ഡി
വലുതാ ക്കിയ
ഡ്രൈ വർ
വ്യാഖ്യാന ത്തിന്റെ
പ്രതാപ് ഗഢ്
ഗട ഗ
ഗട ചിര
നവീ കരണം
വിദൂ രമായ
മാരു ടേ
കാത്തു സൂക്ഷിക്കുക
പുച്ഛ ിക്കുന്ന
ചിന്തി ച്ച
തിരശ്ശീല യില്ലാത്ത
സമന് വയം
അയര്ലാന് ഡിലെ
അധ് വാന
പെരുമാറ ുന്നു
ചിന്തേ രിടല്
ഏകാന്ത ത
അന്നദാനം നടത്തുക
ഇന്സ്പെ ക്റ്റര്
സന്തുലി താവസ്ഥ
ഉടമസ്ഥ ാവകാശം
ആജീവനാ ന്ത
ഇണ ങ്ങാത്ത
ഛേദ നം
നഗ്ന പാദ
പിയ ാര
ക്കൊണ്ട ു
രാഹു ല്
പ്രകാര മുള്ള
കാട്ട െ
സുഡ ാന്
യൂക്രേ ന്
കുഴിച്ചി ടുക
ശൈല പുത്രി
സന്ദര്ശ കര്
മോഹിപ്പിക്കുന്ന താണ്
അചഞ്ച ലം
ഝാ ട്
ഝാ ബി
പന്തി നെ
മസ്ത കം
കാറ്റു പായ
വര്ധ ക
നീർ ക്കെട്ട്
പരിശീലി പ്പിക്കാത്ത
ചേട്ട ന്റെ
ചേട്ട ത്തി
തുടക്ക ത്തില്
ഹൈന്ദ വരുടെ
ആധി ക്യ
ഗ്യ ാല
ജാര പുത്രനായ
ജയില ര്
ശൌ ചാ
റെയില് വെ
താജ് മഹ
പോരാ ളി
യാമ ത്തില്
കൂര് ക്കം
തിയോ ടുകൂടി
കളപ്പുര യില്
നിര്വഹ ണം
ഓരോരുത്ത രുടേയും
ഏതൊരുവനാണ ൊ
ദ്രുത ഗതി
ഉദാസീന നാവുക
ആകെ ത്തുക
ഇമ ചിമ്മാതെ
ട്യു നീ
ട്യു ണീഷ്യന്
വിത്ത ില്ലാത്ത
സാന്ദ്ര ത
രൂപാ ന്തരം
സാധരണ യായി
ഖ്യാ തി
വിഷാ ദാത്മകമായ
മൌല ികമായ
മാന്യത യോടുകൂടി
അഴുക്ക െടുപ്പ്
ആജ്ഞാപ ിക്കപ്പെട്ട
ധ്രൂ വീകരണം
പ്രദര്ശന ശാല
കോണ്ട്രാ ക്റ്റര്
ക്രിസ്ത്യാനി കള്
അസര്ബൈ ജ
അസര്ബൈ ജാ
അസര്ബൈ ജാന്
ഊഷ് മാ
റെക്കോ ഡര്
ികേ രി
ശിവലി ംഗ
പരിഭ്ര മിക്കുന്ന
സമർ ബേഹിസ്ത
അനൌ ചിത്യം
ഫ്രാന് സില്
ഭോജ് പുരി
വികസ ിച്ചു
തീവ്രവാദ ികളുടെ
മിഥുന രാശി
ഉദാഹരണ മായി
ഉദാഹരണ മാണ്
സ്വേച്ഛാധിപ ത്യം
അരുണാച ല്
അനീതി പൂര്ണമായ
ഏഷണ ിക്കാരന്
ഗയാന ക്കാരന്
ഝു ല്നി
നല ബാഡി
ഹഠ യോഗി
വിശാഖ പട്ടണം
മാനേ ജിംഗ്
റെഡ് ഡി
തുമ്പ ികൈ
കാത്തി രിക്കുക
നാളിക േരം
പാക്കി സ്താന്റെ
വേശ്യാ പുത്രി
നെറ്റി ചുട്ടി
പരിഹാര മായി
ഉള്ളം കാല്
വയൽ ചുള്ളി
ഉറങ്ങ ാന്
ഉറങ്ങ ുമ്പോള്
സീതാ പുര്
കിരീ ട
വിപ്ല വകാരി
തിങ്കളാ ഴ്ച്ച
നിരീശ്വര വാദി
കിലു ക്കം
ശുക പ്രിയ
വിവശ യായ
വിണ്ടുകീ റുക
ലിബിയ യുടെ
ജീൻ സ്
സുല് താന്
ബന്ധി പ്പിച്ച
സമത്വ വാദം
ക്രമീ കരണം
ദുര്യോധന ന്
രസതന്ത്ര പരമായ
ഭ്രൂണ ഹത്യ
മുറിവേല് പ്പിക്കുക
തീക്ഷ്ണ ഗന്ധ
അനിശ്ചിത കാല
നുക ത്തില്
ലഖ് മിപുര്
സ്പ്രി ംഗ്
നിതം ബ
പുഞ്ച ിരിക്കുന്ന
പൂഴ്ത്തി വയ്
കിരി ബാ
കടാ ക്ഷം
പരശു രാമൻ
അനുമാന ത്തിലുള്ള
ബുല ന്ദ്
പ്രാധാന്യ മുള്ള
അലിയ ുന്ന
തടവിലാ ക്കി
കാര്ഷിക ോപകരണം
ഇന്ഡ ്യ
സ്ഥാപി തമാക്കിയ
അടിയും വെട്ടും
കൂട്ടിയി ടിക്കുക
ആദിമ നിവാസികള്
വിശ്വാമിത്ര ന്റെ
ആക്ഷേപ കരമായ
ഇന്ദ ിര
ഉര് ദൂ
കഹ രാവ
ദില്ല ിയില്
നള ൻ
സമേ തനായി
മുതി ർന്ന
പ്രാരംഭ ികമായ
ികിട ക്കുക
തലയിലെ ഴുത്ത്
ലാള ന
സുക്ഷ ജീവിശാസ്ത്രം
മെക്സ ിക്കൊ
സ്റ്റാന് റ്
അംഗീ കാരം
സ്പർശ ിക്കാത്ത
മനസ്സു റ
നാഗരിക ത
വര്ദ്ധന വ്
ഏൽ പ്പിക്കുക
ഔപചാര ികമായ
നഖ ച്ചുറ്റ്
യവ മദ്യം
രത് നഗ
വാരണ ാ
സിക്ക ന്ദര്
മുഷി ഞ്ഞ
തെന്ന ുക
നേതൃ ത്വം
തോൽ ക്കുക
ഗുന മാസത്തിലെ
അനുപ മമായ
അനുരാഗ ജനകമായ
ബുല് ഗാര
മെഹ സാന
ച്ഛാ ദിതമായ
ബിഹാ റി
ശോക പൂര്ണ്ണമായ
ശോഷ ിച്ച
ഉത്കണ്ഠാ കുല
കൊള്ളി വാക്ക്
കാല്നട യായി
സർവ് വസൈന്യാധിപന്
ഉന്നതാ ധികാര
സൂര്യോ ദയം
യൌവന യുക്തയായ
സംശയാ ലു
പ്രധാനാ ദ്ധ്യാപകന്
ഇൻ ഷുറ
കഷ്ണ ിക്കുക
ഫൌ ണ്ടന്
വയ്യ ാത്ത
വാറ ംഗല്
കൊഞ്ഞ യുള്ള
പാശു പതാസ്ത്രം
റിപ്പോ ര്ട്ട്
സുബേ ദാര്
കടച്ചില് ക
പുറത്തേ ക്കുള്ള
ഗോപ ിക
സഹോദരിയ ിൽ
ആലൂ ബാലൂ
ധര്മ്മി ഷ്ഠ
മത്സരിക്കുന്ന തായ
പുറംതള്ള പ്പെട്ട
സൂക്ഷ്മത യോടെ
മാതളനാരങ്ങ യുടെ
ജീവാണു വിനെ
അൻ പത്
അസം ഖ്യം
ആവർത്ത ിക്കുക
നബ രംഗപുരം
പല് പ്പൊടി
റിക്കോ ഡ്
വിപുല മാക്കിയ
പുത്ര് ന്
വീര്യ ന്
ബാള് സം
ഗ്രെ നാട
കര്ക്കിട ക
താഴോ ട്ട്
മേല്നോട്ട ക്കാരന്
അക്ഷാംശ രേഖ
മറ്റുള്ളവര് ക്കു
ശരത് കാല
കൂലിക്കാര െ
സ്പെയി നില്
കാർബ ൺ
ഒപ്പി ട്ടു
കവണ ിക്കാരന്
ഗ്യാ സ്
ചിക്ക മംഗ
ടവ് വല്
യശോ ധര
ത്സ് യന്
കുബ് ജ്
വെണ്ട യ്ക്ക
ഗ്ദ്ധ ത
ചിറ്റ മ്മ
ഉണ്ടാകാ റുണ്ട്
സുമംഗ ല
പരിപാട ികള്
ബാല്യ കാല
തുകൊ ണ്ടാണ്
[...]
