{"<|endoftext|>":0,"!":1,"\"":2,"#":3,"$":4,"%":5,"&":6,"'":7,"(":8,")":9,"*":10,"+":11,",":12,"-":13,".":14,"/":15,"0":16,"1":17,"2":18,"3":19,"4":20,"5":21,"6":22,"7":23,"8":24,"9":25,":":26,";":27,"<":28,"=":29,">":30,"?":31,"@":32,"A":33,"B":34,"C":35,"D":36,"E":37,"F":38,"G":39,"H":40,"I":41,"J":42,"K":43,"L":44,"M":45,"N":46,"O":47,"P":48,"Q":49,"R":50,"S":51,"T":52,"U":53,"V":54,"W":55,"X":56,"Y":57,"Z":58,"[":59,"\\":60,"]":61,"^":62,"_":63,"`":64,"a":65,"b":66,"c":67,"d":68,"e":69,"f":70,"g":71,"h":72,"i":73,"j":74,"k":75,"l":76,"m":77,"n":78,"o":79,"p":80,"q":81,"r":82,"s":83,"t":84,"u":85,"v":86,"w":87,"x":88,"y":89,"z":90,"{":91,"|":92,"}":93,"~":94,"¡":95,"¢":96,"£":97,"¤":98,"¥":99,"¦":100,"§":101,"¨":102,"©":103,"ª":104,"«":105,"¬":106,"®":107,"¯":108,"°":109,"±":110,"²":111,"³":112,"´":113,"µ":114,"¶":115,"·":116,"¸":117,"¹":118,"º":119,"»":120,"¼":121,"½":122,"¾":123,"¿":124,"À":125,"Á":126,"Â":127,"Ã":128,"Ä":129,"Å":130,"Æ":131,"Ç":132,"È":133,"É":134,"Ê":135,"Ë":136,"Ì":137,"Í":138,"Î":139,"Ï":140,"Ð":141,"Ñ":142,"Ò":143,"Ó":144,"Ô":145,"Õ":146,"Ö":147,"×":148,"Ø":149,"Ù":150,"Ú":151,"Û":152,"Ü":153,"Ý":154,"Þ":155,"ß":156,"à":157,"á":158,"â":159,"ã":160,"ä":161,"å":162,"æ":163,"ç":164,"è":165,"é":166,"ê":167,"ë":168,"ì":169,"í":170,"î":171,"ï":172,"ð":173,"ñ":174,"ò":175,"ó":176,"ô":177,"õ":178,"ö":179,"÷":180,"ø":181,"ù":182,"ú":183,"û":184,"ü":185,"ý":186,"þ":187,"ÿ":188,"Ā":189,"ā":190,"Ă":191,"ă":192,"Ą":193,"ą":194,"Ć":195,"ć":196,"Ĉ":197,"ĉ":198,"Ċ":199,"ċ":200,"Č":201,"č":202,"Ď":203,"ď":204,"Đ":205,"đ":206,"Ē":207,"ē":208,"Ĕ":209,"ĕ":210,"Ė":211,"ė":212,"Ę":213,"ę":214,"Ě":215,"ě":216,"Ĝ":217,"ĝ":218,"Ğ":219,"ğ":220,"Ġ":221,"ġ":222,"Ģ":223,"ģ":224,"Ĥ":225,"ĥ":226,"Ħ":227,"ħ":228,"Ĩ":229,"ĩ":230,"Ī":231,"ī":232,"Ĭ":233,"ĭ":234,"Į":235,"į":236,"İ":237,"ı":238,"Ĳ":239,"ĳ":240,"Ĵ":241,"ĵ":242,"Ķ":243,"ķ":244,"ĸ":245,"Ĺ":246,"ĺ":247,"Ļ":248,"ļ":249,"Ľ":250,"ľ":251,"Ŀ":252,"ŀ":253,"Ł":254,"ł":255,"Ń":256,"Ġt":257,"Ġa":258,"in":259,"he":260,"Ġs":261,"re":262,"Ġ.":263,"Ġo":264,"er":265,"it":266,"Ġthe":267,"Ġ,":268,"Ġf":269,"is":270,"en":271,"Ġm":272,"at":273,"Ġb":274,"Ġc":275,"Ġw":276,"ing":277,"es":278,"nd":279,"or":280,"on":281,"ou":282,"Ġp":283,"Ġof":284,"an":285,"Ġd":286,"ar":287,"Ġand":288,"al":289,"Ġth":290,"ly":291,"Ġh":292,"le":293,"ic":294,"Ġto":295,"Ġ'":296,"Ġin":297,"ed":298,"il":299,"Ġl":300,"om":301,"Ġn":302,"st":303,"Ġit":304,"Ġe":305,"Ġg":306,"Ġis":307,"ut":308,"ct":309,"el":310,"Ġmo":311,"ent":312,"ion":313,"as":314,"ot":315,"ve":316,"Ġthat":317,"Ġst":318,"im":319,"Ġbe":320,"vi":321,"Ġre":322,"ra":323,"Ġu":324,"gh":325,"the":326,"ver":327,"ro":328,"ul":329,"ch":330,"ce":331,"Ġfil":332,"Ġon":333,"Ġan":334,"et":335,"Ġfilm":336,"Ġy":337,"Ġas":338,"ith":339,"ri":340,"ke":341,"ol":342,"ay":343,"ow":344,"ad":345,"Ġfor":346,"Ġwith":347,"vie":348,"se":349,"ess":350,"Ġbut":351,"Ġwh":352,"oo":353,"Ġyou":354,"Ġsu":355,"ir":356,"Ġcom":357,"id":358,"if":359,"Ġits":360,"Ġch":361,"Ġmovie":362,"th":363,"am":364,"Ġal":365,"ers":366,"Ġhe":367,"ab":368,"un":369,"ill":370,"Ġj":371,"ag":372,"um":373,"Ġse":374,"ck":375,"ght":376,"ous":377,"..":378,"em":379,"Ġen":380,"ur":381,"Ġint":382,"Ġthis":383,"Ġli":384,"Ġex":385,"ak":386,"out":387,"ld":388,"ist":389,"Ġsh":390,"qu":391,"rom":392,"Ġab":393,"Ġnot":394,"Ġha":395,"ation":396,"Ġdo":397,"ant":398,"Ġde":399,"ally":400,"ive":401,"est":402,"'t":403,"Ġun":404,"ire":405,"ure":406,"Ġne":407,"Ġsc":408,"Ġcon":409,"ain":410,"ast":411,"art":412,"pe":413,"Ġ-":414,"ell":415,"Ġat":416,"Ġwor":417,"Ġk":418,"ate":419,"ity":420,"Ġso":421,"act":422,"ough":423,"ig":424,"Ġby":425,"ory":426,"us":427,"ust":428,"ap":429,"able":430,"for":431,"ood":432,"Ġare":433,"Ġchar":434,"and":435,"Ġpro":436,"Ġr":437,"Ġ--":438,"Ġabout":439,"Ġmore":440,"Ġthan":441,"Ġhas":442,"Ġall":443,"Ġlike":444,"Ġsom":445,"op":446,"Ġpl":447,"ould":448,"ful":449,"Ġact":450,"Ġone":451,"ight":452,"Ġfrom":453,"one":454,"Ġfe":455,"ud":456,"ind":457,"ven":458,"Ġhave":459,"ere":460,"ter":461,"her":462,"very":463,"Ġle":464,"Ġhis":465,"Ġpre":466,"ge":467,"os":468,"ff":469,"Ġv":470,"Ġ...":471,"all":472,"Ġwho":473,"Ġsp":474,"ard":475,"Ġper":476,"Ġor":477,"ack":478,"pt":479,"ial":480,"Ġim":481,"Ġcl":482,"Ġstory":483,"ong":484,"ect":485,"itt":486,"ie":487,"pl":488,"hing":489,"Ġ`":490,"irect":491,"pp":492,"Ġcharact":493,"Ġout":494,"ime":495,"ake":496,"res":497,"end":498,"ence":499,"ble":500,"man":501,"Ġfun":502,"Ġ)":503,"Ġman":504,"ious":505,"Ġam":506,"ces":507,"Ġqu":508,"ort":509,"Ġtr":510,"Ġlo":511,"ick":512,"ies":513,"ine":514,"de":515,"ict":516,"Ġno":517,"ram":518,"ert":519,"are":520,"Ġup":521,"ves":522,"reat":523,"ther":524,"Ġar":525,"ook":526,"Ġwe":527,"ac":528,"og":529,"Ġi":530,"Ġfl":531,"Ġtoo":532,"per":533,"ich":534,"Ġmost":535,"edy":536,"au":537,"Ġinto":538,"our":539,"ary":540,"Ġjust":541,"Ġthr":542,"Ġwill":543,"Ġad":544,"Ġgood":545,"Ġdirect":546,"ite":547,"od":548,"Ġsome":549,"ore":550,"com":551,"Ġany":552,"we":553,"Ġmu":554,"Ġcomp":555,"ile":556,"Ġdoes":557,"Ġcan":558,"ical":559,"ass":560,"Ġpo":561,"age":562,"nt":563,"oy":564,"ment":565,"Ġent":566,"Ġro":567,"Ġwork":568,"akes":569,"Ġus":570,"Ġbl":571,"ep":572,"Ġwhe":573,"Ġover":574,"Ġcomedy":575,"Ġmuch":576,"ult":577,"ny":578,"elf":579,"ise":580,"iz":581,"Ġtime":582,"ue":583,"Ġperfor":584,"Ġem":585,"this":586,"Ġdis":587,"ry":588,"nder":589,"ating":590,"Ġoff":591,"ear":592,"ound":593,"Ġway":594,"ark":595,"ens":596,"Ġwhat":597,"Ġhum":598,"Ġbet":599,"wh":600,"Ġ(":601,"Ġif":602,"Ġ''":603,"int":604,"ertain":605,"Ġcharacters":606,"Ġfeel":607,"rit":608,"ide":609,"Ġperforman":610,"Ġeven":611,"Ġsl":612,"ish":613,"ated":614,"atch":615,"Ġwell":616,"less":617,"ving":618,"ice":619,"ip":620,"Ġra":621,"ittle":622,"reen":623,"Ġget":624,"wn":625,"Ġme":626,"ness":627,"ance":628,"Ġfa":629,"Ġlittle":630,"ull":631,"Ġonly":632,"ade":633,"Ġsub":634,"Ġri":635,"ife":636,"cc":637,"ense":638,"ual":639,"ne":640,"Ġtw":641,"Ġlook":642,"Ġtheir":643,"ingly":644,"ose":645,"sp":646,"Ġgo":647,"oc":648,"Ġyour":649,"ost":650,"Ġmake":651,"Ġevery":652,"Ġfunny":653,"Ġimp":654,"Ġthem":655,"ative":656,"ings":657,"vel":658,"Ġtal":659,"Ġreal":660,"own":661,"Ġvi":662,"atic":663,"Ġgen":664,"ience":665,"Ġbeen":666,"Ġend":667,"pect":668,"Ġmay":669,"ions":670,"Ġsomet":671,"Ġ``":672,"Ġdram":673,"Ġthere":674,"ans":675,"Ġlove":676,"Ġenough":677,"ily":678,"Ġnever":679,"ents":680,"...":681,"Ġbad":682,"ame":683,"Ġsur":684,"ress":685,"ild":686,"Ġvery":687,"Ġbr":688,"Ġwas":689,"ll":690,"Ġthey":691,"old":692,"ang":693,"led":694,"Ġte":695,"Ġdes":696,"Ġdel":697,"ph":698,"Ġdirector":699,"Ġseem":700,"aking":701,"Ġrem":702,"ber":703,"Ġmakes":704,"ond":705,"Ġwould":706,"Ġlife":707,"hed":708,"Ġsm":709,"Ġbest":710,"Ġwhich":711,"Ġser":712,"so":713,"Ġscreen":714,"sh":715,"Ġother":716,"Ġstr":717,"vers":718,"Ġsee":719,"Ġnew":720,"ren":721,"ty":722,"Ġher":723,"ting":724,"Ġmat":725,"Ġentertain":726,"Ġthrough":727,"Ġcont":728,"ays":729,"Ġpe":730,"Ġhow":731,"but":732,"ris":733,"Ġ?":734,"li":735,"Ġag":736,"ably":737,"ately":738,"ling":739,"Ġtra":740,"ach":741,"ign":742,"Ġplot":743,"ved":744,"ink":745,"ors":746,"Ġwhen":747,"Ġ1":748,"red":749,"Ġcould":750,"Ġwatch":751,"vies":752,"erest":753,"gin":754,"Ġ:":755,"Ġaud":756,"Ġunder":757,"Ġlong":758,"ional":759,"Ġpart":760,"Ġrom":761,"Ġfam":762,"other":763,"there":764,"ath":765,"Ġmovies":766,"Ġyear":767,"imes":768,"Ġheart":769,"urn":770,"Ġart":771,"eric":772,"ually":773,"Ġmy":774,"Ġjo":775,"Ġbig":776,"ject":777,"les":778,"Ġres":779,"inem":780,"Ġinterest":781,"ism":782,"Ġmin":783,"leas":784,"ash":785,"Ġshould":786,"vent":787,"ible":788,"ffect":789,"ace":790,"sc":791,"Ġcr":792,"Ġsomething":793,"Ġgreat":794,"uct":795,"its":796,"Ġmade":797,"oth":798,"Ġreally":799,"ying":800,"Ġob":801,"Ġcast":802,"Ġcinem":803,"Ġcharacter":804,"ian":805,"Ġhol":806,"Ġown":807,"istic":808,"Ġaction":809,"iv":810,"hes":811,"imp":812,"Ġshow":813,"Ġche":814,"Ġtwo":815,"Ġthrill":816,"mer":817,"Ġaw":818,"Ġwar":819,"view":820,"Ġperformances":821,"Ġins":822,"irst":823,"Ġvis":824,"Ġdrama":825,"now":826,"pec":827,"elling":828,"ft":829,"Ġstill":830,"Ġfilms":831,"oss":832,"igh":833,"Ġmany":834,"aw":835,"aut":836,"Ġke":837,"ree":838,"Ġgr":839,"ople":840,"be":841,"Ġco":842,"ute":843,"Ġpeople":844,"Ġatt":845,"Ġlau":846,"Ġgi":847,"what":848,"te":849,"Ġcle":850,"Ġhard":851,"Ġscen":852,"Ġtri":853,"ript":854,"Ġdown":855,"ome":856,"con":857,"Ġfar":858,"ause":859,"Ġhumor":860,"ather":861,"row":862,"ument":863,"ations":864,"get":865,"Ġfirst":866,"Ġfilmm":867,"Ġemot":868,"Ġbetter":869,"umb":870,"Ġdoc":871,"iss":872,"fort":873,"icture":874,"Ġter":875,"Ġpicture":876,"ss":877,"arly":878,"Ġgra":879,"Ġscript":880,"der":881,"up":882,"Ġcol":883,"Ġthose":884,"Ġbeing":885,"joy":886,"Ġaf":887,"Ġwo":888,"Ġless":889,"Ġmom":890,"Ġkind":891,"ning":892,"ock":893,"Ġap":894,"Ġmight":895,"ages":896,"gg":897,"ten":898,"Ġrel":899,"Ġenjoy":900,"Ġfr":901,"most":902,"Ġca":903,"Ġwithout":904,"Ġdocument":905,"wood":906,"Ġold":907,"ature":908,"ower":909,"Ġworld":910,"like":911,"Ġaudience":912,"Ġever":913,"Ġrec":914,"cept":915,"Ġalso":916,"Ġpret":917,"Ġameric":918,"sy":919,"Ġgu":920,"ib":921,"ks":922,"Ġself":923,"ought":924,"ars":925,"Ġlack":926,"thing":927,"av":928,"iff":929,"Ġeng":930,"fully":931,"ween":932,"Ġsurp":933,"Ġsense":934,"utes":935,"Ġworth":936,"Ġplay":937,"Ġview":938,"Ġbel":939,"Ġback":940,"not":941,"Ġwant":942,"vid":943,"Ġnothing":944,"Ġcharm":945,"Ġfind":946,"Ġpoint":947,"Ġlaugh":948,"Ġhere":949,"Ġknow":950,"az":951,"Ġapp":952,"Ġboth":953,"Ġbetween":954,"Ġlot":955,"Ġgl":956,"Ġsty":957,"Ġfew":958,"Ġperformance":959,"Ġset":960,"Ġthing":961,"Ġexc":962,"Ġdep":963,"Ġsat":964,"Ġbec":965,"Ġneed":966,"Ġkid":967,"Ġanother":968,"Ġsuch":969,"Ġhuman":970,"ginal":971,"here":972,"uc":973,"Ġmess":974,"ner":975,"uff":976,"Ġ;":977,"Ġide":978,"Ġori":979,"Ġpers":980,"Ġinc":981,"Ġcomple":982,"even":983,"ky":984,"lywood":985,"antic":986,"ney":987,"Ġmus":988,"ates":989,"Ġpr":990,"ale":991,"Ġbecause":992,"lt":993,"Ġcare":994,"apt":995,"Ġminutes":996,"ount":997,"Ġseems":998,"Ġturn":999,"Ġoften":1000,"Ġind":1001,"Ġult":1002,"ross":1003,"though":1004,"arr":1005,"ically":1006,"Ġel":1007,"Ġthriller":1008,"ex":1009,"ia":1010,"Ġpleas":1011,"Ġthink":1012,"Ġhigh":1013,"Ġbeaut":1014,"iful":1015,"Ġkeep":1016,"Ġdra":1017,"Ġdocumentary":1018,"Ġoriginal":1019,"ination":1020,"Ġshe":1021,"Ġfin":1022,"Ġeffect":1023,"Ġbecom":1024,"Ġext":1025,"Ġtale":1026,"Ġsk":1027,"Ġph":1028,"Ġagain":1029,"Ġir":1030,"ts":1031,"Ġquite":1032,"while":1033,"ater":1034,"Ġcreat":1035,"Ġrep":1036,"Ġform":1037,"Ġultim":1038,"Ġswe":1039,"Ġfull":1040,"Ġbu":1041,"Ġpower":1042,"arn":1043,"ster":1044,"app":1045,"Ġinteresting":1046,"gu":1047,"ys":1048,"Ġ!":1049,"Ġwom":1050,"iness":1051,"Ġsin":1052,"Ġmar":1053,"Ġwere":1054,"Ġwhile":1055,"Ġhollywood":1056,"fl":1057,"me":1058,"no":1059,"Ġac":1060,"Ġdist":1061,"ics":1062,"olog":1063,"Ġalmost":1064,"Ġexpl":1065,"ered":1066,"Ġfeels":1067,"to":1068,"Ã¢":1069,"Ã£":1070,"ins":1071,"Ġhim":1072,"Ġref":1073,"Ġitself":1074,"Ġdec":1075,"Ġentertaining":1076,"Ġromantic":1077,"Ġfilmmak":1078,"Ġsurpris":1079,"king":1080,"Ġsimp":1081,"Ġpol":1082,"anc":1083,"ane":1084,"Ġhor":1085,"Ġafter":1086,"Ġappe":1087,"Ġes":1088,"Ġspec":1089,"Ġseen":1090,"iece":1091,"you":1092,"ÆĴ":1093,"Ġrather":1094,"Ã£ÆĴ":1095,"Ã£ÆĴÃ¢":1096,"direct":1097,"ons":1098,"Ġyet":1099,"Ġright":1100,"Ġmoments":1101,"pite":1102,"aster":1103,"Ġfamily":1104,"Ġamerican":1105,"\\/":1106,"fore":1107,"ng":1108,"Ġtake":1109,"Ġfri":1110,"ality":1111,"Ġho":1112,"Ġhist":1113,"Ġeas":1114,"vious":1115,"Ġcons":1116,"riter":1117,"ither":1118,"Ġprod":1119,"Ġimag":1120,"cess":1121,"Ġ2":1122,"Ġmem":1123,"Ġcar":1124,"Ġcra":1125,"Ġhad":1126,"lect":1127,"str":1128,"Ġev":1129,"Ġthese":1130,"Ġmel":1131,"Ġbit":1132,"alf":1133,"ility":1134,"Ġexper":1135,"ward":1136,"ering":1137,"Ġsex":1138,"Ġrun":1139,"ogue":1140,"dict":1141,"ially":1142,"Ġsol":1143,"Ġmor":1144,"Ġdiff":1145,"ionally":1146,"Ġyoung":1147,"Ġcomes":1148,"Ġacting":1149,"Ġwhere":1150,"of":1151,"Ġed":1152,"Ġsch":1153,"Ġinv":1154,"ste":1155,"ures":1156,"ellig":1157,"Ġsubject":1158,"Ġperson":1159,"Ġsame":1160,"read":1161,"Ġour":1162,"ences":1163,"Ġcult":1164,"ange":1165,"asc":1166,"ason":1167,"Ġcome":1168,"Ġdeli":1169,"fect":1170,"ition":1171,"Ġmi":1172,"Ġcre":1173,"Ġport":1174,"Ġpass":1175,"Ġthought":1176,"Ġbefore":1177,"Ġsuper":1178,"irl":1179,"Ġdial":1180,"ils":1181,"Ġsequ":1182,"Ġintellig":1183,"ms":1184,"xt":1185,"Ġtimes":1186,"Ġthen":1187,"Ġmon":1188,"Ġhour":1189,"ase":1190,"Ġstand":1191,"Ġactors":1192,"Ġlea":1193,"ship":1194,"Ġmater":1195,"by":1196,"Ġsil":1197,"Ġthings":1198,"Ġclass":1199,"Ġgets":1200,"Ġsince":1201,"air":1202,"iet":1203,"ub":1204,"Ġbro":1205,"icul":1206,"ching":1207,"amp":1208,"Ġhapp":1209,"min":1210,"Ġsay":1211,"Ġmind":1212,"Ġanim":1213,"ired":1214,"Ġultimately":1215,"Ġdialogue":1216,"Ġmaterial":1217,"self":1218,"uck":1219,"Ġtou":1220,"Ġtakes":1221,"Ġsit":1222,"ream":1223,"ord":1224,"Ġdet":1225,"Ġstud":1226,"Ġchild":1227,"Ġscenes":1228,"director":1229,"dd":1230,"isf":1231,"iment":1232,"Ġbeautiful":1233,"ues":1234,"with":1235,"als":1236,"Ġhalf":1237,"empt":1238,"Ġflick":1239,"Ġgener":1240,"Ġ19":1241,"Ġmusic":1242,"ier":1243,"iar":1244,"erg":1245,"Ġfasc":1246,"Ġdid":1247,"rif":1248,"Ġhand":1249,"play":1250,"co":1251,"Ġtit":1252,"Ġsw":1253,"Ġdem":1254,"ently":1255,"irit":1256,"Ġwatching":1257,"Ġbelie":1258,"att":1259,"Ġwr":1260,"ains":1261,"Ġcompelling":1262,"Ġwonder":1263,"Ġportra":1264,"vo":1265,"Ġdark":1266,"que":1267,"gether":1268,"Ġyears":1269,"Ġsweet":1270,"ror":1271,"ines":1272,"Ġabs":1273,"hen":1274,"Ġthough":1275,"Ġlast":1276,"Ġemotional":1277,"Ġspecial":1278,"day":1279,"Ġz":1280,"ret":1281,"Ġwit":1282,"Ġpain":1283,"Ġhar":1284,"Ġep":1285,"Ġstart":1286,"Ġexp":1287,"Ġleast":1288,"ends":1289,"Ġcinema":1290,"Ġvisual":1291,"Ġfascin":1292,"ffort":1293,"kes":1294,"Ġput":1295,"Ġdull":1296,"ilar":1297,"Ġeffort":1298,"Ġpredict":1299,"ogra":1300,"ccess":1301,"Ġkids":1302,"ger":1303,"Ġmed":1304,"Ġele":1305,"Ġinter":1306,"using":1307,"Ġfamil":1308,"iel":1309,"Ġsou":1310,"Ġbor":1311,"eless":1312,"Ġstar":1313,"ract":1314,"Ġproble":1315,"Ġclever":1316,"oot":1317,"ted":1318,"Ġsa":1319,"Ġpiece":1320,"Ġlight":1321,"Ġdef":1322,"Ġdeep":1323,"Ġgoing":1324,"Ġentertainment":1325,"io":1326,"inc":1327,"era":1328,"itive":1329,"Ġey":1330,"Ġgive":1331,"ider":1332,"Ġsec":1333,"uring":1334,"deo":1335,"ized":1336,"Ġgives":1337,"son":1338,"oll":1339,"ists":1340,"Ġpres":1341,"odram":1342,"Ġworks":1343,"Ġcinematic":1344,"ool":1345,"some":1346,"orn":1347,"Ġpsy":1348,"Ġstra":1349,"ural":1350,"Ġfeature":1351,"Ġspirit":1352,"Ġanyone":1353,"yp":1354,"Ġma":1355,"Ġbra":1356,"Ġnarr":1357,"Ġgirl":1358,"Ġonce":1359,"ously":1360,"alls":1361,"Ġsmart":1362,"ossible":1363,"Ġpretty":1364,"br":1365,"ps":1366,"Ġsent":1367,"reak":1368,"Ġmaking":1369,"aste":1370,"Ġwhole":1371,"Ġperfect":1372,"Ġaway":1373,"Ġstyle":1374,"Ġfascinating":1375,"pro":1376,"Â©":1377,"Ġbo":1378,"Ġpar":1379,"Ġhon":1380,"antly":1381,"Ġanything":1382,"Ġrare":1383,"Ġmelodram":1384,"cial":1385,"ug":1386,"ways":1387,"Ġsad":1388,"Ġbar":1389,"Ġcertain":1390,"Ġlow":1391,"Ġund":1392,"Ġsusp":1393,"Ġcomm":1394,"Ġunf":1395,"Ġlead":1396,"ming":1397,"ric":1398,"Ġsens":1399,"Ġcapt":1400,"Ġtogether":1401,"Ġmoving":1402,"Ġexpect":1403,"Ġshort":1404,"Ġuns":1405,"Ġadd":1406,"Ġserious":1407,"iting":1408,"ank":1409,"aling":1410,"Ġnow":1411,"Ġret":1412,"ula":1413,"Ġsum":1414,"Ġconv":1415,"off":1416,"Ġmid":1417,"Ġpot":1418,"Ġpop":1419,"aring":1420,"Ġthree":1421,"Ġconf":1422,"Ġtrue":1423,"arent":1424,"Ġlaughs":1425,"Ġwomen":1426,"Ġpsych":1427,"des":1428,"Ġdi":1429,"Ġday":1430,"Ġprof":1431,"Ġdirection":1432,"Ġengag":1433,"Ġhistory":1434,"Ġexperience":1435,"stead":1436,"Ġsy":1437,"Ġsound":1438,"Ġmiss":1439,"Ġmaster":1440,"els":1441,"Ġred":1442,"Ġass":1443,"Ġalways":1444,"ured":1445,"Ġstrong":1446,"uction":1447,"Ġobvious":1448,"cl":1449,"zy":1450,"Ġop":1451,"ities":1452,"Ġfans":1453,"Ġinsp":1454,"ots":1455,"Ġsure":1456,"Ġcomic":1457,"Ġhead":1458,"Ġlevel":1459,"Ġvideo":1460,"Ġcomplete":1461,"Ġtitle":1462,"cy":1463,"wor":1464,"Ġvers":1465,"Ġmen":1466,"Ġmag":1467,"stand":1468,"uth":1469,"ows":1470,"Ġwhy":1471,"ird":1472,"Ġprob":1473,"Ġplace":1474,"Ġactually":1475,"Ġwhose":1476,"Ġclic":1477,"resh":1478,"Ġsometimes":1479,"Ġseries":1480,"Ġsilly":1481,"Ġnarrative":1482,"00":1483,"Ġwild":1484,"Ġda":1485,"Ġbeh":1486,"Ġamb":1487,"Ġquest":1488,"ments":1489,"Ġtalent":1490,"Ġmatter":1491,"Ġtrag":1492,"Ġsatisf":1493,"Ġpolit":1494,"Ġpredictable":1495,"cut":1496,"vis":1497,"Ġdam":1498,"Ġcoming":1499,"illi":1500,"ush":1501,"Ġaround":1502,"ody":1503,"ored":1504,"Ġteen":1505,"Ġinsight":1506,"ek":1507,"hn":1508,"ler":1509,"oint":1510,"Ġfact":1511,"eng":1512,"Ġpat":1513,"Ġequ":1514,"Ġreason":1515,"Ġhel":1516,"Ġentire":1517,"Ġslow":1518,"Ġgenre":1519,"ressive":1520,"Ġattempt":1521,"Ġsimply":1522,"ograph":1523,"Ġfamiliar":1524,"``":1525,"time":1526,"Ġcent":1527,"Ġdone":1528,"ific":1529,"Ġnearly":1530,"aps":1531,"opp":1532,"Ġprem":1533,"itten":1534,"Ġquir":1535,"Ġtrans":1536,"Ġscreenplay":1537,"Ġidea":1538,"fe":1539,"Ġacc":1540,"Ġcou":1541,"Ġwin":1542,"ories":1543,"Ġprom":1544,"Ġpast":1545,"Ġste":1546,"sem":1547,"Ġrob":1548,"Ġmean":1549,"Ġformula":1550,"cer":1551,"uri":1552,"ined":1553,"ening":1554,"Ġmain":1555,"Ġboy":1556,"orge":1557,"Ġmoder":1558,"ention":1559,"ceed":1560,"ude":1561,"Ġmanages":1562,"Ġfilmmakers":1563,"Ġhorror":1564,"Ġsentiment":1565,"Ġhonest":1566,"bing":1567,"ced":1568,"cise":1569,"ched":1570,"go":1571,"ied":1572,"ient":1573,"oon":1574,"Ġsim":1575,"Ġfresh":1576,"Ġmur":1577,"Ġmark":1578,"Ġpun":1579,"Ġhome":1580,"Ġintri":1581,"Ġlive":1582,"ational":1583,"Ġtrying":1584,"Ġadm":1585,"Ġsubt":1586,"Ġgoes":1587,"Ġdramatic":1588,"Ġdelight":1589,"Ġprobably":1590,"Ġpremise":1591,"dle":1592,"Ġoper":1593,"Ġfant":1594,"Ġmis":1595,"Ġbook":1596,"Ġcred":1597,"Ġnor":1598,"Ġsuccess":1599,"izing":1600,"Ġwarm":1601,"Ġenjoyable":1602,"Ġsolid":1603,"ail":1604,"ron":1605,"Ġtre":1606,"Ġsing":1607,"Ġben":1608,"alk":1609,"Ġlar":1610,"plic":1611,"Ġfair":1612,"Ġparticul":1613,"Ġelse":1614,"Ġeffects":1615,"Ġchildren":1616,"Ġproblem":1617,"Ġsuspense":1618,"Ġengaging":1619,"Ġmodern":1620,"Ġtreat":1621,"Ġsn":1622,"Ġfine":1623,"Ġbas":1624,"Ġbri":1625,"Ġcam":1626,"any":1627,"Ġhero":1628,"Ġworst":1629,"Ġadvent":1630,"Ġblack":1631,"Ġface":1632,"pecially":1633,"Ġturns":1634,"Ġdrag":1635,"despite":1636,"dy":1637,"iences":1638,"Ġ9":1639,"Ġodd":1640,"ited":1641,"Ġfren":1642,"Ġwriter":1643,"Ġgri":1644,"Ġread":1645,"Ġdead":1646,"Ġval":1647,"ults":1648,"ize":1649,"Ġdiffere":1650,"gr":1651,"mo":1652,"ser":1653,"Ġocc":1654,"ished":1655,"Ġmr":1656,"Ġmust":1657,"Ġwa":1658,"ese":1659,"Ġdumb":1660,"rop":1661,"Ġant":1662,"oof":1663,"Ġcomed":1664,"Ġdebut":1665,"Ġamusing":1666,"Ġoffers":1667,"Ġfeeling":1668,"Ġjohn":1669,"Ġcomplex":1670,"Ġbecomes":1671,"Ġespecially":1672,"Ġstudy":1673,"ugg":1674,"Ġill":1675,"Ġtell":1676,"Ġsort":1677,"Ġtheater":1678,"Ġdr":1679,"Ġearn":1680,"Ġalong":1681,"Ġactor":1682,"Ġflat":1683,"Ġflaw":1684,"Ġviol":1685,"Ġending":1686,"Ġsmall":1687,"Ġcontri":1688,"Ġromance":1689,"Ġmyster":1690,"Ġportrait":1691,"Ġpsycholog":1692,"ned":1693,"ove":1694,"Ġve":1695,"ery":1696,"Ġcut":1697,"Ġstuff":1698,"Ġbegin":1699,"chie":1700,"Ġsupp":1701,"Ġeverything":1702,"avy":1703,"Ġeasy":1704,"Ġintelligent":1705,"Ġversion":1706,"cent":1707,"ef":1708,"just":1709,"und":1710,"Ġsign":1711,"reme":1712,"itation":1713,"Ġmet":1714,"Ġcount":1715,"Ġenerg":1716,"Ġproject":1717,"Ġlikely":1718,"iction":1719,"aced":1720,"velop":1721,"Ġterrif":1722,"Ġlacks":1723,"Ġcharming":1724,"Ġstyl":1725,"Ġmessage":1726,"Ġinvol":1727,"Ġboring":1728,"bl":1729,"too":1730,"uine":1731,"yn":1732,"Ġmot":1733,"ential":1734,"Ġjour":1735,"Ġexer":1736,"ationship":1737,"Ġnext":1738,"Ġquiet":1739,"Ġslight":1740,"Ġbecome":1741,"ma":1742,"Ġtv":1743,"Ġcal":1744,"Ġhit":1745,"Ġreve":1746,"chn":1747,"Ġlives":1748,"Ġuni":1749,"used":1750,"Ġclose":1751,"Ġlooking":1752,"Ġbrilli":1753,"Ġrelationship":1754,"Ġfilmmaker":1755,"Ġhours":1756,"Ġquirky":1757,"Ġexercise":1758,"med":1759,"yond":1760,"Ġid":1761,"Ġaffect":1762,"het":1763,"ony":1764,"ouse":1765,"elt":1766,"Ġstun":1767,"ags":1768,"Ġword":1769,"ustr":1770,"Ġrich":1771,"ension":1772,"Ġclassic":1773,"Ġsoul":1774,"Ġfrench":1775,"uly":1776,"where":1777,"writer":1778,"Ġfoll":1779,"Ġwrit":1780,"Ġpa":1781,"ann":1782,"Ġdream":1783,"Ġhilar":1784,"Ġinstead":1785,"Ġlat":1786,"Ġsuff":1787,"ams":1788,"ump":1789,"osed":1790,"allow":1791,"come":1792,"comp":1793,"Ġdespite":1794,"Ġremark":1795,"Ġideas":1796,"Ġpowerful":1797,"Ġculture":1798,"Ġpassion":1799,"Ġenergy":1800,"ches":1801,"do":1802,"land":1803,"Ġtone":1804,"Ġwind":1805,"Ġeither":1806,"entious":1807,"ote":1808,"Ġstri":1809,"Ġreg":1810,"rage":1811,"ulg":1812,"ular":1813,"ett":1814,"iller":1815,"Ġje":1816,"Ġjack":1817,"aged":1818,"Ġdeath":1819,"Ġplays":1820,"Ġleft":1821,"ended":1822,"Ġmostly":1823,"Ġemb":1824,"Ġeveryone":1825,"Ġimport":1826,"Ġgenuine":1827,"Ġfilmmaking":1828,"guing":1829,"Ġsurprisingly":1830,"Ġmelodrama":1831,"Ġcertainly":1832,"ax":1833,"ob":1834,"ising":1835,"ones":1836,"ances":1837,"Ġdou":1838,"Ġinf":1839,"Ġlit":1840,"Ġeach":1841,"Ġbeyond":1842,"Ġur":1843,"Ġang":1844,"urd":1845,"urp":1846,"Ġdog":1847,"Ġdev":1848,"itty":1849,"itting":1850,"Ġrock":1851,"Ġstrange":1852,"Ġrecent":1853,"appoint":1854,"Ġsitu":1855,"Ġsecond":1856,"Ġcompletely":1857,"Ġhelp":1858,"Ġopera":1859,"ding":1860,"how":1861,"line":1862,"use":1863,"Ġspe":1864,"Ġspect":1865,"Ġcap":1866,"orable":1867,"utter":1868,"Ġrest":1869,"Ġheavy":1870,"Ġexcept":1871,"Ġstoryt":1872,"Ġdeser":1873,"Ġviewers":1874,"Ġexplo":1875,"Ġmix":1876,"Ġleave":1877,"Ġbelieve":1878,"Ġdeeply":1879,"Ġoccas":1880,"ci":1881,"Ġfre":1882,"Ġfour":1883,"Ġmad":1884,"oud":1885,"Ġhold":1886,"let":1887,"Ġgot":1888,"asy":1889,"rid":1890,"Ġforget":1891,"Ġquick":1892,"Ġtruth":1893,"Ġtruly":1894,"Ġdirected":1895,"Ġride":1896,"Ġlooks":1897,"Ġreality":1898,"Ġjokes":1899,"ashion":1900,"ival":1901,"Ġhimself":1902,"Ġhope":1903,"Ġcreep":1904,"void":1905,"Ġstraight":1906,"Ġsummer":1907,"Ġmiddle":1908,"ah":1909,"ecut":1910,"hy":1911,"wr":1912,"when":1913,"Ġaff":1914,"Ġsand":1915,"Ġfound":1916,"Ġcor":1917,"Ġcart":1918,"ont":1919,"Ġden":1920,"icult":1921,"Ġexam":1922,"Ġshot":1923,"Ġpoet":1924,"Ġdisappoint":1925,"Ġsubst":1926,"Ġunderstand":1927,"Ġshows":1928,"Ġwoman":1929,"Ġproduction":1930,"Ġdifficult":1931,"Ġpersonal":1932,"minute":1933,"hand":1934,"Ġfat":1935,"Ġpay":1936,"Ġder":1937,"although":1938,"Ġinst":1939,"Ġline":1940,"Ġnight":1941,"Ġnice":1942,"otic":1943,"Ġexact":1944,"Ġabove":1945,"ively":1946,"Ġconcept":1947,"comm":1948,"Ġvir":1949,"Ġends":1950,"Ġscene":1951,"Ġappro":1952,"Ġrefres":1953,"Ġsimple":1954,"Ġdelivers":1955,"Ġtouching":1956,"Ġcamera":1957,"Ġadventure":1958,"af":1959,"bly":1960,"ball":1961,"ele":1962,"ever":1963,"ged":1964,"gra":1965,"iest":1966,"sel":1967,"Ġ8":1968,"Ġair":1969,"Ġopp":1970,"Ġhop":1971,"Ġlif":1972,"Ġgrow":1973,"ott":1974,"Ġcomb":1975,"ames":1976,"Ġalread":1977,"Ġshock":1978,"Ġlet":1979,"Ġspy":1980,"Ġnovel":1981,"Ġrole":1982,"berg":1983,"Ġtries":1984,"Ġextreme":1985,"Ġbeautifully":1986,"Ġsym":1987,"Ġsatisfying":1988,"Ġintriguing":1989,"Ġlarge":1990,"Ġdifferent":1991,"Ġhilarious":1992,"Ġalready":1993,"ai":1994,"ael":1995,"every":1996,"ien":1997,"por":1998,"rise":1999,"wise":2000,"Ġaut":2001,"Ġfut":2002,"Ġhu":2003,"Ġstup":2004,"Ġstories":2005,"ung":2006,"unk":2007,"Ġexecut":2008,"Ġdevelop":2009,"Ġneither":2010,"uss":2011,"Ġimages":2012,"pping":2013,"ender":2014,"ichÃ£ÆĴÃ¢":2015,"itely":2016,"Ġfails":2017,"Ġremains":2018,"Ġmoment":2019,"Ġstorytelling":2020,"bo":2021,"has":2022,"my":2023,"uous":2024,"war":2025,"year":2026,"Ġx":2027,"Ġted":2028,"Ġsle":2029,"Ġside":2030,"Ġfire":2031,"ishing":2032,"Ġbal":2033,"Ġcost":2034,"Ġtop":2035,"enty":2036,"ember":2037,"Ġsoap":2038,"ĠclichÃ£ÆĴÃ¢":2039,"arely":2040,"Ġimpossible":2041,"Ġbring":2042,"Ġtechn":2043,"Ġpretentious":2044,"ibly":2045,"Ġextra":2046,"Ġesc":2047,"Ġfriend":2048,"Ġconsider":2049,"Ġparticularly":2050,"Ġjourney":2051,"Ġspectac":2052,"Ġvirt":2053,"Ġrefreshing":2054,"ked":2055,"more":2056,"tra":2057,"Ġtar":2058,"erous":2059,"Ġfem":2060,"Ġmere":2061,"Ġcond":2062,"Ġcase":2063,"Ġposs":2064,"Ġdri":2065,"Ġnon":2066,"Ġnone":2067,"Ġgags":2068,"Ġmood":2069,"ims":2070,"Ġsust":2071,"unny":2072,"ichael":2073,"Ġadapt":2074,"Ġblood":2075,"lessly":2076,"Ġtwist":2077,"ocative":2078,"Ġseeing":2079,"Ġaudiences":2080,"Ġcrime":2081,"Ġgrand":2082,"Ġpleasure":2083,"Ġeasily":2084,"Ġsequel":2085,"Ġanimation":2086,"Ġmedi":2087,"Ġeye":2088,"Ġearnest":2089,"Ġpsychological":2090,"Ġterrific":2091,"Ġfollow":2092,"Ġliter":2093,"Ġexactly":2094,"selves":2095,"lin":2096,"ple":2097,"rist":2098,"ze":2099,"Ġver":2100,"Ġutter":2101,"Ġtaste":2102,"Ġachie":2103,"ital":2104,"Ġfoc":2105,"atural":2106,"Ġcur":2107,"Ġdig":2108,"edly":2109,"Ġland":2110,"rable":2111,"rown":2112,"ets":2113,"Ġunex":2114,"Ġsocial":2115,"Ġprovid":2116,"oney":2117,"icks":2118,"Ġroll":2119,"Ġdisney":2120,"Ġways":2121,"Ġimpro":2122,"Ġdelic":2123,"scious":2124,"fortun":2125,"Ġagainst":2126,"Ġmoral":2127,"Ġintelligence":2128,"Ġdefin":2129,"Ġmaj":2130,"Ġpolitical":2131,"Ġsubtle":2132,"Ġmystery":2133,"over":2134,"way":2135,"inct":2136,"Ġmild":2137,"ats":2138,"Ġbrit":2139,"Ġbreak":2140,"Ġinde":2141,"Ġnature":2142,"Ġgent":2143,"Ġgame":2144,"Ġiss":2145,"Ġcho":2146,"unity":2147,"illing":2148,"Ġsever":2149,"Ġunt":2150,"ellent":2151,"Ġproves":2152,"Ġactress":2153,"Ġweird":2154,"Ġpoor":2155,"Ġbland":2156,"Ġgetting":2157,"Ġcool":2158,"Ġdepth":2159,"struct":2160,"Ġstandard":2161,"ield":2162,"ography":2163,"Ġstupid":2164,"ape":2165,"aust":2166,"light":2167,"whe":2168,"Ġtest":2169,"Ġtheat":2170,"Ġfalls":2171,"Ġbus":2172,"Ġbreat":2173,"Ġcold":2174,"Ġparent":2175,"ices":2176,"Ġevent":2177,"Ġgone":2178,"chy":2179,"olut":2180,"olute":2181,"Ġforce":2182,"Ġjoy":2183,"Ġexh":2184,"Ġsoph":2185,"udget":2186,"Ġtrad":2187,"Ġcliches":2188,"semble":2189,"Ġviolence":2190,"Ġwriting":2191,"Ġapproach":2192,"bel":2193,"gi":2194,"haps":2195,"ring":2196,"ton":2197,"Ġer":2198,"itious":2199,"Ġfig":2200,"ises":2201,"Ġmichael":2202,"Ġcour":2203,"Ġcele":2204,"Ġpure":2205,"arp":2206,"Ġthin":2207,"Ġni":2208,"Ġgang":2209,"Ġgorge":2210,"Ġchrist":2211,"that":2212,"ability":2213,"ement":2214,"aken":2215,"Ġunp":2216,"Ġprocess":2217,"oses":2218,"Ġwhether":2219,"Ġfav":2220,"Ġremind":2221,"Ġjob":2222,"Ġobser":2223,"Ġcheap":2224,"Ġgiven":2225,"Ġcoll":2226,"Ġsatire":2227,"Ġkeeps":2228,"Ġphil":2229,"Ġappeal":2230,"Ġmemorable":2231,"Ġschool":2232,"Ġwrong":2233,"Ġwritten":2234,"Ġepic":2235,"Ġopen":2236,"Ġrobert":2237,"Ġoccasionally":2238,"ban":2239,"bers":2240,"kin":2241,"nect":2242,"ino":2243,"rew":2244,"Ġfight":2245,"Ġbur":2246,"Ġcall":2247,"Ġwel":2248,"orough":2249,"orical":2250,"Ġdays":2251,"Ġinvent":2252,"Ġgod":2253,"rible":2254,"oose":2255,"ides":2256,"Ġacted":2257,"Ġspl":2258,"pped":2259,"Ġlost":2260,"acing":2261,"Ġuses":2262,"Ġtele":2263,"Ġdesper":2264,"Ġcontem":2265,"Ġclear":2266,"Ġviewer":2267,"Ġthoughtful":2268,"Ġleaves":2269,"Ġelements":2270,"movie":2271,"Ġbrilliant":2272,"Ġtedious":2273,"fi":2274,"gen":2275,"iod":2276,"path":2277,"inary":2278,"Ġful":2279,"Ġfoot":2280,"Ġball":2281,"Ġcop":2282,"Ġcamp":2283,"Ġwater":2284,"ork":2285,"Ġpossible":2286,"anch":2287,"Ġdest":2288,"ley":2289,"Ġtold":2290,"Ġlist":2291,"Ġug":2292,"rol":2293,"key":2294,"Ġintim":2295,"Ġexist":2296,"Ġconfl":2297,"aph":2298,"Ġprop":2299,"Ġprov":2300,"Ġperiod":2301,"orts":2302,"Ġii":2303,"Ġpost":2304,"Ġpoign":2305,"Ġimpressive":2306,"Ġartist":2307,"Ġreson":2308,"Ġguys":2309,"ibility":2310,"Ġdepress":2311,"Ġneeds":2312,"herent":2313,"rossing":2314,"Ġphot":2315,"Ġepis":2316,"incing":2317,"Ġpresent":2318,"Ġinspir":2319,"Ġcartoon":2320,"che":2321,"cul":2322,"good":2323,"mist":2324,"mark":2325,"Ġsqu":2326,"real":2327,"atory":2328,"Ġpull":2329,"Ġduring":2330,"Ġhy":2331,"Ġlab":2332,"Ġear":2333,"Ġge":2334,"entially":2335,"Ġrecomm":2336,"Ġhell":2337,"Ġende":2338,"Ġsharp":2339,"Ġsci":2340,"action":2341,"Ġrout":2342,"Ġfunn":2343,"iled":2344,"Ġoffer":2345,"ensive":2346,"atching":2347,"Ġotherwise":2348,"Ġ10":2349,"Ġresult":2350,"Ġvision":2351,"Ġfinally":2352,"Ġsurprising":2353,"Ġsexual":2354,"Ġrunning":2355,"Ġeyes":2356,"Ġquestion":2357,"Ġtragedy":2358,"Ġcreepy":2359,"Ġmajor":2360,"cceed":2361,"fil":2362,"gue":2363,"hood":2364,"hop":2365,"ov":2366,"spect":2367,"well":2368,"Ġ4":2369,"Ġly":2370,"Ġtyp":2371,"Ġage":2372,"inative":2373,"Ġcrit":2374,"Ġpurp":2375,"Ġthorough":2376,"Ġhot":2377,"Ġine":2378,"char":2379,"Ġsucceed":2380,"Ġshoot":2381,"Ġhaun":2382,"Ġhaving":2383,"osp":2384,"Ġamount":2385,"Ġquality":2386,"Ġroad":2387,"Ġfail":2388,"Ġfaith":2389,"Ġthemselves":2390,"Ġsurf":2391,"Ġbrother":2392,"Ġrespect":2393,"scar":2394,"Ġattract":2395,"Ġattention":2396,"Ġemotionally":2397,"umbers":2398,"Ġgrace":2399,"Ġcolor":2400,"Ġfrustr":2401,"Ġincl":2402,"Ġfinal":2403,"Ġimagination":2404,"Ġcraft":2405,"Ġwonderful":2406,"Ġabsurd":2407,"ength":2408,"Ġentirely":2409,"Ġcomedies":2410,"Ġfuture":2411,"fortunately":2412,"Ġgentle":2413,"Ġcelebr":2414,"ails":2415,"mon":2416,"table":2417,"vant":2418,"zz":2419,"Ġ3":2420,"Ġess":2421,"Ġtired":2422,"Ġsong":2423,"Ġbarely":2424,"Ġcross":2425,"Ġpow":2426,"Ġpath":2427,"alt":2428,"iche":2429,"ilty":2430,"Ġsteven":2431,"Ġreleas":2432,"oles":2433,"Ġchall":2434,"Ġchange":2435,"amb":2436,"arted":2437,"form":2438,"Ġamong":2439,"Ġtrou":2440,"Ġweak":2441,"Ġenth":2442,"Ġusual":2443,"Ġslap":2444,"Ġremake":2445,"Ġothers":2446,"Ġawful":2447,"Ġengrossing":2448,"Ġexcellent":2449,"uced":2450,"Ġcareer":2451,"Ġskill":2452,"Ġbuild":2453,"ancy":2454,"Ġanimated":2455,"Ġdavid":2456,"Ġbehind":2457,"Ġmeaning":2458,"Ġfantasy":2459,"Ġsingle":2460,"Ġfairly":2461,"Ġcontrived":2462,"Ġlatest":2463,"Ġsustain":2464,"Ġmedioc":2465,"Ġseveral":2466,"Ġconflict":2467,"lo":2468,"na":2469,"piece":2470,"sw":2471,"vice":2472,"Ġtaking":2473,"Ġsour":2474,"Ġoscar":2475,"Ġfast":2476,"Ġfore":2477,"ised":2478,"Ġmer":2479,"Ġbond":2480,"Ġwed":2481,"Ġpet":2482,"Ġpark":2483,"Ġthrow":2484,"Ġhom":2485,"Ġnatural":2486,"Ġgreen":2487,"Ġmod":2488,"right":2489,"Ġhea":2490,"umph":2491,"ury":2492,"quis":2493,"Ġdoing":2494,"Ġconnect":2495,"Ġworse":2496,"Ġkn":2497,"Ġkiss":2498,"oph":2499,"Ġplenty":2500,"Ġvo":2501,"Ġvar":2502,"acks":2503,"Ġsomeone":2504,"screen":2505,"Ġguy":2506,"Ġpoints":2507,"Ġknows":2508,"Ġbeauty":2509,"Ġappealing":2510,"lection":2511,"Ġevents":2512,"Ġdeliver":2513,"Ġdeter":2514,"Ġremarkable":2515,"olutely":2516,"Ġgorgeous":2517,"Ġugly":2518,"aces":2519,"ior":2520,"life":2521,"sch":2522,"vable":2523,"Ġing":2524,"Ġtear":2525,"Ġast":2526,"Ġfan":2527,"ened":2528,"eness":2529,"orm":2530,"Ġpal":2531,"Ġpie":2532,"anks":2533,"Ġlim":2534,"Ġgoof":2535,"Ġrevel":2536,"ades":2537,"ify":2538,"Ġintent":2539,"Ġdeal":2540,"Ġscary":2541,"astic":2542,"uses":2543,"usion":2544,"Ġplain":2545,"Ġprec":2546,"Ġamaz":2547,"Ġadults":2548,"Ġsomewhat":2549,"Ġvivid":2550,"Ġinside":2551,"Ġvisually":2552,"beat":2553,"Ġtriumph":2554,"Ġemotions":2555,"Ġpictures":2556,"Ġsurprise":2557,"Ġworthy":2558,"nothing":2559,"appy":2560,"Ġdecent":2561,"Ġperfectly":2562,"Ġunsett":2563,"Ġmagic":2564,"Ġambitious":2565,"Ġsentimental":2566,"Ġmetaph":2567,"Ġimportant":2568,"handed":2569,"Ġmerely":2570,"Ġadaptation":2571,"Ġunexpect":2572,"Ġparents":2573,"Ġthoroughly":2574,"body":2575,"cou":2576,"ges":2577,"ix":2578,"made":2579,"uch":2580,"Ġram":2581,"rel":2582,"rent":2583,"Ġfram":2584,"Ġpit":2585,"Ġpace":2586,"Ġhouse":2587,"Ġinn":2588,"asure":2589,"Ġyork":2590,"Ġwhite":2591,"Ġcomplic":2592,"agg":2593,"apan":2594,"Ġcharism":2595,"ands":2596,"Ġspark":2597,"orting":2598,"acy":2599,"Ġflash":2600,"aught":2601,"oying":2602,"Ġworking":2603,"Ġimpact":2604,"Ġdesign":2605,"Ġstrugg":2606,"rence":2607,"Ġcolle":2608,"Ġfrank":2609,"Ġamerica":2610,"Ġlots":2611,"Ġeffective":2612,"Ġdistur":2613,"ology":2614,"Ġ200":2615,"Ġmemory":2616,"Ġsequences":2617,"Ġbrain":2618,"Ġbegins":2619,"Ġopport":2620,"Ġexecution":2621,"Ġfemale":2622,"Ġwelcome":2623,"Ġprovocative":2624,"Ġrecommend":2625,"70":2626,"cle":2627,"down":2628,"een":2629,"fic":2630,"gar":2631,"nes":2632,"Ġavoid":2633,"reci":2634,"Ġfree":2635,"Ġbatt":2636,"Ġcrow":2637,"Ġwood":2638,"Ġpul":2639,"Ġpack":2640,"Ġpub":2641,"Ġhip":2642,"Ġner":2643,"Ġgross":2644,"Ġmother":2645,"Ġuse":2646,"verage":2647,"Ġann":2648,"ries":2649,"ried":2650,"Ġforg":2651,"ident":2652,"Ġalone":2653,"unch":2654,"ister":2655,"Ġable":2656,"Ġdeft":2657,"Ġnecess":2658,"udd":2659,"Ġleg":2660,"iously":2661,"decess":2662,"ared":2663,"Ġoverall":2664,"Ġempt":2665,"Ġlovely":2666,"Ġcontin":2667,"Ġfront":2668,"azz":2669,"Ġdraw":2670,"Ġcreative":2671,"Ġaccom":2672,"Ġhistorical":2673,"Ġtouch":2674,"ielberg":2675,"vision":2676,"Ġmurder":2677,"Ġsupposed":2678,"Ġdoub":2679,"ashioned":2680,"Ġexamination":2681,"Ġutterly":2682,"Ġuntil":2683,"Ġcrowd":2684,"aff":2685,"col":2686,"ode":2687,"uel":2688,"uce":2689,"writ":2690,"Ġ5":2691,"Ġtim":2692,"Ġtension":2693,"Ġfol":2694,"Ġfall":2695,"Ġfelt":2696,"Ġmart":2697,"Ġmach":2698,"Ġbiz":2699,"Ġcir":2700,"Ġcity":2701,"Ġcuri":2702,"Ġwitty":2703,"Ġdan":2704,"Ġdate":2705,"arch":2706,"arily":2707,"Ġtom":2708,"Ġgif":2709,"Ġmove":2710,"Ġsugg":2711,"ament":2712,"Ġju":2713,"Ġjapan":2714,"Ġensemble":2715,"Ġunint":2716,"Ġunlike":2717,"tern":2718,"Ġprevious":2719,"Ġpredecess":2720,"Ġimm":2721,"Ġupon":2722,"Ġwilli":2723,"Ġused":2724,"Ġimpress":2725,"Ġdesc":2726,"Ġthroughout":2727,"urns":2728,"Ġminor":2729,"ivity":2730,"Ġchemist":2731,"Ġgrou":2732,"Ġwants":2733,"Ġappreci":2734,"Ġprot":2735,"Ġcreates":2736,"Ġacross":2737,"Ġsurprises":2738,"anced":2739,"Ġcultural":2740,"Ġsincere":2741,"Ġcaptures":2742,"Ġpotential":2743,"Ġdelightful":2744,"Ġ90":2745,"Ġflaws":2746,"Ġstylish":2747,"Ġunique":2748,"hetic":2749,"Ġwords":2750,"Ġquickly":2751,"Ġhuge":2752,"Ġfriendship":2753,"Ġtarget":2754,"Ġissues":2755,"Ġbreath":2756,"Ġsophistic":2757,"pathy":2758,"Ġchalleng":2759,"Ġtrouble":2760,"Ġcollege":2761,"Ġaccompl":2762,"Ġsuggest":2763,"Ġchemistry":2764,"bed":2765,"ey":2766,"ki":2767,"kward":2768,"look":2769,"men":2770,"may":2771,"mosp":2772,"ses":2773,"side":2774,"tr":2775,"iny":2776,"Ġsor":2777,"Ġsal":2778,"ishes":2779,"Ġmist":2780,"Ġmoney":2781,"Ġbre":2782,"Ġbull":2783,"Ġcute":2784,"Ġwaste":2785,"Ġpu":2786,"Ġpos":2787,"Ġdang":2788,"arre":2789,"Ġtot":2790,"Ġla":2791,"Ġgh":2792,"Ġgay":2793,"ction":2794,"Ġstep":2795,"Ġreward":2796,"ulative":2797,"Ġsuck":2798,"Ġmoviego":2799,"aked":2800,"Ġunus":2801,"Ġconvent":2802,"Ġconcer":2803,"asty":2804,"Ġatmosp":2805,"Ġrhy":2806,"Ġthanks":2807,"Ġfear":2808,"Ġclos":2809,"Ġtry":2810,"izes":2811,"Ġremember":2812,"Ġgrant":2813,"Ġground":2814,"Ġplaying":2815,"Ġexciting":2816,"Ġprim":2817,"Ġskin":2818,"Ġrepet":2819,"Ġsuperfic":2820,"Ġmonster":2821,"iety":2822,"Ġbroad":2823,"Ġmelodramatic":2824,"Ġdiver":2825,"Ġtalented":2826,"oppy":2827,"Ġwinning":2828,"Ġbased":2829,"Ġidi":2830,"Ġsituation":2831,"Ġdeserves":2832,"porary":2833,"Ġdefinitely":2834,"belie":2835,"Ġfully":2836,"Ġunsettling":2837,"\\*":2838,"fashioned":2839,"ives":2840,"nce":2841,"uces":2842,"hent":2843,"Ġsaw":2844,"Ġsav":2845,"Ġfest":2846,"Ġcat":2847,"Ġwalk":2848,"Ġham":2849,"Ġlad":2850,"Ġloud":2851,"Ġname":2852,"stal":2853,"Ġgun":2854,"ellect":2855,"Ġstren":2856,"Ġrev":2857,"Ġrequ":2858,"room":2859,"umber":2860,"Ġliving":2861,"Ġshad":2862,"Ġability":2863,"Ġhack":2864,"Ġconst":2865,"Ġconstruct":2866,"Ġvict":2867,"Ġperhaps":2868,"Ġclum":2869,"plays":2870,"Ġmanner":2871,"Ġloc":2872,"acher":2873,"Ġemerg":2874,"Ġrid":2875,"Ġgeneric":2876,"Ġbrings":2877,"angu":2878,"Ġstruct":2879,"Ġago":2880,"Ġcasting":2881,"Ġawkward":2882,"Ġgiving":2883,"Ġexplor":2884,"Ġimagine":2885,"Ġ20":2886,"Ġcreate":2887,"Ġabsor":2888,"Ġstarts":2889,"Ġgirls":2890,"Ġrarely":2891,"Ġleads":2892,"Ġconvincing":2893,"Ġmasterpiece":2894,"Ġcouple":2895,"Ġcountry":2896,"Ġslightly":2897,"Ġrelationships":2898,"Ġurban":2899,"Ġcostum":2900,"Ġfocus":2901,"Ġprovides":2902,"olution":2903,"Ġniro":2904,"Ġroutine":2905,"Ġmediocre":2906,"Ġrhyth":2907,"cing":2908,"making":2909,"ral":2910,"round":2911,"vy":2912,"yal":2913,"Ġtur":2914,"inoc":2915,"hearted":2916,"Ġsac":2917,"Ġfit":2918,"Ġfra":2919,"Ġmil":2920,"Ġmak":2921,"Ġbi":2922,"Ġcand":2923,"Ġwal":2924,"Ġwise":2925,"onic":2926,"onstr":2927,"Ġpacing":2928,"Ġdre":2929,"arc":2930,"icle":2931,"Ġtoward":2932,"Ġinex":2933,"omet":2934,"eld":2935,"vey":2936,"imag":2937,"Ġones":2938,"Ġya":2939,"ession":2940,"Ġcommer":2941,"ills":2942,"ousy":2943,"Ġintellect":2944,"quently":2945,"usi":2946,"andering":2947,"Ġallen":2948,"Ġprep":2949,"ending":2950,"Ġweight":2951,"Ġcompany":2952,"assion":2953,"Ġdisgu":2954,"never":2955,"Ġtwists":2956,"Ġbadly":2957,"Ġbrut":2958,"Ġhowever":2959,"Ġwatchable":2960,"Ġjoke":2961,"Ġthrills":2962,"conscious":2963,"Ġterms":2964,"Ġapart":2965,"Ġlacking":2966,"Ġthinking":2967,"Ġhighly":2968,"Ġultimate":2969,"Ġcrazy":2970,"voking":2971,"Ġproblems":2972,"Ġunfunny":2973,"Ġseriously":2974,"Ġtragic":2975,"Ġformulaic":2976,"Ġpunch":2977,"Ġbright":2978,"Ġgripping":2979,"Ġflawed":2980,"Ġinvolved":2981,"Ġreveals":2982,"Ġsubstance":2983,"Ġescap":2984,"Ġbusiness":2985,"Ġcourse":2986,"Ġfavor":2987,"Ġcontemporary":2988,"Ġunexpected":2989,"Ġ2002":2990,"Ġdoubt":2991,"60":2992,"budget":2993,"die":2994,"hum":2995,"ipp":2996,"ique":2997,"low":2998,"mers":2999,"nter":3000,"rical":3001,"somet":3002,"ux":3003,"watching":3004,"zen":3005,"Ġest":3006,"Ġera":3007,"Ġtick":3008,"Ġaim":3009,"hem":3010,"head":3011,"Ġson":3012,"Ġsick":3013,"Ġfive":3014,"Ġfare":3015,"enn":3016,"Ġmes":3017,"Ġcris":3018,"Ġcyn":3019,"Ġwish":3020,"inger":3021,"Ġdry":3022,"aris":3023,"aly":3024,"ilt":3025,"Ġnu":3026,"Ġeth":3027,"Ġecc":3028,"Ġgre":3029,"Ġstere":3030,"Ġstars":3031,"Ġbeat":3032,"Ġresp":3033,"Ġfilled":3034,"eth":3035,"Ġcomfort":3036,"ified":3037,"Ġener":3038,"Ġunin":3039,"Ġscr":3040,"arts":3041,"acted":3042,"uster":3043,"ops":3044,"itted":3045,"Ġmanip":3046,"weet":3047,"ization":3048,"atingly":3049,"Ġrap":3050,"Ġrive":3051,"Ġyourself":3052,"Ġthemes":3053,"Ġrealistic":3054,"olds":3055,"Ġcrush":3056,"cons":3057,"gged":3058,"Ġrecord":3059,"Ġplayed":3060,"Ġfinds":3061,"Ġpleasant":3062,"Ġreport":3063,"Ġdistinct":3064,"Ġappears":3065,"Ġimaginative":3066,"iculous":3067,"Ġhappens":3068,"Ġflicks":3069,"Ġmeditation":3070,"provoking":3071,"Ġsensitive":3072,"Ġsoundtra":3073,"Ġmissing":3074,"Ġattempts":3075,"Ġpromise":3076,"Ġboys":3077,"Ġsuccessful":3078,"Ġinvolving":3079,"Ġcalled":3080,"ulgent":3081,"Ġsandler":3082,"Ġconsiderable":3083,"Ġmildly":3084,"Ġphilos":3085,"Ġinventive":3086,"Ġintimate":3087,"Ġepisode":3088,"Ġinclud":3089,"Ġframe":3090,"Ġbattle":3091,"Ġpubl":3092,"Ġbizarre":3093,"Ġcirc":3094,"Ġwilliams":3095,"Ġghost":3096,"hentic":3097,"Ġsoundtrack":3098,"avi":3099,"field":3100,"gth":3101,"ived":3102,"lish":3103,"ners":3104,"put":3105,"Ġtun":3106,"Ġtaken":3107,"itable":3108,"itions":3109,"Ġfather":3110,"Ġmatch":3111,"Ġwat":3112,"Ġpri":3113,"Ġdom":3114,"Ġhate":3115,"Ġloss":3116,"Ġlaz":3117,"Ġnons":3118,"stick":3119,"entric":3120,"vide":3121,"Ġrent":3122,"they":3123,"see":3124,"sequ":3125,"ided":3126,"agger":3127,"Ġencou":3128,"Ġintro":3129,"Ġintense":3130,"Ġshare":3131,"Ġunc":3132,"Ġuneven":3133,"ires":3134,"Ġnear":3135,"ateur":3136,"Ġsoc":3137,"Ġvill":3138,"Ġsports":3139,"Ġspielberg":3140,"Ġimax":3141,"Ġoutrage":3142,"Ġtran":3143,"Ġroom":3144,"Ġblend":3145,"izz":3146,"phy":3147,"rison":3148,"Ġtravel":3149,"Ġinterested":3150,"Ġcheck":3151,"Ġterrible":3152,"Ġrelent":3153,"Ġfranch":3154,"Ġwanted":3155,"Ġsets":3156,"Ġsett":3157,"Ġincred":3158,"arring":3159,"Ġrepres":3160,"Ġmarvel":3161,"Ġfright":3162,"Ġevil":3163,"Ġruns":3164,"Ġhappy":3165,"Ġgeneral":3166,"Ġdemonstr":3167,"Ġexpress":3168,"Ġputs":3169,"Ġspiritual":3170,"Ġprofound":3171,"Ġpolitics":3172,"Ġequally":3173,"Ġtransc":3174,"feels":3175,"Ġsentimentality":3176,"Ġdrug":3177,"Ġaffection":3178,"Ġstunning":3179,"Ġsituations":3180,"Ġforgettable":3181,"written":3182,"Ġpoetry":3183,"Ġderiv":3184,"after":3185,"Ġlargely":3186,"Ġextraord":3187,"Ġbritish":3188,"Ġindeed":3189,"Ġtelevision":3190,"Ġpoignant":3191,"Ġpurpose":3192,"Ġheaven":3193,"Ġpieces":3194,"Ġgoofy":3195,"Ġinnoc":3196,"Ġsophisticated":3197,"Ġsuperficial":3198,"Ġstrength":3199,"Ġstereot":3200,"Ġfranchise":3201,"bear":3202,"cr":3203,"corn":3204,"eper":3205,"fer":3206,"fun":3207,"ium":3208,"long":3209,"miss":3210,"par":3211,"sm":3212,"ters":3213,"xic":3214,"Ġtough":3215,"Ġaccess":3216,"Ġfreak":3217,"eni":3218,"Ġbog":3219,"Ġbold":3220,"Ġwest":3221,"Ġwall":3222,"Ġpan":3223,"Ġpian":3224,"ara":3225,"arity":3226,"Ġhits":3227,"Ġhyp":3228,"Ġtoday":3229,"iling":3230,"Ġloses":3231,"asp":3232,"Ġstom":3233,"Ġstay":3234,"uls":3235,"Ġforced":3236,"those":3237,"Ġalive":3238,"erson":3239,"agon":3240,"Ġliked":3241,"aks":3242,"atever":3243,"Ġring":3244,"inded":3245,"venge":3246,"osity":3247,"Ġspace":3248,"Ġimpl":3249,"Ġamateur":3250,"Ġtrash":3251,"Ġlog":3252,"Ġdisc":3253,"Ġmeans":3254,"Ġmaybe":3255,"Ġsurvi":3256,"Ġsurround":3257,"bergh":3258,"Ġsmo":3259,"Ġscreenwrit":3260,"Ġcinemat":3261,"getic":3262,"Ġguess":3263,"Ġviewing":3264,"Ġapparent":3265,"Ġsetting":3266,"Ġexcit":3267,"Ġexcess":3268,"arrass":3269,"Ġcreated":3270,"ancing":3271,"Ġproduct":3272,"Ġedge":3273,"mined":3274,"Ġdetail":3275,"cover":3276,"Ġabsolutely":3277,"Ġpainful":3278,"Ġeleg":3279,"Ġsaid":3280,"Ġprofess":3281,"worth":3282,"Ġmagn":3283,"Ġcliche":3284,"Ġquestions":3285,"Ġcentral":3286,"Ġmurphy":3287,"Ġgrief":3288,"Ġjackson":3289,"Ġstrangely":3290,"Ġvirtually":3291,"Ġdepressing":3292,"Ġgeorge":3293,"Ġtypical":3294,"Ġhaunting":3295,"Ġcolorful":3296,"Ġcrafted":3297,"Ġenthusi":3298,"Ġmodest":3299,"Ġdisturbing":3300,"Ġunintent":3301,"Ġridiculous":3302,"Ġmesmer":3303,"Ġtransp":3304,"Ġderivative":3305,"bad":3306,"back":3307,"boy":3308,"bling":3309,"dis":3310,"felt":3311,"ging":3312,"hol":3313,"ken":3314,"kable":3315,"ole":3316,"phed":3317,"uit":3318,"ura":3319,"vin":3320,"wo":3321,"yle":3322,"Ġign":3323,"Ġtire":3324,"Ġtender":3325,"Ġaverage":3326,"ina":3327,"instead":3328,"Ġsight":3329,"Ġfiction":3330,"ator":3331,"Ġcry":3332,"Ġwife":3333,"orious":3334,"Ġpen":3335,"Ġdu":3336,"alian":3337,"Ġlame":3338,"Ġlaw":3339,"Ġlines":3340,"Ġlength":3341,"ashing":3342,"Ġstage":3343,"Ġstock":3344,"Ġreach":3345,"rap":3346,"chant":3347,"Ġfill":3348,"Ġansw":3349,"Ġsugar":3350,"irth":3351,"ids":3352,"Ġchan":3353,"Ġchang":3354,"thr":3355,"about":3356,"ague":3357,"ants":3358,"ander":3359,"Ġallow":3360,"Ġplan":3361,"Ġfeat":3362,"Ġlets":3363,"ichol":3364,"Ġcompet":3365,"Ġroot":3366,"Ġslice":3367,"Ġtalking":3368,"ondz":3369,"Ġparts":3370,"Ġartistic":3371,"Ġobs":3372,"Ġobject":3373,"Ġclearly":3374,"Ġhardly":3375,"cont":3376,"ups":3377,"Ġguilty":3378,"Ġworthwhile":3379,"Ġglimp":3380,"Ġhumanity":3381,"Ġprice":3382,"Ġindie":3383,"Ġoriginality":3384,"Ġfinish":3385,"Ġsket":3386,"Ġirrit":3387,"Ġsexy":3388,"dden":3389,"Ġgeneration":3390,"Ġpainfully":3391,"Ġundeni":3392,"Ġpopcorn":3393,"Ġobviously":3394,"Ġinspired":3395,"Ġinsightful":3396,"Ġcourage":3397,"Ġsimpl":3398,"Ġadmi":3399,"Ġwarmth":3400,"Ġtreasure":3401,"Ġaffecting":3402,"Ġsuffers":3403,"does":3404,"Ġembarrass":3405,"ivalent":3406,"Ġaffair":3407,"Ġextremely":3408,"Ġauthentic":3409,"Ġrefreshingly":3410,"Ġexhilar":3411,"Ġobserv":3412,"Ġfootage":3413,"Ġsucceeds":3414,"Ġsurface":3415,"Ġwedding":3416,"Ġvoice":3417,"Ġopportunity":3418,"Ġgroup":3419,"Ġconventional":3420,"Ġatmosphere":3421,"Ġabsorbing":3422,"Ġcommercial":3423,"Ġeccentric":3424,"Ġenergetic":3425,"Ġriveting":3426,"Ġpublic":3427,"Ġstereotyp":3428,"Ġexcitement":3429,"ave":3430,"aus":3431,"bs":3432,"bor":3433,"bles":3434,"both":3435,"cra":3436,"den":3437,"egr":3438,"hour":3439,"hmer":3440,"ians":3441,"jo":3442,"much":3443,"nal":3444,"nic":3445,"inal":3446,"Ġfashion":3447,"ency":3448,"Ġmc":3449,"Ġmal":3450,"Ġban":3451,"Ġbow":3452,"Ġcore":3453,"onna":3454,"Ġped":3455,"Ġpap":3456,"Ġpick":3457,"Ġdim":3458,"lying":3459,"Ġhall":3460,"lex":3461,"Ġinfl":3462,"illed":3463,"Ġlangu":3464,"Ġna":3465,"Ġgames":3466,"ases":3467,"Ġstre":3468,"Ġrevenge":3469,"theless":3470,"roll":3471,"Ġfilmed":3472,"Ġwithin":3473,"Ġalien":3474,"abor":3475,"Ġjol":3476,"Ġsea":3477,"Ġune":3478,"Ġunfor":3479,"Ġscar":3480,"Ġscream":3481,"Ġking":3482,"Ġry":3483,"Ġallows":3484,"Ġplaces":3485,"udlin":3486,"Ġlearn":3487,"Ġspook":3488,"ards":3489,"Ġtrick":3490,"Ġarri":3491,"ached":3492,"ogn":3493,"Ġadoles":3494,"Ġsomehow":3495,"Ġponder":3496,"Ġblue":3497,"new":3498,"Ġtalk":3499,"Ġsurreal":3500,"Ġservice":3501,"versal":3502,"Ġparty":3503,"Ġheartb":3504,"Ġheartfelt":3505,"Ġgreatest":3506,"Ġtrip":3507,"Ġterror":3508,"Ġperspect":3509,"Ġincre":3510,"Ġmusical":3511,"Ġiran":3512,"Ġaccept":3513,"insky":3514,"Ġdecades":3515,"Ġconsid":3516,"Ġconsist":3517,"Ġbelievable":3518,"Ġefforts":3519,"Ġpresents":3520,"Ġdamned":3521,"Ġequivalent":3522,"Ġmaint":3523,"Ġparticular":3524,"Ġtreatment":3525,"Ġdragon":3526,"Ġtells":3527,"Ġveh":3528,"Ġmotion":3529,"Ġident":3530,"Ġremarkably":3531,"Ġholds":3532,"Ġsleep":3533,"Ġbalance":3534,"Ġspectacle":3535,"Ġachieve":3536,"Ġdelicate":3537,"Ġpoorly":3538,"Ġpowers":3539,"Ġslapstick":3540,"Ġpeter":3541,"school":3542,"Ġamazing":3543,"Ġcharisma":3544,"Ġjapanese":3545,"Ġprotagon":3546,"Ġunusual":3547,"Ġtiresome":3548,"ha":3549,"ike":3550,"pet":3551,"rous":3552,"set":3553,"val":3554,"will":3555,"yc":3556,"Ġice":3557,"Ġty":3558,"Ġtour":3559,"Ġtelling":3560,"ining":3561,"Ġsnow":3562,"Ġsitting":3563,"rely":3564,"Ġopt":3565,"Ġfer":3566,"Ġfur":3567,"Ġmas":3568,"Ġmill":3569,"Ġmult":3570,"Ġwil":3571,"Ġwast":3572,"Ġwry":3573,"esc":3574,"only":3575,"onishing":3576,"Ġpic":3577,"Ġpra":3578,"Ġdiv":3579,"aries":3580,"ario":3581,"Ġthird":3582,"leby":3583,"Ġlay":3584,"Ġlate":3585,"Ġloose":3586,"Ġnichol":3587,"star":3588,"Ġgut":3589,"Ġgem":3590,"uter":3591,"Ġmoore":3592,"otten":3593,"Ġstir":3594,"Ġstick":3595,"Ġstret":3596,"imsy":3597,"etic":3598,"Ġyarn":3599,"Ġaspect":3600,"Ġaltern":3601,"unfortunately":3602,"Ġjames":3603,"Ġintended":3604,"Ġshap":3605,"Ġshame":3606,"Ġshallow":3607,"Ġdeeper":3608,"Ġuncon":3609,"Ġneg":3610,"Ġscore":3611,"Ġscience":3612,"Ġconce":3613,"asts":3614,"Ġsoft":3615,"Ġsoder":3616,"andon":3617,"Ġprog":3618,"Ġruss":3619,"Ġplod":3620,"veness":3621,"Ġvan":3622,"Ġspot":3623,"Ġspoof":3624,"Ġarch":3625,"Ġsomewhere":3626,"Ġcompassion":3627,"Ġcomputer":3628,"Ġenter":3629,"Ġusually":3630,"ultim":3631,"Ġemph":3632,"Ġoffering":3633,"Ġrad":3634,"Ġtheme":3635,"atively":3636,"Ġdesp":3637,"Ġdirectorial":3638,"Ġscreenwriter":3639,"Ġcontra":3640,"Ġages":3641,"inks":3642,"Ġlonger":3643,"Ġtrif":3644,"umbs":3645,"avor":3646,"Ġpointless":3647,"Ġneeded":3648,"ucing":3649,"ext":3650,"Ġplease":3651,"Ġirre":3652,"Ġediting":3653,"Ġsubjects":3654,"Ġsequence":3655,"Ġbrown":3656,"Ġsitcom":3657,"Ġstudio":3658,"Ġgenerally":3659,"Ġswim":3660,"Ġharm":3661,"Ġcommunity":3662,"Ġsounds":3663,"work":3664,"Ġwildly":3665,"Ġbehavi":3666,"Ġcentury":3667,"Ġpromising":3668,"Ġcredits":3669,"Ġvalue":3670,"ground":3671,"Ġsignific":3672,"Ġdreams":3673,"Ġgenuinely":3674,"Ġangst":3675,"Ġcombination":3676,"Ġdevelopment":3677,"Ġspectacular":3678,"Ġpossibly":3679,"Ġeventually":3680,"Ġfigure":3681,"Ġgangster":3682,"Ġfunnier":3683,"Ġbrothers":3684,"Ġdeftly":3685,"Ġempty":3686,"Ġmartin":3687,"Ġdescri":3688,"Ġrepetitive":3689,"Ġfestival":3690,"Ġamateurish":3691,"Ġmesmerizing":3692,"Ġvehicle":3693,"Ġidentity":3694,"Ġsoderbergh":3695,"cher":3696,"cult":3697,"dri":3698,"dow":3699,"dram":3700,"funny":3701,"gory":3702,"high":3703,"minded":3704,"nces":3705,"ru":3706,"rum":3707,"she":3708,"suff":3709,"uro":3710,"win":3711,"Ġ&":3712,"ern":3713,"itude":3714,"Ġfier":3715,"Ġble":3716,"Ġbody":3717,"Ġbored":3718,"Ġbott":3719,"ingu":3720,"Ġpract":3721,"Ġpaced":3722,"Ġpinoc":3723,"Ġdie":3724,"Ġhide":3725,"Ġtoss":3726,"Ġinner":3727,"eds":3728,"iler":3729,"illy":3730,"omb":3731,"Ġnumbers":3732,"Ġnumber":3733,"stream":3734,"Ġearly":3735,"Ġgold":3736,"ented":3737,"asm":3738,"ashed":3739,"Ġresem":3740,"verse":3741,"Ġsun":3742,"irty":3743,"ifting":3744,"Ġchase":3745,"Ġchann":3746,"Ġjer":3747,"agal":3748,"umble":3749,"cks":3750,"Ġliber":3751,"Ġsham":3752,"Ġshots":3753,"Ġdevoid":3754,"Ġsco":3755,"Ġconcl":3756,"Ġkiller":3757,"actic":3758,"Ġprove":3759,"Ġprovide":3760,"uddy":3761,"alling":3762,"Ġord":3763,"Ġqueen":3764,"dep":3765,"Ġarg":3766,"acious":3767,"aches":3768,"Ġjustice":3769,"Ġwilling":3770,"comes":3771,"Ġblade":3772,"Ġoverly":3773,"Ġperformers":3774,"Ġemp":3775,"Ġdisp":3776,"Ġslick":3777,"ips":3778,"Ġraw":3779,"Ġrip":3780,"spired":3781,"Ġteam":3782,"Ġteacher":3783,"Ġdesire":3784,"bute":3785,"Ġresults":3786,"leasant":3787,"Ġcrimes":3788,"Ġholes":3789,"Ġchees":3790,"Ġkevin":3791,"reek":3792,"Ġgiant":3793,"Ġfarce":3794,"Ġrecogn":3795,"avis":3796,"Ġglass":3797,"Ġturned":3798,"Ġindust":3799,"Ġpleasures":3800,"Ġthinks":3801,"Ġsheer":3802,"Ġphys":3803,"Ġmembers":3804,"Ġschm":3805,"stein":3806,"ample":3807,"Ġhappen":3808,"Ġmindless":3809,"Ġ199":3810,"Ġvisuals":3811,"Ġsave":3812,"Ġsecret":3813,"Ġcaptiv":3814,"Ġexpected":3815,"standing":3816,"Ġreading":3817,"Ġvalues":3818,"ropri":3819,"Ġanti":3820,"Ġquietly":3821,"Ġuniversal":3822,"Ġstunts":3823,"Ġstriking":3824,"Ġfrequently":3825,"wrought":3826,"whel":3827,"Ġendearing":3828,"Ġinept":3829,"Ġattraction":3830,"Ġrelease":3831,"Ġprecious":3832,"Ġcomplicated":3833,"eyed":3834,"Ġbullock":3835,"Ġrevolution":3836,"Ġconstructed":3837,"Ġexploration":3838,"Ġdisguise":3839,"Ġlazy":3840,"Ġsociety":3841,"Ġoutrageous":3842,"Ġextraordinary":3843,"Ġaccessible":3844,"Ġstomach":3845,"Ġcinematography":3846,"Ġprofessional":3847,"Ġirritating":3848,"Ġsimplistic":3849,"Ġperspective":3850,"ultimately":3851,"Ġemphas":3852,"Ġbehavior":3853,"aud":3854,"ailed":3855,"bol":3856,"brid":3857,"cies":3858,"eath":3859,"fman":3860,"gor":3861,"girl":3862,"hu":3863,"mi":3864,"mar":3865,"mas":3866,"night":3867,"pret":3868,"run":3869,"su":3870,"top":3871,"talk":3872,"yes":3873,"Ġ7":3874,"Ġic":3875,"Ġten":3876,"Ġtack":3877,"Ġaust":3878,"Ġauth":3879,"Ġsed":3880,"Ġsides":3881,"rem":3882,"rest":3883,"erable":3884,"itional":3885,"Ġfle":3886,"Ġms":3887,"Ġmiche":3888,"atisf":3889,"Ġbod":3890,"Ġbore":3891,"Ġbits":3892,"Ġcro":3893,"Ġcaut":3894,"oric":3895,"Ġpus":3896,"aning":3897,"Ġdyn":3898,"Ġdazz":3899,"alan":3900,"Ġhur":3901,"Ġhus":3902,"Ġhook":3903,"lete":3904,"Ġnick":3905,"Ġitalian":3906,"Ġger":3907,"Ġgar":3908,"Ġbears":3909,"vern":3910,"ulation":3911,"chan":3912,"Ġasp":3913,"sec":3914,"irming":3915,"Ġcomment":3916,"Ġchance":3917,"Ġchuck":3918,"Ġchines":3919,"Ġmoviemaking":3920,"ama":3921,"Ġalle":3922,"Ġalthough":3923,"abl":3924,"Ġexample":3925,"Ġshake":3926,"Ġdeb":3927,"ivered":3928,"Ġuncom":3929,"Ġconscious":3930,"asting":3931,"Ġsoon":3932,"ford":3933,"Ġproceed":3934,"Ġfears":3935,"Ġpreach":3936,"Ġvol":3937,"Ġvulg":3938,"Ġspin":3939,"Ġspell":3940,"Ġclim":3941,"itters":3942,"Ġloved":3943,"Ġarn":3944,"aufman":3945,"Ġadult":3946,"weight":3947,"Ġpoke":3948,"Ġroger":3949,"Ġovercome":3950,"Ġoverwhel":3951,"Ġrand":3952,"Ġvibr":3953,"ressed":3954,"Ġtext":3955,"Ġdelivered":3956,"Ġserves":3957,"Ġcontrol":3958,"Ġholid":3959,"Ġshowc":3960,"Ġinsult":3961,"Ġgrim":3962,"Ġtribute":3963,"Ġgrad":3964,"Ġenjoyed":3965,"Ġplayful":3966,"neyed":3967,"Ġreflect":3968,"Ġhorrif":3969,"Ġfriends":3970,"Ġproduced":3971,"Ġimagery":3972,"Ġmonty":3973,"Ġ195":3974,"hens":3975,"Ġpresence":3976,"prod":3977,"Ġcommon":3978,"Ġnowhere":3979,"Ġdivers":3980,"class":3981,"Ġlevels":3982,"Ġdamn":3983,"Ġmarks":3984,"Ġintrigue":3985,"Ġcredit":3986,"Ġbenef":3987,"Ġembra":3988,"Ġdouble":3989,"Ġexploit":3990,"Ġpoetic":3991,"Ġfatal":3992,"warming":3993,"Ġachieves":3994,"Ġdigital":3995,"Ġunpleasant":3996,"Ġsplend":3997,"Ġpulls":3998,"Ġfailure":3999,"Ġfrustrating":4000,"Ġessentially":4001,"Ġsongs":4002,"Ġintentions":4003,"Ġdesigned":4004,"Ġstruggle":4005,"Ġannoying":4006,"Ġnecessary":4007,"Ġfolks":4008,"Ġmachine":4009,"Ġpredecessor":4010,"Ġchallenging":4011,"Ġpositive":4012,"Ġconcerned":4013,"Ġdiverting":4014,"Ġhackneyed":4015,"Ġstructure":4016,"Ġmanipulative":4017,"Ġnonsense":4018,"Ġincredibly":4019,"Ġglimpse":4020,"Ġexhilarating":4021,"Ġincreas":4022,"Ġfurther":4023,"Ġtrifle":4024,"Ġbottom":4025,"Ġdynam":4026,"Ġchinese":4027,"eur":4028,"gy":4029,"gan":4030,"iation":4031,"ivid":4032,"kins":4033,"lor":4034,"mn":4035,"mr":4036,"mak":4037,"nature":4038,"pleas":4039,"vard":4040,"Ġ\\/":4041,"Ġtor":4042,"Ġtight":4043,"Ġtort":4044,"inated":4045,"Ġsill":4046,"Ġsappy":4047,"rep":4048,"reaking":4049,"rets":4050,"rehens":4051,"erk":4052,"Ġfu":4053,"Ġfab":4054,"Ġfish":4055,"Ġmile":4056,"Ġmale":4057,"Ġmention":4058,"Ġband":4059,"Ġbudget":4060,"Ġbunch":4061,"Ġcell":4062,"Ġcame":4063,"Ġcause":4064,"Ġwide":4065,"orous":4066,"ority":4067,"once":4068,"Ġpur":4069,"Ġprison":4070,"Ġdick":4071,"Ġdance":4072,"Ġdys":4073,"Ġdaring":4074,"Ġhay":4075,"Ġhill":4076,"iced":4077,"ilities":4078,"Ġnational":4079,"sters":4080,"Ġgro":4081,"Ġgreek":4082,"Ġstate":4083,"Ġstale":4084,"Ġreno":4085,"ceived":4086,"Ġanaly":4087,"ribly":4088,"oop":4089,"Ġsuspect":4090,"iring":4091,"Ġchris":4092,"americ":4093,"Ġhear":4094,"abs":4095,"unt":4096,"Ġjason":4097,"Ġjunk":4098,"uming":4099,"Ġseat":4100,"Ġseason":4101,"Ġexquis":4102,"Ġshakes":4103,"quent":4104,"Ġnotice":4105,"Ġhair":4106,"Ġdecept":4107,"Ġunh":4108,"Ġconsp":4109,"Ġconvers":4110,"aine":4111,"Ġsober":4112,"Ġrough":4113,"udes":4114,"indulgent":4115,"Ġlee":4116,"osition":4117,"ffman":4118,"Ġvs":4119,"Ġvamp":4120,"Ġstoryline":4121,"plo":4122,"endent":4123,"Ġqual":4124,"Ġnostal":4125,"Ġflow":4126,"Ġflair":4127,"oyant":4128,"Ġroles":4129,"Ġoffensive":4130,"Ġmechan":4131,"Ġtwice":4132,"Ġtalents":4133,"Ġrealism":4134,"ledge":4135,"Ġdirectors":4136,"Ġremem":4137,"Ġremain":4138,"shot":4139,"Ġstrict":4140,"igni":4141,"orsese":4142,"Ġ11":4143,"Ġromp":4144,"Ġcruel":4145,"Ġviscer":4146,"Ġemotion":4147,"Ġterrit":4148,"Ġcollect":4149,"Ġenglish":4150,"Ġgloss":4151,"Ġexcuse":4152,"Ġinco":4153,"Ġindivid":4154,"Ġcreating":4155,"Ġbuy":4156,"ological":4157,"together":4158,"Ġappear":4159,"Ġhoffman":4160,"Ġsolondz":4161,"Ġeduc":4162,"Ġdelivery":4163,"Ġmira":4164,"Ġwonderfully":4165,"elessly":4166,"Ġsafe":4167,"Ġbarbers":4168,"Ġreturn":4169,"offers":4170,"Ġsurely":4171,"Ġdamage":4172,"Ġmainstream":4173,"Ġmarket":4174,"Ġtrem":4175,"Ġoddly":4176,"Ġwait":4177,"Ġwaiting":4178,"Ġcomedic":4179,"Ġcontriv":4180,"Ġmotiv":4181,"medi":4182,"Ġregard":4183,"Ġdevast":4184,"Ġdeserve":4185,"Ġmixed":4186,"Ġgrows":4187,"everything":4188,"Ġlandsc":4189,"Ġstandards":4190,"whether":4191,"Ġdesperate":4192,"Ġinspiring":4193,"Ġearth":4194,"Ġfunniest":4195,"film":4196,"Ġsource":4197,"Ġparker":4198,"Ġdetermined":4199,"Ġastonishing":4200,"Ġmetaphor":4201,"Ġbreatht":4202,"Ġaccomplished":4203,"Ġmoviegoers":4204,"Ġclumsy":4205,"Ġemerges":4206,"Ġdreary":4207,"Ġintellectual":4208,"Ġintrod":4209,"funct":4210,"Ġadmirable":4211,"Ġpaper":4212,"Ġryan":4213,"Ġadolescent":4214,"Ġprotagonist":4215,"Ġtype":4216,"Ġfierce":4217,"Ġchannel":4218,"Ġindustry":4219,"Ġcaution":4220,"ittersweet":4221,"Ġvibrant":4222,"Ġholiday":4223,"natured":4224,"Ġnostalg":4225,"aith":4226,"aid":4227,"bit":4228,"bas":4229,"book":4230,"da":4231,"del":4232,"falls":4233,"gest":4234,"gment":4235,"hard":4236,"iveness":4237,"lie":4238,"oft":4239,"rat":4240,"say":4241,"vil":4242,"xx":4243,"Ġven":4244,"Ġsan":4245,"Ġsix":4246,"Ġsister":4247,"rect":4248,"ero":4249,"itch":4250,"Ġfal":4251,"Ġfly":4252,"Ġfable":4253,"Ġfood":4254,"ision":4255,"Ġment":4256,"Ġmac":4257,"atter":4258,"Ġbed":4259,"Ġbother":4260,"Ġbuff":4261,"Ġbittersweet":4262,"Ġcate":4263,"Ġcard":4264,"Ġwoo":4265,"Ġwann":4266,"esque":4267,"orig":4268,"orient":4269,"Ġpile":4270,"another":4271,"Ġdread":4272,"Ġhig":4273,"icism":4274,"Ġinh":4275,"Ġlos":4276,"Ġnarc":4277,"Ġgrown":4278,"Ġstays":4279,"Ġstarring":4280,"Ġrepe":4281,"vert":4282,"Ġanne":4283,"Ġyu":4284,"Ġaside":4285,"aded":4286,"Ġwhatever":4287,"irm":4288,"Ġcompl":4289,"Ġcha":4290,"Ġchick":4291,"tha":4292,"amalan":4293,"Ġjones":4294,"Ġsearch":4295,"Ġseagal":4296,"Ġintens":4297,"Ġintegr":4298,"Ġlies":4299,"Ġnotion":4300,"ante":4301,"Ġdeg":4302,"Ġunw":4303,"Ġunfl":4304,"peare":4305,"ellow":4306,"Ġkick":4307,"Ġkore":4308,"Ġsole":4309,"udic":4310,"Ġspend":4311,"ongs":4312,"pper":4313,"Ġloving":4314,"thern":4315,"Ġwears":4316,"Ġweek":4317,"acity":4318,"Ġdirecting":4319,"Ġworked":4320,"Ġoverwrought":4321,"Ġempathy":4322,"Ġdisaster":4323,"ensions":4324,"Ġsloppy":4325,"lessness":4326,"osterous":4327,"Ġthematic":4328,"Ġmayhem":4329,"anski":4330,"phic":4331,"Ġserved":4332,"Ġstrang":4333,"Ġmatters":4334,"Ġplotting":4335,"Ġ15":4336,"redict":4337,"Ġbigger":4338,"Ġminute":4339,"uctive":4340,"Ġshowing":4341,"Ġgritty":4342,"teen":4343,"Ġscenario":4344,"Ġlesson":4345,"ggy":4346,"Ġrelatively":4347,"Ġrecyc":4348,"Ġbackground":4349,"Ġfinding":4350,"Ġdepiction":4351,"Ġdrawn":4352,"Ġbecoming":4353,"Ġexplos":4354,"Ġfriday":4355,"Ġcarries":4356,"Ġcrack":4357,"Ġexperiences":4358,"Ġmorality":4359,"Ġinvest":4360,"Ġpersonality":4361,"Ġsuperior":4362,"Ġstands":4363,"imental":4364,"Ġ198":4365,"covery":4366,"Ġdemand":4367,"Ġzone":4368,"Ġpaint":4369,"Ġsouth":4370,"Ġsecrets":4371,"Ġmaudlin":4372,"Ġbarry":4373,"Ġaddition":4374,"Ġretread":4375,"Ġconfusing":4376,"Ġassured":4377,"Ġambig":4378,"Ġreasonably":4379,"Ġaccount":4380,"Ġlively":4381,"Ġadmire":4382,"Ġcomplexity":4383,"Ġviolent":4384,"Ġbeginning":4385,"Ġpaul":4386,"Ġcaper":4387,"Ġdisappointing":4388,"Ġnicely":4389,"Ġgrowing":4390,"Ġxxx":4391,"Ġtechnical":4392,"Ġescape":4393,"Ġcondition":4394,"Ġdrive":4395,"Ġcurrent":4396,"Ġchoices":4397,"Ġexhaust":4398,"Ġchristian":4399,"Ġchristmas":4400,"ovich":4401,"Ġforeign":4402,"Ġknock":4403,"ophical":4404,"Ġingen":4405,"Ġforgotten":4406,"looking":4407,"Ġmistake":4408,"Ġdangerous":4409,"Ġtotal":4410,"\\*\\*":4411,"Ġmakers":4412,"sometimes":4413,"Ġphilosophical":4414,"Ġincluding":4415,"Ġrepresents":4416,"Ġstreet":4417,"Ġiranian":4418,"Ġaspects":4419,"rupt":4420,"Ġconclusion":4421,"Ġarnold":4422,"Ġpokemon":4423,"Ġincreasingly":4424,"Ġterritory":4425,"Ġindividual":4426,"Ġbarbershop":4427,"Ġcautionary":4428,"aves":4429,"bar":4430,"bra":4431,"bble":4432,"dog":4433,"eks":4434,"fri":4435,"from":4436,"fest":4437,"hip":4438,"ients":4439,"kn":4440,"length":4441,"nan":4442,"nam":4443,"oly":4444,"pan":4445,"rate":4446,"rated":4447,"tv":4448,"two":4449,"uity":4450,"vag":4451,"vate":4452,"xious":4453,"your":4454,"yamalan":4455,"Ġtux":4456,"Ġsam":4457,"Ġsade":4458,"Ġfis":4459,"Ġmass":4460,"athetic":4461,"Ġbou":4462,"Ġbol":4463,"Ġbag":4464,"Ġbart":4465,"Ġbree":4466,"Ġbaff":4467,"Ġburns":4468,"Ġcatch":4469,"Ġwis":4470,"Ġwent":4471,"Ġwack":4472,"Ġwond":4473,"inging":4474,"oring":4475,"Ġpity":4476,"ano":4477,"Ġdon":4478,"Ġthous":4479,"Ġthreat":4480,"Ġhang":4481,"icy":4482,"iles":4483,"Ġling":4484,"Ġlil":4485,"Ġluc":4486,"Ġluck":4487,"Ġnumb":4488,"stated":4489,"Ġeast":4490,"Ġell":4491,"Ġmoves":4492,"Ġstuck":4493,"imm":4494,"Ġrend":4495,"Ġrede":4496,"raid":4497,"chio":4498,"Ġyes":4499,"rian":4500,"riage":4501,"essions":4502,"Ġyouth":4503,"Ġsucc":4504,"Ġchilling":4505,"Ġjul":4506,"ager":4507,"agers":4508,"ghter":4509,"emy":4510,"Ġlived":4511,"Ġlikable":4512,"aky":4513,"istent":4514,"Ġhaw":4515,"Ġscorsese":4516,"aint":4517,"Ġkaufman":4518,"igg":4519,"anders":4520,"Ġru":4521,"Ġris":4522,"Ġric":4523,"Ġrises":4524,"Ġacts":4525,"Ġspring":4526,"Ġcloying":4527,"Ġmanage":4528,"acqu":4529,"Ġtook":4530,"comedy":4531,"Ġusing":4532,"Ġblock":4533,"Ġdish":4534,"ensional":4535,"Ġrace":4536,"Ġbrought":4537,"angle":4538,"Ġstring":4539,"Ġhearts":4540,"Ġmyth":4541,"Ġmyself":4542,"Ġbiggest":4543,"Ġminim":4544,"Ġcrass":4545,"Ġcrude":4546,"Ġobsc":4547,"Ġthrilling":4548,"autiful":4549,"beautiful":4550,"Ġlaughter":4551,"Ġhumorous":4552,"rowing":4553,"Ġcollection":4554,"Ġolder":4555,"Ġknowing":4556,"Ġappropri":4557,"Ġdepart":4558,"Ġmessages":4559,"Ġideal":4560,"Ġelo":4561,"Ġirres":4562,"Ġcreativity":4563,"Ġmartha":4564,"Ġmarriage":4565,"Ġdistract":4566,"Ġdistingu":4567,"Ġrefere":4568,"Ġpolanski":4569,"Ġevo":4570,"Ġbitter":4571,"Ġpersona":4572,"Ġmike":4573,"Ġsequels":4574,"Ġleaving":4575,"Ġdetails":4576,"Ġdetailed":4577,"Ġze":4578,"Ġwitch":4579,"Ġharvard":4580,"ographed":4581,"Ġelement":4582,"Ġfamilies":4583,"Ġbox":4584,"Ġcommun":4585,"Ġcapture":4586,"Ġconviction":4587,"Ġpotentially":4588,"Ġopening":4589,"works":4590,"ointed":4591,"Ġpatience":4592,"ographic":4593,"Ġcenter":4594,"ificial":4595,"apses":4596,"going":4597,"Ġfantas":4598,"Ġfantastic":4599,"Ġtrek":4600,"Ġbeneath":4601,"Ġbenigni":4602,"Ġfairy":4603,"Ġsuspenseful":4604,"Ġsigns":4605,"Ġrevealing":4606,"Ġwinds":4607,"Ġjew":4608,"Ġjeal":4609,"Ġspeaking":4610,"Ġcapable":4611,"Ġmadonna":4612,"Ġsympathy":4613,"board":4614,"Ġfollowing":4615,"Ġliterary":4616,"Ġresonant":4617,"Ġresonance":4618,"filled":4619,"Ġfaithful":4620,"Ġhomage":4621,"Ġkissinger":4622,"uddled":4623,"Ġunlikely":4624,"Ġimpression":4625,"Ġappreciate":4626,"Ġrhythms":4627,"Ġpreposterous":4628,"Ġbrutal":4629,"Ġcynical":4630,"Ġrespons":4631,"Ġvillain":4632,"Ġlogic":4633,"Ġfeaturing":4634,"Ġinflu":4635,"Ġspooky":4636,"Ġconsistently":4637,"Ġwasted":4638,"Ġstirring":4639,"Ġdespair":4640,"Ġharmless":4641,"Ġpinocchio":4642,"Ġcheesy":4643,"Ġcaptivating":4644,"Ġdazzling":4645,"Ġpreachy":4646,"Ġvulgar":4647,"Ġvisceral":4648,"aithful":4649,"Ġintensity":4650,"udicrous":4651,"ares":4652,"band":4653,"cal":4654,"don":4655,"dom":4656,"dim":4657,"eff":4658,"fam":4659,"gust":4660,"gressive":4661,"har":4662,"ira":4663,"ipe":4664,"ja":4665,"ka":4666,"mill":4667,"mitt":4668,"mod":4669,"near":4670,"numbers":4671,"ok":4672,"uable":4673,"yet":4674,"Ġ$":4675,"Ġtay":4676,"Ġtong":4677,"Ġtempt":4678,"Ġtasty":4679,"Ġav":4680,"Ġath":4681,"Ġade":4682,"ince":4683,"Ġsag":4684,"Ġsant":4685,"Ġsold":4686,"Ġfate":4687,"Ġfac":4688,"Ġfool":4689,"ene":4690,"Ġmou":4691,"Ġmount":4692,"Ġboo":4693,"Ġbab":4694,"Ġbite":4695,"Ġcu":4696,"Ġcas":4697,"Ġpair":4698,"Ġhun":4699,"icip":4700,"Ġinherent":4701,"edo":4702,"iliar":4703,"Ġlousy":4704,"Ġludicrous":4705,"Ġnasty":4706,"style":4707,"Ġeg":4708,"Ġevid":4709,"Ġeuro":4710,"asher":4711,"Ġstu":4712,"Ġstat":4713,"Ġstop":4714,"ray":4715,"Ġupl":4716,"these":4717,"Ġonto":4718,"Ġanth":4719,"Ġask":4720,"Ġasks":4721,"ads":4722,"Ġwhom":4723,"ooby":4724,"idly":4725,"ifying":4726,"Ġchron":4727,"thin":4728,"than":4729,"Ġheal":4730,"abe":4731,"ago":4732,"Ġsees":4733,"eman":4734,"Ġens":4735,"Ġenig":4736,"antial":4737,"Ġdealing":4738,"Ġunfortunately":4739,"Ġunimag":4740,"Ġscatt":4741,"ained":4742,"full":4743,"udge":4744,"Ġpress":4745,"Ġvague":4746,"Ġspent":4747,"Ġspider":4748,"Ġimmedi":4749,"Ġclo":4750,"Ġclot":4751,"Ġclarity":4752,"ief":4753,"ploy":4754,"hington":4755,"ppert":4756,"Ġmanh":4757,"Ġamused":4758,"orton":4759,"Ġflo":4760,"Ġflu":4761,"Ġfluff":4762,"perfect":4763,"Ġintoxic":4764,"Ġadam":4765,"Ġdirects":4766,"odes":4767,"Ġblow":4768,"Ġblair":4769,"Ġtimely":4770,"Ġoffbeat":4771,"Ġhumour":4772,"Ġslack":4773,"Ġslasher":4774,"Ġmeandering":4775,"neider":4776,"spirit":4777,"ocaust":4778,"Ġtales":4779,"Ġrealized":4780,"Ġrealize":4781,"Ġvide":4782,"Ġwashington":4783,"Ġteens":4784,"Ġsmile":4785,"Ġsmug":4786,"versive":4787,"Ġnews":4788,"Ġcontent":4789,"Ġhoward":4790,"lier":4791,"Ġ12":4792,"Ġheartwarming":4793,"Ġartists":4794,"Ġartificial":4795,"Ġresist":4796,"Ġcheer":4797,"Ġwars":4798,"Ġkey":4799,"Ġdownright":4800,"conom":4801,"conceived":4802,"Ġafric":4803,"Ġrelig":4804,"Ġcharms":4805,"Ġsatir":4806,"Ġsatur":4807,"Ġindian":4808,"Ġfinale":4809,"Ġbuilt":4810,"nov":4811,"Ġhorrible":4812,"Ġmemories":4813,"Ġevocative":4814,"Ġbroom":4815,"Ġbroken":4816,"Ġhappened":4817,"Ġanimal":4818,"without":4819,"Ġhandsome":4820,"Ġdemands":4821,"Ġportray":4822,"Ġwitness":4823,"Ġintermitt":4824,"Ġsouthern":4825,"Ġunfaithful":4826,"Ġsensual":4827,"Ġexpectations":4828,"offensive":4829,"Ġpopular":4830,"Ġassass":4831,"vised":4832,"Ġteenage":4833,"Ġinsights":4834,"Ġpathetic":4835,"Ġequal":4836,"Ġslowly":4837,"Ġaccur":4838,"Ġcounter":4839,"Ġwinner":4840,"Ġmainly":4841,"Ġhonesty":4842,"Ġbooks":4843,"Ġbasic":4844,"Ġsupporting":4845,"Ġjournal":4846,"Ġpaid":4847,"Ġunderstanding":4848,"Ġlifeless":4849,"Ġextravag":4850,"Ġtwisted":4851,"Ġliterally":4852,"Ġroller":4853,"Ġindep":4854,"Ġissue":4855,"Ġactresses":4856,"Ġtheaters":4857,"Ġtradition":4858,"Ġtraditional":4859,"Ġreminds":4860,"Ġdesperately":4861,"Ġpoignancy":4862,"Ġhybrid":4863,"Ġlyrical":4864,"Ġinev":4865,"Ġpathos":4866,"Ġreleased":4867,"Ġdeterm":4868,"Ġingred":4869,"Ġtears":4870,"Ġpulp":4871,"Ġpacked":4872,"Ġfrontal":4873,"Ġpuzz":4874,"Ġtotally":4875,"Ġcloser":4876,"Ġlady":4877,"Ġguns":4878,"Ġrequired":4879,"Ġcostumes":4880,"Ġrhythm":4881,"Ġsacrif":4882,"Ġcandy":4883,"Ġuninspired":4884,"Ġscreenwriting":4885,"Ġlawrence":4886,"irthday":4887,"Ġembarrassment":4888,"Ġobservations":4889,"Ġstereotypes":4890,"craft":4891,"Ġbanal":4892,"Ġwilde":4893,"drama":4894,"Ġordinary":4895,"Ġhusband":4896,"Ġcommentary":4897,"Ġuncomfort":4898,"Ġsilliness":4899,"Ġdickens":4900,"Ġanalyze":4901,"Ġvampire":4902,"Ġnostalgia":4903,"Ġfalse":4904,"Ġrepeated":4905,"Ġdegree":4906,"Ġfisher":4907,"Ġwacky":4908,"Ġredeem":4909,"dimensional":4910,"Ġsanta":4911,"bet":4912,"bid":4913,"bered":4914,"eve":4915,"fty":4916,"feld":4917,"ham":4918,"hang":4919,"hash":4920,"house":4921,"jointed":4922,"lock":4923,"mal":4924,"met":4925,"mare":4926,"none":4927,"oons":4928,"part":4929,"prise":4930,"pathetic":4931,"sl":4932,"sol":4933,"tri":4934,"wit":4935,"ya":4936,"zog":4937,"Ġtend":4938,"Ġtuck":4939,"inching":4940,"Ġsly":4941,"Ġsell":4942,"Ġsend":4943,"Ġoli":4944,"ites":4945,"Ġfanc":4946,"Ġfield":4947,"Ġmisf":4948,"Ġmiller":4949,"Ġbes":4950,"Ġbour":4951,"Ġbound":4952,"Ġbang":4953,"Ġbath":4954,"Ġbase":4955,"Ġwra":4956,"oul":4957,"anes":4958,"Ġdv":4959,"Ġdue":4960,"Ġdub":4961,"Ġdrown":4962,"Ġdancing":4963,"Ġdirty":4964,"lyn":4965,"Ġhong":4966,"Ġhint":4967,"Ġhost":4968,"icing":4969,"Ġincon":4970,"Ġinane":4971,"Ġincomp":4972,"Ġinoffensive":4973,"Ġlane":4974,"sts":4975,"still":4976,"stopp":4977,"Ġeight":4978,"Ġeconom":4979,"Ġgos":4980,"Ġgore":4981,"Ġgender":4982,"Ġstiff":4983,"video":4984,"Ġrele":4985,"Ġreaction":4986,"rarely":4987,"Ġonscreen":4988,"ola":4989,"olation":4990,"sey":4991,"Ġwhims":4992,"Ġwhimsy":4993,"ooper":4994,"Ġali":4995,"Ġalab":4996,"Ġheld":4997,"Ġheard":4998,"abashed":4999,"ume":5000,"umm":5001,"umin":5002,"umps":5003,"Ġseven":5004,"ousing":5005,"Ġenvi":5006,"Ġenorm":5007,"urs":5008,"Ġintric":5009,"Ġlie":5010,"Ġexceed":5011,"outs":5012,"romising":5013,"antino":5014,"estic":5015,"Ġunre":5016,"Ġunless":5017,"Ġuncomp":5018,"Ġunabashed":5019,"Ġneat":5020,"Ġscott":5021,"Ġconc":5022,"Ġconve":5023,"pered":5024,"Ġkong":5025,"usive":5026,"Ġproper":5027,"Ġrat":5028,"Ġrush":5029,"Ġthank":5030,"Ġsomber":5031,"inducing":5032,"Ġleon":5033,"Ġprefer":5034,"ffic":5035,"Ġvent":5036,"Ġspan":5037,"Ġspir":5038,"Ġspare":5039,"Ġspite":5040,"Ġclock":5041,"place":5042,"ppings":5043,"Ġoutside":5044,"manages":5045,"Ġtrite":5046,"Ġlovers":5047,"inee":5048,"Ġnoir":5049,"Ġupd":5050,"ache":5051,"Ġjustify":5052,"Ġpoem":5053,"Ġrow":5054,"izations":5055,"Ġdisplay":5056,"Ġdisbelie":5057,"rying":5058,"who":5059,"why":5060,"Ġmeat":5061,"Ġsubversive":5062,"ocused":5063,"oster":5064,"Ġremote":5065,"Ġmatinee":5066,"Ġcontext":5067,"Ġpecul":5068,"Ġtrappings":5069,"Ġ100":5070,"urning":5071,"Ġartif":5072,"Ġcrim":5073,"Ġobno":5074,"Ġcharacterizations":5075,"Ġhollow":5076,"Ġholocaust":5077,"Ġaware":5078,"Ġgrasp":5079,"Ġclean":5080,"Ġafraid":5081,"Ġrelies":5082,"Ġpretension":5083,"Ġamericans":5084,"ibal":5085,"Ġengage":5086,"Ġbelongs":5087,"Ġlaughing":5088,"Ġturning":5089,"Ġfinest":5090,"Ġiron":5091,"Ġformat":5092,"apping":5093,"meaning":5094,"Ġdistance":5095,"Ġpolished":5096,"directed":5097,"Ġproduc":5098,"Ġcrap":5099,"Ġmelanch":5100,"Ġmixt":5101,"Ġmonsters":5102,"Ġsaying":5103,"Ġtouches":5104,"Ġ197":5105,"Ġhands":5106,"attan":5107,"Ġharry":5108,"Ġstartling":5109,"Ġsaving":5110,"incent":5111,"Ġspirited":5112,"Ġsmarter":5113,"Ġparable":5114,"Ġparody":5115,"Ġcommitted":5116,"Ġadds":5117,"Ġconfron":5118,"Ġmissed":5119,"Ġinspire":5120,"Ġmenace":5121,"Ġcliched":5122,"Ġambition":5123,"Ġteenagers":5124,"Ġhelps":5125,"entioned":5126,"Ġhonestly":5127,"Ġlarger":5128,"Ġcutting":5129,"Ġterrifying":5130,"Ġstylized":5131,"Ġcalcul":5132,"Ġimportance":5133,"rida":5134,"Ġhopeful":5135,"Ġdisappointed":5136,"Ġsubstit":5137,"Ġunderstands":5138,"Ġnightmare":5139,"Ġhopkins":5140,"Ġsymbol":5141,"Ġbringing":5142,"Ġtechnology":5143,"Ġgrandeur":5144,"Ġproviding":5145,"Ġimprob":5146,"Ġsubtlety":5147,"Ġsophom":5148,"Ġfigures":5149,"Ġcourt":5150,"Ġgodard":5151,"gener":5152,"Ġballistic":5153,"Ġphotography":5154,"Ġearlier":5155,"Ġendeavor":5156,"Ġrevelatory":5157,"aughter":5158,"Ġcontinues":5159,"Ġ51":5160,"Ġtiming":5161,"Ġcuriosity":5162,"Ġpredecessors":5163,"Ġsuggests":5164,"maybe":5165,"Ġrewarding":5166,"Ġshadow":5167,"Ġconstantly":5168,"Ġvictims":5169,"Ġlocal":5170,"Ġinexplic":5171,"imagine":5172,"human":5173,"Ġticket":5174,"Ġcrisp":5175,"Ġdistinctive":5176,"Ġencounter":5177,"Ġrelentless":5178,"Ġtranscends":5179,"Ġdrugs":5180,"Ġinnocence":5181,"Ġpianist":5182,"Ġelegant":5183,"Ġunintentional":5184,"Ġanswers":5185,"Ġplanet":5186,"Ġcompetent":5187,"Ġsketch":5188,"Ġundeniably":5189,"Ġlanguage":5190,"Ġheartbreaking":5191,"Ġachievement":5192,"Ġplodding":5193,"Ġenterprise":5194,"Ġsignificant":5195,"culture":5196,"Ġbleak":5197,"talkers":5198,"Ġaustin":5199,"Ġconsciousness":5200,"Ġproceedings":5201,"Ġgradually":5202,"Ġdiversion":5203,"Ġdysfunct":5204,"american":5205,"Ġshakespeare":5206,"Ġstrictly":5207,"Ġincoherent":5208,"Ġcontrivances":5209,"Ġdevastating":5210,"often":5211,"Ġwannabe":5212,"original":5213,"oriented":5214,"Ġinhab":5215,"redictable":5216,"Ġtuxedo":5217,"Ġzeal":5218,"Ġjealousy":5219,"Ġmanhattan":5220,"spirited":5221,"Ġsaturday":5222,"Ġingredients":5223,"Ġwhimsical":5224,"Ġalabama":5225,"Ġdisbelief":5226,"Ġmixture":5227,"bal":5228,"bur":5229,"bell":5230,"brow":5231,"can":5232,"cock":5233,"dro":5234,"dem":5235,"effect":5236,"fr":5237,"far":5238,"free":5239,"gs":5240,"his":5241,"hor":5242,"iant":5243,"iently":5244,"jud":5245,"kill":5246,"list":5247,"lig":5248,"loud":5249,"makes":5250,"nest":5251,"och":5252,"occ":5253,"po":5254,"pic":5255,"paced":5256,"sily":5257,"ta":5258,"town":5259,"under":5260,"urable":5261,"van":5262,"vity":5263,"wis":5264,"would":5265,"Ġton":5266,"Ġtem":5267,"Ġtap":5268,"Ġtaut":5269,"Ġai":5270,"Ġach":5271,"ini":5272,"inn":5273,"iner":5274,"hey":5275,"hered":5276,"herence":5277,"Ġsar":5278,"Ġsara":5279,"rey":5280,"Ġod":5281,"Ġfund":5282,"Ġfizz":5283,"ener":5284,"Ġbul":5285,"Ġbuddy":5286,"Ġcable":5287,"Ġcath":5288,"Ġciv":5289,"Ġcorn":5290,"Ġwow":5291,"Ġwils":5292,"orter":5293,"Ġpy":5294,"Ġpad":5295,"Ġpse":5296,"anz":5297,"Ġdud":5298,"Ġdies":5299,"Ġdrop":5300,"arante":5301,"Ġthick":5302,"lym":5303,"Ġhart":5304,"lets":5305,"ication":5306,"icago":5307,"Ġinform":5308,"Ġincons":5309,"Ġinnov":5310,"Ġlimp":5311,"Ġlump":5312,"omp":5313,"Ġnom":5314,"Ġnation":5315,"stop":5316,"step":5317,"stract":5318,"starts":5319,"Ġgag":5320,"Ġgory":5321,"Ġgimm":5322,"Ġisland":5323,"asive":5324,"Ġstaged":5325,"Ġstops":5326,"imer":5327,"Ġreview":5328,"cho":5329,"etnam":5330,"ridden":5331,"Ġforces":5332,"Ġsuit":5333,"Ġsund":5334,"irms":5335,"iding":5336,"ifty":5337,"Ġchilly":5338,"Ġhey":5339,"Ġjon":5340,"Ġjim":5341,"Ġjag":5342,"uments":5343,"ummy":5344,"Ġseve":5345,"urance":5346,"Ġexotic":5347,"Ġshyamalan":5348,"Ġabandon":5349,"Ġabstract":5350,"Ġunne":5351,"Ġunner":5352,"Ġunbear":5353,"Ġscrew":5354,"Ġconvey":5355,"Ġconsequ":5356,"pecc":5357,"Ġkill":5358,"Ġkung":5359,"Ġkilled":5360,"Ġsoci":5361,"Ġsoggy":5362,"apur":5363,"forward":5364,"Ġrit":5365,"Ġrise":5366,"opic":5367,"Ġactual":5368,"udo":5369,"Ġprecise":5370,"Ġvincent":5371,"Ġpercept":5372,"Ġperverse":5373,"Ġorder":5374,"acked":5375,"Ġimage":5376,"Ġclub":5377,"Ġclaust":5378,"manship":5379,"Ġloves":5380,"acc":5381,"Ġanywhere":5382,"Ġcomparis":5383,"ilet":5384,"Ġroots":5385,"eping":5386,"Ġoverlong":5387,"Ġdismiss":5388,"Ġdiscovery":5389,"Ġdisgust":5390,"Ġoffice":5391,"Ġslip":5392,"Ġfaces":5393,"ensely":5394,"Ġvietnam":5395,"Ġgenres":5396,"Ġendless":5397,"Ġdramat":5398,"Ġseemed":5399,"Ġseemingly":5400,"renching":5401,"Ġherzog":5402,"inking":5403,"Ġunderstated":5404,"Ġfamous":5405,"Ġshowtime":5406,"Ġaward":5407,"Ġcover":5408,"Ġcock":5409,"Ġattitude":5410,"Ġscenery":5411,"athers":5412,"gettable":5413,"Ġterribly":5414,"Ġgraphic":5415,"gger":5416,"ggio":5417,"ibilities":5418,"Ġbelly":5419,"Ġknowledge":5420,"Ġdepict":5421,"Ġkiddie":5422,"Ġcarefully":5423,"Ġelabor":5424,"Ġkeeping":5425,"Ġshel":5426,"Ġeffectively":5427,"Ġirish":5428,"ateral":5429,"Ġacad":5430,"Ġpolice":5431,"aneke":5432,"Ġfrida":5433,"cessary":5434,"Ġcarvey":5435,"struction":5436,"Ġbiting":5437,"Ġschneider":5438,"Ġcultures":5439,"Ġcreation":5440,"Ġsuperb":5441,"Ġsilence":5442,"Ġhappiness":5443,"Ġchildhood":5444,"Ġgenerate":5445,"Ġwrote":5446,"Ġwondering":5447,"Ġportrayal":5448,"quee":5449,"Ġstarted":5450,"Ġexpert":5451,"Ġpredictably":5452,"Ġinterview":5453,"Ġborrow":5454,"Ġborder":5455,"Ġfeatures":5456,"Ġparad":5457,"Ġsadness":5458,"Ġunfolds":5459,"Ġunfocused":5460,"Ġleaden":5461,"Ġsensational":5462,"Ġunsatisf":5463,"Ġconvinc":5464,"Ġconvolut":5465,"Ġpotent":5466,"Ġmisses":5467,"Ġmasterful":5468,"Ġredund":5469,"Ġdahmer":5470,"Ġsatisfy":5471,"visually":5472,"Ġadmit":5473,"Ġdramatically":5474,"Ġcredible":5475,"Ġcredibility":5476,"Ġsnap":5477,"Ġbrief":5478,"anyone":5479,"Ġheroine":5480,"Ġdrags":5481,"Ġdifference":5482,"ropol":5483,"Ġdrum":5484,"Ġcuts":5485,"Ġmetropol":5486,"Ġstylistic":5487,"Ġreveal":5488,"Ġbrilliantly":5489,"Ġstunt":5490,"Ġwriters":5491,"umpkin":5492,"alloween":5493,"Ġwindow":5494,"Ġstrike":5495,"Ġjean":5496,"Ġangel":5497,"Ġrestra":5498,"Ġexplores":5499,"Ġexploitation":5500,"Ġmadness":5501,"Ġcorrect":5502,"Ġinstall":5503,"Ġinstinct":5504,"Ġshocking":5505,"Ġvirtues":5506,"Ġconduct":5507,"Ġpossess":5508,"Ġbloody":5509,"Ġimprove":5510,"Ġtestament":5511,"Ġtheatre":5512,"Ġtheatrical":5513,"Ġfighting":5514,"Ġcontempl":5515,"Ġcopy":5516,"Ġdestination":5517,"Ġexistence":5518,"Ġexistential":5519,"Ġinspirational":5520,"Ġhyper":5521,"Ġ40":5522,"charine":5523,"Ġshooting":5524,"Ġcelebrates":5525,"Ġvarious":5526,"Ġdelivering":5527,"Ġpalma":5528,"Ġlimited":5529,"Ġvividly":5530,"Ġpitch":5531,"Ġcharismatic":5532,"Ġflashy":5533,"Ġwoody":5534,"Ġnerve":5535,"Ġforgive":5536,"Ġnecessarily":5537,"Ġlegend":5538,"Ġdraws":5539,"Ġ50":5540,"Ġgift":5541,"Ġgifted":5542,"Ġdanger":5543,"Ġconstant":5544,"Ġvictim":5545,"Ġsaccharine":5546,"Ġfrailty":5547,"Ġescapism":5548,"Ġestabl":5549,"Ġnuanced":5550,"Ġethnic":5551,"Ġscratch":5552,"Ġprivate":5553,"Ġdomestic":5554,"Ġrelentlessly":5555,"Ġfrightening":5556,"smart":5557,"Ġfreaks":5558,"Ġpiano":5559,"Ġimplaus":5560,"Ġsmooth":5561,"Ġapparently":5562,"Ġmagnific":5563,"Ġunintentionally":5564,"Ġobsession":5565,"Ġpedest":5566,"Ġnicholas":5567,"Ġprogram":5568,"Ġcontradict":5569,"dowell":5570,"Ġfleet":5571,"Ġrandom":5572,"Ġhorrifying":5573,"Ġsplendid":5574,"Ġremembered":5575,"Ġlandscape":5576,"Ġbreathtaking":5577,"Ġchaotic":5578,"Ġunflinching":5579,"Ġingenious":5580,"Ġbreezy":5581,"Ġrendered":5582,"beautifully":5583,"Ġtongue":5584,"Ġathlet":5585,"Ġadequ":5586,"Ġsaga":5587,"Ġcasual":5588,"Ġeurope":5589,"Ġstuart":5590,"Ġuplifting":5591,"Ġunimaginative":5592,"Ġintoxicating":5593,"Ġindependent":5594,"Ġenviron":5595,"Ġuncompromising":5596,"Ġobnoxious":5597,"Ġdysfunctional":5598,"Ġinhabit":5599,"Ġfundament":5600,"Ġwilson":5601,"Ġpseudo":5602,"Ġunnecessary":5603,"Ġclaustro":5604,"19":5605,"aa":5606,"aim":5607,"agh":5608,"aul":5609,"aude":5610,"aeff":5611,"ben":5612,"bes":5613,"bro":5614,"big":5615,"bust":5616,"born":5617,"balls":5618,"city":5619,"dr":5620,"dan":5621,"ean":5622,"fin":5623,"fire":5624,"fell":5625,"fans":5626,"first":5627,"filling":5628,"gl":5629,"half":5630,"ij":5631,"iated":5632,"ls":5633,"lom":5634,"lse":5635,"lines":5636,"luster":5637,"mur":5638,"matic":5639,"nia":5640,"natural":5641,"tis":5642,"ught":5643,"uation":5644,"uated":5645,"uber":5646,"vol":5647,"vous":5648,"wone":5649,"Ġtro":5650,"Ġtatt":5651,"Ġaute":5652,"Ġahead":5653,"inist":5654,"Ġsne":5655,"Ġsays":5656,"Ġsink":5657,"Ġseld":5658,"Ġode":5659,"erv":5660,"erge":5661,"Ġfo":5662,"Ġfing":5663,"Ġfake":5664,"Ġfellow":5665,"isive":5666,"Ġmam":5667,"athing":5668,"Ġbard":5669,"Ġbomb":5670,"Ġcgi":5671,"Ġcaine":5672,"Ġwick":5673,"Ġwound":5674,"Ġwins":5675,"onel":5676,"Ġpage":5677,"Ġpatch":5678,"Ġpays":5679,"Ġphen":5680,"anity":5681,"Ġdut":5682,"Ġdong":5683,"Ġdying":5684,"Ġdroll":5685,"Ġdavis":5686,"arian":5687,"alle":5688,"almost":5689,"Ġhat":5690,"Ġhann":5691,"Ġhalloween":5692,"ica":5693,"Ġtodd":5694,"Ġtoler":5695,"Ġinfect":5696,"ilted":5697,"Ġlu":5698,"Ġlun":5699,"Ġlower":5700,"omen":5701,"omnia":5702,"Ġnam":5703,"Ġnap":5704,"stem":5705,"Ġet":5706,"Ġelect":5707,"Ġgy":5708,"Ġgli":5709,"uted":5710,"entimental":5711,"ask":5712,"asons":5713,"asured":5714,"Ġstatic":5715,"Ġbeast":5716,"Ġreel":5717,"Ġreign":5718,"Ġreject":5719,"raw":5720,"rael":5721,"thet":5722,"thew":5723,"rob":5724,"rovers":5725,"ules":5726,"Ġfilling":5727,"Ġanch":5728,"etime":5729,"ette":5730,"olic":5731,"sex":5732,"seem":5733,"Ġsudden":5734,"idi":5735,"idel":5736,"idence":5737,"ift":5738,"Ġchab":5739,"Ġchoose":5740,"Ġchills":5741,"Ġchina":5742,"thought":5743,"Ġheight":5744,"abeth":5745,"unky":5746,"unchy":5747,"Ġjan":5748,"Ġjar":5749,"Ġjun":5750,"Ġjacqu":5751,"umes":5752,"Ġsepar":5753,"Ġsemi":5754,"urban":5755,"Ġlips":5756,"Ġexuber":5757,"Ġsho":5758,"Ġshr":5759,"Ġship":5760,"Ġabuse":5761,"Ġunrel":5762,"Ġunbelie":5763,"Ġscale":5764,"Ġconj":5765,"Ġconco":5766,"aining":5767,"Ġknew":5768,"usions":5769,"formed":5770,"Ġcharlie":5771,"Ġround":5772,"Ġrules":5773,"inds":5774,"Ġprev":5775,"Ġvit":5776,"Ġvast":5777,"Ġvap":5778,"Ġvint":5779,"Ġvital":5780,"Ġspont":5781,"Ġperpet":5782,"ption":5783,"Ġimitation":5784,"Ġimpecc":5785,"Ġclin":5786,"Ġclunk":5787,"placed":5788,"Ġmann":5789,"Ġmanaged":5790,"Ġamy":5791,"Ġamuse":5792,"Ġque":5793,"Ġtrust":5794,"Ġnoble":5795,"Ġarrest":5796,"ogy":5797,"perhaps":5798,"Ġadv":5799,"Ġsomebody":5800,"Ġanyway":5801,"ntown":5802,"oyan":5803,"Ġentry":5804,"Ġrose":5805,"Ġrohmer":5806,"izabeth":5807,"Ġemploy":5808,"Ġemerge":5809,"Ġdisjointed":5810,"intentioned":5811,"Ġmeant":5812,"Ġmeets":5813,"Ġmeasure":5814,"Ġsubpl":5815,"Ġlooked":5816,"ocity":5817,"ostor":5818,"Ġnevertheless":5819,"resses":5820,"phob":5821,"Ġserial":5822,"show":5823,"Ġseeking":5824,"Ġherself":5825,"Ġmature":5826,"Ġentertained":5827,"Ġcontrovers":5828,"Ġaggressive":5829,"Ġtrapped":5830,"Ġplotted":5831,"athan":5832,"Ġarts":5833,"Ġcrud":5834,"Ġcheese":5835,"Ġthrillers":5836,"mering":5837,"Ġwarning":5838,"aware":5839,"Ġcoherent":5840,"Ġlaug":5841,"conf":5842,"Ġgrab":5843,"Ġcolors":5844,"Ġappl":5845,"Ġcares":5846,"Ġguarante":5847,"Ġlackluster":5848,"avish":5849,"Ġglo":5850,"Ġglor":5851,"Ġglory":5852,"Ġelizabeth":5853,"Ġextended":5854,"Ġirony":5855,"Ġbuoyant":5856,"Ġrefuses":5857,"aneously":5858,"Ġhoot":5859,"Ġproduce":5860,"Ġexperiment":5861,"Ġsolaris":5862,"Ġyounger":5863,"Ġdeliber":5864,"Ġmonot":5865,"Ġminds":5866,"Ġtouched":5867,"Ġdidactic":5868,"Ġhandful":5869,"Ġdarkly":5870,"Ġharrowing":5871,"Ġintern":5872,"Ġstrain":5873,"Ġbrand":5874,"proof":5875,"Ġboom":5876,"Ġparade":5877,"Ġparano":5878,"Ġunsentimental":5879,"Ġretro":5880,"Ġreturns":5881,"Ġengaged":5882,"Ġsystem":5883,"world":5884,"Ġwilder":5885,"Ġpatient":5886,"Ġquirks":5887,"Ġtransl":5888,"Ġsteam":5889,"Ġsimilar":5890,"Ġsimplic":5891,"Ġsubtly":5892,"Ġdelightfully":5893,"Ġbrid":5894,"Ġodds":5895,"Ġready":5896,"Ġdeadly":5897,"Ġdeadpan":5898,"Ġillustr":5899,"Ġmysteries":5900,"Ġpsychology":5901,"remely":5902,"blown":5903,"Ġhitch":5904,"Ġrichly":5905,"Ġfollows":5906,"Ġsuffering":5907,"urpris":5908,"Ġdogs":5909,"Ġspeaks":5910,"Ġdenying":5911,"Ġsubstantial":5912,"Ġ80":5913,"Ġhoping":5914,"Ġlifetime":5915,"Ġletting":5916,"ienced":5917,"Ġexecuted":5918,"Ġtopic":5919,"Ġnonetheless":5920,"Ġmedium":5921,"Ġverve":5922,"Ġdelicious":5923,"overall":5924,"Ġbusy":5925,"Ġjoyous":5926,"Ġerr":5927,"Ġphilip":5928,"Ġfights":5929,"Ġdesperation":5930,"Ġlistless":5931,"Ġpresented":5932,"Ġinspiration":5933,"Ġcritical":5934,"Ġcritics":5935,"Ġhaunted":5936,"Ġamounts":5937,"Ġenthr":5938,"Ġbuilding":5939,"Ġthrows":5940,"Ġcomplications":5941,"Ġopportun":5942,"Ġavoids":5943,"affirming":5944,"Ġchallenges":5945,"Ġconcern":5946,"Ġclumsily":5947,"Ġlocations":5948,"Ġcostume":5949,"Ġbrutally":5950,"something":5951,"Ġcrisis":5952,"Ġphilosop":5953,"Ġrental":5954,"sequential":5955,"Ġuncertain":5956,"Ġsettles":5957,"ersonal":5958,"Ġtrashy":5959,"Ġsurrounding":5960,"Ġscreenwriters":5961,"Ġguessing":5962,"worthy":5963,"Ġenthusiasm":5964,"hollywood":5965,"Ġchanging":5966,"Ġundeniable":5967,"Ġhallmark":5968,"Ġarrives":5969,"Ġconsidering":5970,"Ġoptim":5971,"Ġpraise":5972,"Ġdivine":5973,"Ġrussian":5974,"suffers":5975,"Ġresembles":5976,"Ġscores":5977,"Ġdispos":5978,"Ġphysical":5979,"Ġicon":5980,"Ġnickleby":5981,"Ġgerman":5982,"Ġaspir":5983,"Ġbenefit":5984,"Ġexploitative":5985,"rehensible":5986,"Ġhaynes":5987,"Ġsobering":5988,"Ġglossy":5989,"Ġtremend":5990,"Ġsanct":5991,"Ġsisterhood":5992,"Ġcategory":5993,"Ġintegrity":5994,"Ġbaffling":5995,"Ġricher":5996,"Ġminimal":5997,"Ġirresist":5998,"Ġreferences":5999,"Ġmouth":6000,"Ġscattered":6001,"Ġclooney":6002,"Ġafrican":6003,"Ġsatirical":6004,"Ġinevitable":6005,"Ġdetermination":6006,"Ġfanciful":6007,"Ġbourne":6008,"Ġintricate":6009,"Ġpeculiar":6010,"Ġgimmick":6011,"Ġunnerving":6012,"Ġcomparison":6013,"Ġelaborate":6014,"Ġeuropean":6015,"Ġenvironment":6016,"Ġclaustrophob":6017,"aeffer":6018,"lsea":6019,"Ġphenomen":6020,"Ġnamed":6021,"Ġvintage":6022,"Ġspontane":6023,"Ġimpeccable":6024,"Ġsimplicity":6025,"aver":6026,"bum":6027,"bound":6028,"bted":6029,"backs":6030,"car":6031,"cil":6032,"could":6033,"certain":6034,"cute":6035,"count":6036,"ee":6037,"egger":6038,"fan":6039,"fall":6040,"faced":6041,"gn":6042,"gid":6043,"gant":6044,"god":6045,"iro":6046,"iers":6047,"iable":6048,"iating":6049,"ket":6050,"kind":6051,"lan":6052,"mor":6053,"member":6054,"nair":6055,"oved":6056,"pass":6057,"power":6058,"rity":6059,"sa":6060,"sad":6061,"sweet":6062,"tar":6063,"tun":6064,"take":6065,"takes":6066,"vincing":6067,"wa":6068,"zzy":6069,"Ġ6":6070,"Ġq":6071,"Ġtout":6072,"Ġtast":6073,"Ġties":6074,"Ġtang":6075,"Ġtread":6076,"Ġtask":6077,"Ġaes":6078,"Ġapt":6079,"Ġawe":6080,"Ġaims":6081,"inis":6082,"infeld":6083,"heavy":6084,"Ġske":6085,"rec":6086,"ref":6087,"rend":6088,"Ġoh":6089,"erie":6090,"itz":6091,"Ġfence":6092,"Ġfict":6093,"Ġfred":6094,"Ġfaster":6095,"Ġfancy":6096,"iso":6097,"isse":6098,"eningly":6099,"Ġmcc":6100,"atur":6101,"atile":6102,"Ġbon":6103,"Ġbot":6104,"Ġbone":6105,"Ġbirthday":6106,"Ġcy":6107,"Ġcad":6108,"Ġcere":6109,"Ġcaught":6110,"Ġwet":6111,"Ġwid":6112,"oned":6113,"oubted":6114,"Ġpor":6115,"Ġporn":6116,"Ġdad":6117,"Ġdust":6118,"Ġdare":6119,"Ġdign":6120,"Ġdoll":6121,"arching":6122,"Ġthorn":6123,"Ġthrown":6124,"Ġhust":6125,"leck":6126,"Ġinsec":6127,"edies":6128,"Ġlater":6129,"Ġlamp":6130,"Ġlonel":6131,"stac":6132,"Ġeager":6133,"Ġgle":6134,"Ġgoth":6135,"Ġgigg":6136,"Ġisrael":6137,"elson":6138,"Ġmoth":6139,"Ġmold":6140,"Ġmoved":6141,"Ġmoody":6142,"ashes":6143,"asionally":6144,"otion":6145,"Ġstim":6146,"Ġstro":6147,"Ġstag":6148,"Ġstore":6149,"Ġstilted":6150,"imony":6151,"Ġbeach":6152,"vial":6153,"Ġreli":6154,"Ġreasons":6155,"rah":6156,"raging":6157,"Ġasian":6158,"rium":6159,"olly":6160,"Ġforth":6161,"Ġbutter":6162,"Ġwhale":6163,"Ġwholes":6164,"oochy":6165,"Ġsuited":6166,"irot":6167,"idt":6168,"Ġchore":6169,"Ġchiller":6170,"Ġchoppy":6171,"Ġchases":6172,"ami":6173,"Ġheat":6174,"unlike":6175,"Ġjane":6176,"agand":6177,"Ġsept":6178,"emic":6179,"emark":6180,"Ġenh":6181,"urous":6182,"Ġexagger":6183,"aki":6184,"Ġshim":6185,"Ġshines":6186,"quiet":6187,"Ġnote":6188,"Ġdope":6189,"Ġdoses":6190,"anter":6191,"Ġunful":6192,"Ġunoriginal":6193,"Ġneigh":6194,"Ġscooby":6195,"Ġconven":6196,"Ġkos":6197,"Ġkah":6198,"Ġkenn":6199,"ushing":6200,"Ġcharmer":6201,"Ġprovo":6202,"Ġrings":6203,"Ġrote":6204,"Ġrousing":6205,"opath":6206,"Ġlegged":6207,"Ġvel":6208,"Ġorgan":6209,"pton":6210,"Ġoutstanding":6211,"Ġamid":6212,"Ġquart":6213,"Ġtricks":6214,"Ġloyal":6215,"Ġweep":6216,"Ġweeks":6217,"acino":6218,"Ġfles":6219,"Ġadams":6220,"Ġadvant":6221,"Ġgoodfell":6222,"odic":6223,"Ġcomprom":6224,"Ġcannes":6225,"Ġpool":6226,"Ġblast":6227,"Ġblind":6228,"Ġblues":6229,"Ġblank":6230,"epid":6231,"ultaneously":6232,"Ġdiscer":6233,"Ġdiscover":6234,"ounding":6235,"Ġslog":6236,"ishment":6237,"ipes":6238,"Ġracial":6239,"Ġraunchy":6240,"Ġmeet":6241,"Ġripe":6242,"atically":6243,"Ġendlessly":6244,"ression":6245,"Ġbruce":6246,"Ġtech":6247,"Ġsmoochy":6248,"Ġserve":6249,"Ġcontains":6250,"Ġpeek":6251,"eresting":6252,"Ġundercut":6253,"Ġlonging":6254,"Ġpartly":6255,"Ġparticip":6256,"Ġyearning":6257,"Ġarticul":6258,"Ġjoe":6259,"Ġresolutely":6260,"Ġcharacterization":6261,"Ġchew":6262,"Ġchelsea":6263,"Ġinsane":6264,"Ġvisit":6265,"Ġgrat":6266,"Ġgib":6267,"tech":6268,"Ġcletis":6269,"Ġtried":6270,"Ġtriangle":6271,"construct":6272,"Ġhumorless":6273,"gets":6274,"umbles":6275,"ission":6276,"Ġlesser":6277,"gging":6278,"Ġdocumentaries":6279,"Ġplayers":6280,"Ġbelow":6281,"Ġlaughable":6282,"Ġapply":6283,"Ġappet":6284,"Ġmessy":6285,"Ġprinc":6286,"Ġcareful":6287,"Ġindulgent":6288,"Ġultra":6289,"Ġpleasing":6290,"Ġdrab":6291,"Ġskip":6292,"Ġironic":6293,"Ġreput":6294,"Ġmarginal":6295,"Ġexplore":6296,"Ġdecided":6297,"Ġeasier":6298,"Ġ21":6299,"Ġcarry":6300,"Ġrunner":6301,"Ġeddie":6302,"Ġschwar":6303,"Ġsuperbly":6304,"Ġsupernatural":6305,"Ġsilver":6306,"Ġbros":6307,"Ġhappening":6308,"Ġhalfway":6309,"Ġswallow":6310,"Ġdemographic":6311,"Ġportrays":6312,"Ġsweetness":6313,"Ġzhang":6314,"Ġharsh":6315,"Ġharris":6316,"Ġelev":6317,"Ġinterpret":6318,"Ġcleverness":6319,"Ġlightweight":6320,"Ġdefe":6321,"Ġsmartly":6322,"Ġbob":6323,"Ġbarrel":6324,"Ġundis":6325,"Ġleading":6326,"Ġconvict":6327,"Ġpotter":6328,"arently":6329,"Ġdaytime":6330,"Ġmasterfully":6331,"Ġredempt":6332,"Ġheads":6333,"Ġbehold":6334,"Ġtragedies":6335,"Ġfactor":6336,"opping":6337,"Ġtransform":6338,"Ġaccent":6339,"Ġstead":6340,"urid":6341,"Ġsubtit":6342,"Ġmiserable":6343,"Ġproblematic":6344,"Ġtreats":6345,"Ġbasically":6346,"Ġbride":6347,"Ġheroes":6348,"Ġadventures":6349,"Ġdragons":6350,"Ġwave":6351,"Ġantwone":6352,"Ġcomedian":6353,"Ġmysterious":6354,"blood":6355,"Ġclosely":6356,"hetto":6357,"Ġsouls":6358,"Ġwindtalkers":6359,"Ġstrikes":6360,"ettes":6361,"Ġjackie":6362,"Ġurgen":6363,"Ġspears":6364,"Ġexceptional":6365,"Ġexceptionally":6366,"Ġfourth":6367,"Ġstraightforward":6368,"Ġcorny":6369,"Ġcorner":6370,"Ġcartoons":6371,"Ġpayoff":6372,"Ġderrida":6373,"Ġinstantly":6374,"Ġnights":6375,"grade":6376,"Ġhoped":6377,"Ġsympathetic":6378,"Ġauto":6379,"Ġhugh":6380,"Ġhuppert":6381,"Ġmomentum":6382,"Ġtechnique":6383,"Ġtarantino":6384,"Ġcondesc":6385,"Ġfocused":6386,"Ġdelicately":6387,"Ġbritney":6388,"Ġweirdly":6389,"Ġdepths":6390,"Ġtrademark":6391,"given":6392,"Ġerotic":6393,"Ġunpredictable":6394,"Ġreminder":6395,"Ġcollabor":6396,"Ġtelegra":6397,"Ġdestr":6398,"Ġdestined":6399,"Ġlisten":6400,"Ġintimacy":6401,"Ġpropagand":6402,"Ġphotographed":6403,"Ġpresentation":6404,"charact":6405,"Ġrespectable":6406,"Ġattractive":6407,"Ġcelebration":6408,"Ġ300":6409,"Ġessence":6410,"Ġmerit":6411,"Ġheavi":6412,"Ġknown":6413,"Ġvoices":6414,"Ġvariety":6415,"Ġwooden":6416,"Ġemptiness":6417,"Ġtimeless":6418,"Ġmartial":6419,"Ġcurious":6420,"Ġrewards":6421,"Ġmoviegoing":6422,"Ġsavvy":6423,"Ġshadows":6424,"Ġbiopic":6425,"Ġyawn":6426,"zenegger":6427,"Ġcynicism":6428,"Ġgrey":6429,"Ġcomfortable":6430,"Ġwatched":6431,"Ġtraveler":6432,"Ġmarvelous":6433,"Ġdemonstrates":6434,"Ġtranscend":6435,"Ġhypnot":6436,"ulsive":6437,"Ġchanges":6438,"through":6439,"thriller":6440,"Ġobservation":6441,"Ġscreaming":6442,"Ġponderous":6443,"Ġheartbreak":6444,"Ġmaintains":6445,"Ġmultip":6446,"escap":6447,"Ġnicholson":6448,"Ġshapeless":6449,"Ġunconvincing":6450,"Ġdescribe":6451,"Ġpractically":6452,"Ġliberal":6453,"Ġscope":6454,"Ġargent":6455,"Ġrecognize":6456,"Ġschmalt":6457,"Ġschmidt":6458,"marine":6459,"Ġauthor":6460,"Ġmichel":6461,"Ġpushes":6462,"Ġshowcase":6463,"Ġshowcases":6464,"Ġpositively":6465,"Ġtortured":6466,"absor":6467,"Ġexquisite":6468,"Ġconversations":6469,"ploitation":6470,"based":6471,"deli":6472,"ville":6473,"Ġbuffs":6474,"Ġdreadful":6475,"Ġkorean":6476,"Ġsolemn":6477,"Ġdemanding":6478,"known":6479,"Ġbartleby":6480,"Ġeastwood":6481,"Ġdishon":6482,"Ġappropriate":6483,"Ġsoldiers":6484,"Ġanthony":6485,"Ġreligious":6486,"Ġbroomfield":6487,"Ġintermittently":6488,"Ġassassin":6489,"crafted":6490,"Ġwrapped":6491,"Ġdvd":6492,"Ġinconsequential":6493,"stoppers":6494,"Ġunabashedly":6495,"Ġconcert":6496,"Ġspirits":6497,"Ġartifice":6498,"Ġmelancholy":6499,"Ġconfront":6500,"Ġimprobable":6501,"Ġsophomoric":6502,"occasionally":6503,"Ġdiesel":6504,"Ġritchie":6505,"Ġshelf":6506,"Ġacademy":6507,"Ġconvoluted":6508,"Ġmetropolis":6509,"Ġinstallment":6510,"Ġimplausible":6511,"Ġmagnificent":6512,"Ġpedestrian":6513,"murder":6514,"Ġchabrol":6515,"Ġvitality":6516,"Ġvapid":6517,"Ġhitchcock":6518,"Ġenthralling":6519,"Ġdisposable":6520,"Ġclaustrophobic":6521,"Ġdignity":6522,"Ġneighbor":6523,"Ġgoodfellas":6524,"Ġschwarzenegger":6525,"Ġurgency":6526,"Ġpropaganda":6527,"average":6528,"bb":6529,"bu":6530,"bang":6531,"cast":6532,"cue":6533,"ds":6534,"ded":6535,"dra":6536,"dest":6537,"dry":6538,"dish":6539,"davis":6540,"daughter":6541,"eer":6542,"each":6543,"fly":6544,"fact":6545,"face":6546,"gal":6547,"gent":6548,"great":6549,"hill":6550,"hilar":6551,"iqu":6552,"ius":6553,"ios":6554,"iac":6555,"jam":6556,"jack":6557,"jinsky":6558,"jerk":6559,"kum":6560,"kids":6561,"lers":6562,"little":6563,"lingly":6564,"mm":6565,"mat":6566,"nch":6567,"ox":6568,"oz":6569,"pr":6570,"pion":6571,"pher":6572,"pole":6573,"packed":6574,"rating":6575,"rang":6576,"ruc":6577,"rates":6578,"sis":6579,"spl":6580,"simp":6581,"sized":6582,"ti":6583,"tick":6584,"tale":6585,"uge":6586,"wan":6587,"wall":6588,"wild":6589,"wrenching":6590,"zed":6591,"zel":6592,"Ġeric":6593,"Ġ\\*\\*":6594,"Ġtable":6595,"Ġtends":6596,"Ġtug":6597,"Ġtax":6598,"Ġtamb":6599,"Ġtiny":6600,"Ġtepid":6601,"inable":6602,"hest":6603,"heimer":6604,"Ġsab":6605,"Ġsard":6606,"Ġsie":6607,"Ġsinks":6608,"Ġsquee":6609,"reg":6610,"reck":6611,"Ġow":6612,"Ġops":6613,"Ġought":6614,"ita":6615,"itial":6616,"itect":6617,"Ġfi":6618,"Ġfet":6619,"Ġfame":6620,"Ġfits":6621,"Ġfuri":6622,"Ġfoul":6623,"enstein":6624,"encies":6625,"Ġmud":6626,"Ġmary":6627,"Ġmuddled":6628,"ators":6629,"atives":6630,"Ġber":6631,"Ġbanter":6632,"Ġcher":6633,"Ġcage":6634,"Ġcutes":6635,"Ġcarn":6636,"Ġww":6637,"Ġwither":6638,"Ġwalls":6639,"Ġwishing":6640,"esis":6641,"esse":6642,"ndane":6643,"onous":6644,"Ġpau":6645,"Ġpale":6646,"Ġpush":6647,"Ġplym":6648,"angh":6649,"Ġded":6650,"Ġdum":6651,"Ġanderson":6652,"Ġhing":6653,"Ġhan":6654,"Ġhitting":6655,"Ġhaneke":6656,"icit":6657,"icient":6658,"Ġtown":6659,"Ġtosc":6660,"Ġtoilet":6661,"Ġinject":6662,"ilot":6663,"Ġlion":6664,"Ġlends":6665,"Ġlush":6666,"Ġlavish":6667,"Ġlurid":6668,"omy":6669,"Ġnic":6670,"Ġnut":6671,"sting":6672,"stage":6673,"Ġeat":6674,"Ġeve":6675,"Ġego":6676,"Ġecks":6677,"Ġgid":6678,"Ġgall":6679,"Ġgaz":6680,"Ġgently":6681,"Ġghetto":6682,"Ġmoon":6683,"enter":6684,"entertain":6685,"aser":6686,"asing":6687,"aside":6688,"Ġsto":6689,"Ġster":6690,"Ġstone":6691,"Ġsticks":6692,"imon":6693,"imming":6694,"Ġbegu":6695,"vigor":6696,"Ġrece":6697,"Ġreun":6698,"Ġreplaced":6699,"ulate":6700,"ularly":6701,"ulner":6702,"child":6703,"Ġanime":6704,"Ġangu":6705,"Ġanger":6706,"ety":6707,"olf":6708,"adpole":6709,"Ġford":6710,"Ġformer":6711,"essed":6712,"Ġwholly":6713,"oos":6714,"Ġsup":6715,"Ġsus":6716,"irts":6717,"idden":6718,"ifer":6719,"iform":6720,"Ġchou":6721,"Ġchate":6722,"Ġchap":6723,"Ġchos":6724,"Ġchamp":6725,"Ġchances":6726,"Ġchicago":6727,"think":6728,"thanks":6729,"Ġalbum":6730,"Ġhen":6731,"Ġjump":6732,"Ġjumble":6733,"ummer":6734,"Ġseinfeld":6735,"Ġenlight":6736,"urt":6737,"urity":6738,"isted":6739,"isters":6740,"istoc":6741,"Ġshape":6742,"quite":6743,"Ġabb":6744,"Ġabund":6745,"Ġnotes":6746,"Ġnotorious":6747,"Ġhast":6748,"Ġhawn":6749,"Ġhaph":6750,"Ġdoor":6751,"Ġdeals":6752,"Ġdeeds":6753,"ester":6754,"estyle":6755,"Ġunable":6756,"Ġuniform":6757,"Ġscor":6758,"Ġconcent":6759,"pez":6760,"ella":6761,"eller":6762,"Ġka":6763,"Ġkath":6764,"Ġkline":6765,"Ġkapur":6766,"igo":6767,"usal":6768,"appe":6769,"forms":6770,"Ġprospect":6771,"Ġrum":6772,"Ġrice":6773,"Ġrug":6774,"Ġranks":6775,"opers":6776,"Ġplight":6777,"Ġfeet":6778,"Ġfeathers":6779,"venile":6780,"Ġlean":6781,"Ġlear":6782,"Ġlect":6783,"osyn":6784,"Ġvic":6785,"Ġvoy":6786,"Ġspr":6787,"Ġspots":6788,"Ġspaces":6789,"arded":6790,"ardot":6791,"Ġimplic":6792,"Ġclue":6793,"Ġclause":6794,"Ġclunky":6795,"ples":6796,"pless":6797,"Ġouting":6798,"resents":6799,"mann":6800,"Ġlopez":6801,"icking":6802,"dead":6803,"Ġard":6804,"Ġaristoc":6805,"Ġweb":6806,"Ġwear":6807,"Ġflor":6808,"Ġflour":6809,"Ġflimsy":6810,"Ġadvice":6811,"oding":6812,"Ġanybody":6813,"Ġmundane":6814,"Ġcompens":6815,"Ġcomposed":6816,"Ġoverst":6817,"Ġoverblown":6818,"Ġoffend":6819,"earnest":6820,"ensical":6821,"white":6822,"whatever":6823,"Ġfeelings":6824,"Ġrain":6825,"Ġraises":6826,"Ġmeasured":6827,"nesses":6828,"Ġfailed":6829,"Ġsubl":6830,"Ġsubculture":6831,"Ġsubmarine":6832,"neither":6833,"spoon":6834,"ocation":6835,"Ġeveryday":6836,"Ġgenial":6837,"Ġendure":6838,"Ġdramas":6839,"Ġbruck":6840,"Ġteeth":6841,"Ġseeming":6842,"Ġreminis":6843,"berry":6844,"Ġserving":6845,"shad":6846,"Ġnewcom":6847,"renal":6848,"Ġmatthew":6849,"likable":6850,"Ġaging":6851,"Ġtrav":6852,"Ġtrain":6853,"Ġtrack":6854,"Ġtrailer":6855,"Ġ13":6856,"gins":6857,"Ġaudacious":6858,"Ġundermin":6859,"Ġundercover":6860,"Ġunderlying":6861,"Ġartfully":6862,"Ġmyst":6863,"Ġjoan":6864,"Ġresour":6865,"Ġshoulders":6866,"Ġcruc":6867,"Ġgreater":6868,"Ġoblig":6869,"Ġcastro":6870,"import":6871,"Ġchest":6872,"away":6873,"Ġgrind":6874,"Ġgrating":6875,"Ġcovers":6876,"Ġcohes":6877,"Ġharder":6878,"Ġdowner":6879,"Ġdownbeat":6880,"umbo":6881,"Ġterm":6882,"Ġgrade":6883,"Ġcolumb":6884,"Ġaflo":6885,"Ġkinda":6886,"ocking":6887,"Ġfrance":6888,"Ġfrantic":6889,"atures":6890,"owerment":6891,"Ġreco":6892,"Ġrecreat":6893,"Ġpretends":6894,"Ġpretensions":6895,"Ġguilt":6896,"ibrium":6897,"iffle":6898,"iffere":6899,"Ġbelt":6900,"notch":6901,"Ġwanting":6902,"Ġpointed":6903,"azard":6904,"Ġglorious":6905,"Ġexcruc":6906,"Ġdepend":6907,"Ġdepends":6908,"Ġincisive":6909,"Ġprime":6910,"Ġproud":6911,"Ġindic":6912,"Ġindulg":6913,"Ġpleasurable":6914,"Ġskate":6915,"tsai":6916,"Ġcreature":6917,"Ġreplete":6918,"Ġswept":6919,"Ġburied":6920,"Ġaccomp":6921,"Ġdistaste":6922,"ologically":6923,"Ġrefuge":6924,"Ġdecide":6925,"Ġdecade":6926,"Ġesther":6927,"Ġspecif":6928,"Ġspecific":6929,"Ġhole":6930,"Ġhokum":6931,"Ġconsum":6932,"Ġconserv":6933,"Ġevans":6934,"Ġmorning":6935,"Ġedited":6936,"Ġedges":6937,"Ġschaeffer":6938,"Ġourselves":6939,"Ġcrew":6940,"xton":6941,"Ġsilent":6942,"Ġstudent":6943,"Ġ1970":6944,"Ġ1960":6945,"cool":6946,"Ġdemons":6947,"Ġdemented":6948,"Ġdarker":6949,"Ġwitless":6950,"Ġexpense":6951,"Ġexposition":6952,"Ġeffortlessly":6953,"ographer":6954,"Ġmedia":6955,"Ġcleverly":6956,"Ġsaved":6957,"Ġmax":6958,"bral":6959,"Ġhonor":6960,"Ġsadly":6961,"Ġundoubted":6962,"Ġsenses":6963,"Ġsensibility":6964,"Ġcapturing":6965,"Ġexpectation":6966,"Ġconfused":6967,"Ġconfident":6968,"Ġassoc":6969,"owski":6970,"irds":6971,"ographical":6972,"ification":6973,"opped":6974,"oppola":6975,"Ġaccents":6976,"Ġpromises":6977,"Ġpastiche":6978,"Ġrobin":6979,"uries":6980,"Ġadmission":6981,"Ġdelights":6982,"Ġsolidly":6983,"Ġsinging":6984,"Ġsingles":6985,"Ġsnappy":6986,"Ġfinely":6987,"Ġbasis":6988,"Ġvaluable":6989,"grath":6990,"moving":6991,"serious":6992,"uggish":6993,"Ġillumin":6994,"Ġdrink":6995,"Ġcontribut":6996,"Ġvein":6997,"Ġsupport":6998,"century":6999,"Ġprojects":7000,"veloped":7001,"Ġbrilliance":7002,"Ġsoulful":7003,"Ġsoulless":7004,"Ġhilarity":7005,"Ġlatter":7006,"Ġpassionate":7007,"Ġregret":7008,"Ġinfuri":7009,"Ġurge":7010,"Ġangry":7011,"Ġangels":7012,"Ġspeak":7013,"Ġcapacity":7014,"Ġoccasional":7015,"ridan":7016,"Ġdisappointment":7017,"grand":7018,"Ġoppressive":7019,"Ġlifestyle":7020,"Ġcombat":7021,"Ġcombined":7022,"Ġshocks":7023,"Ġletter":7024,"ungry":7025,"Ġdevelops":7026,"Ġdeveloped":7027,"warm":7028,"Ġsustains":7029,"Ġearnestness":7030,"Ġliterate":7031,"Ġbreaks":7032,"Ġchoice":7033,"Ġstupidity":7034,"Ġforceful":7035,"sembled":7036,"Ġnijinsky":7037,"Ġgangs":7038,"Ġobservant":7039,"rewd":7040,"Ġepisodes":7041,"Ġhype":7042,"Ġlabored":7043,"Ġ101":7044,"guez":7045,"Ġtypes":7046,"Ġhotel":7047,"Ġabsurdist":7048,"Ġabsurdity":7049,"Ġcelebrity":7050,"Ġ30":7051,"Ġstevenson":7052,"Ġbuilds":7053,"Ġmeaningful":7054,"Ġmeaningless":7055,"Ġmediocrity":7056,"Ġnaturalistic":7057,"Ġconnections":7058,"Ġrevelation":7059,"aggy":7060,"Ġstruggling":7061,"Ġpulse":7062,"coli":7063,"Ġfolk":7064,"Ġcuriously":7065,"Ġjuvenile":7066,"Ġminority":7067,"Ġsorry":7068,"Ġunusually":7069,"Ġprimarily":7070,"Ġidiosyn":7071,"Ġstructured":7072,"inoche":7073,"Ġfavorite":7074,"Ġaimed":7075,"Ġnuance":7076,"Ġwaters":7077,"Ġdemonstrate":7078,"Ġinnocent":7079,"cratic":7080,"Ġbogus":7081,"Ġwestern":7082,"Ġwallace":7083,"Ġdiscuss":7084,"rapy":7085,"Ġanswer":7086,"Ġobjective":7087,"Ġsketchy":7088,"joke":7089,"Ġuneasy":7090,"Ġunforced":7091,"Ġunforgettable":7092,"Ġserviceable":7093,"Ġacceptable":7094,"Ġconsidered":7095,"Ġstretched":7096,"Ġneglect":7097,"Ġarchitect":7098,"driguez":7099,"Ġjerry":7100,"Ġempire":7101,"Ġempowerment":7102,"Ġemphasizes":7103,"girls":7104,"Ġauthority":7105,"Ġgarb":7106,"Ġchuckles":7107,"Ġallegory":7108,"Ġvolatile":7109,"Ġinsulting":7110,"produced":7111,"Ġdynamic":7112,"makers":7113,"Ġfuzzy":7114,"Ġfabric":7115,"Ġexquisitely":7116,"Ġdeceptively":7117,"Ġconspira":7118,"Ġqualities":7119,"Ġmechanical":7120,"Ġeducational":7121,"Ġmiracle":7122,"Ġhigher":7123,"Ġrecycled":7124,"Ġambiguity":7125,"Ġexhausting":7126,"bbled":7127,"friend":7128,"Ġthousands":7129,"Ġeloquent":7130,"Ġfantasies":7131,"Ġjewish":7132,"Ġresponsible":7133,"Ġtaylor":7134,"Ġcube":7135,"Ġhunter":7136,"Ġegoyan":7137,"Ġevidence":7138,"Ġstatus":7139,"Ġclothes":7140,"Ġaccurate":7141,"Ġextravaganz":7142,"Ġrollerball":7143,"Ġuncomfortably":7144,"trip":7145,"Ġgosling":7146,"Ġaliens":7147,"Ġenormous":7148,"Ġexceedingly":7149,"Ġclockstoppers":7150,"Ġremotely":7151,"Ġproducers":7152,"Ġsarandon":7153,"Ġbullets":7154,"Ġhartley":7155,"Ġnomination":7156,"Ġjaglom":7157,"Ġconsequences":7158,"Ġprecisely":7159,"Ġexpertly":7160,"Ġparadiso":7161,"Ġunsatisfying":7162,"Ġconvinced":7163,"Ġredundant":7164,"Ġtroopers":7165,"Ġmamet":7166,"Ġwickedly":7167,"Ġhannibal":7168,"Ġinfectious":7169,"Ġglib":7170,"idelity":7171,"Ġclunker":7172,"Ġaggressively":7173,"Ġlaughed":7174,"Ġmonotonous":7175,"Ġphilosophy":7176,"Ġaspirations":7177,"Ġtremendous":7178,"Ġirresistible":7179,"Ġtasteless":7180,"Ġaesthet":7181,"Ġcerebral":7182,"Ġlampoon":7183,"Ġloneliness":7184,"stacles":7185,"Ġmothman":7186,"Ġconvenient":7187,"Ġkahlo":7188,"Ġadvantage":7189,"Ġtechno":7190,"Ġprincip":7191,"Ġredemption":7192,"Ġheavily":7193,"Ġplympton":7194,"anghai":7195,"Ġtosca":7196,"Ġbeguiling":7197,"Ġchosen":7198,"Ġhaphazard":7199,"Ġuniformly":7200,"Ġafloat":7201,"Ġconservative":7202,"ault":7203,"affect":7204,"aque":7205,"bul":7206,"best":7207,"bert":7208,"bog":7209,"brit":7210,"buck":7211,"baked":7212,"broom":7213,"ca":7214,"cre":7215,"cur":7216,"call":7217,"card":7218,"cong":7219,"cross":7220,"camp":7221,"coll":7222,"cient":7223,"dist":7224,"done":7225,"dark":7226,"dition":7227,"efully":7228,"fs":7229,"fast":7230,"fig":7231,"fred":7232,"fails":7233,"fisted":7234,"gain":7235,"green":7236,"gian":7237,"hat":7238,"han":7239,"hart":7240,"ii":7241,"iat":7242,"iantly":7243,"je":7244,"jones":7245,"kh":7246,"know":7247,"lar":7248,"lich":7249,"luc":7250,"lacks":7251,"lasting":7252,"master":7253,"nings":7254,"numb":7255,"oe":7256,"oh":7257,"oes":7258,"oid":7259,"prom":7260,"pie":7261,"parts":7262,"ration":7263,"rich":7264,"rote":7265,"sim":7266,"soph":7267,"such":7268,"sided":7269,"satisf":7270,"tw":7271,"tical":7272,"turn":7273,"tany":7274,"uv":7275,"ule":7276,"ueless":7277,"ufact":7278,"vino":7279,"ware":7280,"water":7281,"willi":7282,"witty":7283,"witted":7284,"xual":7285,"yac":7286,"yaz":7287,"zes":7288,"Ġut":7289,"Ġtab":7290,"Ġtum":7291,"Ġtart":7292,"Ġtiss":7293,"Ġtail":7294,"Ġtones":7295,"Ġack":7296,"Ġaug":7297,"inent":7298,"inous":7299,"inian":7300,"inner":7301,"inarily":7302,"hecies":7303,"Ġsake":7304,"Ġsits":7305,"Ġsane":7306,"Ġsord":7307,"Ġsizz":7308,"Ġsisters":7309,"reign":7310,"rection":7311,"Ġok":7312,"eral":7313,"ercial":7314,"ito":7315,"itor":7316,"itative":7317,"itivity":7318,"Ġtherapy":7319,"Ġfro":7320,"Ġfond":7321,"Ġfix":7322,"Ġfirm":7323,"isi":7324,"isk":7325,"enough":7326,"Ġmour":7327,"Ġmish":7328,"Ġmull":7329,"Ġmars":7330,"Ġmired":7331,"Ġmalk":7332,"Ġmtv":7333,"Ġmuted":7334,"Ġba":7335,"Ġbare":7336,"Ġbread":7337,"Ġbio":7338,"Ġbank":7339,"Ġbump":7340,"Ġcul":7341,"Ġcook":7342,"Ġwake":7343,"Ġwend":7344,"Ġwoll":7345,"Ġwreck":7346,"esome":7347,"ouge":7348,"oufl":7349,"Ġpill":7350,"anth":7351,"anny":7352,"Ġdot":7353,"Ġdro":7354,"Ġdow":7355,"Ġdass":7356,"Ġdaw":7357,"arat":7358,"arse":7359,"arious":7360,"around":7361,"alia":7362,"Ġthom":7363,"Ġthumbs":7364,"Ġhal":7365,"Ġhund":7366,"Ġhosp":7367,"Ġhanks":7368,"Ġhipp":7369,"Ġhidden":7370,"leigh":7371,"icion":7372,"Ġtool":7373,"Ġtooth":7374,"Ġtoback":7375,"Ġinert":7376,"edom":7377,"edek":7378,"ilarly":7379,"ilibrium":7380,"Ġlou":7381,"Ġlust":7382,"Ġlark":7383,"Ġlull":7384,"Ġlapses":7385,"omercial":7386,"Ġnet":7387,"Ġnum":7388,"Ġnine":7389,"Ġnail":7390,"Ġnelson":7391,"stars":7392,"steven":7393,"Ġeffic":7394,"Ġga":7395,"Ġgel":7396,"Ġgrew":7397,"Ġgasp":7398,"Ġisolation":7399,"ution":7400,"eling":7401,"elled":7402,"Ġmob":7403,"Ġmol":7404,"enth":7405,"Ġsting":7406,"Ġstif":7407,"Ġstation":7408,"Ġstink":7409,"Ġstream":7410,"Ġstalk":7411,"iments":7412,"Ġbear":7413,"Ġren":7414,"Ġrein":7415,"Ġreact":7416,"Ġrecon":7417,"Ġrehash":7418,"rably":7419,"their":7420,"roads":7421,"ulating":7422,"ulated":7423,"uloid":7424,"chang":7425,"chool":7426,"Ġanom":7427,"Ġanach":7428,"Ġanarch":7429,"Ġassem":7430,"Ġassembled":7431,"olent":7432,"owing":7433,"owed":7434,"ada":7435,"ading":7436,"advent":7437,"essend":7438,"essica":7439,"Ġbutt":7440,"idedly":7441,"ifest":7442,"Ġchur":7443,"Ġchord":7444,"Ġchai":7445,"Ġchief":7446,"amber":7447,"amiliar":7448,"Ġaltogether":7449,"Ġhew":7450,"Ġjudd":7451,"Ġjagger":7452,"Ġjessica":7453,"aging":7454,"umst":7455,"Ġseats":7456,"ckay":7457,"ouses":7458,"ousness":7459,"emesis":7460,"Ġenchant":7461,"urrection":7462,"Ġintact":7463,"Ġliz":7464,"akable":7465,"isto":7466,"isterous":7467,"Ġshout":7468,"Ġshine":7469,"Ġshrewd":7470,"Ġshaggy":7471,"quer":7472,"Ġdose":7473,"Ġdear":7474,"esty":7475,"Ġunm":7476,"Ġuncomm":7477,"Ġunlikable":7478,"Ġneo":7479,"Ġneil":7480,"Ġscre":7481,"Ġscares":7482,"Ġconstruction":7483,"Ġworn":7484,"Ġkin":7485,"Ġkne":7486,"Ġkicks":7487,"igree":7488,"ushed":7489,"aping":7490,"Ġcharged":7491,"Ġrating":7492,"Ġrank":7493,"Ġrude":7494,"Ġrising":7495,"Ġplat":7496,"Ġfeast":7497,"tering":7498,"Ġleigh":7499,"Ġvac":7500,"Ġvulner":7501,"Ġsport":7502,"Ġspice":7503,"Ġspread":7504,"ptuous":7505,"Ġclown":7506,"ppy":7507,"Ġouts":7508,"Ġouter":7509,"Ġoutcome":7510,"endes":7511,"many":7512,"Ġfuneral":7513,"Ġmanners":7514,"Ġmanufact":7515,"Ġmanifest":7516,"Ġamiable":7517,"ortions":7518,"Ġlock":7519,"deep":7520,"ictment":7521,"Ġnobody":7522,"Ġups":7523,"Ġarc":7524,"Ġarth":7525,"Ġargue":7526,"Ġweigh":7527,"Ġwearing":7528,"Ġflamb":7529,"Ġflavor":7530,"peror":7531,"Ġwillis":7532,"Ġaddict":7533,"Ġadrenal":7534,"odge":7535,"comings":7536,"Ġmuse":7537,"Ġcompan":7538,"Ġentr":7539,"Ġblat":7540,"Ġblur":7541,"Ġblown":7542,"Ġblame":7543,"eped":7544,"Ġovert":7545,"Ġperformed":7546,"Ġemperor":7547,"Ġdisar":7548,"Ġdisint":7549,"Ġdisquiet":7550,"ndering":7551,"arker":7552,"Ġbettany":7553,"ints":7554,"Ġslo":7555,"atchable":7556,"Ġwells":7557,"Ġrac":7558,"Ġray":7559,"Ġraise":7560,"Ġmeal":7561,"Ġmexic":7562,"Ġfault":7563,"Ġrival":7564,"spielberg":7565,"Ġgoal":7566,"Ġimpul":7567,"Ġtalky":7568,"Ġgenius":7569,"Ġbrisk":7570,"Ġsmacks":7571,"Ġsmiles":7572,"soon":7573,"should":7574,"shall":7575,"shine":7576,"renched":7577,"Ġcontest":7578,"Ġpeace":7579,"Ġagent":7580,"acht":7581,"ignant":7582,"Ġ18":7583,"Ġpartners":7584,"Ġroman":7585,"Ġartful":7586,"Ġartsy":7587,"Ġrescue":7588,"inematic":7589,"ismo":7590,"ashy":7591,"scale":7592,"Ġcrane":7593,"Ġcharacteristic":7594,"iane":7595,"Ġholm":7596,"imps":7597,"Ġshower":7598,"Ġawfully":7599,"Ġwarri":7600,"Ġinsuff":7601,"Ġinsanity":7602,"awk":7603,"Ġkeen":7604,"Ġkept":7605,"Ġcoff":7606,"Ġcode":7607,"Ġcobbled":7608,"Ġattal":7609,"tei":7610,"ription":7611,"Ġfarc":7612,"Ġfarrel":7613,"Ġgrac":7614,"Ġgravity":7615,"Ġlessons":7616,"Ġrelate":7617,"Ġrelax":7618,"Ġenjoys":7619,"Ġenjoyably":7620,"mostly":7621,"Ġeverlasting":7622,"ibles":7623,"Ġplayer":7624,"note":7625,"vides":7626,"Ġcharmless":7627,"Ġappalling":7628,"Ġglum":7629,"Ġfewer":7630,"Ġkidman":7631,"uffy":7632,"Ġincess":7633,"Ġincarn":7634,"Ġincident":7635,"Ġindiffere":7636,"Ġindictment":7637,"Ġelusive":7638,"Ġhighlight":7639,"Ġphone":7640,"Ġsweeping":7641,"Ġbucks":7642,"arned":7643,"Ġsincer":7644,"Ġsinister":7645,"Ġmarquis":7646,"flick":7647,"noon":7648,"Ġacqu":7649,"Ġexplan":7650,"Ġreflection":7651,"Ġrefusal":7652,"Ġdecidedly":7653,"Ġsurprised":7654,"anek":7655,"Ġafternoon":7656,"Ġhokey":7657,"Ġease":7658,"Ġcarl":7659,"Ġcarp":7660,"Ġcaring":7661,"Ġcarried":7662,"Ġcarmen":7663,"Ġevol":7664,"Ġexperienced":7665,"Ġmorally":7666,"Ġmorvern":7667,"Ġedgy":7668,"stealing":7669,"Ġpassing":7670,"Ġpasses":7671,"Ġmonument":7672,"Ġmonsoon":7673,"Ġclassics":7674,"Ġbrooding":7675,"Ġhappily":7676,"Ġdetached":7677,"Ġgenerous":7678,"Ġ193":7679,"Ġhandle":7680,"Ġhandled":7681,"playing":7682,"Ġtitles":7683,"Ġdemoc":7684,"Ġbelieving":7685,"Ġsweetly":7686,"Ġabsolute":7687,"Ġzero":7688,"Ġpaints":7689,"Ġexpos":7690,"Ġexpressive":7691,"Ġpredictability":7692,"Ġfamilial":7693,"Ġdefies":7694,"Ġdefines":7695,"incible":7696,"Ġeyre":7697,"Ġstrains":7698,"Ġstrained":7699,"Ġperfection":7700,"Ġboat":7701,"Ġboasts":7702,"Ġundone":7703,"Ġundert":7704,"Ġunfold":7705,"Ġunfamiliar":7706,"Ġcaptured":7707,"Ġshortcomings":7708,"Ġconvince":7709,"Ġmidnight":7710,"Ġconfirms":7711,"Ġconfidence":7712,"Ġprofile":7713,"Ġreduces":7714,"Ġstrongly":7715,"Ġopaque":7716,"Ġheady":7717,"working":7718,"Ġversus":7719,"Ġversions":7720,"Ġmagical":7721,"Ġdares":7722,"Ġambitions":7723,"Ġsatisfies":7724,"Ġpolitically":7725,"Ġdamaged":7726,"Ġfamiliarity":7727,"Ġsteals":7728,"Ġstealing":7729,"Ġsteeped":7730,"Ġsimultaneously":7731,"Ġsimilarly":7732,"Ġfreshness":7733,"Ġmurky":7734,"Ġpunct":7735,"Ġmisery":7736,"Ġnorm":7737,"ailing":7738,"ronistic":7739,"Ġbenjam":7740,"Ġbrian":7741,"Ġcamoufl":7742,"Ġadventurous":7743,"Ġanton":7744,"Ġantid":7745,"Ġantics":7746,"Ġpsychologically":7747,"Ġveers":7748,"Ġveter":7749,"undlich":7750,"Ġmeth":7751,"Ġinvolve":7752,"blue":7753,"Ġmotions":7754,"Ġpaxton":7755,"Ġinfant":7756,"Ġinfomercial":7757,"Ġdevices":7758,"Ġseconds":7759,"Ġhelped":7760,"however":7761,"Ġexception":7762,"Ġfreeman":7763,"Ġfreedom":7764,"ahl":7765,"Ġaffleck":7766,"Ġexamines":7767,"Ġdisappointingly":7768,"Ġpersonalities":7769,"Ġpaying":7770,"Ġoppos":7771,"Ġhopes":7772,"porate":7773,"Ġsleeve":7774,"Ġbalanced":7775,"Ġpossibility":7776,"Ġdrivel":7777,"Ġfollowed":7778,"Ġverbal":7779,"Ġcurves":7780,"Ġlandmark":7781,"Ġunexpl":7782,"Ġrolling":7783,"atsi":7784,"Ġbreakthrough":7785,"Ġjoyless":7786,"Ġpurely":7787,"Ġgorgeously":7788,"Ġchristop":7789,"Ġreminded":7790,"Ġcollision":7791,"Ġcollateral":7792,"Ġroberto":7793,"Ġburger":7794,"Ġbursts":7795,"Ġinvention":7796,"Ġballot":7797,"Ġprophecies":7798,"Ġresonate":7799,"Ġdepressed":7800,"Ġphoto":7801,"Ġcartoonish":7802,"cheek":7803,"markable":7804,"Ġsquare":7805,"Ġsquarely":7806,"Ġpulling":7807,"ovan":7808,"Ġlyric":7809,"Ġcritic":7810,"Ġgraceful":7811,"Ġfrustration":7812,"Ġinclude":7813,"Ġcrafts":7814,"Ġweaknesses":7815,"Ġskills":7816,"Ġconflicted":7817,"Ġthrowing":7818,"Ġhomes":7819,"Ġgreene":7820,"Ġconnection":7821,"Ġkissing":7822,"Ġvariation":7823,"Ġlimit":7824,"Ġrevelations":7825,"Ġamazingly":7826,"Ġmetaphors":7827,"Ġunexpectedly":7828,"Ġrambling":7829,"Ġpitfalls":7830,"Ġsparkling":7831,"Ġfrankly":7832,"Ġdisturb":7833,"Ġpulled":7834,"Ġlegal":7835,"Ġfalling":7836,"Ġdaniel":7837,"Ġmovements":7838,"Ġimmensely":7839,"Ġimpressed":7840,"Ġprotect":7841,"Ġhugely":7842,"true":7843,"Ġsorrow":7844,"Ġsorority":7845,"Ġbreaking":7846,"Ġstephen":7847,"Ġrewarded":7848,"Ġatmospher":7849,"Ġdiverse":7850,"Ġwalked":7851,"Ġrequire":7852,"Ġturkey":7853,"Ġcandid":7854,"Ġdreck":7855,"Ġescapist":7856,"consider":7857,"Ġrecording":7858,"Ġincludes":7859,"Ġcircuit":7860,"Ġcircumst":7861,"Ġghosts":7862,"puted":7863,"Ġdomin":7864,"Ġnonsensical":7865,"Ġencouraging":7866,"Ġuncanny":7867,"Ġincredible":7868,"smith":7869,"Ġhypoc":7870,"ulsion":7871,"ulsively":7872,"Ġimplies":7873,"Ġsurvive":7874,"Ġproductions":7875,"Ġenthusiastic":7876,"Ġtransporter":7877,"oleon":7878,"Ġignore":7879,"Ġcrystal":7880,"Ġpenet":7881,"Ġduke":7882,"Ġfills":7883,"Ġallowed":7884,"Ġrooting":7885,"Ġstereotypical":7886,"john":7887,"Ġmcgrath":7888,"Ġpedigree":7889,"Ġalienation":7890,"Ġarrive":7891,"Ġterrorist":7892,"Ġmaintain":7893,"Ġdragonfly":7894,"petek":7895,"Ġmask":7896,"Ġmillion":7897,"Ġmulti":7898,"Ġlayers":7899,"Ġstretches":7900,"Ġalternative":7901,"Ġalternately":7902,"Ġunconvent":7903,"Ġconceit":7904,"Ġvanity":7905,"Ġswimfan":7906,"Ġdescribed":7907,"downtown":7908,"highly":7909,"Ġtossed":7910,"Ġshamelessly":7911,"deprec":7912,"Ġarguments":7913,"Ġsecretary":7914,"Ġtackles":7915,"Ġseductive":7916,"Ġbodies":7917,"Ġchuckle":7918,"Ġalleged":7919,"Ġclimactic":7920,"Ġoverwhelming":7921,"Ġ1950":7922,"Ġembraces":7923,"maker":7924,"pleaser":7925,"Ġcelluloid":7926,"Ġqualify":7927,"Ġmechanics":7928,"Ġeducation":7929,"Ġmotivations":7930,"Ġastonishingly":7931,"Ġmentally":7932,"attering":7933,"Ġhighest":7934,"Ġlosing":7935,"Ġstrangers":7936,"Ġexplosions":7937,"Ġambiguous":7938,"Ġindividuals":7939,"Ġboun":7940,"Ġbollywood":7941,"Ġwisdom":7942,"Ġthousand":7943,"Ġlingering":7944,"Ġyouthful":7945,"Ġsuccumbs":7946,"Ġobscure":7947,"Ġdeparture":7948,"Ġevoke":7949,"Ġinfluence":7950,"familiar":7951,"Ġavary":7952,"Ġchronicle":7953,"Ġhealth":7954,"Ġenigma":7955,"Ġenigmatic":7956,"udgeon":7957,"Ġfluid":7958,"Ġvideos":7959,"Ġrepeatedly":7960,"Ġredeeming":7961,"Ġoliver":7962,"Ġmisfire":7963,"Ġbaseball":7964,"Ġdubious":7965,"Ġconveying":7966,"Ġproperly":7967,"Ġthankfully":7968,"Ġironically":7969,"Ġcalculated":7970,"Ġsubstitute":7971,"Ġinexplicable":7972,"effects":7973,"Ġachingly":7974,"Ġcivil":7975,"Ġinconsistent":7976,"Ġsundance":7977,"Ġsnapshot":7978,"Ġrestrained":7979,"Ġinstincts":7980,"Ġlegendary":7981,"Ġfleeting":7982,"Ġathletes":7983,"Ġadequate":7984,"drunk":7985,"danovich":7986,"Ġfoibles":7987,"Ġnapoleon":7988,"Ġunrelent":7989,"Ġunbelievable":7990,"Ġqueens":7991,"Ġsubplots":7992,"Ġcontroversy":7993,"Ġinternational":7994,"Ġparanoia":7995,"Ġtranslation":7996,"Ġbridge":7997,"Ġopportunities":7998,"Ġminimalist":7999,"Ġspontaneity":8000,"Ġfictional":8001,"Ġthornberry":8002,"Ġwholesome":8003,"Ġexaggerated":8004,"Ġvelocity":8005,"Ġquarter":8006,"constructed":8007,"Ġreputation":8008,"Ġundisputed":8009,"Ġtransformation":8010,"Ġsubtitles":8011,"Ġtelegraphed":8012,"character":8013,"Ġhypnotic":8014,"Ġsardonic":8015,"Ġsqueeze":8016,"Ġcutesy":8017,"Ġwitherspoon":8018,"Ġdumas":8019,"Ġreunion":8020,"Ġsusan":8021,"Ġchateau":8022,"Ġhastily":8023,"ardotcom":8024,"Ġflorid":8025,"Ġflourishes":8026,"Ġsublime":8027,"Ġbruckheimer":8028,"Ġreminiscent":8029,"Ġcrucial":8030,"Ġaccompan":8031,"Ġdistasteful":8032,"Ġrefugees":8033,"Ġspecifically":8034,"Ġundoubtedly":8035,"Ġidiosyncratic":8036,"Ġgarbage":8037,"broomfield":8038,"large":8039,"yazaki":8040,"Ġtumult":8041,"Ġsordid":8042,"Ġfirmly":8043,"Ġmalkovich":8044,"Ġwollter":8045,"Ġthomas":8046,"edekerk":8047,"Ġnumerous":8048,"Ġanachronistic":8049,"essenden":8050,"Ġmanufactured":8051,"Ġfarrelly":8052,"Ġsincerity":8053,"Ġbenjamins":8054,"deprecating":8055,"--":8056,"13":8057,"40":8058,"aving":8059,"ba":8060,"bag":8061,"bind":8062,"bour":8063,"bull":8064,"buster":8065,"bbit":8066,"cus":8067,"cence":8068,"core":8069,"cred":8070,"cause":8071,"capt":8072,"dings":8073,"dled":8074,"dash":8075,"drop":8076,"dazz":8077,"drum":8078,"eight":8079,"eky":8080,"evo":8081,"fing":8082,"fem":8083,"fare":8084,"fiction":8085,"ga":8086,"gel":8087,"gam":8088,"gile":8089,"gang":8090,"gasm":8091,"glor":8092,"ho":8093,"hot":8094,"ik":8095,"iver":8096,"iber":8097,"lot":8098,"lim":8099,"lad":8100,"lings":8101,"love":8102,"langu":8103,"lowski":8104,"mad":8105,"mous":8106,"mart":8107,"mus":8108,"mingly":8109,"nick":8110,"noy":8111,"ois":8112,"ping":8113,"ped":8114,"pol":8115,"pow":8116,"pable":8117,"post":8118,"press":8119,"poss":8120,"puff":8121,"point":8122,"pumpkin":8123,"parker":8124,"rary":8125,"rors":8126,"rather":8127,"rics":8128,"rase":8129,"rats":8130,"rara":8131,"sor":8132,"sam":8133,"sand":8134,"sens":8135,"surpris":8136,"tes":8137,"tle":8138,"try":8139,"tably":8140,"ued":8141,"uve":8142,"uend":8143,"uously":8144,"uasive":8145,"vating":8146,"voc":8147,"vability":8148,"wer":8149,"wed":8150,"wart":8151,"wind":8152,"yer":8153,"zill":8154,"Ġig":8155,"Ġ60":8156,"Ġtu":8157,"Ġtact":8158,"Ġtense":8159,"Ġtaw":8160,"Ġtub":8161,"Ġtorn":8162,"Ġtaps":8163,"Ġtrop":8164,"Ġtony":8165,"Ġay":8166,"Ġaus":8167,"Ġapl":8168,"Ġastr":8169,"Ġaustr":8170,"Ġakin":8171,"Ġalex":8172,"inion":8173,"inning":8174,"inspired":8175,"heart":8176,"rek":8177,"rehe":8178,"reggio":8179,"Ġol":8180,"Ġole":8181,"erved":8182,"iter":8183,"itary":8184,"itched":8185,"itudes":8186,"Ġtheory":8187,"Ġthesis":8188,"Ġfif":8189,"Ġfacing":8190,"enet":8191,"enge":8192,"enced":8193,"enha":8194,"Ġming":8195,"Ġmap":8196,"Ġmendes":8197,"atable":8198,"atfalls":8199,"Ġbm":8200,"Ġbess":8201,"Ġbill":8202,"Ġbast":8203,"Ġbust":8204,"Ġbib":8205,"Ġbord":8206,"Ġbones":8207,"Ġbirot":8208,"Ġbinoche":8209,"Ġcri":8210,"Ġcram":8211,"Ġcip":8212,"Ġcia":8213,"Ġcalls":8214,"Ġcoppola":8215,"Ġwist":8216,"Ġwaking":8217,"Ġwret":8218,"Ġwallow":8219,"Ġwalt":8220,"ndan":8221,"ndry":8222,"orad":8223,"orial":8224,"orably":8225,"Ġpg":8226,"Ġpin":8227,"Ġpess":8228,"Ġpink":8229,"Ġpandering":8230,"Ġpants":8231,"Ġpomp":8232,"Ġpumpkin":8233,"Ġpacino":8234,"Ġpiffle":8235,"anella":8236,"Ġdil":8237,"Ġdise":8238,"Ġdressed":8239,"Ġdinner":8240,"ali":8241,"alas":8242,"alism":8243,"altern":8244,"aluable":8245,"algam":8246,"Ġthirst":8247,"Ġthread":8248,"Ġhub":8249,"icide":8250,"icense":8251,"icles":8252,"iciently":8253,"Ġinstruct":8254,"Ġinquis":8255,"Ġinescap":8256,"Ġinitial":8257,"ilo":8258,"Ġlur":8259,"Ġlap":8260,"Ġlord":8261,"Ġlamb":8262,"Ġloop":8263,"Ġlanes":8264,"Ġlicense":8265,"Ġnin":8266,"Ġnames":8267,"Ġnails":8268,"Ġniche":8269,"Ġnaught":8270,"Ġnaked":8271,"Ġnatur":8272,"Ġnemesis":8273,"story":8274,"Ġeis":8275,"Ġears":8276,"Ġeerie":8277,"Ġgal":8278,"Ġgul":8279,"Ġgam":8280,"Ġgong":8281,"Ġgoose":8282,"Ġgave":8283,"uto":8284,"utions":8285,"elle":8286,"elow":8287,"eline":8288,"elbe":8289,"entin":8290,"asper":8291,"asily":8292,"otes":8293,"otting":8294,"otland":8295,"otesque":8296,"Ġstark":8297,"Ġstates":8298,"Ġstumble":8299,"Ġstitch":8300,"imated":8301,"Ġbeck":8302,"Ġbeings":8303,"Ġbewild":8304,"Ġreass":8305,"Ġrelying":8306,"Ġreaches":8307,"Ġrebell":8308,"Ġreggio":8309,"racy":8310,"rayal":8311,"Ġupper":8312,"thed":8313,"then":8314,"theon":8315,"verty":8316,"verted":8317,"roc":8318,"roit":8319,"roat":8320,"road":8321,"rogen":8322,"ulence":8323,"ulates":8324,"cely":8325,"ceful":8326,"Ġancient":8327,"eter":8328,"etent":8329,"Ġyid":8330,"Ġyard":8331,"Ġyester":8332,"rived":8333,"oli":8334,"olate":8335,"aybur":8336,"ader":8337,"adent":8338,"adam":8339,"ados":8340,"advert":8341,"Ġforward":8342,"Ġfortun":8343,"section":8344,"essive":8345,"essentially":8346,"Ġwhiny":8347,"ooled":8348,"oops":8349,"ooses":8350,"irk":8351,"Ġcomics":8352,"iders":8353,"Ġchill":8354,"Ġchops":8355,"Ġchamber":8356,"Ġchooses":8357,"amo":8358,"amy":8359,"Ġalert":8360,"Ġalice":8361,"Ġalbe":8362,"Ġalike":8363,"Ġhedon":8364,"abre":8365,"unless":8366,"Ġjay":8367,"Ġjud":8368,"Ġjose":8369,"Ġjenn":8370,"Ġjarring":8371,"Ġjumps":8372,"Ġseas":8373,"Ġsearing":8374,"Ġselection":8375,"Ġsearching":8376,"emorable":8377,"Ġenemy":8378,"Ġencount":8379,"Ġintol":8380,"Ġlik":8381,"Ġlip":8382,"Ġliar":8383,"Ġexists":8384,"Ġexasper":8385,"akingly":8386,"Ġshod":8387,"Ġshining":8388,"Ġshtick":8389,"qui":8390,"quet":8391,"Ġably":8392,"Ġnotable":8393,"Ġnotting":8394,"Ġdod":8395,"Ġdeuces":8396,"Ġdeja":8397,"Ġunem":8398,"Ġunass":8399,"Ġunbl":8400,"Ġunfortun":8401,"Ġuncle":8402,"Ġneur":8403,"Ġscand":8404,"Ġscare":8405,"Ġscored":8406,"Ġscient":8407,"Ġscathing":8408,"Ġconsc":8409,"ainberg":8410,"Ġworry":8411,"Ġworship":8412,"Ġkil":8413,"Ġkur":8414,"Ġkaf":8415,"Ġsocc":8416,"usc":8417,"uso":8418,"ustic":8419,"apes":8420,"Ġarea":8421,"Ġcharles":8422,"Ġprose":8423,"Ġprobe":8424,"Ġron":8425,"Ġrange":8426,"Ġrub":8427,"Ġruth":8428,"Ġrarity":8429,"Ġrouge":8430,"Ġmores":8431,"Ġpluck":8432,"Ġactions":8433,"Ġactiv":8434,"Ġfeardotcom":8435,"erell":8436,"herfig":8437,"Ġleth":8438,"Ġpred":8439,"Ġprevent":8440,"ffith":8441,"Ġvu":8442,"Ġvain":8443,"Ġspends":8444,"Ġspike":8445,"Ġspraw":8446,"Ġsporad":8447,"Ġperme":8448,"Ġperdition":8449,"Ġorange":8450,"Ġclash":8451,"Ġcliff":8452,"Ġclashing":8453,"Ġclueless":8454,"ittingly":8455,"ittedly":8456,"ieu":8457,"Ġoutland":8458,"Ġamar":8459,"Ġamalgam":8460,"Ġquentin":8461,"Ġlob":8462,"Ġload":8463,"Ġlose":8464,"Ġlofty":8465,"icken":8466,"ieslowski":8467,"Ġnoise":8468,"ertime":8469,"arer":8470,"Ġarmen":8471,"Ġweaves":8472,"Ġiv":8473,"Ġflashes":8474,"augh":8475,"ours":8476,"Ġthrust":8477,"Ġadvert":8478,"comb":8479,"wey":8480,"week":8481,"Ġcomprehens":8482,"Ġcann":8483,"Ġcanon":8484,"Ġcanned":8485,"Ġpokes":8486,"Ġpoverty":8487,"mention":8488,"Ġuseless":8489,"Ġblunt":8490,"Ġwhenever":8491,"Ġoverlook":8492,"Ġovercomes":8493,"Ġoverkill":8494,"Ġovershad":8495,"izamo":8496,"Ġdiss":8497,"Ġdisplays":8498,"earth":8499,"Ġbetty":8500,"Ġbetrayal":8501,"Ġevening":8502,"Ġslipp":8503,"Ġsluggish":8504,"ipid":8505,"ipaul":8506,"Ġrage":8507,"Ġrapt":8508,"Ġravis":8509,"Ġraised":8510,"Ġsubte":8511,"Ġsuburban":8512,"Ġriff":8513,"Ġrigor":8514,"ccino":8515,"Ġtwink":8516,"osexual":8517,"Ġgoals":8518,"Ġgovern":8519,"ocy":8520,"Ġimpart":8521,"Ġimpostor":8522,"Ġimpenet":8523,"Ġvia":8524,"Ġended":8525,"ressing":8526,"llenha":8527,"Ġteach":8528,"Ġsmell":8529,"Ġsmack":8530,"Ġsermon":8531,"soaked":8532,"Ġscreening":8533,"Ġseek":8534,"Ġseeks":8535,"Ġnewf":8536,"Ġherm":8537,"Ġentertainingly":8538,"Ġcontend":8539,"Ġcontempt":8540,"Ġpee":8541,"Ġpeak":8542,"Ġtraffic":8543,"Ġaudacity":8544,"Ġunderdog":8545,"Ġlongest":8546,"Ġmyers":8547,"Ġjoel":8548,"Ġresorting":8549,"isms":8550,"ashbuck":8551,"Ġcrash":8552,"Ġgreatness":8553,"uctant":8554,"Ġobstacles":8555,"Ġcasts":8556,"ivable":8557,"Ġcheat":8558,"Ġchekh":8559,"Ġawards":8560,"Ġinsurance":8561,"Ġinsomnia":8562,"Ġinsipid":8563,"Ġvisible":8564,"nowled":8565,"Ġgrotesque":8566,"been":8567,"because":8568,"Ġcoinc":8569,"Ġattack":8570,"Ġtrial":8571,"Ġtrivial":8572,"umbling":8573,"Ġgrave":8574,"Ġafford":8575,"Ġaficion":8576,"Ġrelief":8577,"Ġreluctant":8578,"Ġenjoying":8579,"Ġfrat":8580,"Ġfranc":8581,"woody":8582,"Ġrecipe":8583,"sym":8584,"Ġguard":8585,"Ġbeloved":8586,"Ġbackdrop":8587,"azzy":8588,"Ġglam":8589,"Ġexcels":8590,"Ġbecame":8591,"Ġneedlessly":8592,"ucin":8593,"ucer":8594,"uffed":8595,"Ġmushy":8596,"Ġpratfalls":8597,"exc":8598,"exp":8599,"expect":8600,"Ġextent":8601,"Ġextrem":8602,"Ġphony":8603,"Ġphones":8604,"Ġirwin":8605,"Ġrepellent":8606,"Ġrepressed":8607,"Ġsweat":8608,"Ġbub":8609,"Ġbug":8610,"Ġpowerpuff":8611,"apped":8612,"appily":8613,"apparently":8614,"gues":8615,"guided":8616,"guizamo":8617,"yssey":8618,"Ġmarching":8619,"Ġmargar":8620,"Ġmarried":8621,"Ġache":8622,"Ġacid":8623,"Ġdistant":8624,"Ġexplored":8625,"Ġdecency":8626,"Ġdecadent":8627,"Ġhorribly":8628,"Ġimagined":8629,"Ġimaginable":8630,"Ġcraw":8631,"strict":8632,"strange":8633,"Ġsolutions":8634,"Ġschlock":8635,"Ġinviting":8636,"Ġinvincible":8637,"Ġinvaluable":8638,"Ġpassable":8639,"Ġpassions":8640,"Ġthoughts":8641,"minally":8642,"Ġmindset":8643,"Ġanimals":8644,"withstanding":8645,"Ġfascination":8646,"Ġtitled":8647,"Ġtitular":8648,"Ġswings":8649,"Ġsword":8650,"Ġswinging":8651,"Ġswashbuck":8652,"Ġdarkness":8653,"Ġsweetest":8654,"Ġzipp":8655,"Ġstarting":8656,"Ġputting":8657,"Ġinteraction":8658,"Ġsaves":8659,"Ġlights":8660,"Ġlighting":8661,"Ġlightness":8662,"Ġmaid":8663,"Ġbrav":8664,"Ġbrave":8665,"Ġbrains":8666,"Ġbracing":8667,"Ġsentence":8668,"Ġsentiments":8669,"proves":8670,"provides":8671,"Ġboard":8672,"Ġparalle":8673,"Ġlowbrow":8674,"Ġsuspend":8675,"Ġsensibilities":8676,"Ġsensitivity":8677,"Ġexpects":8678,"Ġadded":8679,"Ġseriousness":8680,"Ġsumm":8681,"Ġsumptuous":8682,"Ġpsycho":8683,"Ġprofund":8684,"Ġsyn":8685,"Ġstronger":8686,"Ġopinion":8687,"Ġinspires":8688,"Ġdaily":8689,"Ġbehan":8690,"Ġdamon":8691,"Ġaccum":8692,"Ġaccident":8693,"Ġstein":8694,"Ġsteal":8695,"Ġsteve":8696,"Ġsimone":8697,"Ġadmittedly":8698,"Ġmisanth":8699,"Ġcredited":8700,"Ġsuccessfully":8701,"Ġwarmed":8702,"Ġelsewhere":8703,"Ġsnoo":8704,"Ġsnake":8705,"Ġsnipes":8706,"Ġbasket":8707,"Ġcamer":8708,"Ġfacet":8709,"Ġ95":8710,"Ġdifferences":8711,"Ġmusty":8712,"Ġdumbed":8713,"Ġdrunk":8714,"Ġsupply":8715,"Ġcountless":8716,"Ġmotown":8717,"maj":8718,"Ġrichard":8719,"Ġlatin":8720,"Ġsuffer":8721,"Ġsuffered":8722,"ettelbe":8723,"Ġjackass":8724,"obi":8725,"Ġinfuses":8726,"Ġangle":8727,"Ġdevice":8728,"Ġrocky":8729,"Ġcapital":8730,"Ġdeserved":8731,"Ġmixes":8732,"Ġfreundlich":8733,"Ġgotten":8734,"Ġtruths":8735,"Ġtruthful":8736,"Ġhopefully":8737,"Ġaffl":8738,"Ġsandra":8739,"ontaine":8740,"Ġdenis":8741,"Ġdenial":8742,"Ġdeniro":8743,"Ġexamine":8744,"Ġconception":8745,"Ġlift":8746,"Ġlifts":8747,"Ġcombines":8748,"Ġshocked":8749,"Ġshockingly":8750,"Ġsympath":8751,"iency":8752,"Ġautom":8753,"Ġsleek":8754,"Ġcostner":8755,"Ġtopical":8756,"Ġtechnically":8757,"Ġvirtu":8758,"Ġfemin":8759,"Ġnonstop":8760,"Ġadapted":8761,"Ġadaptations":8762,"Ġliteral":8763,"Ġtasteful":8764,"Ġcurm":8765,"Ġdigs":8766,"Ġimproved":8767,"Ġimprovised":8768,"Ġdefinition":8769,"Ġdefinitive":8770,"Ġbreakdown":8771,"Ġweirdness":8772,"Ġblandness":8773,"Ġbreathe":8774,"Ġeventual":8775,"Ġthinly":8776,"Ġfavour":8777,"Ġfavors":8778,"Ġobserved":8779,"Ġcollapses":8780,"Ġopenness":8781,"kinnear":8782,"Ġcallar":8783,"Ġsplash":8784,"Ġcamps":8785,"Ġcampy":8786,"Ġexisted":8787,"Ġproportions":8788,"Ġpostcard":8789,"Ġdepression":8790,"Ġepisodic":8791,"Ġsquanders":8792,"Ġlabor":8793,"Ġlabute":8794,"Ġrecommended":8795,"Ġroutines":8796,"Ġsexuality":8797,"Ġmajority":8798,"Ġ45":8799,"Ġlynch":8800,"charged":8801,"Ġfailing":8802,"Ġsurfing":8803,"Ġessential":8804,"Ġcrossroads":8805,"Ġpathology":8806,"Ġchallenge":8807,"formula":8808,"loving":8809,"Ġsources":8810,"Ġforever":8811,"Ġmerchant":8812,"Ġweddings":8813,"Ġthrowback":8814,"Ġthrowaway":8815,"Ġhomosexual":8816,"Ġknack":8817,"Ġastounding":8818,"Ġpalpable":8819,"Ġlimits":8820,"Ġmetaphorical":8821,"Ġramsay":8822,"Ġpitiful":8823,"Ġinnuend":8824,"Ġflashbacks":8825,"Ġnervy":8826,"Ġnervous":8827,"Ġmothers":8828,"Ġannoy":8829,"Ġlegacy":8830,"Ġdrawing":8831,"writers":8832,"Ġmachismo":8833,"Ġdana":8834,"Ġdanny":8835,"Ġgifts":8836,"Ġmovement":8837,"Ġjuicy":8838,"Ġuninteresting":8839,"Ġgroups":8840,"Ġappreciation":8841,"Ġappreciated":8842,"looks":8843,"Ġsalv":8844,"Ġsalute":8845,"Ġsalton":8846,"Ġbrendan":8847,"Ġpupp":8848,"Ġlaid":8849,"Ġsucks":8850,"Ġsucker":8851,"Ġclosing":8852,"Ġremembering":8853,"Ġprimary":8854,"Ġprimitive":8855,"Ġrepetition":8856,"Ġidiots":8857,"Ġidiocy":8858,"Ġsavage":8859,"Ġcatches":8860,"Ġhampered":8861,"Ġladies":8862,"Ġrequires":8863,"Ġemerging":8864,"Ġawkwardly":8865,"Ġexploring":8866,"Ġfitfully":8867,"Ġfragment":8868,"Ġfragile":8869,"Ġmilitary":8870,"Ġmilieu":8871,"Ġmaker":8872,"Ġbiography":8873,"Ġwalking":8874,"Ġwallet":8875,"Ġtowards":8876,"Ġdisguised":8877,"Ġestrogen":8878,"Ġaimless":8879,"Ġnuances":8880,"Ġscratching":8881,"putting":8882,"Ġfathers":8883,"aggeringly":8884,"Ġintensely":8885,"Ġchecklist":8886,"Ġrepresent":8887,"Ġexpression":8888,"Ġprofoundly":8889,"Ġextraordinarily":8890,"Ġstrengths":8891,"bearing":8892,"Ġfreaky":8893,"Ġbogs":8894,"Ġbogged":8895,"Ġboldly":8896,"Ġwallop":8897,"Ġpanor":8898,"Ġpanache":8899,"Ġpantheon":8900,"Ġstaying":8901,"Ġexcesses":8902,"Ġelegantly":8903,"boys":8904,"disney":8905,"uitous":8906,"Ġignored":8907,"Ġtenderness":8908,"Ġreaching":8909,"Ġallowing":8910,"Ġadmirably":8911,"Ġauthenticity":8912,"crack":8913,"Ġbowling":8914,"Ġhallucin":8915,"Ġnaive":8916,"Ġstreets":8917,"Ġjolie":8918,"Ġlearned":8919,"Ġconsistent":8920,"Ġwilco":8921,"Ġpiccoli":8922,"Ġdiva":8923,"Ġguts":8924,"Ġsticking":8925,"Ġrussell":8926,"Ġspotlight":8927,"Ġarchival":8928,"Ġradar":8929,"Ġradical":8930,"extremely":8931,"Ġirrele":8932,"cultural":8933,"driven":8934,"sheridan":8935,"winning":8936,"Ġtosses":8937,"Ġresembling":8938,"Ġshameless":8939,"Ġemphasis":8940,"Ġmichell":8941,"Ġcroc":8942,"Ġhurt":8943,"Ġhurley":8944,"secret":8945,"Ġdebate":8946,"Ġspinning":8947,"Ġclimax":8948,"Ġtextbook":8949,"Ġreflective":8950,"producer":8951,"Ġembrace":8952,"Ġdynamics":8953,"Ġfabul":8954,"Ġgroan":8955,"ooping":8956,"Ġhearst":8957,"Ġconspic":8958,"Ġconversation":8959,"Ġflowers":8960,"Ġcollective":8961,"Ġmotivated":8962,"Ġregarding":8963,"Ġregardless":8964,"Ġlandscapes":8965,"Ġbreathtakingly":8966,"Ġintroduction":8967,"Ġintroduces":8968,"Ġfiercely":8969,"hardly":8970,"vili":8971,"Ġsixth":8972,"Ġmental":8973,"Ġmacabre":8974,"Ġnarciss":8975,"Ġunwatchable":8976,"Ġkicking":8977,"Ġkorea":8978,"Ġthematically":8979,"Ġexplosion":8980,"Ġinvestig":8981,"Ġpauline":8982,"Ġwonders":8983,"Ġdonovan":8984,"Ġlilo":8985,"Ġlucas":8986,"Ġlucky":8987,"Ġelling":8988,"Ġsuccumb":8989,"Ġhawk":8990,"Ġruins":8991,"Ġrisk":8992,"Ġdepartment":8993,"Ġdistinguished":8994,"Ġcommunic":8995,"Ġjews":8996,"calcul":8997,"family":8998,"modern":8999,"Ġtempting":9000,"Ġfacile":9001,"eneuve":9002,"Ġbaby":9003,"Ġvaguely":9004,"Ġimmediate":9005,"Ġfloor":9006,"Ġaccurately":9007,"Ġpuzzle":9008,"Ġpuzzling":9009,"Ġsacrifice":9010,"Ġuncomfortable":9011,"better":9012,"between":9013,"solondz":9014,"Ġbesides":9015,"Ġboundaries":9016,"Ġincomprehensible":9017,"Ġincompetent":9018,"Ġeconomical":9019,"Ġrelevant":9020,"Ġscottish":9021,"Ġconveys":9022,"Ġventure":9023,"Ġspanish":9024,"Ġrowdy":9025,"Ġcriminal":9026,"Ġsymbolic":9027,"Ġcourtroom":9028,"generated":9029,"Ġlocales":9030,"Ġinexplicably":9031,"drops":9032,"poignant":9033,"Ġodyssey":9034,"Ġjonah":9035,"Ġsevere":9036,"Ġunbearable":9037,"Ġunbearably":9038,"Ġperceptive":9039,"accid":9040,"Ġdismissed":9041,"Ġdisgusting":9042,"Ġvietnamese":9043,"Ġinterviews":9044,"Ġcontemplative":9045,"Ġestablishes":9046,"Ġcontradictory":9047,"Ġfundamentals":9048,"aghan":9049,"busters":9050,"finitely":9051,"volving":9052,"Ġseldahl":9053,"Ġfingered":9054,"Ġlunacy":9055,"Ġetc":9056,"Ġgyllenha":9057,"Ġrejected":9058,"Ġjanice":9059,"Ġjacquot":9060,"Ġseparate":9061,"Ġshrill":9062,"Ġconcoction":9063,"Ġprevents":9064,"Ġclinical":9065,"Ġarresting":9066,"Ġadvance":9067,"Ġemploys":9068,"showtime":9069,"Ġcrudup":9070,"Ġapplaud":9071,"Ġguaranteed":9072,"Ġillustrates":9073,"Ġoptimism":9074,"Ġphenomenal":9075,"certainly":9076,"sadly":9077,"Ġtreads":9078,"Ġfreddy":9079,"Ġwidow":9080,"Ġinsecure":9081,"Ġgothic":9082,"Ġstroke":9083,"Ġdopey":9084,"Ġkennedy":9085,"Ġloyalty":9086,"Ġflesh":9087,"Ġdiscern":9088,"Ġarticulate":9089,"Ġinsanely":9090,"Ġgratuitous":9091,"Ġgibson":9092,"Ġappetite":9093,"Ġinterpretation":9094,"Ġconvictions":9095,"Ġsteady":9096,"Ġcondescending":9097,"Ġdestruction":9098,"Ġ3000":9099,"Ġargentine":9100,"Ġschmaltzy":9101,"Ġneighborhood":9102,"simply":9103,"Ġ\\*\\*\\*":9104,"Ġtambor":9105,"Ġsabot":9106,"Ġmuddle":9107,"Ġdedication":9108,"Ġgiddy":9109,"Ġmoonlight":9110,"vigorating":9111,"Ġanguish":9112,"Ġhenry":9113,"Ġenlightening":9114,"Ġcompensate":9115,"Ġundermines":9116,"Ġobligatory":9117,"important":9118,"Ġcohesive":9119,"Ġexcruciating":9120,"Ġskateboard":9121,"Ġinfuriating":9122,"Ġdiscussion":9123,"Ġconspiracy":9124,"friendly":9125,"Ġextravaganza":9126,"congrat":9127,"numbingly":9128,"rotechn":9129,"twenty":9130,"williams":9131,"Ġacknowled":9132,"Ġsizzle":9133,"Ġmourn":9134,"Ġwendigo":9135,"Ġdawson":9136,"Ġhundred":9137,"Ġhospital":9138,"Ġanomie":9139,"adventure":9140,"Ġchurch":9141,"Ġhewitt":9142,"Ġuncommonly":9143,"Ġscreens":9144,"Ġflamboyant":9145,"Ġcompanion":9146,"Ġblatant":9147,"Ġdisintegr":9148,"achtwey":9149,"Ġcoffee":9150,"Ġfarcical":9151,"Ġincessant":9152,"Ġcarpenter":9153,"Ġpunctuated":9154,"Ġantidote":9155,"Ġveteran":9156,"Ġmethod":9157,"Ġinfantile":9158,"Ġchristopher":9159,"Ġlyricism":9160,"Ġpenetrating":9161,"Ġunconventional":9162,"Ġthornberrys":9163,"evokes":9164,"lotte":9165,"language":9166,"noyce":9167,"surprisingly":9168,"Ġtawdry":9169,"Ġbesson":9170,"Ġborders":9171,"Ġcipher":9172,"Ġwretched":9173,"Ġpessim":9174,"Ġdisease":9175,"Ġlambs":9176,"Ġnaturally":9177,"Ġyiddish":9178,"Ġyesterday":9179,"ayburgh":9180,"Ġfortune":9181,"Ġalbeit":9182,"Ġjennifer":9183,"Ġshoddy":9184,"Ġunassuming":9185,"Ġunfortunate":9186,"Ġkafka":9187,"Ġsoccer":9188,"Ġoutlandish":9189,"Ġravishing":9190,"Ġimpenetrable":9191,"Ġchekhov":9192,"Ġaficionados":9193,"Ġmisanthrop":9194,"Ġbasketball":9195,"ettelbeck":9196,"Ġgyllenhaal":9197,"11":9198,"50":9199,"aan":9200,"awn":9201,"aign":9202,"aims":9203,"bare":9204,"bod":9205,"burn":9206,"break":9207,"bows":9208,"baf":9209,"barely":9210,"breaking":9211,"birthday":9212,"cu":9213,"cor":9214,"cam":9215,"cop":9216,"cook":9217,"cated":9218,"cold":9219,"cond":9220,"chen":9221,"cener":9222,"cinematic":9223,"did":9224,"dam":9225,"dun":9226,"dull":9227,"dense":9228,"dling":9229,"dles":9230,"dsy":9231,"dream":9232,"drenched":9233,"eo":9234,"ez":9235,"ech":9236,"eem":9237,"fight":9238,"folds":9239,"gun":9240,"gone":9241,"gie":9242,"gary":9243,"ggin":9244,"hh":9245,"hl":9246,"hman":9247,"happy":9248,"holds":9249,"hta":9250,"iri":9251,"iate":9252,"iving":9253,"iations":9254,"jes":9255,"jacqu":9256,"kil":9257,"kip":9258,"kiness":9259,"lab":9260,"log":9261,"law":9262,"liff":9263,"laz":9264,"lÃ£ÆĴÃ¢":9265,"ludes":9266,"looper":9267,"laim":9268,"mou":9269,"make":9270,"mical":9271,"mull":9272,"mond":9273,"mash":9274,"miller":9275,"michael":9276,"minsky":9277,"morton":9278,"mocking":9279,"nel":9280,"nour":9281,"nicks":9282,"narc":9283,"oir":9284,"oge":9285,"oated":9286,"py":9287,"pal":9288,"pot":9289,"pay":9290,"pus":9291,"pons":9292,"parent":9293,"posed":9294,"paul":9295,"personal":9296,"presents":9297,"pisi":9298,"qatsi":9299,"rs":9300,"rion":9301,"rup":9302,"sle":9303,"sod":9304,"shed":9305,"spec":9306,"suc":9307,"sky":9308,"sons":9309,"schn":9310,"sai":9311,"skip":9312,"tim":9313,"tak":9314,"told":9315,"tail":9316,"taken":9317,"tries":9318,"tti":9319,"tinent":9320,"uk":9321,"uing":9322,"uil":9323,"uum":9324,"uate":9325,"uary":9326,"vall":9327,"vably":9328,"vors":9329,"wing":9330,"wal":9331,"wow":9332,"west":9333,"wick":9334,"wann":9335,"winded":9336,"yr":9337,"yjes":9338,"Â¢":9339,"Â¨":9340,"Â¯":9341,"Â³":9342,"Âł":9343,"Ġ#":9344,"Ġ70":9345,"Ġ\\*":9346,"Ġta":9347,"Ġtel":9348,"Ġtid":9349,"Ġtall":9350,"Ġtwe":9351,"Ġtren":9352,"Ġtins":9353,"Ġtensions":9354,"Ġtadpole":9355,"Ġtsai":9356,"Ġaft":9357,"Ġahol":9358,"hel":9359,"held":9360,"heated":9361,"hepisi":9362,"Ġsi":9363,"Ġsau":9364,"Ġshed":9365,"Ġselling":9366,"Ġsib":9367,"Ġsize":9368,"Ġsalt":9369,"Ġsession":9370,"Ġsessions":9371,"reve":9372,"really":9373,"rene":9374,"Ġoz":9375,"Ġove":9376,"Ġoce":9377,"Ġowe":9378,"Ġomn":9379,"Ġoedekerk":9380,"erile":9381,"erving":9382,"erably":9383,"ithe":9384,"itter":9385,"itches":9386,"Ġtheories":9387,"Ġfart":9388,"Ġfres":9389,"Ġfade":9390,"Ġfris":9391,"Ġfaced":9392,"Ġfien":9393,"Ġfuss":9394,"Ġfinger":9395,"Ġfiring":9396,"isy":9397,"isingly":9398,"isions":9399,"Ġmim":9400,"Ġmort":9401,"Ġmick":9402,"Ġmib":9403,"Ġmummy":9404,"Ġmawk":9405,"ata":9406,"atty":9407,"Ġbom":9408,"Ġbent":9409,"Ġburn":9410,"Ġbible":9411,"Ġberg":9412,"Ġboot":9413,"Ġburd":9414,"Ġbagg":9415,"Ġburning":9416,"Ġcum":9417,"Ġcind":9418,"Ġcog":9419,"Ġcup":9420,"Ġcub":9421,"Ġcallow":9422,"Ġcooper":9423,"Ġwart":9424,"Ġwrap":9425,"Ġwrest":9426,"inge":9427,"ingers":9428,"escent":9429,"ndon":9430,"ora":9431,"orrow":9432,"oria":9433,"oning":9434,"onou":9435,"onse":9436,"Ġpas":9437,"Ġpry":9438,"Ġpear":9439,"Ġpris":9440,"Ġpause":9441,"Ġpuff":9442,"Ġpier":9443,"Ġpony":9444,"Ġpiqu":9445,"Ġpilot":9446,"ana":9447,"aned":9448,"anagh":9449,"Ġdy":9450,"Ġdar":9451,"Ġdol":9452,"Ġdun":9453,"Ġdime":9454,"Ġdict":9455,"Ġdated":9456,"Ġdold":9457,"Ġdude":9458,"Ġdrew":9459,"Ġdwell":9460,"Ġdizz":9461,"Ġdarned":9462,"arad":9463,"Ġandrew":9464,"ald":9465,"alth":9466,"alos":9467,"alph":9468,"Ġthirty":9469,"Ġhood":9470,"Ġhog":9471,"Ġhors":9472,"Ġhudlin":9473,"Ġhungry":9474,"Ġhicken":9475,"lear":9476,"leave":9477,"icz":9478,"icable":9479,"iceless":9480,"iciously":9481,"Ġtol":9482,"Ġinadvert":9483,"Ġinvigorating":9484,"edish":9485,"edited":9486,"ille":9487,"ilated":9488,"ilogy":9489,"Ġlol":9490,"Ġlone":9491,"Ġlend":9492,"Ġlunch":9493,"oman":9494,"omed":9495,"Ġnash":9496,"Ġnause":9497,"Ġnuc":9498,"Ġnifty":9499,"Ġnachtwey":9500,"stri":9501,"strom":9502,"Ġec":9503,"Ġeld":9504,"Ġeaster":9505,"Ġelection":9506,"Ġgas":9507,"Ġgad":9508,"Ġgant":9509,"Ġgest":9510,"Ġgere":9511,"Ġgary":9512,"Ġgear":9513,"Ġgris":9514,"ctions":9515,"elstrom":9516,"Ġmock":9517,"Ġmode":9518,"asi":9519,"asia":9520,"otically":9521,"otted":9522,"Ġstol":9523,"Ġstam":9524,"Ġstur":9525,"Ġstall":9526,"Ġstake":9527,"Ġstult":9528,"Ġstately":9529,"Ġstages":9530,"Ġstreak":9531,"Ġstumbles":9532,"Ġstopped":9533,"Ġstaggeringly":9534,"imen":9535,"imate":9536,"Ġbef":9537,"Ġbeer":9538,"Ġbean":9539,"Ġbeats":9540,"Ġbeij":9541,"vier":9542,"vile":9543,"vivid":9544,"violent":9545,"Ġrely":9546,"Ġrese":9547,"Ġreck":9548,"Ġreef":9549,"Ġrehas":9550,"Ġresemble":9551,"Ġrevision":9552,"Ġreached":9553,"Ġrerun":9554,"ghthe":9555,"verb":9556,"rose":9557,"rock":9558,"rooge":9559,"chou":9560,"chard":9561,"change":9562,"chilling":9563,"Ġyield":9564,"Ġyellow":9565,"Ġyvan":9566,"Ġash":9567,"riguing":9568,"ripper":9569,"oling":9570,"olan":9571,"olia":9572,"ayas":9573,"ado":9574,"adian":9575,"addle":9576,"adults":9577,"Ġforte":9578,"seat":9579,"sever":9580,"Ġwhine":9581,"Ġsuits":9582,"Ġsuitable":9583,"Ġsudsy":9584,"Ġsugary":9585,"iry":9586,"irteen":9587,"Ġcoma":9588,"Ġcomically":9589,"ifies":9590,"ifts":9591,"Ġchain":9592,"ĠchÃ£ÆĴÃ¢":9593,"ths":9594,"thon":9595,"amid":9596,"amura":9597,"Ġalt":9598,"Ġalan":9599,"Ġalfred":9600,"erschool":9601,"Ġheist":9602,"Ġherit":9603,"Ġhefty":9604,"ables":9605,"abby":9606,"abbing":9607,"ablish":9608,"unfolds":9609,"Ġjell":9610,"Ġjaw":9611,"Ġjord":9612,"Ġjazz":9613,"Ġjaded":9614,"agen":9615,"umn":9616,"Ġseal":9617,"Ġsection":9618,"cked":9619,"ements":9620,"Ġenvelop":9621,"urg":9622,"uristic":9623,"urried":9624,"Ġlily":9625,"Ġliking":9626,"Ġlibert":9627,"Ġlighthe":9628,"Ġexit":9629,"Ġexter":9630,"istas":9631,"istine":9632,"istently":9633,"istencies":9634,"Ġshut":9635,"Ġshop":9636,"Ġshred":9637,"Ġshifting":9638,"Ġshaky":9639,"Ġshares":9640,"Ġshorter":9641,"Ġshanghai":9642,"Ġshainberg":9643,"queness":9644,"roman":9645,"romantic":9646,"Ġabc":9647,"Ġabrupt":9648,"Ġnotch":9649,"Ġnotwithstanding":9650,"Ġdover":9651,"Ġdoze":9652,"Ġdozen":9653,"Ġdogged":9654,"Ġdean":9655,"Ġdegra":9656,"estinian":9657,"Ġunap":9658,"Ġunco":9659,"Ġunmist":9660,"Ġunreal":9661,"Ġunknow":9662,"Ġunmention":9663,"Ġschem":9664,"Ġscrooge":9665,"ellar":9666,"Ġatroc":9667,"Ġkings":9668,"Ġkits":9669,"Ġknot":9670,"Ġkilling":9671,"Ġkills":9672,"Ġkieslowski":9673,"Ġsoar":9674,"acting":9675,"actor":9676,"actly":9677,"igans":9678,"Ġbyatt":9679,"Ġbyler":9680,"force":9681,"Ġcharge":9682,"Ġcharitable":9683,"anding":9684,"anded":9685,"Ġproved":9686,"Ġrate":9687,"Ġrural":9688,"Ġrhet":9689,"Ġralph":9690,"Ġalluring":9691,"Ġlikeable":9692,"opera":9693,"Ġplus":9694,"Ġplaced":9695,"Ġplaus":9696,"Ġpluto":9697,"indler":9698,"Ġleather":9699,"Ġlewis":9700,"Ġleguizamo":9701,"Ġprey":9702,"Ġpreced":9703,"Ġprejud":9704,"george":9705,"Ġvon":9706,"Ġvard":9707,"Ġvistas":9708,"Ġwhodun":9709,"Ġspi":9710,"Ġspo":9711,"Ġspright":9712,"Ġsporting":9713,"Ġspiced":9714,"Ġperm":9715,"Ġperil":9716,"Ġperry":9717,"Ġpertinent":9718,"Ġorche":9719,"Ġorwell":9720,"Ġorgasm":9721,"ptic":9722,"Ġimit":9723,"Ġclar":9724,"Ġclancy":9725,"Ġclips":9726,"Ġclayburgh":9727,"Ġstorylines":9728,"ective":9729,"ittered":9730,"pling":9731,"pps":9732,"Ġoutline":9733,"Ġoutright":9734,"enda":9735,"endence":9736,"endium":9737,"Ġfunction":9738,"Ġmanic":9739,"Ġquint":9740,"Ġquaid":9741,"Ġquasi":9742,"Ġtrim":9743,"Ġtruck":9744,"Ġtrump":9745,"Ġtrilogy":9746,"Ġlovable":9747,"Ġloaded":9748,"Ġloads":9749,"Ġlondon":9750,"def":9751,"dev":9752,"death":9753,"developed":9754,"definitely":9755,"Ġnod":9756,"Ġnov":9757,"Ġnose":9758,"ramax":9759,"ramsay":9760,"erty":9761,"aren":9762,"Ġupro":9763,"Ġupbeat":9764,"Ġark":9765,"Ġarm":9766,"Ġarty":9767,"Ġarbit":9768,"acon":9769,"ogyn":9770,"Ġflame":9771,"Ġflower":9772,"Ġflirts":9773,"Ġflailing":9774,"Ġflaccid":9775,"ourse":9776,"Ġadop":9777,"Ġadroit":9778,"Ġgoods":9779,"Ġgoodness":9780,"Ġgoodwill":9781,"Ġdirectly":9782,"Ġdirections":9783,"odile":9784,"coming":9785,"wear":9786,"Ġmuck":9787,"Ġmugging":9788,"Ġcompar":9789,"Ġcompos":9790,"Ġcompare":9791,"Ġcompared":9792,"Ġcomposition":9793,"Ġcompulsively":9794,"Ġcompendium":9795,"Ġcanny":9796,"assy":9797,"assed":9798,"assured":9799,"Ġposter":9800,"ntial":9801,"mented":9802,"Ġenticing":9803,"Ġrodriguez":9804,"Ġworkplace":9805,"Ġblond":9806,"Ġblax":9807,"Ġbloated":9808,"Ġoverwritten":9809,"Ġoverrun":9810,"Ġoverproduced":9811,"Ġoverbearing":9812,"Ġdiscon":9813,"Ġdispar":9814,"Ġdisappe":9815,"ryan":9816,"ounders":9817,"ensed":9818,"inting":9819,"intriguing":9820,"Ġslim":9821,"Ġslam":9822,"Ġslash":9823,"Ġrapp":9824,"Ġraces":9825,"Ġrauc":9826,"Ġraunch":9827,"Ġrabbit":9828,"Ġmehta":9829,"Ġfaults":9830,"Ġrib":9831,"Ġriot":9832,"Ġriver":9833,"Ġridd":9834,"Ġrigid":9835,"Ġtwenty":9836,"spider":9837,"Ġmakeup":9838,"Ġeverybody":9839,"Ġimpat":9840,"Ġimpersonal":9841,"Ġtalks":9842,"Ġrealm":9843,"Ġrealization":9844,"owned":9845,"Ġviv":9846,"Ġvign":9847,"atics":9848,"Ġendurance":9849,"Ġbru":9850,"Ġbrimming":9851,"angel":9852,"angled":9853,"Ġdesired":9854,"Ġsmith":9855,"Ġsmash":9856,"shop":9857,"Ġstrate":9858,"Ġstruck":9859,"versity":9860,"Ġcontact":9861,"button":9862,"liang":9863,"Ġagit":9864,"Ġaged":9865,"Ġtrail":9866,"Ġtrace":9867,"achable":9868,"achie":9869,"achment":9870,"igned":9871,"ignific":9872,"Ġplots":9873,"Ġplotline":9874,"Ġunderbel":9875,"Ġunderwritten":9876,"Ġundercur":9877,"Ġromances":9878,"Ġresent":9879,"Ġresolution":9880,"ashvili":9881,"vently":9882,"scra":9883,"scotland":9884,"Ġcrushing":9885,"Ġcristo":9886,"Ġgreatly":9887,"Ġholof":9888,"impostor":9889,"Ġshowgirls":9890,"Ġcheated":9891,"Ġcheek":9892,"Ġawak":9893,"Ġawesome":9894,"Ġwarner":9895,"Ġwarfare":9896,"viewers":9897,"Ġinsider":9898,"Ġstillborn":9899,"being":9900,"before":9901,"Ġcoherence":9902,"teau":9903,"Ġhardy":9904,"Ġscenic":9905,"Ġdowns":9906,"concept":9907,"Ġfarm":9908,"rows":9909,"umentary":9910,"Ġgray":9911,"Ġgraph":9912,"Ġscripts":9913,"Ġscripting":9914,"Ġscripted":9915,"Ġrelative":9916,"Ġenjoyment":9917,"Ġfraser":9918,"Ġguest":9919,"Ġengages":9920,"Ġengland":9921,"Ġviewed":9922,"Ġbackstage":9923,"Ġbackdrops":9924,"notes":9925,"aze":9926,"azing":9927,"Ġglac":9928,"Ġglaring":9929,"Ġstyles":9930,"Ġsetup":9931,"Ġexcited":9932,"Ġdepra":9933,"Ġkidn":9934,"Ġhumanizing":9935,"Ġincor":9936,"Ġcomplet":9937,"Ġpronou":9938,"Ġpristine":9939,"Ġindo":9940,"Ġindians":9941,"except":9942,"exactly":9943,"Ġpleasantly":9944,"Ġshenan":9945,"Ġfincher":9946,"Ġextr":9947,"Ġskins":9948,"Ġphrase":9949,"Ġcreatures":9950,"Ġswear":9951,"Ġbund":9952,"Ġbuzz":9953,"Ġbubble":9954,"appropri":9955,"Ġmargin":9956,"Ġmarshall":9957,"meets":9958,"meyjes":9959,"noisse":9960,"Ġacute":9961,"inson":9962,"insomnia":9963,"Ġdecides":9964,"Ġpoll":9965,"Ġpolicy":9966,"Ġhorse":9967,"Ġhorrors":9968,"Ġspeculation":9969,"directors":9970,"Ġhistor":9971,"Ġhistrion":9972,"Ġconsuming":9973,"Ġconsolation":9974,"Ġproduces":9975,"Ġ25":9976,"Ġmember":9977,"Ġmemoir":9978,"Ġcaric":9979,"Ġcarol":9980,"Ġcaruso":9981,"Ġcraven":9982,"Ġexperimental":9983,"Ġmorbid":9984,"Ġedits":9985,"Ġedition":9986,"steers":9987,"Ġmiike":9988,"Ġmiramax":9989,"Ġpassed":9990,"Ġpassages":9991,"Ġsuperstar":9992,"xtap":9993,"Ġmonstr":9994,"Ġsilber":9995,"Ġclassy":9996,"Ġclassical":9997,"ubbing":9998,"Ġbrook":9999,"iculously":10000,"Ġanimat":10001,"ording":10002,"Ġdetract":10003,"Ġdetective":10004,"Ġstudents":10005,"Ġstudios":10006,"Ġchildlike":10007,"Ġgenerating":10008,"Ġgenerations":10009,"Ġgenerates":10010,"Ġmusicians":10011,"Ġswoon":10012,"Ġswagg":10013,"Ġswedish":10014,"Ġbeliever":10015,"Ġbelieves":10016,"Ġbelieved":10017,"Ġbelievability":10018,"attle":10019,"attage":10020,"Ġportraying":10021,"Ġzha":10022,"Ġzomb":10023,"rett":10024,"return":10025,"retentious":10026,"Ġharmon":10027,"Ġepip":10028,"Ġepics":10029,"Ġexposes":10030,"Ġdullest":10031,"Ġmedical":10032,"Ġmeditative":10033,"ieldy":10034,"ielinsky":10035,"Ġborn":10036,"Ġsail":10037,"Ġlighter":10038,"Ġdeepest":10039,"Ġstrand":10040,"Ġbravery":10041,"Ġnarrator":10042,"Ġsmartest":10043,"brings":10044,"brilli":10045,"prof":10046,"prop":10047,"Ġparis":10048,"Ġsadistic":10049,"Ġbarri":10050,"Ġbargain":10051,"Ġunde":10052,"Ġunders":10053,"Ġunderest":10054,"Ġexpecting":10055,"Ġunsurpris":10056,"Ġadding":10057,"Ġaddresses":10058,"Ġretains":10059,"Ġpotency":10060,"Ġpsychopath":10061,"Ġdied":10062,"Ġdiary":10063,"Ġdivide":10064,"Ġprofane":10065,"Ġsyrup":10066,"Ġreduced":10067,"Ġreduce":10068,"Ġassuming":10069,"Ġassume":10070,"Ġassault":10071,"claude":10072,"Ġopens":10073,"Ġprobing":10074,"Ġnarratively":10075,"Ġdawn":10076,"Ġfactory":10077,"Ġpatron":10078,"Ġequals":10079,"Ġequilibrium":10080,"Ġcentered":10081,"Ġcenturies":10082,"Ġtransformed":10083,"Ġtransforms":10084,"few":10085,"features":10086,"Ġwinter":10087,"Ġpromisingly":10088,"urient":10089,"ceeds":10090,"goes":10091,"Ġmurd":10092,"Ġpunk":10093,"Ġpunching":10094,"Ġpunishment":10095,"Ġoperates":10096,"Ġfantast":10097,"Ġmisogy":10098,"Ġmisguided":10099,"Ġmiscalcul":10100,"Ġmisogyn":10101,"ailable":10102,"ronic":10103,"Ġsinger":10104,"Ġsingular":10105,"Ġheroic":10106,"Ġoddest":10107,"Ġgriffith":10108,"grant":10109,"Ġoccup":10110,"Ġmuster":10111,"Ġwahl":10112,"Ġanticip":10113,"Ġcomplexities":10114,"ugging":10115,"Ġillog":10116,"Ġillness":10117,"Ġillusion":10118,"Ġearns":10119,"Ġearnhart":10120,"Ġalongside":10121,"Ġflatulence":10122,"Ġcuteness":10123,"Ġsignpost":10124,"Ġcounty":10125,"blade":10126,"Ġquieter":10127,"Ġslightest":10128,"maid":10129,"Ġcalm":10130,"Ġuniverse":10131,"onymous":10132,"Ġrichness":10133,"Ġpaean":10134,"Ġsuffoc":10135,"compelling":10136,"Ġstripped":10137,"Ġjeff":10138,"Ġimportantly":10139,"obs":10140,"obvious":10141,"Ġinfin":10142,"Ġinfidelity":10143,"Ġdogma":10144,"Ġdogtown":10145,"Ġdevotion":10146,"Ġdevito":10147,"Ġcapra":10148,"uttering":10149,"Ġstoryteller":10150,"Ġexplode":10151,"cipl":10152,"Ġfreud":10153,"Ġmadden":10154,"lett":10155,"lette":10156,"Ġcreepiness":10157,"wrote":10158,"Ġaffirming":10159,"Ġcorrupt":10160,"Ġcorporate":10161,"Ġdenied":10162,"Ġfatale":10163,"Ġpayne":10164,"Ġinstit":10165,"Ġinstance":10166,"afer":10167,"elegant":10168,"Ġ85":10169,"Ġ86":10170,"Ġ88":10171,"Ġhopeless":10172,"Ġhopelessly":10173,"otta":10174,"Ġletdown":10175,"Ġsymmet":10176,"everyone":10177,"Ġfutile":10178,"Ġfuturistic":10179,"Ġdevelopments":10180,"boat":10181,"boards":10182,"Ġtedium":10183,"Ġfires":10184,"Ġballet":10185,"Ġfriendly":10186,"Ġconsiderably":10187,"Ġspectacularly":10188,"Ġvirtue":10189,"Ġfeminist":10190,"Ġpossibilities":10191,"Ġdriver":10192,"Ġdriven":10193,"Ġdrives":10194,"Ġmoods":10195,"Ġgrandi":10196,"liners":10197,"Ġfocusing":10198,"Ġcurse":10199,"Ġdiggs":10200,"Ġprovided":10201,"Ġrolls":10202,"Ġrollicking":10203,"Ġimprovis":10204,"whenever":10205,"Ġtestud":10206,"Ġtestimony":10207,"Ġbreathes":10208,"Ġforcefully":10209,"Ġjoys":10210,"Ġjoyful":10211,"Ġtraditions":10212,"gives":10213,"Ġunpretentious":10214,"Ġprocession":10215,"Ġreminding":10216,"Ġcollage":10217,"Ġroberts":10218,"Ġburr":10219,"Ġburst":10220,"Ġtediously":10221,"Ġfulf":10222,"Ġfootball":10223,"Ġfootnote":10224,"Ġcops":10225,"Ġcampaign":10226,"Ġwaterlog":10227,"Ġdestiny":10228,"Ġposturing":10229,"Ġpostmodern":10230,"Ġimpressively":10231,"Ġartistry":10232,"Ġphotograph":10233,"market":10234,"Ġgeared":10235,"Ġendeav":10236,"Ġquestionable":10237,"ovsky":10238,"spective":10239,"Ġlying":10240,"Ġlyne":10241,"Ġpurport":10242,"Ġsucceeded":10243,"Ġfrustratingly":10244,"Ġabsurdly":10245,"Ġabsurdities":10246,"Ġcelebratory":10247,"zzle":10248,"Ġcrossed":10249,"alters":10250,"Ġslapdash":10251,"Ġskillful":10252,"Ġskillfully":10253,"Ġsustained":10254,"Ġmerits":10255,"Ġnaturalism":10256,"Ġdeterior":10257,"Ġtearjerk":10258,"Ġastute":10259,"Ġpalatable":10260,"Ġgoofball":10261,"Ġintentionally":10262,"Ġprecision":10263,"Ġpitched":10264,"agging":10265,"Ġsparks":10266,"Ġstruggles":10267,"Ġfranklin":10268,"Ġ2000":10269,"Ġbrainless":10270,"Ġrecommendation":10271,"Ġpackage":10272,"Ġnerves":10273,"Ġcontinuity":10274,"Ġmurderous":10275,"colm":10276,"Ġtimid":10277,"Ġfolly":10278,"Ġtomorrow":10279,"Ġjuxtap":10280,"Ġimmac":10281,"Ġwilliam":10282,"Ġimpressions":10283,"Ġdescription":10284,"Ġuniquely":10285,"Ġfriendships":10286,"Ġtargeted":10287,"Ġsophistication":10288,"Ġaccomplish":10289,"Ġaccomplishes":10290,"eye":10291,"trans":10292,"trash":10293,"Ġsorvino":10294,"Ġmistaken":10295,"Ġpuerile":10296,"Ġposing":10297,"Ġlaure":10298,"Ġlaud":10299,"Ġlaisse":10300,"Ġsucking":10301,"Ġsucked":10302,"Ġconventions":10303,"Ġfearless":10304,"Ġsuperficially":10305,"Ġbroadway":10306,"Ġidiotic":10307,"Ġshadyac":10308,"Ġawkwardness":10309,"Ġturnt":10310,"Ġturgid":10311,"Ġmilk":10312,"Ġwalter":10313,"Ġwalsh":10314,"Ġinexper":10315,"Ġcommerce":10316,"Ġintellectually":10317,"Ġweighty":10318,"consciously":10319,"Ġescaped":10320,"Ġsonny":10321,"Ġsickly":10322,"Ġethics":10323,"Ġresponse":10324,"Ġuninvolving":10325,"Ġmanipulation":10326,"Ġrapid":10327,"Ġrapidly":10328,"Ġrealistically":10329,"Ġdistinctly":10330,"Ġcircus":10331,"puts":10332,"Ġtunes":10333,"Ġtuned":10334,"Ġvillains":10335,"Ġvilleneuve":10336,"Ġsettle":10337,"Ġsettings":10338,"Ġsettled":10339,"Ġfrighteningly":10340,"Ġexpressions":10341,"Ġaffectionate":10342,"Ġinnocuous":10343,"bears":10344,"Ġdiscord":10345,"Ġsurvival":10346,"Ġsurvivors":10347,"Ġcinematographer":10348,"Ġelegance":10349,"Ġmagnetic":10350,"Ġenthusiast":10351,"Ġmodestly":10352,"Ġridiculousness":10353,"Ġtransporting":10354,"discovery":10355,"uracy":10356,"Ġdurable":10357,"Ġduvall":10358,"Ġlengthy":10359,"Ġartistically":10360,"Ġobsessions":10361,"Ġobsessive":10362,"Ġobjectivity":10363,"control":10364,"contrived":10365,"Ġglimpses":10366,"Ġembarrassed":10367,"Ġeccentricities":10368,"nicole":10369,"Ġbanality":10370,"Ġpicked":10371,"Ġdimension":10372,"Ġlanguorous":10373,"Ġnaipaul":10374,"rolling":10375,"Ġjolly":10376,"Ġscariest":10377,"Ġscarcely":10378,"Ġscreams":10379,"Ġterrorism":10380,"Ġprotagonists":10381,"Ġfervently":10382,"Ġmasoch":10383,"Ġmillions":10384,"Ġwastes":10385,"Ġpray":10386,"Ġlayer":10387,"Ġlayered":10388,"Ġloosely":10389,"Ġsticky":10390,"Ġalternate":10391,"Ġshaped":10392,"Ġradiant":10393,"Ġswimming":10394,"Ġsignificance":10395,"Ġamateurishly":10396,"rums":10397,"Ġboredom":10398,"Ġpractice":10399,"Ġpinochet":10400,"Ġgoldie":10401,"Ġgoldmember":10402,"Ġjersey":10403,"Ġliberating":10404,"Ġwillingness":10405,"Ġrecogniz":10406,"Ġprofessionalism":10407,"audiences":10408,"huang":10409,"huppert":10410,"super":10411,"Ġtackling":10412,"remember":10413,"Ġflee":10414,"Ġbodice":10415,"Ġbodily":10416,"Ġcros":10417,"Ġpushed":10418,"Ġproceeds":10419,"Ġspellbind":10420,"Ġrandall":10421,"Ġtexture":10422,"Ġcontrolled":10423,"Ġinsultingly":10424,"Ġbenefits":10425,"pleasing":10426,"Ġtorture":10427,"Ġpursu":10428,"Ġgroove":10429,"Ġdeception":10430,"Ġunhappy":10431,"Ġunhurried":10432,"Ġcollectively":10433,"Ġincoherence":10434,"Ġappearance":10435,"Ġmiracul":10436,"Ġcontrivance":10437,"filmmakers":10438,"sayles":10439,"Ġvenice":10440,"Ġveneer":10441,"Ġmacdowell":10442,"Ġcardboard":10443,"Ġcompliment":10444,"Ġcomplaint":10445,"Ġchaos":10446,"Ġlovingly":10447,"Ġstrangeness":10448,"Ġrecycling":10449,"Ġexhausted":10450,"Ġlingers":10451,"Ġnumbing":10452,"Ġnumbingly":10453,"Ġjuliet":10454,"Ġhawke":10455,"Ġrisks":10456,"Ġrisky":10457,"Ġblockbuster":10458,"Ġblockbusters":10459,"Ġmythic":10460,"Ġidealism":10461,"Ġidealistic":10462,"Ġeloquently":10463,"Ġirrespons":10464,"Ġdistinguish":10465,"Ġevokes":10466,"Ġboxing":10467,"Ġcommunal":10468,"Ġvillainous":10469,"nearly":10470,"Ġtaymor":10471,"Ġfoolish":10472,"Ġboost":10473,"Ġpairing":10474,"Ġevident":10475,"Ġstatement":10476,"Ġchronicles":10477,"Ġensues":10478,"Ġpressed":10479,"Ġimmediately":10480,"Ġfloating":10481,"Ġslackers":10482,"Ġcheerful":10483,"Ġintermittent":10484,"Ġsensuality":10485,"Ġpopularity":10486,"Ġcounterparts":10487,"Ġjournalism":10488,"Ġextravagant":10489,"Ġpulpy":10490,"malbaf":10491,"solid":10492,"Ġfields":10493,"Ġbathos":10494,"Ġdubbed":10495,"Ġdrowns":10496,"Ġdrowned":10497,"Ġrelev":10498,"Ġenormously":10499,"Ġunremarkable":10500,"Ġneatly":10501,"Ġupdating":10502,"Ġrowling":10503,"Ġproducer":10504,"Ġ1975":10505,"Ġshadowy":10506,"Ġzealand":10507,"frank":10508,"horror":10509,"Ġtonight":10510,"Ġcatholic":10511,"Ġpyrotechn":10512,"Ġinformation":10513,"Ġinformative":10514,"Ġinconsistencies":10515,"Ġinnovation":10516,"Ġinnovative":10517,"Ġsunday":10518,"Ġseverely":10519,"Ġscrewball":10520,"Ġsociopath":10521,"Ġborrows":10522,"Ġborrowed":10523,"Ġdrumline":10524,"Ġrevealed":10525,"Ġrestraint":10526,"Ġcorrectness":10527,"Ġpossesses":10528,"Ġimprovement":10529,"Ġdangerously":10530,"Ġestablished":10531,"Ġsmoothly":10532,"Ġadequately":10533,"eanor":10534,"glas":10535,"Ġauteuil":10536,"Ġduty":10537,"Ġdutiful":10538,"Ġhatred":10539,"Ġluke":10540,"Ġelectric":10541,"seems":10542,"Ġheights":10543,"Ġheightened":10544,"Ġjunior":10545,"Ġexuberance":10546,"Ġconjures":10547,"Ġmannered":10548,"Ġglobe":10549,"Ġgloomy":10550,"Ġgloriously":10551,"Ġglorified":10552,"Ġdeliberate":10553,"Ġerratic":10554,"Ġoptimistic":10555,"Ġsanctimony":10556,"Ġsanctimon":10557,"wait":10558,"Ġ65":10559,"itzler":10560,"Ġhuston":10561,"Ġgiggles":10562,"Ġisraeli":10563,"Ġmoldy":10564,"Ġstimulating":10565,"Ġstagy":10566,"Ġchoreographed":10567,"Ġshimmering":10568,"Ġunfulfilled":10569,"Ġunfulfilling":10570,"Ġkosashvili":10571,"Ġprovoke":10572,"Ġweepy":10573,"Ġcompromise":10574,"Ġcompromised":10575,"Ġbrosnan":10576,"Ġelevated":10577,"Ġelevates":10578,"blooded":10579,"Ġcollaboration":10580,"Ġmultiple":10581,"Ġmultiplex":10582,"delivers":10583,"Ġdishonest":10584,"hilarious":10585,"jackson":10586,"Ġsiegel":10587,"regard":10588,"Ġowes":10589,"Ġfetish":10590,"Ġfurious":10591,"Ġcherish":10592,"Ġwwii":10593,"Ġpaulette":10594,"Ġhinges":10595,"Ġevelyn":10596,"entertaining":10597,"Ġreceive":10598,"children":10599,"Ġsupremely":10600,"Ġchaplin":10601,"Ġchampion":10602,"Ġscorpion":10603,"Ġrumor":10604,"Ġlearning":10605,"Ġvoyeur":10606,"Ġnewcomer":10607,"Ġresourceful":10608,"Ġcolumbine":10609,"Ġrecovery":10610,"Ġassociated":10611,"Ġilluminating":10612,"grandson":10613,"Ġtastelessness":10614,"Ġaesthetic":10615,"affected":10616,"britney":10617,"collateral":10618,"pieces":10619,"sophie":10620,"satisfied":10621,"Ġtailor":10622,"Ġaugust":10623,"Ġokay":10624,"Ġfrozen":10625,"Ġmishmash":10626,"Ġbreadth":10627,"Ġlouis":10628,"Ġnetwork":10629,"Ġstinker":10630,"Ġassembly":10631,"Ġenchanting":10632,"Ġunmemorable":10633,"Ġweighs":10634,"Ġmuseum":10635,"Ġdisarming":10636,"Ġdisquieting":10637,"Ġmexican":10638,"Ġgraceless":10639,"Ġrelaxed":10640,"Ġexplanation":10641,"Ġcamouflage":10642,"Ġcraftsmanship":10643,"Ġatmospheric":10644,"Ġcircumstances":10645,"Ġhypocris":10646,"Ġbouncy":10647,"feminist":10648,"laden":10649,"powered":10650,"sandra":10651,"sensitive":10652,"zilla":10653,"Ġtropes":10654,"Ġoleander":10655,"Ġwistful":10656,"Ġthreadbare":10657,"Ġinescapable":10658,"Ġnaughty":10659,"Ġrebellion":10660,"Ġhedonistic":10661,"Ġencounters":10662,"Ġunblinking":10663,"Ġneurotic":10664,"Ġkilmer":10665,"erella":10666,"Ġsprawling":10667,"Ġpermeates":10668,"Ġovershadowed":10669,"Ġsubtext":10670,"Ġglamour":10671,"Ġzippy":10672,"Ġprofundity":10673,"majidi":10674,"obiographical":10675,"Ġcurmudgeon":10676,"Ġinnuendo":10677,"Ġirrelevant":10678,"Ġcrocodile":10679,"Ġacknowledges":10680,"Ġmisanthropic":10681,"jacquot":10682,"kilter":10683,"labute":10684,"nourished":10685,"parents":10686,"succeeds":10687,"Ġtrenchant":10688,"Ġafterschool":10689,"Ġahola":10690,"Ġocean":10691,"Ġfiennes":10692,"Ġmawkish":10693,"Ġbaggage":10694,"Ġcumulative":10695,"Ġcinderella":10696,"Ġcogent":10697,"Ġwartime":10698,"Ġpiquant":10699,"Ġdoldrums":10700,"Ġhickenlooper":10701,"Ġnuclear":10702,"Ġgrisly":10703,"Ġstolid":10704,"Ġbeijing":10705,"vividly":10706,"Ġheritage":10707,"Ġjordan":10708,"Ġlighthearted":10709,"Ġunapolog":10710,"Ġvardalos":10711,"Ġwhodunit":10712,"Ġsprightly":10713,"Ġorchestr":10714,"Ġblaxploitation":10715,"Ġdisparate":10716,"Ġvignettes":10717,"Ġunderbelly":10718,"Ġundercurrent":10719,"Ġshenanigans":10720,"Ġbrooklyn":10721,"Ġzhao":10722,"Ġunsurprising":10723,"Ġmisogyny":10724,"Ġwahlberg":10725,"Ġmaddeningly":10726,"Ġwaterlogged":10727,"Ġtearjerker":10728,"Ġlaissez":10729,"Ġspellbinding":10730,"Ġirresponsible":10731,"Ġpyrotechnics":10732,"Ġsanctimonious":10733,"10":10734,"80":10735,"90":10736,"aun":10737,"aise":10738,"austr":10739,"ahead":10740,"bi":10741,"bon":10742,"bam":10743,"bart":10744,"bop":10745,"bone":10746,"biz":10747,"bless":10748,"bond":10749,"bara":10750,"birot":10751,"cat":10752,"cap":10753,"crit":10754,"creen":10755,"cingly":10756,"cath":10757,"cles":10758,"cends":10759,"curd":10760,"di":10761,"doo":10762,"due":10763,"dated":10764,"dots":10765,"dening":10766,"diane":10767,"ec":10768,"eu":10769,"ev":10770,"eel":10771,"ethe":10772,"eck":10773,"equ":10774,"eble":10775,"event":10776,"fre":10777,"fat":10778,"fet":10779,"five":10780,"fram":10781,"fear":10782,"father":10783,"fia":10784,"fair":10785,"foot":10786,"fron":10787,"fitting":10788,"fried":10789,"foster":10790,"frida":10791,"fessenden":10792,"gon":10793,"got":10794,"gri":10795,"gate":10796,"gap":10797,"game":10798,"gress":10799,"gold":10800,"gically":10801,"ghey":10802,"hr":10803,"hold":10804,"home":10805,"hyp":10806,"hoff":10807,"hany":10808,"haneke":10809,"honed":10810,"hungry":10811,"happily":10812,"hmalbaf":10813,"iard":10814,"iary":10815,"iance":10816,"ivers":10817,"iably":10818,"ipping":10819,"ipped":10820,"iatingly":10821,"jul":10822,"jol":10823,"jason":10824,"ker":10825,"kien":10826,"kaufman":10827,"kapur":10828,"kwer":10829,"lay":10830,"lest":10831,"lame":10832,"lled":10833,"lantic":10834,"liness":10835,"lane":10836,"luck":10837,"lined":10838,"lastic":10839,"laugh":10840,"mom":10841,"mel":10842,"moo":10843,"might":10844,"mind":10845,"mary":10846,"mild":10847,"mma":10848,"muddled":10849,"mckay":10850,"nad":10851,"nial":10852,"nice":10853,"ningly":10854,"nons":10855,"number":10856,"ope":10857,"oks":10858,"pre":10859,"pra":10860,"pse":10861,"pun":10862,"pure":10863,"pain":10864,"pop":10865,"pled":10866,"passion":10867,"predict":10868,"predictable":10869,"pacino":10870,"popping":10871,"podge":10872,"rick":10873,"rine":10874,"rice":10875,"ratic":10876,"russ":10877,"ruous":10878,"sn":10879,"sure":10880,"spe":10881,"sac":10882,"sian":10883,"size":10884,"sets":10885,"slow":10886,"snan":10887,"since":10888,"tal":10889,"tom":10890,"tell":10891,"telling":10892,"tÃ£ÆĴÃ¢":10893,"torn":10894,"turning":10895,"timer":10896,"tadpole":10897,"ui":10898,"uz":10899,"uke":10900,"uire":10901,"upl":10902,"upp":10903,"uence":10904,"uating":10905,"uccess":10906,"upper":10907,"vs":10908,"vest":10909,"vasive":10910,"ws":10911,"was":10912,"wra":10913,"wess":10914,"wins":10915,"worn":10916,"wined":10917,"walk":10918,"wai":10919,"wright":10920,"wolf":10921,"washy":10922,"wattage":10923,"xing":10924,"xes":10925,"xistent":10926,"yi":10927,"yl":10928,"yce":10929,"yate":10930,"yard":10931,"yah":10932,"ziness":10933,"zhuang":10934,"Â¡":10935,"Â±":10936,"Â¼":10937,"ÂŃ":10938,"âĢ":10939,"Ġ=":10940,"Ġich":10941,"Ġxt":10942,"Ġtin":10943,"Ġtant":10944,"Ġtie":10945,"Ġtame":10946,"Ġtons":10947,"Ġtapping":10948,"Ġah":10949,"Ġaid":10950,"Ġape":10951,"Ġaven":10952,"Ġavant":10953,"Ġauster":10954,"Ġaids":10955,"Ġaval":10956,"inch":10957,"inally":10958,"inter":10959,"infl":10960,"inality":10961,"incess":10962,"inently":10963,"inished":10964,"hero":10965,"herable":10966,"Ġsen":10967,"Ġsul":10968,"Ġsven":10969,"Ġsky":10970,"Ġsons":10971,"Ġsends":10972,"Ġsledge":10973,"Ġsassy":10974,"rer":10975,"rera":10976,"recher":10977,"Ġoo":10978,"Ġood":10979,"Ġolym":10980,"Ġooz":10981,"erves":10982,"erred":10983,"erners":10984,"erbergh":10985,"itan":10986,"itar":10987,"itas":10988,"itical":10989,"itment":10990,"itably":10991,"itals":10992,"itiated":10993,"itarian":10994,"itchen":10995,"Ġtheor":10996,"Ġfid":10997,"Ġfist":10998,"Ġfert":10999,"Ġfused":11000,"Ġfashioned":11001,"Ġfuel":11002,"Ġfarts":11003,"Ġflying":11004,"Ġfaded":11005,"Ġfoster":11006,"Ġfifty":11007,"Ġfessenden":11008,"Ġfontaine":11009,"Ġfalters":11010,"iser":11011,"ison":11012,"isine":11013,"isible":11014,"isco":11015,"enig":11016,"enance":11017,"enjoy":11018,"enorm":11019,"Ġmic":11020,"Ġmine":11021,"Ġmerg":11022,"Ġmuddy":11023,"Ġmumbo":11024,"Ġmckay":11025,"athe":11026,"atri":11027,"atner":11028,"athered":11029,"atoes":11030,"Ġbid":11031,"Ġbell":11032,"Ġbark":11033,"Ġbled":11034,"Ġboss":11035,"Ġbought":11036,"Ġbale":11037,"Ġbail":11038,"Ġbalk":11039,"Ġbander":11040,"Ġbern":11041,"Ġbilly":11042,"Ġbicy":11043,"Ġbirds":11044,"Ġbumbling":11045,"Ġbielinsky":11046,"Ġcq":11047,"Ġcow":11048,"Ġcun":11049,"Ġcust":11050,"Ġcod":11051,"Ġcass":11052,"Ġcoc":11053,"Ġcash":11054,"Ġcars":11055,"Ġcuss":11056,"Ġcatching":11057,"Ġcumbers":11058,"Ġwes":11059,"Ġwon":11060,"Ġwol":11061,"Ġward":11062,"Ġwert":11063,"Ġwore":11064,"Ġwiz":11065,"Ġwang":11066,"Ġwren":11067,"Ġwreak":11068,"Ġwander":11069,"Ġwanes":11070,"Ġwrenching":11071,"esar":11072,"esus":11073,"orth":11074,"orish":11075,"onau":11076,"onizing":11077,"ouri":11078,"ouyate":11079,"Ġple":11080,"Ġpent":11081,"Ġpoo":11082,"Ġpand":11083,"Ġpore":11084,"Ġpep":11085,"Ġpelling":11086,"Ġpages":11087,"Ġpumm":11088,"anos":11089,"Ġdoo":11090,"Ġdur":11091,"Ġdire":11092,"Ġdile":11093,"Ġdual":11094,"Ġdress":11095,"Ġdash":11096,"Ġdamp":11097,"Ġdiar":11098,"Ġdots":11099,"Ġdoof":11100,"Ġdwar":11101,"Ġdaught":11102,"Ġdante":11103,"Ġdaughter":11104,"Ġdensely":11105,"Ġdiane":11106,"aron":11107,"arrow":11108,"archy":11109,"ala":11110,"alys":11111,"alented":11112,"Ġthri":11113,"Ġthrew":11114,"Ġthirteen":11115,"lysian":11116,"Ġhoo":11117,"Ġhates":11118,"Ġhug":11119,"Ġhicks":11120,"Ġhiding":11121,"Ġhinds":11122,"Ġhouses":11123,"Ġhodge":11124,"lein":11125,"leep":11126,"leted":11127,"league":11128,"leaves":11129,"lewis":11130,"icine":11131,"iched":11132,"icially":11133,"icament":11134,"iccated":11135,"Ġtow":11136,"Ġtoes":11137,"Ġtoots":11138,"Ġtoxic":11139,"Ġinj":11140,"Ġink":11141,"Ġinim":11142,"Ġinqu":11143,"Ġinart":11144,"Ġinade":11145,"Ġinability":11146,"Ġinappropri":11147,"edience":11148,"ilk":11149,"ilized":11150,"Ġles":11151,"Ġlan":11152,"Ġlam":11153,"Ġlag":11154,"Ġlake":11155,"Ġlick":11156,"Ġlens":11157,"Ġlink":11158,"Ġlinger":11159,"Ġluster":11160,"Ġlaser":11161,"Ġlittered":11162,"Ġnan":11163,"Ġnad":11164,"Ġnur":11165,"Ġnud":11166,"Ġnary":11167,"Ġnative":11168,"Ġnair":11169,"Ġnorton":11170,"Ġnurt":11171,"Ġnba":11172,"Ġnettelbeck":11173,"Ġnarrow":11174,"stra":11175,"stay":11176,"start":11177,"stale":11178,"stered":11179,"stabbing":11180,"Ġital":11181,"Ġitem":11182,"Ġeating":11183,"Ġethere":11184,"Ġecl":11185,"Ġetern":11186,"Ġecho":11187,"Ġepps":11188,"Ġelysian":11189,"Ġgoo":11190,"Ġgour":11191,"Ġgoy":11192,"Ġgren":11193,"Ġgian":11194,"Ġgilli":11195,"Ġgai":11196,"Ġgarc":11197,"Ġgaud":11198,"Ġgained":11199,"Ġgaghan":11200,"Ġisle":11201,"uts":11202,"utch":11203,"ctor":11204,"ctic":11205,"elic":11206,"Ġmoist":11207,"ento":11208,"asis":11209,"ased":11210,"asion":11211,"asms":11212,"oto":11213,"othing":11214,"otics":11215,"otiate":11216,"veled":11217,"vered":11218,"veka":11219,"Ġstal":11220,"Ġstance":11221,"Ġstub":11222,"Ġstagg":11223,"Ġstinks":11224,"Ġstellar":11225,"Ġstasis":11226,"imi":11227,"imel":11228,"imum":11229,"imper":11230,"immer":11231,"Ġbeating":11232,"Ġbearing":11233,"Ġbegging":11234,"Ġreap":11235,"Ġreginal":11236,"Ġreese":11237,"Ġrebel":11238,"Ġreceived":11239,"Ġrekind":11240,"Ġrendering":11241,"Ġreworking":11242,"rape":11243,"rader":11244,"rages":11245,"raints":11246,"raqui":11247,"Ġuh":11248,"ghan":11249,"vera":11250,"roy":11251,"rodriguez":11252,"ulter":11253,"uline":11254,"ulled":11255,"ulatory":11256,"cha":11257,"cht":11258,"chai":11259,"chwit":11260,"chicago":11261,"Ġongoing":11262,"Ġana":11263,"Ġanna":11264,"Ġanemic":11265,"etically":11266,"Ġfilming":11267,"Ġye":11268,"Ġyi":11269,"Ġasking":11270,"rial":11271,"rious":11272,"ribut":11273,"olas":11274,"olve":11275,"olves":11276,"olical":11277,"olved":11278,"adapt":11279,"Ġforgi":11280,"Ġforcing":11281,"Ġforgiven":11282,"seen":11283,"seagal":11284,"searching":11285,"essional":11286,"Ġwhit":11287,"Ġwhip":11288,"Ġwhirl":11289,"Ġwhimper":11290,"Ġsung":11291,"Ġsuicide":11292,"irt":11293,"iration":11294,"irling":11295,"irwin":11296,"idents":11297,"idences":11298,"iforn":11299,"Ġchoc":11300,"Ġchair":11301,"Ġchomp":11302,"Ġchimps":11303,"threat":11304,"thorough":11305,"throwing":11306,"thirds":11307,"throat":11308,"amic":11309,"amie":11310,"Ġalar":11311,"Ġalas":11312,"Ġalmod":11313,"Ġaltar":11314,"ershot":11315,"Ġhem":11316,"Ġheck":11317,"Ġheated":11318,"Ġheft":11319,"Ġhealing":11320,"Ġheels":11321,"abi":11322,"abolical":11323,"uneven":11324,"illo":11325,"illard":11326,"Ġjr":11327,"Ġjet":11328,"Ġjos":11329,"Ġjie":11330,"Ġjac":11331,"Ġjia":11332,"Ġjank":11333,"Ġjugg":11334,"Ġjett":11335,"Ġjudge":11336,"Ġjesse":11337,"Ġjumbo":11338,"Ġjeline":11339,"Ġjazzy":11340,"Ġjesus":11341,"agli":11342,"umacher":11343,"umption":11344,"Ġseam":11345,"Ġseams":11346,"Ġseeds":11347,"Ġsegment":11348,"Ġserene":11349,"cket":11350,"ousal":11351,"eming":11352,"empl":11353,"Ġencomp":11354,"urb":11355,"urved":11356,"Ġintr":11357,"Ġliu":11358,"Ġliven":11359,"Ġlivel":11360,"Ġlibr":11361,"Ġlibid":11362,"Ġliotta":11363,"Ġexal":11364,"Ġexude":11365,"Ġexudes":11366,"Ġexempl":11367,"aker":11368,"akata":11369,"istence":11370,"istingu":11371,"Ġshri":11372,"Ġshall":11373,"Ġshore":11374,"Ġshown":11375,"Ġshaking":11376,"Ġsharing":11377,"Ġshamb":11378,"Ġshades":11379,"Ġshared":11380,"Ġshrek":11381,"Ġshifts":11382,"Ġshafer":11383,"quitting":11384,"rome":11385,"romanek":11386,"Ġabilities":11387,"Ġnotably":11388,"Ġhapless":11389,"Ġdoz":11390,"Ġdoors":11391,"antom":11392,"antet":11393,"Ġdece":11394,"Ġdelect":11395,"ested":11396,"esteem":11397,"Ġunend":11398,"Ġunleas":11399,"Ġunimp":11400,"Ġunited":11401,"Ġunrep":11402,"Ġunknown":11403,"Ġunsym":11404,"Ġunaffected":11405,"Ġneck":11406,"Ġneuro":11407,"Ġscant":11408,"Ġscorn":11409,"Ġscams":11410,"Ġscrap":11411,"Ġschepisi":11412,"Ġconan":11413,"Ġconquer":11414,"Ġconverted":11415,"Ġconnoisse":11416,"ainted":11417,"astonishing":11418,"artic":11419,"ellingly":11420,"Ġatlantic":11421,"Ġworrying":11422,"Ġkim":11423,"Ġkate":11424,"Ġkook":11425,"Ġkang":11426,"Ġkink":11427,"Ġkane":11428,"Ġkub":11429,"Ġkitten":11430,"Ġkwan":11431,"Ġkaren":11432,"Ġkitchen":11433,"Ġkouyate":11434,"Ġsoars":11435,"Ġsorely":11436,"Ġsopr":11437,"actory":11438,"ige":11439,"igr":11440,"iguch":11441,"Ġbygone":11442,"ushes":11443,"usty":11444,"apon":11445,"aped":11446,"apse":11447,"apart":11448,"apable":11449,"forget":11450,"forced":11451,"forgettable":11452,"oodle":11453,"Ġcharlotte":11454,"andre":11455,"Ġprost":11456,"Ġproving":11457,"Ġproof":11458,"Ġproced":11459,"Ġprowess":11460,"Ġrut":11461,"Ġrud":11462,"Ġrue":11463,"Ġrans":11464,"Ġranc":11465,"Ġratt":11466,"Ġrhaps":11467,"Ġrotten":11468,"Ġrushed":11469,"Ġallusions":11470,"opens":11471,"Ġplate":11472,"Ġplatter":11473,"Ġfeces":11474,"indulg":11475,"vened":11476,"terrif":11477,"hers":11478,"Ġled":11479,"Ġleaps":11480,"Ġlevy":11481,"Ġleaks":11482,"Ġleague":11483,"Ġleaky":11484,"Ġpresc":11485,"Ġpreval":11486,"Ġpreteen":11487,"Ġpregn":11488,"osi":11489,"oseless":11490,"oscar":11491,"Ġvin":11492,"Ġvary":11493,"Ġvice":11494,"Ġvaude":11495,"allen":11496,"Ġspit":11497,"Ġspout":11498,"Ġspine":11499,"Ġspiff":11500,"Ġspins":11501,"Ġspader":11502,"Ġsprecher":11503,"arde":11504,"Ġperils":11505,"Ġperple":11506,"Ġpercol":11507,"Ġperfunct":11508,"Ġpervasive":11509,"Ġorde":11510,"Ġorchard":11511,"acking":11512,"ackles":11513,"ackaged":11514,"Ġimperfect":11515,"Ġimamura":11516,"Ġclad":11517,"Ġclam":11518,"Ġclone":11519,"Ġclaw":11520,"Ġclapt":11521,"Ġclosed":11522,"Ġclones":11523,"Ġcloud":11524,"Ġclaim":11525,"Ġclaims":11526,"ongruous":11527,"plate":11528,"plus":11529,"plod":11530,"ppingly":11531,"ppled":11532,"pposed":11533,"Ġoutwe":11534,"Ġoutbur":11535,"Ġouttakes":11536,"Ġoutshine":11537,"Ġoutdated":11538,"endiary":11539,"bled":11540,"manip":11541,"Ġfunctions":11542,"Ġmanaging":11543,"ĠamÃ£ÆĴÃ¢":11544,"Ġample":11545,"Ġquot":11546,"Ġquills":11547,"Ġquaint":11548,"Ġquinn":11549,"Ġtruff":11550,"Ġlod":11551,"Ġlohman":11552,"ineering":11553,"Ġnoisy":11554,"Ġnoyce":11555,"Ġupset":11556,"Ġarro":11557,"Ġarms":11558,"Ġararat":11559,"Ġweig":11560,"Ġwebs":11561,"Ġweaver":11562,"Ġweapon":11563,"acre":11564,"acle":11565,"acoy":11566,"ogen":11567,"Ġian":11568,"Ġiwai":11569,"Ġflag":11570,"Ġflight":11571,"Ġflip":11572,"Ġflav":11573,"Ġflounders":11574,"aux":11575,"oury":11576,"Ġwills":11577,"Ġadage":11578,"Ġadrian":11579,"Ġgoodall":11580,"odd":11581,"odies":11582,"odox":11583,"comfort":11584,"Ġanymore":11585,"weig":11586,"weird":11587,"Ġmuccino":11588,"Ġcomprehensible":11589,"Ġpole":11590,"Ġpose":11591,"Ġpoised":11592,"Ġenters":11593,"Ġroy":11594,"Ġrolled":11595,"Ġworkout":11596,"akespeare":11597,"Ġbless":11598,"Ġbliss":11599,"Ġblows":11600,"Ġblob":11601,"Ġbluster":11602,"Ġblithe":11603,"Ġwheels":11604,"Ġoverview":11605,"Ġoverstated":11606,"Ġovercook":11607,"Ġoverheated":11608,"izer":11609,"izens":11610,"Ġperformer":11611,"Ġperforming":11612,"Ġdiscont":11613,"Ġdisorient":11614,"Ġdiscipl":11615,"Ġdisregard":11616,"Ġdiscomfort":11617,"ounds":11618,"oundingly":11619,"Ġwaydowntown":11620,"arks":11621,"Ġwhatso":11622,"Ġhumble":11623,"Ġhumans":11624,"Ġbetray":11625,"into":11626,"inted":11627,"interest":11628,"intellig":11629,"interesting":11630,"ritchie":11631,"Ġslide":11632,"Ġslug":11633,"Ġslopp":11634,"Ġslender":11635,"ishly":11636,"Ġwelles":11637,"ipherable":11638,"Ġrag":11639,"Ġrah":11640,"Ġrape":11641,"Ġracy":11642,"Ġraising":11643,"Ġragged":11644,"Ġraging":11645,"wness":11646,"Ġmeyer":11647,"Ġmegap":11648,"Ġsubstand":11649,"Ġsubconscious":11650,"Ġrig":11651,"Ġriv":11652,"Ġripping":11653,"ccini":11654,"need":11655,"neck":11656,"neath":11657,"Ġtwin":11658,"Ġtwaddle":11659,"sports":11660,"spiring":11661,"Ġgondry":11662,"ocious":11663,"ocated":11664,"oclastic":11665,"Ġeverywhere":11666,"Ġimposs":11667,"Ġimperson":11668,"Ġrealities":11669,"Ġrealizing":11670,"Ġrealizes":11671,"Ġvibe":11672,"Ġendings":11673,"Ġenduring":11674,"ionship":11675,"Ġneverland":11676,"Ġbadness":11677,"Ġsurre":11678,"Ġsurve":11679,"Ġbrash":11680,"Ġbrush":11681,"Ġbranagh":11682,"Ġwash":11683,"Ġwashed":11684,"Ġtea":11685,"Ġteasing":11686,"Ġteeming":11687,"Ġdesert":11688,"Ġdesiccated":11689,"Ġdelh":11690,"Ġdelusions":11691,"phil":11692,"onditional":11693,"Ġsme":11694,"Ġsmoot":11695,"Ġsmiling":11696,"Ġsmirk":11697,"Ġserv":11698,"Ġserry":11699,"sover":11700,"Ġscreenplays":11701,"shack":11702,"shod":11703,"shoot":11704,"shots":11705,"shows":11706,"shallow":11707,"shyamalan":11708,"shanghai":11709,"shakespeare":11710,"Ġotherworld":11711,"Ġstrings":11712,"Ġstrung":11713,"Ġnewton":11714,"renner":11715,"Ġmatt":11716,"Ġmatched":11717,"Ġmattei":11718,"Ġpeplo":11719,"Ġagree":11720,"Ġagenda":11721,"Ġagonizing":11722,"Ġtrap":11723,"Ġtract":11724,"Ġ16":11725,"Ġ170":11726,"Ġundernourished":11727,"Ġunderneath":11728,"Ġpartner":11729,"Ġromanek":11730,"Ġheartstr":11731,"Ġheartache":11732,"urned":11733,"Ġjok":11734,"Ġbigot":11735,"Ġbigelow":11736,"Ġresolut":11737,"Ġresorts":11738,"Ġresident":11739,"Ġresurrection":11740,"Ġreserved":11741,"Ġinterests":11742,"Ġminus":11743,"ashi":11744,"ventful":11745,"scene":11746,"scooby":11747,"scherfig":11748,"Ġcrashing":11749,"othy":11750,"Ġobli":11751,"Ġcharacterized":11752,"Ġholly":11753,"Ġowners":11754,"isticated":11755,"ivated":11756,"impossible":11757,"Ġshowdown":11758,"Ġcheery":11759,"Ġcheeky":11760,"Ġawry":11761,"Ġwarned":11762,"Ġinsistent":11763,"Ġinsignific":11764,"awed":11765,"authentic":11766,"Ġgrate":11767,"beyond":11768,"becomes":11769,"Ġcox":11770,"Ġcoen":11771,"Ġcoast":11772,"Ġattent":11773,"Ġattending":11774,"Ġattached":11775,"Ġtrials":11776,"Ġtriple":11777,"Ġdownward":11778,"atherine":11779,"Ġdocu":11780,"Ġdocuments":11781,"isset":11782,"Ġterri":11783,"Ġterry":11784,"Ġterminally":11785,"Ġgrain":11786,"Ġgraham":11787,"Ġcollin":11788,"Ġcolumn":11789,"Ġafghan":11790,"Ġkinds":11791,"Ġmighty":11792,"Ġrelating":11793,"Ġrelatives":11794,"Ġfrothy":11795,"Ġcaf":11796,"Ġcaustic":11797,"Ġcaesar":11798,"Ġworlds":11799,"likely":11800,"Ġrecy":11801,"Ġrecall":11802,"Ġrecite":11803,"Ġrecalls":11804,"syn":11805,"sych":11806,"Ġguide":11807,"arsky":11808,"Ġplaywright":11809,"Ġviews":11810,"Ġviewpoint":11811,"Ġbelgi":11812,"Ġbacked":11813,"Ġbackyard":11814,"Ġlaughably":11815,"azed":11816,"azingly":11817,"Ġapple":11818,"Ġglow":11819,"Ġglad":11820,"Ġglover":11821,"Ġglitz":11822,"Ġsetups":11823,"Ġexcl":11824,"Ġsatin":11825,"Ġkidd":11826,"Ġhumane":11827,"Ġhumanly":11828,"Ġmessing":11829,"Ġorigin":11830,"Ġorigins":11831,"Ġpersuasive":11832,"Ġincapable":11833,"Ġincongruous":11834,"Ġincendiary":11835,"Ġmush":11836,"Ġmusket":11837,"Ġprank":11838,"Ġpranks":11839,"Ġpriceless":11840,"Ġprurient":11841,"Ġprincess":11842,"Ġcareers":11843,"Ġindig":11844,"Ġindication":11845,"Ġelbows":11846,"execut":11847,"explo":11848,"Ġdrained":11849,"Ġdragged":11850,"Ġshell":11851,"Ġfinished":11852,"Ġfinesse":11853,"Ġextends":11854,"Ġextensive":11855,"Ġphon":11856,"Ġcreatively":11857,"Ġrepug":11858,"Ġrepulsive":11859,"Ġforms":11860,"Ġformal":11861,"Ġsweep":11862,"Ġsweethe":11863,"Ġbuoy":11864,"ĠbuÃ£ÆĴÃ¢":11865,"Ġpowerfully":11866,"guably":11867,"ysical":11868,"Ġmarred":11869,"Ġwerewolf":11870,"fluous":11871,"meant":11872,"meandering":11873,"noir":11874,"Ġdistress":11875,"Ġdistanced":11876,"Ġexplain":11877,"Ġexplains":11878,"Ġexplicit":11879,"inski":11880,"Ġrefined":11881,"Ġrefuse":11882,"Ġdecor":11883,"Ġdecision":11884,"aneo":11885,"Ġhorn":11886,"Ġafterthought":11887,"Ġappeals":11888,"Ġappearing":11889,"Ġappeared":11890,"Ġesp":11891,"Ġespion":11892,"Ġspeculative":11893,"Ġspecimen":11894,"Ġfriel":11895,"Ġholy":11896,"Ġhoary":11897,"Ġ24":11898,"Ġ26":11899,"Ġmemorial":11900,"Ġmemento":11901,"Ġcarved":11902,"Ġcarrying":11903,"Ġcraig":11904,"Ġmelt":11905,"Ġbites":11906,"warding":11907,"Ġsexually":11908,"Ġsolace":11909,"Ġmord":11910,"Ġmorose":11911,"Ġmorph":11912,"Ġmoronic":11913,"Ġmorgan":11914,"Ġyoungsters":11915,"Ġedward":11916,"Ġschiz":11917,"Ġschumacher":11918,"Ġschweig":11919,"Ġinvitation":11920,"Ġinvites":11921,"Ġinvisible":11922,"Ġpersonas":11923,"asculine":11924,"Ġmiami":11925,"Ġmiyazaki":11926,"Ġsuperhero":11927,"Ġsuperfluous":11928,"Ġdialog":11929,"Ġintelligently":11930,"Ġmonte":11931,"Ġleavened":11932,"Ġclassified":11933,"iculate":11934,"minable":11935,"Ġsayles":11936,"Ġtoug":11937,"Ġchildish":11938,"Ġgenerated":11939,"Ġ1940":11940,"ergy":11941,"Ġhandic":11942,"Ġhanded":11943,"Ġhandling":11944,"Ġhandles":11945,"cox":11946,"cope":11947,"coaster":11948,"Ġsway":11949,"Ġswitch":11950,"Ġswipe":11951,"Ġswitches":11952,"Ġdemme":11953,"Ġdemograph":11954,"Ġbelief":11955,"attal":11956,"atters":11957,"attaneo":11958,"Ġabsence":11959,"Ġlasting":11960,"Ġpainting":11961,"Ġpainted":11962,"Ġharrison":11963,"Ġexpands":11964,"Ġexpanded":11965,"Ġfascinate":11966,"Ġfascinated":11967,"Ġfascinates":11968,"Ġputrid":11969,"Ġeffortless":11970,"Ġmedicine":11971,"Ġelegi":11972,"Ġelevate":11973,"Ġinterf":11974,"Ġinterludes":11975,"Ġborstal":11976,"Ġstaring":11977,"Ġstarred":11978,"Ġlightly":11979,"Ġdefine":11980,"Ġdefiantly":11981,"odrama":11982,"Ġcinematically":11983,"somewhere":11984,"somehow":11985,"Ġpsyched":11986,"Ġpsyche":11987,"Ġmaids":11988,"Ġbrazen":11989,"Ġnarration":11990,"Ġboils":11991,"Ġboiler":11992,"Ġboisterous":11993,"Ġboorish":11994,"Ġsadism":11995,"Ġsaddled":11996,"Ġbarbara":11997,"Ġundistingu":11998,"Ġsuspension":11999,"Ġcommended":12000,"Ġcommands":12001,"Ġcommitment":12002,"riched":12003,"Ġsensation":12004,"Ġunsus":12005,"Ġunsuccess":12006,"Ġretreat":12007,"Ġretelling":12008,"offs":12009,"Ġmidway":12010,"Ġmidlife":12011,"Ġpotbo":12012,"Ġpopulation":12013,"Ġconfines":12014,"Ġconfined":12015,"Ġconfusion":12016,"Ġpsychic":12017,"Ġdiabolical":12018,"Ġdaydream":12019,"Ġprofession":12020,"Ġproficient":12021,"Ġengagingly":12022,"Ġmission":12023,"Ġredgra":12024,"Ġredneck":12025,"Ġasset":12026,"Ġassayas":12027,"Ġstrongest":12028,"Ġobviousness":12029,"clut":12030,"clock":12031,"Ġoprah":12032,"Ġsurefire":12033,"Ġheaded":12034,"Ġmagimel":12035,"Ġwildlife":12036,"Ġdavies":12037,"Ġdaft":12038,"Ġambrose":12039,"Ġtragically":12040,"Ġsatisfied":12041,"Ġsatisfactory":12042,"Ġdamning":12043,"Ġfacts":12044,"Ġpatri":12045,"Ġpatric":12046,"Ġreasonable":12047,"Ġquirkiness":12048,"Ġtransition":12049,"Ġtransgressive":12050,"feeling":12051,"Ġacclaim":12052,"Ġaccuracy":12053,"Ġcouples":12054,"Ġcoupled":12055,"Ġwinners":12056,"Ġpromotes":12057,"Ġsteers":12058,"Ġstewart":12059,"Ġrobust":12060,"Ġrobinson":12061,"Ġmoderately":12062,"goers":12063,"ientious":12064,"Ġmurk":12065,"Ġpunches":12066,"Ġpungent":12067,"Ġsubtler":12068,"Ġdramatics":12069,"Ġdelighted":12070,"Ġoperatic":12071,"Ġmischie":12072,"Ġcredul":12073,"Ġnorth":12074,"Ġnormal":12075,"Ġsuccesses":12076,"Ġsuccessor":12077,"Ġtrees":12078,"Ġtreacher":12079,"Ġtreated":12080,"Ġtreatise":12081,"Ġsnore":12082,"Ġsnatch":12083,"Ġsnail":12084,"Ġbrio":12085,"Ġcamarad":12086,"Ġ93":12087,"Ġ94":12088,"Ġfrenzy":12089,"Ġfrenetic":12090,"Ġgrie":12091,"Ġreadily":12092,"Ġvalid":12093,"Ġvalley":12094,"Ġvaliantly":12095,"grass":12096,"serving":12097,"service":12098,"Ġoccur":12099,"Ġoccurs":12100,"Ġwaves":12101,"Ġwaits":12102,"Ġwafer":12103,"Ġdumbness":12104,"uggy":12105,"uggery":12106,"Ġillum":12107,"Ġearned":12108,"Ġflattering":12109,"Ġflawless":12110,"Ġvegg":12111,"Ġveins":12112,"Ġbeginners":12113,"center":12114,"undrum":12115,"Ġsignals":12116,"Ġmetal":12117,"Ġcounts":12118,"Ġstylist":12119,"Ġstylings":12120,"blance":12121,"blanc":12122,"Ġmotor":12123,"Ġmotives":12124,"Ġcalib":12125,"Ġcaliforn":12126,"Ġhitler":12127,"Ġreverence":12128,"Ġaffected":12129,"Ġaffectation":12130,"hetically":12131,"eltown":12132,"whereas":12133,"annis":12134,"Ġdreamed":12135,"Ġdreamlike":12136,"Ġsufficient":12137,"complete":12138,"Ġwindows":12139,"otees":12140,"Ġstrip":12141,"Ġregister":12142,"Ġregards":12143,"Ġregurg":12144,"Ġjeong":12145,"Ġdeaths":12146,"Ġembell":12147,"obson":12148,"Ġdouglas":12149,"Ġurgent":12150,"Ġdevolves":12151,"Ġrocks":12152,"Ġrocket":12153,"Ġsecondhand":12154,"Ġhelping":12155,"Ġspeed":12156,"Ġcapability":12157,"Ġrests":12158,"Ġexploits":12159,"Ġexploiting":12160,"Ġoccasion":12161,"Ġfreight":12162,"Ġfrequent":12163,"Ġmadcap":12164,"Ġmaddening":12165,"Ġforgets":12166,"Ġquickie":12167,"hyang":12168,"Ġaffable":12169,"Ġaffirm":12170,"Ġsandw":12171,"Ġfoundation":12172,"Ġcorpse":12173,"Ġdeny":12174,"Ġdenou":12175,"Ġdenzel":12176,"Ġdenizens":12177,"Ġexamples":12178,"Ġpoetically":12179,"Ġderives":12180,"Ġderived":12181,"Ġconceptual":12182,"Ġapproached":12183,"Ġapproaches":12184,"gravating":12185,"Ġ84":12186,"Ġ87":12187,"Ġairs":12188,"Ġairless":12189,"Ġlifel":12190,"Ġgrowth":12191,"Ġcombust":12192,"Ġhilariously":12193,"aiian":12194,"Ġautop":12195,"Ġautobiographical":12196,"Ġexecutive":12197,"boasts":12198,"years":12199,"Ġsleaz":12200,"Ġsleeper":12201,"Ġbalances":12202,"Ġcostly":12203,"Ġescort":12204,"moretti":12205,"Ġfemme":12206,"Ġconditions":12207,"Ġcondensed":12208,"Ġpossession":12209,"Ġdriving":12210,"Ġnoncon":12211,"Ġnonjud":12212,"Ġnonexistent":12213,"Ġbloodshed":12214,"Ġtwisty":12215,"Ġtwisting":12216,"Ġverge":12217,"Ġachieved":12218,"Ġfocuses":12219,"Ġcurt":12220,"Ġdigit":12221,"Ġdeliciously":12222,"waydowntown":12223,"Ġbrits":12224,"Ġgentility":12225,"Ġgenteel":12226,"Ġchokes":12227,"Ġuntalented":12228,"Ġunturned":12229,"Ġblandly":12230,"Ġtestimon":12231,"Ġtheatres":12232,"Ġparental":12233,"Ġexhib":12234,"Ġapproaching":12235,"giving":12236,"Ġerrol":12237,"Ġfiguring":12238,"Ġfigured":12239,"Ġprocessed":12240,"Ġfavored":12241,"Ġobserve":12242,"Ġcollide":12243,"Ġopened":12244,"nected":12245,"Ġburkin":12246,"Ġburstein":12247,"Ġwelsh":12248,"Ġinventiveness":12249,"Ġgodzilla":12250,"Ġspliced":12251,"Ġthoughtfulness":12252,"Ġfulfilling":12253,"Ġcampanella":12254,"Ġdestroy":12255,"Ġintimid":12256,"Ġexisting":12257,"Ġprovoc":12258,"Ġiii":12259,"Ġphotographer":12260,"Ġpresenting":12261,"chel":12262,"culkin":12263,"gooding":12264,"Ġsquad":12265,"realist":12266,"Ġhyster":12267,"Ġlabel":12268,"Ġlaborious":12269,"Ġgeor":12270,"Ġroute":12271,"Ġofferings":12272,"Ġquestioning":12273,"spectac":12274,"Ġ48":12275,"Ġtypically":12276,"Ġcritique":12277,"Ġcriticism":12278,"Ġpurposeless":12279,"Ġhotdog":12280,"charming":12281,"Ġshoots":12282,"Ġhaunts":12283,"Ġroads":12284,"Ġfailings":12285,"Ġrespects":12286,"Ġrespectful":12287,"Ġfrustrated":12288,"Ġinclination":12289,"Ġcelebrated":12290,"zzzz":12291,"Ġessay":12292,"Ġcrosses":12293,"alta":12294,"Ġstevens":12295,"Ġconflicts":12296,"Ġforemost":12297,"Ġmercy":12298,"Ġwednes":12299,"Ġparking":12300,"Ġconnected":12301,"Ġvoid":12302,"Ġvariations":12303,"Ġingrat":12304,"Ġtearing":12305,"Ġfanatics":12306,"Ġpalestinian":12307,"Ġliman":12308,"Ġrevels":12309,"ifyingly":12310,"Ġplainly":12311,"Ġamazement":12312,"Ġtriumphs":12313,"Ġtriumphant":12314,"Ġmetaphysical":12315,"handedness":12316,"Ġramp":12317,"Ġframes":12318,"Ġyorkers":12319,"Ġsparkles":12320,"Ġfrankenstein":12321,"clever":12322,"Ġwoods":12323,"Ġhipness":12324,"Ġmotherhood":12325,"Ġannals":12326,"isteringly":12327,"Ġsupposedly":12328,"color":12329,"colored":12330,"Ġfallen":12331,"Ġmachin":12332,"Ġcircle":12333,"Ġdanish":12334,"Ġdanang":12335,"Ġjuan":12336,"Ġjuwann":12337,"Ġimmers":12338,"Ġimmense":12339,"Ġimmature":12340,"Ġimmigr":12341,"Ġdescends":12342,"Ġtroubled":12343,"Ġaccomplishment":12344,"Ġsuggesting":12345,"Ġsuggestion":12346,"trick":12347,"Ġbreed":12348,"Ġpuccini":12349,"Ġgayton":12350,"Ġmoviegoer":12351,"Ġfearlessness":12352,"Ġclosest":12353,"Ġclosure":12354,"Ġgrounds":12355,"Ġgrounded":12356,"Ġgroundbreaking":12357,"Ġskinny":12358,"Ġidiot":12359,"Ġsavor":12360,"Ġhammy":12361,"Ġnamely":12362,"Ġrevulsion":12363,"Ġconstraints":12364,"Ġconstructs":12365,"Ġmannerisms":12366,"Ġturbul":12367,"Ġmiles":12368,"Ġmilest":12369,"Ġmakhmalbaf":12370,"Ġbike":12371,"Ġwisely":12372,"Ġinexorably":12373,"Ġweightless":12374,"Ġbrightly":12375,"humor":12376,"humorous":12377,"lowicz":12378,"Ġestablish":12379,"Ġtickets":12380,"Ġaimlessly":12381,"heads":12382,"Ġsickening":12383,"Ġethos":12384,"Ġgreedy":12385,"Ġgrease":12386,"Ġbeaten":12387,"Ġrespond":12388,"Ġcomfortably":12389,"Ġuninitiated":12390,"Ġscrut":12391,"Ġscruffy":12392,"Ġriveted":12393,"consid":12394,"Ġrecords":12395,"Ġimaginatively":12396,"Ġincluded":12397,"Ġcircles":12398,"Ġtune":12399,"Ġtunis":12400,"Ġtunney":12401,"Ġwatches":12402,"Ġpride":12403,"Ġprivile":12404,"Ġdominated":12405,"seeking":12406,"Ġencourage":12407,"Ġintrospective":12408,"Ġunconditional":12409,"Ġtravelogue":12410,"Ġchecking":12411,"Ġrepresented":12412,"Ġmarvelously":12413,"Ġfrighten":12414,"Ġdemonstration":12415,"Ġdemonstrating":12416,"Ġsuperficiality":12417,"ferrara":12418,"Ġbogdanovich":12419,"Ġwesterners":12420,"Ġhyped":12421,"Ġringu":12422,"Ġdiscourse":12423,"Ġsurviving":12424,"Ġsurrounds":12425,"Ġsurrounded":12426,"Ġsurroundings":12427,"Ġsmoother":12428,"Ġsmoking":12429,"Ġexcessively":12430,"Ġdetailing":12431,"Ġmagnolia":12432,"Ġtransparent":12433,"Ġtransparently":12434,"wonder":12435,"Ġignor":12436,"Ġignites":12437,"Ġsights":12438,"Ġcryst":12439,"Ġlaws":12440,"Ġsugarman":12441,"Ġcompetition":12442,"Ġrooted":12443,"contains":12444,"Ġcourageous":12445,"Ġembarrassing":12446,"Ġcommercialism":12447,"Ġeccentricity":12448,"borrows":12449,"denis":12450,"Ġmcdowell":12451,"Ġmalcolm":12452,"Ġmalaise":12453,"Ġbowel":12454,"Ġdimin":12455,"Ġnavel":12456,"ĠnaÃ£ÆĴÃ¢":12457,"Ġgamesmanship":12458,"rolls":12459,"Ġalienate":12460,"Ġalienating":12461,"Ġjolt":12462,"Ġjolting":12463,"Ġjolts":12464,"Ġunease":12465,"Ġuneasily":12466,"Ġuneventful":12467,"Ġscarlet":12468,"Ġspookiness":12469,"Ġtricky":12470,"Ġadolescence":12471,"Ġmusicals":12472,"Ġaccepting":12473,"Ġacceptance":12474,"Ġconsiders":12475,"Ġmaintaining":12476,"Ġsleeping":12477,"Ġtiresomely":12478,"having":12479,"Ġtourists":12480,"Ġopts":12481,"Ġoption":12482,"Ġmasquer":12483,"Ġmasala":12484,"Ġmillenn":12485,"Ġwryly":12486,"Ġstirs":12487,"Ġstretch":12488,"Ġneglig":12489,"Ġnegotiate":12490,"Ġconceal":12491,"Ġplods":12492,"Ġcompassionate":12493,"Ġcontrast":12494,"Ġirreve":12495,"Ġirrevoc":12496,"Ġsignificantly":12497,"Ġdescribes":12498,"suffering":12499,"Ġhideously":12500,"Ġresemblance":12501,"Ġsunk":12502,"Ġsunset":12503,"Ġjerking":12504,"Ġliberation":12505,"Ġorders":12506,"Ġteachers":12507,"Ġphysically":12508,"Ġ1995":12509,"Ġ1998":12510,"Ġ1999":12511,"Ġineptly":12512,"Ġprofessionals":12513,"hugh":12514,"miyazaki":12515,"pretty":12516,"supposed":12517,"Ġ72":12518,"Ġtenor":12519,"Ġtenacious":12520,"Ġtacky":12521,"Ġmichele":12522,"Ġpushing":12523,"Ġgeriat":12524,"vernier":12525,"Ġaspires":12526,"Ġvolume":12527,"Ġvolumes":12528,"Ġvulgarity":12529,"Ġclimate":12530,"Ġoverwhelms":12531,"Ġoverwhelmed":12532,"Ġgrimly":12533,"Ġreflects":12534,"Ġ1952":12535,"production":12536,"Ġdiversity":12537,"Ġembracing":12538,"Ġsplendor":12539,"please":12540,"Ġtoro":12541,"Ġtorpor":12542,"Ġtormented":12543,"represents":12544,"Ġcameo":12545,"Ġcameos":12546,"Ġhayek":12547,"Ġanalytical":12548,"Ġsuspected":12549,"americans":12550,"until":12551,"Ġdeceptions":12552,"Ġvampires":12553,"Ġremembers":12554,"Ġremaining":12555,"Ġ110":12556,"Ġcruelly":12557,"Ġtremors":12558,"Ġmotivation":12559,"Ġnostalgic":12560,"basement":12561,"Ġmentality":12562,"Ġbedroom":12563,"Ġcategor":12564,"originality":12565,"Ġpileup":12566,"Ġlosers":12567,"Ġgrownups":12568,"Ġcomplain":12569,"Ġchicken":12570,"Ġunwieldy":12571,"Ġsolely":12572,"Ġrecycles":12573,"Ġbackgrounds":12574,"Ġexplosive":12575,"Ġcrackle":12576,"Ġ1980":12577,"Ġ1982":12578,"Ġ1984":12579,"Ġpaintings":12580,"Ġconditioning":12581,"Ġknockaround":12582,"barney":12583,"dogtown":12584,"friday":12585,"friends":12586,"fests":12587,"Ġmasses":12588,"Ġmassive":12589,"Ġbounces":12590,"Ġbartlett":12591,"Ġbaffled":12592,"Ġwiseman":12593,"Ġwondered":12594,"Ġwondrous":12595,"Ġthreatens":12596,"Ġhanging":12597,"Ġlilia":12598,"Ġlucy":12599,"Ġluckiest":12600,"Ġelli":12601,"Ġjulia":12602,"Ġhawaiian":12603,"Ġruined":12604,"Ġmythology":12605,"Ġminimum":12606,"Ġobscured":12607,"Ġappropriately":12608,"Ġdistracting":12609,"Ġdistracted":12610,"Ġdistinguishes":12611,"Ġresponsibility":12612,"Ġinfluences":12613,"Ġinfluenced":12614,"called":12615,"Ġtemptation":12616,"Ġavailable":12617,"Ġfacial":12618,"Ġmounted":12619,"Ġmountain":12620,"Ġboobs":12621,"Ġcuisine":12622,"Ġanthrop":12623,"Ġensn":12624,"Ġensures":12625,"Ġscattershot":12626,"Ġpressure":12627,"Ġimmediacy":12628,"Ġclothing":12629,"Ġblowing":12630,"Ġresistance":12631,"Ġafrica":12632,"Ġreligion":12633,"Ġsatiric":12634,"Ġbrooms":12635,"Ġhandsomely":12636,"Ġportrayed":12637,"Ġportrayals":12638,"Ġwitnessed":12639,"Ġassassination":12640,"Ġjournalist":12641,"Ġinevitably":12642,"Ġdetermine":12643,"Ġsacrificing":12644,"Ġdickensian":12645,"hashiguch":12646,"slap":12647,"witless":12648,"Ġtendency":12649,"Ġtucker":12650,"Ġolivier":12651,"Ġeconomic":12652,"Ġgosford":12653,"Ġratliff":12654,"Ġleonard":12655,"Ġupdate":12656,"Ġupdated":12657,"Ġartifact":12658,"Ġcrimen":12659,"Ġawareness":12660,"Ġcleaner":12661,"Ġironies":12662,"Ġcalculating":12663,"Ġsubstitutes":12664,"Ġsymbols":12665,"Ġsophomore":12666,"droppingly":12667,"demme":12668,"frills":12669,"picious":12670,"Ġtonal":12671,"Ġtemper":12672,"Ġsarah":12673,"Ġodor":12674,"Ġcathartic":12675,"Ġcorners":12676,"Ġpython":12677,"Ġpadre":12678,"Ġpadding":12679,"Ġpadded":12680,"stephen":12681,"Ġsuitably":12682,"Ġscrewed":12683,"Ġconsequence":12684,"Ġkillers":12685,"Ġsociology":12686,"Ġdramatization":12687,"Ġcocky":12688,"Ġcockettes":12689,"Ġdepicts":12690,"Ġbordering":12691,"Ġconvincingly":12692,"Ġcontemplation":12693,"Ġexistentialism":12694,"Ġcontradiction":12695,"Ġinhabitants":12696,"Ġfundamental":12697,"aaaa":12698,"beneath":12699,"brosnan":12700,"busting":12701,"finally":12702,"Ġtattered":12703,"Ġauteur":12704,"Ġsneaks":12705,"Ġseldom":12706,"Ġfingers":12707,"Ġbombastic":12708,"Ġwounds":12709,"Ġtolerate":12710,"Ġtolerable":12711,"Ġtolerance":12712,"Ġlunatic":12713,"robin":12714,"Ġanchor":12715,"Ġsuddenly":12716,"Ġjanuary":12717,"Ġjacques":12718,"Ġseparation":12719,"Ġexuberant":12720,"Ġshrugging":12721,"Ġunbelievably":12722,"Ġconjured":12723,"Ġconcoct":12724,"Ġprevails":12725,"Ġvastly":12726,"Ġperpetual":12727,"Ġperpetrated":12728,"Ġqueasy":12729,"Ġsubplot":12730,"Ġcontroversial":12731,"awareness":12732,"confessions":12733,"Ġapplies":12734,"Ġguarantee":12735,"Ġexperimentation":12736,"Ġdeliberately":12737,"Ġparanoid":12738,"Ġbridget":12739,"Ġerrors":12740,"Ġiconoclastic":12741,"Ġgimmicky":12742,"Ġenvironmental":12743,"Ġphenomenon":12744,"Ġspontaneous":12745,"fallon":12746,"godard":12747,"passer":12748,"saic":12749,"tarantino":12750,"Ġtangled":12751,"Ġtreading":12752,"Ġapted":12753,"Ġskewed":12754,"refere":12755,"Ġbothered":12756,"Ġcyber":12757,"Ġdollar":12758,"Ġinsecurity":12759,"Ġgleefully":12760,"Ġgleaned":12761,"Ġgiggle":12762,"Ġreliable":12763,"Ġreliance":12764,"Ġchoreography":12765,"Ġseptember":12766,"Ġenhance":12767,"Ġenhances":12768,"Ġkosminsky":12769,"Ġkenneth":12770,"Ġorganic":12771,"Ġfleshed":12772,"Ġundercuts":12773,"Ġparticipants":12774,"Ġdefeated":12775,"Ġdefeats":12776,"Ġbarrels":12777,"Ġcondescension":12778,"Ġcollaborators":12779,"Ġdestructive":12780,"Ġyawning":12781,"Ġheartbreakingly":12782,"Ġschmaltz":12783,"Ġmichelle":12784,"absorbed":12785,"absorption":12786,"murderous":12787,"Ġhitchcockian":12788,"buy":12789,"drawn":12790,"destr":12791,"mattei":12792,"ozpetek":12793,"wallace":12794,"Ġfiend":12795,"Ġfuriously":12796,"Ġcarnage":12797,"Ġnicest":12798,"Ġnutty":12799,"Ġgallo":12800,"Ġsterling":12801,"Ġchapter":12802,"Ġabbass":12803,"Ġabundant":12804,"Ġdoorstep":12805,"Ġconcentrates":12806,"Ġkathy":12807,"Ġrumination":12808,"Ġvicious":12809,"Ġsprink":12810,"Ġimplicit":12811,"Ġimplications":12812,"Ġoverstuffed":12813,"Ġnewcomers":12814,"Ġtravails":12815,"Ġtravesty":12816,"Ġresources":12817,"Ġrecreates":12818,"Ġindicates":12819,"Ġindulgence":12820,"Ġoppressively":12821,"Ġneglected":12822,"Ġarchitecture":12823,"Ġprincipals":12824,"bogdanovich":12825,"creep":12826,"oepp":12827,"simpl":12828,"turner":12829,"Ġtablo":12830,"Ġtissue":12831,"Ġtissues":12832,"Ġfondness":12833,"Ġbankrupt":12834,"Ġdowntown":12835,"Ġhippie":12836,"Ġtoothless":12837,"Ġmolly":12838,"Ġstifling":12839,"Ġstalker":12840,"Ġrenner":12841,"changing":12842,"Ġanarchic":12843,"Ġbuttons":12844,"Ġchaiken":12845,"Ġliza":12846,"Ġlizard":12847,"Ġknee":12848,"Ġknees":12849,"Ġplatitudes":12850,"Ġvacuum":12851,"Ġvulnerable":12852,"Ġvulnerability":12853,"Ġoutsiders":12854,"Ġmanifesto":12855,"Ġarthouse":12856,"Ġadrenaline":12857,"Ġentranced":12858,"Ġblurry":12859,"Ġovertly":12860,"Ġracist":12861,"Ġracism":12862,"Ġraymond":12863,"Ġimpulse":12864,"Ġimpulses":12865,"Ġcharacteristically":12866,"Ġwarrior":12867,"Ġwarriors":12868,"Ġinsufferable":12869,"Ġincarnation":12870,"Ġindifferent":12871,"Ġindifference":12872,"Ġmonumental":12873,"Ġunfolding":12874,"Ġnormally":12875,"Ġantonia":12876,"Ġopposite":12877,"Ġunexplored":12878,"Ġlimitations":12879,"Ġdisturbingly":12880,"Ġcandidate":12881,"Ġallegedly":12882,"Ġhealthy":12883,"Ġunrelenting":12884,"Ġunrelentingly":12885,"Ġaccompanying":12886,"Ġtumultuous":12887,"credit":12888,"captures":12889,"pressible":12890,"windtalkers":12891,"Ġigby":12892,"Ġtactics":12893,"Ġayurved":12894,"Ġauschwit":12895,"Ġaplomb":12896,"Ġastron":12897,"Ġaustralia":12898,"Ġalexandre":12899,"rehears":12900,"Ġfifteen":12901,"Ġcrippled":12902,"Ġcrammed":12903,"Ġwallowing":12904,"Ġpompous":12905,"aliyah":12906,"Ġhubert":12907,"Ġinquisitive":12908,"Ġlurking":12909,"Ġninety":12910,"Ġeisenstein":12911,"Ġgamble":12912,"Ġjudgment":12913,"Ġjoseph":12914,"Ġintolerable":12915,"Ġscandal":12916,"Ġconscience":12917,"Ġruthless":12918,"Ġlethar":12919,"Ġpredicament":12920,"Ġsporadically":12921,"Ġamaro":12922,"Ġlobby":12923,"Ġarmenian":12924,"Ġivans":12925,"Ġadvertised":12926,"combines":12927,"Ġcomprehension":12928,"Ġcannibal":12929,"Ġoverlooked":12930,"Ġslippery":12931,"Ġriffs":12932,"Ġnewfangled":12933,"Ġcontenders":12934,"Ġcoincidence":12935,"exciting":12936,"Ġextremes":12937,"Ġbubbles":12938,"Ġmargarita":12939,"Ġswashbuckling":12940,"Ġbravura":12941,"Ġparallels":12942,"Ġsummertime":12943,"Ġdrunken":12944,"Ġcapitalize":12945,"Ġautomatically":12946,"Ġvirtuosity":12947,"Ġhomosexuality":12948,"Ġpuppet":12949,"Ġpanoramic":12950,"Ġhallucinatory":12951,"secretary":12952,"Ġfabulous":12953,"Ġconspicuous":12954,"Ġnarcissism":12955,"Ġwidowmaker":12956,"Ġdiscernible":12957,"Ġsabotaged":12958,"congratulatory":12959,"Ġdisintegrating":12960,"bodied":12961,"camera":12962,"lawrence":12963,"mouthed":12964,"muller":12965,"soderbergh":12966,"takers":12967,"Ġtavernier":12968,"Ġtinseltown":12969,"Ġsaucy":12970,"Ġozpetek":12971,"Ġovere":12972,"Ġcuban":12973,"Ġpryor":12974,"Ġprism":12975,"Ġpiercing":12976,"Ġdarling":12977,"Ġdizzying":12978,"Ġhorses":12979,"Ġtolkien":12980,"Ġinadvertently":12981,"Ġlolita":12982,"Ġlonely":12983,"Ġelder":12984,"Ġeastern":12985,"Ġgadgets":12986,"Ġgantz":12987,"Ġstallone":12988,"Ġresearch":12989,"several":12990,"Ġaltman":12991,"agenarian":12992,"Ġenveloping":12993,"Ġexterior":12994,"Ġuncovers":12995,"Ġunmistakable":12996,"Ġunrealized":12997,"Ġunknowable":12998,"Ġschemes":12999,"Ġkingsley":13000,"Ġkitsch":13001,"Ġrhetoric":13002,"Ġpreceded":13003,"Ġprejudice":13004,"Ġspiked":13005,"Ġperilously":13006,"Ġarbitrary":13007,"Ġadroitly":13008,"Ġraucous":13009,"Ġagitprop":13010,"Ġcrushingly":13011,"Ġholofcener":13012,"Ġawakening":13013,"Ġdepraved":13014,"Ġpronounce":13015,"Ġhistorically":13016,"Ġhistrionics":13017,"Ġcaricatures":13018,"Ġmonstrous":13019,"Ġanimatronic":13020,"Ġswaggering":13021,"Ġzombie":13022,"Ġepiphany":13023,"Ġstrands":13024,"Ġunderestimated":13025,"Ġpsychopathic":13026,"Ġmisogynistic":13027,"Ġgriffiths":13028,"Ġanticipated":13029,"Ġsuffocating":13030,"Ġinfinitely":13031,"Ġcorruption":13032,"Ġinstitution":13033,"Ġsymmetry":13034,"Ġgrandiosity":13035,"Ġimprovisation":13036,"Ġfulfill":13037,"Ġphotographs":13038,"Ġlaudable":13039,"Ġturntabl":13040,"Ġinexperienced":13041,"Ġmasochism":13042,"Ġrecognizable":13043,"Ġcrossover":13044,"Ġrelevance":13045,"Ġlukewarm":13046,"Ġvoyeuristic":13047,"Ġhypocrisy":13048,"blessed":13049,"catholic":13050,"curdling":13051,"euvers":13052,"eventually":13053,"fetched":13054,"frame":13055,"footed":13056,"hoffman":13057,"moore":13058,"nadillo":13059,"praised":13060,"sacrif":13061,"âĢļ":13062,"Ġichi":13063,"Ġxtc":13064,"Ġausterity":13065,"Ġavalanc":13066,"Ġsledgeham":13067,"Ġoodles":13068,"enigma":13069,"enormously":13070,"Ġbanderas":13071,"Ġbicycle":13072,"Ġcunning":13073,"Ġcustom":13074,"Ġcumbersome":13075,"Ġwesley":13076,"Ġwertmuller":13077,"onaughey":13078,"Ġpellington":13079,"Ġduration":13080,"Ġdilemma":13081,"Ġdiaries":13082,"Ġdoofus":13083,"Ġdaughters":13084,"alysis":13085,"Ġhindsight":13086,"Ġhodgepodge":13087,"Ġtootsie":13088,"Ġinimitable":13089,"Ġinquiry":13090,"Ġinarticulate":13091,"Ġinadequ":13092,"Ġinappropriate":13093,"Ġnudity":13094,"Ġethereal":13095,"Ġgiann":13096,"Ġgilliam":13097,"Ġgarcia":13098,"Ġgaudy":13099,"Ġreginald":13100,"adaptation":13101,"Ġforgiveness":13102,"Ġchocolate":13103,"threatening":13104,"thoroughly":13105,"Ġjacobson":13106,"Ġjanklowicz":13107,"Ġjettis":13108,"Ġjelinek":13109,"aglia":13110,"Ġencompass":13111,"Ġdelectable":13112,"Ġunendurable":13113,"Ġunimpressive":13114,"Ġunrepent":13115,"Ġunsympathetic":13116,"Ġkooky":13117,"Ġkinky":13118,"Ġkubrick":13119,"Ġsopranos":13120,"Ġrueful":13121,"indulgence":13122,"terrific":13123,"Ġvaudeville":13124,"Ġperfunctory":13125,"Ġordeal":13126,"Ġclaptrap":13127,"Ġclouds":13128,"Ġoutweigh":13129,"Ġoutbursts":13130,"manipulative":13131,"Ġwebsite":13132,"acoyannis":13133,"Ġwhatsoever":13134,"Ġmegaplex":13135,"Ġsubstandard":13136,"Ġimpossibly":13137,"Ġotherworldly":13138,"Ġpeploe":13139,"Ġresolutions":13140,"Ġcollinwood":13141,"Ġbelgium":13142,"executed":13143,"Ġrepugn":13144,"Ġsweetheart":13145,"Ġespionage":13146,"Ġelegiac":13147,"Ġundistinguished":13148,"Ġpotboiler":13149,"Ġredgrave":13150,"Ġcamaraderie":13151,"Ġcalifornia":13152,"Ġnonjudgment":13153,"Ġtestimonial":13154,"Ġwednesday":13155,"Ġingratiating":13156,"Ġjuwanna":13157,"Ġturbulent":13158,"Ġprivileged":13159,"Ġnegligible":13160,"supposedly":13161,"Ġgeriatric":13162,"hashiguchi":13163,"Ġayurveda":13164,"Ġauschwitz":13165,"12":13166,"15":13167,"20":13168,"25":13169,"aqu":13170,"aults":13171,"aunt":13172,"bin":13173,"bou":13174,"bic":13175,"bow":13176,"bill":13177,"bally":13178,"bitt":13179,"bick":13180,"breat":13181,"bably":13182,"bits":13183,"bian":13184,"biting":13185,"bitten":13186,"bags":13187,"burd":13188,"bender":13189,"brown":13190,"bright":13191,"bury":13192,"burns":13193,"bacher":13194,"bending":13195,"benn":13196,"birth":13197,"billed":13198,"buddy":13199,"binoche":13200,"cen":13201,"cri":13202,"cand":13203,"cend":13204,"cage":13205,"cents":13206,"case":13207,"cats":13208,"catching":13209,"cuit":13210,"calling":13211,"coppola":13212,"cantet":13213,"cipherable":13214,"cattaneo":13215,"cacoyannis":13216,"dv":13217,"dre":13218,"dou":13219,"dar":13220,"det":13221,"dol":13222,"dad":13223,"dain":13224,"dong":13225,"dance":13226,"dingly":13227,"doc":13228,"div":13229,"duck":13230,"daring":13231,"dorm":13232,"dancing":13233,"deter":13234,"eg":13235,"eed":13236,"east":13237,"eved":13238,"einated":13239,"epless":13240,"eousness":13241,"easily":13242,"fk":13243,"fal":13244,"fif":13245,"fur":13246,"fant":13247,"fres":13248,"fine":13249,"fren":13250,"fting":13251,"fying":13252,"fresh":13253,"fkin":13254,"frey":13255,"fontaine":13256,"gm":13257,"gic":13258,"gers":13259,"gag":13260,"give":13261,"gos":13262,"gram":13263,"gical":13264,"gated":13265,"gling":13266,"gles":13267,"gates":13268,"gently":13269,"gio":13270,"gantly":13271,"gorge":13272,"grown":13273,"gaghan":13274,"gazing":13275,"garde":13276,"hay":13277,"had":13278,"hist":13279,"hate":13280,"hind":13281,"hits":13282,"haw":13283,"hib":13284,"holl":13285,"hitting":13286,"hips":13287,"hmm":13288,"houri":13289,"iu":13290,"iarly":13291,"iÃ£ÆĴÃ¢":13292,"jon":13293,"jar":13294,"jag":13295,"jour":13296,"japan":13297,"jagger":13298,"jeff":13299,"kat":13300,"kur":13301,"kies":13302,"kah":13303,"kung":13304,"kicks":13305,"killing":13306,"khar":13307,"kwan":13308,"lis":13309,"lou":13310,"loo":13311,"last":13312,"late":13313,"lap":13314,"lind":13315,"lies":13316,"lical":13317,"lative":13318,"liss":13319,"laced":13320,"loose":13321,"lathan":13322,"liter":13323,"lacking":13324,"mc":13325,"mu":13326,"mut":13327,"mag":13328,"must":13329,"mere":13330,"mong":13331,"mine":13332,"mac":13333,"mother":13334,"mination":13335,"mÃ£ÆĴÃ¢":13336,"moon":13337,"mouse":13338,"miche":13339,"magg":13340,"mike":13341,"metic":13342,"maint":13343,"nis":13344,"nen":13345,"non":13346,"nom":13347,"nation":13348,"nity":13349,"nie":13350,"name":13351,"narr":13352,"national":13353,"nasty":13354,"ncing":13355,"nichol":13356,"norton":13357,"nelson":13358,"nik":13359,"nettelbeck":13360,"nolan":13361,"nitzler":13362,"nui":13363,"oit":13364,"oen":13365,"oct":13366,"oast":13367,"ores":13368,"overs":13369,"oque":13370,"oedekerk":13371,"phe":13372,"pes":13373,"pil":13374,"pap":13375,"pard":13376,"pres":13377,"port":13378,"pull":13379,"pia":13380,"porn":13381,"paste":13382,"purp":13383,"person":13384,"pressed":13385,"prep":13386,"paid":13387,"pray":13388,"pilot":13389,"psych":13390,"qi":13391,"qoy":13392,"rint":13393,"rash":13394,"rÃ£ÆĴÃ¢":13395,"range":13396,"rub":13397,"riment":13398,"rously":13399,"rational":13400,"ruly":13401,"sun":13402,"sill":13403,"sur":13404,"sust":13405,"sour":13406,"sue":13407,"sade":13408,"same":13409,"sav":13410,"sub":13411,"suck":13412,"sque":13413,"sitting":13414,"saken":13415,"sinks":13416,"silly":13417,"skins":13418,"soul":13419,"skill":13420,"summer":13421,"snotes":13422,"tat":13423,"tou":13424,"tul":13425,"tag":13426,"ties":13427,"tep":13428,"tish":13429,"tte":13430,"tub":13431,"tends":13432,"taste":13433,"tric":13434,"tied":13435,"turns":13436,"teld":13437,"trying":13438,"tinted":13439,"uj":13440,"uan":13441,"uent":13442,"upt":13443,"uph":13444,"ugu":13445,"uyi":13446,"uagenarian":13447,"var":13448,"vas":13449,"vich":13450,"vise":13451,"vamp":13452,"vaged":13453,"wil":13454,"woo":13455,"wire":13456,"were":13457,"wny":13458,"wide":13459,"watch":13460,"wife":13461,"wink":13462,"wash":13463,"wier":13464,"winds":13465,"warned":13466,"woman":13467,"xon":13468,"xposed":13469,"yas":13470,"yak":13471,"ype":13472,"yingly":13473,"yss":13474,"zer":13475,"zor":13476,"zan":13477,"zil":13478,"zag":13479,"zant":13480,"zman":13481,"zac":13482,"zhang":13483,"zbick":13484,"Â¦":13485,"Ġire":13486,"Ġick":13487,"Ġ00":13488,"Ġvenge":13489,"Ġilk":13490,"Ġting":13491,"Ġtut":13492,"Ġtad":13493,"Ġtill":13494,"Ġtag":13495,"Ġtak":13496,"Ġtark":13497,"Ġtian":13498,"Ġtree":13499,"Ġtup":13500,"Ġtics":13501,"Ġtier":13502,"Ġtank":13503,"Ġturd":13504,"Ġturp":13505,"Ġtai":13506,"Ġtanks":13507,"Ġtiring":13508,"Ġtenth":13509,"Ġax":13510,"Ġais":13511,"Ġara":13512,"Ġaver":13513,"Ġace":13514,"Ġaching":13515,"Ġaura":13516,"Ġaaliyah":13517,"inv":13518,"inth":13519,"inity":13520,"infor":13521,"inces":13522,"inating":13523,"inantly":13524,"instein":13525,"inquent":13526,"invol":13527,"inspiring":13528,"heit":13529,"heor":13530,"heres":13531,"Ġsel":13532,"Ġsire":13533,"Ġsap":13534,"Ġsack":13535,"Ġsult":13536,"Ġsang":13537,"Ġsapp":13538,"Ġsarc":13539,"Ġsending":13540,"rees":13541,"revi":13542,"reet":13543,"reass":13544,"releas":13545,"rete":13546,"reced":13547,"requently":13548,"reput":13549,"reyes":13550,"remarkable":13551,"reinfor":13552,"Ġom":13553,"Ġost":13554,"Ġoun":13555,"Ġoily":13556,"Ġomin":13557,"Ġoops":13558,"eringly":13559,"erily":13560,"erner":13561,"erotic":13562,"erring":13563,"erior":13564,"erbic":13565,"itis":13566,"itage":13567,"itism":13568,"itially":13569,"itionally":13570,"itching":13571,"itchy":13572,"itability":13573,"iteness":13574,"itimate":13575,"Ġtherape":13576,"Ġfen":13577,"Ġfel":13578,"Ġfas":13579,"Ġfus":13580,"Ġfand":13581,"Ġfud":13582,"Ġfog":13583,"Ġfang":13584,"Ġfled":13585,"Ġfitting":13586,"Ġfuse":13587,"Ġfrown":13588,"Ġfury":13589,"Ġflex":13590,"Ġfaint":13591,"Ġfumbles":13592,"Ġfidelity":13593,"Ġfooled":13594,"Ġfaux":13595,"isp":13596,"isation":13597,"isure":13598,"isical":13599,"isode":13600,"iscover":13601,"enh":13602,"ench":13603,"enant":13604,"enact":13605,"enger":13606,"enberg":13607,"enuous":13608,"energy":13609,"Ġmut":13610,"Ġmul":13611,"Ġmir":13612,"Ġmire":13613,"Ġmast":13614,"Ġmate":13615,"Ġmand":13616,"Ġmall":13617,"Ġmear":13618,"ĠmÃ£ÆĴÃ¢":13619,"Ġmason":13620,"Ġmouse":13621,"Ġmacy":13622,"Ġmunch":13623,"Ġmirth":13624,"Ġmama":13625,"Ġmorton":13626,"Ġmaze":13627,"Ġmasculine":13628,"Ġmgm":13629,"ati":13630,"atom":13631,"atical":13632,"athed":13633,"atement":13634,"ateness":13635,"ativeness":13636,"Ġbat":13637,"Ġbum":13638,"Ġbrom":13639,"Ġbud":13640,"Ġbind":13641,"Ġbick":13642,"Ġbile":13643,"Ġbens":13644,"Ġbish":13645,"Ġbatch":13646,"Ġbaw":13647,"Ġbrow":13648,"Ġbars":13649,"Ġbaz":13650,"Ġbates":13651,"Ġbarn":13652,"ĠbÃ£ÆĴÃ¢":13653,"Ġboll":13654,"Ġbows":13655,"Ġbush":13656,"Ġbags":13657,"Ġbien":13658,"Ġbung":13659,"Ġbands":13660,"Ġbudd":13661,"Ġbirth":13662,"Ġbinks":13663,"Ġbumps":13664,"Ġbille":13665,"Ġbryan":13666,"Ġbrett":13667,"Ġbisset":13668,"Ġced":13669,"Ġcab":13670,"Ġcag":13671,"Ġcure":13672,"Ġcos":13673,"Ġcake":13674,"Ġcres":13675,"Ġcine":13676,"Ġcary":13677,"Ġcower":13678,"Ġcows":13679,"Ġcott":13680,"Ġcrossing":13681,"Ġcudd":13682,"Ġcreek":13683,"Ġcodes":13684,"Ġcatherine":13685,"Ġwen":13686,"Ġwing":13687,"Ġwan":13688,"Ġwally":13689,"Ġwire":13690,"Ġwate":13691,"Ġwand":13692,"Ġwitt":13693,"Ġwine":13694,"Ġwary":13695,"Ġwint":13696,"Ġwade":13697,"Ġwink":13698,"Ġwiel":13699,"Ġwives":13700,"Ġwanders":13701,"Ġwerner":13702,"inges":13703,"ingent":13704,"ingenuous":13705,"esy":13706,"esky":13707,"especially":13708,"nday":13709,"oral":13710,"orse":13711,"oration":13712,"orality":13713,"onial":13714,"onium":13715,"ouvel":13716,"oulish":13717,"oundering":13718,"Ġpom":13719,"Ġpab":13720,"Ġpies":13721,"Ġpour":13722,"Ġpiz":13723,"Ġpint":13724,"Ġpiv":13725,"Ġpiss":13726,"Ġparr":13727,"Ġpics":13728,"Ġpaste":13729,"Ġpug":13730,"Ġpump":13731,"Ġpender":13732,"Ġposes":13733,"Ġpork":13734,"Ġpacks":13735,"Ġpix":13736,"Ġpenn":13737,"Ġpbs":13738,"Ġpipe":13739,"Ġpinn":13740,"Ġpesky":13741,"Ġoft":13742,"anie":13743,"anky":13744,"anities":13745,"anze":13746,"anley":13747,"analy":13748,"anemic":13749,"animated":13750,"Ġding":13751,"Ġdor":13752,"Ġdic":13753,"Ġdent":13754,"Ġdab":13755,"Ġdough":13756,"Ġdour":13757,"Ġdiz":13758,"Ġdating":13759,"Ġdice":13760,"Ġdip":13761,"Ġdense":13762,"Ġdits":13763,"Ġdrow":13764,"Ġduck":13765,"Ġdera":13766,"Ġdank":13767,"Ġdump":13768,"Ġdances":13769,"Ġdrid":13770,"Ġdorm":13771,"Ġdared":13772,"Ġdumber":13773,"Ġdashing":13774,"Ġdonna":13775,"Ġdips":13776,"Ġdumm":13777,"Ġdresses":13778,"Ġdrenched":13779,"Ġditched":13780,"Ġdulled":13781,"Ġdazed":13782,"arm":13783,"aroo":13784,"arper":13785,"arÃ£ÆĴÃ¢":13786,"arches":13787,"armen":13788,
[...]
